<unk>	0
<s>	0
</s>	0
.	-3.0239
,	-3.32297
▁the	-3.35775
▁to	-3.72094
▁and	-3.86659
▁a	-3.95429
▁of	-3.97443
s	-4.19791
▁in	-4.38842
▁I	-4.4991
▁is	-4.62963
▁that	-4.72914
▁you	-4.73943
▁for	-4.74851
’	-4.8774
▁it	-4.93632
'	-4.97795
▁on	-5.1058
▁with	-5.10779
-	-5.13427
▁be	-5.20933
▁are	-5.27229
▁have	-5.36771
t	-5.37865
▁your	-5.40417
▁this	-5.46303
▁as	-5.4691
▁was	-5.52769
▁The	-5.56492
▁or	-5.61525
▁at	-5.6557
▁can	-5.66217
▁not	-5.67124
▁will	-5.7474
▁from	-5.76687
▁we	-5.81724
▁an	-5.8493
▁but	-5.87898
▁my	-5.9147
▁by	-5.9315
▁all	-5.97017
▁they	-5.98219
▁“	-5.99292
▁(	-6.07371
▁about	-6.09711
▁more	-6.09898
▁has	-6.10394
▁one	-6.11755
▁"	-6.15002
▁so	-6.1534
▁their	-6.17455
▁he	-6.18285
▁out	-6.20388
▁up	-6.2349
▁It	-6.23494
▁our	-6.25194
▁time	-6.29073
:	-6.31255
▁like	-6.3313
▁me	-6.34956
▁his	-6.36936
▁if	-6.38907
▁do	-6.41053
▁just	-6.41235
▁what	-6.42104
▁been	-6.43024
▁who	-6.43285
m	-6.44578
▁there	-6.46695
▁would	-6.479
▁which	-6.48526
▁had	-6.5084
▁when	-6.51352
▁get	-6.51836
▁some	-6.51913
▁them	-6.52389
)	-6.58266
▁people	-6.58856
▁This	-6.59022
▁We	-6.60067
▁her	-6.61422
re	-6.6251
▁other	-6.633
▁also	-6.65945
...	-6.67461
▁were	-6.67986
▁than	-6.68361
▁said	-6.72842
▁any	-6.73577
d	-6.75011
▁You	-6.75237
▁how	-6.76442
▁no	-6.76786
▁make	-6.78389
▁know	-6.78434
▁A	-6.78739
▁into	-6.7941
?	-6.80266
▁very	-6.82146
▁new	-6.83586
▁If	-6.83824
!	-6.8528
▁only	-6.87069
▁over	-6.87998
▁she	-6.88116
ve	-6.88459
▁don	-6.88492
▁good	-6.89634
ing	-6.8994
▁In	-6.90022
▁us	-6.9032
▁work	-6.91645
▁way	-6.94602
▁see	-6.95879
▁may	-6.96508
▁need	-6.97406
▁well	-6.97473
▁much	-6.9762
▁first	-7.01279
▁most	-7.01679
▁these	-7.02321
▁could	-7.0234
▁now	-7.0238
▁years	-7.04597
▁many	-7.04924
▁think	-7.05682
ll	-7.05772
▁back	-7.0586
▁really	-7.10497
▁even	-7.10932
▁use	-7.11268
▁want	-7.11331
▁should	-7.11504
▁here	-7.11643
▁because	-7.12315
▁-	-7.1283
/	-7.13027
ed	-7.13288
▁He	-7.14701
▁year	-7.15064
▁then	-7.15067
I	-7.15839
”	-7.1678
▁–	-7.17451
▁two	-7.17815
▁take	-7.18077
▁him	-7.18549
▁day	-7.18984
▁go	-7.19099
▁help	-7.19254
▁But	-7.19932
▁And	-7.21509
▁its	-7.22517
"	-7.22602
▁through	-7.23396
▁great	-7.2379
▁after	-7.23982
▁where	-7.24805
▁being	-7.24996
▁those	-7.27738
▁right	-7.28183
▁before	-7.28263
▁going	-7.29687
▁too	-7.31665
▁such	-7.34478
▁find	-7.34799
▁best	-7.36301
▁There	-7.36418
;	-7.37106
▁am	-7.3725
▁still	-7.37757
▁life	-7.38057
▁made	-7.39171
▁down	-7.43648
▁They	-7.43843
▁things	-7.44279
▁around	-7.44728
▁off	-7.44735
▁information	-7.45089
▁own	-7.45458
▁last	-7.45823
▁home	-7.47568
▁look	-7.48336
▁love	-7.48397
▁long	-7.48613
▁something	-7.48627
▁little	-7.49132
▁few	-7.49809
).	-7.5169
▁world	-7.53091
▁same	-7.55149
▁always	-7.55232
▁every	-7.55598
▁say	-7.55725
▁lot	-7.56166
▁So	-7.56744
▁did	-7.57558
▁sure	-7.5812
▁used	-7.58144
▁while	-7.58305
▁business	-7.58323
▁come	-7.58774
▁each	-7.60199
,”	-7.60371
▁never	-7.61374
▁That	-7.618
▁better	-7.62563
▁For	-7.62646
▁As	-7.62967
▁place	-7.63112
▁got	-7.66862
▁might	-7.67843
▁part	-7.68353
▁different	-7.69224
ly	-7.70055
▁must	-7.74744
▁.	-7.75668
S	-7.76582
▁thing	-7.76759
a	-7.76839
▁next	-7.77513
▁She	-7.77972
er	-7.78858
▁again	-7.79528
▁both	-7.79783
▁feel	-7.79986
▁without	-7.80029
e	-7.80126
▁another	-7.80183
▁high	-7.8034
▁2	-7.81362
▁When	-7.81488
▁i	-7.8156
y	-7.81588
▁give	-7.8167
▁family	-7.8259
▁keep	-7.83363
▁	-7.8398
▁found	-7.85365
▁experience	-7.85799
▁didn	-7.86376
▁does	-7.87059
▁since	-7.87224
▁able	-7.8745
▁days	-7.87472
th	-7.87602
▁end	-7.87623
▁site	-7.88201
▁3	-7.88203
▁My	-7.89048
▁put	-7.89072
▁week	-7.89115
▁post	-7.89225
▁between	-7.89816
▁looking	-7.90059
▁three	-7.90111
,"	-7.9113
▁important	-7.91285
▁free	-7.92005
▁away	-7.92326
▁using	-7.94093
▁set	-7.94423
in	-7.94875
▁To	-7.95434
▁...	-7.95457
▁number	-7.95463
▁under	-7.95869
▁company	-7.96194
▁during	-7.96316
▁service	-7.96439
▁start	-7.96591
▁why	-7.9731
▁read	-7.97638
▁available	-7.98413
▁money	-7.99
▁working	-7.99867
▁enough	-8.01081
▁course	-8.01206
▁making	-8.01845
▁support	-8.01979
▁‘	-8.02232
▁done	-8.02255
▁let	-8.02553
▁team	-8.02651
▁today	-8.02845
▁system	-8.03556
▁getting	-8.03583
▁old	-8.04442
▁point	-8.04446
▁children	-8.04502
▁website	-8.04905
▁school	-8.05101
▁doesn	-8.05136
▁having	-8.05501
▁doing	-8.0557
▁small	-8.05624
▁though	-8.05748
▁ever	-8.05811
▁person	-8.05877
▁change	-8.07648
▁show	-8.07954
▁game	-8.08634
▁actually	-8.09031
▁full	-8.09159
▁hard	-8.09186
▁least	-8.09277
▁book	-8.09527
▁provide	-8.09878
▁thought	-8.10076
▁care	-8.10287
or	-8.108
▁big	-8.1123
▁until	-8.11352
▁No	-8.11609
▁already	-8.11949
▁10	-8.12297
▁case	-8.12575
▁water	-8.12632
▁try	-8.13244
▁far	-8.13629
▁1	-8.13773
▁man	-8.14563
▁often	-8.14659
▁What	-8.15012
▁bit	-8.15037
▁order	-8.15159
▁5	-8.1524
▁says	-8.15814
▁real	-8.15922
▁process	-8.16772
▁health	-8.16938
▁job	-8.17393
▁less	-8.17969
▁'	-8.18131
▁data	-8.18181
▁including	-8.183
▁area	-8.18417
▁someone	-8.18568
▁online	-8.18788
▁All	-8.18896
▁together	-8.19074
▁within	-8.19371
▁easy	-8.1942
▁times	-8.19837
▁blog	-8.19996
▁services	-8.19998
▁possible	-8.20408
▁anything	-8.20579
▁4	-8.21156
▁top	-8.21327
▁food	-8.22354
▁needs	-8.22696
),	-8.23291
▁New	-8.24614
▁car	-8.25298
▁once	-8.25304
▁—	-8.25376
▁call	-8.25575
▁room	-8.25784
▁against	-8.25866
▁public	-8.2626
▁local	-8.26437
▁night	-8.26697
The	-8.26752
▁kind	-8.26968
▁came	-8.26981
▁everything	-8.26986
▁&	-8.27085
▁become	-8.27127
▁One	-8.2738
▁problem	-8.27462
▁believe	-8.27471
com	-8.27565
▁state	-8.27594
▁means	-8.27693
▁name	-8.28547
▁left	-8.28706
▁open	-8.28919
▁others	-8.29683
▁Our	-8.29869
▁fact	-8.30219
▁play	-8.30362
▁live	-8.304
▁students	-8.30426
▁idea	-8.31433
▁With	-8.31757
▁yet	-8.31982
and	-8.32037
▁list	-8.32556
▁mind	-8.32904
▁makes	-8.32944
▁won	-8.33108
▁story	-8.33208
▁months	-8.33357
▁tell	-8.335
▁At	-8.33992
▁per	-8.34289
▁offer	-8.34347
▁please	-8.34409
▁went	-8.34449
▁pretty	-8.34478
▁women	-8.34536
▁These	-8.346
▁past	-8.34692
▁hope	-8.3479
▁probably	-8.34843
▁friends	-8.34865
▁country	-8.35244
▁side	-8.35339
▁house	-8.35492
▁understand	-8.35556
▁hours	-8.35801
▁everyone	-8.35868
n	-8.36434
▁started	-8.36799
▁However	-8.36953
▁group	-8.36995
▁comes	-8.37126
▁quite	-8.37166
▁community	-8.37294
▁ago	-8.37847
▁market	-8.38242
▁future	-8.38722
▁trying	-8.3882
▁hand	-8.3886
▁second	-8.38961
▁seen	-8.39177
▁personal	-8.39252
▁took	-8.39336
▁Your	-8.39694
▁body	-8.39928
▁fun	-8.40238
▁God	-8.40239
i	-8.40335
▁social	-8.40403
▁several	-8.41084
▁head	-8.41325
—	-8.41516
▁whole	-8.41978
▁run	-8.42049
▁large	-8.4218
▁learn	-8.42917
▁share	-8.4334
▁pay	-8.43432
▁quality	-8.43462
A	-8.43598
▁page	-8.43618
▁plan	-8.43933
▁isn	-8.441
▁check	-8.44195
r	-8.44343
▁across	-8.44389
▁After	-8.44611
▁along	-8.44984
▁taking	-8.45012
▁create	-8.45068
▁government	-8.45327
▁project	-8.45792
▁nothing	-8.46057
to	-8.464
▁On	-8.46444
▁told	-8.46683
▁products	-8.4679
▁level	-8.46869
▁power	-8.47026
▁web	-8.47504
▁called	-8.47894
▁program	-8.48036
▁minutes	-8.48484
▁Now	-8.49182
▁million	-8.49399
▁re	-8.49902
the	-8.50133
▁else	-8.50262
▁yourself	-8.50492
▁contact	-8.50563
▁wanted	-8.50939
▁bad	-8.51021
▁matter	-8.51373
▁later	-8.51422
▁seems	-8.51528
We	-8.51636
▁face	-8.51915
▁given	-8.52588
▁research	-8.52637
▁issues	-8.52645
▁almost	-8.52801
▁Thanks	-8.53087
▁based	-8.53265
▁cost	-8.53319
▁example	-8.53403
▁short	-8.53433
▁month	-8.5347
▁questions	-8.5382
▁whether	-8.54224
▁6	-8.54486
▁Not	-8.54503
▁happy	-8.54679
▁writing	-8.54909
▁reason	-8.55111
▁nice	-8.5518
▁U	-8.55481
▁child	-8.55781
▁four	-8.55896
▁Please	-8.56035
▁especially	-8.56145
▁email	-8.56445
▁above	-8.5645
▁asked	-8.56633
▁either	-8.56764
▁line	-8.56791
▁content	-8.56852
▁anyone	-8.57274
▁video	-8.57455
▁visit	-8.57494
▁design	-8.57582
▁event	-8.57797
▁early	-8.57976
▁access	-8.5872
▁coming	-8.58816
▁city	-8.59184
://	-8.5922
▁Thank	-8.59288
▁product	-8.59326
▁insurance	-8.59677
▁soon	-8.59706
▁question	-8.59913
▁young	-8.59997
It	-8.60091
es	-8.60232
▁mean	-8.60601
▁ask	-8.60812
▁form	-8.61019
▁rather	-8.61122
▁price	-8.61206
▁stay	-8.61573
▁etc	-8.61621
▁members	-8.6167
▁20	-8.61687
▁companies	-8.61972
▁Just	-8.62118
▁simply	-8.62155
▁special	-8.62338
▁article	-8.62393
g	-8.62576
▁issue	-8.62689
▁season	-8.62794
▁likely	-8.62875
]	-8.63129
▁development	-8.63373
▁simple	-8.63604
▁close	-8.63616
▁media	-8.63718
▁below	-8.63743
▁couple	-8.63818
▁perfect	-8.64087
▁kids	-8.64432
▁space	-8.64556
ers	-8.64565
▁heart	-8.64594
▁Here	-8.64792
o	-8.64856
▁taken	-8.65306
▁needed	-8.65349
▁buy	-8.65375
▁bring	-8.65437
▁men	-8.6545
▁non	-8.65491
▁industry	-8.65498
▁move	-8.65968
▁myself	-8.66521
▁add	-8.66584
▁forward	-8.66712
▁beautiful	-8.66804
▁talk	-8.66896
▁problems	-8.66982
▁due	-8.67017
▁building	-8.67086
▁words	-8.6744
▁value	-8.67494
▁control	-8.67634
▁enjoy	-8.67707
▁leave	-8.68111
▁[	-8.68131
▁deal	-8.68343
▁While	-8.68605
▁reading	-8.68758
C	-8.68919
▁five	-8.6894
▁Some	-8.68988
▁phone	-8.69024
▁low	-8.69031
▁light	-8.69239
▁weeks	-8.69391
▁living	-8.70005
▁current	-8.70028
▁single	-8.70108
▁include	-8.70188
▁half	-8.70206
▁law	-8.70221
▁age	-8.70246
on	-8.70377
▁true	-8.70416
▁however	-8.70553
▁following	-8.71028
▁music	-8.71229
▁stop	-8.71548
▁Well	-8.72382
▁office	-8.72392
D	-8.72551
▁8	-8.72611
▁wasn	-8.72677
▁7	-8.72726
▁clear	-8.72833
▁training	-8.73029
▁known	-8.73241
▁hear	-8.73434
▁staff	-8.73479
▁friend	-8.73495
▁customers	-8.73503
▁looks	-8.73711
▁type	-8.73784
▁self	-8.74015
▁amount	-8.74114
▁human	-8.75015
▁ways	-8.75277
▁report	-8.76126
▁longer	-8.76258
▁results	-8.76643
▁turn	-8.76847
▁energy	-8.7709
▁Do	-8.77104
▁remember	-8.77358
▁certain	-8.77733
▁usually	-8.7789
▁further	-8.78039
▁view	-8.78111
▁continue	-8.78295
▁front	-8.78371
▁meet	-8.78475
▁morning	-8.78475
▁sense	-8.78485
▁write	-8.7911
▁e	-8.7924
up	-8.79384
▁professional	-8.79404
▁seem	-8.79513
▁account	-8.79633
▁30	-8.79658
▁An	-8.79773
.”	-8.79855
▁cannot	-8.79938
▁interesting	-8.79999
▁major	-8.80231
▁opportunity	-8.80317
▁S	-8.80617
▁rest	-8.80622
▁financial	-8.80784
▁moment	-8.80875
▁study	-8.80992
▁works	-8.81022
▁complete	-8.8128
▁history	-8.81282
▁interest	-8.81408
▁result	-8.81477
▁behind	-8.81785
▁thinking	-8.82019
▁required	-8.82073
▁range	-8.82148
▁Don	-8.8217
al	-8.82546
▁ready	-8.82701
▁stuff	-8.82703
▁risk	-8.83276
year	-8.83337
▁wrong	-8.83994
▁technology	-8.84473
▁saw	-8.84534
▁outside	-8.84674
▁C	-8.85133
▁amazing	-8.85151
▁heard	-8.85535
▁American	-8.85566
c	-8.85622
▁running	-8.85711
▁common	-8.85853
▁B	-8.86254
▁--	-8.86335
▁games	-8.86453
▁difficult	-8.86587
▁12	-8.86651
▁property	-8.86696
▁15	-8.86895
▁added	-8.86909
▁eyes	-8.87187
▁chance	-8.87229
k	-8.87257
▁answer	-8.8735
▁areas	-8.87938
▁key	-8.87967
▁air	-8.88156
▁choose	-8.88223
▁lives	-8.88264
▁worth	-8.88423
▁shall	-8.88569
▁How	-8.88685
▁Then	-8.89008
▁date	-8.89207
▁step	-8.89218
▁takes	-8.8941
▁follow	-8.89465
▁news	-8.89503
▁percent	-8.89644
▁ensure	-8.89676
▁details	-8.89703
▁definitely	-8.89995
▁United	-8.90098
▁Yes	-8.9036
▁management	-8.90631
▁learning	-8.9083
▁themselves	-8.91058
▁various	-8.9116
2	-8.91266
▁build	-8.91374
▁search	-8.91571
▁increase	-8.91613
▁E	-8.91693
▁specific	-8.91827
▁cause	-8.9193
▁saying	-8.92005
▁parents	-8.92272
▁quickly	-8.92518
▁changes	-8.92586
▁wish	-8.92737
▁party	-8.9279
▁word	-8.9282
▁main	-8.92946
▁strong	-8.93002
▁woman	-8.93065
▁class	-8.93239
▁goes	-8.93451
▁focus	-8.93476
▁His	-8.93656
▁looked	-8.93786
▁lost	-8.94229
▁series	-8.9428
You	-8.94368
▁Mr	-8.94378
▁upon	-8.94435
▁attention	-8.94727
▁By	-8.95061
▁security	-8.95095
▁events	-8.9512
▁education	-8.95194
▁present	-8.9527
▁felt	-8.95322
▁happen	-8.95667
▁wait	-8.95685
▁US	-8.95842
▁customer	-8.95881
b	-8.96039
▁period	-8.96068
▁general	-8.96214
▁maybe	-8.96309
▁skills	-8.96388
▁policy	-8.96479
▁subject	-8.96587
▁allow	-8.96699
▁consider	-8.96793
▁marketing	-8.97225
▁haven	-8.97371
▁individual	-8.97452
▁offers	-8.97562
▁provided	-8.97592
▁action	-8.97606
▁receive	-8.97954
▁instead	-8.97965
▁lead	-8.9815
▁Even	-8.98168
▁D	-8.98395
▁entire	-8.9844
▁among	-8.98454
▁18	-8.98491
▁card	-8.98511
▁ideas	-8.98759
▁books	-8.98795
▁Let	-8.98821
▁knowledge	-8.98906
▁potential	-8.98939
▁knew	-8.98994
▁decided	-8.9905
▁interested	-8.99364
▁options	-8.99547
▁certainly	-8.99562
▁wonderful	-8.99686
▁recent	-8.99706
▁return	-9.00113
▁points	-9.00628
▁rate	-9.00886
man	-9.00893
▁natural	-9.00972
▁worked	-9.01101
▁store	-9.01192
▁written	-9.01317
▁completely	-9.01341
▁choice	-9.01392
▁particular	-9.01404
▁private	-9.01492
▁decision	-9.01508
▁hands	-9.0157
▁situation	-9.0159
▁Of	-9.01708
▁inside	-9.01875
▁according	-9.01888
▁similar	-9.01968
▁couldn	-9.02046
▁favorite	-9.02052
▁medical	-9.02255
▁late	-9.02271
▁white	-9.02301
▁treatment	-9.02369
▁clients	-9.02416
▁address	-9.02426
▁feeling	-9.02437
▁safe	-9.02438
▁un	-9.02625
▁sometimes	-9.0305
▁spend	-9.03168
▁third	-9.03179
▁exactly	-9.03197
▁test	-9.03383
▁tried	-9.03454
▁door	-9.03523
▁easily	-9.03564
▁death	-9.0366
▁extra	-9.03738
▁meeting	-9.03755
­	-9.03774
▁review	-9.03839
▁field	-9.03852
▁talking	-9.03907
▁activities	-9.03926
▁success	-9.0395
▁send	-9.04041
▁necessary	-9.04092
▁credit	-9.041
▁watch	-9.041
▁position	-9.04157
▁involved	-9.04294
▁Also	-9.04465
▁huge	-9.04477
▁summer	-9.04499
able	-9.04507
▁recently	-9.04739
▁size	-9.04832
▁link	-9.0486
▁http	-9.05062
▁giving	-9.05124
▁unique	-9.0521
▁higher	-9.05267
▁drive	-9.05404
▁9	-9.05468
▁Many	-9.05812
▁role	-9.06165
▁near	-9.06241
▁hit	-9.06302
▁practice	-9.06351
▁Most	-9.06364
▁save	-9.06392
▁environment	-9.06438
▁turned	-9.06505
▁shows	-9.06635
▁computer	-9.06799
▁addition	-9.06982
▁playing	-9.07145
▁received	-9.07252
▁walk	-9.07679
▁held	-9.07956
▁six	-9.08124
▁art	-9.08241
▁cut	-9.08273
it	-9.08378
▁costs	-9.0855
▁performance	-9.08554
▁wouldn	-9.08638
▁cover	-9.08663
▁hold	-9.08725
▁version	-9.0892
▁excellent	-9.08953
▁application	-9.09009
▁ability	-9.09116
T	-9.0918
▁items	-9.09354
▁sound	-9.09451
▁States	-9.09741
▁improve	-9.09786
▁features	-9.09834
▁gave	-9.10137
B	-9.10143
▁tax	-9.10145
▁fine	-9.10386
▁mother	-9.10393
▁option	-9.10499
▁currently	-9.10552
▁terms	-9.10577
▁created	-9.10668
▁paper	-9.1074
▁agree	-9.10781
▁aren	-9.10987
▁May	-9.11048
▁software	-9.11073
▁effective	-9.11125
▁sales	-9.11564
▁p	-9.11581
▁countries	-9.11687
▁users	-9.11823
▁clean	-9.11844
▁travel	-9.1189
▁throughout	-9.12035
▁weight	-9.12166
▁pain	-9.12292
▁hour	-9.12502
▁win	-9.12692
▁black	-9.12697
▁road	-9.12806
▁fast	-9.12871
▁oil	-9.13143
▁trip	-9.13203
▁designed	-9.13257
▁approach	-9.13317
▁P	-9.1342
▁itself	-9.13514
▁additional	-9.13729
▁provides	-9.1379
▁growth	-9.13839
▁starting	-9.14037
▁hair	-9.14101
old	-9.14255
▁piece	-9.14427
▁projects	-9.1443
▁final	-9.14488
▁Google	-9.14541
▁town	-9.1456
▁total	-9.15145
▁girl	-9.15608
▁break	-9.15629
▁benefits	-9.15666
▁cases	-9.15689
▁impact	-9.15954
▁member	-9.16099
▁popular	-9.16135
▁From	-9.16172
."	-9.16176
▁spent	-9.16348
▁T	-9.16462
▁internet	-9.16463
▁guy	-9.16488
▁advice	-9.16591
▁pre	-9.16613
▁student	-9.16923
▁location	-9.16962
p	-9.16964
▁happened	-9.16973
▁career	-9.17077
time	-9.17154
▁hot	-9.17355
▁picture	-9.17387
▁record	-9.17586
▁legal	-9.176
▁finally	-9.17724
▁eat	-9.17769
▁positive	-9.17897
▁skin	-9.17947
▁message	-9.18022
▁fall	-9.18099
▁ones	-9.18186
▁thanks	-9.182
▁systems	-9.18254
▁film	-9.18628
▁relationship	-9.18752
▁goal	-9.18779
▁York	-9.18863
▁alone	-9.18913
▁original	-9.18932
▁himself	-9.18952
▁City	-9.18992
▁Once	-9.19035
▁thank	-9.19121
▁1.	-9.19205
▁cool	-9.1921
▁guys	-9.19327
▁truly	-9.19495
▁America	-9.19642
▁planning	-9.1965
▁table	-9.19683
▁police	-9.19748
▁Be	-9.19827
▁O	-9.19842
▁loved	-9.2
▁University	-9.20142
▁expect	-9.20302
▁wide	-9.2036
▁resources	-9.20412
▁daily	-9.20417
▁related	-9.20611
ness	-9.20643
▁brand	-9.20703
▁loss	-9.20814
▁quick	-9.20881
▁sharing	-9.20888
▁pick	-9.20896
▁conditions	-9.20951
▁political	-9.21039
▁paid	-9.21107
▁gone	-9.21148
▁expected	-9.21157
▁World	-9.21191
▁average	-9.21201
▁click	-9.21235
en	-9.2131
▁user	-9.21693
▁section	-9.2176
www	-9.22128
▁reach	-9.22205
▁variety	-9.22284
▁Facebook	-9.22451
▁term	-9.22459
▁difference	-9.22495
▁style	-9.22617
▁sign	-9.2269
x	-9.22828
▁blood	-9.22853
▁sort	-9.22927
▁guess	-9.22968
▁note	-9.23065
▁safety	-9.23354
▁plans	-9.23452
▁recommend	-9.23555
▁players	-9.23642
▁weekend	-9.23643
▁healthy	-9.23676
▁purchase	-9.23685
▁gets	-9.23841
▁Oh	-9.23976
▁via	-9.23998
▁built	-9.24003
▁easier	-9.24007
▁national	-9.24165
▁*	-9.24358
▁stand	-9.24545
▁individuals	-9.2479
▁stories	-9.24804
▁comment	-9.24889
▁levels	-9.2497
l	-9.25034
▁useful	-9.25135
▁fire	-9.25147
▁highly	-9.25358
▁National	-9.25389
▁comments	-9.25576
▁Or	-9.25606
▁international	-9.25724
▁State	-9.25833
▁serious	-9.25969
▁11	-9.26207
▁programs	-9.26299
▁model	-9.26372
▁fit	-9.26412
▁towards	-9.26516
▁began	-9.26632
▁businesses	-9.26897
▁voice	-9.26911
▁solution	-9.27043
▁code	-9.27139
▁require	-9.27275
▁effect	-9.27327
▁Since	-9.274
▁places	-9.27481
▁develop	-9.27505
▁sent	-9.27595
G	-9.27614
▁physical	-9.27733
▁providing	-9.27819
▁photos	-9.27868
▁patients	-9.2787
▁eye	-9.27946
▁ground	-9.27958
▁groups	-9.28083
▁John	-9.28113
@	-9.2815
▁First	-9.28193
▁employees	-9.282
▁movie	-9.28327
▁avoid	-9.28327
▁considered	-9.28391
▁growing	-9.28461
3	-9.28537
▁baby	-9.28568
▁Christmas	-9.2863
▁latest	-9.28739
▁successful	-9.28858
▁50	-9.28999
▁war	-9.29046
▁organization	-9.29222
▁regular	-9.29304
▁board	-9.29398
▁seeing	-9.29605
▁lower	-9.29771
▁moving	-9.29837
▁Because	-9.29869
▁helpful	-9.29981
▁file	-9.30171
▁red	-9.30185
▁understanding	-9.30213
▁grow	-9.30314
▁Dr	-9.30369
▁significant	-9.30385
▁brought	-9.30393
▁families	-9.30472
▁co	-9.30523
▁sleep	-9.30524
▁includes	-9.30586
▁gives	-9.30684
▁wife	-9.31055
▁begin	-9.31122
▁apply	-9.31154
▁son	-9.31219
▁father	-9.31253
▁response	-9.31299
▁lots	-9.31303
▁source	-9.31313
▁track	-9.31447
▁effort	-9.31641
▁feet	-9.31673
▁app	-9.31973
▁material	-9.31982
▁hotel	-9.32068
▁fully	-9.32088
▁directly	-9.32152
▁South	-9.32211
K	-9.32295
▁tools	-9.32496
▁TV	-9.32668
▁beginning	-9.32765
▁bed	-9.32827
(	-9.32855
▁benefit	-9.32859
▁reasons	-9.32977
▁network	-9.33052
▁Hi	-9.33054
▁nearly	-9.33064
▁wants	-9.33117
▁2.	-9.33199
4	-9.33275
▁economic	-9.3342
▁evidence	-9.33437
▁land	-9.33461
▁global	-9.33465
▁nature	-9.33571
▁previous	-9.33735
▁F	-9.33749
▁image	-9.33815
&	-9.3392
P	-9.33971
▁box	-9.34126
▁changed	-9.34277
▁husband	-9.34357
▁glad	-9.3437
▁Great	-9.34655
▁UK	-9.34715
▁language	-9.34863
M	-9.34945
▁became	-9.34952
▁100	-9.34998
▁St	-9.35064
▁dog	-9.35193
▁types	-9.35318
▁college	-9.35324
▁production	-9.3541
▁allows	-9.35453
▁located	-9.3546
▁opportunities	-9.35711
▁posts	-9.35721
▁More	-9.35852
based	-9.35869
▁Day	-9.3589
▁info	-9.35949
co	-9.36089
▁included	-9.36111
▁Good	-9.36416
▁although	-9.36497
▁speak	-9.36564
▁creating	-9.3704
▁limited	-9.3707
▁basis	-9.37176
▁helps	-9.37218
▁particularly	-9.37358
▁M	-9.37455
▁Friday	-9.37458
▁K	-9.3749
▁ahead	-9.37615
▁photo	-9.37618
▁whatever	-9.37756
▁topic	-9.37764
▁extremely	-9.37792
E	-9.37864
▁wrote	-9.38072
▁standard	-9.38418
▁parts	-9.38463
▁People	-9.38517
▁character	-9.38706
▁Although	-9.38753
▁President	-9.38792
▁waiting	-9.38803
h	-9.38828
▁modern	-9.3884
▁color	-9.38927
▁touch	-9.3895
▁release	-9.39211
▁25	-9.39225
▁R	-9.39228
as	-9.3932
▁multiple	-9.39455
▁figure	-9.39465
▁goals	-9.39603
▁de	-9.39698
▁equipment	-9.39757
▁beyond	-9.39843
▁mobile	-9.39923
▁pictures	-9.40065
▁floor	-9.40368
▁helped	-9.40555
▁charge	-9.40646
▁investment	-9.40814
▁perhaps	-9.40862
▁sell	-9.40891
▁sites	-9.40939
▁rights	-9.41004
▁North	-9.4105
▁cold	-9.4137
▁weather	-9.41451
▁comfortable	-9.41505
▁learned	-9.4159
▁immediately	-9.41624
of	-9.41949
▁House	-9.42196
▁normal	-9.42272
▁played	-9.42334
▁deep	-9.42358
▁Today	-9.42522
▁text	-9.42589
an	-9.42622
▁24	-9.4267
▁prices	-9.42679
▁fresh	-9.42699
?”	-9.42834
This	-9.42983
▁helping	-9.43116
▁rules	-9.43181
▁screen	-9.4323
▁tips	-9.43256
▁earlier	-9.433
▁challenge	-9.43428
▁budget	-9.43536
▁court	-9.43559
▁Maybe	-9.43652
▁digital	-9.43937
▁G	-9.43943
▁requirements	-9.43963
▁allowed	-9.44021
▁absolutely	-9.44159
▁damage	-9.44186
▁16	-9.44358
▁join	-9.44583
▁purpose	-9.44615
▁disease	-9.4464
▁yes	-9.44992
▁happens	-9.45083
▁Make	-9.45096
▁kept	-9.45213
am	-9.45219
▁act	-9.45407
▁Can	-9.45427
▁middle	-9.46157
F	-9.46301
▁met	-9.46345
▁Re	-9.46397
▁English	-9.46465
▁basic	-9.46626
▁notice	-9.46733
▁finding	-9.46864
▁lack	-9.46951
▁vehicle	-9.47049
▁aware	-9.47074
▁culture	-9.47142
▁leading	-9.47181
▁stage	-9.47282
no	-9.47282
us	-9.47288
▁activity	-9.47392
▁campaign	-9.47449
▁truth	-9.47605
▁pass	-9.47674
▁rates	-9.47915
▁reduce	-9.47937
▁sounds	-9.47943
▁gift	-9.48488
▁released	-9.48645
▁income	-9.48661
▁June	-9.48667
▁daughter	-9.4899
▁pressure	-9.4909
▁March	-9.49108
".	-9.49272
▁lose	-9.49299
▁schools	-9.49367
▁claim	-9.49402
▁trust	-9.49409
▁watching	-9.49433
▁@	-9.49438
▁shop	-9.49744
▁request	-9.49833
▁protect	-9.49837
▁steps	-9.49929
....	-9.50076
▁seemed	-9.50208
▁Have	-9.50231
▁numbers	-9.50414
▁published	-9.50436
▁client	-9.505
▁effects	-9.50504
▁40	-9.50515
▁science	-9.50564
▁statement	-9.50647
▁solutions	-9.50685
▁appropriate	-9.5069
▁green	-9.50734
▁forget	-9.50742
▁shot	-9.50962
▁poor	-9.51299
▁driving	-9.51336
▁Sunday	-9.51518
▁experienced	-9.51533
▁powerful	-9.51783
▁moved	-9.51792
▁enjoyed	-9.51812
▁Internet	-9.51858
▁s	-9.51898
▁bar	-9.51942
▁speed	-9.51944
▁collection	-9.52044
f	-9.52061
term	-9.52132
▁center	-9.52157
▁reality	-9.52196
▁plenty	-9.52295
▁cancer	-9.5231
▁jobs	-9.52389
▁•	-9.52481
▁14	-9.5256
▁setting	-9.52578
▁doctor	-9.52706
▁serve	-9.52721
▁player	-9.52754
▁cash	-9.52831
▁materials	-9.52974
▁guide	-9.52985
▁fight	-9.53076
▁mentioned	-9.53081
▁billion	-9.53096
▁friendly	-9.5313
▁condition	-9.5335
▁trade	-9.53411
?"	-9.53467
▁offered	-9.5353
▁method	-9.53641
▁opinion	-9.53762
▁17	-9.53793
▁April	-9.53836
▁appreciate	-9.53847
▁race	-9.53884
▁device	-9.53933
▁Her	-9.53943
▁round	-9.53958
▁3.	-9.53983
▁keeping	-9.53995
▁feature	-9.54137
▁coffee	-9.54241
ic	-9.54619
▁society	-9.54658
▁images	-9.5484
N	-9.54863
▁brain	-9.54941
▁Jesus	-9.5502
▁miles	-9.55056
▁girls	-9.55075
▁Why	-9.5523
▁creative	-9.55261
▁Saturday	-9.55412
▁older	-9.55437
▁super	-9.55487
▁13	-9.55496
▁responsible	-9.55586
▁tool	-9.55613
▁sex	-9.5563
▁welcome	-9.55772
▁respect	-9.55851
1	-9.55889
▁thoughts	-9.55973
▁unless	-9.5602
▁achieve	-9.56106
▁doubt	-9.56381
–	-9.56567
▁warm	-9.56591
▁Every	-9.56594
▁worry	-9.56699
▁July	-9.56726
▁regarding	-9.56767
▁kitchen	-9.56839
▁former	-9.56848
▁developed	-9.56868
▁Monday	-9.56876
▁sit	-9.57076
▁Take	-9.57076
▁holiday	-9.5717
▁dark	-9.57257
▁strategy	-9.57262
▁heat	-9.57301
▁dead	-9.57305
▁Each	-9.57322
▁awesome	-9.57549
▁song	-9.57589
▁force	-9.577
▁states	-9.57897
▁knows	-9.57998
▁finished	-9.5827
▁School	-9.58388
▁prevent	-9.58431
▁sale	-9.58434
▁September	-9.58477
▁appear	-9.58525
▁totally	-9.58569
▁bought	-9.58608
R	-9.58642
▁audience	-9.58747
▁overall	-9.58837
▁shown	-9.58917
▁bottom	-9.58927
▁passed	-9.58969
▁January	-9.58997
▁remain	-9.59021
▁decide	-9.59032
▁December	-9.59052
▁L	-9.59079
is	-9.5913
▁church	-9.5919
▁busy	-9.59267
▁wonder	-9.59313
▁efforts	-9.59341
▁economy	-9.59426
▁straight	-9.59431
▁greater	-9.59468
▁payment	-9.59547
▁Department	-9.59581
▁spot	-9.59651
▁essential	-9.59682
▁active	-9.59702
▁traditional	-9.59726
▁generally	-9.59786
▁fear	-9.59892
▁Like	-9.59953
▁putting	-9.5999
▁shared	-9.60002
▁carry	-9.60026
▁exercise	-9.60073
▁Get	-9.60105
▁posted	-9.60162
▁workers	-9.60212
▁spending	-9.60322
ism	-9.60329
day	-9.6034
▁mine	-9.60456
▁clearly	-9.60605
ity	-9.60617
▁journey	-9.60646
▁dinner	-9.60661
▁October	-9.60667
▁direct	-9.60688
▁base	-9.6074
▁According	-9.60939
▁Trump	-9.61076
▁evening	-9.61287
▁drop	-9.6145
ist	-9.6155
▁increased	-9.61554
▁reported	-9.6166
▁sorry	-9.61731
▁excited	-9.6179
▁eating	-9.61867
▁November	-9.61897
▁China	-9.62053
rs	-9.62083
▁degree	-9.62188
▁lovely	-9.62275
▁letter	-9.62294
▁asking	-9.6232
▁whose	-9.62503
_	-9.6251
▁machine	-9.62514
▁military	-9.6267
▁patient	-9.62692
▁realize	-9.62739
▁advantage	-9.62742
▁ten	-9.62987
▁bank	-9.63049
▁Go	-9.63192
▁reports	-9.6326
▁commercial	-9.6327
▁discuss	-9.63276
▁Center	-9.63281
▁biggest	-9.63361
▁stock	-9.63511
▁traffic	-9.63517
▁actual	-9.63559
▁buying	-9.63789
less	-9.6382
▁anti	-9.63833
▁minute	-9.64036
▁San	-9.64074
▁offering	-9.64228
If	-9.64245
▁copy	-9.64259
”.	-9.64513
▁fair	-9.64625
▁fantastic	-9.64644
▁West	-9.6467
▁platform	-9.64766
▁THE	-9.64794
▁died	-9.65064
▁pages	-9.65114
▁Health	-9.65135
at	-9.65194
▁J	-9.65233
▁finish	-9.65256
▁correct	-9.65307
▁manage	-9.65348
▁expensive	-9.6549
▁complex	-9.6555
▁annual	-9.65596
▁wear	-9.65703
line	-9.65796
▁window	-9.65916
pm	-9.65972
▁produce	-9.66092
▁cards	-9.66124
5	-9.66177
for	-9.66414
▁prior	-9.66419
--	-9.66583
▁stress	-9.66673
▁sun	-9.66714
▁otherwise	-9.66765
▁N	-9.66975
▁boy	-9.66982
▁camera	-9.67032
out	-9.6729
▁meant	-9.67344
▁gas	-9.67367
ie	-9.67396
▁match	-9.67404
▁construction	-9.67442
▁wedding	-9.67609
▁walking	-9.67612
▁population	-9.67622
▁Europe	-9.67665
▁progress	-9.6776
▁partner	-9.67786
▁Love	-9.67817
▁/	-9.6782
▁street	-9.67904
▁H	-9.68048
▁sweet	-9.68104
▁communication	-9.68155
▁update	-9.68176
▁fan	-9.68195
▁covered	-9.68282
▁London	-9.68347
O	-9.68426
▁sitting	-9.68453
▁enter	-9.68481
▁led	-9.68485
▁mental	-9.68581
He	-9.68592
▁worse	-9.68674
but	-9.68718
▁author	-9.68808
▁W	-9.68863
one	-9.69059
▁winter	-9.69173
▁leaving	-9.6923
▁balance	-9.69395
▁becoming	-9.6942
▁official	-9.69487
▁club	-9.69522
▁www	-9.69549
▁federal	-9.69571
▁challenges	-9.6966
▁existing	-9.69724
▁wall	-9.69783
▁21	-9.69798
▁2018	-9.69826
▁maintain	-9.69991
▁supply	-9.70162
▁leaders	-9.70286
▁title	-9.70315
▁discussion	-9.70324
▁followed	-9.70357
▁firm	-9.70455
le	-9.70461
▁characters	-9.70553
▁appears	-9.70848
▁drink	-9.70946
▁Another	-9.70988
▁seven	-9.71014
▁explain	-9.7102
▁X	-9.71037
▁function	-9.71039
▁miss	-9.71146
▁schedule	-9.71305
▁accept	-9.71308
z	-9.71364
▁lines	-9.71377
▁Over	-9.71473
▁sold	-9.71485
▁thousands	-9.71504
▁toward	-9.71586
▁relevant	-9.71654
▁pieces	-9.71823
In	-9.7185
▁imagine	-9.71858
▁experiences	-9.71877
▁European	-9.71962
▁attack	-9.72028
▁mention	-9.72197
▁studies	-9.72244
▁parties	-9.72264
▁slow	-9.72386
▁fans	-9.7239
▁shopping	-9.72438
▁critical	-9.72456
▁California	-9.72478
▁requires	-9.72508
ation	-9.72801
▁applications	-9.72806
▁band	-9.72825
W	-9.72881
▁August	-9.72895
▁vote	-9.72898
▁articles	-9.72967
▁gain	-9.72982
▁interview	-9.73065
▁born	-9.7307
▁prepared	-9.73101
▁completed	-9.73286
▁Check	-9.73348
▁teams	-9.73626
▁delivery	-9.73674
▁region	-9.73782
▁session	-9.73864
▁Those	-9.7393
▁conversation	-9.73937
▁double	-9.7397
▁president	-9.73994
▁peace	-9.7402
▁protection	-9.74051
▁trouble	-9.7407
▁analysis	-9.74078
▁demand	-9.74148
▁waste	-9.74224
▁listen	-9.74247
▁hospital	-9.743
▁path	-9.74308
▁ideal	-9.74342
▁larger	-9.74388
▁sea	-9.74399
▁ended	-9.74439
▁views	-9.74492
▁Click	-9.74738
▁owner	-9.74819
▁changing	-9.7483
▁pool	-9.74855
▁adding	-9.75022
▁tour	-9.75113
▁decisions	-9.75213
▁blue	-9.75222
▁organizations	-9.7534
▁button	-9.75346
▁teaching	-9.75382
▁developing	-9.75403
▁caused	-9.75486
ment	-9.75551
▁onto	-9.75583
▁links	-9.75633
▁therefore	-9.75684
▁direction	-9.75728
▁continued	-9.75743
▁Any	-9.75752
▁exciting	-9.75956
▁County	-9.76017
▁fill	-9.76075
▁scene	-9.76118
▁cars	-9.76153
▁download	-9.76208
▁owners	-9.76212
▁managed	-9.7623
▁plus	-9.76235
▁diet	-9.76252
▁devices	-9.76306
▁4.	-9.76431
No	-9.76512
▁contract	-9.76595
▁Act	-9.76606
▁handle	-9.76684
▁associated	-9.76725
▁nation	-9.76787
▁connection	-9.76812
▁technical	-9.76814
▁majority	-9.76846
▁opening	-9.76871
▁drug	-9.76911
L	-9.76929
▁ourselves	-9.76955
▁park	-9.77127
▁Last	-9.77132
▁press	-9.77258
▁compared	-9.77281
▁announced	-9.77385
▁dream	-9.7739
▁estate	-9.77463
There	-9.77522
▁except	-9.77539
▁feels	-9.7759
▁calls	-9.77679
▁opened	-9.77742
ton	-9.77795
▁coverage	-9.77882
▁60	-9.77912
▁mostly	-9.77979
u	-9.78006
▁willing	-9.78112
▁Whether	-9.78279
▁During	-9.78293
▁standards	-9.78328
▁International	-9.78407
▁sports	-9.78825
▁Canada	-9.78834
▁discovered	-9.78898
v	-9.78959
▁sector	-9.78967
▁Park	-9.7922
▁Use	-9.79222
▁treat	-9.79367
▁communities	-9.79578
org	-9.79706
▁mission	-9.79872
▁heavy	-9.79942
▁determine	-9.79942
▁capital	-9.79969
▁showing	-9.80006
▁served	-9.80094
▁memory	-9.80173
▁deliver	-9.80178
▁background	-9.80296
▁garden	-9.80363
▁ride	-9.80558
▁conference	-9.80583
▁tend	-9.80595
▁suggest	-9.80625
▁rooms	-9.80732
▁yesterday	-9.80732
▁Q	-9.80951
▁paying	-9.80974
▁smile	-9.80989
▁restaurant	-9.80991
▁proper	-9.8102
▁methods	-9.81116
▁task	-9.81201
▁facilities	-9.81237
▁relationships	-9.8124
▁fee	-9.8128
▁target	-9.81323
▁hearing	-9.81441
▁status	-9.81452
▁factors	-9.81556
▁Sometimes	-9.8159
▁largest	-9.81657
What	-9.81672
▁Council	-9.81768
▁driver	-9.81781
▁remove	-9.81856
▁selling	-9.81875
▁negative	-9.81876
▁killed	-9.81895
▁videos	-9.81923
▁See	-9.81976
▁anywhere	-9.82025
X	-9.82056
▁Me	-9.82106
▁bill	-9.82136
▁policies	-9.82144
▁visitors	-9.82176
nd	-9.82303
▁fish	-9.82317
▁selection	-9.82335
▁competition	-9.82397
▁Before	-9.8251
▁possibly	-9.82519
▁claims	-9.82569
▁movement	-9.82627
▁highest	-9.82672
▁War	-9.82839
na	-9.83078
▁closed	-9.831
▁brother	-9.83296
▁meaning	-9.8336
▁funds	-9.83398
▁stopped	-9.83522
▁despite	-9.83548
▁Lord	-9.83561
▁folks	-9.83587
▁display	-9.83595
like	-9.83596
by	-9.83737
▁Very	-9.83762
▁anyway	-9.83862
That	-9.83864
we	-9.83941
▁classes	-9.83991
▁unit	-9.84064
▁animals	-9.84106
▁teacher	-9.84159
▁select	-9.84333
▁surprised	-9.84446
▁entry	-9.84482
▁rule	-9.84581
▁beach	-9.84592
▁train	-9.84824
▁sexual	-9.8499
*	-9.85025
▁multi	-9.85056
▁established	-9.85092
▁V	-9.85102
▁filled	-9.85119
▁happening	-9.85124
▁actions	-9.85129
▁telling	-9.85155
▁glass	-9.85166
▁mom	-9.85169
▁eight	-9.85196
▁Are	-9.85249
▁dry	-9.85377
▁Street	-9.85382
▁Keep	-9.85388
▁concept	-9.8543
▁assistance	-9.85507
▁properly	-9.85567
▁minimum	-9.85592
▁experts	-9.85617
▁eventually	-9.85643
do	-9.85678
▁lunch	-9.85696
▁laws	-9.85703
▁Man	-9.85799
▁attempt	-9.85819
▁tomorrow	-9.85836
▁tree	-9.86037
▁bag	-9.86048
▁Service	-9.86066
▁files	-9.86074
▁caught	-9.86084
▁guests	-9.8628
▁ice	-9.8629
▁honest	-9.8629
▁separate	-9.86381
▁homes	-9.86413
▁Their	-9.86452
▁proud	-9.86456
▁raise	-9.86492
ion	-9.86553
ry	-9.8665
▁t	-9.86669
▁responsibility	-9.86672
▁readers	-9.86718
▁raised	-9.86805
▁missing	-9.86836
w	-9.86873
▁faith	-9.86923
▁structure	-9.86987
▁item	-9.87001
▁mid	-9.87122
▁residents	-9.87125
▁feedback	-9.87142
▁taste	-9.87172
▁Washington	-9.87217
▁engine	-9.87444
▁secure	-9.87565
▁described	-9.87612
▁teachers	-9.8767
▁19	-9.87675
▁century	-9.87679
▁mouth	-9.87707
▁strength	-9.87738
▁White	-9.87748
H	-9.87748
▁knowing	-9.8781
▁cross	-9.87828
▁smaller	-9.87837
▁calling	-9.87838
▁Only	-9.87926
▁wine	-9.87947
▁professionals	-9.87951
▁Court	-9.88042
J	-9.88141
▁reviews	-9.88225
▁reached	-9.88231
▁encourage	-9.88288
▁concerned	-9.88365
!!	-9.88417
▁Life	-9.88421
▁Yeah	-9.88433
▁tea	-9.8846
▁climate	-9.88464
▁listed	-9.88501
if	-9.88594
▁manner	-9.8862
▁vision	-9.88671
▁concerns	-9.88675
▁becomes	-9.88705
te	-9.88719
▁shape	-9.88772
▁plant	-9.88816
▁recipe	-9.88857
▁:	-9.8895
mail	-9.88987
▁remains	-9.89044
▁holding	-9.89053
▁Tuesday	-9.89116
▁debt	-9.89132
▁detail	-9.89141
not	-9.89222
▁placed	-9.89226
ia	-9.89239
▁primary	-9.89317
▁lived	-9.89368
▁dollars	-9.89391
▁breakfast	-9.89418
▁foreign	-9.89431
▁die	-9.89457
▁India	-9.89549
V	-9.8956
▁names	-9.8957
▁focused	-9.89601
▁hate	-9.8965
▁East	-9.89742
But	-9.89763
▁tough	-9.8993
▁Obama	-9.90087
▁funding	-9.9013
▁Thursday	-9.90136
▁catch	-9.90155
▁afternoon	-9.90166
▁supposed	-9.90329
▁fat	-9.90366
▁standing	-9.90411
▁perform	-9.90411
▁noticed	-9.90465
▁smart	-9.9049
▁identify	-9.90614
▁Will	-9.90928
which	-9.90942
▁valuable	-9.91039
▁showed	-9.91042
▁dedicated	-9.91066
▁Two	-9.91107
▁funny	-9.91145
▁values	-9.91323
▁slightly	-9.91384
▁album	-9.91443
▁spring	-9.91544
▁seriously	-9.91718
▁host	-9.9174
▁February	-9.9186
▁alternative	-9.91868
de	-9.91884
▁prefer	-9.91934
free	-9.91937
▁uses	-9.91943
▁hoping	-9.91953
▁distance	-9.91975
▁corner	-9.91981
▁techniques	-9.92063
▁obvious	-9.92095
▁Australia	-9.92298
▁sources	-9.92307
▁forms	-9.9232
▁seek	-9.92364
▁https	-9.92457
▁injury	-9.9251
▁fix	-9.92511
▁comfort	-9.9255
▁High	-9.92553
▁David	-9.92621
7	-9.92638
▁leader	-9.9265
▁print	-9.92696
▁birth	-9.92733
▁theme	-9.92871
▁rise	-9.92884
▁starts	-9.92992
▁agreement	-9.93004
▁Apple	-9.93016
▁c	-9.93092
▁assist	-9.93105
▁affect	-9.93112
you	-9.93136
▁expert	-9.93179
▁2017	-9.93185
▁independent	-9.9321
▁accident	-9.93277
▁committed	-9.93285
▁2016	-9.93392
▁Government	-9.93443
▁rich	-9.93597
▁Co	-9.93689
▁storage	-9.93701
▁initial	-9.93709
▁considering	-9.93774
▁ball	-9.93815
▁speaking	-9.9384
▁Twitter	-9.93846
▁explore	-9.93896
▁agency	-9.93904
▁manager	-9.93954
▁Black	-9.94016
▁foot	-9.94041
▁department	-9.94089
▁visiting	-9.94244
▁kid	-9.94248
▁married	-9.94312
▁crazy	-9.94383
▁testing	-9.94392
▁adults	-9.94405
▁practices	-9.9444
▁confidence	-9.94577
▁beauty	-9.94591
ling	-9.94634
▁recommended	-9.94703
▁increasing	-9.94884
un	-9.949
▁attend	-9.94975
▁desire	-9.94999
▁sugar	-9.95002
▁advance	-9.95003
▁mix	-9.95011
▁birthday	-9.95113
▁Office	-9.95164
▁b	-9.9518
▁sister	-9.9521
And	-9.95232
▁director	-9.95245
▁gold	-9.95359
▁Instead	-9.95441
▁solid	-9.95489
▁depending	-9.95518
me	-9.9556
▁loan	-9.95605
▁usual	-9.95631
▁missed	-9.95649
▁symptoms	-9.95745
▁arrived	-9.9576
▁IT	-9.95784
▁documents	-9.95837
▁fees	-9.95842
▁surprise	-9.95924
▁Wednesday	-9.95964
Y	-9.96137
▁pull	-9.96275
8	-9.96306
▁discover	-9.96335
▁returned	-9.96339
▁meal	-9.96343
▁British	-9.96415
▁bigger	-9.96505
▁thus	-9.96542
▁#	-9.96659
▁continues	-9.96665
▁x	-9.96799
age	-9.96859
▁leadership	-9.96879
▁Paul	-9.96906
▁spread	-9.96987
ting	-9.97144
▁Christ	-9.97244
▁wind	-9.97259
▁personally	-9.97338
▁Business	-9.97401
▁Other	-9.9744
▁somewhere	-9.97513
rd	-9.97567
▁package	-9.97639
▁concern	-9.9779
▁liked	-9.97889
▁cent	-9.97902
▁elements	-9.97982
el	-9.97995
▁kill	-9.98027
▁quiet	-9.98077
▁Red	-9.98093
▁ran	-9.98293
▁marriage	-9.98462
▁corporate	-9.98464
▁behavior	-9.98567
▁earth	-9.98577
▁hurt	-9.98595
▁push	-9.98644
▁records	-9.98683
▁surface	-9.98734
▁herself	-9.98817
▁emergency	-9.98919
▁station	-9.98923
▁Americans	-9.9897
▁net	-9.99056
▁numerous	-9.99218
▁officials	-9.99229
be	-9.99231
▁familiar	-9.99316
he	-9.99364
▁seconds	-9.99521
▁dating	-9.99588
▁nor	-9.99659
▁Unfortunately	-9.9966
▁environmental	-9.99665
▁Time	-9.99836
▁election	-9.99929
▁indeed	-9.9993
▁decades	-9.99951
▁rock	-10.0006
▁auto	-10.0026
▁presence	-10.0029
▁boys	-10.004
▁operations	-10.005
▁broken	-10.005
▁twice	-10.0067
▁models	-10.0074
ian	-10.0078
▁cheap	-10.008
▁operating	-10.008
▁dogs	-10.0086
▁picked	-10.0089
▁approximately	-10.0091
▁luck	-10.0094
▁websites	-10.0102
▁none	-10.0102
▁sub	-10.011
▁Having	-10.0124
▁worst	-10.0126
▁generation	-10.0126
!"	-10.0127
▁afraid	-10.0127
▁shouldn	-10.0128
▁whom	-10.0129
▁prepare	-10.0135
▁impossible	-10.0138
▁Home	-10.0143
▁circumstances	-10.0148
▁perspective	-10.0151
land	-10.0154
▁flat	-10.0157
off	-10.0157
▁menu	-10.016
▁French	-10.0162
▁capacity	-10.0167
▁strategies	-10.0173
▁cell	-10.0176
▁Services	-10.0178
▁importance	-10.0182
▁presented	-10.0195
▁radio	-10.0196
▁Who	-10.02
▁violence	-10.02
▁cleaning	-10.0201
▁choices	-10.0209
▁snow	-10.0211
▁teach	-10.0215
▁De	-10.0223
They	-10.0245
▁efficient	-10.0245
▁named	-10.0263
▁football	-10.027
▁closer	-10.0275
▁Note	-10.0276
▁fell	-10.0278
▁faster	-10.0281
▁plants	-10.0292
▁limit	-10.0295
▁promote	-10.0297
▁gun	-10.0305
▁dangerous	-10.0305
▁clothes	-10.0307
▁administration	-10.0308
▁sad	-10.0308
▁emotional	-10.0314
6	-10.0318
▁walked	-10.0335
▁entirely	-10.0344
▁Board	-10.0345
▁employee	-10.035
▁exchange	-10.0377
▁document	-10.0377
▁pro	-10.0387
▁apartment	-10.0393
▁block	-10.0399
▁anymore	-10.0402
▁crime	-10.041
▁colors	-10.041
▁female	-10.0414
▁hundreds	-10.0419
▁stick	-10.0422
▁central	-10.043
▁draw	-10.0432
▁cities	-10.0438
▁forced	-10.0438
▁episode	-10.0441
all	-10.0445
▁Read	-10.0446
▁trial	-10.0447
▁soft	-10.0449
▁drugs	-10.0455
▁agreed	-10.0461
▁commitment	-10.0467
▁parking	-10.0472
▁General	-10.0474
▁ship	-10.0479
ty	-10.0489
▁Africa	-10.0492
so	-10.0494
ra	-10.0497
▁influence	-10.0498
▁core	-10.0507
▁count	-10.0508
▁Still	-10.0508
▁produced	-10.0511
▁maintenance	-10.0512
▁exist	-10.0522
▁matters	-10.0525
▁bus	-10.0527
▁adult	-10.0532
▁connect	-10.0533
▁answers	-10.055
▁writer	-10.0551
▁star	-10.0564
▁detailed	-10.0567
▁stated	-10.0568
▁bringing	-10.0572
ies	-10.0578
▁respond	-10.0581
▁Both	-10.0581
▁markets	-10.059
▁connected	-10.0591
▁transfer	-10.0591
▁purposes	-10.0592
▁seat	-10.0595
▁signed	-10.0597
▁turns	-10.0598
▁fashion	-10.0613
▁practical	-10.0622
▁incredible	-10.0623
▁freedom	-10.0629
▁accounts	-10.0631
▁2015	-10.0639
▁wearing	-10.064
▁sat	-10.0641
▁scale	-10.0646
▁signs	-10.0646
▁regularly	-10.0664
▁reasonable	-10.0669
▁NOT	-10.0672
▁trees	-10.0691
▁pleasure	-10.0704
▁specifically	-10.0707
▁5.	-10.0707
▁advertising	-10.0712
▁removed	-10.0713
▁consumers	-10.0715
▁aspects	-10.0724
▁combination	-10.0725
ley	-10.0726
▁animal	-10.0731
▁22	-10.0731
▁Free	-10.0734
▁searching	-10.0736
▁greatest	-10.0738
▁pleased	-10.0743
▁dress	-10.0748
▁d	-10.0751
▁senior	-10.0767
▁intended	-10.0769
▁surgery	-10.0776
▁constantly	-10.0792
▁housing	-10.08
▁reference	-10.0801
▁hasn	-10.0803
▁failed	-10.0809
▁contains	-10.0811
▁Big	-10.0813
ar	-10.0818
+	-10.0819
▁Group	-10.0831
▁Michael	-10.0838
▁lucky	-10.0838
▁throw	-10.0841
▁Web	-10.0844
▁perfectly	-10.085
▁typically	-10.0851
▁seeking	-10.086
▁obviously	-10.0863
▁foods	-10.0863
▁failure	-10.0867
▁processes	-10.0872
▁posting	-10.0877
▁rain	-10.0878
son	-10.0882
▁movies	-10.0889
▁interests	-10.0892
▁feed	-10.0896
▁delicious	-10.0897
▁secret	-10.0902
▁factor	-10.0902
▁songs	-10.0902
▁100%	-10.0903
end	-10.0919
▁famous	-10.0932
▁cream	-10.0934
▁brings	-10.0939
▁abuse	-10.0947
▁sick	-10.0952
▁pair	-10.0957
▁updated	-10.0964
▁La	-10.0973
▁partners	-10.0978
▁leaves	-10.098
▁allowing	-10.0981
▁aid	-10.0984
▁battle	-10.0985
▁carried	-10.1006
▁King	-10.101
▁runs	-10.1022
▁ingredients	-10.1029
▁instance	-10.1051
▁custom	-10.1057
▁fuel	-10.1057
▁realized	-10.1065
▁fairly	-10.107
▁facility	-10.1072
est	-10.1082
ish	-10.1082
▁survey	-10.1083
▁operation	-10.109
▁explained	-10.1092
▁Look	-10.1092
ized	-10.1094
that	-10.1103
▁England	-10.1107
▁Best	-10.1109
▁Perhaps	-10.1115
▁centre	-10.1117
▁measures	-10.1123
▁vehicles	-10.1131
▁previously	-10.1134
go	-10.1137
▁arms	-10.1166
▁suit	-10.1172
▁wondering	-10.1181
▁server	-10.1184
▁turning	-10.119
▁notes	-10.1199
▁flow	-10.1209
▁Which	-10.121
▁treated	-10.1212
▁weren	-10.1225
▁cute	-10.1225
▁Church	-10.1227
▁academic	-10.1229
▁90	-10.1251
▁educational	-10.1251
▁edge	-10.1253
▁university	-10.1258
▁planned	-10.126
▁Social	-10.1264
▁charges	-10.1265
▁length	-10.127
▁Mark	-10.1271
9	-10.1272
▁leads	-10.1297
▁thread	-10.1303
▁participate	-10.1304
▁massive	-10.1316
▁advanced	-10.1321
▁measure	-10.133
▁cheese	-10.1333
ch	-10.1339
▁stores	-10.1339
▁temperature	-10.1343
▁affordable	-10.1348
▁agent	-10.1349
▁vacation	-10.1352
▁wood	-10.1354
▁profile	-10.1355
▁quarter	-10.1356
▁kinds	-10.137
▁repair	-10.1371
▁criminal	-10.1378
▁pop	-10.1378
▁fixed	-10.1387
▁Pro	-10.1395
▁slowly	-10.1397
▁bunch	-10.1403
▁Chinese	-10.1407
▁milk	-10.1421
▁Bill	-10.1423
▁Year	-10.1444
▁beat	-10.1459
▁selected	-10.1461
My	-10.1461
▁library	-10.1464
▁score	-10.1471
▁dealing	-10.1483
▁apart	-10.1486
▁applied	-10.1486
▁Amazon	-10.1491
▁grown	-10.1498
▁artist	-10.1499
my	-10.1506
▁situations	-10.1523
▁passion	-10.1525
▁employment	-10.1528
▁bike	-10.1532
▁College	-10.1532
▁losing	-10.1535
▁winning	-10.1537
▁internal	-10.1539
▁privacy	-10.1541
▁monthly	-10.1545
▁properties	-10.1551
▁error	-10.1553
▁medium	-10.1553
Oh	-10.1555
▁accepted	-10.1572
▁fund	-10.1579
▁plastic	-10.1588
▁affected	-10.1588
ta	-10.1592
▁agencies	-10.1598
▁Al	-10.1599
▁crisis	-10.1599
▁flight	-10.1601
▁>	-10.1606
▁roll	-10.1609
▁causes	-10.1613
▁map	-10.1615
▁rare	-10.1617
▁maximum	-10.1623
▁spirit	-10.1629
▁Right	-10.1632
▁effectively	-10.1633
▁bathroom	-10.1635
▁cat	-10.1642
▁listening	-10.1645
▁serving	-10.1646
▁moments	-10.1646
▁speech	-10.165
▁Hello	-10.1651
▁Green	-10.1651
▁rental	-10.1655
▁expertise	-10.1662
ter	-10.1664
▁tonight	-10.1682
▁artists	-10.1688
▁AND	-10.1708
▁religious	-10.1708
▁$1	-10.171
▁TO	-10.1715
▁feelings	-10.1719
!”	-10.1739
▁carefully	-10.1739
▁topics	-10.1739
▁James	-10.1741
▁80	-10.1743
▁consumer	-10.1746
▁Where	-10.1746
▁cultural	-10.1753
▁relatively	-10.1754
▁m	-10.1756
▁ex	-10.1778
▁watched	-10.1781
▁appeared	-10.1784
▁unable	-10.1791
▁Hey	-10.1798
▁mass	-10.1802
▁mail	-10.1804
▁taught	-10.1812
▁competitive	-10.1814
▁23	-10.1816
▁investigation	-10.182
▁prove	-10.183
▁updates	-10.1835
▁exact	-10.1837
▁submit	-10.1844
▁television	-10.1855
▁tells	-10.1856
▁70	-10.1858
▁obtain	-10.186
▁Christian	-10.1862
▁Earth	-10.1863
▁forever	-10.1869
▁guest	-10.187
▁occur	-10.1872
per	-10.1876
▁pulled	-10.1878
▁pet	-10.1878
▁presentation	-10.189
▁courses	-10.1891
way	-10.1892
▁launch	-10.1903
▁messages	-10.1905
ne	-10.1912
▁parent	-10.1917
▁joy	-10.1921
▁2014	-10.1921
▁Yet	-10.1927
▁male	-10.1927
▁okay	-10.1944
▁Research	-10.1948
▁bright	-10.1953
▁gonna	-10.1956
▁meat	-10.1961
▁restaurants	-10.1965
▁mark	-10.1965
▁boat	-10.197
▁dance	-10.1977
▁shoes	-10.1982
▁Association	-10.1983
▁younger	-10.1983
men	-10.1984
▁master	-10.1988
▁stuck	-10.1992
▁Remember	-10.1995
▁supporting	-10.1997
▁arm	-10.1997
ary	-10.2002
▁citizens	-10.2005
▁paint	-10.2006
▁determined	-10.2022
▁Though	-10.2022
▁breath	-10.2024
▁Law	-10.2024
▁therapy	-10.2031
▁chicken	-10.2033
▁quote	-10.2037
▁Florida	-10.2044
Well	-10.2051
▁expectations	-10.2054
▁Everyone	-10.2056
▁context	-10.208
▁basically	-10.2085
▁instructions	-10.2089
00	-10.2102
▁delivered	-10.2107
▁Club	-10.2107
▁comprehensive	-10.2118
▁alcohol	-10.2121
▁examples	-10.2129
▁tired	-10.2132
▁revenue	-10.2135
▁fruit	-10.2137
▁200	-10.2138
▁cooking	-10.2138
▁teeth	-10.2148
▁inspired	-10.2149
▁justice	-10.2157
▁fighting	-10.2159
▁1,	-10.2161
▁award	-10.2162
▁Windows	-10.217
▁install	-10.2171
▁Committee	-10.2179
▁technologies	-10.2181
▁spoke	-10.2188
▁Company	-10.2194
▁approved	-10.2194
▁dad	-10.2195
▁Add	-10.2197
▁provider	-10.2202
▁participants	-10.2203
▁facts	-10.2218
▁classic	-10.2227
▁Being	-10.2231
▁enjoying	-10.2231
▁afford	-10.2238
▁cup	-10.2241
▁crowd	-10.2246
▁square	-10.2248
▁hell	-10.2254
▁awareness	-10.2257
▁2012	-10.226
▁talked	-10.2275
▁theory	-10.2279
▁Next	-10.2283
ca	-10.2286
▁officer	-10.2291
▁registration	-10.2291
▁earn	-10.2296
▁recovery	-10.2303
▁frequently	-10.2311
▁chat	-10.2313
▁assume	-10.2316
▁Call	-10.2317
▁Find	-10.2322
▁chosen	-10.2326
▁equal	-10.2328
▁units	-10.2331
▁fellow	-10.2336
▁coach	-10.2337
▁grew	-10.2337
▁appointment	-10.2338
▁solve	-10.2345
▁recognize	-10.2355
▁authority	-10.2355
▁replace	-10.2356
▁improved	-10.2378
▁admit	-10.2384
▁charged	-10.2391
▁rent	-10.2391
▁hadn	-10.2396
▁resource	-10.2397
▁gotten	-10.24
▁Education	-10.24
▁stood	-10.241
▁OK	-10.241
▁Texas	-10.2414
▁soul	-10.2415
▁drivers	-10.2418
▁informed	-10.2434
▁promise	-10.2441
▁register	-10.2445
▁o	-10.2446
▁bedroom	-10.2451
▁buildings	-10.2457
ro	-10.2459
▁automatically	-10.2459
house	-10.2463
▁accurate	-10.2468
▁sides	-10.2469
▁debate	-10.2469
▁providers	-10.2471
▁everyday	-10.2471
▁novel	-10.2472
▁island	-10.2481
▁procedure	-10.2486
▁locations	-10.2489
▁nine	-10.2493
▁lifestyle	-10.2504
▁chocolate	-10.251
▁careful	-10.2513
▁incredibly	-10.2517
▁infrastructure	-10.2518
▁tiny	-10.2524
▁pattern	-10.2535
▁contain	-10.2541
▁Congress	-10.255
▁challenging	-10.2572
▁doors	-10.2576
see	-10.2582
▁installed	-10.259
▁hundred	-10.2592
▁Finally	-10.2594
▁2013	-10.2594
▁tests	-10.2599
em	-10.2601
▁metal	-10.2603
▁suggested	-10.2604
▁defense	-10.2605
▁cast	-10.261
▁argument	-10.2615
mm	-10.2637
ine	-10.264
▁suffering	-10.264
▁reliable	-10.2649
▁forces	-10.2651
▁taxes	-10.2652
▁Despite	-10.2652
▁fail	-10.2654
▁purchased	-10.2659
▁scientific	-10.2671
▁appearance	-10.2683
▁introduced	-10.2689
▁format	-10.2697
▁depends	-10.2698
▁salt	-10.2698
▁suddenly	-10.2703
▁brief	-10.2703
▁suitable	-10.2711
ful	-10.2715
ally	-10.2717
▁Post	-10.2718
▁decade	-10.2722
▁meetings	-10.2722
▁tasks	-10.2726
▁procedures	-10.2735
▁judge	-10.2736
▁aim	-10.2736
▁ages	-10.2741
▁possibility	-10.2748
▁millions	-10.2748
▁guarantee	-10.2757
U	-10.2768
▁apps	-10.2773
▁talent	-10.2776
▁writers	-10.2776
▁assets	-10.2776
▁windows	-10.2779
▁regulations	-10.2781
▁noted	-10.2786
j	-10.2787
▁receiving	-10.2787
▁proposed	-10.2789
▁memories	-10.2794
▁strange	-10.2799
▁George	-10.2801
ma	-10.2801
▁officers	-10.2805
▁civil	-10.2805
▁jump	-10.2809
net	-10.2815
▁Open	-10.2826
▁sessions	-10.2831
▁normally	-10.284
▁saved	-10.2842
▁aside	-10.2845
▁28	-10.2849
▁Public	-10.285
la	-10.2851
▁chair	-10.2853
▁Israel	-10.2855
▁EU	-10.2856
▁shit	-10.2876
▁answered	-10.2876
▁cutting	-10.2885
▁Star	-10.2885
▁species	-10.2889
▁payments	-10.2903
▁vital	-10.2912
▁enable	-10.2912
▁dropped	-10.2921
▁suggestions	-10.2922
▁Union	-10.2932
▁risks	-10.2933
▁outdoor	-10.2934
▁tickets	-10.2935
▁camp	-10.2943
▁planet	-10.2948
ization	-10.2954
▁France	-10.296
▁farm	-10.2973
▁license	-10.2974
▁institutions	-10.2975
▁engage	-10.2977
▁necessarily	-10.2978
▁battery	-10.2979
▁grateful	-10.2984
▁drinking	-10.299
▁creation	-10.2991
▁Plus	-10.2992
▁Hope	-10.2995
▁reduced	-10.2997
▁load	-10.2997
▁counter	-10.2999
▁Sorry	-10.2999
▁remaining	-10.3011
▁facing	-10.3016
▁joined	-10.3016
her	-10.3017
▁somewhat	-10.3024
▁description	-10.3024
▁improvement	-10.3031
▁guidance	-10.3032
▁Information	-10.3056
▁skill	-10.3058
▁wild	-10.3058
▁checking	-10.3059
▁medicine	-10.3064
▁Management	-10.3069
▁alive	-10.307
▁youth	-10.307
▁literally	-10.3083
▁Art	-10.3093
▁confident	-10.3094
▁describe	-10.3096
▁About	-10.3115
▁truck	-10.313
▁shooting	-10.3135
▁collect	-10.3137
▁Up	-10.3141
▁essay	-10.3143
▁Commission	-10.3144
▁ticket	-10.3147
▁supported	-10.3152
▁combined	-10.3159
▁significantly	-10.3167
Yes	-10.3182
▁route	-10.3183
▁passing	-10.3185
▁Air	-10.3186
▁conduct	-10.319
▁threat	-10.319
▁inspiration	-10.3201
▁OF	-10.3202
▁6.	-10.3203
▁lessons	-10.3205
▁profit	-10.3206
So	-10.3212
▁everybody	-10.3213
▁celebrate	-10.3218
▁attacks	-10.3218
▁staying	-10.3219
▁protected	-10.3222
▁sending	-10.3223
▁Sam	-10.3229
▁26	-10.3231
▁shipping	-10.3248
▁lights	-10.3249
▁keeps	-10.325
▁category	-10.325
▁candidates	-10.3254
▁Learn	-10.3268
▁cook	-10.3271
▁struggle	-10.3276
▁cake	-10.3277
▁Japan	-10.328
▁bodies	-10.3283
▁volume	-10.3288
▁weird	-10.3293
▁trading	-10.3298
▁harder	-10.3299
▁capable	-10.3301
▁Try	-10.3307
▁favourite	-10.3313
▁Car	-10.3315
▁Bank	-10.3316
▁everywhere	-10.3318
ner	-10.3319
▁identity	-10.3324
▁500	-10.3336
▁discussed	-10.3336
▁believed	-10.3339
▁apparently	-10.3347
▁object	-10.3349
▁pack	-10.3354
ive	-10.3357
▁investors	-10.3359
▁laugh	-10.3363
▁bread	-10.3363
▁sets	-10.3376
▁mistake	-10.3383
▁settings	-10.3383
▁Security	-10.3383
▁registered	-10.3385
▁authorities	-10.3388
▁empty	-10.3395
▁injuries	-10.341
▁performed	-10.3412
▁mode	-10.3418
▁shoot	-10.342
▁begins	-10.3422
▁executive	-10.3422
▁severe	-10.3427
",	-10.3427
▁processing	-10.3438
▁Back	-10.3438
▁Peter	-10.3439
▁defined	-10.3443
▁atmosphere	-10.345
▁functions	-10.3457
▁doctors	-10.3462
▁shut	-10.3462
▁domestic	-10.3464
▁ordered	-10.3464
▁district	-10.3473
▁hire	-10.3475
▁electronic	-10.3478
▁expenses	-10.3481
10	-10.3482
>	-10.3482
Z	-10.3484
▁panel	-10.349
.....	-10.3495
▁retail	-10.3496
▁Wow	-10.3497
▁aspect	-10.3499
▁forum	-10.3504
▁Children	-10.3512
▁visual	-10.3515
▁politics	-10.3517
▁chapter	-10.3518
▁frame	-10.3524
▁entered	-10.3528
▁innovative	-10.3531
▁orders	-10.3538
▁adventure	-10.3539
▁banks	-10.3539
▁Tom	-10.3542
▁Police	-10.3542
▁rid	-10.3543
▁browser	-10.3543
▁stupid	-10.3544
▁ease	-10.3546
▁g	-10.3546
▁f	-10.3548
▁immediate	-10.3552
▁shower	-10.3558
▁grade	-10.3563
▁issued	-10.3566
▁Again	-10.3574
▁impressive	-10.3574
ur	-10.3581
▁fields	-10.3583
▁switch	-10.3585
▁fly	-10.3589
related	-10.3591
▁ends	-10.3596
▁launched	-10.3599
side	-10.3602
▁transport	-10.3602
▁ongoing	-10.3603
▁plays	-10.3608
▁Looking	-10.3611
▁Un	-10.3615
▁gender	-10.362
▁decent	-10.363
▁African	-10.3634
▁magic	-10.3635
back	-10.3642
over	-10.3643
▁whenever	-10.3643
▁wanting	-10.3645
▁35	-10.3653
▁evil	-10.3659
▁relief	-10.3663
▁extensive	-10.3665
▁desk	-10.3669
▁improving	-10.3669
▁entertainment	-10.3671
▁savings	-10.3675
uk	-10.3681
▁express	-10.3691
▁reputation	-10.3693
ted	-10.3696
▁cycle	-10.3696
▁furniture	-10.3697
!)	-10.3699
▁proof	-10.3703
▁deals	-10.3704
▁impressed	-10.3705
▁0	-10.371
▁constant	-10.3719
▁+	-10.372
▁flowers	-10.3725
▁conflict	-10.3733
▁saving	-10.3751
▁assessment	-10.3752
▁cloud	-10.377
▁reader	-10.3772
▁regardless	-10.3772
▁Women	-10.3774
▁complicated	-10.3785
led	-10.3788
▁researchers	-10.3809
▁invest	-10.381
▁operate	-10.3812
▁27	-10.3813
▁typical	-10.3821
▁arrive	-10.3826
▁meals	-10.3829
▁lady	-10.3829
▁identified	-10.3839
▁south	-10.384
20	-10.3848
▁worried	-10.3851
▁proven	-10.3855
▁sight	-10.3859
▁Development	-10.3861
▁ring	-10.3864
▁dreams	-10.3864
▁installation	-10.3865
da	-10.3865
▁healthcare	-10.3871
▁appeal	-10.388
▁revealed	-10.3886
▁routine	-10.3887
▁contribute	-10.3888
▁engineering	-10.3891
▁bottle	-10.3895
▁closely	-10.3896
▁programme	-10.3898
▁neck	-10.3898
▁roof	-10.39
▁studio	-10.3903
▁iPhone	-10.3904
▁Central	-10.3907
▁north	-10.3908
▁humans	-10.3913
▁News	-10.3915
▁beer	-10.3916
▁boost	-10.392
▁communicate	-10.3925
▁scheduled	-10.3931
▁shift	-10.3931
▁choosing	-10.3945
ize	-10.395
▁Come	-10.3954
▁2010	-10.3957
▁trained	-10.3957
▁Hall	-10.3959
▁candidate	-10.3965
▁YOU	-10.397
▁Germany	-10.3977
▁increasingly	-10.3983
▁till	-10.3986
▁chain	-10.3989
▁anxiety	-10.3992
▁degrees	-10.3992
▁village	-10.3993
▁45	-10.3997
um	-10.4
▁PC	-10.4024
▁Mary	-10.4025
▁Jack	-10.4028
▁membership	-10.4034
▁honor	-10.4035
▁discount	-10.4046
▁loves	-10.4056
▁legs	-10.4067
▁Contact	-10.4069
▁Z	-10.407
▁illegal	-10.4071
▁Institute	-10.4072
▁tech	-10.4081
ise	-10.4082
▁consistent	-10.4083
▁Such	-10.4092
▁brands	-10.4092
When	-10.4119
▁Bay	-10.4123
▁Y	-10.4127
▁neighborhood	-10.413
lo	-10.4133
▁upcoming	-10.4135
id	-10.4136
▁prison	-10.4142
▁industrial	-10.4144
se	-10.4151
▁yeah	-10.4155
▁Times	-10.4155
▁crucial	-10.4156
▁sport	-10.4158
▁recommendations	-10.4161
ED	-10.4162
▁harm	-10.4163
▁somehow	-10.4174
For	-10.4177
▁twenty	-10.4181
well	-10.4182
▁pace	-10.4185
▁audio	-10.4189
▁figures	-10.4191
▁Russia	-10.4191
▁cells	-10.4191
▁Party	-10.4191
▁suffer	-10.4196
▁exposure	-10.42
▁legislation	-10.4203
▁lesson	-10.4206
▁dining	-10.421
▁walls	-10.4211
▁stayed	-10.4215
▁hang	-10.4216
il	-10.4221
▁Everything	-10.4223
▁religion	-10.4228
▁victims	-10.4228
▁vast	-10.4231
▁lay	-10.4234
▁visited	-10.4235
▁Anyway	-10.4239
▁Mac	-10.4242
▁portion	-10.4242
▁suspect	-10.4247
▁31	-10.4249
▁database	-10.4251
▁Therefore	-10.4253
▁successfully	-10.4254
▁incident	-10.4259
▁broke	-10.4262
▁horse	-10.4263
▁extended	-10.4266
▁stands	-10.4275
▁smooth	-10.4277
▁sauce	-10.4279
▁stars	-10.428
▁linked	-10.4282
▁terrible	-10.4282
▁Bar	-10.4282
▁consideration	-10.4285
▁Instagram	-10.429
▁stone	-10.4302
▁resolution	-10.4302
▁permission	-10.4303
▁gifts	-10.4306
▁airport	-10.431
▁Los	-10.4311
▁historical	-10.4314
▁electric	-10.432
▁surrounding	-10.4321
con	-10.4324
▁Science	-10.433
▁Minister	-10.4339
▁suppose	-10.434
▁German	-10.4343
▁estimated	-10.4344
▁committee	-10.4344
▁chose	-10.4347
▁innovation	-10.4348
▁houses	-10.4352
with	-10.4358
▁reporting	-10.4361
▁agents	-10.4368
▁USA	-10.4369
▁pounds	-10.437
▁Family	-10.4375
▁represent	-10.4377
▁letting	-10.438
▁ultimately	-10.4381
ING	-10.4391
▁Give	-10.4394
▁labor	-10.4396
▁accessible	-10.4398
▁checked	-10.44
▁opposite	-10.4404
▁loving	-10.441
▁bear	-10.4414
▁positions	-10.4415
▁2011	-10.4419
▁implement	-10.4426
▁dear	-10.4428
30	-10.4434
▁trend	-10.4442
▁blogs	-10.4443
As	-10.4448
▁painting	-10.4453
▁attorney	-10.4462
▁hosting	-10.4463
▁solar	-10.4469
▁bowl	-10.4472
▁Using	-10.4477
▁minor	-10.4481
▁expand	-10.4483
▁clothing	-10.4484
▁Water	-10.4489
▁Nothing	-10.449
▁spiritual	-10.4491
▁regard	-10.4493
down	-10.4496
▁nuclear	-10.4501
▁sample	-10.4502
ah	-10.4502
▁weapons	-10.4506
▁Community	-10.451
▁hopefully	-10.4513
▁streets	-10.4516
apos	-10.4518
▁illness	-10.4518
▁River	-10.4519
▁Book	-10.4523
▁cookies	-10.4531
▁invited	-10.4538
▁depression	-10.4548
▁outstanding	-10.4548
▁7.	-10.4555
▁default	-10.4559
▁sustainable	-10.4562
▁understood	-10.4568
▁falling	-10.4573
▁noise	-10.4585
▁external	-10.4586
▁attitude	-10.4589
▁reply	-10.4592
▁covers	-10.4599
▁distribution	-10.4607
▁neither	-10.4608
▁reflect	-10.4609
▁enhance	-10.461
▁Long	-10.4614
▁wake	-10.4621
▁random	-10.4629
▁Island	-10.4631
▁mood	-10.4634
▁somebody	-10.4636
▁foundation	-10.4637
▁Food	-10.4639
▁google	-10.464
▁crew	-10.4643
▁Under	-10.4656
▁Did	-10.4656
▁Students	-10.4658
▁Mike	-10.4661
▁tight	-10.4664
▁ending	-10.4664
▁nearby	-10.467
▁valid	-10.467
▁lie	-10.467
▁priority	-10.4671
▁relax	-10.4674
▁mountain	-10.4675
▁fitness	-10.4676
▁principles	-10.4676
▁river	-10.4678
▁recorded	-10.468
▁reaction	-10.4686
▁victim	-10.4694
▁fourth	-10.4694
▁efficiency	-10.4699
▁qualified	-10.47
▁Western	-10.4709
▁letters	-10.4716
▁components	-10.4717
▁duty	-10.4721
▁hidden	-10.473
▁Section	-10.4734
▁n	-10.4744
▁carrying	-10.4753
▁brown	-10.4755
ir	-10.4757
▁replied	-10.4759
▁dis	-10.4762
▁Chicago	-10.477
▁flexible	-10.477
▁sky	-10.4774
▁scheme	-10.4776
▁Chris	-10.4779
▁Lake	-10.4786
▁diverse	-10.4791
▁gorgeous	-10.4796
▁greatly	-10.4802
▁campus	-10.4825
▁Never	-10.4828
▁chances	-10.4829
ists	-10.4832
▁Ben	-10.4832
▁destination	-10.4835
▁causing	-10.4836
▁generate	-10.4837
ant	-10.4839
▁satisfied	-10.4841
ance	-10.4842
▁transportation	-10.4852
▁intelligence	-10.4856
▁organized	-10.4857
▁upper	-10.4858
▁consequences	-10.4863
▁extreme	-10.4864
▁percentage	-10.4865
▁dumpster	-10.4865
!!!	-10.4871
▁household	-10.4873
▁al	-10.4877
▁worldwide	-10.4877
▁loans	-10.4878
▁Super	-10.4891
▁pointed	-10.4897
▁colleagues	-10.4902
▁29	-10.4907
▁colour	-10.4908
▁engagement	-10.491
use	-10.4911
▁potentially	-10.4914
▁Data	-10.4925
▁Part	-10.4925
▁manufacturing	-10.4927
▁technique	-10.4929
▁monitor	-10.4929
▁publish	-10.4933
▁dates	-10.4935
▁managing	-10.4938
▁wealth	-10.4951
▁films	-10.4958
▁owned	-10.4967
▁approval	-10.4973
▁sentence	-10.4984
▁Bush	-10.4984
▁Without	-10.4987
▁Would	-10.4999
au	-10.5
▁Project	-10.5001
▁organic	-10.5003
▁chief	-10.5005
▁Con	-10.5005
▁Program	-10.5011
▁Blue	-10.5017
▁curious	-10.5019
▁v	-10.5031
▁conducted	-10.5032
▁pan	-10.5035
▁persons	-10.5035
▁Hotel	-10.5038
▁Foundation	-10.5049
▁drawing	-10.505
▁gay	-10.5051
ri	-10.5058
▁magazine	-10.5059
▁guidelines	-10.5059
▁Indian	-10.5064
▁originally	-10.5066
▁holidays	-10.5066
▁Japanese	-10.5072
site	-10.5075
▁command	-10.5076
▁implementation	-10.5076
▁Director	-10.5083
▁tip	-10.5086
She	-10.5089
▁element	-10.5095
field	-10.5097
▁mainly	-10.5101
▁Federal	-10.5105
os	-10.5107
▁nobody	-10.5108
▁League	-10.5119
▁Road	-10.5121
▁escape	-10.5123
▁Work	-10.5127
▁Beach	-10.5129
▁channel	-10.5131
▁$2	-10.5134
▁mixed	-10.5146
▁emails	-10.5149
0	-10.5149
▁supplies	-10.515
▁ads	-10.5156
▁lawyer	-10.5157
▁opinions	-10.5158
▁Brown	-10.517
▁thousand	-10.5177
▁blogging	-10.5177
▁recognized	-10.5182
▁mistakes	-10.5187
▁amounts	-10.5189
▁false	-10.5194
▁convenient	-10.5195
▁regional	-10.5201
izing	-10.5206
▁broad	-10.5206
▁patterns	-10.5211
▁shops	-10.5216
▁Steve	-10.5219
ier	-10.5222
▁butter	-10.5223
▁referred	-10.5225
▁permanent	-10.5234
▁engaged	-10.5238
▁motion	-10.525
ous	-10.5251
▁Show	-10.5254
▁establish	-10.5255
▁shots	-10.527
▁traveling	-10.5271
car	-10.5272
▁continuing	-10.5279
▁expression	-10.528
▁refer	-10.528
▁correctly	-10.5284
▁leg	-10.5289
▁designs	-10.5291
▁Happy	-10.5292
▁ill	-10.5298
▁IN	-10.5315
▁retirement	-10.5325
▁Think	-10.5325
▁attractive	-10.5328
▁differences	-10.5336
▁sizes	-10.5341
▁managers	-10.5347
lin	-10.5349
▁calm	-10.535
▁achieved	-10.5352
et	-10.536
▁extent	-10.5364
▁blame	-10.5366
▁Old	-10.537
▁stronger	-10.5375
▁definition	-10.5379
▁remote	-10.538
▁papers	-10.5384
▁kick	-10.5384
▁confirmed	-10.5385
▁clinical	-10.5388
ad	-10.539
▁acting	-10.5394
▁log	-10.5401
▁outcome	-10.5402
▁Care	-10.5407
▁muscle	-10.5414
▁encouraged	-10.5419
▁naturally	-10.5421
▁finance	-10.5425
▁arts	-10.5426
▁suggests	-10.5427
▁weekly	-10.5431
▁Out	-10.5432
▁scientists	-10.5435
Re	-10.5435
▁_	-10.5437
▁Mexico	-10.5439
▁shoulder	-10.544
▁lies	-10.5446
▁pm	-10.5455
▁heads	-10.5457
▁con	-10.5458
▁heading	-10.546
▁grab	-10.5467
▁hole	-10.5468
▁PM	-10.5475
▁Design	-10.5475
▁laid	-10.548
▁Plan	-10.5482
▁brilliant	-10.549
▁trends	-10.5491
▁organisation	-10.5493
▁personality	-10.5494
▁networks	-10.55
▁increases	-10.553
▁en	-10.5543
▁vary	-10.5545
▁mess	-10.5546
▁whilst	-10.556
▁Bible	-10.5561
▁strategic	-10.5562
ke	-10.5565
▁warning	-10.5568
▁drinks	-10.5574
▁phase	-10.5574
▁Angeles	-10.5581
▁vegetables	-10.5585
▁league	-10.5586
▁Jim	-10.5606
▁compare	-10.5606
▁swimming	-10.5607
▁smoke	-10.561
▁bags	-10.5622
▁limits	-10.5626
▁<	-10.5633
▁holds	-10.5633
▁Team	-10.5635
▁Wi	-10.5637
▁District	-10.564
▁pride	-10.564
▁forth	-10.564
▁inches	-10.5647
▁winner	-10.5651
▁favor	-10.5651
▁pleasant	-10.5653
▁fault	-10.5655
▁healing	-10.5658
▁domain	-10.5661
▁Little	-10.5664
▁occurred	-10.5665
▁enforcement	-10.5672
▁breaking	-10.568
▁protein	-10.5681
▁authors	-10.5684
ac	-10.5684
▁Mar	-10.5685
▁steel	-10.5688
▁odd	-10.5691
ex	-10.5694
▁pregnant	-10.5695
▁Joe	-10.5702
▁zero	-10.5703
▁sensitive	-10.5705
▁flying	-10.5707
▁sufficient	-10.571
▁storm	-10.5712
▁council	-10.5717
▁2008	-10.5728
▁photography	-10.5729
▁survive	-10.5731
▁breast	-10.5731
▁Human	-10.5738
▁hide	-10.5739
▁attached	-10.574
▁replaced	-10.5741
ate	-10.5746
▁bills	-10.5748
▁deeply	-10.5751
▁explains	-10.5753
▁returns	-10.5755
▁involves	-10.5761
▁headed	-10.5763
▁yellow	-10.5764
▁300	-10.5765
▁mini	-10.5765
▁El	-10.5778
▁submitted	-10.578
▁killing	-10.578
▁sand	-10.5786
▁transition	-10.5788
▁Pre	-10.5789
▁surely	-10.5791
▁Power	-10.5793
▁rely	-10.5793
▁tone	-10.5796
▁Sea	-10.5802
▁struggling	-10.5809
▁proposal	-10.581
▁belief	-10.5821
▁mortgage	-10.5824
▁border	-10.5825
▁eligible	-10.5831
▁developers	-10.5832
▁guilty	-10.5834
▁performing	-10.5839
▁Smith	-10.5841
▁machines	-10.5848
▁figured	-10.585
▁dollar	-10.5866
▁telephone	-10.5868
▁tested	-10.5868
▁workshop	-10.5875
▁goods	-10.5879
level	-10.5884
▁murder	-10.5903
▁Second	-10.5903
▁communications	-10.5905
▁Top	-10.591
▁YouTube	-10.5912
▁golf	-10.5914
▁Inc	-10.5915
▁deserve	-10.5917
▁objects	-10.5923
▁Okay	-10.5923
▁industries	-10.5925
▁requests	-10.5926
▁volunteers	-10.5931
▁employer	-10.5933
▁strongly	-10.5934
▁Mo	-10.5936
▁recipes	-10.5941
▁replacement	-10.5945
▁collected	-10.5946
▁Three	-10.5949
▁rarely	-10.5967
▁emotions	-10.5969
▁behalf	-10.5971
▁pregnancy	-10.5976
▁county	-10.5977
▁hardly	-10.5978
▁studying	-10.598
▁concerning	-10.598
▁widely	-10.5984
wood	-10.5985
▁password	-10.599
▁Russian	-10.5998
▁sleeping	-10.6008
▁fingers	-10.602
friendly	-10.6031
ni	-10.6032
▁reducing	-10.6036
▁2009	-10.604
can	-10.6041
work	-10.6044
▁beneficial	-10.6048
▁existence	-10.6049
▁rising	-10.6057
book	-10.6065
▁yard	-10.6083
▁era	-10.6083
▁capture	-10.6087
ber	-10.6087
▁repeat	-10.6104
▁native	-10.6105
To	-10.6105
di	-10.6106
▁driven	-10.6109
▁equipped	-10.6111
▁Robert	-10.6112
▁childhood	-10.6121
li	-10.6123
▁Online	-10.6126
▁carbon	-10.6127
▁zone	-10.6131
▁Society	-10.6131
▁ignore	-10.6132
▁absolute	-10.6133
▁lifetime	-10.6141
▁explanation	-10.6143
▁chest	-10.6147
▁Centre	-10.6156
▁pot	-10.616
▁hanging	-10.6163
quality	-10.6164
▁input	-10.6164
▁craft	-10.6173
▁injured	-10.6178
▁Policy	-10.6182
▁filed	-10.6186
▁gym	-10.6192
ha	-10.6196
▁plane	-10.6205
▁grant	-10.6212
▁monitoring	-10.6212
▁Canadian	-10.6214
fi	-10.6216
▁motor	-10.6222
▁Mrs	-10.6223
▁believes	-10.6229
▁firms	-10.623
▁premium	-10.6242
▁garage	-10.6247
▁occasion	-10.6247
▁boxes	-10.625
▁Through	-10.6261
▁ensuring	-10.6262
▁talks	-10.6262
▁SO	-10.6263
▁danger	-10.6264
▁claimed	-10.6264
▁split	-10.6268
▁luxury	-10.6268
▁electricity	-10.627
▁laptop	-10.6277
▁Real	-10.6278
▁attended	-10.6281
▁2018.	-10.6281
▁Middle	-10.6287
▁bloggers	-10.6296
▁Microsoft	-10.63
▁statements	-10.6303
▁Paris	-10.6305
▁suffered	-10.6307
▁sheet	-10.6312
▁bonus	-10.6316
▁insight	-10.6317
▁chemical	-10.6318
▁recording	-10.6322
▁consumption	-10.6326
▁exclusive	-10.6327
▁landscape	-10.6329
▁ancient	-10.633
▁hardware	-10.6332
▁accordance	-10.6336
`	-10.6338
▁rice	-10.634
ster	-10.6344
den	-10.6344
▁stunning	-10.6355
▁residential	-10.6362
▁diabetes	-10.6362
▁largely	-10.6364
▁urban	-10.6367
▁diseases	-10.6368
▁fishing	-10.6383
▁Men	-10.6391
pe	-10.6391
▁phones	-10.6393
long	-10.6396
▁consultation	-10.6396
▁treatments	-10.64
▁Code	-10.6407
▁loud	-10.6413
▁Sun	-10.6418
▁Asia	-10.6423
ul	-10.6427
▁comparison	-10.6428
▁consent	-10.6432
▁raising	-10.6432
▁dish	-10.6432
▁shares	-10.6437
▁birds	-10.6444
▁ok	-10.645
▁nose	-10.645
▁ear	-10.6453
▁arrival	-10.6465
▁appreciated	-10.6469
▁fabric	-10.6471
▁graduate	-10.6473
▁En	-10.6474
▁Rock	-10.6475
▁joint	-10.6479
▁ought	-10.6479
▁plate	-10.648
▁trick	-10.6481
▁acts	-10.6482
▁w	-10.6489
▁booking	-10.6494
ka	-10.6499
▁faces	-10.6499
▁Le	-10.6505
don	-10.6507
▁eggs	-10.6508
▁hopes	-10.6513
▁honestly	-10.6523
▁adds	-10.6525
life	-10.6525
▁Start	-10.6527
▁drawn	-10.6527
▁closing	-10.6539
more	-10.654
▁platforms	-10.6543
▁merely	-10.6545
▁computers	-10.6545
▁informative	-10.6551
▁happiness	-10.6555
▁Sure	-10.6556
▁desired	-10.6557
▁partnership	-10.6573
▁oven	-10.6578
▁Australian	-10.6583
▁gear	-10.6588
▁musical	-10.659
▁buyers	-10.6599
▁UN	-10.66
▁preparing	-10.6602
▁thick	-10.6602
▁calendar	-10.6605
▁classroom	-10.6605
ping	-10.6607
▁thin	-10.6618
▁earned	-10.662
Q	-10.6629
▁employers	-10.6631
▁pocket	-10.6638
▁draft	-10.6638
▁stomach	-10.664
▁bridge	-10.664
▁anybody	-10.6641
▁deeper	-10.6647
▁Valley	-10.6648
▁formal	-10.6649
▁Martin	-10.665
▁ocean	-10.6657
▁trail	-10.6659
▁granted	-10.6661
▁Journal	-10.6668
▁nights	-10.6676
sh	-10.6679
class	-10.6684
▁row	-10.669
▁requirement	-10.6695
▁Spanish	-10.6695
▁lately	-10.6702
▁barely	-10.6705
▁plain	-10.6706
▁coast	-10.6706
▁inter	-10.6707
▁Special	-10.6712
▁reaching	-10.6715
ship	-10.6724
▁Mom	-10.6724
▁micro	-10.6727
▁babies	-10.6727
▁rose	-10.6731
▁angry	-10.6731
▁signal	-10.6739
▁Insurance	-10.6751
▁lighting	-10.6754
▁purchasing	-10.676
▁weak	-10.676
▁pure	-10.6768
How	-10.677
▁Really	-10.677
▁tears	-10.677
▁confused	-10.6771
▁$5	-10.6772
▁compensation	-10.6773
▁virtual	-10.6774
▁faced	-10.6775
hour	-10.6775
▁elsewhere	-10.6777
▁inform	-10.6777
▁expressed	-10.678
▁applicable	-10.6781
▁plot	-10.6781
▁volunteer	-10.6783
▁soil	-10.6789
▁picking	-10.679
▁(1)	-10.679
▁giant	-10.6793
▁satisfaction	-10.6797
▁succeed	-10.6799
▁pray	-10.6806
▁SEO	-10.6811
▁edition	-10.6814
▁32	-10.6819
▁Always	-10.6824
▁Watch	-10.6828
▁introduction	-10.6835
▁medication	-10.6845
▁raw	-10.6847
▁Actually	-10.6863
Don	-10.6863
▁depth	-10.6866
▁unusual	-10.6867
▁juice	-10.6869
ak	-10.6871
40	-10.6871
▁wheel	-10.6874
▁gap	-10.6879
▁spaces	-10.6882
▁dust	-10.6886
▁anniversary	-10.689
▁Music	-10.6899
▁reduction	-10.6899
▁deposit	-10.6906
▁passionate	-10.6914
▁Master	-10.6917
▁exists	-10.6918
▁preparation	-10.6924
▁smell	-10.693
▁maintaining	-10.6932
▁universe	-10.6936
▁8.	-10.6938
▁resort	-10.6941
▁categories	-10.6941
im	-10.6944
▁compliance	-10.6948
▁Senate	-10.6948
▁iron	-10.6948
▁cheaper	-10.6949
ee	-10.6952
▁Should	-10.6953
▁upgrade	-10.6957
she	-10.6961
▁argue	-10.6978
▁difficulty	-10.698
▁conclusion	-10.6983
▁engaging	-10.6983
▁versions	-10.6984
▁reform	-10.6994
▁Ha	-10.6995
▁joining	-10.7
mo	-10.7005
▁primarily	-10.7009
▁improvements	-10.702
▁System	-10.7026
▁bars	-10.7028
▁impression	-10.7029
▁exception	-10.7033
▁grand	-10.7035
▁participation	-10.7038
▁moves	-10.7041
this	-10.7046
our	-10.7051
▁interior	-10.7059
▁trips	-10.7064
▁arrested	-10.7064
▁Does	-10.7067
▁stored	-10.7068
▁riding	-10.7069
▁visible	-10.7071
▁contribution	-10.7077
▁inner	-10.7084
▁bird	-10.7085
▁resulting	-10.7089
▁Global	-10.7093
▁applying	-10.7094
op	-10.7095
▁Britain	-10.7103
▁Italian	-10.7106
▁featured	-10.711
▁covering	-10.7111
▁temporary	-10.7115
ised	-10.7115
▁wise	-10.7116
▁exposed	-10.712
▁disaster	-10.7123
▁packed	-10.7128
▁dental	-10.713
hand	-10.7135
▁port	-10.7136
▁oh	-10.7138
▁rapidly	-10.7138
ville	-10.7139
▁Place	-10.7144
▁tall	-10.7151
ce	-10.7152
▁attract	-10.7155
▁introduce	-10.7157
▁Father	-10.7159
▁concepts	-10.7175
Do	-10.7177
art	-10.7179
▁Ireland	-10.7182
▁programming	-10.719
▁cap	-10.7191
▁Santa	-10.7191
pa	-10.7196
▁entering	-10.7207
▁focusing	-10.7207
▁Iraq	-10.7208
▁accommodation	-10.7208
▁$3	-10.7209
▁rear	-10.7212
▁connections	-10.7212
▁newspaper	-10.7213
▁height	-10.7213
▁returning	-10.7213
▁rural	-10.7218
▁excuse	-10.7219
▁Republican	-10.7219
▁invite	-10.7226
ler	-10.7233
▁finger	-10.7234
new	-10.7238
▁silver	-10.724
▁attending	-10.7243
▁workplace	-10.7252
▁stable	-10.7255
▁stretch	-10.7258
▁experiencing	-10.7261
▁historic	-10.7262
▁Scott	-10.7264
▁organisations	-10.7266
including	-10.7269
▁cable	-10.7273
just	-10.7277
▁criteria	-10.7278
▁dynamic	-10.7281
making	-10.7282
▁Market	-10.7294
▁producing	-10.7298
▁objective	-10.7304
▁remained	-10.7306
▁subjects	-10.7307
▁Things	-10.7308
ana	-10.731
▁equally	-10.731
▁output	-10.7312
▁tank	-10.7313
▁infection	-10.7316
▁Media	-10.7316
▁habits	-10.7318
▁scenes	-10.7325
▁unknown	-10.7337
▁Hill	-10.7341
▁disappointed	-10.7343
▁rough	-10.7352
▁nervous	-10.7355
▁prayer	-10.7358
▁contest	-10.7359
▁Set	-10.736
▁initiative	-10.7363
▁Android	-10.7369
▁Wall	-10.7376
▁roads	-10.7378
▁handling	-10.738
▁fabulous	-10.7385
▁involving	-10.7393
▁pushed	-10.7395
▁shock	-10.7395
▁(2)	-10.7397
▁fewer	-10.7401
▁48	-10.7402
▁editor	-10.7403
▁Medical	-10.7407
▁2000	-10.7416
▁enemy	-10.7423
▁lift	-10.7423
▁damn	-10.7432
▁poverty	-10.7433
All	-10.7434
▁bath	-10.7434
▁victory	-10.7435
▁depend	-10.7436
▁component	-10.7438
▁serves	-10.7442
▁collaboration	-10.7444
▁gained	-10.7445
▁Fire	-10.7447
▁cuts	-10.7451
▁offices	-10.7452
▁wave	-10.7453
▁formed	-10.7457
▁Am	-10.7459
▁chronic	-10.7462
=	-10.7468
▁importantly	-10.7468
▁channels	-10.7471
▁entitled	-10.7477
▁moral	-10.7478
▁demands	-10.7479
▁Him	-10.7479
60	-10.7489
▁seats	-10.7491
▁ultimate	-10.7496
▁smoking	-10.7498
▁creativity	-10.75
▁9.	-10.7501
▁boss	-10.7505
▁Dan	-10.7505
▁IS	-10.7508
▁designer	-10.7523
▁forest	-10.7524
▁obtained	-10.7528
▁festival	-10.7528
▁exploring	-10.7529
▁meaningful	-10.753
.00	-10.7531
▁Cup	-10.7533
▁specialist	-10.7536
▁entrance	-10.7538
▁fundamental	-10.7547
▁confirm	-10.7549
▁equivalent	-10.7549
▁crash	-10.7554
▁portfolio	-10.7558
▁stream	-10.7561
▁interface	-10.7563
▁strike	-10.7565
▁Boston	-10.7566
▁relations	-10.7568
▁talented	-10.7569
▁printed	-10.7572
▁liability	-10.7574
▁charity	-10.7577
▁elected	-10.7578
▁Nice	-10.7582
▁cry	-10.7586
▁represents	-10.7598
▁commonly	-10.7601
▁asset	-10.7603
▁requested	-10.7604
▁root	-10.7606
▁vs	-10.761
▁filling	-10.7613
▁wishes	-10.7614
▁recall	-10.7616
profit	-10.7621
▁roles	-10.7623
▁Step	-10.7626
▁silence	-10.7626
▁CEO	-10.7628
▁farmers	-10.7633
▁gather	-10.7634
▁pink	-10.7637
bo	-10.7639
▁extend	-10.7642
ba	-10.7647
▁tradition	-10.7647
▁ALL	-10.7655
▁Mother	-10.7656
▁drama	-10.7661
▁mile	-10.7661
▁personnel	-10.7663
▁west	-10.7679
▁Live	-10.7684
▁involve	-10.7684
▁shame	-10.7685
▁Royal	-10.7686
▁Ask	-10.7687
▁promised	-10.7689
▁Thus	-10.7693
▁Richard	-10.7696
▁yards	-10.7697
ities	-10.7706
▁tons	-10.7707
▁lying	-10.7711
▁quotes	-10.7718
▁loose	-10.7728
▁fiction	-10.7729
▁relative	-10.7733
▁outcomes	-10.7735
ER	-10.7736
▁adopted	-10.7737
min	-10.7738
▁sorts	-10.7739
▁Welcome	-10.7743
▁investing	-10.7745
▁deck	-10.7752
▁resolve	-10.7753
▁Too	-10.7755
▁$10	-10.776
▁opposed	-10.7763
▁rating	-10.7764
▁50%	-10.7766
▁unlikely	-10.7767
▁forgotten	-10.7773
▁hiring	-10.7775
▁combat	-10.7775
▁availability	-10.7781
▁fascinating	-10.7782
▁indicate	-10.7782
▁precious	-10.7786
▁preferred	-10.7789
▁chart	-10.7798
▁script	-10.7799
▁wash	-10.7799
▁conversations	-10.78
▁Technology	-10.7801
▁Jan	-10.7802
▁controlled	-10.7804
▁Lee	-10.7811
▁expecting	-10.7813
▁statistics	-10.7819
▁anger	-10.7819
▁Conference	-10.7821
▁Head	-10.7824
ability	-10.7834
▁kit	-10.7835
▁layer	-10.7835
▁Bo	-10.7839
▁burn	-10.7844
▁usage	-10.7844
▁dishes	-10.7846
▁la	-10.7852
▁pushing	-10.7855
▁overcome	-10.7856
ring	-10.7857
▁label	-10.7858
▁Francisco	-10.7858
▁Tell	-10.7866
▁wisdom	-10.787
board	-10.788
▁enterprise	-10.7881
▁Town	-10.7889
▁Bob	-10.7892
▁Trust	-10.7895
▁Meanwhile	-10.7902
ron	-10.7902
▁investments	-10.7902
they	-10.7904
▁minds	-10.7905
15	-10.7908
minute	-10.7908
▁blow	-10.791
▁heavily	-10.7918
▁prime	-10.7919
▁delay	-10.792
▁blocks	-10.792
▁Grand	-10.7925
▁intense	-10.7931
▁Spring	-10.7933
point	-10.7942
▁Enjoy	-10.7943
▁Summer	-10.7945
▁disorder	-10.7948
▁clock	-10.795
▁publication	-10.7953
▁Museum	-10.7953
room	-10.7953
▁physically	-10.7954
even	-10.7957
▁Hopefully	-10.7961
▁essentially	-10.7962
▁responses	-10.7969
▁recognition	-10.7969
▁=	-10.7969
▁CD	-10.797
▁electrical	-10.7972
▁sharp	-10.7972
▁WordPress	-10.7974
▁union	-10.7976
▁creates	-10.7978
▁define	-10.7978
▁unfortunately	-10.7978
▁extension	-10.7989
▁convenience	-10.7992
io	-10.7992
▁approaches	-10.7993
▁massage	-10.7993
▁behaviour	-10.7997
▁NO	-10.7999
▁abilities	-10.8003
▁lists	-10.801
▁edit	-10.8013
▁vulnerable	-10.8015
▁spots	-10.8016
▁Zealand	-10.8022
▁Harry	-10.8023
▁Holy	-10.8023
▁engines	-10.8025
made	-10.8026
▁Ma	-10.8029
va	-10.8029
▁settle	-10.8033
▁enjoyable	-10.8035
law	-10.8038
ft	-10.8038
▁k	-10.8042
-1	-10.8045
▁setup	-10.8047
▁2017.	-10.8049
▁Ar	-10.8049
▁hat	-10.8056
▁nations	-10.8069
▁promotion	-10.8077
▁Manager	-10.8078
▁Something	-10.8079
▁institution	-10.8084
▁encounter	-10.8089
▁scenario	-10.8095
▁applies	-10.8096
▁joke	-10.8098
▁pursue	-10.8101
▁Matt	-10.8102
▁manual	-10.8103
▁Review	-10.8109
ial	-10.8111
▁reveal	-10.8115
▁lock	-10.8116
▁2007	-10.8117
▁cats	-10.8121
▁shirt	-10.8128
▁tag	-10.813
▁discussions	-10.8132
▁concrete	-10.8133
▁governments	-10.8136
let	-10.8136
▁pricing	-10.8142
red	-10.8149
▁occurs	-10.815
▁recover	-10.8154
▁venue	-10.8163
▁clicking	-10.8164
▁commit	-10.8165
▁framework	-10.8168
▁agenda	-10.8169
▁experiment	-10.8176
known	-10.8177
▁scope	-10.8178
▁safely	-10.8179
▁contrast	-10.8182
▁exceptional	-10.8189
▁Game	-10.819
mer	-10.8191
▁hall	-10.8193
▁Young	-10.8194
▁instant	-10.8199
▁thoroughly	-10.8203
▁falls	-10.8206
▁smiled	-10.8207
▁Catholic	-10.8208
▁36	-10.8214
▁downtown	-10.8215
▁specified	-10.8217
▁marks	-10.8226
▁remind	-10.8228
▁fits	-10.8229
▁substantial	-10.8232
ga	-10.8232
▁1)	-10.8234
▁initially	-10.8235
11	-10.824
▁quit	-10.8242
▁accomplish	-10.8243
▁Energy	-10.8245
▁productive	-10.8248
▁AM	-10.825
▁Justice	-10.8255
▁150	-10.8255
▁god	-10.8255
month	-10.8256
▁integrated	-10.8258
▁advise	-10.826
▁implemented	-10.8261
▁addressed	-10.8265
▁lets	-10.8269
▁damaged	-10.8277
▁Army	-10.8282
▁Korea	-10.8282
▁destroy	-10.8284
▁logo	-10.829
ko	-10.8292
▁array	-10.8296
▁puts	-10.8299
▁expansion	-10.8302
▁abroad	-10.8303
▁exam	-10.8306
▁voters	-10.8311
▁periods	-10.8314
▁Help	-10.8319
▁Gold	-10.8322
▁promoting	-10.8325
Our	-10.8328
▁u	-10.833
▁upset	-10.8333
▁errors	-10.8333
▁convinced	-10.8338
▁removal	-10.834
ten	-10.8344
▁admitted	-10.8352
▁ladies	-10.8358
▁painful	-10.8358
▁copies	-10.836
▁Whatever	-10.8362
▁east	-10.8366
what	-10.8367
▁handy	-10.837
▁$4	-10.8372
▁Italy	-10.8377
▁Carolina	-10.8382
▁relating	-10.8394
▁evaluation	-10.8396
▁architecture	-10.8396
▁Was	-10.8396
▁manufacturers	-10.8401
▁guard	-10.8408
ups	-10.8412
▁encouraging	-10.8412
▁tracks	-10.8414
Fi	-10.8419
25	-10.842
▁professor	-10.8428
▁styles	-10.8428
▁trash	-10.8432
▁fake	-10.8433
▁newly	-10.8433
▁suicide	-10.8435
▁hotels	-10.8436
▁packages	-10.8438
▁dozen	-10.8439
▁stages	-10.844
▁coaching	-10.8441
ence	-10.8441
▁caring	-10.8442
pro	-10.8448
▁forgot	-10.8463
▁directed	-10.8465
▁genuine	-10.8469
▁tracking	-10.8471
▁2)	-10.8472
▁singing	-10.8474
▁fraud	-10.8477
▁Clinton	-10.8482
▁liquid	-10.8483
▁soldiers	-10.8498
▁transaction	-10.8498
▁struck	-10.8502
▁displayed	-10.8503
▁decline	-10.8504
▁Ms	-10.8504
▁demonstrate	-10.8512
▁10%	-10.8514
▁king	-10.8514
▁Ho	-10.8514
▁hits	-10.8516
▁excess	-10.8518
ging	-10.8522
hi	-10.8524
▁Support	-10.8525
▁Night	-10.8526
date	-10.8528
how	-10.8528
▁marked	-10.8528
▁army	-10.8532
▁Dad	-10.8535
ning	-10.8537
▁follows	-10.8539
ons	-10.8541
bar	-10.8541
▁Report	-10.8545
ent	-10.8546
ating	-10.8547
head	-10.8547
▁aimed	-10.8547
▁blind	-10.855
style	-10.855
▁resistance	-10.8551
▁bound	-10.8551
▁unexpected	-10.8556
▁representative	-10.856
▁ID	-10.8567
▁bone	-10.8569
▁attempts	-10.857
▁FOR	-10.8571
▁lawyers	-10.8571
▁journal	-10.8571
▁permit	-10.8572
▁Per	-10.8575
▁Financial	-10.8576
▁?	-10.859
é	-10.8596
▁circle	-10.8596
▁breaks	-10.8597
▁intelligent	-10.8598
ey	-10.8601
▁expense	-10.8601
▁Thomas	-10.8603
star	-10.8603
▁adjust	-10.861
ya	-10.861
▁findings	-10.861
▁habit	-10.8611
▁complaint	-10.8611
▁Executive	-10.8623
▁Press	-10.8623
▁differently	-10.8624
▁latter	-10.8636
▁acid	-10.8643
▁flexibility	-10.8644
▁currency	-10.8644
▁maintained	-10.8651
▁mis	-10.8653
▁CO	-10.8655
▁Local	-10.8661
▁productivity	-10.8662
▁museum	-10.8663
ard	-10.8666
▁lake	-10.8669
▁aged	-10.8672
ge	-10.8674
▁romantic	-10.8675
▁Spirit	-10.8677
▁heating	-10.8677
▁stopping	-10.8681
▁bookmarked	-10.8684
▁certificate	-10.8685
▁Anyone	-10.8685
▁consistently	-10.8686
▁Search	-10.8689
▁boring	-10.8689
▁possibilities	-10.8689
▁DO	-10.8692
▁relaxing	-10.8692
▁#1	-10.8697
▁”	-10.8698
called	-10.8701
▁Besides	-10.8704
▁PS	-10.8707
▁ban	-10.8709
▁fuck	-10.8709
▁thinks	-10.8711
▁baking	-10.8711
les	-10.8712
▁33	-10.8714
▁surprising	-10.8718
▁capabilities	-10.8721
▁phrase	-10.8723
▁signing	-10.8725
▁powers	-10.8726
▁divorce	-10.8728
port	-10.8734
right	-10.874
▁yoga	-10.8744
▁officially	-10.8745
▁tables	-10.8747
▁skilled	-10.875
▁bug	-10.8752
▁delivering	-10.8755
▁spare	-10.8755
▁moon	-10.8764
▁1990	-10.8771
▁compete	-10.8771
▁voting	-10.8771
▁participating	-10.8773
▁math	-10.878
▁contracts	-10.878
▁ordinary	-10.8782
▁sum	-10.8783
▁publishing	-10.8785
▁drove	-10.8788
▁beliefs	-10.8792
▁principle	-10.8793
▁printing	-10.8794
▁burning	-10.8795
▁followers	-10.8795
Not	-10.8801
▁absence	-10.8801
foot	-10.8802
▁diversity	-10.8805
ol	-10.8806
▁interviews	-10.8807
▁visits	-10.8809
):	-10.8809
▁cameras	-10.881
▁hearts	-10.8811
▁mixture	-10.8816
▁documentation	-10.8817
▁faculty	-10.8819
tic	-10.8827
▁commission	-10.8827
▁''	-10.883
▁Store	-10.8831
▁lips	-10.8831
ology	-10.8834
▁Play	-10.8837
▁contributions	-10.8837
▁sudden	-10.8841
▁Jewish	-10.8841
▁Secretary	-10.8843
▁remarkable	-10.8845
▁languages	-10.8845
▁settled	-10.8846
der	-10.8851
▁egg	-10.8855
▁fucking	-10.8855
▁Control	-10.8857
▁sir	-10.8864
▁prize	-10.8871
▁complaints	-10.8874
▁awful	-10.8875
▁annoying	-10.888
▁pen	-10.8887
▁highlight	-10.889
▁asks	-10.889
▁·	-10.8893
▁Had	-10.8893
▁transactions	-10.8894
▁Due	-10.8895
▁grass	-10.8896
bit	-10.8897
▁generations	-10.89
▁interact	-10.8911
▁Lo	-10.8912
45	-10.8913
▁Getting	-10.8914
who	-10.8914
▁elections	-10.8914
▁actively	-10.8915
▁trusted	-10.8923
▁addresses	-10.8923
▁contemporary	-10.8931
12	-10.8933
▁laughed	-10.8935
▁networking	-10.8941
ho	-10.8942
▁pizza	-10.8944
▁jail	-10.896
▁targeted	-10.8966
▁dying	-10.8966
▁Tim	-10.8966
▁toys	-10.8971
▁grace	-10.8978
▁Miss	-10.8978
▁celebration	-10.8979
▁Network	-10.899
▁semi	-10.8994
▁presents	-10.8997
▁aims	-10.8998
▁bother	-10.8999
90	-10.8999
▁literature	-10.9
▁Put	-10.9002
▁im	-10.9003
▁interaction	-10.9003
▁Building	-10.9005
▁flavor	-10.9013
▁mad	-10.9018
▁thrown	-10.9021
▁surrounded	-10.9022
▁Chief	-10.9022
ow	-10.9027
▁$100	-10.9028
▁400	-10.9032
ham	-10.9032
▁speaker	-10.9041
▁workout	-10.9047
ated	-10.9048
▁Simply	-10.9048
▁losses	-10.9051
▁proved	-10.9053
▁supports	-10.9054
▁tape	-10.9059
being	-10.9063
▁peak	-10.9067
▁muscles	-10.9068
▁Di	-10.9072
▁generated	-10.9076
▁layout	-10.9076
▁accused	-10.9077
▁destroyed	-10.908
▁accounting	-10.9081
▁horrible	-10.9101
▁disagree	-10.9103
▁Festival	-10.9103
▁campaigns	-10.9109
▁viewing	-10.9112
▁guaranteed	-10.9118
▁shortly	-10.9119
▁philosophy	-10.9124
▁Coast	-10.9125
▁Ok	-10.9128
que	-10.9128
▁upload	-10.913
▁opposition	-10.9134
▁sought	-10.9135
▁salary	-10.914
▁sooner	-10.9141
▁narrow	-10.9142
▁association	-10.9143
▁estimate	-10.9144
▁manufacturer	-10.9145
▁gaming	-10.9146
▁Marketing	-10.9151
▁fallen	-10.9151
▁reward	-10.9152
▁tries	-10.916
▁Much	-10.916
▁aircraft	-10.916
▁ownership	-10.9163
▁Below	-10.9164
▁responded	-10.9166
▁banking	-10.9171
▁immigration	-10.9171
light	-10.9173
▁objectives	-10.9174
▁rolling	-10.9176
▁Virginia	-10.9176
▁awards	-10.9177
▁2016.	-10.9181
▁calories	-10.9181
▁relation	-10.9182
▁directions	-10.9184
▁paragraph	-10.9189
dy	-10.9189
▁eliminate	-10.9192
▁Join	-10.9193
▁ceremony	-10.9197
▁insights	-10.9197
▁powder	-10.9199
▁substance	-10.9199
17	-10.9201
▁Personal	-10.9203
▁defend	-10.9203
ray	-10.9206
▁bond	-10.921
▁alongside	-10.9211
▁frequent	-10.9211
▁intention	-10.9213
▁Fair	-10.9217
▁sections	-10.9218
▁bankruptcy	-10.9218
▁walks	-10.9221
▁superior	-10.9221
▁observed	-10.9221
▁photographs	-10.9223
▁scared	-10.9226
,000	-10.923
▁refused	-10.9233
▁weapon	-10.9235
▁lol	-10.9238
▁Iran	-10.924
▁II	-10.9243
▁reminded	-10.9252
▁voted	-10.9253
▁structures	-10.9253
▁editing	-10.9254
▁guitar	-10.9256
ball	-10.926
▁ears	-10.926
▁provision	-10.9262
70	-10.9271
▁matches	-10.9272
▁profits	-10.9274
▁reception	-10.9275
▁addiction	-10.9275
▁seeds	-10.9281
▁Supreme	-10.9284
▁End	-10.9289
▁interactive	-10.9289
▁Rose	-10.9291
▁mountains	-10.9293
▁Queen	-10.9298
▁gathered	-10.9303
▁crimes	-10.9304
▁emphasis	-10.9313
▁rush	-10.9316
▁scary	-10.9323
▁workshops	-10.9325
▁Academy	-10.9329
▁(19	-10.9334
▁filter	-10.9343
▁Word	-10.9344
▁vice	-10.9348
▁Prime	-10.9349
▁temperatures	-10.935
▁ha	-10.9351
▁intellectual	-10.9352
▁completion	-10.9353
▁sing	-10.9354
▁Mc	-10.9354
▁crap	-10.9362
▁breathing	-10.9362
▁strive	-10.9362
ig	-10.9365
▁clubs	-10.9367
▁dialogue	-10.9369
®	-10.9372
▁emissions	-10.9374
▁[...]	-10.9378
19	-10.9378
▁desktop	-10.938
▁inspiring	-10.9383
▁2017,	-10.9385
▁mirror	-10.9386
▁protecting	-10.9389
▁resume	-10.9389
▁acceptable	-10.939
▁salad	-10.9392
▁exercises	-10.9393
▁Additionally	-10.9395
▁Land	-10.9395
▁Several	-10.9397
▁bio	-10.9397
▁pitch	-10.9399
▁75	-10.94
▁disability	-10.9401
▁contained	-10.9404
▁1980	-10.9408
▁William	-10.941
▁occasionally	-10.9412
▁locked	-10.9414
▁gathering	-10.9415
▁Southern	-10.942
▁silly	-10.9426
▁sake	-10.9433
▁column	-10.9433
▁excitement	-10.9437
▁Light	-10.9438
▁opt	-10.9438
▁virtually	-10.9438
▁formula	-10.9439
▁Given	-10.944
▁guns	-10.944
▁DC	-10.944
▁Library	-10.9446
▁founded	-10.9451
▁developer	-10.9454
▁orange	-10.9465
▁Alex	-10.9467
▁seasons	-10.9468
▁Frank	-10.9472
▁announce	-10.9477
▁concert	-10.9477
▁amongst	-10.9477
▁Fund	-10.948
▁thankful	-10.9482
▁combine	-10.9489
town	-10.949
▁inspire	-10.9491
▁r	-10.9496
▁politicians	-10.9496
▁diagnosed	-10.9497
▁pets	-10.9499
▁speakers	-10.9502
▁restrictions	-10.9503
▁initiatives	-10.951
80	-10.951
▁stations	-10.9511
▁pulling	-10.9517
▁fancy	-10.952
▁tied	-10.952
▁listing	-10.9524
▁Chapter	-10.9526
▁Guide	-10.9526
▁tap	-10.9527
▁dirty	-10.9527
▁Unless	-10.9528
▁34	-10.953
▁diagnosis	-10.9532
▁Room	-10.9536
▁declared	-10.9538
▁minister	-10.9546
▁Hospital	-10.9548
▁pilot	-10.9551
▁Especially	-10.9553
▁Dec	-10.9559
tion	-10.9563
▁duties	-10.9567
▁deadline	-10.9567
▁overwhelming	-10.9572
▁Want	-10.9576
$	-10.9576
▁functional	-10.9583
▁View	-10.9585
▁evaluate	-10.9589
▁employed	-10.959
▁delighted	-10.9592
▁overnight	-10.9595
▁App	-10.9599
▁globe	-10.9606
▁announcement	-10.9608
▁Space	-10.9608
za	-10.9608
ina	-10.9608
99	-10.9609
▁spoken	-10.9609
▁regions	-10.9612
ford	-10.9615
▁Johnson	-10.9615
▁History	-10.9618
▁Visit	-10.9619
▁provisions	-10.9623
▁mg	-10.9623
▁beans	-10.9625
ative	-10.963
▁rapid	-10.9631
▁Spain	-10.9633
Why	-10.9634
▁reserve	-10.964
▁division	-10.9646
▁titles	-10.9649
▁responsibilitie	-10.965
▁Administration	-10.9653
▁roughly	-10.9654
▁Jones	-10.9658
▁threats	-10.9662
box	-10.9663
▁immune	-10.9667
world	-10.9673
▁assigned	-10.9674
▁lowest	-10.9678
▁blessed	-10.9679
▁Working	-10.9679
home	-10.9684
▁universities	-10.9685
▁Rights	-10.9689
low	-10.9689
▁Stay	-10.9691
▁Ten	-10.9691
▁flag	-10.9694
▁wireless	-10.9696
▁$	-10.9697
▁peaceful	-10.97
▁enormous	-10.9701
▁flash	-10.9703
▁Donald	-10.9706
▁tie	-10.9706
▁Digital	-10.9706
gen	-10.9708
▁dose	-10.9711
▁tab	-10.9712
▁Customer	-10.9718
▁3-	-10.9719
▁Michigan	-10.9723
▁km	-10.9723
▁assured	-10.9723
▁kinda	-10.9724
▁generous	-10.9728
▁worker	-10.9729
▁Four	-10.973
▁Could	-10.9734
▁wider	-10.9734
▁Week	-10.9736
▁2016,	-10.974
▁residence	-10.9741
▁grounds	-10.9742
▁processed	-10.9743
ek	-10.9752
▁hitting	-10.9758
▁string	-10.9763
▁refund	-10.9768
▁pepper	-10.9778
▁20%	-10.9779
▁mystery	-10.978
ible	-10.9789
▁wondered	-10.9793
▁imagination	-10.9804
▁Until	-10.9809
▁arguments	-10.9815
▁nutrition	-10.9815
▁BE	-10.9819
▁Someone	-10.9827
▁throwing	-10.9828
▁centers	-10.9828
▁rescue	-10.9829
▁heaven	-10.9832
▁awarded	-10.9834
▁instantly	-10.9835
▁venture	-10.9835
▁Sarah	-10.9842
▁unlike	-10.9845
▁branch	-10.9846
▁adequate	-10.9846
▁Su	-10.9847
▁climb	-10.9848
▁motivation	-10.9848
ci	-10.985
▁container	-10.9852
▁discussing	-10.9853
▁baseball	-10.9853
▁reminder	-10.9859
▁spa	-10.9863
▁nicely	-10.9871
▁indicated	-10.9872
▁keen	-10.9874
▁sin	-10.9876
isation	-10.9879
▁enables	-10.9881
▁uncomfortable	-10.9883
▁Democrats	-10.9888
ng	-10.9889
▁summary	-10.9889
▁chemicals	-10.9896
▁Based	-10.9897
▁LA	-10.9898
▁neighbors	-10.9903
▁resident	-10.9904
▁Following	-10.9904
ang	-10.9905
▁fruits	-10.9907
▁dont	-10.9908
▁assault	-10.9909
▁Arts	-10.991
▁violent	-10.991
▁Full	-10.9912
ran	-10.9918
▁Has	-10.9921
▁Small	-10.9922
▁Jersey	-10.9923
▁MS	-10.9925
▁Na	-10.9931
▁difficulties	-10.9935
▁transformation	-10.9937
▁assess	-10.9946
▁AT	-10.9951
▁Order	-10.9951
▁dancing	-10.9956
▁nursing	-10.9957
▁patience	-10.996
po	-10.9963
▁relaxed	-10.9963
▁entertaining	-10.9967
▁relate	-10.9969
▁certified	-10.9972
▁emerging	-10.9973
50	-10.9974
▁ridiculous	-10.9981
state	-10.9985
good	-10.9989
▁graphic	-10.999
vo	-11.0002
▁corn	-11.0005
▁Indeed	-11.001
rate	-11.001
▁spectacular	-11.001
▁loads	-11.0012
▁golden	-11.0014
▁Way	-11.0019
▁secondary	-11.0019
▁di	-11.0019
▁Adam	-11.0021
▁designers	-11.0024
▁innocent	-11.0027
▁survival	-11.0037
▁Learning	-11.0038
▁Disney	-11.004
▁lab	-11.0043
▁Change	-11.0045
▁functionality	-11.0051
▁Asian	-11.0055
▁judgment	-11.0055
▁lens	-11.0057
▁coat	-11.0057
▁gentle	-11.0058
▁65	-11.0059
▁)	-11.0061
▁Agency	-11.0064
▁begun	-11.0069
▁bookmarks	-11.0077
▁targets	-11.0078
▁Northern	-11.008
▁accommodate	-11.0082
▁integrity	-11.0083
▁laughing	-11.009
▁focuses	-11.0098
ney	-11.0101
▁Nick	-11.0101
▁medications	-11.0103
▁examine	-11.0105
▁Jo	-11.0108
▁Kim	-11.0113
▁arrangements	-11.0113
▁regards	-11.0115
▁subscription	-11.0116
▁hungry	-11.012
▁consult	-11.0133
▁tournament	-11.0136
▁pants	-11.0139
▁affects	-11.0139
▁dramatic	-11.014
▁acquire	-11.0141
▁featuring	-11.0142
▁conservative	-11.0145
▁cure	-11.0145
▁(1	-11.0152
▁graphics	-11.0155
▁worship	-11.0156
▁boyfriend	-11.0158
▁Ka	-11.0169
▁Safety	-11.0169
▁silent	-11.0173
-3	-11.0175
▁glasses	-11.0178
▁motivated	-11.0178
▁icon	-11.0182
▁investigate	-11.019
▁embrace	-11.0192
▁deaths	-11.0196
▁Overall	-11.0201
▁meets	-11.0201
▁handful	-11.0204
One	-11.0205
dis	-11.0208
▁remembered	-11.021
▁dig	-11.0211
▁stepped	-11.0211
▁advantages	-11.0211
▁Tony	-11.0215
18	-11.0217
▁55	-11.022
▁grocery	-11.0224
▁Hollywood	-11.0225
▁:)	-11.0226
▁Lu	-11.023
LY	-11.0231
▁tackle	-11.0234
▁couples	-11.0237
top	-11.0239
▁Article	-11.0239
▁witness	-11.0243
▁knee	-11.0244
▁assistant	-11.0245
▁Force	-11.0246
▁minimal	-11.0246
▁Scotland	-11.0249
▁qualify	-11.025
▁repairs	-11.0262
▁administrative	-11.0263
▁Feel	-11.0265
▁Consider	-11.0266
some	-11.0268
▁controls	-11.0274
▁intent	-11.0274
there	-11.0275
▁nurse	-11.0275
▁bite	-11.0278
▁soup	-11.0279
▁foster	-11.0282
ab	-11.0295
▁LOVE	-11.0295
▁holes	-11.0295
▁index	-11.0296
▁franchise	-11.0297
▁permitted	-11.0299
▁automatic	-11.03
▁Follow	-11.03
▁2015,	-11.0301
ably	-11.0304
▁dressed	-11.0305
▁bid	-11.0306
▁h	-11.0308
▁worn	-11.0319
▁accessories	-11.0327
▁hunting	-11.0334
▁transform	-11.0335
▁integration	-11.0338
▁viewed	-11.0338
king	-11.034
ja	-11.0344
▁2006	-11.0347
▁Republicans	-11.0347
▁throat	-11.0353
▁exit	-11.0354
▁retired	-11.0355
▁consists	-11.0368
▁Kingdom	-11.0369
▁restore	-11.037
▁studied	-11.0377
▁finishing	-11.0377
▁arrange	-11.0379
▁endless	-11.038
▁apple	-11.0384
▁hesitate	-11.0387
▁penalty	-11.0389
▁regulation	-11.039
▁characteristics	-11.0392
Let	-11.0393
▁inch	-11.0395
▁advised	-11.0395
▁Ed	-11.0398
▁alert	-11.0399
▁2015.	-11.0402
▁decrease	-11.0402
▁hoped	-11.0403
▁realistic	-11.0404
▁basketball	-11.0408
▁Pay	-11.0415
nt	-11.0415
▁wherever	-11.0421
▁brothers	-11.0421
▁courts	-11.0425
▁passes	-11.0432
wing	-11.0437
wa	-11.0439
▁fired	-11.0442
▁Page	-11.0444
▁actor	-11.0448
from	-11.0449
▁landing	-11.0452
▁marijuana	-11.0453
▁steady	-11.0458
▁comply	-11.0461
▁Daniel	-11.0461
▁passengers	-11.0469
▁par	-11.047
▁humor	-11.0471
▁Probably	-11.0472
▁strengthen	-11.0476
▁describes	-11.0477
▁Create	-11.0481
▁anytime	-11.0483
▁precisely	-11.0484
▁competitors	-11.0493
▁reminds	-11.0502
▁colours	-11.0504
▁toilet	-11.0507
▁complain	-11.051
▁cooked	-11.0512
▁disabled	-11.0513
▁donation	-11.0514
run	-11.0517
▁Dis	-11.0518
▁episodes	-11.0519
▁occasions	-11.0521
▁refuse	-11.0523
▁Pacific	-11.0524
▁extraordinary	-11.0524
▁asleep	-11.0526
▁burden	-11.0527
▁accidents	-11.0528
▁hero	-11.0529
▁hospitals	-11.0531
▁apparent	-11.0533
▁horror	-11.0534
▁Talk	-11.0536
▁reviewed	-11.0536
care	-11.054
ite	-11.0541
▁cancel	-11.0541
▁badly	-11.0544
▁psychological	-11.0546
▁outfit	-11.0547
▁cruise	-11.055
▁evolution	-11.055
▁Thanksgiving	-11.0552
▁regret	-11.0554
▁profession	-11.0555
▁timely	-11.0558
▁l	-11.056
▁fantasy	-11.0561
▁travelling	-11.0562
▁ME	-11.0564
▁failing	-11.0565
▁Obviously	-11.0566
▁Colorado	-11.0567
▁promises	-11.0574
▁tremendous	-11.0575
▁containing	-11.0577
▁frustrating	-11.0578
▁prevention	-11.0579
▁leather	-11.0581
▁CA	-11.0582
▁regulatory	-11.0584
▁sectors	-11.0585
▁pic	-11.0587
▁timing	-11.0587
▁supporters	-11.0587
▁comic	-11.0588
▁Doctor	-11.0592
-2	-11.0592
13	-11.0594
▁iPad	-11.0594
▁handed	-11.0595
	-11.0597
▁nuts	-11.0597
▁thorough	-11.0598
▁suggestion	-11.0606
▁subsequent	-11.0607
▁£1	-11.0608
▁accomplished	-11.0609
▁spin	-11.0609
step	-11.0611
▁confusion	-11.0619
▁tutorial	-11.062
▁adopt	-11.0623
▁wage	-11.0625
▁discovery	-11.0625
pi	-11.0627
▁aggressive	-11.0629
▁Ex	-11.0629
▁virus	-11.063
▁boards	-11.0632
▁knowledgeable	-11.0634
▁Training	-11.0635
14	-11.064
ns	-11.0644
▁superb	-11.0645
▁Stop	-11.0646
▁1970	-11.0646
▁contents	-11.0647
▁loaded	-11.0652
▁settlement	-11.0653
35	-11.0653
▁dependent	-11.0657
▁flower	-11.066
TM	-11.0663
▁niche	-11.067
▁horses	-11.0671
▁bacteria	-11.0673
▁handled	-11.0673
▁enabled	-11.0677
▁Auto	-11.0678
▁thirty	-11.068
http	-11.0683
▁newsletter	-11.0687
▁Dave	-11.0689
▁suppliers	-11.0691
ped	-11.0691
▁beef	-11.0693
▁shook	-11.0694
16	-11.0694
▁pics	-11.0697
▁equity	-11.0698
▁representatives	-11.0699
▁entries	-11.0699
▁waited	-11.07
▁humanity	-11.0702
▁possess	-11.0702
Yeah	-11.0705
lan	-11.0705
tro	-11.0712
▁respective	-11.0714
▁delete	-11.0719
Now	-11.072
▁licensed	-11.0722
▁fiscal	-11.073
▁Ryan	-11.0733
▁courage	-11.0733
24	-11.0734
▁physician	-11.0738
▁Furthermore	-11.0739
▁touched	-11.074
▁y	-11.0742
▁stops	-11.0742
▁magical	-11.0745
▁et	-11.0747
school	-11.0748
▁factory	-11.0751
▁Du	-11.0753
▁flu	-11.0755
▁oral	-11.0757
▁donations	-11.0757
▁Greek	-11.0758
▁buyer	-11.0763
▁angle	-11.0766
▁hill	-11.0767
▁balanced	-11.077
!).	-11.0774
▁hunt	-11.0774
▁filing	-11.0777
▁drives	-11.0778
▁nail	-11.0781
▁publicly	-11.0787
▁warranty	-11.0788
▁rolled	-11.0788
▁examination	-11.079
▁Republic	-11.079
▁instruction	-11.0793
▁adoption	-11.0796
▁fifth	-11.0797
▁OR	-11.0797
▁Halloween	-11.0798
▁(2	-11.0798
▁democracy	-11.0799
▁armed	-11.0808
▁purchases	-11.0808
▁Ah	-11.0818
high	-11.0819
▁wire	-11.082
▁honey	-11.0828
▁Vegas	-11.0829
▁Class	-11.083
▁curriculum	-11.0833
ger	-11.0833
▁rank	-11.0833
▁inspection	-11.0836
▁keys	-11.0836
▁achieving	-11.0845
▁stability	-11.0846
▁continuous	-11.0847
▁lasting	-11.0849
▁knife	-11.085
▁stolen	-11.085
▁$6	-11.0852
▁referring	-11.0854
▁Either	-11.0861
▁Card	-11.0862
28	-11.0871
ck	-11.0873
▁arrest	-11.0873
▁shoulders	-11.0875
▁boot	-11.0876
▁amenities	-11.0878
75	-11.0884
▁exhibition	-11.0887
read	-11.0889
▁navigate	-11.089
▁themes	-11.0892
▁finds	-11.0894
▁cooperation	-11.0898
▁tongue	-11.09
▁Garden	-11.0902
▁copyright	-11.0902
▁casual	-11.0903
▁hired	-11.0903
jo	-11.0907
▁Brian	-11.091
▁42	-11.0911
▁prescription	-11.0912
▁tourist	-11.0914
▁warned	-11.0914
▁adapt	-11.0915
▁casino	-11.0918
Just	-11.0919
▁Da	-11.0921
▁collective	-11.0921
▁2018,	-11.0922
▁keyboard	-11.0925
▁dirt	-11.0926
▁Cross	-11.0928
▁racing	-11.0928
▁ski	-11.093
▁singer	-11.0931
ji	-11.0932
▁Civil	-11.0933
▁DVD	-11.0936
IT	-11.094
▁Nov	-11.0945
▁scratch	-11.0947
▁Rather	-11.095
▁Far	-11.0952
▁brush	-11.0952
▁resulted	-11.0954
▁Christians	-11.0954
▁Jeff	-11.0954
tra	-11.0955
▁Irish	-11.0956
▁Jackson	-11.0958
ny	-11.0959
▁OS	-11.096
set	-11.0964
IN	-11.0965
▁overseas	-11.0971
▁Choose	-11.0972
▁flour	-11.0973
▁Blog	-11.0973
▁ministry	-11.0973
▁shelter	-11.0978
water	-11.098
▁removing	-11.098
▁explaining	-11.0982
▁actors	-11.0982
▁photographer	-11.0986
▁workforce	-11.0987
▁represented	-11.099
▁37	-11.0991
▁intervention	-11.0993
▁nowhere	-11.0996
▁tear	-11.0996
▁logic	-11.0998
▁backup	-11.1002
▁girlfriend	-11.1005
▁Ohio	-11.1008
▁scores	-11.1011
▁popularity	-11.1017
▁efficiently	-11.1018
▁Moreover	-11.102
▁spouse	-11.1023
▁wrap	-11.1023
game	-11.1024
▁gallery	-11.1027
▁prayers	-11.1029
▁criticism	-11.1032
▁debut	-11.1034
▁convince	-11.1038
▁deciding	-11.1039
▁IP	-11.1043
▁template	-11.1045
▁athletes	-11.1046
▁Excellent	-11.1046
▁Lady	-11.1053
▁inventory	-11.1053
▁Charles	-11.1055
▁Often	-11.1056
▁repeated	-11.1062
▁Know	-11.1063
▁proceed	-11.1064
▁Li	-11.1065
▁smartphone	-11.1067
▁threw	-11.1075
ins	-11.1076
▁spell	-11.1078
▁crack	-11.108
▁Award	-11.1087
▁1/2	-11.1087
▁alarm	-11.1088
▁offense	-11.1093
▁genuinely	-11.1095
▁Point	-11.1095
AM	-11.1098
▁glance	-11.1103
▁Democratic	-11.1105
q	-11.1105
▁Site	-11.1106
▁Nations	-11.1108
▁Bi	-11.1111
sized	-11.1112
PS	-11.1114
▁tissue	-11.1115
▁vendors	-11.1121
tech	-11.1122
▁divided	-11.1122
▁Money	-11.1125
▁Usually	-11.1126
▁entrepreneurs	-11.1129
▁belt	-11.1136
vi	-11.1138
▁mining	-11.1144
▁attempting	-11.1145
▁considerable	-11.1149
▁slight	-11.1151
▁corporations	-11.1153
▁supplement	-11.1153
▁warming	-11.1153
week	-11.1154
▁Singapore	-11.1154
▁makeup	-11.1155
▁38	-11.1156
▁Protection	-11.1159
▁solo	-11.116
stone	-11.116
▁revolution	-11.1162
▁locally	-11.1165
wide	-11.1168
ries	-11.1169
▁Access	-11.1171
▁completing	-11.1171
▁preserve	-11.1174
▁achievement	-11.1185
▁Cor	-11.1186
▁Heart	-11.1188
▁packaging	-11.1191
▁0.	-11.1192
pre	-11.1192
▁Games	-11.1193
▁trailer	-11.1196
▁Agreement	-11.1198
▁parks	-11.1199
▁Living	-11.1202
▁beds	-11.1202
▁painted	-11.1206
▁Max	-11.1208
▁FREE	-11.1208
▁engineers	-11.121
▁harmful	-11.121
gov	-11.1224
▁garlic	-11.1226
OR	-11.1229
▁appreciation	-11.1229
▁spacious	-11.123
▁Looks	-11.1233
such	-11.1233
▁scored	-11.1238
▁Action	-11.1238
▁samples	-11.124
▁placing	-11.1242
▁scan	-11.1242
▁tomatoes	-11.1244
▁treating	-11.1244
▁cried	-11.1247
▁financing	-11.1247
▁oldest	-11.1249
▁disorders	-11.1252
▁Child	-11.1253
▁bold	-11.1255
▁tune	-11.1255
▁Ford	-11.1263
▁trigger	-11.1267
▁involvement	-11.1267
▁operational	-11.1275
▁denied	-11.1283
ze	-11.1286
▁wooden	-11.1286
▁2005	-11.1288
▁bands	-11.1288
▁western	-11.1288
▁Save	-11.1293
▁homework	-11.1298
▁Daily	-11.1299
▁maps	-11.13
▁Andrew	-11.1305
▁disabilities	-11.1305
▁Sounds	-11.1307
▁Select	-11.1309
▁Annual	-11.1309
▁intend	-11.1309
▁Dean	-11.1313
▁ranging	-11.1313
▁Making	-11.1315
▁lean	-11.1322
▁territory	-11.1323
▁wins	-11.1323
▁conventional	-11.1325
▁protest	-11.1326
▁Hot	-11.1327
▁Fox	-11.1328
26	-11.1331
▁van	-11.1337
▁Po	-11.1338
▁Glad	-11.1339
▁Sir	-11.1342
▁(3)	-11.1343
get	-11.1344
war	-11.1347
▁Within	-11.1347
fa	-11.135
▁worthy	-11.1352
▁Almost	-11.1353
29	-11.1361
▁legitimate	-11.1365
▁Lots	-11.137
▁11.	-11.1375
▁thrilled	-11.1375
only	-11.1375
▁votes	-11.1376
▁lemon	-11.1376
▁assignment	-11.1377
▁amazed	-11.1378
▁Apparently	-11.1381
▁confirmation	-11.1383
▁washing	-11.1391
▁Trade	-11.1391
▁discipline	-11.1393
▁Otherwise	-11.1393
▁fridge	-11.1396
air	-11.1399
▁Website	-11.14
ps	-11.1402
▁writes	-11.1404
▁Taking	-11.1405
▁pointing	-11.1406
▁offensive	-11.1409
▁hip	-11.141
▁southern	-11.1413
▁sole	-11.1417
▁ratio	-11.1419
▁Down	-11.1424
▁slip	-11.1425
▁elderly	-11.1426
‘	-11.1426
▁opens	-11.1429
▁appointed	-11.1435
iness	-11.1436
▁Beautiful	-11.1437
▁crossed	-11.1438
▁pension	-11.1438
▁Louis	-11.1439
27	-11.1439
▁Hard	-11.1443
SA	-11.1443
▁Unlike	-11.1444
mon	-11.1445
▁references	-11.1446
▁destruction	-11.1449
▁secrets	-11.1449
▁checks	-11.145
▁retain	-11.1452
▁feeding	-11.1453
▁hosted	-11.1455
ide	-11.1457
▁realise	-11.1458
▁captured	-11.146
▁odds	-11.1462
▁ignored	-11.1466
▁1,000	-11.1479
▁memorable	-11.148
▁execution	-11.1483
▁resist	-11.1487
▁bi	-11.1496
▁unnecessary	-11.1497
▁seed	-11.1499
ery	-11.15
▁2014,	-11.1502
▁movements	-11.1504
kin	-11.1507
▁Season	-11.1509
▁nodded	-11.1511
oc	-11.1515
▁eager	-11.1515
▁effectiveness	-11.1515
▁blogger	-11.1517
▁overview	-11.1518
▁broadcast	-11.1518
▁spray	-11.1525
▁conversion	-11.153
▁ceiling	-11.153
▁shake	-11.1531
▁Ministry	-11.1535
▁enemies	-11.1538
▁duration	-11.1539
▁Camp	-11.154
▁Credit	-11.1543
▁Las	-11.1544
▁heal	-11.1544
▁presidential	-11.1548
▁Fortunately	-11.1549
▁Sign	-11.155
▁waves	-11.1552
▁quantity	-11.1561
▁estimates	-11.1563
▁mainstream	-11.1564
▁Vi	-11.1568
▁acknowledge	-11.1572
▁acquired	-11.1576
▁inflation	-11.1576
▁organize	-11.1577
▁servers	-11.1581
▁blend	-11.1586
night	-11.1592
▁origin	-11.1594
▁folder	-11.1596
▁Se	-11.1599
ip	-11.16
▁ruling	-11.1602
▁romance	-11.1603
▁supportive	-11.1604
▁transmission	-11.1605
post	-11.1608
21	-11.1611
▁Ko	-11.1612
▁expanding	-11.1616
▁swing	-11.1618
▁Ray	-11.1622
▁2014.	-11.1624
▁Studies	-11.1628
▁beside	-11.1628
▁forums	-11.1629
▁Kevin	-11.1629
▁chips	-11.163
▁plug	-11.1631
▁discounts	-11.1633
▁mum	-11.1634
▁admission	-11.1634
▁$50	-11.1634
▁Bridge	-11.1637
▁liberal	-11.1638
▁invested	-11.164
▁coal	-11.1641
ware	-11.1645
▁alternatives	-11.1646
▁carpet	-11.1652
▁labour	-11.1654
▁Need	-11.1655
▁alike	-11.1657
▁Har	-11.1659
▁obligation	-11.1662
▁Better	-11.1664
▁regime	-11.1668
scale	-11.1669
▁tablet	-11.1672
At	-11.1672
▁healthier	-11.1681
▁dozens	-11.1682
PA	-11.1682
▁reverse	-11.1685
▁Georgia	-11.1694
▁flights	-11.1695
▁Kids	-11.1695
oh	-11.1697
▁Five	-11.1697
▁easiest	-11.1699
▁ate	-11.1713
▁guides	-11.1716
▁skip	-11.1716
▁friendship	-11.1721
▁PR	-11.1721
▁solely	-11.1722
▁distinct	-11.1729
▁compelling	-11.1734
ising	-11.1742
▁welfare	-11.1742
▁earnings	-11.1743
page	-11.1744
▁$20	-11.1745
▁principal	-11.1747
istic	-11.1752
▁roots	-11.1758
▁liver	-11.1761
▁mouse	-11.1763
▁theatre	-11.1768
▁highlights	-11.1768
▁1000	-11.177
▁praise	-11.1771
▁shed	-11.1781
▁distributed	-11.1782
ure	-11.1784
▁countless	-11.1785
▁departments	-11.1791
▁frozen	-11.1792
▁genetic	-11.1795
▁garbage	-11.1796
▁troops	-11.1796
▁Sky	-11.1806
▁2019	-11.1807
▁indoor	-11.181
▁limitations	-11.1812
▁recommendation	-11.1816
▁Eastern	-11.182
-12	-11.1822
▁drag	-11.1823
▁specialists	-11.1827
▁Winter	-11.1829
▁fed	-11.1831
▁Age	-11.1837
▁Kong	-11.1837
hu	-11.1847
▁Ra	-11.1849
ti	-11.185
▁Ever	-11.1851
▁Among	-11.1852
▁stroke	-11.1854
▁deserves	-11.1854
▁peer	-11.1856
▁mild	-11.1861
▁utility	-11.1861
▁tricks	-11.1865
▁pollution	-11.1865
▁collecting	-11.1866
▁Ke	-11.1866
▁min	-11.1867
▁Non	-11.1869
party	-11.1871
▁ya	-11.1872
▁gently	-11.1876
Be	-11.1879
▁indicates	-11.1881
▁bottles	-11.1882
▁Area	-11.1882
▁possession	-11.1883
▁dumb	-11.1883
▁expanded	-11.1883
▁dropping	-11.1884
▁Self	-11.1884
?)	-11.1885
▁olive	-11.1887
▁belong	-11.1887
▁observe	-11.1892
ud	-11.1894
▁Currently	-11.1894
▁attempted	-11.1894
▁priorities	-11.1895
▁Jane	-11.1897
▁strict	-11.1897
▁fortunate	-11.1897
▁quest	-11.1898
▁Port	-11.19
yes	-11.1902
▁dedication	-11.1903
▁winners	-11.1906
▁jumped	-11.1909
▁knock	-11.191
▁resolved	-11.1913
▁trials	-11.1913
▁confusing	-11.1916
▁clue	-11.1916
▁tender	-11.1918
▁vitamin	-11.1918
▁crying	-11.1918
▁soap	-11.1919
▁citizen	-11.1921
▁wrapped	-11.1928
▁gross	-11.193
▁passage	-11.1932
▁pin	-11.1933
▁obligations	-11.1933
▁acceptance	-11.1934
inch	-11.1934
▁artificial	-11.1937
▁consume	-11.1937
▁shocked	-11.1939
▁laundry	-11.194
▁Tax	-11.1944
▁Anti	-11.1945
▁brave	-11.1949
▁Williams	-11.1949
▁Square	-11.1951
▁consulting	-11.1951
▁boots	-11.1954
▁contacted	-11.1955
▁shorter	-11.1957
▁underlying	-11.1957
▁Test	-11.1959
▁trans	-11.1961
▁beautifully	-11.1963
▁toxic	-11.197
▁beaches	-11.1975
ong	-11.1975
▁universal	-11.1976
▁proposals	-11.1978
▁Reading	-11.1978
ium	-11.1978
▁potatoes	-11.1982
▁Series	-11.1982
▁batteries	-11.199
▁steam	-11.1992
▁tourists	-11.1993
▁Student	-11.1993
ot	-11.1995
▁authentic	-11.2001
▁́	-11.2001
▁wildlife	-11.2005
▁alleged	-11.2007
▁10-	-11.2009
▁desperate	-11.201
▁independence	-11.2012
▁Vol	-11.2017
▁Stephen	-11.202
▁Chi	-11.2021
▁instruments	-11.2023
AP	-11.2023
are	-11.2024
▁NFL	-11.2025
▁implementing	-11.2026
▁newest	-11.2026
▁seemingly	-11.2027
▁quietly	-11.2029
▁Off	-11.203
▁stairs	-11.203
about	-11.2031
▁patch	-11.2031
▁podcast	-11.2038
▁accuracy	-11.2042
▁donate	-11.2044
▁Price	-11.2045
▁instances	-11.2047
▁2004	-11.2055
▁True	-11.2055
▁pump	-11.2059
han	-11.2059
▁designing	-11.2063
▁annually	-11.2065
▁developments	-11.2065
▁speaks	-11.2068
▁marketplace	-11.2071
ble	-11.2071
▁tours	-11.2077
▁react	-11.2081
▁panic	-11.2082
▁grid	-11.2082
▁Van	-11.2082
▁artwork	-11.2085
▁theater	-11.2095
▁stakeholders	-11.21
ara	-11.2103
▁utilize	-11.2103
list	-11.2103
Con	-11.2107
▁balls	-11.2113
▁Imagine	-11.2121
cha	-11.2122
▁tale	-11.2123
▁analyze	-11.2124
ut	-11.213
▁centuries	-11.2131
▁harsh	-11.2132
▁Speaking	-11.2132
▁celebrating	-11.2135
▁tension	-11.2135
▁supplements	-11.2136
part	-11.2138
ding	-11.2141
US	-11.2142
▁mutual	-11.2146
▁Travel	-11.2146
▁HR	-11.2147
▁forecast	-11.215
▁gate	-11.2152
▁poll	-11.2154
▁Members	-11.2155
▁goodness	-11.2155
▁dealt	-11.2158
▁peers	-11.2166
▁clever	-11.2167
▁representation	-11.2167
▁prospects	-11.2169
▁contributed	-11.2169
▁teens	-11.2173
▁drunk	-11.2176
▁concluded	-11.2177
▁jewelry	-11.218
▁facilitate	-11.2181
▁candy	-11.2182
▁Got	-11.2187
▁Ne	-11.2187
▁affairs	-11.2196
▁flip	-11.2199
▁Toronto	-11.22
▁chairs	-11.2202
ile	-11.2202
play	-11.2204
▁kiss	-11.2205
▁voices	-11.2209
▁Share	-11.2212
Go	-11.2219
▁segment	-11.2224
▁conscious	-11.2224
▁connecting	-11.2227
▁refers	-11.2227
▁suits	-11.223
▁reveals	-11.2237
▁Professor	-11.2242
▁discrimination	-11.2242
▁Depending	-11.2242
▁photograph	-11.2248
▁HIV	-11.2248
▁desert	-11.2252
▁meditation	-11.2252
▁coaches	-11.2253
▁frequency	-11.2254
▁defeat	-11.2255
▁fears	-11.2256
▁cultures	-11.2256
Thank	-11.2256
▁legally	-11.2258
▁List	-11.2258
▁Sa	-11.2259
▁Girl	-11.2261
▁pie	-11.2265
▁listened	-11.2265
▁clip	-11.2266
▁booked	-11.2268
▁meters	-11.2273
▁Enter	-11.2276
▁Kate	-11.228
▁fence	-11.2282
▁welcoming	-11.2283
▁safer	-11.2287
▁prospect	-11.229
▁layers	-11.229
ily	-11.2294
▁funded	-11.2295
▁assumed	-11.2296
▁Ad	-11.2296
▁blank	-11.2296
▁~	-11.2297
▁charm	-11.2299
▁Seattle	-11.23
▁39	-11.2304
85	-11.2308
lock	-11.2309
cent	-11.2311
▁environments	-11.2317
▁besides	-11.2319
▁exceed	-11.232
ette	-11.2322
▁Video	-11.2322
▁codes	-11.2323
▁technological	-11.2326
23	-11.2328
▁swim	-11.2329
▁visa	-11.233
▁conditioning	-11.2331
▁shy	-11.2331
▁Henry	-11.2334
▁$7	-11.2338
▁reasonably	-11.2341
▁reflection	-11.2343
▁Latin	-11.2343
▁Mountain	-11.2345
▁hook	-11.2353
▁sometime	-11.2353
▁Turkey	-11.2355
▁lease	-11.2356
▁smiling	-11.2358
▁Golden	-11.2361
▁arrangement	-11.2361
▁Captain	-11.2365
▁operators	-11.2366
▁meantime	-11.2367
▁legacy	-11.2367
▁Clean	-11.2368
▁churches	-11.2368
▁mature	-11.2374
▁urge	-11.2377
▁Sports	-11.2378
▁dressing	-11.2382
▁elegant	-11.2383
▁accepting	-11.2386
▁2012,	-11.2388
▁specialized	-11.2389
▁narrative	-11.2389
▁identifying	-11.2389
▁Table	-11.239
▁hike	-11.2393
▁suite	-11.2393
▁THIS	-11.2395
▁ugly	-11.2403
▁slide	-11.2405
▁afterwards	-11.2406
▁Professional	-11.2407
fer	-11.2417
▁Hong	-11.2418
▁Name	-11.2418
▁Officer	-11.2419
▁flood	-11.242
▁darkness	-11.2422
▁bones	-11.2425
▁spam	-11.2426
▁abandoned	-11.2432
▁engineer	-11.2434
▁progressive	-11.2435
▁establishment	-11.2436
CA	-11.2436
▁demonstrated	-11.2437
▁couch	-11.2437
▁panels	-11.2439
▁sink	-11.2439
▁junk	-11.244
▁Cat	-11.244
ki	-11.2441
▁2013,	-11.2441
▁uniform	-11.2443
▁onions	-11.2444
▁applicants	-11.2445
▁screening	-11.2447
▁Shop	-11.2447
▁Easy	-11.245
▁translation	-11.2451
▁44	-11.2452
▁grey	-11.2454
▁sexy	-11.2455
▁Fall	-11.2456
ai	-11.2459
screen	-11.2466
▁Jews	-11.2469
▁pile	-11.2469
▁hiding	-11.247
▁250	-11.2472
▁moderate	-11.2472
▁intake	-11.2473
▁addressing	-11.2473
▁buttons	-11.2479
▁happier	-11.2481
ties	-11.2483
01	-11.2483
che	-11.2487
▁accompanied	-11.2487
▁invention	-11.2489
▁pit	-11.249
▁Buy	-11.2492
▁measured	-11.2497
▁Miami	-11.2503
▁genre	-11.2504
▁northern	-11.2511
▁arise	-11.2512
▁unemployment	-11.2517
▁tail	-11.252
key	-11.2521
▁stocks	-11.2526
▁entity	-11.253
▁lit	-11.2532
▁None	-11.2533
▁Muslim	-11.2538
ver	-11.254
▁fails	-11.2542
▁Farm	-11.2543
▁clinic	-11.2543
▁claiming	-11.2543
▁Constitution	-11.2544
round	-11.2545
▁visitor	-11.2546
▁tourism	-11.2547
▁instrument	-11.2548
▁outdoors	-11.2548
▁Oct	-11.2549
▁demanding	-11.2549
▁fought	-11.2555
▁Prince	-11.2556
▁retailers	-11.2559
▁spelling	-11.2564
▁1960	-11.2571
▁Pi	-11.2574
▁hiking	-11.2574
AL	-11.2575
▁excessive	-11.2577
▁(3	-11.258
▁Airport	-11.2584
▁tactics	-11.2585
▁sophisticated	-11.2585
ru	-11.2588
▁trauma	-11.2589
▁configuration	-11.259
▁Dear	-11.2592
▁rewarding	-11.2594
▁comedy	-11.2594
▁loading	-11.2595
66	-11.2598
▁symbol	-11.2598
minded	-11.2603
▁determination	-11.2609
▁viewers	-11.2611
sen	-11.2615
▁Peace	-11.2617
▁Senior	-11.2618
▁tends	-11.2618
▁Eric	-11.2618
▁ships	-11.2618
▁mechanism	-11.262
▁wheels	-11.2621
▁3)	-11.2627
].	-11.263
▁Division	-11.2631
▁Ken	-11.2635
▁priced	-11.2637
▁backed	-11.2637
▁Run	-11.2642
▁performances	-11.2643
▁heritage	-11.2648
▁corruption	-11.2652
Your	-11.2653
▁Moon	-11.2653
▁lawn	-11.2654
ID	-11.2656
▁producers	-11.2656
real	-11.2658
▁races	-11.266
▁grasp	-11.2662
▁Email	-11.2665
▁Going	-11.2668
▁operated	-11.2668
▁careers	-11.2671
▁punishment	-11.2672
bed	-11.2672
ions	-11.2676
▁THAT	-11.2678
▁gains	-11.2678
MA	-11.2679
▁slot	-11.2682
▁signature	-11.2682
▁finest	-11.2683
▁Cook	-11.2683
▁cleaned	-11.2684
▁bedrooms	-11.2685
▁Taylor	-11.2688
ane	-11.2689
ification	-11.269
ok	-11.2691
▁damages	-11.2693
▁gardens	-11.2695
▁blast	-11.2697
▁[...	-11.2699
▁beloved	-11.2701
▁theft	-11.2701
▁logical	-11.2704
▁bored	-11.2704
▁Download	-11.2705
▁cookie	-11.2708
“	-11.2709
▁Wood	-11.2709
▁incorporate	-11.2709
▁floors	-11.2713
▁straightforward	-11.2715
▁shade	-11.2716
▁Arizona	-11.2718
CC	-11.2721
▁Parliament	-11.2724
▁sheets	-11.2724
▁convert	-11.2724
▁lazy	-11.2727
▁prompt	-11.2732
95	-11.2734
▁locate	-11.2736
▁Houston	-11.2736
▁rejected	-11.2736
ians	-11.2743
▁hung	-11.2744
▁Ocean	-11.2751
▁ma	-11.2753
▁boundaries	-11.2753
48	-11.2755
▁Later	-11.2761
▁Member	-11.2763
▁Mobile	-11.2767
ura	-11.2767
▁Country	-11.2768
▁bookmark	-11.277
▁submission	-11.2775
▁Staff	-11.2778
mi	-11.2779
▁passenger	-11.2779
▁contractor	-11.2784
▁worries	-11.2789
▁robust	-11.2793
▁attendance	-11.2796
▁RE	-11.2797
▁rewards	-11.2798
▁founder	-11.2801
▁subtle	-11.2802
▁educated	-11.2803
▁representing	-11.2804
▁semester	-11.2805
#	-11.2805
▁2013.	-11.2809
▁designated	-11.2811
▁2-	-11.2813
22	-11.2814
▁Private	-11.2816
▁educate	-11.282
▁breathe	-11.2826
▁naked	-11.2828
▁enthusiasm	-11.2828
▁spectrum	-11.283
▁comparable	-11.2831
▁Bad	-11.2834
▁concentrate	-11.2836
▁Ga	-11.2837
▁requiring	-11.2842
▁dive	-11.2848
▁gratitude	-11.2849
▁placement	-11.285
De	-11.2852
▁celebrated	-11.2854
TS	-11.2856
▁Privacy	-11.2857
▁implications	-11.2857
▁Pan	-11.2858
▁Nor	-11.2858
ff	-11.2859
▁bulk	-11.286
▁Smart	-11.286
▁gradually	-11.2862
▁reserves	-11.2863
▁clarity	-11.2863
%	-11.2868
▁releases	-11.2869
depth	-11.2869
▁advocate	-11.2872
▁Dark	-11.2872
▁drops	-11.2873
▁120	-11.2873
▁dough	-11.2874
▁notion	-11.2875
▁wages	-11.2878
▁sweat	-11.2879
▁neighbor	-11.2882
▁detect	-11.2886
▁compromise	-11.2889
ap	-11.2889
▁grants	-11.2891
▁counts	-11.2892
▁loyal	-11.2893
▁Korean	-11.2898
65	-11.2899
▁emotion	-11.2901
▁certification	-11.2902
▁Personally	-11.2905
▁mothers	-11.2909
▁reactions	-11.2913
▁Mind	-11.2913
▁impacts	-11.2916
▁Along	-11.2917
▁adorable	-11.2918
▁steal	-11.292
▁gaining	-11.2921
▁killer	-11.2924
▁neat	-11.2928
uck	-11.2929
▁earning	-11.293
▁WE	-11.2932
▁stressful	-11.2932
▁Further	-11.2945
▁costly	-11.2949
▁tooth	-11.2952
▁agreements	-11.2952
American	-11.2955
▁violation	-11.2957
▁bugs	-11.296
▁Sha	-11.296
▁shadow	-11.296
ala	-11.2961
▁Pa	-11.2962
▁2012.	-11.2965
▁magnificent	-11.2967
▁deny	-11.2967
▁bow	-11.2967
▁precise	-11.2967
▁documentary	-11.2969
▁repeatedly	-11.297
▁creatures	-11.2971
▁favorites	-11.2971
▁loop	-11.2971
▁Jason	-11.2975
▁agricultural	-11.2975
Good	-11.2975
▁stressed	-11.2978
▁Third	-11.2979
64	-11.2981
▁basement	-11.2981
▁intimate	-11.2983
▁Terms	-11.2984
▁rape	-11.2985
ES	-11.2993
▁basics	-11.2993
▁PA	-11.2996
39	-11.2997
▁producer	-11.2999
▁camping	-11.3008
▁Line	-11.3009
▁Planning	-11.3014
▁arranged	-11.3017
▁displays	-11.3017
▁Leave	-11.302
▁Early	-11.3021
▁biological	-11.3021
▁Village	-11.3022
▁Write	-11.3024
33	-11.3027
▁Seriously	-11.3028
▁assure	-11.303
▁artistic	-11.3031
ino	-11.3033
▁5-	-11.3034
▁poetry	-11.3035
▁Silver	-11.3036
[	-11.3038
▁sits	-11.304
▁renewable	-11.3045
▁funeral	-11.3047
▁41	-11.3049
▁Diego	-11.305
▁strip	-11.3051
▁Ro	-11.3054
▁occasional	-11.3055
▁kindness	-11.3055
▁concentration	-11.3058
▁fastest	-11.3059
▁Friends	-11.3061
▁shoe	-11.3063
▁varied	-11.3064
▁infections	-11.3065
▁vintage	-11.3066
▁auction	-11.3068
▁Syria	-11.3072
person	-11.3075
▁convey	-11.3076
▁Key	-11.3078
▁Perfect	-11.308
▁gotta	-11.3081
▁affiliate	-11.3081
▁drew	-11.3082
▁4-	-11.3086
ned	-11.3088
▁frustration	-11.309
▁paintings	-11.309
▁frustrated	-11.3092
▁situated	-11.3097
▁conservation	-11.3099
▁fluid	-11.3101
▁surprisingly	-11.3103
▁threatened	-11.3104
after	-11.3105
▁tub	-11.3106
▁browsing	-11.3108
▁se	-11.3109
▁satisfy	-11.3112
▁Death	-11.3114
▁DNA	-11.3117
▁rail	-11.3117
▁woke	-11.3123
form	-11.3126
▁Economic	-11.3129
mar	-11.3129
▁apartments	-11.313
44	-11.3131
▁coconut	-11.3131
▁transferred	-11.3134
▁preferences	-11.3134
▁departure	-11.3134
▁teen	-11.3135
▁assuming	-11.3137
55	-11.314
▁sisters	-11.3145
▁Son	-11.3149
▁texture	-11.3152
▁downloaded	-11.3152
▁relatives	-11.3152
▁Tour	-11.3155
▁Must	-11.3157
▁shapes	-11.3158
▁agriculture	-11.3159
▁Form	-11.3161
▁Boy	-11.3166
▁ON	-11.3169
▁Baby	-11.3177
▁approaching	-11.3179
▁buried	-11.3186
▁bench	-11.319
▁judges	-11.3191
▁wings	-11.3191
▁Natural	-11.3192
▁tennis	-11.3192
▁Located	-11.3193
▁predict	-11.3194
€	-11.3195
▁subscribe	-11.3198
▁interpretation	-11.3199
▁captain	-11.3203
▁beneath	-11.3206
▁qualities	-11.3208
▁Rob	-11.3211
▁perception	-11.3213
med	-11.3216
▁porn	-11.3222
▁Regardless	-11.3225
▁composition	-11.3225
▁needing	-11.323
▁poem	-11.3233
▁terrorist	-11.3234
36	-11.3235
ward	-11.3235
▁jacket	-11.3239
▁petition	-11.3244
32	-11.3246
▁Writing	-11.3247
▁ethical	-11.3248
▁carries	-11.3254
non	-11.3254
▁practically	-11.3256
▁Bring	-11.3257
▁disposal	-11.3257
▁appealing	-11.3261
43	-11.3263
▁pp	-11.3263
▁demo	-11.3265
▁Avenue	-11.327
▁contacts	-11.3274
▁sounded	-11.3274
▁contractors	-11.3274
▁dentist	-11.3275
â	-11.3281
▁twelve	-11.3282
▁Tri	-11.3285
▁preventing	-11.3286
▁Made	-11.3286
▁jumping	-11.3286
▁thrive	-11.3287
▁cope	-11.3288
▁1.5	-11.3289
ker	-11.3292
▁readily	-11.3294
▁Fast	-11.3294
▁laser	-11.3296
cy	-11.3299
▁Easter	-11.3305
▁mentally	-11.3307
▁prescribed	-11.3312
Me	-11.3316
▁knees	-11.3319
GB	-11.3324
▁barriers	-11.3326
▁wore	-11.3332
▁BBC	-11.3334
▁Par	-11.3335
▁rocks	-11.3335
▁tube	-11.3335
▁abortion	-11.3335
▁mo	-11.3335
▁fiber	-11.3338
▁AI	-11.334
▁credits	-11.3349
▁interactions	-11.3354
▁01	-11.3355
▁lounge	-11.3356
▁Mass	-11.3356
▁solving	-11.3357
▁immigrants	-11.3357
▁Sales	-11.3362
▁Sydney	-11.3364
▁catching	-11.3366
chi	-11.3366
▁verify	-11.3367
▁adventures	-11.3367
31	-11.3369
▁dispute	-11.3369
sis	-11.3369
▁twist	-11.3371
ven	-11.3373
▁junior	-11.3373
▁promising	-11.3373
▁Israeli	-11.3373
▁Roman	-11.3374
▁Station	-11.3375
▁Main	-11.3375
▁wound	-11.3377
▁jury	-11.3377
▁YOUR	-11.3378
▁directory	-11.338
▁43	-11.3384
▁49	-11.3384
▁tricky	-11.3387
▁Jay	-11.3397
size	-11.3399
▁satellite	-11.3401
▁continually	-11.3403
1.	-11.3403
tal	-11.3404
▁Te	-11.3406
▁encountered	-11.3414
▁dramatically	-11.3415
▁associate	-11.3418
▁versus	-11.3421
▁hence	-11.3422
▁closest	-11.3423
▁towns	-11.3424
▁Valentine	-11.3424
▁staring	-11.3424
▁homeless	-11.3425
▁snacks	-11.343
▁reserved	-11.343
67	-11.3432
▁personalized	-11.3433
service	-11.3435
▁Experience	-11.3435
▁stumbled	-11.3436
49	-11.3438
▁glory	-11.3439
▁magazines	-11.3439
▁selecting	-11.3441
▁charging	-11.3441
winning	-11.3444
▁anxious	-11.3445
▁Recently	-11.3446
On	-11.345
▁collapse	-11.3452
▁competing	-11.3452
▁climbing	-11.3453
ph	-11.3453
▁disclosure	-11.3457
▁Capital	-11.346
▁snack	-11.3467
▁sunny	-11.3468
iv	-11.347
▁Ni	-11.3471
where	-11.3473
▁tomato	-11.3473
▁crop	-11.3475
▁sustainability	-11.3476
▁HERE	-11.3478
▁Medicine	-11.3479
▁privilege	-11.348
▁profitable	-11.3481
▁receipt	-11.3483
▁aging	-11.3492
-4	-11.3492
▁Jordan	-11.3494
▁cousin	-11.3498
-10	-11.35
▁substitute	-11.3508
▁fate	-11.351
▁Except	-11.351
▁Brazil	-11.3511
▁avoiding	-11.3512
▁terrific	-11.3514
▁prominent	-11.3516
▁Hell	-11.3517
▁tower	-11.3517
▁piano	-11.3518
▁Short	-11.3518
pers	-11.352
......	-11.352
▁musicians	-11.352
▁plugin	-11.3523
▁Nature	-11.3523
▁PDF	-11.3524
▁approached	-11.3525
▁useless	-11.3526
▁exclusively	-11.3527
▁cabin	-11.3531
▁tablets	-11.3532
qui	-11.3534
▁ordering	-11.3535
▁separated	-11.3536
▁answering	-11.3538
ming	-11.3539
▁fulfill	-11.354
▁treats	-11.3541
▁identification	-11.3541
▁gossip	-11.3543
rich	-11.3544
▁woods	-11.3545
stop	-11.355
TA	-11.355
ical	-11.355
▁hassle	-11.3554
▁Congratulations	-11.3556
▁Mexican	-11.3559
▁Inter	-11.356
▁pose	-11.3562
▁circuit	-11.3564
shirt	-11.3565
▁Quality	-11.3566
ick	-11.3569
win	-11.357
py	-11.3571
▁suited	-11.3571
▁Bell	-11.3571
▁keywords	-11.3571
▁Net	-11.3571
▁sacrifice	-11.3572
▁suggesting	-11.3573
▁attractions	-11.3573
▁considerably	-11.3574
▁delight	-11.3575
▁mindset	-11.3575
when	-11.3579
▁grandmother	-11.3581
▁mechanical	-11.3582
▁attorneys	-11.3583
▁Radio	-11.3586
especially	-11.3587
ag	-11.3594
yn	-11.3595
▁stays	-11.3596
▁sequence	-11.3597
▁$8	-11.3598
▁Attorney	-11.36
▁User	-11.36
▁Drive	-11.3601
▁freely	-11.3601
▁incidents	-11.3602
▁defensive	-11.3606
38	-11.3608
km	-11.3609
▁vegan	-11.361
▁iOS	-11.3619
▁Elizabeth	-11.362
▁Computer	-11.3622
▁consultant	-11.3622
▁Engineering	-11.3625
▁Joseph	-11.3628
▁bomb	-11.3629
▁capability	-11.3634
▁cleared	-11.3634
▁Pakistan	-11.3634
▁2003	-11.3635
▁grabbed	-11.3636
▁thoughtful	-11.3639
▁nutrients	-11.364
▁gut	-11.3648
▁automated	-11.3649
LA	-11.3651
▁preference	-11.3652
100	-11.3654
away	-11.3655
▁module	-11.3655
57	-11.3657
▁24-	-11.3658
▁oxygen	-11.3661
▁altogether	-11.3661
-5	-11.3662
With	-11.3665
looking	-11.3665
▁Nevertheless	-11.3666
Mo	-11.3666
▁transparent	-11.3667
▁Wales	-11.3667
▁hosts	-11.3669
05	-11.367
▁Ann	-11.3674
▁eaten	-11.3678
▁mandatory	-11.3684
▁stir	-11.3686
▁Story	-11.3686
▁browse	-11.3686
▁directors	-11.3688
▁MP	-11.3688
▁Challenge	-11.3688
▁happily	-11.3689
▁wing	-11.369
▁deemed	-11.369
-6	-11.3691
ified	-11.3692
▁2011,	-11.3693
▁mask	-11.3696
▁weekends	-11.37
▁Oil	-11.37
▁Afghanistan	-11.3701
▁Kelly	-11.3704
▁declined	-11.3704
▁vibrant	-11.3706
▁devoted	-11.3706
ung	-11.3708
▁awhile	-11.371
now	-11.371
yard	-11.371
▁Ver	-11.3712
77	-11.3713
bi	-11.3716
▁Others	-11.3719
▁export	-11.372
▁excellence	-11.3721
▁favour	-11.3722
▁Matthew	-11.3724
▁continuously	-11.3733
▁shine	-11.3734
▁valued	-11.3735
▁NY	-11.3736
▁mere	-11.3737
▁applicant	-11.3738
▁makers	-11.3739
76	-11.3744
▁desires	-11.3745
▁gang	-11.3748
▁affecting	-11.3749
▁Upon	-11.3755
▁Type	-11.3756
▁tastes	-11.376
▁Vietnam	-11.3765
RA	-11.3765
era	-11.377
ological	-11.377
▁Low	-11.3771
97	-11.3771
▁burned	-11.3777
Hey	-11.3777
▁login	-11.378
▁footage	-11.3781
▁restricted	-11.3782
▁attracted	-11.3786
▁corporation	-11.3791
▁enjoys	-11.3792
▁attacked	-11.3795
▁journalists	-11.3795
▁prospective	-11.3797
▁retreat	-11.3799
▁12.	-11.38
▁Assembly	-11.3803
▁trucks	-11.3804
▁spreading	-11.3805
09	-11.3806
▁authorized	-11.3806
ix	-11.3807
▁tasty	-11.3809
▁justify	-11.3809
▁Environmental	-11.3813
▁Ru	-11.3813
▁Wild	-11.3813
Pro	-11.3813
bb	-11.3813
▁Col	-11.3817
PM	-11.3818
▁parallel	-11.3818
▁2010,	-11.3819
▁employ	-11.3819
▁contrary	-11.382
▁emotionally	-11.3822
▁pretend	-11.3823
▁kicked	-11.3825
▁inevitable	-11.3825
▁Rome	-11.3825
berg	-11.3826
wi	-11.3829
▁charming	-11.383
These	-11.3833
▁Oregon	-11.3833
▁twin	-11.3835
▁solved	-11.3836
▁squad	-11.3838
▁audiences	-11.384
▁operator	-11.384
ator	-11.384
▁modified	-11.3841
born	-11.3844
▁bits	-11.3854
88	-11.3854
▁10,000	-11.3855
▁$25	-11.3855
AC	-11.3855
▁sword	-11.3856
▁programmes	-11.3856
▁contributing	-11.3857
▁oils	-11.3858
▁Film	-11.386
▁pipe	-11.3861
face	-11.3864
▁phenomenon	-11.3867
▁disappeared	-11.3868
▁soccer	-11.387
▁Years	-11.3871
▁negotiations	-11.3876
86	-11.3879
ik	-11.388
▁beating	-11.388
▁carrier	-11.3885
▁commented	-11.3887
▁ranking	-11.3889
▁seller	-11.389
▁presentations	-11.389
▁banned	-11.3892
▁shelf	-11.3894
rk	-11.3895
▁j	-11.3895
▁FIG	-11.3895
▁Pat	-11.3896
Of	-11.39
gi	-11.3901
▁Final	-11.3904
▁variable	-11.3913
▁lawsuit	-11.3914
▁flesh	-11.3916
37	-11.3923
▁Charlie	-11.3924
▁Ti	-11.3926
▁printer	-11.393
See	-11.3931
▁Victoria	-11.3931
app	-11.3934
▁avoided	-11.3936
▁Nobody	-11.3938
ious	-11.3938
▁Sub	-11.3939
▁AS	-11.394
▁minority	-11.3944
▁existed	-11.3948
▁Davis	-11.395
▁consuming	-11.3951
-19	-11.3951
▁Win	-11.3954
▁recognise	-11.3954
▁transparency	-11.3961
▁exploration	-11.3963
▁Pretty	-11.3965
▁veterans	-11.3969
▁financially	-11.3972
▁bay	-11.3972
▁jam	-11.3977
78	-11.3978
▁Awards	-11.3979
▁controversial	-11.3983
▁guided	-11.3983
ments	-11.3987
▁600	-11.3987
▁tailored	-11.399
▁acquisition	-11.3992
▁Wilson	-11.3993
▁radiation	-11.3997
▁Standard	-11.4002
▁Software	-11.4004
▁Dead	-11.4008
▁generic	-11.4009
▁counting	-11.4011
▁overwhelmed	-11.4011
table	-11.4012
▁customized	-11.4012
▁Bowl	-11.4018
▁bonds	-11.4021
▁breach	-11.4021
▁span	-11.4023
▁newspapers	-11.4024
your	-11.4029
▁fever	-11.4029
ple	-11.4031
▁lap	-11.4032
cut	-11.4032
▁invitation	-11.4033
▁Avoid	-11.4033
▁ties	-11.4037
▁consciousness	-11.4039
▁struggled	-11.4046
▁highway	-11.4047
▁regarded	-11.4048
▁cotton	-11.4048
▁responding	-11.4051
▁conducting	-11.4054
▁cooling	-11.4056
▁crossing	-11.4062
▁Egypt	-11.4063
▁fitting	-11.4063
tain	-11.4063
▁Governor	-11.4068
▁grows	-11.4072
▁widespread	-11.4072
▁acres	-11.4073
▁admin	-11.4078
▁gray	-11.4078
▁scholarship	-11.4081
▁supplied	-11.4082
▁grain	-11.4083
▁Content	-11.4084
▁Illinois	-11.4086
▁awkward	-11.4087
46	-11.4087
▁fool	-11.4089
▁Luckily	-11.409
▁Columbia	-11.409
▁replacing	-11.409
▁blessing	-11.4092
▁Yesterday	-11.4093
van	-11.4093
▁mold	-11.4095
▁respected	-11.4097
▁governor	-11.41
42	-11.4102
▁nonprofit	-11.4104
68	-11.4106
▁argued	-11.4107
▁worrying	-11.411
MP	-11.4112
▁premises	-11.4115
▁loyalty	-11.4117
▁installing	-11.4118
most	-11.412
▁Notice	-11.4123
▁fatigue	-11.4126
▁graduated	-11.4126
4%	-11.4132
view	-11.4132
▁apologize	-11.4133
▁alter	-11.4136
87	-11.4137
▁accordingly	-11.414
▁52	-11.4146
▁Sept	-11.4149
ks	-11.415
▁midnight	-11.4152
▁Pick	-11.4154
▁notification	-11.4156
08	-11.4159
AS	-11.416
▁ratings	-11.4162
▁chip	-11.4165
...”	-11.4165
▁daughters	-11.4165
hard	-11.4167
▁complaining	-11.4167
▁Wait	-11.4168
▁therapist	-11.4168
▁Stone	-11.4169
▁Austin	-11.4169
▁exhibit	-11.417
▁Eve	-11.4175
▁wanna	-11.4183
▁firmly	-11.4184
▁Sadly	-11.4185
▁determining	-11.4185
▁cock	-11.419
▁secured	-11.4191
▁Level	-11.4191
gan	-11.4192
▁Cancer	-11.4193
▁mate	-11.4193
▁unlimited	-11.4193
ens	-11.4194
▁terror	-11.4197
▁enabling	-11.4198
▁assembly	-11.4199
▁branches	-11.4202
▁marine	-11.4202
▁taxi	-11.4204
▁Simon	-11.4205
▁wow	-11.4207
▁nasty	-11.4209
▁striking	-11.421
▁quilt	-11.4211
▁hey	-11.4212
▁functioning	-11.4212
▁instructor	-11.4213
▁dare	-11.4217
▁essence	-11.4218
▁€	-11.4222
▁rubber	-11.4222
▁survived	-11.4226
▁Andy	-11.4228
▁Ta	-11.4232
▁complexity	-11.4233
▁pause	-11.4233
▁transit	-11.4234
▁vacuum	-11.4235
▁hint	-11.4239
69	-11.4242
▁30-	-11.4246
▁individually	-11.4249
▁Labor	-11.4252
▁pressing	-11.4252
▁bare	-11.4253
▁Us	-11.4253
▁terrace	-11.4253
▁cart	-11.4254
▁affair	-11.4256
▁radical	-11.4262
▁Number	-11.4266
▁Ron	-11.4268
▁veteran	-11.4269
▁matching	-11.427
lu	-11.427
▁orientation	-11.427
▁anticipated	-11.4273
▁Between	-11.4277
ending	-11.4283
▁emerged	-11.4284
▁Arab	-11.4285
98	-11.4287
▁Miller	-11.4291
▁cognitive	-11.4292
▁neutral	-11.4302
ever	-11.4304
▁recruitment	-11.4305
gmail	-11.4306
ST	-11.4306
▁Finance	-11.4306
▁poster	-11.4308
▁practicing	-11.4311
▁ranked	-11.4313
▁streaming	-11.4315
type	-11.4319
▁Cloud	-11.4319
▁undoubtedly	-11.4324
▁reflects	-11.4327
ME	-11.4331
▁Wa	-11.4334
▁portable	-11.4335
▁containers	-11.4337
ue	-11.4341
▁monster	-11.4342
▁responsive	-11.4344
▁seasonal	-11.4344
▁smoothly	-11.4349
▁cyber	-11.435
▁closet	-11.4351
▁Forum	-11.4352
Man	-11.4352
▁produces	-11.4357
▁quoted	-11.4358
▁!	-11.436
▁dairy	-11.4362
▁observation	-11.4362
▁pickup	-11.4363
▁syndrome	-11.4364
▁convicted	-11.4366
▁entities	-11.4367
▁import	-11.4369
RC	-11.437
▁Job	-11.4372
▁hi	-11.4374
▁imagined	-11.4382
47	-11.4382
▁fleet	-11.4385
▁46	-11.4387
▁perceived	-11.4389
▁lo	-11.4391
gate	-11.4392
▁labels	-11.4394
▁pound	-11.4399
because	-11.4399
▁(“	-11.4403
2.	-11.4408
▁Figure	-11.4411
cm	-11.4414
▁Meeting	-11.4414
▁indication	-11.4415
ay	-11.4417
ify	-11.4417
▁cloth	-11.4419
▁packing	-11.4422
▁stating	-11.4424
▁wished	-11.4424
mg	-11.4424
▁Authority	-11.4425
▁grades	-11.4426
▁Tech	-11.4426
▁champion	-11.4428
▁72	-11.4428
▁HD	-11.4429
▁Express	-11.443
▁leap	-11.443
▁FBI	-11.4432
,500	-11.4434
cat	-11.4435
▁colleges	-11.4438
▁ensures	-11.4438
si	-11.4439
▁treasure	-11.4442
▁30%	-11.4446
▁Labour	-11.4449
▁Future	-11.4452
▁brick	-11.4452
▁finances	-11.4454
▁console	-11.4455
▁constructed	-11.4457
▁Modern	-11.4457
▁Box	-11.4458
▁paste	-11.4461
▁supplier	-11.4463
▁RSS	-11.4464
▁Islamic	-11.4466
▁minimize	-11.4467
MS	-11.4467
▁fortune	-11.4469
▁modify	-11.447
▁identical	-11.4471
▁bullet	-11.4472
▁$15	-11.4473
▁nearest	-11.4474
▁crystal	-11.4475
▁establishing	-11.4475
▁province	-11.448
▁Bureau	-11.448
▁lip	-11.4481
2%	-11.4483
An	-11.4484
▁Six	-11.4489
▁Tu	-11.449
▁compact	-11.4491
▁touching	-11.4492
▁Angel	-11.4497
▁defence	-11.4498
OS	-11.4502
▁compassion	-11.4505
▁refreshing	-11.4506
▁strictly	-11.4509
▁novels	-11.4514
len	-11.452
▁accurately	-11.4521
▁2011.	-11.4523
▁basket	-11.4525
eg	-11.4527
▁executives	-11.4528
▁optional	-11.4532
▁audit	-11.4535
▁Update	-11.4537
▁guilt	-11.4539
vin	-11.4539
ren	-11.4541
▁signals	-11.4541
..."	-11.4541
▁shell	-11.4543
ez	-11.4543
▁enhanced	-11.4543
▁ca	-11.4544
▁curve	-11.4544
▁sentences	-11.4544
▁nurses	-11.4546
▁64	-11.4553
▁briefly	-11.4553
▁LOL	-11.4553
▁homemade	-11.4554
▁47	-11.4555
▁800	-11.4556
▁yield	-11.4562
▁Generally	-11.4562
▁Say	-11.4564
▁homeowners	-11.4565
▁blocked	-11.4565
▁physics	-11.4565
▁Premier	-11.4566
▁publications	-11.4568
▁winds	-11.4569
▁broader	-11.4571
par	-11.4572
hr	-11.4572
▁appliances	-11.4574
▁Pop	-11.4579
▁LED	-11.458
▁lighter	-11.4583
▁terrorism	-11.4584
34	-11.4587
▁Turn	-11.4588
▁describing	-11.459
▁Lisa	-11.4591
▁reaches	-11.4594
-9	-11.4594
▁formation	-11.4596
▁360	-11.4599
▁reservation	-11.4599
▁marry	-11.46
▁attraction	-11.4602
▁differ	-11.4607
IL	-11.4611
▁landed	-11.4616
▁Bur	-11.4622
▁strengths	-11.4623
ov	-11.4623
▁rings	-11.4627
▁Side	-11.4627
▁Together	-11.4628
▁navigation	-11.4629
NA	-11.463
▁gluten	-11.4632
▁Phil	-11.4632
card	-11.4635
▁terminal	-11.4636
ice	-11.4639
▁SP	-11.4641
▁influenced	-11.4641
▁90%	-11.4641
▁Dream	-11.4642
▁challenged	-11.4642
▁Companies	-11.4644
▁Unit	-11.4645
▁opponent	-11.465
have	-11.4651
▁jeans	-11.4654
▁rounds	-11.4655
▁pays	-11.4659
▁welcomed	-11.4661
▁deleted	-11.4663
84	-11.4666
▁struggles	-11.4666
▁batch	-11.4667
▁routes	-11.4668
▁stylish	-11.4669
▁commenting	-11.467
oo	-11.467
▁investor	-11.4673
ita	-11.4673
▁2.0	-11.4674
▁freeze	-11.4675
▁Model	-11.4675
▁convincing	-11.4676
▁(5	-11.4676
▁Mon	-11.4676
▁hop	-11.4677
▁Tea	-11.468
▁Feb	-11.4685
▁2001	-11.4689
▁Patrick	-11.4689
▁dried	-11.4691
▁stake	-11.4693
▁Convention	-11.4693
▁Forest	-11.4695
▁sized	-11.47
under	-11.4703
▁shipped	-11.4703
▁competent	-11.4704
▁ft	-11.4712
ama	-11.4713
▁tri	-11.4713
▁beta	-11.4715
▁Common	-11.4715
ky	-11.4719
▁stranger	-11.4726
▁unfortunate	-11.4727
▁suck	-11.4727
LE	-11.4729
▁Send	-11.473
▁sons	-11.4731
▁cannabis	-11.4736
▁ethnic	-11.4736
mit	-11.4737
▁trails	-11.474
though	-11.474
▁sadly	-11.4743
41	-11.4743
▁tags	-11.4745
▁Susan	-11.4747
▁Estate	-11.4747
RE	-11.4752
79	-11.4753
▁forgive	-11.4753
8%	-11.4754
▁ARE	-11.4755
▁steep	-11.4757
▁castle	-11.4757
▁Foreign	-11.4759
▁1950	-11.4761
▁Study	-11.4761
72	-11.4764
▁lyrics	-11.4767
▁2010.	-11.4768
▁farming	-11.4768
grade	-11.4772
▁recycling	-11.4779
▁punch	-11.478
▁Pennsylvania	-11.4782
▁grief	-11.4783
▁grip	-11.4784
▁maximize	-11.4784
▁(4	-11.4785
▁equality	-11.4788
▁Simple	-11.4789
-8	-11.4791
▁lover	-11.4792
▁cups	-11.4795
▁psychology	-11.4796
▁dealer	-11.4797
▁Manchester	-11.4798
▁startup	-11.4801
▁strikes	-11.4801
▁wellness	-11.4803
▁Atlanta	-11.4803
▁bra	-11.4804
▁graduation	-11.4812
▁Cut	-11.4813
▁obtaining	-11.4815
▁counsel	-11.4821
TH	-11.4821
▁Saudi	-11.4821
▁essays	-11.4823
▁purple	-11.4825
▁durable	-11.4827
▁2.5	-11.4828
▁tent	-11.4833
▁	-11.4833
▁URL	-11.4833
▁simultaneously	-11.4837
▁vitamins	-11.4838
▁plates	-11.4842
▁distant	-11.4843
five	-11.4844
▁elite	-11.485
▁realised	-11.4851
▁hyper	-11.4852
▁§	-11.4852
▁MR	-11.4852
▁complications	-11.4859
▁grave	-11.4861
▁boats	-11.4862
ations	-11.4863
▁Kansas	-11.4864
▁Atlantic	-11.4871
▁protective	-11.4877
▁Whenever	-11.4877
▁momentum	-11.488
▁evident	-11.4881
▁significance	-11.4885
▁parameters	-11.4889
ual	-11.4891
▁facial	-11.4894
▁80%	-11.4895
▁Basically	-11.4897
▁hardest	-11.49
IA	-11.4901
Please	-11.4903
▁TIP	-11.4904
▁rated	-11.4905
▁scoring	-11.4906
▁soda	-11.4907
▁profound	-11.4909
▁Anna	-11.491
▁optimal	-11.491
▁31,	-11.4914
▁blanket	-11.4914
▁viable	-11.4918
▁fifty	-11.4921
▁refrigerator	-11.4926
▁executed	-11.4926
▁Bio	-11.4931
▁proportion	-11.4932
▁searched	-11.4932
▁Cap	-11.4933
▁mysterious	-11.4933
▁Magic	-11.4934
IC	-11.4937
▁presenting	-11.4938
▁trap	-11.4942
▁vegetable	-11.4943
▁Gen	-11.4947
▁Amy	-11.4947
▁travelers	-11.4947
▁lovers	-11.4948
▁glimpse	-11.4949
mile	-11.4949
▁suspected	-11.4953
▁Cool	-11.4954
▁pressed	-11.4955
▁tragedy	-11.4956
▁balcony	-11.4957
9%	-11.4957
89	-11.4958
▁leverage	-11.4958
5,000	-11.496
▁generating	-11.4963
▁tobacco	-11.4964
▁spite	-11.4965
▁teaches	-11.4966
▁disappear	-11.4969
▁custody	-11.4969
▁appointments	-11.4971
▁disk	-11.4975
500	-11.4976
ON	-11.4977
▁participated	-11.4982
▁extract	-11.4983
▁Systems	-11.4985
▁encouragement	-11.4987
ach	-11.4987
▁cleaner	-11.4988
▁13.	-11.4989
▁Account	-11.4991
▁reflected	-11.4992
▁proceedings	-11.4999
▁confidential	-11.5
▁respectively	-11.5
speed	-11.5002
▁costume	-11.5005
owned	-11.5005
▁inexpensive	-11.5006
▁poorly	-11.5012
▁sticking	-11.5012
tle	-11.5013
▁bin	-11.5014
▁holy	-11.5015
▁encourages	-11.5017
▁promotional	-11.5021
▁bikes	-11.5024
▁folk	-11.5026
▁nevertheless	-11.5027
▁licence	-11.5029
action	-11.5033
▁mobility	-11.5034
▁partly	-11.5034
▁Cha	-11.5039
▁Ph	-11.504
▁Ontario	-11.5042
▁Body	-11.5043
▁scenarios	-11.5043
▁updating	-11.5044
▁maker	-11.5047
▁fundraising	-11.5049
▁reporters	-11.5051
gar	-11.5051
56	-11.5051
ini	-11.5052
▁Brand	-11.5055
▁companion	-11.5055
▁urgent	-11.5056
▁ruled	-11.5059
▁backyard	-11.5059
▁waters	-11.506
▁onion	-11.5061
ella	-11.5061
▁inclusive	-11.5062
▁analytics	-11.5064
▁talents	-11.5066
▁satisfying	-11.5067
▁Jon	-11.5068
▁5%	-11.5074
▁dessert	-11.5075
▁threatening	-11.5077
although	-11.5077
▁Bitcoin	-11.5078
▁Ja	-11.508
▁liable	-11.5081
▁adverse	-11.5083
▁evolved	-11.5084
▁nerve	-11.5091
▁Fa	-11.5091
▁Gar	-11.5092
▁Minnesota	-11.5093
▁pasta	-11.5098
▁mailing	-11.5103
▁Sound	-11.5106
▁cents	-11.5106
▁deadly	-11.5107
▁Large	-11.5111
▁revenues	-11.5112
06	-11.5113
▁traditions	-11.5114
▁behaviors	-11.5115
▁#2	-11.5116
▁delayed	-11.5118
▁cabinet	-11.512
▁Dallas	-11.5121
▁sunset	-11.5122
Then	-11.5126
▁giveaway	-11.5127
▁strain	-11.5128
▁polite	-11.5132
▁Bra	-11.5132
▁12-	-11.5134
▁consistency	-11.5136
▁profiles	-11.5137
IP	-11.5138
▁swear	-11.5139
▁ranks	-11.514
▁Application	-11.5143
▁inclusion	-11.5143
commerce	-11.5148
▁epic	-11.5148
▁25%	-11.5149
▁uncle	-11.5149
▁underground	-11.515
▁structural	-11.5152
▁Ab	-11.5155
▁gambling	-11.5157
▁bubble	-11.5159
▁sustained	-11.5161
▁fossil	-11.5162
▁turkey	-11.5164
▁allegations	-11.5165
▁preview	-11.5167
▁Magazine	-11.5167
▁kingdom	-11.5167
▁dual	-11.5168
▁Vice	-11.5168
▁paths	-11.5172
▁Major	-11.5173
▁documented	-11.5174
▁destinations	-11.5175
▁2002	-11.5176
▁floating	-11.5176
cast	-11.5178
▁Amendment	-11.5178
▁uncertainty	-11.5183
▁dated	-11.5184
▁consecutive	-11.5187
▁cooler	-11.5189
▁harassment	-11.519
▁libraries	-11.5191
cho	-11.5193
▁1:	-11.5195
▁suspension	-11.5196
▁Description	-11.5197
▁theories	-11.5198
▁Ku	-11.5199
▁vendor	-11.5201
▁Ya	-11.5204
▁partnerships	-11.5205
▁pursuing	-11.5205
▁Case	-11.5207
▁$500	-11.5209
▁patio	-11.5209
click	-11.521
▁Mel	-11.5212
▁weblog	-11.5212
▁stamp	-11.5215
oriented	-11.5216
▁approve	-11.5219
▁fifteen	-11.5221
▁submitting	-11.5222
▁passport	-11.5222
▁longest	-11.5224
▁pub	-11.5226
▁nap	-11.5228
▁refugees	-11.5232
▁puzzle	-11.5232
lic	-11.5235
▁stones	-11.5235
ris	-11.5237
▁ambitious	-11.5238
▁conferences	-11.5239
▁circles	-11.5239
▁chaos	-11.524
▁disappointment	-11.5241
▁operates	-11.5246
▁alternate	-11.5249
▁arriving	-11.525
BA	-11.525
NC	-11.5251
▁Absolutely	-11.5252
96	-11.5254
People	-11.5254
lar	-11.5254
▁surroundings	-11.5256
▁convention	-11.5257
▁seniors	-11.5258
▁technically	-11.5258
▁collaborative	-11.526
▁Linux	-11.5261
▁trace	-11.5262
edu	-11.5263
▁tuned	-11.5265
▁AC	-11.5268
aging	-11.5269
▁Fe	-11.5272
fully	-11.5273
act	-11.5273
▁Islam	-11.5274
▁Jr	-11.5276
▁caution	-11.5277
▁sofa	-11.5279
▁compatible	-11.5281
▁coupon	-11.5283
▁cited	-11.5284
▁pupils	-11.5287
▁honored	-11.5289
▁necessity	-11.5289
▁isolated	-11.5291
▁airline	-11.5298
▁showcase	-11.5298
driven	-11.5298
▁stack	-11.5299
▁compound	-11.53
▁drain	-11.5301
▁Greece	-11.5302
▁edges	-11.5304
▁abstract	-11.5304
▁organizing	-11.5307
▁85	-11.5309
▁sponsored	-11.5309
▁accountable	-11.531
▁intensive	-11.5311
▁tuition	-11.5311
▁vaccine	-11.5312
▁tendency	-11.5312
▁pills	-11.5313
▁deficit	-11.5315
▁integrate	-11.5319
▁mu	-11.5321
▁governance	-11.5324
▁2009,	-11.5325
ign	-11.5327
▁stem	-11.533
▁anonymous	-11.5331
▁notified	-11.5335
pan	-11.5336
▁barrier	-11.5338
▁Resources	-11.5339
▁blown	-11.5339
▁believing	-11.534
order	-11.5347
nes	-11.5348
7%	-11.5349
▁suspended	-11.5349
▁insane	-11.535
▁cares	-11.535
▁counseling	-11.5353
verse	-11.5354
▁Direct	-11.5356
▁predicted	-11.5358
▁da	-11.5358
▁nationwide	-11.536
ada	-11.536
▁clouds	-11.536
pp	-11.5363
▁Clark	-11.5363
effective	-11.5365
▁quicker	-11.537
▁charts	-11.5372
▁execute	-11.5372
▁Fort	-11.5375
▁reviewing	-11.5375
▁eco	-11.5375
▁outlets	-11.5375
▁converted	-11.5376
very	-11.538
▁imp	-11.538
▁Same	-11.538
▁Pen	-11.538
▁bake	-11.5383
▁measuring	-11.5385
▁inviting	-11.5385
▁promptly	-11.5385
▁intentions	-11.5386
▁Lewis	-11.5386
SE	-11.5387
▁electronics	-11.5387
▁titled	-11.5391
▁🙂	-11.5392
▁jet	-11.5393
▁Rick	-11.5394
▁lifted	-11.5398
▁Parents	-11.5398
94	-11.5403
▁Ba	-11.5405
▁substances	-11.5405
▁humble	-11.5406
ass	-11.5406
▁underneath	-11.541
▁creature	-11.5413
▁ghost	-11.5413
-20	-11.5414
▁feeds	-11.5415
▁Cal	-11.5416
uff	-11.5417
▁Hand	-11.5417
▁screens	-11.5417
zi	-11.5417
73	-11.5419
▁organised	-11.5421
02	-11.5423
▁lacking	-11.5424
▁Mail	-11.5425
▁2-3	-11.5426
Co	-11.5427
04	-11.5429
▁fitted	-11.543
yl	-11.5431
▁Cape	-11.5432
▁calculated	-11.5433
▁outline	-11.5433
▁Mayor	-11.5439
▁dip	-11.5439
▁whatsoever	-11.544
▁offerings	-11.5443
▁Fun	-11.5443
▁sheep	-11.5446
tz	-11.545
AT	-11.5454
▁unfair	-11.5462
▁achievements	-11.5464
aw	-11.5466
SP	-11.5467
▁honour	-11.5469
▁seating	-11.547
▁collections	-11.5472
▁snap	-11.5474
▁accountability	-11.5481
val	-11.5482
using	-11.5482
▁Judge	-11.5483
▁belly	-11.5484
▁burst	-11.5485
▁pros	-11.5489
▁discretion	-11.5492
▁Com	-11.5492
▁outlined	-11.5493
▁albums	-11.5495
▁Orange	-11.5495
▁Guy	-11.5496
▁mentor	-11.5496
▁adjusted	-11.55
▁mod	-11.55
SC	-11.5501
▁incorporated	-11.5502
cal	-11.5503
▁wealthy	-11.5505
▁inquiry	-11.5506
▁intensity	-11.5507
▁graduates	-11.5509
▁speeds	-11.5513
▁Dog	-11.5514
▁breakdown	-11.5515
▁thumb	-11.5517
▁paperwork	-11.5517
▁worthwhile	-11.5521
ob	-11.5523
▁donated	-11.5527
▁highlighted	-11.553
▁ONE	-11.5532
▁computing	-11.5532
▁enthusiastic	-11.5533
▁wishing	-11.5534
▁physicians	-11.5534
▁hurry	-11.5536
▁laying	-11.5536
▁whereas	-11.5538
income	-11.5539
tel	-11.5539
▁Answer	-11.5539
▁occupied	-11.5539
▁rolls	-11.5539
▁classified	-11.5539
▁unwanted	-11.554
▁launching	-11.5542
▁Soviet	-11.5543
ani	-11.5551
▁Eventually	-11.5551
▁teenager	-11.5552
▁Spa	-11.5557
▁democratic	-11.5559
▁monetary	-11.5559
▁herbs	-11.5559
▁Wars	-11.5561
▁hello	-11.5563
ther	-11.5564
59	-11.5565
▁introducing	-11.5566
fire	-11.5569
▁Reserve	-11.5571
▁construct	-11.5572
▁51	-11.5573
gy	-11.5576
▁legislative	-11.5577
▁surveillance	-11.5577
▁Finding	-11.5582
▁sp	-11.5582
▁surgical	-11.5583
▁hilarious	-11.5585
▁patent	-11.5586
▁socks	-11.5586
space	-11.559
▁fond	-11.559
▁shaped	-11.5591
03	-11.5594
91	-11.5596
▁Philadelphia	-11.5597
link	-11.5597
sex	-11.5603
▁assignments	-11.5604
▁Industry	-11.5604
▁Grant	-11.5605
74	-11.5606
▁Olympic	-11.5607
▁secretary	-11.5607
▁2008,	-11.5608
▁Seems	-11.5609
3.	-11.5612
▁facebook	-11.5613
row	-11.5614
cost	-11.5614
▁sigh	-11.5617
▁curiosity	-11.5618
▁Dutch	-11.562
▁Jean	-11.5622
▁obstacles	-11.5622
▁ingredient	-11.5624
▁spirits	-11.5624
▁linking	-11.5625
▁Product	-11.5629
▁Question	-11.563
watch	-11.563
▁reportedly	-11.5631
▁Navy	-11.5633
▁queen	-11.5633
▁witnessed	-11.5635
▁Organization	-11.5639
▁qualifications	-11.5641
clock	-11.5642
▁colorful	-11.5647
▁entrepreneur	-11.5647
▁evolve	-11.5657
▁Quick	-11.5657
62	-11.5659
▁recovered	-11.566
▁constitutional	-11.566
▁Property	-11.566
▁cycling	-11.5661
▁USB	-11.5663
▁Memorial	-11.5664
▁shout	-11.5671
▁Allow	-11.5673
▁fur	-11.5675
▁crowded	-11.5677
▁pockets	-11.5679
ena	-11.5683
▁Prior	-11.5684
▁Link	-11.5685
will	-11.5685
▁restored	-11.5685
▁teenagers	-11.5689
6%	-11.5691
▁divide	-11.5691
▁sewing	-11.5695
71	-11.5696
▁journalist	-11.5698
▁dude	-11.5701
▁canvas	-11.5703
▁arena	-11.5705
▁ho	-11.5705
▁consumed	-11.5707
ola	-11.5707
▁sustain	-11.5708
▁Band	-11.5709
▁lifting	-11.5712
▁Legal	-11.5715
▁weakness	-11.5716
▁Comment	-11.5716
▁publisher	-11.5717
Can	-11.5718
▁heroes	-11.5718
07	-11.5718
hood	-11.5719
▁bleeding	-11.5719
92	-11.5722
▁organizational	-11.5723
▁unto	-11.5723
▁Ball	-11.5726
▁acknowledged	-11.5727
▁Pet	-11.573
▁wallet	-11.5731
▁traveled	-11.5731
▁variations	-11.5731
▁trillion	-11.5734
▁Grace	-11.5738
▁manually	-11.5742
bel	-11.5746
▁districts	-11.5747
▁nowadays	-11.5747
af	-11.5749
▁VA	-11.5749
sp	-11.575
▁testimony	-11.575
▁rational	-11.5754
▁Field	-11.5755
▁recession	-11.5756
▁hobby	-11.5759
▁Greg	-11.576
▁Sh	-11.5763
▁MY	-11.5763
▁reduces	-11.5763
▁corners	-11.5765
▁Luke	-11.5765
▁heated	-11.5768
▁tropical	-11.5769
▁decides	-11.577
▁bacon	-11.5772
▁scroll	-11.5775
▁Rich	-11.5775
▁variables	-11.5775
▁kidney	-11.5775
▁op	-11.5777
▁Affairs	-11.5777
▁NYC	-11.5778
▁optimization	-11.578
▁distinction	-11.5781
▁portal	-11.5781
▁Mad	-11.5785
▁Iowa	-11.5786
▁teenage	-11.5787
▁tribute	-11.5789
▁Alan	-11.5794
")	-11.5795
▁activists	-11.5796
▁£2	-11.5797
▁simpler	-11.5798
▁separately	-11.5801
▁mattress	-11.5802
▁hunger	-11.5807
?!	-11.5809
▁notify	-11.5813
IS	-11.5813
maker	-11.5815
▁Massachusetts	-11.5816
▁screaming	-11.5817
name	-11.5819
▁borders	-11.5823
going	-11.5823
html	-11.5824
▁specify	-11.5824
▁Corporation	-11.5828
▁wasted	-11.5829
market	-11.5831
▁Commissioner	-11.5832
wise	-11.5832
▁Ch	-11.5833
▁animation	-11.5835
tu	-11.5838
▁attendees	-11.5842
▁Hillary	-11.5843
▁Photo	-11.5844
▁AD	-11.5846
83	-11.5847
▁targeting	-11.5852
▁newer	-11.5852
▁absorb	-11.5853
▁schemes	-11.5856
▁restoration	-11.5856
show	-11.5857
▁midst	-11.5857
▁Freedom	-11.5859
▁poker	-11.586
▁Starting	-11.586
▁transformed	-11.5867
▁exhausted	-11.5868
Ha	-11.5869
▁inflammation	-11.587
▁delicate	-11.5871
▁baked	-11.5871
▁angel	-11.5872
AR	-11.5873
▁delivers	-11.5874
▁genius	-11.5875
61	-11.5875
▁critics	-11.5882
▁queries	-11.5885
▁Exchange	-11.5885
▁withdrawal	-11.5886
▁Creative	-11.5887
▁Ge	-11.5887
▁obesity	-11.5888
▁cheapest	-11.5889
▁stove	-11.5893
▁conclusions	-11.5894
▁Laura	-11.5896
▁broker	-11.5897
▁disc	-11.5897
▁cm	-11.5897
million	-11.5899
▁fraction	-11.59
▁bothered	-11.5902
▁racial	-11.5904
▁Stock	-11.5907
oma	-11.5909
▁puppy	-11.591
▁NC	-11.5912
▁40%	-11.5916
▁Youth	-11.5922
▁laughter	-11.5923
▁Yep	-11.5923
▁crown	-11.5923
▁debris	-11.5925
nce	-11.5926
til	-11.5928
ans	-11.5928
too	-11.5934
▁mixing	-11.5935
▁Mission	-11.5937
▁2:	-11.5938
▁cave	-11.5941
▁seeks	-11.5941
▁nutritional	-11.5944
▁ruin	-11.5946
▁Hu	-11.5947
▁cancelled	-11.5948
▁hills	-11.5948
▁guessing	-11.5949
▁pour	-11.595
▁Walk	-11.5952
▁Listen	-11.5956
▁Holiday	-11.5957
▁mud	-11.5958
▁Truth	-11.5959
▁Bruce	-11.5959
▁realm	-11.596
▁cons	-11.596
▁lightly	-11.5961
▁du	-11.5964
▁Tree	-11.5965
▁ultra	-11.5965
▁honesty	-11.5965
▁admire	-11.5966
▁margin	-11.5966
▁Interesting	-11.5967
▁devastating	-11.597
▁venues	-11.5971
▁hub	-11.5973
▁premiums	-11.5974
▁discomfort	-11.5976
▁noon	-11.5977
building	-11.5977
▁positively	-11.5978
63	-11.5983
master	-11.5984
▁translate	-11.5984
▁switching	-11.5984
▁controlling	-11.5986
▁households	-11.5989
white	-11.5989
▁stared	-11.5992
▁Cover	-11.5994
▁Detroit	-11.5995
▁sneak	-11.5995
▁adjustments	-11.5996
54	-11.6
▁Studio	-11.6
▁soldier	-11.6002
▁conviction	-11.6002
▁sixth	-11.6003
▁Disease	-11.6003
▁cord	-11.6004
▁chemistry	-11.6005
82	-11.6005
▁permits	-11.6006
▁penalties	-11.6006
▁bias	-11.6007
▁integral	-11.6008
▁professionally	-11.6008
▁surveys	-11.6009
▁ego	-11.6009
▁investigating	-11.6012
▁rides	-11.6014
▁Cost	-11.6016
▁bless	-11.6017
▁alien	-11.6023
▁arguing	-11.6023
▁Shi	-11.6023
▁ethics	-11.6024
▁awake	-11.6024
▁Amazing	-11.6025
▁bitter	-11.6026
3%	-11.6026
▁Provide	-11.6027
▁iconic	-11.6027
▁potato	-11.6027
▁recognised	-11.603
▁stadium	-11.6032
▁laboratory	-11.6033
▁prizes	-11.6033
▁jazz	-11.6037
▁Mi	-11.6038
▁independently	-11.6038
▁reliability	-11.6039
AN	-11.6039
▁Maria	-11.6042
▁sheer	-11.6043
▁purely	-11.6043
▁bat	-11.6045
▁elementary	-11.6045
▁prohibited	-11.6051
▁Definitely	-11.6053
▁backgrounds	-11.6053
▁strangers	-11.6053
▁opponents	-11.6054
▁Wisconsin	-11.6056
▁appetite	-11.6056
▁conflicts	-11.6058
▁investigations	-11.606
▁BC	-11.6061
lie	-11.6062
▁angles	-11.6064
▁chapters	-11.6066
▁Denver	-11.6069
▁behave	-11.6071
▁rude	-11.6072
▁internationally	-11.6072
▁thereby	-11.6072
▁bucks	-11.6074
▁24/7	-11.6077
:00	-11.6077
▁reject	-11.6079
▁phrases	-11.6079
▁Focus	-11.6084
▁consensus	-11.6084
▁searches	-11.6085
▁nest	-11.6087
iest	-11.609
▁structured	-11.6097
ou	-11.6098
▁leisure	-11.61
▁appearing	-11.61
aries	-11.6103
▁economics	-11.6103
rie	-11.6105
▁Dar	-11.6107
▁mall	-11.6111
▁54	-11.6112
▁flew	-11.6113
▁«	-11.6115
▁Hence	-11.6116
ET	-11.6119
cc	-11.6122
two	-11.6124
▁summit	-11.6125
▁14.	-11.6129
▁API	-11.6129
▁torture	-11.613
▁query	-11.6133
▁forcing	-11.6133
aka	-11.6133
▁Gi	-11.6135
▁Safe	-11.6137
▁Defense	-11.6137
▁GM	-11.6138
▁rushed	-11.6139
▁modest	-11.6142
▁Throughout	-11.6143
▁Bear	-11.6145
▁Remove	-11.6145
▁Dick	-11.6147
▁Channel	-11.6147
▁receives	-11.6148
▁relaxation	-11.6151
▁decorated	-11.6154
▁Around	-11.6154
▁consequence	-11.6155
▁complimentary	-11.6158
▁advocates	-11.616
▁processor	-11.6162
bu	-11.6166
pdf	-11.6169
▁Mid	-11.617
▁edited	-11.617
itis	-11.6171
▁unsure	-11.6174
▁exceptions	-11.6177
▁cow	-11.6178
ula	-11.618
▁Century	-11.6181
makers	-11.6181
than	-11.6184
check	-11.6184
▁texts	-11.6184
▁stepping	-11.6186
ric	-11.6186
other	-11.6186
ug	-11.6187
▁Gary	-11.6187
▁Nigeria	-11.6192
ib	-11.6192
▁imposed	-11.6192
▁reset	-11.6193
▁lung	-11.6196
▁marathon	-11.6197
▁medicines	-11.6198
▁Complete	-11.62
′′	-11.6202
▁spokesman	-11.6202
▁moisture	-11.6204
▁greenhouse	-11.6204
81	-11.6205
▁populations	-11.6206
▁automation	-11.6207
”)	-11.6208
▁betting	-11.6209
▁Allen	-11.6211
▁Muslims	-11.6212
▁1-	-11.6213
▁insured	-11.6213
▁jokes	-11.6214
▁dimensions	-11.6215
▁Girls	-11.6216
▁outlook	-11.622
▁sporting	-11.6221
▁coin	-11.6222
▁hockey	-11.6223
hole	-11.6223
▁beaten	-11.6226
▁fried	-11.6227
▁Total	-11.6231
ants	-11.6233
▁desperately	-11.6235
▁sexually	-11.6236
▁expressing	-11.6238
▁MA	-11.6238
▁Target	-11.6239
▁Ensure	-11.624
▁shore	-11.624
du	-11.6243
▁autism	-11.6248
▁crops	-11.625
▁$9	-11.625
▁picks	-11.6256
▁^	-11.6257
▁championship	-11.6257
▁specially	-11.626
TV	-11.6263
▁sunshine	-11.6265
51	-11.6265
▁minerals	-11.6266
front	-11.6267
▁Gas	-11.6268
▁weigh	-11.627
▁sensible	-11.6272
▁Earlier	-11.6273
▁Empire	-11.628
▁AP	-11.6281
▁owe	-11.6282
▁advisor	-11.6288
ius	-11.6288
tan	-11.6288
▁Practice	-11.6288
▁grandfather	-11.6289
▁researching	-11.629
▁trains	-11.6292
▁devil	-11.6294
▁cozy	-11.6294
▁Deep	-11.6295
▁picnic	-11.6295
▁Del	-11.6296
EC	-11.6298
▁99	-11.6298
▁retire	-11.63
▁slice	-11.63
▁lobby	-11.63
▁Soon	-11.6301
▁exterior	-11.6304
▁wonders	-11.6304
▁Sand	-11.6306
▁remedy	-11.6306
▁trainer	-11.6307
▁actress	-11.6308
▁youngest	-11.6309
▁hybrid	-11.6311
▁slower	-11.6312
▁descriptions	-11.6312
▁Knowing	-11.6313
▁incorrect	-11.6322
▁chase	-11.6323
cap	-11.6325
▁scientist	-11.6325
del	-11.6325
▁praying	-11.6326
▁Netflix	-11.6328
▁separation	-11.6329
ened	-11.633
▁po	-11.6331
ken	-11.6333
▁Palm	-11.6334
gu	-11.6335
▁rub	-11.6336
▁versatile	-11.6336
▁Ze	-11.6336
▁hospitality	-11.6337
▁vertical	-11.6337
▁stats	-11.6339
▁20-	-11.6342
blog	-11.6346
▁Mix	-11.6346
▁Mal	-11.6347
▁sponsor	-11.6347
▁max	-11.6348
▁partially	-11.635
▁understands	-11.6354
▁variation	-11.6354
▁expose	-11.6354
▁overly	-11.6356
▁pipeline	-11.636
changing	-11.6362
bin	-11.6362
▁Fed	-11.6362
mp	-11.6364
▁DJ	-11.6364
▁shaking	-11.6365
CE	-11.6367
▁Ty	-11.6368
▁cholesterol	-11.6368
DS	-11.6368
▁slept	-11.6369
▁(6	-11.6369
58	-11.6371
▁planted	-11.6374
▁discovering	-11.6374
▁twitter	-11.6375
▁11,	-11.6375
▁headache	-11.6377
▁practitioners	-11.6379
▁Roll	-11.6383
▁Half	-11.6385
▁elaborate	-11.6387
▁permanently	-11.6388
▁Rachel	-11.6388
▁Rs	-11.6389
▁mm	-11.639
▁heels	-11.6391
Who	-11.6391
▁microwave	-11.6392
▁parade	-11.6392
▁palm	-11.6395
▁Enterprise	-11.6396
▁reservations	-11.6396
▁BUT	-11.6396
▁lecture	-11.6399
▁towel	-11.64
ari	-11.64
▁trapped	-11.6401
▁clips	-11.6401
▁Comp	-11.6407
▁touches	-11.6407
▁tires	-11.6408
▁harvest	-11.6408
▁fatal	-11.6409
▁wheat	-11.6409
▁dietary	-11.6409
▁hated	-11.641
▁bucket	-11.6411
▁nonsense	-11.6413
▁Ci	-11.6414
sol	-11.6419
▁mayor	-11.642
cing	-11.6422
▁Medicare	-11.6422
▁na	-11.6424
▁Sweet	-11.6424
▁attitudes	-11.6424
▁insisted	-11.6426
▁incentive	-11.6427
▁seal	-11.6431
▁partial	-11.6431
▁Scottish	-11.6432
▁Moore	-11.6432
ju	-11.6433
▁warrant	-11.6433
working	-11.6435
put	-11.6436
▁knocked	-11.6436
▁distribute	-11.6439
▁prints	-11.6441
▁observations	-11.6447
▁breeze	-11.6447
▁visibility	-11.6448
roll	-11.6449
▁chairman	-11.6449
▁Left	-11.6449
▁royal	-11.6453
▁outlet	-11.6454
▁collar	-11.6454
▁experiments	-11.6454
▁Details	-11.6455
▁cottage	-11.6455
▁2009.	-11.6463
through	-11.6464
▁undertaking	-11.6466
ano	-11.6467
ches	-11.6468
▁Phone	-11.6468
▁mi	-11.6471
▁colleague	-11.6472
▁zip	-11.6472
▁occurring	-11.6472
▁56	-11.6473
▁st	-11.6473
▁180	-11.6473
▁fixing	-11.6475
▁porch	-11.6477
▁cab	-11.6479
▁frames	-11.6481
▁undergraduate	-11.6482
▁temporarily	-11.6482
▁Ri	-11.6483
▁SA	-11.6487
1%	-11.6488
▁corresponding	-11.6494
▁measurement	-11.6495
▁dresses	-11.6497
▁dial	-11.6498
su	-11.6499
▁Anne	-11.6499
▁marketers	-11.65
▁sandwich	-11.6501
▁NOTE	-11.6505
▁switched	-11.6507
elle	-11.6508
▁bass	-11.651
▁Honestly	-11.651
▁Mount	-11.6517
▁jaw	-11.6517
▁mount	-11.6518
▁flavors	-11.6518
▁powered	-11.6519
▁sq	-11.6525
az	-11.6525
▁Fine	-11.6525
▁Beyond	-11.6525
▁globally	-11.6526
▁com	-11.6527
▁revealing	-11.6527
pin	-11.6527
dale	-11.6528
▁dull	-11.6528
Some	-11.653
▁Sal	-11.653
▁listings	-11.6531
▁disclose	-11.6531
▁Pack	-11.6533
season	-11.6535
▁Discover	-11.6536
▁grill	-11.6537
▁advocacy	-11.6539
kind	-11.6545
▁figuring	-11.6547
▁spotted	-11.6548
phone	-11.6548
ii	-11.6549
▁delightful	-11.6551
▁islands	-11.6553
▁distinctive	-11.6553
▁cared	-11.6555
▁incentives	-11.6557
▁economies	-11.6557
▁gaps	-11.6557
▁nightmare	-11.6558
▁OP	-11.6558
▁bathrooms	-11.6559
▁examined	-11.656
▁Sen	-11.6561
▁literary	-11.6561
▁wars	-11.6562
▁Available	-11.6564
▁**	-11.6564
▁releasing	-11.6565
▁lid	-11.6565
▁HE	-11.6568
▁Anything	-11.6568
Star	-11.6569
▁racist	-11.6573
▁Books	-11.6577
▁boil	-11.6577
Ex	-11.658
dia	-11.658
▁Castle	-11.6581
▁witnesses	-11.6585
▁comparing	-11.659
▁peppers	-11.6597
nic	-11.6597
▁Aug	-11.6601
▁amendment	-11.6602
▁Paper	-11.6602
▁varying	-11.6602
log	-11.6603
▁suspicious	-11.6606
▁Thailand	-11.6611
▁Sch	-11.6613
▁frankly	-11.6613
▁53	-11.6615
▁interfere	-11.6615
▁Orleans	-11.6615
▁acted	-11.6616
▁protocol	-11.6617
▁15%	-11.6617
▁filters	-11.6617
▁boom	-11.6623
UN	-11.6623
▁supervision	-11.6623
▁Gulf	-11.6625
▁hints	-11.6625
▁specialty	-11.6626
▁MD	-11.6626
▁Vancouver	-11.6627
▁charter	-11.6628
zy	-11.663
▁ballot	-11.663
▁allegedly	-11.6631
▁wipe	-11.6634
▁HTML	-11.6635
▁Apart	-11.664
▁unions	-11.6644
▁%	-11.6644
▁optimistic	-11.6646
▁Josh	-11.6646
........	-11.6646
▁colored	-11.6647
love	-11.6652
▁Lincoln	-11.6654
specific	-11.6655
▁MO	-11.6655
▁invaluable	-11.6658
▁Portland	-11.666
▁rally	-11.6665
ica	-11.6665
▁manufactured	-11.6666
▁lenses	-11.6667
▁Rule	-11.6669
▁Additional	-11.667
▁Morgan	-11.6673
▁editorial	-11.6674
God	-11.6676
▁mechanisms	-11.6678
▁Language	-11.6679
ski	-11.6679
▁thesis	-11.668
▁migration	-11.6681
▁Pass	-11.6682
▁undertake	-11.6683
▁nails	-11.6683
MB	-11.6686
▁(4)	-11.6686
▁protests	-11.6687
was	-11.6688
▁interviewed	-11.669
▁scam	-11.6693
iz	-11.6694
▁camps	-11.6694
▁infected	-11.6694
▁Indiana	-11.6696
▁merchandise	-11.6696
▁Ham	-11.6697
▁negotiate	-11.6698
▁delays	-11.6699
▁stuffed	-11.67
▁accessed	-11.67
▁tens	-11.6701
▁Ash	-11.6701
▁composed	-11.6701
000	-11.6702
▁institutional	-11.6703
▁jurisdiction	-11.6706
▁promoted	-11.6706
By	-11.6706
▁WILL	-11.6709
▁Snow	-11.6711
▁lasted	-11.6712
human	-11.6713
▁calculate	-11.6713
▁arrives	-11.6716
▁Cash	-11.6717
▁schedules	-11.6717
▁borrow	-11.6719
used	-11.6719
plus	-11.672
▁autumn	-11.672
▁peek	-11.672
▁Tra	-11.6725
,''	-11.6725
▁temple	-11.6727
▁parenting	-11.6728
▁donors	-11.6732
▁cuisine	-11.6733
▁$30	-11.6734
▁Wonderful	-11.6737
mark	-11.6737
▁outer	-11.6738
▁tragic	-11.6741
▁swap	-11.6742
▁dump	-11.6743
▁95	-11.6745
▁washed	-11.6745
first	-11.6747
▁hug	-11.6748
▁dies	-11.675
▁customize	-11.6752
▁foam	-11.6755
ku	-11.6758
▁sighed	-11.6758
▁sticks	-11.6758
▁shield	-11.6759
▁wines	-11.6759
▁forty	-11.6761
▁tasting	-11.6762
▁insert	-11.6762
▁conjunction	-11.6764
▁lane	-11.6766
ero	-11.6767
▁lonely	-11.6767
▁pill	-11.6768
ep	-11.677
▁robot	-11.677
▁rage	-11.6773
▁voluntary	-11.6774
);	-11.6775
▁Fresh	-11.6775
▁Face	-11.6776
coming	-11.6779
▁shortage	-11.6781
▁$200	-11.6781
▁abundance	-11.6783
▁gloves	-11.6784
▁gaze	-11.6786
2)	-11.6787
▁sensor	-11.6789
▁metres	-11.6789
▁accidentally	-11.6792
▁bears	-11.6792
▁threads	-11.6792
▁lands	-11.6793
store	-11.6795
▁Ban	-11.6795
▁credibility	-11.6799
▁Course	-11.68
▁declare	-11.68
▁whoever	-11.6803
▁Registration	-11.6805
▁dignity	-11.6806
▁chef	-11.6808
▁withdraw	-11.681
media	-11.6811
▁Theatre	-11.6813
CO	-11.6814
▁Euro	-11.6816
▁buddy	-11.6816
▁aunt	-11.6816
Because	-11.6818
▁Color	-11.6822
▁survivors	-11.6824
▁prone	-11.6826
mat	-11.6829
▁2008.	-11.6829
▁threshold	-11.6834
▁travels	-11.6834
▁decor	-11.6844
▁Justin	-11.6848
▁demanded	-11.6849
▁Wind	-11.685
▁specifications	-11.6851
▁Tickets	-11.6854
▁communicating	-11.6854
:15	-11.6854
vis	-11.6856
▁wardrobe	-11.6856
▁pale	-11.6857
▁faithful	-11.6857
▁advances	-11.6857
▁Flash	-11.6858
▁para	-11.6858
mb	-11.6859
▁webpage	-11.6861
▁sellers	-11.6861
▁6-	-11.6864
▁Marine	-11.6866
▁Mine	-11.6871
▁lengthy	-11.6873
▁relieve	-11.6873
▁Resort	-11.6875
ister	-11.6876
ters	-11.688
▁Doing	-11.6885
▁willingness	-11.6887
▁remarks	-11.6887
▁Maryland	-11.6887
▁Manhattan	-11.6888
▁Yo	-11.6893
▁Karen	-11.6895
je	-11.6896
▁warmth	-11.6898
▁digging	-11.69
CH	-11.6901
bad	-11.6908
ev	-11.6909
▁unclear	-11.691
Are	-11.6912
ENT	-11.6915
▁automobile	-11.6918
▁sincere	-11.6918
▁Neither	-11.6919
▁Meet	-11.6922
▁bo	-11.6923
▁DIY	-11.6925
▁vegetarian	-11.6925
▁perspectives	-11.6925
▁1997	-11.6926
meter	-11.6927
▁le	-11.6927
▁Fill	-11.6927
▁someday	-11.6928
▁DE	-11.6934
▁utilizing	-11.6938
▁varies	-11.6938
▁Barack	-11.6939
lation	-11.6942
▁breed	-11.6948
▁prisoners	-11.6949
▁messaging	-11.6953
▁vocal	-11.6953
▁publishers	-11.6955
▁Sweden	-11.6956
▁Alliance	-11.6958
▁hurts	-11.6958
▁guards	-11.6962
▁sunlight	-11.6963
▁priest	-11.6967
▁reporter	-11.697
▁Woman	-11.697
▁eastern	-11.6972
▁Kennedy	-11.6972
lay	-11.6975
▁luggage	-11.6976
FA	-11.6976
tter	-11.6977
▁lined	-11.6977
▁bang	-11.6979
▁bail	-11.6979
▁buses	-11.6981
▁belongs	-11.6983
▁exams	-11.6985
▁classical	-11.6986
▁assumptions	-11.6986
▁acute	-11.6987
▁serial	-11.6987
boy	-11.6988
▁kindly	-11.6989
▁assumption	-11.6992
▁farms	-11.6993
▁centres	-11.6995
▁Ice	-11.6995
▁tweet	-11.6996
▁Clearly	-11.6996
▁Housing	-11.6998
▁realizing	-11.7002
▁Harvard	-11.7003
▁Awesome	-11.7004
▁motorcycle	-11.7004
▁raises	-11.7005
▁organ	-11.7008
chan	-11.7009
ria	-11.701
▁vet	-11.701
▁forming	-11.7011
Come	-11.7013
▁disturbing	-11.7013
▁recipient	-11.7013
▁recreational	-11.7014
▁scenery	-11.7016
▁shelves	-11.7016
▁athletic	-11.7017
▁wounded	-11.7017
▁commentary	-11.7019
▁enterprises	-11.702
web	-11.7023
▁Sony	-11.7024
▁buzz	-11.7024
After	-11.7025
▁bull	-11.7028
▁varieties	-11.7031
▁attributes	-11.7032
▁headquarters	-11.7034
▁subscribers	-11.7039
test	-11.7042
▁ANY	-11.7044
▁Blood	-11.7044
▁sucks	-11.7046
▁infant	-11.7048
▁divine	-11.705
5%	-11.7057
▁Less	-11.7057
▁vessel	-11.7057
▁purse	-11.7058
▁diving	-11.7058
▁explosion	-11.7059
power	-11.7059
▁clarify	-11.7059
▁Villa	-11.7059
▁2,000	-11.7061
▁recruiting	-11.7062
▁GPS	-11.7064
door	-11.7064
▁openly	-11.7066
New	-11.7068
▁tolerance	-11.7068
case	-11.7069
▁Pope	-11.7071
▁Quite	-11.7071
▁passive	-11.7072
▁vessels	-11.7072
▁Nowadays	-11.7073
▁obsessed	-11.7074
▁Senator	-11.7074
▁expectation	-11.7075
RO	-11.7075
sky	-11.7077
▁timeline	-11.708
help	-11.7081
▁Jennifer	-11.7083
▁Cold	-11.7083
Look	-11.7084
▁Phoenix	-11.7085
▁Howard	-11.7085
▁rentals	-11.709
▁Assistant	-11.7091
??	-11.7094
▁allergies	-11.7096
EL	-11.71
▁em	-11.7101
▁Inn	-11.7104
proof	-11.7107
▁pork	-11.7107
▁violations	-11.7107
▁Caribbean	-11.7108
▁debts	-11.7109
▁likelihood	-11.711
lon	-11.7112
▁meter	-11.7113
▁chill	-11.7114
rin	-11.7114
▁bearing	-11.7117
▁freezer	-11.712
▁consultants	-11.712
▁Golf	-11.7123
▁volumes	-11.7124
▁Larry	-11.7124
ving	-11.7125
▁Guardian	-11.7126
▁melt	-11.7127
▁Ca	-11.7128
▁Francis	-11.7128
▁lettuce	-11.7129
▁width	-11.7129
▁draws	-11.713
▁utterly	-11.7131
▁upside	-11.7132
▁souls	-11.7133
body	-11.7133
▁Days	-11.7134
▁enrolled	-11.7136
▁pillow	-11.7137
▁inappropriate	-11.714
▁tin	-11.714
▁elevator	-11.714
lit	-11.7143
▁contacting	-11.7144
▁renewal	-11.7147
▁earliest	-11.7148
fl	-11.7148
▁disappointing	-11.7149
▁eternal	-11.7149
▁Kit	-11.7149
range	-11.7152
▁glorious	-11.7153
sign	-11.7156
▁criminals	-11.7159
▁pursuit	-11.7159
ulation	-11.7161
bus	-11.7161
▁asthma	-11.7162
▁Users	-11.7166
▁Tower	-11.7167
dom	-11.7168
▁66	-11.7168
▁tunnel	-11.7171
▁nonetheless	-11.7172
▁Berlin	-11.7172
▁Emily	-11.7174
▁Believe	-11.7175
▁Mars	-11.7176
▁Michelle	-11.7177
▁idiot	-11.7178
har	-11.7179
▁discharge	-11.7182
▁Charlotte	-11.7186
▁Certainly	-11.7187
▁condo	-11.7187
▁Investment	-11.7189
▁Cur	-11.7192
any	-11.7192
▁Pete	-11.7196
▁CAN	-11.7196
▁Liz	-11.7197
▁renewed	-11.7197
▁lenders	-11.7198
▁tempted	-11.7198
▁quarters	-11.72
▁verse	-11.7203
▁Date	-11.7203
▁backing	-11.7204
▁wasting	-11.7205
▁Regional	-11.7205
▁Heat	-11.721
▁renting	-11.7213
-11	-11.7215
stick	-11.7215
▁informal	-11.7217
▁enforce	-11.7219
sha	-11.722
source	-11.722
▁desirable	-11.722
▁assurance	-11.7221
▁1996	-11.7223
▁remotely	-11.7224
▁enjoyment	-11.7226
▁Hiya	-11.7229
▁vinegar	-11.723
▁offline	-11.7231
▁respondents	-11.7232
▁miracle	-11.7234
▁judgement	-11.7236
▁evolving	-11.7236
▁Birthday	-11.7237
▁wherein	-11.7238
▁coins	-11.7239
▁Thankfully	-11.7239
▁Voice	-11.7248
▁inclined	-11.7251
▁celebrity	-11.7252
▁illnesses	-11.7253
▁coalition	-11.7255
▁gig	-11.7257
▁2019.	-11.7258
▁spine	-11.726
nu	-11.7263
▁farmer	-11.7266
▁luxurious	-11.7266
▁fireplace	-11.7267
people	-11.7268
▁Guard	-11.7269
▁steak	-11.7272
▁Secret	-11.7276
▁warehouse	-11.7276
▁bicycle	-11.7279
▁brains	-11.728
▁VERY	-11.7282
▁57	-11.7285
▁perfection	-11.7285
▁vent	-11.7287
▁catalog	-11.7288
IM	-11.7289
▁toast	-11.7291
▁Kitchen	-11.7295
▁prompted	-11.7297
▁journalism	-11.7297
▁bride	-11.7298
▁photographers	-11.7299
▁templates	-11.73
something	-11.7303
▁FDA	-11.7303
▁cinema	-11.7303
▁Survey	-11.7304
▁surfing	-11.7304
▁Close	-11.7306
▁pad	-11.7307
▁Machine	-11.7308
▁Multi	-11.7311
▁conspiracy	-11.7314
▁appropriately	-11.7319
▁athlete	-11.732
▁proceeds	-11.7321
93	-11.7324
▁WiFi	-11.7325
▁4)	-11.7328
53	-11.7328
▁manufacture	-11.7328
▁retention	-11.7331
▁bloody	-11.7332
rated	-11.7333
▁lbs	-11.7335
▁Solutions	-11.7335
▁Mini	-11.7337
▁Trans	-11.7338
▁62	-11.7339
▁damaging	-11.7349
▁mercy	-11.7351
▁chamber	-11.7352
▁viral	-11.7354
▁educators	-11.7354
▁crafts	-11.7355
▁III	-11.7355
▁detection	-11.7355
▁posters	-11.7356
▁Double	-11.7357
▁Inside	-11.7358
risk	-11.7361
▁musician	-11.7362
▁therapeutic	-11.7362
▁dismissed	-11.7365
▁complement	-11.7365
▁Schools	-11.737
active	-11.737
▁participant	-11.7377
worth	-11.7377
▁Robin	-11.7379
av	-11.7381
▁unhappy	-11.7383
bound	-11.7384
▁holder	-11.7386
▁Urban	-11.7386
▁warmer	-11.7386
▁sells	-11.7391
▁Editor	-11.74
▁distracted	-11.74
▁flowing	-11.74
▁interpret	-11.7401
▁Served	-11.7401
matic	-11.7401
TC	-11.7402
▁deployment	-11.7404
▁Alice	-11.7407
▁booth	-11.741
▁fires	-11.7412
▁halfway	-11.7415
▁lending	-11.7415
ett	-11.7416
gg	-11.7417
lee	-11.742
▁amateur	-11.7421
▁Works	-11.7421
▁adjustment	-11.7423
▁branding	-11.7424
▁statistical	-11.7427
▁binding	-11.7433
▁copper	-11.7434
▁failures	-11.7434
▁lump	-11.7435
▁technicians	-11.7437
▁Val	-11.744
▁Budget	-11.744
▁kidding	-11.7442
▁gentleman	-11.7443
▁hormone	-11.7446
▁Billy	-11.7447
▁Linda	-11.7448
tail	-11.7451
▁learners	-11.7452
▁NHS	-11.7455
▁leak	-11.7457
fold	-11.7457
sion	-11.7458
▁rep	-11.7459
▁clearing	-11.7459
▁goodbye	-11.7464
▁corrupt	-11.7466
▁Keeping	-11.7468
Thanks	-11.7473
▁substantially	-11.7473
▁flooring	-11.7475
▁Creek	-11.7476
▁Products	-11.7476
▁impose	-11.7476
▁surgeon	-11.7477
▁ecosystem	-11.748
▁triple	-11.748
▁budgets	-11.7481
▁derived	-11.7485
▁rack	-11.7493
▁Metro	-11.7495
▁NEW	-11.7495
amp	-11.7499
▁Brooklyn	-11.7502
GA	-11.7504
▁princess	-11.751
▁LinkedIn	-11.7511
▁Rep	-11.7515
▁reforms	-11.7516
hy	-11.7518
▁Melbourne	-11.7518
Hi	-11.7519
▁anticipate	-11.752
▁fold	-11.752
▁rankings	-11.7521
▁adapted	-11.7522
▁societies	-11.7522
▁civilization	-11.7524
▁Lin	-11.7526
▁measurements	-11.7527
▁vol	-11.7528
▁jar	-11.7528
Com	-11.7528
piece	-11.7529
▁Wolf	-11.7529
▁sights	-11.753
▁pumpkin	-11.7531
▁Construction	-11.7532
▁traits	-11.7534
▁shifts	-11.7536
▁projected	-11.7539
▁1991	-11.7541
▁bargain	-11.7543
yo	-11.7544
▁Hawaii	-11.7545
▁modules	-11.7545
▁promotions	-11.7545
cur	-11.7545
▁demonstration	-11.7546
▁Single	-11.7547
▁smiles	-11.7548
▁waking	-11.7549
PC	-11.7549
▁stance	-11.7552
▁sour	-11.7556
ene	-11.7556
▁perceive	-11.756
▁conclude	-11.7562
kg	-11.7564
DE	-11.7566
▁screw	-11.7566
▁rehabilitation	-11.7568
▁Ross	-11.7568
▁horizon	-11.7568
▁commands	-11.757
▁lesser	-11.7571
▁reasoning	-11.7572
▁skirt	-11.7574
▁dangers	-11.7578
▁tenants	-11.758
▁Title	-11.7581
▁tv	-11.7582
▁speculation	-11.7585
▁typing	-11.7586
▁bounce	-11.7587
▁formats	-11.7589
▁Anthony	-11.759
▁portrait	-11.759
▁counted	-11.7594
▁58	-11.7594
▁implies	-11.7596
▁quantities	-11.7604
open	-11.7605
ami	-11.7606
▁Wal	-11.7609
▁invisible	-11.7611
▁whispered	-11.7612
▁headlines	-11.7613
▁renovation	-11.7616
ade	-11.7617
▁kicking	-11.7619
self	-11.7621
▁politically	-11.7627
▁wallpaper	-11.7628
lia	-11.7628
▁checkout	-11.7629
▁mat	-11.7629
°	-11.7634
▁Haven	-11.7634
▁depressed	-11.7636
▁//	-11.7637
▁Hunter	-11.7639
ral	-11.7639
▁acids	-11.764
▁allies	-11.764
▁intuitive	-11.7642
▁2007,	-11.7642
▁tanks	-11.7644
▁pools	-11.7644
fe	-11.7647
▁coastal	-11.7647
family	-11.765
▁Va	-11.7651
▁Whilst	-11.7651
▁complained	-11.7651
shot	-11.7652
▁Move	-11.7653
▁waist	-11.7655
fish	-11.7657
press	-11.7657
place	-11.7657
▁relates	-11.7659
▁Climate	-11.7659
▁mill	-11.7663
▁WITH	-11.7665
▁ABC	-11.7665
▁racism	-11.7671
mal	-11.7673
▁Saint	-11.7675
▁cocktail	-11.7675
MO	-11.7676
▁analysts	-11.7676
▁Seven	-11.7677
▁Ali	-11.7677
▁valley	-11.7678
▁Fi	-11.7678
▁neighborhoods	-11.7679
▁questioned	-11.7684
▁Olympics	-11.7684
▁Eat	-11.7685
▁notable	-11.7686
La	-11.7686
▁Tip	-11.7687
▁Jimmy	-11.7687
▁hooked	-11.7688
▁embedded	-11.7689
▁gum	-11.7692
▁Aside	-11.7692
▁gods	-11.7694
▁curb	-11.7695
zo	-11.7705
▁logistics	-11.7705
▁radar	-11.7705
▁CC	-11.7711
▁topped	-11.7713
▁emerge	-11.7713
▁headline	-11.7714
ory	-11.7717
▁strongest	-11.7721
gle	-11.7722
.......	-11.7722
▁sins	-11.7723
sch	-11.7724
▁Philippines	-11.7727
▁shades	-11.7727
stock	-11.773
▁debit	-11.773
bank	-11.7733
▁freezing	-11.7735
ony	-11.7738
ets	-11.7738
▁propose	-11.7741
pping	-11.7742
▁Prize	-11.7743
▁slave	-11.7745
▁builds	-11.7748
▁streak	-11.7749
▁Den	-11.775
des	-11.775
▁vague	-11.775
▁insulin	-11.775
▁polls	-11.7753
▁ramp	-11.7754
▁crush	-11.7759
ston	-11.776
uring	-11.776
▁comics	-11.776
tri	-11.7761
▁SC	-11.7763
▁slim	-11.7764
▁plumbing	-11.7764
▁assisted	-11.7765
▁Anderson	-11.7768
▁cage	-11.7768
▁keyword	-11.777
▁101	-11.777
▁traders	-11.7774
▁trim	-11.7778
▁ladder	-11.7779
▁blowing	-11.7779
▁Julie	-11.7779
say	-11.7781
▁Er	-11.7781
▁hack	-11.7781
▁chains	-11.7781
pt	-11.7783
▁1999	-11.7784
▁100,000	-11.7787
▁regulate	-11.7787
▁neglect	-11.7787
▁defending	-11.7788
▁drawings	-11.7789
▁glow	-11.7789
workers	-11.779
▁zones	-11.779
▁tire	-11.779
Lo	-11.7791
▁learnt	-11.7792
▁Rev	-11.7792
▁editors	-11.7795
▁siblings	-11.7796
▁occupation	-11.7798
▁circulation	-11.7798
▁350	-11.78
▁salmon	-11.7801
▁crisp	-11.7802
▁GP	-11.7803
▁surprises	-11.7805
▁surf	-11.7809
▁Bond	-11.7811
Even	-11.7811
▁influential	-11.7812
▁Ltd	-11.7812
TO	-11.7815
▁indicator	-11.7815
▁Register	-11.7818
▁HAVE	-11.782
▁Dragon	-11.782
ically	-11.7822
▁terrorists	-11.7823
▁smartphones	-11.7826
ERS	-11.7829
▁heck	-11.7831
▁apples	-11.7831
▁collaborate	-11.7833
bn	-11.7833
edge	-11.7835
▁squeeze	-11.7836
▁Risk	-11.7837
ggy	-11.7838
its	-11.7839
▁grin	-11.784
▁utilized	-11.7841
▁Event	-11.7843
▁tele	-11.7843
Every	-11.7846
▁urged	-11.7849
fall	-11.7849
▁bent	-11.7851
▁impress	-11.7853
▁BO	-11.7863
▁Fish	-11.7863
▁SE	-11.7864
▁hopeful	-11.7866
eth	-11.7869
▁lightweight	-11.787
▁Oscar	-11.787
bra	-11.787
▁Mis	-11.7871
▁associations	-11.7874
ct	-11.7875
▁rip	-11.7877
▁daunting	-11.7878
except	-11.7881
▁liberty	-11.7882
▁controller	-11.7886
▁intriguing	-11.7886
▁headaches	-11.7886
▁museums	-11.7887
▁barn	-11.7891
▁prevented	-11.7893
▁suspicion	-11.7896
▁scare	-11.7896
▁consist	-11.7898
▁Chairman	-11.7899
▁cruel	-11.7899
▁playground	-11.79
▁controversy	-11.79
▁14,	-11.7901
▁brutal	-11.7901
▁Emergency	-11.7901
▁overlooked	-11.7903
▁villages	-11.7903
Ra	-11.7907
best	-11.7907
▁font	-11.7909
▁ignoring	-11.7909
ros	-11.7912
▁riders	-11.7913
▁liking	-11.7915
▁stiff	-11.7916
▁IF	-11.7917
▁Drug	-11.7917
word	-11.7919
▁Carter	-11.7919
▁Continue	-11.792
▁catering	-11.7921
CP	-11.7921
▁severely	-11.7921
▁referral	-11.7922
▁leaf	-11.7922
▁Hills	-11.7924
▁jack	-11.7925
▁Limited	-11.7928
▁saves	-11.7929
▁uncertain	-11.7929
▁7,	-11.793
▁ta	-11.793
▁Missouri	-11.7932
▁13,	-11.7936
▁Edward	-11.7936
▁socially	-11.7937
▁planting	-11.7941
▁decreased	-11.7951
▁USD	-11.7952
▁assessed	-11.7953
▁Oak	-11.7954
▁Breakfast	-11.7955
▁barrel	-11.7956
▁proves	-11.7959
▁assessments	-11.7961
▁15-	-11.7962
▁overhead	-11.7963
▁Duke	-11.7963
ls	-11.7963
▁accent	-11.7964
▁taxpayers	-11.7965
▁Ju	-11.7966
Where	-11.7967
▁optimize	-11.7968
▁deer	-11.7969
▁Ki	-11.797
▁bachelor	-11.7971
▁merit	-11.7973
▁coding	-11.7975
▁Coach	-11.7977
▁translated	-11.7979
▁Advanced	-11.7979
▁persistent	-11.7981
▁Bu	-11.7984
▁reign	-11.7985
▁scheduling	-11.7985
die	-11.7986
▁Mor	-11.7988
ction	-11.7992
▁continent	-11.7992
▁dock	-11.7992
▁1995	-11.7992
▁Emma	-11.7995
▁unprecedented	-11.7995
▁customs	-11.7997
▁Wish	-11.7997
▁63	-11.7998
ening	-11.7998
▁Netherlands	-11.8
▁additionally	-11.8001
▁automotive	-11.8001
/10	-11.8002
▁Football	-11.8003
rick	-11.8005
▁surfaces	-11.8007
▁lamp	-11.8011
▁sequel	-11.8012
▁Battle	-11.8013
▁hood	-11.8014
▁Heaven	-11.8015
Read	-11.8021
▁pending	-11.8024
▁(8	-11.8025
▁Iron	-11.8025
▁shocking	-11.8025
▁Consumer	-11.8025
▁cancellation	-11.8026
▁Ste	-11.8027
▁questioning	-11.8027
▁prosecution	-11.803
▁veggies	-11.8031
▁dominant	-11.8033
▁earthquake	-11.8035
ea	-11.8035
▁Yahoo	-11.8036
▁handsome	-11.8037
▁Tomorrow	-11.8037
▁Sale	-11.8042
▁16,	-11.8043
St	-11.8046
▁Ukraine	-11.8047
▁abused	-11.8047
▁Morning	-11.8048
▁march	-11.8049
▁NBA	-11.8051
▁flooding	-11.8054
half	-11.8055
▁charities	-11.8057
▁absent	-11.8058
rant	-11.8061
▁simplest	-11.8062
▁hormones	-11.8062
tte	-11.8062
▁Environment	-11.8063
▁roller	-11.8063
▁denial	-11.807
▁Alzheimer	-11.807
▁tailor	-11.807
▁dislike	-11.8071
▁LLC	-11.8073
▁Build	-11.8074
written	-11.8074
mann	-11.8075
▁Thai	-11.8075
▁algorithm	-11.8077
▁appearances	-11.808
▁Salt	-11.8081
▁render	-11.8081
▁limiting	-11.8083
▁logged	-11.8083
▁wellbeing	-11.8083
▁Costa	-11.8083
▁bend	-11.8084
▁undertaken	-11.8085
▁Bachelor	-11.8086
▁disruption	-11.8087
▁z	-11.8088
▁mechanics	-11.8089
▁licensing	-11.8089
▁billing	-11.8092
▁arch	-11.8093
▁smallest	-11.8094
▁density	-11.8095
▁organs	-11.8096
rn	-11.8096
▁simplicity	-11.8096
▁transfers	-11.8098
▁unlock	-11.8098
▁Ve	-11.8102
▁comfortably	-11.8103
▁Aid	-11.8105
ground	-11.8105
zer	-11.8108
▁generosity	-11.8109
▁pa	-11.811
▁router	-11.8111
▁("	-11.8112
▁drill	-11.8113
▁static	-11.8113
▁grammar	-11.8114
▁Native	-11.8116
▁compiled	-11.8117
▁faint	-11.8118
▁gospel	-11.8119
eo	-11.8119
▁Nearly	-11.8119
▁missions	-11.8122
▁beginners	-11.8123
▁tide	-11.8123
▁Gallery	-11.8124
▁fascinated	-11.8126
▁1989	-11.8127
▁ignorance	-11.8127
▁seminar	-11.8129
▁machinery	-11.8132
try	-11.8132
▁rocket	-11.8133
▁Edition	-11.8133
▁Gift	-11.8133
▁ample	-11.8134
twitter	-11.8136
▁cop	-11.8138
▁dimension	-11.8139
social	-11.8143
▁remembering	-11.8144
cher	-11.8144
▁Utah	-11.8145
▁ro	-11.8146
▁Pinterest	-11.8146
▁backpack	-11.8146
▁experimental	-11.8148
▁nut	-11.8157
▁needle	-11.8159
▁administrator	-11.816
LO	-11.8161
▁aiming	-11.8162
▁billions	-11.8162
▁litigation	-11.8163
▁Revolution	-11.8164
ular	-11.8164
▁dementia	-11.8164
▁clause	-11.8164
▁sentenced	-11.8165
OT	-11.8166
▁flows	-11.8166
▁Alaska	-11.8166
▁jealous	-11.8167
▁allergic	-11.8169
▁renowned	-11.8173
▁comprehend	-11.8174
pen	-11.8174
▁pharmaceutical	-11.8174
▁adaptation	-11.8174
▁coordination	-11.8178
▁Che	-11.8179
▁Race	-11.818
green	-11.8181
▁attacking	-11.8185
-18	-11.8187
▁thru	-11.8189
▁anchor	-11.8189
-7	-11.819
▁sacred	-11.819
▁slipped	-11.8194
▁EP	-11.8195
Ma	-11.8197
▁illusion	-11.82
▁ink	-11.8203
▁blade	-11.8204
▁guarantees	-11.8208
▁Faith	-11.8209
▁fame	-11.821
▁wrist	-11.821
▁GA	-11.8212
▁sentiment	-11.8216
code	-11.8217
▁sensors	-11.8217
▁sanctions	-11.8217
▁Rio	-11.8218
▁compliment	-11.8218
onic	-11.8219
ration	-11.8219
▁MC	-11.8219
▁imperative	-11.8219
▁mushrooms	-11.8219
lum	-11.822
▁Christianity	-11.8221
▁railway	-11.8221
▁Jerry	-11.8223
▁thereof	-11.8225
1)	-11.8225
pet	-11.8227
▁Collection	-11.8229
▁Arthur	-11.823
▁starter	-11.8232
▁Performance	-11.8237
▁manages	-11.8237
EP	-11.8238
▁700	-11.8238
▁terribly	-11.8239
▁Crime	-11.824
▁backwards	-11.824
illa	-11.8242
▁risky	-11.8243
▁Poor	-11.8243
▁gardening	-11.8243
▁Jerusalem	-11.8244
▁roster	-11.8248
▁70%	-11.8248
▁Fred	-11.8251
normal	-11.8251
▁61	-11.8252
▁cosmetic	-11.8252
▁Sean	-11.8253
▁bitch	-11.8254
filled	-11.8256
▁rope	-11.8258
Here	-11.8258
-15	-11.8259
▁villa	-11.8262
▁probability	-11.8263
▁Summit	-11.8266
▁59	-11.8266
fat	-11.8268
▁sensitivity	-11.8269
▁blocking	-11.8276
▁supposedly	-11.8279
▁gauge	-11.8279
▁Bus	-11.828
▁uncover	-11.8281
▁aluminum	-11.8282
▁Yu	-11.8283
▁Dumpster	-11.8284
▁leaning	-11.8285
▁indicating	-11.8287
▁shifting	-11.8291
look	-11.8292
▁footprint	-11.8294
▁3.5	-11.8294
▁Johnny	-11.8294
▁Classic	-11.8295
▁particles	-11.8296
▁forests	-11.8299
▁Ultimately	-11.83
OP	-11.83
▁15,	-11.8302
▁scent	-11.8303
▁reputable	-11.8305
▁demographic	-11.8305
century	-11.8306
▁Break	-11.8306
▁Philip	-11.8312
▁eliminated	-11.8312
▁towels	-11.8315
▁attach	-11.8316
▁embarrassing	-11.8319
▁insist	-11.8319
▁Rules	-11.832
books	-11.8321
▁Amanda	-11.8322
▁pairs	-11.8323
▁nominated	-11.8324
▁AN	-11.8325
▁tee	-11.8325
▁notifications	-11.8326
second	-11.8326
▁premise	-11.8328
▁professionalism	-11.8329
▁deliberately	-11.8329
▁courtesy	-11.833
▁Eye	-11.833
▁mega	-11.8332
cer	-11.8332
▁Innovation	-11.8334
shop	-11.8334
▁spark	-11.8335
▁lively	-11.8338
▁verification	-11.8343
▁biology	-11.8343
▁Independent	-11.8344
▁Prevention	-11.8346
▁upstairs	-11.8347
▁cargo	-11.8351
ec	-11.8352
miss	-11.8352
▁Harris	-11.8353
▁(7	-11.8354
▁mounted	-11.8354
▁21,	-11.8355
▁mar	-11.8356
▁eBay	-11.8357
▁sketch	-11.8357
▁recovering	-11.8357
sey	-11.8358
▁packs	-11.836
start	-11.8361
▁energetic	-11.8361
▁deserved	-11.8364
▁offset	-11.8367
▁Tar	-11.8367
▁1994	-11.8369
▁Restaurant	-11.8373
▁JavaScript	-11.8373
▁outreach	-11.8375
▁united	-11.8376
▁CV	-11.8376
▁sponsors	-11.8376
▁dick	-11.8382
Okay	-11.8385
▁demonstrates	-11.8386
▁freak	-11.8386
▁sends	-11.8387
aged	-11.8388
▁proving	-11.839
▁distress	-11.8392
nch	-11.8392
ld	-11.8394
▁shiny	-11.8394
▁downloading	-11.8395
▁30,	-11.8397
▁Trail	-11.8398
▁mineral	-11.8399
PO	-11.84
▁Mill	-11.84
▁replies	-11.8401
▁kits	-11.8401
▁Princess	-11.8403
▁commitments	-11.8403
business	-11.8404
DC	-11.8405
▁symbols	-11.8407
▁invented	-11.8408
▁wounds	-11.8409
▁leaned	-11.8411
▁NA	-11.8412
▁wholesale	-11.8414
▁uploaded	-11.8416
▁parked	-11.8418
▁buck	-11.842
ult	-11.8421
▁Palestinian	-11.8424
Or	-11.8426
uri	-11.8427
▁1998	-11.8431
▁beast	-11.8431
▁Walker	-11.8434
▁dealers	-11.8436
▁declaration	-11.8438
▁memorial	-11.8438
▁civilian	-11.844
▁pursuant	-11.8442
Ro	-11.8442
▁Different	-11.8443
▁peanut	-11.8447
▁fulfilling	-11.8448
▁prep	-11.8448
▁altered	-11.8451
▁6,	-11.8454
▁Alabama	-11.8455
▁Didn	-11.8455
▁diagnostic	-11.8456
▁wheelchair	-11.8457
▁Ram	-11.8462
share	-11.8463
▁glue	-11.8465
HA	-11.8467
▁exercising	-11.847
▁1%	-11.8471
▁architectural	-11.8472
▁HP	-11.8473
load	-11.8475
▁males	-11.8476
▁Maine	-11.8479
▁norm	-11.848
▁vanilla	-11.848
▁pal	-11.8483
rise	-11.8484
▁Text	-11.8485
▁Dubai	-11.8487
▁Schedule	-11.8488
ient	-11.8489
▁administrators	-11.8489
▁cheek	-11.849
ew	-11.849
▁banner	-11.8491
▁cops	-11.8493
▁firing	-11.8494
▁Highway	-11.8494
▁Everybody	-11.8496
▁MI	-11.8497
▁murdered	-11.8497
▁wax	-11.8497
▁graph	-11.8498
▁Wine	-11.8498
▁sync	-11.8498
▁Heritage	-11.8499
▁transplant	-11.8499
▁indicators	-11.85
▁shirts	-11.85
▁retailer	-11.8501
▁battles	-11.8502
▁gel	-11.8502
▁Samsung	-11.8503
▁subsection	-11.8505
▁watches	-11.8507
▁streams	-11.8508
▁22,	-11.8509
▁Speaker	-11.8513
▁driveway	-11.8513
▁invoice	-11.8517
▁PayPal	-11.8517
story	-11.8518
mes	-11.8518
▁explored	-11.8519
Un	-11.852
▁neuro	-11.8521
▁exceptionally	-11.8521
▁Jonathan	-11.8521
▁Coffee	-11.8522
▁embarrassed	-11.8522
▁Chrome	-11.8523
▁Syrian	-11.8525
▁Pe	-11.8525
▁duck	-11.8525
▁charitable	-11.8526
▁exotic	-11.853
▁Craig	-11.853
Ah	-11.8531
▁holders	-11.8531
▁blew	-11.8532
cia	-11.8533
▁FL	-11.8535
▁60%	-11.8536
ux	-11.8536
▁warn	-11.854
around	-11.8544
▁messy	-11.8546
▁cakes	-11.8547
▁constitution	-11.8548
▁legend	-11.855
OM	-11.8552
▁haha	-11.8553
▁irrelevant	-11.8554
▁diamond	-11.8554
ged	-11.8555
▁16.	-11.8556
▁progression	-11.8558
▁pole	-11.8558
▁equation	-11.8563
▁revised	-11.8564
▁sore	-11.8564
▁NOW	-11.8567
▁Source	-11.8568
▁underway	-11.857
OC	-11.8571
▁Mu	-11.8575
▁collision	-11.8576
▁subsequently	-11.8577
▁envelope	-11.8578
▁alright	-11.858
▁Federation	-11.8581
▁penny	-11.8585
▁rhythm	-11.8588
▁Si	-11.8589
ico	-11.859
▁Oxford	-11.8591
▁iTunes	-11.8592
▁Oklahoma	-11.8596
▁animated	-11.8597
TER	-11.8597
▁Conditions	-11.8602
▁align	-11.8602
▁ranch	-11.8603
far	-11.8604
▁regulated	-11.8606
▁unpleasant	-11.8607
▁Print	-11.8608
take	-11.8608
▁void	-11.8608
▁cycles	-11.8608
▁bizarre	-11.8611
▁Micro	-11.8613
▁isolation	-11.8615
▁umbrella	-11.8617
▁Gordon	-11.8619
BO	-11.8619
▁$12	-11.862
▁Terry	-11.862
▁Potter	-11.8622
▁cough	-11.8627
think	-11.8627
▁undergo	-11.8628
▁Soul	-11.8629
Mr	-11.8629
▁ST	-11.8629
▁spoon	-11.863
▁uncommon	-11.8631
▁beverages	-11.8633
:45	-11.8637
▁Dance	-11.8638
▁impacted	-11.8641
▁buffet	-11.8641
▁19,	-11.8643
ye	-11.8644
▁dryer	-11.8644
▁smarter	-11.8646
big	-11.8647
▁diameter	-11.8648
▁lender	-11.8648
▁inevitably	-11.8649
▁Jake	-11.865
▁GDP	-11.8654
▁Round	-11.8654
▁deadlines	-11.8654
▁Customers	-11.8655
▁Server	-11.8658
▁Springs	-11.8664
▁fare	-11.8664
▁hats	-11.8669
▁Graham	-11.867
▁Nonetheless	-11.8671
▁miserable	-11.8671
▁fo	-11.8671
▁Cleveland	-11.8673
▁Mental	-11.8675
▁grandparents	-11.8676
.50	-11.8677
ATION	-11.8677
▁Je	-11.8679
▁Barbara	-11.8681
▁boasts	-11.8682
▁countryside	-11.8682
▁Moving	-11.8686
▁hygiene	-11.8689
▁Glass	-11.8691
▁shifted	-11.8691
▁torn	-11.8693
▁reads	-11.8694
▁IRS	-11.8696
▁annoyed	-11.8698
▁beginner	-11.8698
▁scrap	-11.8699
▁Considering	-11.8705
▁popping	-11.8705
pur	-11.8707
▁Been	-11.8711
▁robots	-11.8714
▁flame	-11.8715
▁trades	-11.8715
▁comp	-11.8716
▁CR	-11.8716
▁sorted	-11.8721
eye	-11.8721
▁shadows	-11.8723
▁Jose	-11.8725
▁Normally	-11.8726
▁RV	-11.8727
▁lining	-11.8728
▁aesthetic	-11.873
▁metrics	-11.8731
▁3:	-11.8733
EE	-11.8734
▁locals	-11.8736
Maybe	-11.8736
▁alot	-11.8737
▁Corporate	-11.8737
bell	-11.8738
▁myth	-11.8739
▁behavioral	-11.8742
▁Commerce	-11.8742
▁pond	-11.8743
▁sealed	-11.8744
▁17,	-11.8744
▁upgrades	-11.8744
▁expects	-11.8745
▁proactive	-11.8746
▁forthcoming	-11.8747
▁Communications	-11.8747
▁matched	-11.8747
▁considerations	-11.8752
▁Physical	-11.8752
control	-11.8754
▁Brad	-11.8756
▁fatty	-11.8757
▁Tennessee	-11.8759
▁Nation	-11.8761
▁rotation	-11.8761
four	-11.8761
▁CT	-11.8761
▁Pu	-11.8762
maybe	-11.8764
▁syrup	-11.8765
▁inability	-11.8765
▁scholars	-11.8766
▁rebuild	-11.8767
▁Sec	-11.8767
▁ju	-11.8769
▁Championship	-11.8771
▁steering	-11.8772
▁sensation	-11.8772
▁surge	-11.8773
oon	-11.8778
▁Records	-11.8778
▁Sri	-11.8778
▁enrollment	-11.8779
▁hallway	-11.8782
▁Process	-11.8782
▁lungs	-11.8786
▁Gospel	-11.8787
▁endure	-11.8791
▁28,	-11.8792
▁Rest	-11.8793
▁assign	-11.8793
▁Switzerland	-11.8794
▁wander	-11.8795
▁poly	-11.8795
▁antibiotics	-11.8796
▁cardiovascular	-11.8797
OL	-11.8798
▁securities	-11.8801
▁Animal	-11.8803
▁pledge	-11.8808
▁Carol	-11.8808
▁empower	-11.881
▁Treatment	-11.8811
▁WA	-11.8813
▁Wedding	-11.8813
▁cheer	-11.8814
▁freelance	-11.8814
▁Front	-11.8815
▁queue	-11.8816
▁positioning	-11.8819
▁dawn	-11.8822
▁Coming	-11.8822
od	-11.8828
▁crowds	-11.8833
▁submissions	-11.8835
▁deposits	-11.8836
▁creator	-11.8837
▁pat	-11.8838
ub	-11.8839
▁Culture	-11.884
▁diesel	-11.8841
▁bush	-11.8845
▁cater	-11.8845
▁dominated	-11.8846
▁grams	-11.8846
ose	-11.8848
via	-11.8849
▁shareholders	-11.8849
▁dragon	-11.885
▁th	-11.8852
▁shuttle	-11.8854
food	-11.8855
▁Han	-11.8856
▁sailing	-11.8856
▁rented	-11.8856
▁governing	-11.8857
▁Commercial	-11.8858
standing	-11.8858
▁proposition	-11.886
▁tutorials	-11.8861
▁blonde	-11.8861
Time	-11.8861
▁yarn	-11.8864
▁spotlight	-11.8864
ado	-11.8866
then	-11.8867
▁Intelligence	-11.8868
▁defining	-11.8868
make	-11.8869
▁sadness	-11.887
▁assists	-11.8871
▁runner	-11.8871
▁drought	-11.8872
▁fairy	-11.8876
▁combining	-11.8877
▁hurting	-11.8878
▁resistant	-11.888
▁Author	-11.8881
▁accommodations	-11.8882
wheel	-11.8882
▁environmentally	-11.8884
▁stroll	-11.8884
▁ONLY	-11.8885
▁Palace	-11.8886
▁AR	-11.8887
outs	-11.8888
▁traditionally	-11.8891
▁disciplines	-11.8894
▁verbal	-11.8897
▁festive	-11.8897
NO	-11.8898
▁gene	-11.8898
qua	-11.8898
▁cigarette	-11.89
▁Temple	-11.8903
▁prestigious	-11.8903
▁activate	-11.8905
▁Junior	-11.8905
▁Gra	-11.8907
pic	-11.8908
▁runners	-11.8909
▁Hurricane	-11.8911
▁sh	-11.8912
▁restrict	-11.8913
▁Chamber	-11.8913
RI	-11.8913
3)	-11.8915
▁tattoo	-11.8915
▁deployed	-11.8917
▁premier	-11.8918
ona	-11.892
▁bullying	-11.8922
▁mortality	-11.8923
▁stainless	-11.8926
flow	-11.8926
▁recreation	-11.8926
▁UP	-11.8926
▁slots	-11.8931
▁adore	-11.8932
="	-11.8932
▁downside	-11.8934
▁Rain	-11.8934
▁exceeded	-11.8934
▁Bro	-11.8935
oz	-11.8937
▁preliminary	-11.894
sive	-11.8941
rio	-11.8941
▁Communication	-11.8942
▁AL	-11.8942
▁tile	-11.8942
▁remedies	-11.8947
▁evaluated	-11.8948
Up	-11.8948
▁9/11	-11.8949
▁calcium	-11.8951
▁Roger	-11.8957
▁weaknesses	-11.896
▁doubts	-11.8962
▁yogurt	-11.8962
▁constraints	-11.8962
▁influences	-11.8965
▁Steven	-11.8969
AD	-11.8969
▁holistic	-11.8974
▁spice	-11.8974
news	-11.8975
base	-11.8976
▁Malaysia	-11.8977
ied	-11.8979
▁Leadership	-11.8979
gra	-11.8981
▁Pink	-11.8983
▁judicial	-11.8984
▁turnover	-11.8985
▁BR	-11.8987
▁Alternatively	-11.8987
▁workouts	-11.8987
▁haul	-11.8989
▁judging	-11.8991
▁Technical	-11.8991
▁noble	-11.8994
▁eligibility	-11.8995
also	-11.8996
▁remainder	-11.9
ess	-11.9
▁chin	-11.9001
▁martial	-11.9001
▁Sex	-11.9004
▁rejection	-11.9006
▁Kentucky	-11.9012
▁compatibility	-11.9013
▁yearly	-11.9014
▁disputes	-11.9015
sta	-11.9017
▁prejudice	-11.9019
▁gravity	-11.9019
cu	-11.9021
▁cattle	-11.9024
▁invasion	-11.9025
▁Hmm	-11.9026
▁cheat	-11.9026
▁masses	-11.9028
CS	-11.903
▁publicity	-11.9031
▁Blu	-11.9031
▁68	-11.9033
▁justified	-11.9035
▁Sue	-11.9035
▁troubles	-11.9037
▁shallow	-11.9037
iff	-11.9039
▁Wil	-11.904
▁lesbian	-11.9041
▁elect	-11.9042
▁acne	-11.9044
▁fade	-11.9044
▁2006,	-11.9044
▁nationally	-11.9045
▁trunk	-11.9046
▁Beijing	-11.9048
9.	-11.905
▁defendant	-11.9051
▁macro	-11.9052
▁beverage	-11.9059
▁cafe	-11.906
▁Arabia	-11.906
▁appeals	-11.9062
▁Nu	-11.9064
▁Sciences	-11.9064
▁manifest	-11.9064
nal	-11.9066
▁fulfilled	-11.9066
▁drum	-11.9066
▁Basic	-11.9066
ended	-11.9066
index	-11.907
ics	-11.9075
▁Questions	-11.9076
▁Client	-11.9077
▁immense	-11.908
ered	-11.9081
▁ignorant	-11.9083
▁toddler	-11.9083
trans	-11.9084
▁Yoga	-11.9085
▁Ly	-11.9086
▁Nancy	-11.9087
fu	-11.909
▁Fla	-11.9091
▁pencil	-11.9093
▁upgraded	-11.9094
weight	-11.9095
wall	-11.9099
▁cluster	-11.91
his	-11.91
▁constitute	-11.9102
▁grandchildren	-11.9102
rock	-11.9105
▁furnished	-11.9106
▁candle	-11.9106
▁terrain	-11.9108
▁fats	-11.9109
!),	-11.9111
▁stretching	-11.9111
▁joints	-11.9112
▁26,	-11.9115
taking	-11.9115
▁scandal	-11.9116
▁ashamed	-11.9121
▁{	-11.9124
▁privately	-11.9126
▁nausea	-11.9126
OK	-11.9128
▁9,	-11.9129
▁disasters	-11.9134
tie	-11.9135
yr	-11.9135
▁mph	-11.9136
shirts	-11.9138
ell	-11.9138
▁dash	-11.914
▁offence	-11.9141
ography	-11.9143
▁Payment	-11.9143
▁opera	-11.9145
▁Choice	-11.9146
▁Edit	-11.9147
▁rap	-11.9148
live	-11.9159
▁literacy	-11.916
▁Sleep	-11.9161
▁clearance	-11.9161
▁username	-11.9161
▁amended	-11.9162
▁citizenship	-11.9163
▁relying	-11.9163
▁oppose	-11.9163
▁Fat	-11.9166
▁DA	-11.9167
52	-11.9167
▁Diet	-11.9168
▁poems	-11.9172
▁unaware	-11.9173
}	-11.9174
▁coupled	-11.9176
▁Liverpool	-11.9177
▁humanitarian	-11.9184
▁recalled	-11.9187
▁methodology	-11.9188
▁problematic	-11.9189
EA	-11.9191
▁credentials	-11.9191
pper	-11.9192
▁resting	-11.9193
▁tick	-11.9199
▁absurd	-11.92
▁legendary	-11.9201
▁geo	-11.9201
▁innovations	-11.9201
▁zoom	-11.9202
tch	-11.9202
here	-11.9203
▁doubled	-11.9206
▁rival	-11.9206
core	-11.9206
▁5,000	-11.9206
▁Record	-11.9207
▁helmet	-11.9208
▁Current	-11.921
▁Fo	-11.921
▁Directors	-11.921
▁popped	-11.9213
▁23,	-11.9213
▁singles	-11.9213
▁shining	-11.9214
▁Doesn	-11.9214
▁casting	-11.9217
▁municipal	-11.9218
▁tales	-11.9221
ika	-11.9222
▁Nelson	-11.9222
▁handles	-11.9223
▁Aaron	-11.9224
TE	-11.9225
▁concerts	-11.9225
cle	-11.9225
▁slavery	-11.9231
wear	-11.9231
▁PhD	-11.9231
▁Certain	-11.9232
▁tan	-11.9233
▁payroll	-11.9234
▁Indonesia	-11.9234
both	-11.9235
▁Offer	-11.9235
▁foremost	-11.9236
▁Seeing	-11.9237
health	-11.9237
▁journals	-11.9237
▁seafood	-11.9238
▁Sin	-11.9239
mas	-11.9239
▁67	-11.924
hal	-11.9242
▁insects	-11.9242
▁salaries	-11.9243
▁Vitamin	-11.9243
▁Jessica	-11.9244
ele	-11.9245
▁monitored	-11.9245
▁arthritis	-11.9246
▁Hold	-11.9246
▁mac	-11.9248
▁investigators	-11.925
eh	-11.9255
▁Similarly	-11.9259
▁precision	-11.9262
▁PRO	-11.9262
▁crawl	-11.9264
▁scattered	-11.9264
▁affection	-11.9265
▁McDonald	-11.9268
▁newborn	-11.927
▁harmony	-11.9271
200	-11.9272
▁Cooper	-11.9272
▁arising	-11.9272
▁carriers	-11.9273
▁Keith	-11.9273
▁clay	-11.9277
▁recruit	-11.9279
powered	-11.9279
▁civilians	-11.9283
▁moms	-11.9284
road	-11.9285
▁Chicken	-11.9286
▁flies	-11.9287
track	-11.9288
▁assisting	-11.9289
▁27,	-11.929
▁injection	-11.9291
▁pastor	-11.9291
▁chasing	-11.9292
▁nerves	-11.9295
▁2007.	-11.9297
▁bonuses	-11.9298
▁trustworthy	-11.9298
▁Barcelona	-11.9298
▁GO	-11.93
▁hatred	-11.93
▁Hol	-11.93
▁Thinking	-11.93
▁promotes	-11.9301
rt	-11.9301
▁advertise	-11.9302
▁adhere	-11.9302
▁00	-11.9304
▁wool	-11.9304
▁wi	-11.9305
▁flaws	-11.9305
▁certificates	-11.9305
sel	-11.9306
▁constructive	-11.931
▁Twin	-11.931
▁intersection	-11.9311
▁Tokyo	-11.9311
▁tray	-11.9313
▁plea	-11.9314
tes	-11.9319
fo	-11.932
▁finishes	-11.9321
wan	-11.9321
EST	-11.9322
▁celebrities	-11.9322
▁eliminating	-11.9322
▁feast	-11.9323
▁detected	-11.9324
▁Solar	-11.9326
▁BA	-11.9328
▁Islands	-11.9331
vert	-11.9333
▁Corps	-11.9334
▁grains	-11.9338
▁boutique	-11.9339
▁stealing	-11.9339
om	-11.9341
▁Industrial	-11.9343
▁bundle	-11.9346
▁Explorer	-11.9347
▁interventions	-11.9349
▁acquiring	-11.935
▁140	-11.9352
▁scholarships	-11.9354
▁halt	-11.9355
▁Mat	-11.9357
▁smells	-11.9359
▁gal	-11.9361
▁tiles	-11.9364
▁Walking	-11.9365
▁prosperity	-11.9366
craft	-11.9368
▁illustration	-11.9371
▁unhealthy	-11.9373
▁NASA	-11.9373
▁triggered	-11.9375
▁Op	-11.9375
▁Knowledge	-11.9377
SS	-11.9377
▁excel	-11.9379
▁receiver	-11.9379
▁accessibility	-11.938
▁Mer	-11.938
▁Certificate	-11.938
san	-11.9382
▁lightning	-11.9382
bridge	-11.9382
▁Understanding	-11.9382
▁1930	-11.9383
▁Lane	-11.9385
▁Hamilton	-11.9386
▁Math	-11.9387
author	-11.9388
MC	-11.9388
▁viruses	-11.9389
▁misleading	-11.9389
▁Swiss	-11.939
▁Motor	-11.939
▁entertain	-11.9395
ington	-11.9398
▁Helen	-11.9403
▁weddings	-11.9404
▁steadily	-11.9405
▁Bre	-11.9405
lies	-11.9409
▁Analysis	-11.9413
▁personalities	-11.9414
▁risen	-11.9415
▁1988	-11.9416
▁Wikipedia	-11.9419
▁straw	-11.9419
▁festivals	-11.942
▁mandate	-11.942
▁icons	-11.9422
▁rewarded	-11.9423
▁tightly	-11.9424
▁Typically	-11.9427
ean	-11.9427
▁swelling	-11.9428
▁endeavor	-11.943
▁sympathy	-11.9431
ole	-11.9437
▁compounds	-11.9438
tive	-11.9441
▁pharmacy	-11.9448
▁Strong	-11.9448
▁spec	-11.9449
Get	-11.9451
▁salvation	-11.9451
▁spends	-11.9452
oy	-11.9452
▁inspirational	-11.9454
▁crust	-11.9454
▁Brexit	-11.9455
▁def	-11.9455
▁refined	-11.9455
▁Programme	-11.9461
▁HA	-11.9461
vers	-11.9462
saving	-11.9462
▁$40	-11.9462
▁archive	-11.9463
has	-11.9465
qu	-11.9467
▁lawmakers	-11.9469
▁spinning	-11.947
▁excuses	-11.9472
var	-11.9473
▁traded	-11.9475
▁proximity	-11.9476
▁Za	-11.9478
▁accessing	-11.948
tax	-11.948
▁Kenya	-11.9481
▁Rent	-11.9481
▁respectful	-11.9485
▁investigated	-11.9486
▁storms	-11.9489
▁Success	-11.949
▁Jamie	-11.949
▁insightful	-11.9491
▁epidemic	-11.9495
▁Trek	-11.9496
ese	-11.9497
▁despair	-11.9497
▁Creating	-11.95
▁Drop	-11.9501
pot	-11.9502
▁adjacent	-11.9502
▁inherent	-11.9503
rating	-11.9506
▁Extra	-11.9506
▁parliament	-11.9507
▁understandable	-11.9509
▁Diamond	-11.951
▁cease	-11.9511
▁decorations	-11.9512
▁congregation	-11.9514
▁illustrate	-11.9515
elli	-11.9516
▁flavour	-11.9517
▁prevents	-11.9517
▁deductible	-11.9518
▁Casino	-11.9519
rr	-11.952
▁McC	-11.9521
print	-11.9521
stage	-11.9522
ati	-11.9523
▁Orlando	-11.9525
▁improves	-11.9526
pop	-11.9532
▁poison	-11.9533
▁mates	-11.9533
▁Honor	-11.9533
▁creepy	-11.9534
▁fuels	-11.9535
▁females	-11.9535
▁Zone	-11.9535
▁1992	-11.9537
Day	-11.9541
▁Puerto	-11.9543
▁Apply	-11.9544
▁sail	-11.9545
▁mathematics	-11.9546
▁enhancing	-11.9548
▁pig	-11.9548
▁coupons	-11.9549
▁genes	-11.955
▁hazardous	-11.9551
▁promo	-11.9553
PL	-11.9553
ancy	-11.9553
▁positioned	-11.9554
pay	-11.9555
▁Cambridge	-11.9555
▁Mediterranean	-11.9556
▁vinyl	-11.9556
▁aspiring	-11.9559
▁salon	-11.9561
▁GOP	-11.9562
▁closure	-11.9564
▁examining	-11.9564
▁noting	-11.9566
▁Bed	-11.9566
▁Block	-11.9567
▁donor	-11.9568
▁3,000	-11.957
▁greeted	-11.9571
▁Nevada	-11.9574
▁Trying	-11.9577
ox	-11.9577
▁Chuck	-11.9578
Ba	-11.9579
▁mistaken	-11.9583
▁cam	-11.9584
ural	-11.9584
▁predictions	-11.9586
▁renew	-11.9586
▁Kyle	-11.9586
▁Regulation	-11.9587
▁Cons	-11.9587
▁Visa	-11.9588
TT	-11.9591
▁29,	-11.9592
▁Carl	-11.9593
▁expressions	-11.9593
▁Bon	-11.9594
▁trafficking	-11.9596
▁Chair	-11.9597
aki	-11.9597
▁historically	-11.9598
▁Events	-11.96
▁foundations	-11.96
▁confess	-11.9603
▁lend	-11.9603
▁18-	-11.9604
▁combines	-11.9607
▁Sheriff	-11.9609
▁cautious	-11.9609
▁Lucy	-11.9616
▁lectures	-11.9618
▁fabrics	-11.9619
bert	-11.9624
▁tactic	-11.9624
▁cult	-11.9625
▁gates	-11.9626
▁randomly	-11.9627
▁77	-11.9627
▁outdated	-11.9628
▁instructors	-11.9629
▁succeeded	-11.9629
▁Pin	-11.9632
▁portions	-11.9633
▁utilities	-11.9633
text	-11.9633
Le	-11.9636
▁gen	-11.9637
▁lifelong	-11.9638
▁doctrine	-11.9638
▁Russell	-11.9641
Note	-11.9642
▁Location	-11.9642
▁chatting	-11.9643
▁Connecticut	-11.9644
▁propaganda	-11.9651
▁1993	-11.9651
▁76	-11.9652
▁internship	-11.9653
▁corrected	-11.9654
ded	-11.9654
▁segments	-11.9655
▁reluctant	-11.9655
ich	-11.9655
▁forgiveness	-11.966
▁Hat	-11.9663
▁mono	-11.9664
burg	-11.9664
▁1-2	-11.9665
eb	-11.9665
▁critique	-11.9665
kar	-11.9667
▁inquiries	-11.9668
▁relieved	-11.9668
▁checklist	-11.9671
version	-11.9673
▁lord	-11.9676
▁alignment	-11.9677
▁landlord	-11.9677
▁ripped	-11.9681
▁ye	-11.9681
▁12,	-11.9681
▁allocation	-11.9683
▁Madison	-11.9683
▁pulls	-11.9686
▁securing	-11.9688
▁banana	-11.9689
▁1986	-11.969
▁glanced	-11.9692
▁rainy	-11.9696
▁fog	-11.9696
▁Alexander	-11.9696
!!!!	-11.9696
▁Newcastle	-11.9696
▁Oliver	-11.9697
▁Doug	-11.9697
▁supermarket	-11.9699
▁rifle	-11.9699
▁tenant	-11.9703
▁abandon	-11.9704
▁Outside	-11.9705
▁conveniently	-11.9706
▁Wayne	-11.9706
ei	-11.9706
▁rushing	-11.9707
▁evenings	-11.9707
▁Julia	-11.9708
▁strings	-11.9709
▁noticeable	-11.971
▁planes	-11.9712
▁71	-11.9713
selling	-11.9714
▁seventh	-11.9714
▁selfish	-11.9714
mus	-11.9715
ash	-11.9715
▁Statement	-11.9715
mel	-11.9716
▁columns	-11.9716
▁researcher	-11.9717
▁consisting	-11.9718
▁Beauty	-11.9719
▁Guess	-11.972
SO	-11.9723
▁BS	-11.9725
▁Core	-11.9728
▁costumes	-11.9729
founder	-11.9729
pass	-11.9732
▁explicit	-11.9732
▁mentioning	-11.9735
EN	-11.9736
▁Electric	-11.9737
▁sci	-11.9737
▁centered	-11.9737
▁visually	-11.9738
▁vocabulary	-11.9738
▁Cuba	-11.9739
▁stamps	-11.9739
▁spices	-11.974
▁fights	-11.974
zu	-11.9741
▁magnetic	-11.9741
▁Train	-11.9742
know	-11.9743
▁litter	-11.9743
▁necklace	-11.9744
come	-11.9745
▁ginger	-11.9746
design	-11.9746
och	-11.9748
▁recycled	-11.9749
▁Metal	-11.975
▁explanations	-11.975
▁BY	-11.975
▁78	-11.9752
▁committing	-11.9756
▁empathy	-11.9756
▁Moscow	-11.976
▁Fu	-11.976
▁parish	-11.976
▁motivate	-11.976
▁tweets	-11.9761
vy	-11.9762
ata	-11.9766
ram	-11.9767
▁Ted	-11.9768
ough	-11.9768
▁File	-11.9768
▁counties	-11.9769
▁architect	-11.977
▁meta	-11.977
▁definite	-11.9771
▁yourselves	-11.9773
ira	-11.9774
ifies	-11.9775
▁sticky	-11.9779
▁tidy	-11.9781
▁excluded	-11.9783
▁Used	-11.9784
cause	-11.9786
▁Kind	-11.9788
▁Ian	-11.9789
▁Fear	-11.9789
▁Beth	-11.9792
▁Uncle	-11.9792
▁coordinate	-11.9793
▁connectivity	-11.9793
▁escaped	-11.9795
▁Return	-11.9801
ute	-11.9801
▁Ye	-11.9803
▁Tre	-11.9803
▁owning	-11.9805
▁Crown	-11.9805
▁Lead	-11.9807
▁cigarettes	-11.9808
▁Des	-11.9808
▁snapped	-11.9809
▁masterpiece	-11.9809
▁Higher	-11.9811
▁quo	-11.9812
rri	-11.9812
▁bases	-11.9813
rc	-11.9814
▁Value	-11.9816
▁broadband	-11.9817
▁bump	-11.9819
▁Cameron	-11.9819
▁extending	-11.9819
▁Fan	-11.982
wind	-11.9821
▁showers	-11.9824
▁LOT	-11.9824
▁Neil	-11.9824
▁2005,	-11.9824
▁attracting	-11.9826
esteem	-11.9828
^	-11.983
▁foolish	-11.9833
▁DR	-11.9833
▁Speed	-11.9836
▁110	-11.9837
▁£3	-11.9839
▁Military	-11.984
▁stretched	-11.984
PE	-11.984
▁candles	-11.984
▁IV	-11.9841
▁polish	-11.9841
▁Horse	-11.9843
▁tangible	-11.9843
▁posture	-11.9844
▁Style	-11.9845
▁monsters	-11.9846
▁pulse	-11.9846
▁modifications	-11.9847
mph	-11.9847
SU	-11.9848
▁multitude	-11.9848
▁armor	-11.9849
▁volunteering	-11.985
▁explicitly	-11.9852
lly	-11.9856
▁agrees	-11.9856
▁8-	-11.9857
▁theoretical	-11.9858
▁synthetic	-11.986
HS	-11.986
▁interrupted	-11.9862
als	-11.9862
▁rubbish	-11.9865
▁splash	-11.9866
▁generator	-11.9866
shaped	-11.9868
▁competitions	-11.9868
tru	-11.9869
▁workflow	-11.9869
▁Storm	-11.987
▁Connect	-11.9872
▁carrots	-11.9873
▁humidity	-11.9873
▁sickness	-11.9875
▁Democrat	-11.9879
ique	-11.988
▁Guests	-11.9881
▁Bake	-11.9887
▁gem	-11.9889
ites	-11.989
degree	-11.989
▁ver	-11.9891
▁illustrations	-11.9891
▁clues	-11.9892
▁apologies	-11.9893
▁Vision	-11.9894
From	-11.9895
▁drone	-11.9896
▁breathtaking	-11.9898
▁skeptical	-11.9898
▁cheating	-11.99
▁cracked	-11.9901
▁Danny	-11.9902
▁sausage	-11.9902
▁supervisor	-11.9903
MENT	-11.9903
▁Response	-11.9903
gas	-11.9904
▁oversight	-11.9905
▁vibe	-11.9907
▁climbed	-11.9908
▁Patients	-11.9909
▁medal	-11.991
▁dynamics	-11.9912
spect	-11.9915
▁bell	-11.9915
▁shoppers	-11.9916
ban	-11.9917
▁sciences	-11.9917
▁concentrated	-11.9918
▁decorating	-11.9918
▁pipes	-11.9919
▁Tan	-11.992
▁Franklin	-11.9923
▁digestive	-11.9923
▁quarterback	-11.9923
▁Regular	-11.9925
▁overlook	-11.9926
▁elevated	-11.9927
dent	-11.9927
ison	-11.9928
▁logging	-11.9929
▁Weight	-11.993
▁darker	-11.9931
▁spoil	-11.9931
▁seminars	-11.9932
▁Deal	-11.9933
ore	-11.9934
group	-11.9936
▁fax	-11.9939
value	-11.9941
~	-11.9942
▁Ana	-11.9944
esh	-11.9944
▁referendum	-11.9945
▁ankle	-11.9945
▁performers	-11.9946
▁Leo	-11.9947
▁Baltimore	-11.9947
▁Albert	-11.9948
tis	-11.995
▁sleeve	-11.995
▁successes	-11.9951
▁sphere	-11.9953
pack	-11.9954
▁niece	-11.9954
▁VI	-11.9955
▁attributed	-11.9955
sub	-11.9955
▁Ger	-11.9955
▁ruined	-11.9955
▁sounding	-11.9956
▁scream	-11.9956
▁pity	-11.9956
▁sandwiches	-11.9957
▁arrow	-11.9958
▁crude	-11.9959
▁sang	-11.996
▁Xbox	-11.9961
▁metabolism	-11.9963
lessness	-11.9964
▁Roy	-11.9964
▁RO	-11.9964
▁voter	-11.9966
sia	-11.9966
▁attachment	-11.9966
▁Universal	-11.9968
▁strengthening	-11.9969
▁combinations	-11.9969
▁skiing	-11.997
▁cricket	-11.997
▁reflecting	-11.9977
▁Log	-11.9981
▁zoo	-11.9982
▁Month	-11.9983
▁Comments	-11.9984
course	-11.9985
▁lineup	-11.9985
▁avail	-11.9987
▁$1,000	-11.999
▁Vo	-11.9991
▁Stand	-11.9992
host	-11.9996
▁licenses	-11.9997
▁doses	-11.9998
▁SS	-12
▁ne	-12.0002
▁nomination	-12.0003
▁Java	-12.0003
▁inadequate	-12.0005
▁bridges	-12.0006
wick	-12.0008
▁tier	-12.0008
▁yummy	-12.001
▁2020	-12.0012
-0	-12.0013
▁Criminal	-12.0014
hen	-12.0015
▁vaccines	-12.0015
▁judged	-12.0016
▁repeating	-12.0016
▁coordinator	-12.0016
▁Jacob	-12.0017
▁attain	-12.002
▁median	-12.0024
mmer	-12.0024
▁requesting	-12.0027
▁Parker	-12.0027
▁Engine	-12.0029
ear	-12.0031
▁Egyptian	-12.0032
▁header	-12.0033
▁Poland	-12.0036
▁18,	-12.0037
▁destroying	-12.0037
▁ritual	-12.0038
▁Visual	-12.0043
▁TA	-12.0044
▁Transportation	-12.0045
▁Lastly	-12.0045
▁1984	-12.0045
▁relies	-12.0046
▁Stage	-12.0049
▁Kindle	-12.0049
LT	-12.0049
▁Pra	-12.005
▁hottest	-12.005
▁compassionate	-12.0051
▁$300	-12.0053
section	-12.0056
▁utter	-12.0057
▁Applications	-12.0059
▁combo	-12.0064
▁stirring	-12.0064
▁metals	-12.0066
▁Index	-12.0067
▁ports	-12.0068
▁Born	-12.0068
bury	-12.0071
▁distinguish	-12.0072
els	-12.0072
city	-12.0073
girl	-12.0076
▁advertisements	-12.0077
▁cartoon	-12.0077
▁commander	-12.0078
▁imported	-12.0078
▁penis	-12.0078
▁Gre	-12.0079
▁Universe	-12.0079
▁gesture	-12.008
▁evaluating	-12.0084
▁exclude	-12.0087
▁foul	-12.0088
▁likewise	-12.0088
▁Fantastic	-12.0088
▁stare	-12.0088
▁discounted	-12.0089
▁accelerate	-12.0089
▁locks	-12.0089
▁Chelsea	-12.009
▁Pittsburgh	-12.0093
lier	-12.0094
▁Planet	-12.0095
▁blockchain	-12.0096
▁exploit	-12.0096
dies	-12.0096
▁abusive	-12.0097
▁clinics	-12.0097
▁va	-12.0102
▁diagram	-12.0102
▁Mas	-12.0103
▁educating	-12.0103
▁dilemma	-12.0104
▁feasible	-12.0104
▁awe	-12.0105
▁temptation	-12.0106
▁17.	-12.0106
▁SW	-12.0107
▁SD	-12.0111
dog	-12.0111
▁soak	-12.0112
▁Mum	-12.0114
Po	-12.0115
▁bullshit	-12.0117
▁guessed	-12.0118
.1	-12.012
hill	-12.0121
▁(5)	-12.0122
▁dense	-12.0123
▁Running	-12.0123
▁patches	-12.0124
▁neighbourhood	-12.0125
▁bitcoin	-12.0129
▁locker	-12.0131
▁wandering	-12.0131
▁fighter	-12.0131
▁ham	-12.0131
▁obsession	-12.0132
php	-12.0133
▁Image	-12.0134
▁seated	-12.0135
BS	-12.0135
▁dialog	-12.0136
aver	-12.0136
▁Katie	-12.0138
▁Marvel	-12.0138
▁playoffs	-12.0138
▁dashboard	-12.0139
▁pest	-12.0139
▁NEVER	-12.014
▁08	-12.0141
▁clearer	-12.0142
▁storing	-12.0146
▁administered	-12.0146
frame	-12.0149
▁Hal	-12.0153
▁tract	-12.0154
▁suspects	-12.0155
▁tense	-12.0156
▁hype	-12.0156
▁builder	-12.0159
▁Custom	-12.0161
RS	-12.0164
▁regain	-12.0164
▁Jen	-12.0165
▁rumors	-12.0166
Bo	-12.0166
▁Galaxy	-12.017
▁del	-12.0171
▁LI	-12.0173
▁conscience	-12.0173
▁Satan	-12.0176
▁albeit	-12.0178
lot	-12.0179
▁Funny	-12.0183
▁founding	-12.0183
▁Transfer	-12.0184
▁respiratory	-12.0184
race	-12.0185
▁Jobs	-12.0185
▁Norway	-12.0185
▁qualification	-12.0186
why	-12.0187
▁Barry	-12.0187
▁caffeine	-12.0189
UM	-12.019
▁3-4	-12.019
▁homeowner	-12.0191
-13	-12.0192
▁opted	-12.0194
▁Iraqi	-12.0195
▁boarding	-12.0196
▁unity	-12.0196
▁Exactly	-12.0197
▁indoors	-12.0198
▁Boys	-12.0198
▁habitat	-12.0198
natural	-12.0199
▁blessings	-12.0199
Very	-12.02
▁Lost	-12.0202
▁Campaign	-12.0204
▁Antonio	-12.0206
▁gameplay	-12.0208
▁occurrence	-12.0209
▁characterized	-12.0212
▁intact	-12.0212
▁allocated	-12.0214
▁(9	-12.0217
▁Hair	-12.0219
▁Clinic	-12.0222
▁Tor	-12.0223
▁breeding	-12.0224
zing	-12.0225
▁Turkish	-12.0225
mic	-12.0226
▁mug	-12.023
▁â	-12.023
▁forehead	-12.023
▁thrill	-12.0233
▁beard	-12.0233
▁Isn	-12.0234
▁mindful	-12.0237
cker	-12.0237
▁Mag	-12.0238
▁Suddenly	-12.0238
▁labeled	-12.0238
▁Kar	-12.0238
mission	-12.0241
▁Assessment	-12.0242
▁Touch	-12.0243
▁headphones	-12.0245
▁Ground	-12.0246
▁aisle	-12.0249
▁`	-12.0249
▁lodge	-12.025
▁beforehand	-12.025
▁DS	-12.025
▁Lovely	-12.025
▁revolutionary	-12.0251
▁Falls	-12.0252
While	-12.0255
▁exports	-12.0257
▁analyst	-12.0259
mouth	-12.0259
▁hurricane	-12.0259
▁Thompson	-12.0259
▁Treasury	-12.0264
Life	-12.0265
ack	-12.0267
▁Stewart	-12.0267
▁Ashley	-12.0268
▁73	-12.0269
ulate	-12.027
▁servant	-12.0271
shire	-12.0271
▁microphone	-12.0271
▁ancestors	-12.0271
▁Sara	-12.0272
▁hedge	-12.0272
▁overlooking	-12.0275
▁130	-12.0277
▁jerk	-12.0278
▁diets	-12.0278
▁advertised	-12.0279
▁posed	-12.0279
▁sa	-12.028
▁Bird	-12.028
▁thriving	-12.028
▁MUST	-12.0281
▁intentionally	-12.0282
▁stimulate	-12.0284
▁Participants	-12.0285
▁rig	-12.0285
▁destructive	-12.0286
▁cement	-12.0286
▁(18	-12.0286
trip	-12.0289
ering	-12.029
▁Cy	-12.029
▁dioxide	-12.0291
▁absorbed	-12.0291
▁Todd	-12.0292
▁passwords	-12.0294
doc	-12.0299
ees	-12.0302
▁quiz	-12.0303
▁correspondence	-12.0304
▁heater	-12.0305
▁Warren	-12.0307
▁aligned	-12.0307
▁Mall	-12.031
▁FA	-12.0311
-16	-12.0313
▁Uber	-12.0314
▁Purchase	-12.0316
▁Kat	-12.0317
▁stole	-12.0317
▁laughs	-12.0317
▁25,	-12.0321
DA	-12.0322
▁paused	-12.0322
▁Statistics	-12.0322
▁spur	-12.0323
▁1987	-12.0323
▁fries	-12.0324
▁gifted	-12.0325
hold	-12.0326
gin	-12.0327
▁Career	-12.0327
▁Bishop	-12.0329
▁Tonight	-12.0331
nan	-12.0335
▁Bri	-12.0335
atory	-12.0335
▁develops	-12.0337
cus	-12.0339
▁"...	-12.034
▁£	-12.0341
▁exchanges	-12.0343
▁recordings	-12.0344
▁databases	-12.0346
▁Phase	-12.0347
▁mankind	-12.035
▁namely	-12.0351
gun	-12.0351
▁systematic	-12.0351
▁uh	-12.0351
▁Adobe	-12.0355
▁69	-12.0357
pr	-12.0358
▁resolutions	-12.0358
▁dam	-12.0359
▁transmitted	-12.0359
▁correction	-12.0359
▁credible	-12.0361
▁overweight	-12.0362
▁Cre	-12.0365
▁Sp	-12.0365
▁attentive	-12.0365
▁inconvenience	-12.0366
▁caps	-12.0366
▁attribute	-12.0367
▁CNN	-12.037
▁160	-12.0371
tar	-12.0371
▁refrain	-12.0371
▁flick	-12.0373
▁activist	-12.0373
▁Count	-12.0376
▁airports	-12.0377
▁tempting	-12.0378
bat	-12.0379
▁breasts	-12.038
▁Em	-12.0381
▁Putin	-12.0387
▁pine	-12.0388
▁Leader	-12.0388
▁dragged	-12.0389
.99	-12.0392
great	-12.0392
IV	-12.0393
▁notably	-12.0393
▁rivers	-12.0395
las	-12.0396
▁predictable	-12.0396
▁utmost	-12.0396
▁insurer	-12.04
▁throws	-12.0401
▁insurers	-12.0402
▁SF	-12.0403
▁Sandy	-12.0403
▁twins	-12.0405
▁circumstance	-12.0409
▁accredited	-12.041
Love	-12.041
▁assembled	-12.0411
user	-12.0411
▁embodiment	-12.0412
▁shouted	-12.0413
▁troubled	-12.0413
ef	-12.0417
▁Louisiana	-12.0417
▁dominate	-12.042
▁slides	-12.0422
▁associates	-12.0422
▁Political	-12.0422
▁roast	-12.0422
▁ti	-12.0424
hol	-12.0427
▁certainty	-12.0429
:30	-12.0432
▁Mason	-12.0432
▁lowered	-12.0432
▁su	-12.0433
▁.....	-12.0434
uc	-12.0435
▁mitigate	-12.0435
▁Brain	-12.0435
▁1985	-12.0436
▁expenditure	-12.0438
RP	-12.0439
CU	-12.0439
▁coating	-12.0441
▁eleven	-12.0441
▁belonging	-12.0441
▁misunderstand	-12.0444
▁duplicate	-12.0444
▁poses	-12.0446
▁conform	-12.0446
Great	-12.0448
▁poured	-12.0449
▁href	-12.0451
▁#3	-12.0451
▁CIA	-12.0452
▁spiral	-12.0452
▁incurred	-12.0455
handed	-12.0456
band	-12.0458
▁dwelling	-12.0458
Ho	-12.0458
▁senses	-12.0459
▁statutory	-12.046
▁Gun	-12.0462
▁dreaming	-12.0464
▁advisory	-12.0465
osis	-12.0465
▁celebrations	-12.0469
▁Luc	-12.047
▁farther	-12.0472
▁discusses	-12.0472
▁specializes	-12.0472
▁softly	-12.0475
▁protects	-12.0475
▁Cyber	-12.0475
▁Adams	-12.0475
▁mathematical	-12.0476
▁lamb	-12.0476
writing	-12.0477
▁outright	-12.0478
▁nursery	-12.0481
PP	-12.0481
lands	-12.0484
▁incoming	-12.0484
VA	-12.0485
▁Canadians	-12.0488
▁Joy	-12.0488
▁compromised	-12.0491
▁maturity	-12.0491
▁recipients	-12.0491
▁neglected	-12.0492
▁cherry	-12.0493
▁Might	-12.0495
▁crashed	-12.0496
▁Researchers	-12.0496
▁harness	-12.0497
▁kicks	-12.0498
▁servants	-12.05
▁Panel	-12.0503
▁float	-12.0504
▁rust	-12.0504
▁flock	-12.0505
▁anticipation	-12.0505
▁sliding	-12.0508
▁thermal	-12.051
fit	-12.051
▁Excel	-12.051
▁startups	-12.0511
▁critically	-12.0512
▁analyzing	-12.0514
▁revenge	-12.0514
bal	-12.0514
anti	-12.052
FC	-12.0521
▁outfits	-12.0521
ora	-12.0522
▁Jam	-12.0522
▁compelled	-12.0527
▁Mont	-12.0528
▁brew	-12.0528
▁reunion	-12.053
▁»	-12.0531
▁unconscious	-12.0533
▁scripts	-12.0534
▁indigenous	-12.0535
oe	-12.0538
▁practitioner	-12.054
▁EC	-12.0541
▁disclosed	-12.0541
▁cooperative	-12.0541
▁warnings	-12.0543
ida	-12.0543
▁mentality	-12.0543
▁Marie	-12.0545
▁emailed	-12.0546
▁sexuality	-12.0549
perfect	-12.055
cross	-12.0551
▁wit	-12.0551
lam	-12.0553
Dis	-12.0555
▁avocado	-12.0556
▁snake	-12.0557
Most	-12.056
▁Derek	-12.0561
▁creep	-12.0561
▁Lab	-12.0561
▁practiced	-12.0561
▁Worth	-12.0562
yan	-12.0564
▁verified	-12.0564
▁algorithms	-12.0565
▁clerk	-12.0567
▁Prepare	-12.0567
▁justification	-12.0567
▁preserved	-12.0569
▁wreck	-12.0571
berry	-12.0573
▁infinite	-12.0573
▁nephew	-12.0575
▁friendships	-12.0576
▁Edge	-12.0576
▁offshore	-12.0577
nar	-12.0577
arian	-12.0579
▁calculations	-12.0581
▁ambition	-12.0584
▁TIME	-12.0584
▁viewer	-12.0587
▁911	-12.0588
▁fragile	-12.0589
▁instrumental	-12.0591
▁neighbours	-12.0592
three	-12.0592
▁Medicaid	-12.0593
▁filming	-12.0593
▁melted	-12.0594
▁anime	-12.0594
▁amend	-12.0595
▁Stick	-12.0597
ben	-12.0597
▁repaired	-12.0599
▁patrol	-12.0603
▁Buffalo	-12.0604
▁NBC	-12.0604
▁milestone	-12.0604
▁malicious	-12.0605
sure	-12.0611
▁curse	-12.0611
▁defects	-12.0612
▁Charter	-12.0613
▁Christopher	-12.0614
▁believers	-12.0616
▁defeated	-12.0616
▁accomplishments	-12.0616
plan	-12.0618
▁kissed	-12.0618
▁iPod	-12.0618
▁1940	-12.0619
▁um	-12.0619
▁qualifying	-12.0619
▁ranges	-12.0623
gent	-12.0624
▁Above	-12.0624
▁Brother	-12.0625
▁Bal	-12.0625
ridge	-12.0627
last	-12.0628
▁activated	-12.0628
▁unfamiliar	-12.0629
pped	-12.0629
▁Virtual	-12.0632
▁1920	-12.0633
▁beats	-12.0634
ATE	-12.0635
anna	-12.0636
▁Knight	-12.0637
bot	-12.0638
▁Sar	-12.0638
7.	-12.0638
▁adequately	-12.0642
▁FB	-12.0645
▁REALLY	-12.0648
▁fireworks	-12.0649
▁surrender	-12.0649
▁Swedish	-12.0651
▁tolerate	-12.0654
▁Firstly	-12.0655
▁seasoned	-12.0657
▁surviving	-12.0659
▁Para	-12.0662
▁orbit	-12.0662
▁cinnamon	-12.0662
▁;	-12.0662
▁wont	-12.0664
▁capturing	-12.0666
▁hugely	-12.067
▁widow	-12.067
▁knitting	-12.0672
▁fellowship	-12.0672
▁tenure	-12.0674
▁Hunt	-12.0674
ax	-12.0674
▁Giving	-12.0678
▁ka	-12.0678
GE	-12.0679
burn	-12.0679
▁fe	-12.0681
▁starters	-12.0682
▁Active	-12.0684
▁preservation	-12.0687
▁Charge	-12.0688
▁colon	-12.0689
-17	-12.0691
▁Period	-12.0695
▁terrifying	-12.0695
late	-12.0696
▁Few	-12.0696
▁competitor	-12.0697
▁galleries	-12.0697
▁darn	-12.0701
▁therapies	-12.0702
▁payable	-12.0704
▁adopting	-12.0704
▁preferably	-12.0706
▁recommends	-12.0708
▁detention	-12.071
ture	-12.0711
▁rat	-12.0711
▁negotiation	-12.0712
▁Than	-12.0712
▁brokers	-12.0713
▁Guest	-12.0715
▁grilled	-12.0716
Car	-12.0716
lor	-12.0716
▁plugins	-12.0717
▁Tips	-12.0718
▁negotiating	-12.072
▁Sport	-12.072
▁definitions	-12.0722
▁Lower	-12.0722
cip	-12.0723
▁sponsorship	-12.0723
▁twisted	-12.0724
▁valuation	-12.0725
▁88	-12.0725
▁Wonder	-12.0726
▁empire	-12.0726
▁Fashion	-12.0728
▁Strategy	-12.0729
▁Agent	-12.0729
▁Circle	-12.073
▁extensions	-12.0731
▁Chat	-12.0731
▁settling	-12.0732
▁Prices	-12.0732
▁UC	-12.0736
▁Gray	-12.0737
▁Kings	-12.0738
▁inequality	-12.074
▁GB	-12.0741
izer	-12.0742
▁CS	-12.0742
▁rigorous	-12.0744
▁restart	-12.0745
▁Weather	-12.0746
▁devote	-12.0746
▁Song	-12.0746
gal	-12.0746
▁mob	-12.0747
▁calculator	-12.0748
▁feminist	-12.0748
SD	-12.0748
▁maintains	-12.0749
▁modes	-12.0749
▁irritating	-12.0751
▁accompany	-12.0752
▁sincerely	-12.0752
▁pleasing	-12.0753
-14	-12.0753
cons	-12.0754
▁hubby	-12.0759
▁remark	-12.076
▁deputy	-12.0761
▁storytelling	-12.0762
▁Indians	-12.0762
▁amazingly	-12.0763
▁wa	-12.0764
▁initiated	-12.0765
wed	-12.0766
▁Dun	-12.0766
▁ED	-12.0766
▁Dental	-12.0767
▁Base	-12.077
▁ISO	-12.0772
▁Grade	-12.0772
▁buddies	-12.0773
▁opposing	-12.0774
ency	-12.0775
NT	-12.0775
▁similarly	-12.0777
tta	-12.0779
▁guiding	-12.078
▁Sugar	-12.0781
▁vi	-12.0782
▁Stan	-12.0782
block	-12.0784
▁commute	-12.0784
▁tossed	-12.0785
hot	-12.0786
▁(10	-12.0788
▁74	-12.0791
▁poet	-12.0791
6.	-12.0793
▁glucose	-12.0794
▁getaway	-12.0797
zz	-12.0798
▁Duration	-12.0799
▁Clear	-12.0801
▁Kent	-12.0802
▁Nat	-12.0802
▁mechanic	-12.0805
▁Dublin	-12.0807
▁alcoholic	-12.0808
▁84	-12.0811
▁ambulance	-12.0811
▁commerce	-12.0815
▁skies	-12.0816
▁Pain	-12.0816
▁Kan	-12.0817
▁PO	-12.082
▁Baker	-12.082
▁helicopter	-12.0822
cl	-12.0822
▁bombing	-12.0823
▁wonderfully	-12.0825
▁modification	-12.0826
▁sufficiently	-12.0826
???	-12.0827
nor	-12.0828
▁jungle	-12.0831
▁unbelievable	-12.0832
▁proudly	-12.0834
▁questionnaire	-12.0835
▁Agriculture	-12.0835
1,	-12.0836
▁hazards	-12.0837
▁lime	-12.0837
▁crafted	-12.0837
▁dug	-12.0838
FF	-12.0838
gh	-12.0838
▁RT	-12.084
mind	-12.0845
dic	-12.0845
▁paragraphs	-12.0845
▁coincidence	-12.0846
election	-12.0847
▁arguably	-12.0848
▁rounded	-12.0848
▁specialize	-12.0849
▁Workshop	-12.085
▁ur	-12.0855
▁culinary	-12.0855
▁squash	-12.0855
▁comfy	-12.0855
▁Iranian	-12.0856
▁Task	-12.0857
kes	-12.0859
▁PHP	-12.0859
▁illustrated	-12.086
▁Cu	-12.086
▁accompanying	-12.086
▁000	-12.0861
▁Harper	-12.0862
▁refusing	-12.0864
3,	-12.0865
▁Host	-12.0865
tics	-12.0866
▁Kid	-12.0866
▁BBQ	-12.0868
▁Twenty	-12.0868
▁Rice	-12.087
▁relevance	-12.087
▁bust	-12.087
▁lottery	-12.0871
▁Hero	-12.0872
▁dim	-12.0876
rid	-12.088
▁graduating	-12.0882
▁82	-12.0887
▁highlighting	-12.0888
▁cabinets	-12.0889
▁imaging	-12.089
▁prolonged	-12.089
▁BIG	-12.0891
ori	-12.0891
▁metro	-12.0892
▁distraction	-12.0893
▁Liberty	-12.0896
▁Pri	-12.0897
▁feat	-12.0902
▁chi	-12.0904
▁legislature	-12.0905
▁Standards	-12.0905
VE	-12.0905
▁sting	-12.0907
purpose	-12.091
▁Wash	-12.0911
▁classification	-12.0914
CR	-12.0914
▁sucked	-12.0914
hoo	-12.0915
▁AIDS	-12.0915
▁Thor	-12.0915
talk	-12.0916
▁reminding	-12.0916
▁Haha	-12.0916
▁Adult	-12.0917
▁cracks	-12.0918
▁civic	-12.0918
▁termination	-12.0918
▁Ready	-12.092
▁newsletters	-12.0923
cin	-12.0925
▁clicked	-12.0925
▁herbal	-12.0926
▁Therapy	-12.0929
▁hostile	-12.093
▁brake	-12.0931
cover	-12.0932
▁OH	-12.0934
▁hose	-12.0935
▁taxpayer	-12.0935
▁daylight	-12.0937
▁developmental	-12.094
IE	-12.0941
lt	-12.0943
job	-12.0946
▁cooperate	-12.0949
Al	-12.0949
▁notebook	-12.095
▁remarkably	-12.095
▁overtime	-12.0951
▁prey	-12.0951
▁Crystal	-12.0952
▁Needless	-12.0954
▁RA	-12.0955
▁traumatic	-12.0957
▁browsers	-12.0957
walk	-12.0957
▁Match	-12.0958
ses	-12.0959
▁swept	-12.096
▁pinch	-12.096
▁Teachers	-12.0962
▁benefited	-12.0964
▁scrutiny	-12.0965
▁alleviate	-12.0966
▁interference	-12.0968
▁politician	-12.0968
▁Naturally	-12.0969
▁shrimp	-12.0969
▁balancing	-12.097
ase	-12.097
▁hydro	-12.0971
▁Nintendo	-12.0973
online	-12.0973
sie	-12.0975
FT	-12.0975
▁kills	-12.0975
aid	-12.0978
▁awaiting	-12.0979
▁Allah	-12.098
blogspot	-12.0981
▁rises	-12.0982
path	-12.0983
▁forefront	-12.0983
gon	-12.0984
▁addicted	-12.0984
▁malware	-12.0985
▁favorable	-12.0986
▁crashes	-12.0987
▁airlines	-12.0988
inter	-12.0988
▁repayment	-12.099
▁diary	-12.0991
▁Surely	-12.0992
email	-12.0995
▁tissues	-12.0995
▁Whole	-12.0996
leg	-12.0996
▁indulge	-12.0996
▁angels	-12.0999
fra	-12.0999
▁believer	-12.1
▁metaphor	-12.1
▁hazard	-12.1001
▁skull	-12.1001
▁humour	-12.1004
▁characteristic	-12.1008
▁pl	-12.1012
▁intentional	-12.1012
▁laptops	-12.1016
▁Jeremy	-12.1018
▁Individual	-12.1018
unless	-12.102
▁wiped	-12.1021
▁inbox	-12.1023
gue	-12.1023
▁Interest	-12.1027
▁Madrid	-12.1027
▁ideally	-12.1028
▁retrieve	-12.1028
▁limitation	-12.1029
▁cache	-12.1031
system	-12.1032
▁Mississippi	-12.1034
▁Delhi	-12.1034
▁backdrop	-12.1035
▁shrugged	-12.1035
▁refugee	-12.1035
▁Analytics	-12.1036
▁trademark	-12.1037
▁hometown	-12.1037
▁Nope	-12.1038
▁Min	-12.104
▁whip	-12.1042
▁dosage	-12.1042
▁allowance	-12.1043
400	-12.1044
▁ceramic	-12.1045
scape	-12.1048
▁insure	-12.1049
▁Resource	-12.1049
▁7-	-12.105
▁mileage	-12.1051
á	-12.1051
▁wives	-12.1053
ern	-12.1054
▁copied	-12.1056
▁asylum	-12.1057
▁strap	-12.1059
park	-12.1061
▁sturdy	-12.1062
▁Hart	-12.1063
▁Claire	-12.1064
▁loses	-12.1067
▁logs	-12.1067
▁Wright	-12.1068
50,000	-12.107
avi	-12.1072
▁quarterly	-12.1072
▁considers	-12.1073
▁dealership	-12.1073
cultural	-12.1073
▁Teacher	-12.1075
rest	-12.1075
▁oriented	-12.1076
▁rows	-12.1077
▁dreamed	-12.1078
▁mighty	-12.1079
▁$10,000	-12.1081
▁toxins	-12.1082
▁Med	-12.1082
▁365	-12.1085
▁19.	-12.1086
▁classrooms	-12.1087
▁fixes	-12.1088
5)	-12.1089
▁mint	-12.109
▁tribe	-12.1092
▁fuss	-12.1094
▁Brit	-12.1095
got	-12.1096
▁Healthy	-12.1097
▁threaten	-12.1099
▁5)	-12.1099
black	-12.1101
bro	-12.1102
▁apology	-12.1103
▁lion	-12.1103
▁strips	-12.1104
▁professors	-12.1104
mate	-12.1106
▁feared	-12.1106
▁conditioner	-12.111
▁aliens	-12.111
pal	-12.1111
▁pun	-12.1111
▁Own	-12.1113
▁Firefox	-12.1114
▁2004,	-12.1116
▁Membership	-12.1118
▁Steam	-12.1119
nis	-12.1123
▁spicy	-12.1123
▁unacceptable	-12.1124
▁formally	-12.1124
▁advisors	-12.1124
▁denying	-12.1125
▁chunk	-12.1126
[...]
