<unk>	0
<s>	0
</s>	0
、	-2.73774
。	-2.92646
▁	-3.3451
の	-3.88986
は	-4.36499
が	-4.42165
を	-4.75791
に	-4.78901
で	-4.83906
と	-4.93181
」	-5.06545
も	-5.25853
「	-5.27622
や	-5.46267
)	-5.66416
!	-5.67996
から	-5.70272
(	-5.74328
です	-5.75985
・	-5.80178
?	-5.97527
1	-6.06315
し	-6.08878
ので	-6.28385
日	-6.38129
月	-6.39797
2	-6.39883
という	-6.40719
して	-6.42156
には	-6.43205
する	-6.43508
年	-6.46493
など	-6.51611
した	-6.55505
な	-6.56546
か	-6.58042
3	-6.59749
▁「	-6.60954
その	-6.62774
では	-6.6388
この	-6.7723
る	-6.7766
として	-6.78411
▁また	-6.82216
て	-6.88052
た	-6.89697
.	-6.97077
、「	-7.04508
ます	-7.0467
でも	-7.05336
人	-7.05957
って	-7.07426
』	-7.11999
▁この	-7.13047
...	-7.13328
している	-7.13344
4	-7.14581
まで	-7.16722
5	-7.18565
である	-7.18951
します	-7.22629
10	-7.23963
ました	-7.23971
,	-7.28648
ね	-7.31067
にも	-7.316
こと	-7.31625
『	-7.33129
より	-7.3378
▁しかし	-7.37816
について	-7.38715
ですが	-7.39718
だ	-7.44839
り	-7.44896
ら	-7.45821
しています	-7.47572
のは	-7.48336
お	-7.49626
でした	-7.49853
なら	-7.51637
:	-7.53048
時間	-7.5362
しました	-7.54022
6	-7.5678
ない	-7.5695
ため	-7.60777
時	-7.61117
▁そして	-7.63287
よ	-7.64862
された	-7.65031
ように	-7.66355
い	-7.66398
できる	-7.66638
7	-7.68222
”	-7.68765
大	-7.69687
などの	-7.70654
だった	-7.71278
へ	-7.71335
もの	-7.72068
ている	-7.72085
への	-7.72302
と思います	-7.7232
▁※	-7.73733
自分の	-7.74053
8	-7.74105
また	-7.75095
がある	-7.75456
になる	-7.77147
本	-7.7727
ある	-7.78057
のか	-7.78842
なので	-7.79114
-	-7.79605
のです	-7.8049
中	-7.81295
30	-7.81733
回	-7.82844
のですが	-7.83018
とか	-7.83983
9	-7.8468
いる	-7.85217
とは	-7.86141
によって	-7.86175
される	-7.86344
があります	-7.86531
事	-7.8743
分	-7.87688
/	-7.88603
▁その	-7.88696
います	-7.89442
20	-7.89527
でしょう	-7.89908
情報	-7.91228
ような	-7.91706
等	-7.92583
方	-7.93092
▁!	-7.93212
さん	-7.95504
つ	-7.96322
円	-7.97318
▁でも	-7.9741
サービス	-7.98327
だけ	-7.99023
による	-8.00181
いた	-8.00744
ですね	-8.00844
ことを	-8.01731
▁」	-8.01845
ス	-8.02098
になります	-8.02233
けど	-8.02779
一	-8.04142
水	-8.05129
12	-8.05547
とても	-8.07212
第	-8.08117
ー	-8.09792
私は	-8.09951
ています	-8.10067
的な	-8.10912
場合は	-8.12283
サイト	-8.13516
人は	-8.14543
後	-8.14621
日本	-8.1465
者	-8.14656
く	-8.14925
により	-8.15246
時に	-8.16328
ください	-8.16425
だと	-8.17134
11	-8.1738
名	-8.17577
さ	-8.1774
いて	-8.18142
されている	-8.18145
というのは	-8.18579
今	-8.18866
話	-8.19473
上	-8.19586
仕事	-8.19739
があり	-8.19784
～	-8.20359
す	-8.20595
約	-8.20632
それ	-8.20873
ご	-8.21722
市	-8.21967
商品	-8.22077
性	-8.22484
ことで	-8.22961
ほど	-8.23134
物	-8.23295
ながら	-8.23518
場合	-8.23775
良い	-8.23825
▁私は	-8.24021
他の	-8.24075
人が	-8.24801
人の	-8.25102
見	-8.25378
▁ただ	-8.25506
本当に	-8.25548
み	-8.25599
については	-8.25768
手	-8.26193
▁(	-8.26415
いい	-8.26594
利用	-8.269
様々な	-8.26975
s	-8.27222
にある	-8.27423
▁これは	-8.27438
金	-8.27678
力	-8.28179
にて	-8.28272
ことが	-8.29131
女性	-8.29919
数	-8.29953
】	-8.30037
ことは	-8.30253
され	-8.30283
問題	-8.30318
・・・	-8.30754
C	-8.31115
なんて	-8.31209
った	-8.31968
そう	-8.32378
き	-8.32731
前に	-8.32795
していた	-8.32954
何	-8.33224
ために	-8.33802
よう	-8.34164
であり	-8.34355
のが	-8.34363
よりも	-8.35648
多くの	-8.36051
方法	-8.36462
山	-8.36655
ア	-8.36709
だけで	-8.37681
前	-8.37907
大きな	-8.38151
日に	-8.38795
ちょっと	-8.39187
もう	-8.3993
活動	-8.39976
私の	-8.405
そうです	-8.40625
いました	-8.40751
A	-8.41109
15	-8.41259
▁1	-8.41509
機能	-8.42448
新しい	-8.42625
ようです	-8.42632
ではなく	-8.4282
すると	-8.42985
少し	-8.43484
何か	-8.43606
会社	-8.43753
となります	-8.44142
したい	-8.44427
と思う	-8.44536
」「	-8.44609
すぐに	-8.44614
環境	-8.44674
生活	-8.45052
年に	-8.46204
の中で	-8.46658
同じ	-8.47153
法	-8.47297
できます	-8.47386
かもしれません	-8.47521
的	-8.47875
そんな	-8.47948
だけでなく	-8.48193
したり	-8.48285
よく	-8.48397
となる	-8.48415
新	-8.48616
出	-8.48799
リ	-8.48943
まだ	-8.49282
対応	-8.49387
う	-8.49745
に関する	-8.49769
国	-8.50497
ト	-8.50515
化	-8.50581
を使って	-8.51031
方は	-8.51074
実際に	-8.51253
ゲーム	-8.51365
100	-8.51783
たい	-8.52001
点	-8.5204
んです	-8.52143
になった	-8.52379
▁今回は	-8.52665
そして	-8.52955
のように	-8.53069
において	-8.53093
のような	-8.53799
に対して	-8.53905
作品	-8.54056
m	-8.54176
あまり	-8.54378
のある	-8.5451
場所	-8.54751
ポイント	-8.54759
▁そんな	-8.55369
ことができます	-8.55633
下	-8.55702
ところ	-8.55895
自分が	-8.56009
目	-8.56056
さんの	-8.56239
または	-8.56462
自分	-8.5665
S	-8.56981
家	-8.5702
になって	-8.57135
ク	-8.57159
高	-8.57923
ラ	-8.57932
なかった	-8.58158
治療	-8.58222
ものです	-8.5834
子	-8.58405
会	-8.58452
だろう	-8.5892
ず	-8.59023
のために	-8.59091
店	-8.59198
日本の	-8.59268
所	-8.59449
生	-8.59503
かなり	-8.59995
といった	-8.60075
町	-8.60142
木	-8.60169
各	-8.6037
代	-8.60402
すれば	-8.60557
だと思います	-8.60629
気	-8.61018
内容	-8.61046
管理	-8.61206
システム	-8.61263
すること	-8.61304
企業	-8.61313
“	-8.61329
されています	-8.61389
万	-8.61401
色	-8.6162
ズ	-8.61818
できない	-8.61898
であれば	-8.6198
特に	-8.62302
設定	-8.62413
つの	-8.62909
んだ	-8.6317
いたします	-8.63185
車	-8.63213
しか	-8.63246
登録	-8.63496
土	-8.63699
があった	-8.63795
ぜひ	-8.64012
なく	-8.64375
度	-8.64722
どんな	-8.65045
これ	-8.6523
ル	-8.65245
それを	-8.65508
それは	-8.65905
販売	-8.6595
作業	-8.66076
用	-8.66131
歳	-8.66208
関係	-8.66439
〜	-8.66593
内	-8.66668
をして	-8.672
になっている	-8.67263
B	-8.67279
たり	-8.67537
などで	-8.67884
心	-8.68133
▁2	-8.68142
これは	-8.68181
でしょうか	-8.68221
データ	-8.68225
私が	-8.68304
体	-8.68464
確認	-8.68465
参加	-8.68662
ということ	-8.68761
地域	-8.68826
れば	-8.69
になり	-8.69406
になりました	-8.69523
をする	-8.69667
購入	-8.69697
こ	-8.69958
映画	-8.70254
写真	-8.70369
及び	-8.70423
考え	-8.70571
かな	-8.7084
イベント	-8.70901
方が	-8.7097
事業	-8.71632
使用	-8.71712
状況	-8.71794
的に	-8.72087
さらに	-8.72438
▁もちろん	-8.72497
T	-8.72562
コ	-8.7262
しております	-8.7293
駅	-8.72997
大学	-8.73088
あなたの	-8.73113
ド	-8.73295
メール	-8.73594
18	-8.73832
▁それは	-8.73909
▁『	-8.74025
あり	-8.7408
もっと	-8.74411
デザイン	-8.74463
を見て	-8.74633
カード	-8.74861
の方が	-8.74936
私	-8.75057
変更	-8.75575
口	-8.75596
相談	-8.75899
東京	-8.759
教育	-8.75913
としては	-8.7598
▁...	-8.76043
下さい	-8.76156
50	-8.76371
非常に	-8.76396
万円	-8.76561
D	-8.76806
24	-8.76836
世界	-8.76908
外	-8.77094
してください	-8.7712
ん	-8.77366
19	-8.77453
とき	-8.77856
▁【	-8.77859
しない	-8.7792
必ず	-8.77965
小	-8.78112
社会	-8.78171
されます	-8.78324
25	-8.78923
▁特に	-8.7897
型	-8.79123
きた	-8.79189
ましょう	-8.79297
状態	-8.79304
経験	-8.79475
体験	-8.79599
調査	-8.79903
なのか	-8.80174
ではない	-8.80306
対策	-8.80555
毎日	-8.80643
わ	-8.80686
することができます	-8.80703
▁そこで	-8.80881
研究	-8.80894
だから	-8.81165
のでしょうか	-8.81427
ですよね	-8.81642
無料	-8.81765
人に	-8.81829
契約	-8.81968
ません	-8.8199
ときに	-8.82119
技術	-8.82144
▁ただし	-8.82252
に対する	-8.82469
結果	-8.82529
t	-8.82741
川	-8.82785
先	-8.82939
たら	-8.83027
&	-8.83046
なかなか	-8.83262
しながら	-8.83339
部	-8.83614
▁なお	-8.84338
くらい	-8.84348
行動	-8.84605
道	-8.84651
バ	-8.84751
それが	-8.84772
マ	-8.84914
タ	-8.8494
することで	-8.85001
でしたが	-8.85112
効果	-8.85147
ページ	-8.85212
としても	-8.85307
不	-8.85412
元	-8.85683
の場合	-8.85708
地	-8.85877
等の	-8.85925
平成	-8.85935
自分で	-8.86041
よね	-8.86092
さんが	-8.86146
いつも	-8.86155
ナ	-8.86176
14	-8.86463
予約	-8.86476
長	-8.86549
のみ	-8.86704
三	-8.86721
田	-8.86856
笑	-8.86919
島	-8.87098
施設	-8.87357
月に	-8.87598
アプリ	-8.87674
一緒に	-8.87862
の場合は	-8.88098
からです	-8.88234
やはり	-8.88267
ブログ	-8.88323
現在	-8.88364
いく	-8.88367
ネット	-8.88608
勉強	-8.88795
と言う	-8.8907
16	-8.89081
▁・	-8.89139
男性	-8.89149
年の	-8.89229
人間	-8.89285
いない	-8.89405
からの	-8.89502
▁さらに	-8.89503
年間	-8.89901
されて	-8.89926
愛	-8.89971
お店	-8.90003
40	-8.90043
シ	-8.90293
F	-8.90321
一番	-8.90322
見て	-8.90381
評価	-8.90595
簡単に	-8.90736
]	-8.90784
を行う	-8.90826
まず	-8.91088
時は	-8.91207
音楽	-8.91241
もあります	-8.91282
ときは	-8.91292
思い	-8.91318
しましょう	-8.91354
理解	-8.91657
こんな	-8.91742
ま	-8.9181
カ	-8.91922
▁そのため	-8.9219
13	-8.92197
さんは	-8.92268
のため	-8.92286
食	-8.92422
あります	-8.92509
ということで	-8.92642
線	-8.93031
させる	-8.93158
開発	-8.93459
ノ	-8.9346
次の	-8.93486
"	-8.9386
ビジネス	-8.93982
書	-8.94048
▁3	-8.9408
などを	-8.94203
説明	-8.94697
がない	-8.94964
大変	-8.94997
ると	-8.95164
様	-8.95283
▁もし	-8.95355
および	-8.95366
レ	-8.95586
ていた	-8.95589
があれば	-8.95858
位	-8.95963
台	-8.96479
製品	-8.96514
K	-8.96696
高い	-8.96702
予定	-8.96849
M	-8.96949
してくれる	-8.97123
む	-8.97239
▁今日は	-8.97317
品	-8.97619
紹介	-8.97771
イメージ	-8.97774
是非	-8.97885
意識	-8.98213
ずっと	-8.98531
しても	-8.98594
ことができる	-8.98694
版	-8.98796
したら	-8.98825
支援	-8.98855
G	-8.98955
面	-8.99106
一度	-8.99369
業者	-8.99557
曲	-8.99592
ム	-8.99678
無	-8.99697
足	-9.00044
通り	-9.00319
ための	-9.00414
不安	-9.00455
結婚	-9.00508
制度	-9.00622
学校	-9.00728
かもしれない	-9.00765
二	-9.008
更新	-9.00942
17	-9.0104
あ	-9.01238
における	-9.01301
されました	-9.01331
全	-9.01346
頭	-9.01621
同	-9.01714
っている	-9.01809
なのです	-9.01877
・・・。	-9.01934
以上	-9.01951
以下	-9.02043
ば	-9.02075
人気	-9.02248
店舗	-9.02386
オ	-9.02442
ダ	-9.02545
られる	-9.02877
▁さて	-9.02923
ジ	-9.0306
料理	-9.0311
め	-9.03181
初めて	-9.03216
気持ち	-9.03522
を持つ	-9.03569
コース	-9.03668
取り	-9.03845
ことも	-9.03854
となった	-9.03882
プラン	-9.03903
改善	-9.03961
撮影	-9.04262
業務	-9.04282
ロ	-9.04368
号	-9.04377
中に	-9.0448
画像	-9.04638
にとって	-9.04653
必要	-9.04698
けれど	-9.04706
ということです	-9.04733
しており	-9.04785
言葉	-9.04859
キ	-9.04884
感じ	-9.04897
神	-9.04955
音	-9.04961
戦	-9.05106
だったので	-9.05116
薬	-9.05176
着	-9.05177
おり	-9.05275
形	-9.05286
以下の	-9.05504
ですので	-9.05527
サ	-9.05556
系	-9.05599
▁例えば	-9.05635
ホテル	-9.05807
▁つまり	-9.06107
P	-9.06111
火	-9.06269
今回は	-9.06283
21	-9.06358
やすい	-9.06422
イ	-9.06774
楽しい	-9.06785
社	-9.06827
://	-9.06958
感	-9.0711
条件	-9.07162
価格	-9.072
中の	-9.07204
計画	-9.07205
表示	-9.07257
があって	-9.0729
石	-9.07433
原	-9.07679
場	-9.07852
実は	-9.07903
間	-9.07958
サポート	-9.07982
家族	-9.0824
ずに	-9.08266
となっています	-9.08269
上で	-9.08289
どう	-9.08293
てしまう	-9.08336
動画	-9.08365
チェック	-9.08382
さまざまな	-9.08484
ケース	-9.08492
のだ	-9.08508
花	-9.08562
質問	-9.08666
食事	-9.08676
のではないでしょうか	-9.087
していく	-9.08746
まずは	-9.08779
旅行	-9.08888
フ	-9.08914
経営	-9.08969
部分	-9.09095
ミ	-9.09298
出会い	-9.09303
ことに	-9.09405
ブ	-9.09761
▁ちなみに	-9.0998
運動	-9.10082
作り	-9.10094
23	-9.10327
っ	-9.1045
もある	-9.10488
記事	-9.10498
場合には	-9.10531
海	-9.10587
と一緒に	-9.10614
風	-9.10652
時代	-9.10766
28	-9.10908
処理	-9.10995
が多い	-9.11059
ありがとうございました	-9.11109
アップ	-9.11118
健康	-9.11249
▁だから	-9.11401
期間	-9.11777
検索	-9.11851
光	-9.11893
...。	-9.11932
時の	-9.11985
公開	-9.12058
量	-9.12191
チーム	-9.12332
をしている	-9.12361
を持って	-9.12373
となり	-9.12671
希望	-9.12736
美	-9.12781
▁今	-9.12806
【	-9.12947
グループ	-9.13014
バー	-9.13024
セット	-9.13077
ことがあります	-9.13128
E	-9.13232
▁>	-9.13248
安心して	-9.13364
心配	-9.13519
表現	-9.13713
電話	-9.13901
22	-9.14082
前の	-9.14274
目的	-9.14347
時期	-9.14394
お金	-9.14547
らしい	-9.14754
営業	-9.14879
別	-9.15122
エ	-9.15285
投資	-9.15379
どの	-9.15391
になると	-9.15836
病気	-9.15915
どのような	-9.15917
モデル	-9.16004
モ	-9.16027
29	-9.16184
別の	-9.162
となりました	-9.1631
お客様	-9.16362
プログラム	-9.16661
準備	-9.16765
ツ	-9.16786
行く	-9.16804
はずです	-9.16872
広告	-9.16944
表	-9.16969
え	-9.17036
理由	-9.17102
なり	-9.17231
野	-9.17238
必要な	-9.1739
せ	-9.17487
メニュー	-9.17492
の中に	-9.17532
がありました	-9.17627
タイプ	-9.17671
医療	-9.17708
きました	-9.17725
能力	-9.1837
ことです	-9.18372
すぐ	-9.18543
このような	-9.18742
ばかり	-9.18776
行	-9.19069
すべての	-9.19079
していました	-9.19082
日の	-9.19162
そういう	-9.19242
村	-9.19361
かもしれませんが	-9.19595
白	-9.19602
▁現在	-9.19643
イン	-9.19664
ができる	-9.19679
ニ	-9.19787
男	-9.19809
中国	-9.19988
とともに	-9.20019
新たな	-9.20162
後に	-9.20218
インターネット	-9.20242
番	-9.20448
屋	-9.20474
ものを	-9.20513
以外の	-9.20639
サイズ	-9.20654
成長	-9.20728
んで	-9.2082
機会	-9.20879
27	-9.21125
東	-9.21186
枚	-9.21231
かどうか	-9.21304
であった	-9.21369
H	-9.21383
にして	-9.21394
N	-9.21456
会員	-9.21549
になっています	-9.21596
に関しては	-9.21692
割	-9.21742
御	-9.21975
あった	-9.22079
ファン	-9.22122
26	-9.22325
やって	-9.22426
くる	-9.22433
そのまま	-9.22455
以上の	-9.22493
取引	-9.2261
大会	-9.22629
ビ	-9.22706
和	-9.22845
女	-9.22851
くれる	-9.22875
られた	-9.2288
今まで	-9.22904
投稿	-9.23005
と思った	-9.23057
していない	-9.23062
検査	-9.23108
味	-9.23257
交換	-9.23463
なければ	-9.23468
R	-9.23527
脱毛	-9.2362
プロ	-9.23623
式	-9.23656
相手	-9.23699
素晴らしい	-9.24033
▁これ	-9.24643
お客様の	-9.24652
子供	-9.24752
情報を	-9.24784
開催	-9.24798
しまう	-9.24813
直接	-9.24878
練習	-9.24935
全く	-9.24943
ダイエット	-9.25037
スポーツ	-9.25039
直	-9.25154
発表	-9.25307
好きな	-9.25413
ウ	-9.25522
が多く	-9.25593
と思って	-9.25601
朝	-9.25621
連絡	-9.2566
▁A	-9.25733
これから	-9.25738
60	-9.25748
保存	-9.25825
学	-9.25843
今回の	-9.25974
)」	-9.2607
ち	-9.26098
チ	-9.26199
夢	-9.26243
変化	-9.26251
させていただきます	-9.26289
センター	-9.26292
ており	-9.26331
キャンペーン	-9.26417
審査	-9.26452
......	-9.26556
ネ	-9.26636
文化	-9.26641
と同じ	-9.26783
工事	-9.26788
通	-9.26808
出来る	-9.26819
と思っています	-9.26873
たくさんの	-9.2691
リンク	-9.27137
を中心に	-9.27225
病院	-9.27248
判断	-9.27453
原因	-9.27472
南	-9.2748
してしまう	-9.27516
用の	-9.27567
違う	-9.27592
PC	-9.27604
に行く	-9.27614
はありません	-9.27656
種類	-9.27888
リー	-9.27894
文	-9.27958
テレビ	-9.27975
を作る	-9.28038
英語	-9.28038
もあり	-9.28042
W	-9.28119
g	-9.28242
時には	-9.28329
知識	-9.28567
してきた	-9.28582
強い	-9.28586
早く	-9.28855
私も	-9.28892
何も	-9.28959
個人	-9.2896
使う	-9.29063
小さな	-9.29083
夜	-9.29262
ではありません	-9.29313
れ	-9.29314
天	-9.2953
症状	-9.2979
学習	-9.29833
最近	-9.29905
とも	-9.30071
ファイル	-9.30101
マン	-9.30128
のであれば	-9.30142
事件	-9.30204
報告	-9.30232
ソフト	-9.30259
しっかり	-9.3027
掲載	-9.30287
J	-9.30287
を使う	-9.30308
に合わせて	-9.30364
欲しい	-9.30426
機	-9.30524
自然	-9.30555
ること	-9.30651
しっかりと	-9.30683
席	-9.30737
日から	-9.30744
ましたが	-9.30796
0	-9.30824
文字	-9.30863
のための	-9.30866
ガ	-9.30883
西	-9.30911
作成	-9.31044
するのは	-9.31074
ヶ月	-9.31209
組織	-9.31289
ユーザー	-9.31329
最も	-9.31385
▁2018	-9.31402
ケア	-9.31406
を見	-9.31453
e	-9.31471
事を	-9.31782
郡	-9.3184
というのが	-9.31856
▁それ	-9.31898
コメント	-9.31912
北	-9.31917
しまった	-9.32401
パン	-9.32483
保険	-9.32707
料金	-9.32764
運営	-9.32804
開始	-9.3285
なる	-9.32919
城	-9.32921
存在	-9.32968
試験	-9.33026
平	-9.33298
選択	-9.33376
レベル	-9.33386
ッ	-9.33444
経済	-9.33511
に向けて	-9.33554
やっぱり	-9.33672
意味	-9.33687
するために	-9.33783
ほとんど	-9.33924
色々な	-9.34003
例	-9.34059
ブランド	-9.34076
が必要です	-9.34118
じゃない	-9.34166
となっている	-9.34174
cm	-9.34215
放送	-9.3425
顔	-9.34469
グ	-9.3449
銀行	-9.34835
空	-9.34846
▁今回の	-9.34852
だけではなく	-9.34941
常に	-9.35091
事故	-9.35316
んですが	-9.35336
パ	-9.35359
わけです	-9.35405
デ	-9.3541
ありがとうございます	-9.35411
の方	-9.35438
みんな	-9.35441
それぞれの	-9.35535
素敵な	-9.35565
アメリカ	-9.35573
々	-9.35599
いろいろな	-9.35608
肌	-9.35649
させて	-9.35755
▁-	-9.35788
ちゃんと	-9.35812
アニメ	-9.36118
メ	-9.36138
があるので	-9.36281
企画	-9.36308
分の	-9.36354
コンテンツ	-9.36404
学生	-9.36517
▁私も	-9.36596
してる	-9.36776
期待	-9.36915
又は	-9.36994
それぞれ	-9.37023
長く	-9.37036
週間	-9.37038
アクセス	-9.3707
じ	-9.37154
雰囲気	-9.37155
人と	-9.37197
ごとに	-9.37304
今後	-9.37327
と思いました	-9.37374
手続き	-9.37523
▁最近	-9.37656
見る	-9.37675
そうな	-9.37736
ストレス	-9.3786
上の	-9.37862
熱	-9.37909
ここで	-9.37954
のない	-9.37962
重要な	-9.38083
どうしても	-9.38108
なんか	-9.38133
悪い	-9.38179
メーカー	-9.38185
作	-9.3839
身	-9.38394
を利用して	-9.38437
致します	-9.38513
全て	-9.38532
テ	-9.38547
▁まず	-9.38848
いただき	-9.38904
500	-9.38917
なぜ	-9.39054
のこと	-9.39125
▁10	-9.39299
死	-9.39334
バス	-9.39365
安心	-9.39383
あと	-9.39424
エネルギー	-9.39431
ならば	-9.39546
ますが	-9.39571
親	-9.39575
アイテム	-9.39636
他	-9.39647
移動	-9.39653
当	-9.39706
今日は	-9.3974
日々	-9.3984
費用	-9.39873
再	-9.39881
あの	-9.39896
プロジェクト	-9.40016
OK	-9.40028
ということは	-9.4003
査定	-9.40143
金額	-9.4016
_	-9.40162
していて	-9.40212
これまで	-9.40244
入	-9.40313
よい	-9.4035
事前に	-9.40351
負担	-9.40374
していきます	-9.40377
解決	-9.40439
中で	-9.4047
楽しく	-9.40481
すべて	-9.40547
きちんと	-9.40718
実	-9.40736
ニュース	-9.40737
トラブル	-9.40746
リスク	-9.40775
年齢	-9.40849
セ	-9.40857
安い	-9.40879
と思い	-9.40993
毛	-9.41094
▁私の	-9.41107
業界	-9.41193
スペース	-9.41297
指導	-9.41299
考えて	-9.41335
素材	-9.41473
▁4	-9.41487
目標	-9.41562
市の	-9.41574
流	-9.41588
こう	-9.41678
配信	-9.41711
を作って	-9.41773
ていく	-9.41777
を使った	-9.4179
なども	-9.41886
来	-9.41997
選手	-9.42065
▁まずは	-9.42157
と言って	-9.42189
はない	-9.42211
▁私が	-9.4233
国際	-9.42432
漫画	-9.42703
住宅	-9.42744
次	-9.42851
区	-9.4288
L	-9.42973
ン	-9.43047
通信	-9.43164
成分	-9.43224
ちゃん	-9.43257
プ	-9.43261
面白い	-9.43531
すでに	-9.43605
後の	-9.43638
安全	-9.43682
雨	-9.43749
▁お	-9.43839
▁自分の	-9.43887
ようで	-9.43933
全ての	-9.44153
立	-9.44186
室	-9.44205
何度も	-9.4421
なのですが	-9.44244
ライン	-9.4427
日間	-9.44291
ぐらい	-9.44335
画面	-9.4436
団体	-9.44377
入力	-9.44378
てきた	-9.44481
Web	-9.44494
テーマ	-9.44539
使って	-9.4463
課題	-9.44678
ただ	-9.44684
返済	-9.44702
人で	-9.44709
テスト	-9.44717
注文	-9.44749
食べ	-9.44787
によっては	-9.44859
今回	-9.44912
今は	-9.44949
コン	-9.44976
命	-9.44989
ても	-9.44993
シリーズ	-9.45079
ツアー	-9.45104
額	-9.45236
特別	-9.45259
売却	-9.45306
ザ	-9.45347
きっと	-9.4538
ものは	-9.45508
終了	-9.45655
対象	-9.45726
▁日本	-9.45742
▁いつも	-9.45808
メディア	-9.45896
申請	-9.45938
X	-9.45952
努力	-9.46008
空間	-9.46054
重	-9.46079
もし	-9.46187
みたいな	-9.46189
難しい	-9.46257
はもちろん	-9.46276
楽	-9.46404
今日	-9.46435
個	-9.46453
幸せ	-9.46513
観光	-9.46563
V	-9.46579
によると	-9.46663
31	-9.467
を持っている	-9.46702
番組	-9.46725
期	-9.46764
2018	-9.46771
▁今回	-9.46862
痛み	-9.46923
エリア	-9.46948
率	-9.46976
▁まだ	-9.46981
恋愛	-9.47082
海外	-9.47087
ていました	-9.47213
正しい	-9.47325
付け	-9.47328
頑張って	-9.47427
何を	-9.47451
制作	-9.47552
ひ	-9.47582
ショップ	-9.47621
はず	-9.47708
年度	-9.4796
スタイル	-9.48043
ティ	-9.48061
ツール	-9.48132
ですよ	-9.4814
失敗	-9.48288
▁その後	-9.48308
行為	-9.48337
病	-9.4835
んですよ	-9.48474
たくさん	-9.48475
ですか	-9.48477
会社の	-9.48485
記録	-9.48549
ことから	-9.48565
へと	-9.48643
必要があります	-9.48652
行う	-9.48661
女子	-9.48668
かも	-9.48782
=	-9.48814
動き	-9.48833
スマホ	-9.48844
横	-9.48934
らない	-9.4896
クラス	-9.48977
超	-9.49143
だが	-9.49165
転職	-9.49219
スタッフ	-9.49279
あるいは	-9.49279
を行います	-9.495
セミナー	-9.49515
米	-9.49603
プレゼント	-9.49642
公園	-9.49728
提供	-9.49836
すごく	-9.49897
図	-9.50093
ここ	-9.50146
んだけど	-9.50185
研修	-9.50185
限定	-9.50187
などは	-9.50199
▁第	-9.50271
基準	-9.5039
役	-9.50471
ようになりました	-9.50476
株式会社	-9.50606
資料	-9.50674
i	-9.50743
かつ	-9.50755
歌	-9.50825
程度	-9.50852
200	-9.50964
d	-9.51004
てしまった	-9.51004
美しい	-9.51063
▁それが	-9.51114
80	-9.51143
大阪	-9.51167
ほぼ	-9.51184
寝	-9.51357
を受け	-9.51421
語	-9.51515
を通して	-9.51559
いただきました	-9.51635
+	-9.5173
設計	-9.5173
追加	-9.5174
初	-9.51804
メンバー	-9.51865
声	-9.519
▁●	-9.51916
夏	-9.51981
▁本	-9.52041
今の	-9.52047
指定	-9.52121
メッセージ	-9.52128
いただいた	-9.52142
カラー	-9.52173
歴史	-9.52195
いたしました	-9.52202
美味しい	-9.52225
読んで	-9.52258
操作	-9.52269
市場	-9.52285
自	-9.52322
よかった	-9.52336
ライブ	-9.52367
多	-9.5245
カー	-9.52508
日本人	-9.5259
馬	-9.5259
カメラ	-9.52632
▁5	-9.53119
募集	-9.53148
手術	-9.53148
春	-9.5316
為	-9.53191
遊び	-9.53223
け	-9.53296
ヤ	-9.53299
ご利用	-9.53324
パソコン	-9.53328
であっても	-9.53338
んですけど	-9.53409
障害	-9.53453
家庭	-9.53503
▁実は	-9.53608
戦争	-9.53613
こういう	-9.53627
されていた	-9.53649
ケ	-9.53676
ネットワーク	-9.5373
気になる	-9.53792
街	-9.53794
紙	-9.53797
印象	-9.53842
法人	-9.53852
産	-9.53854
件	-9.53982
価値	-9.53983
などが	-9.54013
▁もう	-9.54025
モノ	-9.54077
人生	-9.54137
自己	-9.5416
コミュニケーション	-9.54311
を選ぶ	-9.54385
先生	-9.54438
を受ける	-9.54456
してから	-9.54565
プレイ	-9.54667
n	-9.54692
一人	-9.54737
階	-9.54744
あなたが	-9.54834
書いて	-9.54882
レッスン	-9.54902
あって	-9.54952
y	-9.55003
絵	-9.55027
応援	-9.55041
少しずつ	-9.55071
からは	-9.55111
妻	-9.55111
と言われています	-9.55163
を受けて	-9.55172
などに	-9.55175
ためには	-9.55187
主	-9.55246
、『	-9.55258
もしくは	-9.55272
教室	-9.55391
なくて	-9.55395
を見る	-9.55437
アン	-9.55548
コード	-9.5558
内の	-9.55593
c	-9.55645
あなた	-9.55693
ぎ	-9.557
寺	-9.55735
のだが	-9.55745
a	-9.55802
なくても	-9.55922
オープン	-9.55973
Y	-9.55987
ランキング	-9.56036
値	-9.56067
かと思います	-9.56071
どんどん	-9.56279
良かった	-9.56291
服	-9.56292
最大	-9.56315
を通じて	-9.56345
ドラマ	-9.56403
多く	-9.56454
授業	-9.56619
彼の	-9.56622
関連	-9.56738
来て	-9.56842
現在の	-9.56847
決定	-9.56858
できた	-9.56882
の方は	-9.56956
に行って	-9.56991
しましたが	-9.57034
船	-9.57041
なければならない	-9.5707
多い	-9.571
ところで	-9.5714
と思いますが	-9.57284
ことがある	-9.57309
入り	-9.57326
ディ	-9.57366
▁このような	-9.57396
時間を	-9.57413
制	-9.57434
いれば	-9.5749
カフェ	-9.57502
▁しかも	-9.57599
映像	-9.57694
試合	-9.57778
ゴ	-9.57837
大切な	-9.57882
介護	-9.57888
ぞ	-9.57911
器	-9.57914
資格	-9.58036
一般	-9.58098
可能	-9.5813
大きく	-9.58138
一つ	-9.58225
ありません	-9.58238
ですから	-9.58264
複数の	-9.58339
発	-9.58421
良く	-9.58467
書き	-9.58507
の中から	-9.58541
ものの	-9.58667
時から	-9.58671
注意	-9.587
館	-9.58805
に関して	-9.58814
先に	-9.58845
採用	-9.58846
一日	-9.58861
おります	-9.58866
知らない	-9.58892
おすすめ	-9.58905
を行い	-9.58906
iPhone	-9.58921
犬	-9.5901
トレーニング	-9.59025
計算	-9.59029
流れ	-9.59135
リスト	-9.592
講座	-9.59213
保護	-9.59267
行って	-9.59362
[	-9.59378
削除	-9.59404
当社	-9.59405
もので	-9.5951
宮	-9.59675
分析	-9.59697
▁先日	-9.59725
黒	-9.59777
訪問	-9.59869
結構	-9.59877
ファッション	-9.59892
はとても	-9.59907
反応	-9.5992
読み	-9.5994
これが	-9.59943
座	-9.59944
▁実際に	-9.5995
o	-9.60013
事実	-9.60035
買取	-9.60075
できません	-9.60146
場合があります	-9.60169
いろんな	-9.60187
ていない	-9.60216
が高い	-9.60241
いろいろ	-9.60249
とする	-9.60321
とのこと	-9.60321
社員	-9.60375
び	-9.60492
物件	-9.60506
暮らし	-9.60519
土地	-9.60536
検討	-9.60616
倍	-9.6062
することができる	-9.6071
担当	-9.60712
接続	-9.60712
♪	-9.60765
クラブ	-9.60778
ハ	-9.60784
法律	-9.60814
目に	-9.60824
こそ	-9.60826
みて	-9.60934
正	-9.61001
キー	-9.61027
引き	-9.61096
自由	-9.61138
出す	-9.61162
展開	-9.61186
差	-9.61228
橋	-9.61253
時間が	-9.613
調整	-9.61316
までは	-9.61321
気軽に	-9.61412
受付	-9.61487
マンション	-9.61589
いただく	-9.61642
王	-9.61733
▁■	-9.61747
についても	-9.61748
権	-9.6176
のうち	-9.61769
こちらの	-9.61788
とっても	-9.61805
施術	-9.62019
攻撃	-9.62056
の中	-9.6219
設備	-9.6221
ものが	-9.62228
皆さん	-9.62272
をご紹介します	-9.62343
▁S	-9.62383
ないように	-9.62385
んですね	-9.62393
身体	-9.62489
友達	-9.62537
温泉	-9.62561
シーン	-9.62631
悪	-9.6277
スト	-9.62782
こともあります	-9.628
と呼ばれる	-9.62847
根	-9.62944
事が	-9.62953
特徴	-9.62972
肉	-9.62976
気が	-9.62979
込み	-9.63013
悩み	-9.63052
再生	-9.63077
収入	-9.63078
文章	-9.63084
行った	-9.63206
ご注文	-9.63277
依頼	-9.63303
公	-9.63312
丸	-9.6341
もなく	-9.63436
現実	-9.63498
だったら	-9.63517
活用	-9.63588
明	-9.63641
までに	-9.6369
になってしまう	-9.63707
70	-9.63756
これらの	-9.63885
発売	-9.63889
全部	-9.6391
一部	-9.63921
だけの	-9.63994
ホームページ	-9.64011
するための	-9.64026
未来	-9.64049
ことになります	-9.64099
逆に	-9.6417
大人	-9.64186
女性の	-9.64208
少しでも	-9.64234
状態で	-9.6425
番号	-9.64253
をした	-9.64258
せず	-9.64276
なぁ	-9.64347
氏	-9.64383
なくなる	-9.6443
昭和	-9.64441
タイム	-9.64535
種	-9.64545
名前	-9.64571
f	-9.64695
たち	-9.64739
修理	-9.64826
のではないか	-9.64838
好き	-9.6484
」(	-9.64882
てしまいます	-9.64885
僕は	-9.64921
項目	-9.64955
の上	-9.65057
当然	-9.65073
みたい	-9.65094
食品	-9.65121
ター	-9.65245
有	-9.65282
程	-9.65292
上に	-9.65326
ほしい	-9.65455
ローン	-9.65539
いきます	-9.65627
そこに	-9.65658
までの	-9.65667
会議	-9.65814
傷	-9.65853
食べる	-9.65901
人も	-9.66028
サロン	-9.66087
酒	-9.66156
日本語	-9.66156
まま	-9.66252
たくない	-9.6627
予想	-9.66299
会場	-9.66307
▁平成	-9.66334
んですよね	-9.66545
旅	-9.6656
ゆっくり	-9.66566
ポ	-9.66642
ルール	-9.66669
切り	-9.66701
されており	-9.66756
思い出	-9.66757
メリット	-9.66811
気分	-9.66866
真	-9.66876
アカウント	-9.6694
事は	-9.67072
違い	-9.67081
都市	-9.67113
認識	-9.67178
地方	-9.67206
でき	-9.67227
離婚	-9.67251
方も	-9.67395
er	-9.67424
その後	-9.67429
魚	-9.67475
家の	-9.67482
子ども	-9.6757
▁2017	-9.6758
近く	-9.6758
門	-9.67597
会話	-9.67661
使い	-9.67662
お客様に	-9.67669
1000	-9.67675
スキル	-9.67714
と思っている	-9.67758
星	-9.67819
成功	-9.67935
仕事を	-9.67988
論	-9.68017
部屋	-9.68044
▁このように	-9.68045
もらう	-9.68058
くれた	-9.68079
実施	-9.68134
も多く	-9.68182
com	-9.68277
お話	-9.68415
不動産	-9.6842
韓国	-9.68459
ろ	-9.68646
者の	-9.68704
k	-9.68732
際に	-9.68829
想像	-9.68878
安	-9.69153
無料で	-9.69178
の話	-9.69256
さんに	-9.69261
させていただきました	-9.69311
そ	-9.6933
p	-9.69371
建物	-9.69492
だけでも	-9.69536
合	-9.69579
わかる	-9.69643
わからない	-9.69649
全国	-9.69673
裏	-9.69702
物語	-9.69716
▁そう	-9.69741
業	-9.69767
これを	-9.69831
ど	-9.69842
聞いて	-9.69874
しているので	-9.69881
フリー	-9.69893
ですし	-9.69937
▁なので	-9.70032
野菜	-9.70035
▁[	-9.70079
産業	-9.70101
嬉しい	-9.7012
運用	-9.7016
生産	-9.70162
絶対に	-9.70215
ピ	-9.70249
買って	-9.70338
どのように	-9.70362
送信	-9.70403
感覚	-9.70511
ませんでした	-9.70515
O	-9.70535
赤	-9.70581
を受けた	-9.7082
設置	-9.70857
ボ	-9.70877
ヒ	-9.70887
れる	-9.70907
女性が	-9.71029
うちに	-9.7107
興味	-9.71116
スター	-9.7116
の問題	-9.71245
資金	-9.71381
b	-9.71384
言い	-9.71397
シーズン	-9.71563
限り	-9.71571
レストラン	-9.716
条	-9.71621
いつでも	-9.71631
と共に	-9.71637
組	-9.71658
ぶ	-9.71687
危険	-9.7169
@	-9.71714
リング	-9.71885
住所	-9.71996
構造	-9.72006
▁ここで	-9.72014
かかる	-9.72057
機関	-9.72083
長い	-9.72087
を利用する	-9.72126
将来	-9.72137
に対し	-9.72145
弁護士	-9.7222
にくい	-9.72227
コーヒー	-9.72301
ドル	-9.72301
最後の	-9.72316
適切な	-9.72353
歯	-9.72382
携帯	-9.72446
方に	-9.72484
みると	-9.7249
ハイ	-9.7264
っと	-9.72672
いても	-9.72692
とした	-9.72719
利用者	-9.72832
と言われる	-9.72841
実行	-9.72859
地震	-9.72898
巻	-9.72913
飲み	-9.73041
入れ	-9.73044
しまいました	-9.73168
されていない	-9.73187
持ち	-9.7325
させ	-9.73258
展示	-9.73284
発送	-9.73333
×	-9.73338
ぐ	-9.73373
書類	-9.73455
市民	-9.73511
ソ	-9.73514
保証	-9.73544
印刷	-9.73544
可能性があります	-9.73623
駐車場	-9.73641
付き	-9.73677
可能な	-9.7368
セックス	-9.7371
U	-9.73741
したいと思います	-9.73829
マッサージ	-9.73876
様に	-9.73924
向け	-9.73938
既に	-9.73982
新聞	-9.73991
2017	-9.74011
ないと	-9.74092
前から	-9.74115
時間は	-9.7415
動物	-9.74266
アルバム	-9.74301
が必要	-9.74312
高校	-9.74327
各種	-9.74393
のかな	-9.74409
雪	-9.74431
信頼	-9.74451
導入	-9.7449
シー	-9.74501
株	-9.74516
もない	-9.74575
いましたが	-9.74642
骨	-9.74683
300	-9.74689
クリニック	-9.74728
答え	-9.74731
仲間	-9.74781
予防	-9.74824
意見	-9.74834
制限	-9.74874
考える	-9.74895
まして	-9.75071
を見ると	-9.75131
スーパー	-9.7519
してしまった	-9.75214
観	-9.75226
事務所	-9.75258
そのような	-9.75385
予算	-9.75396
▁*	-9.75442
脳	-9.75525
ある程度	-9.75538
をはじめ	-9.75581
証拠	-9.75599
w	-9.7564
そうだ	-9.75691
言う	-9.75717
料	-9.75721
質	-9.75743
性格	-9.75765
I	-9.75799
相手の	-9.75805
サーバー	-9.75818
しまい	-9.75884
局	-9.75906
を含む	-9.75919
もちろん	-9.75927
▁それでも	-9.75942
なった	-9.75958
賞	-9.76049
疑問	-9.76092
丁寧に	-9.76093
せる	-9.76125
費	-9.76327
気に	-9.76349
弊社	-9.76423
どうぞ	-9.76449
午後	-9.76454
というもの	-9.76472
クレジットカード	-9.7651
書いた	-9.76524
90	-9.76601
ダウンロード	-9.7661
非	-9.76641
ことができました	-9.7665
最高	-9.76666
建築	-9.76691
その他	-9.76738
しかない	-9.76754
すべき	-9.76761
古	-9.76788
類	-9.76798
買い物	-9.7685
さま	-9.76885
それでも	-9.7692
普通の	-9.7699
だって	-9.77038
フル	-9.77044
うまく	-9.7715
探し	-9.77156
ラン	-9.7716
オリジナル	-9.77167
自分に	-9.77281
色々	-9.77299
当該	-9.77324
深い	-9.7733
とにかく	-9.77332
要素	-9.77333
ふ	-9.77337
しまいます	-9.7746
強く	-9.77521
だと思う	-9.77535
種類の	-9.77567
毎年	-9.77578
CD	-9.77609
言って	-9.77629
地域の	-9.77689
最初の	-9.77759
パターン	-9.77765
剤	-9.77808
系の	-9.7783
mm	-9.77921
▁他の	-9.77997
確実に	-9.78051
祭	-9.78081
コスト	-9.78152
分からない	-9.78174
専門	-9.78215
実践	-9.78233
ワン	-9.78253
あらゆる	-9.78309
ひと	-9.78351
のではなく	-9.78351
医師	-9.7838
母	-9.78393
作って	-9.78412
顧客	-9.78486
谷	-9.78507
ことでしょう	-9.7854
その他の	-9.78695
一人で	-9.78857
お問い合わせ	-9.78897
だけど	-9.78921
出し	-9.78963
まだまだ	-9.78987
栄養	-9.791
改めて	-9.79111
客	-9.79146
箱	-9.79187
相手に	-9.79194
回答	-9.79264
下記	-9.79286
であろう	-9.7931
▁確かに	-9.79312
トイレ	-9.79353
つき	-9.79357
としての	-9.7939
井	-9.79424
草	-9.79465
疲れ	-9.79472
利益	-9.79532
ようになった	-9.79569
ていて	-9.79592
することが	-9.79595
いたら	-9.79631
IT	-9.79648
影響	-9.79701
運転	-9.79746
士	-9.79769
終わり	-9.799
▁まあ	-9.7999
ご予約	-9.79997
不足	-9.80091
キャリア	-9.80154
込んで	-9.80191
中央	-9.8025
特別な	-9.80351
と思われる	-9.80356
を持ち	-9.80438
が無い	-9.80453
プラス	-9.80474
立ち	-9.80489
処分	-9.80519
ご相談	-9.8052
厳しい	-9.80531
ここに	-9.80552
チャンス	-9.80558
HP	-9.80617
無い	-9.80636
総合	-9.80638
者が	-9.80657
簡単な	-9.80742
みました	-9.80781
内で	-9.8079
してきました	-9.80849
▁今まで	-9.80895
軍	-9.80913
r	-9.80917
クリスマス	-9.80959
きます	-9.80986
校	-9.8101
結局	-9.81047
千	-9.81084
秋	-9.81103
波	-9.81124
議論	-9.81129
いません	-9.81135
ワイン	-9.81165
やる	-9.81211
便	-9.81225
浮気	-9.81234
申し込み	-9.81256
過去	-9.81301
来る	-9.81358
来た	-9.81363
してくれます	-9.81378
のだろう	-9.81395
四	-9.814
のだろうか	-9.81462
総	-9.81551
DVD	-9.81608
ベ	-9.8164
▁ここでは	-9.81687
製造	-9.81691
しやすい	-9.8173
に必要な	-9.81756
講師	-9.81762
ステージ	-9.81763
電気	-9.81781
監督	-9.81827
いますが	-9.81838
以前	-9.81845
げ	-9.819
じゃ	-9.81943
▁本当に	-9.81957
内に	-9.8206
のでしょう	-9.8206
を入れて	-9.82062
▁6	-9.82073
自動車	-9.82088
ストーリー	-9.8209
右	-9.82095
しなければならない	-9.82111
診断	-9.82166
co	-9.82171
感動	-9.82176
応募	-9.8219
せずに	-9.82241
のなら	-9.82255
スタート	-9.82312
編集	-9.82331
はまだ	-9.82338
園	-9.82344
話題	-9.82345
数字	-9.82427
修正	-9.8245
マー	-9.82473
しよう	-9.82488
気がします	-9.82624
ペ	-9.82683
続ける	-9.82688
相場	-9.82775
ここまで	-9.8284
URL	-9.82848
求人	-9.8286
演奏	-9.82883
血	-9.82887
責任	-9.82898
Google	-9.82962
使える	-9.82965
京都	-9.83009
生徒	-9.83018
する必要があります	-9.83019
▁これらの	-9.83111
の違い	-9.83116
方の	-9.8313
彼女	-9.83154
可能性	-9.8325
逆	-9.83263
るのは	-9.83289
のかもしれません	-9.83314
km	-9.83331
ロー	-9.83347
姿勢	-9.83374
全然	-9.83435
働き	-9.83453
するのが	-9.83461
ませ	-9.83486
だし	-9.83492
不倫	-9.83502
続けて	-9.8363
事例	-9.83633
ホーム	-9.83672
積極的に	-9.83789
笑顔	-9.83832
▁あと	-9.83866
認定	-9.83875
▁これが	-9.83884
後は	-9.83946
成	-9.83953
更に	-9.83981
合う	-9.83996
レンタル	-9.84022
食べ物	-9.8406
取得	-9.84093
居	-9.84129
比較	-9.84198
ボタン	-9.84216
タイトル	-9.84231
話を	-9.84231
安く	-9.84287
感謝	-9.84333
趣味	-9.84384
商品を	-9.84385
in	-9.84395
言語	-9.8448
▁こんな	-9.84585
といえば	-9.846
記	-9.84638
することは	-9.84648
機械	-9.84658
体の	-9.84661
刺激	-9.84718
被害	-9.8472
猫	-9.84745
に行った	-9.84752
思う	-9.84777
板	-9.84823
なんです	-9.84867
専用	-9.84869
オプション	-9.84879
徐々に	-9.84897
▁こんにちは	-9.84933
有名な	-9.84939
が出る	-9.84946
低	-9.84989
いま	-9.85014
道路	-9.85248
案内	-9.85291
共有	-9.85327
オンライン	-9.85339
の中には	-9.85396
美容	-9.85435
新規	-9.85446
十分	-9.85464
あなたは	-9.85507
チケット	-9.85526
感情	-9.85555
▁これから	-9.85634
セキュリティ	-9.85689
してくれた	-9.85697
始めた	-9.85746
の高い	-9.8575
サン	-9.85756
ております	-9.85836
が悪い	-9.85841
するには	-9.85841
を感じる	-9.85933
方法を	-9.85947
もう少し	-9.85977
可愛い	-9.86044
神社	-9.86058
五	-9.86081
今後の	-9.86086
にとっては	-9.86172
口コミ	-9.86202
回復	-9.86228
現場	-9.86269
l	-9.8627
が可能です	-9.86302
合い	-9.86304
そこまで	-9.8637
勤務	-9.86462
というか	-9.86517
加工	-9.86555
人気の	-9.86555
カット	-9.86586
請求	-9.86643
てくれる	-9.86799
ホ	-9.86824
家に	-9.86844
壁	-9.86887
週	-9.86892
食べて	-9.86915
に応じて	-9.86933
にならない	-9.86971
敵	-9.87057
なんと	-9.87063
記憶	-9.87099
妊娠	-9.87287
就職	-9.87291
jp	-9.87295
関係者	-9.87356
下記の	-9.87368
売り	-9.87407
協力	-9.87431
ありました	-9.87449
太	-9.87456
県	-9.87486
弾	-9.87568
▁7	-9.8759
端末	-9.87631
構成	-9.87638
▁“	-9.87687
小さい	-9.87734
ったり	-9.87862
いただけます	-9.87953
こちら	-9.87955
の際に	-9.87959
側	-9.88065
させて頂きます	-9.88178
普通に	-9.88197
35	-9.88203
をもって	-9.88278
機器	-9.88351
解説	-9.88354
女性は	-9.88498
ワ	-9.88523
についての	-9.88565
お願いします	-9.88574
なって	-9.88583
バイク	-9.88602
まったく	-9.88696
パートナー	-9.88876
メールアドレス	-9.8893
ようだ	-9.88944
満足	-9.88948
報道	-9.88968
左	-9.89162
アドレス	-9.89164
しません	-9.89175
八	-9.89177
知って	-9.89182
政治	-9.89191
u	-9.89211
キャンセル	-9.89263
最初に	-9.89329
アドバイス	-9.89364
いくら	-9.89418
手段	-9.89443
絶対	-9.89454
字	-9.89495
楽しみ	-9.89592
化粧品	-9.89671
自転車	-9.89671
利	-9.89715
出来ない	-9.89766
出演	-9.89771
古い	-9.89785
なのに	-9.89859
に入って	-9.89877
トップ	-9.89892
年以上	-9.899
比較的	-9.89907
リン	-9.8997
られ	-9.89982
自動	-9.89998
通知	-9.90003
通常	-9.90014
形で	-9.9006
h	-9.90079
を使用して	-9.9008
がありません	-9.90096
当日	-9.90098
完成	-9.90116
工場	-9.9012
訳	-9.90157
を超える	-9.90175
葉	-9.90246
恋	-9.90277
相	-9.90283
仕様	-9.90319
ビル	-9.9032
人を	-9.90329
元気	-9.90335
北海道	-9.9042
納得	-9.90421
屋さん	-9.90429
実際の	-9.90442
られない	-9.9045
指	-9.90452
季節	-9.90471
外国人	-9.90518
自由に	-9.90563
職場	-9.90632
さえ	-9.90671
すぎて	-9.90876
▁ちょっと	-9.9089
持って	-9.91027
つつ	-9.91046
スポット	-9.91064
診療	-9.9113
ご連絡	-9.91144
場所で	-9.9115
材料	-9.91193
データを	-9.91226
実績	-9.9128
の利用	-9.91309
夫	-9.91353
がありますが	-9.91415
するため	-9.91454
いたので	-9.91492
勝手に	-9.9151
してみました	-9.9153
デート	-9.91537
につきましては	-9.91591
キャラクター	-9.91592
具体的な	-9.91636
ないので	-9.91652
協会	-9.91665
人物	-9.91687
の方に	-9.91737
場所に	-9.91738
始め	-9.9178
達	-9.91808
とりあえず	-9.91823
変	-9.91838
見た	-9.91858
選び	-9.91863
日は	-9.91867
体制	-9.91882
いっぱい	-9.91883
自身の	-9.91885
ひとつ	-9.91889
肩	-9.91978
万人	-9.91996
普段	-9.9203
なんだ	-9.92041
米国	-9.92051
▁ぜひ	-9.92069
彼は	-9.9208
融資	-9.92128
キャッシング	-9.92149
無理	-9.92199
自分は	-9.92206
すごい	-9.92243
事情	-9.9225
きて	-9.92267
公演	-9.92306
インストール	-9.92306
テキスト	-9.92326
方法で	-9.9236
個人情報	-9.92362
の原因	-9.92406
ママ	-9.92407
タイプの	-9.92408
利用する	-9.9242
▁8	-9.9243
松	-9.92474
付	-9.9249
買い	-9.92545
かけて	-9.92558
最高の	-9.92574
を探す	-9.92603
戦略	-9.92623
提案	-9.92671
できるように	-9.92697
品質	-9.92719
心の	-9.92768
継続	-9.92842
サッカー	-9.92908
汚れ	-9.92977
ビデオ	-9.93001
レース	-9.93056
公式	-9.9306
早い	-9.93061
集	-9.93077
さんと	-9.9308
習慣	-9.93173
桜	-9.9318
人材	-9.93183
ラー	-9.93194
年生	-9.93199
必要がある	-9.932
決して	-9.93209
ビタミン	-9.93258
仕組み	-9.93261
旦那	-9.93351
秒	-9.93439
塩	-9.93453
動作	-9.93482
魅力	-9.93521
やり	-9.93556
もあるので	-9.9356
al	-9.93564
少ない	-9.93599
ID	-9.93602
重要	-9.93634
▁2016	-9.93649
大きい	-9.93712
アイ	-9.93717
州	-9.93729
にもかかわらず	-9.93806
緊張	-9.93872
割引	-9.93919
自分を	-9.94014
ときには	-9.94023
両	-9.94081
フォーム	-9.941
自ら	-9.94127
ということを	-9.94147
ミニ	-9.9417
人たち	-9.94205
そこで	-9.94238
旧	-9.94241
筋肉	-9.94267
記載	-9.94271
ますので	-9.94283
となっております	-9.9432
するか	-9.94345
ガス	-9.9436
なんとか	-9.94401
勝	-9.94444
国の	-9.9445
柄	-9.94456
婚活	-9.94537
自信	-9.94545
ギ	-9.94552
x	-9.94626
があると	-9.94661
は非常に	-9.94673
院	-9.94675
アート	-9.94731
働く	-9.94742
すぎる	-9.94754
バランス	-9.94775
ことができ	-9.94819
・・	-9.9484
増	-9.94874
の内容	-9.94899
可能です	-9.94921
得	-9.94942
のことを	-9.95018
表情	-9.95025
と言えます	-9.95041
をしています	-9.95058
を取り	-9.95112
日まで	-9.95113
☆	-9.95115
ではないでしょうか	-9.95215
政府	-9.95244
氏は	-9.95253
わけ	-9.95257
んだよ	-9.9527
にする	-9.95309
交渉	-9.95352
箇所	-9.95371
未	-9.95401
事業者	-9.95482
▁C	-9.95486
人には	-9.95556
下の	-9.95562
袋	-9.95593
となって	-9.95641
持っている	-9.95697
時点で	-9.95765
深く	-9.95781
向上	-9.95846
間違い	-9.95864
資産	-9.95872
いるので	-9.95895
こうした	-9.95959
一般的な	-9.9596
みたいです	-9.95995
残	-9.96017
ライフ	-9.96028
ガン	-9.96113
雑誌	-9.96114
者は	-9.96138
発行	-9.96143
昔	-9.96146
んだろう	-9.96183
シート	-9.96194
できるだけ	-9.96226
られて	-9.96523
お願い	-9.96583
になってしまいます	-9.96593
されること	-9.96603
られている	-9.96619
歳の	-9.9664
員	-9.96698
受け	-9.96709
乾燥	-9.96718
においては	-9.96753
ベッド	-9.96764
もらえる	-9.96792
固定	-9.96796
私たちの	-9.96898
いった	-9.9692
一つの	-9.96926
企業の	-9.96944
ルーム	-9.96945
岩	-9.97007
づくり	-9.97049
地球	-9.97111
ほどの	-9.9712
実現	-9.97169
明日	-9.97188
お知らせ	-9.97209
腕	-9.97239
交流	-9.97252
実際	-9.97272
できれば	-9.9729
町の	-9.97293
SNS	-9.97306
要	-9.97404
買う	-9.97417
▁ですから	-9.97423
しい	-9.97427
方法は	-9.97445
タイミング	-9.97489
した場合	-9.97493
月から	-9.97525
義	-9.97528
どうやって	-9.97605
ができます	-9.97642
汗	-9.97644
してもらう	-9.97722
再び	-9.97728
されない	-9.97746
ようになります	-9.97802
を持った	-9.97853
分野	-9.97865
べ	-9.97888
労働	-9.97932
以降	-9.97933
お金を	-9.97936
を紹介します	-9.97965
年から	-9.97984
ベスト	-9.97992
宿	-9.98079
国内	-9.98221
実験	-9.98234
特定	-9.9824
クリーム	-9.98305
様子	-9.98341
▁そういう	-9.98418
権利	-9.9846
早	-9.98478
世代	-9.9854
渡	-9.98546
返信	-9.98546
の中でも	-9.98591
極	-9.98601
にあった	-9.98608
国民	-9.98613
誰も	-9.98625
みましょう	-9.98641
ことが出来ます	-9.9865
弱	-9.98654
過ぎ	-9.98678
ホール	-9.98701
レポート	-9.98706
パーティー	-9.98715
しばらく	-9.9875
www	-9.98751
バンド	-9.98774
v	-9.98788
はかなり	-9.98834
アプリケーション	-9.9885
早めに	-9.98863
休み	-9.98868
ログイン	-9.98936
政策	-9.98997
半	-9.99009
科学	-9.99101
オフィス	-9.99123
皆	-9.99134
症	-9.99178
使っている	-9.99198
いなかった	-9.99203
強	-9.99274
建設	-9.99287
以外にも	-9.99315
民	-9.99394
章	-9.99398
▁ですが	-9.99404
姿	-9.9942
を行っています	-9.9942
カバー	-9.99437
▁12	-9.99441
ほか	-9.99455
完全に	-9.99475
▁昨日	-9.99492
がとても	-9.9951
私たち	-9.99582
距離	-9.99589
出張	-9.99662
テーブル	-9.99664
かけ	-9.99706
色々と	-9.99712
2000	-9.99716
在庫	-9.99729
皆様	-9.99757
▁あなたの	-9.99765
考え方	-9.99794
あたり	-9.99804
であること	-9.99845
べき	-9.99845
耳	-9.99847
別に	-9.9986
そもそも	-9.99947
省	-9.99985
以来	-10
ネタ	-10
ロック	-10.0002
に来て	-10.0004
を行っている	-10.0005
計	-10.0009
上記	-10.0011
億円	-10.0014
第一	-10.0017
▁それに	-10.0017
いつ	-10.0018
グッズ	-10.0018
鳥	-10.0019
植物	-10.002
スクール	-10.0022
特典	-10.0024
出来	-10.0025
向けの	-10.0025
ランチ	-10.0026
はあまり	-10.0035
パパ	-10.0036
新たに	-10.0036
できました	-10.0036
茶	-10.0038
国家	-10.0046
当時	-10.0047
合わせ	-10.0048
ところに	-10.0049
参加者	-10.0055
舞台	-10.0055
をご覧ください	-10.0066
冬	-10.0066
宇宙	-10.0067
方には	-10.0068
Q	-10.0068
キロ	-10.0068
記念	-10.0075
いると	-10.0079
層	-10.0079
に入る	-10.0079
近くの	-10.008
細胞	-10.0092
に行ってきました	-10.0092
留学	-10.0093
行き	-10.0096
要因	-10.0096
小説	-10.0097
油	-10.0098
地図	-10.0098
節	-10.01
ing	-10.0102
2016	-10.0104
詳しく	-10.0105
が一番	-10.0107
かった	-10.0108
知っている	-10.0115
平均	-10.0117
基本	-10.012
LINE	-10.0127
世界の	-10.0129
45	-10.0138
先輩	-10.0141
玉	-10.0142
▁僕は	-10.0145
それほど	-10.0153
▁ところが	-10.0155
出産	-10.0158
宿泊	-10.016
バッグ	-10.0163
全体の	-10.0172
幅	-10.0172
ほうが	-10.0175
案	-10.0175
バイト	-10.0177
に近い	-10.0179
手法	-10.0179
ネットで	-10.0182
の状態	-10.0184
挑戦	-10.0186
優しい	-10.0187
瞬間	-10.0187
なるべく	-10.019
看護師	-10.019
▁11	-10.019
の間	-10.0191
を取る	-10.0192
喜び	-10.0193
治	-10.0199
立場	-10.0201
彼女の	-10.0203
青	-10.0203
てる	-10.0205
見える	-10.0206
を買う	-10.0207
サプリメント	-10.021
角	-10.0211
の情報	-10.0211
僕の	-10.0212
こともある	-10.0217
を行いました	-10.022
運	-10.022
展	-10.022
整備	-10.0222
キーワード	-10.0228
まとめ	-10.0229
となると	-10.0231
▁これまで	-10.0236
用意	-10.0242
これからも	-10.0242
今年	-10.0246
対	-10.0252
▁_	-10.0253
つい	-10.0254
作った	-10.0259
知	-10.0263
首	-10.0264
on	-10.0266
のお	-10.0267
方針	-10.0268
▁今は	-10.0269
電	-10.0271
特定の	-10.0276
整理	-10.0279
定期的に	-10.028
聞き	-10.028
見学	-10.0281
お気軽に	-10.0289
そこから	-10.0292
リフォーム	-10.0292
する事	-10.0293
できなかった	-10.0294
支払い	-10.0299
を選んで	-10.0301
体重	-10.0307
場合もあります	-10.0312
報酬	-10.0316
私たちは	-10.0316
を目指す	-10.0318
筋	-10.0321
からも	-10.0325
ようにしましょう	-10.0327
メールで	-10.0328
▁一方	-10.0331
そんなに	-10.0338
スマートフォン	-10.0343
若い	-10.0344
段階	-10.0346
生きる	-10.0347
月の	-10.0348
なければなりません	-10.0348
分かる	-10.0352
職員	-10.0357
人間の	-10.036
ることができます	-10.0363
ります	-10.0364
の結果	-10.0366
の世界	-10.0366
ゼ	-10.0372
といいます	-10.0373
ボランティア	-10.0379
発見	-10.0388
ワーク	-10.0391
スキンケア	-10.0392
師	-10.0393
▁私	-10.0394
カードローン	-10.0398
ご紹介	-10.0399
目の	-10.04
▁9	-10.0401
が良い	-10.0402
込む	-10.0403
調	-10.0403
デメリット	-10.0404
シャ	-10.041
▁私たちは	-10.0412
シュ	-10.0419
ピアノ	-10.042
みた	-10.0422
▁日本の	-10.0423
ライト	-10.0424
▁以前	-10.0428
そうで	-10.0428
ぬ	-10.0437
連	-10.0437
つまり	-10.0441
そういった	-10.0452
空港	-10.0458
大丈夫	-10.0458
再度	-10.0463
Windows	-10.0465
これで	-10.0467
リリース	-10.0467
値段	-10.0471
拡大	-10.0473
よろしくお願いします	-10.0475
車両	-10.0476
が必要な	-10.0481
際	-10.0483
昨年	-10.0484
百	-10.0488
の高さ	-10.049
作る	-10.0491
▁それから	-10.0491
事で	-10.0496
焼き	-10.0499
発生	-10.0499
歩いて	-10.05
くれました	-10.0501
多少	-10.0504
▁B	-10.0505
解	-10.0506
バック	-10.0508
出発	-10.0512
▁そもそも	-10.0515
損	-10.0515
災害	-10.0518
縁	-10.0519
いただける	-10.0521
マーク	-10.0521
億	-10.0525
パワー	-10.0529
通販	-10.0532
なくなった	-10.0532
分け	-10.0533
内容を	-10.0534
職	-10.0535
速度	-10.0535
異なる	-10.0535
いくつかの	-10.054
サー	-10.0545
▁では	-10.0551
みる	-10.0554
'	-10.0559
アジア	-10.0562
電話番号	-10.0565
人数	-10.0568
がん	-10.0574
最終	-10.0576
CM	-10.0577
にしても	-10.0577
輪	-10.0578
許可	-10.0579
だろうか	-10.058
戸	-10.0583
教	-10.0585
切れ	-10.0587
ような気がします	-10.0587
だけでは	-10.059
先の	-10.0593
100%	-10.0595
普通	-10.0603
ビール	-10.0605
君	-10.0608
腰	-10.0612
▁たとえば	-10.0613
電子	-10.0615
画	-10.0616
範囲	-10.0617
たちが	-10.0619
一覧	-10.062
精神	-10.0621
るように	-10.0627
▁ありがとうございました	-10.0627
方々	-10.0631
らしく	-10.0634
にあります	-10.0637
卒業	-10.064
例えば	-10.0648
ものだ	-10.0652
ハウス	-10.0653
ぼ	-10.0654
二人	-10.0657
のもの	-10.0659
こんなに	-10.066
▁今日	-10.0661
雇用	-10.0665
福祉	-10.0674
霊	-10.0678
平和	-10.0681
香り	-10.0685
高く	-10.0685
シャツ	-10.0685
きっかけ	-10.069
湯	-10.0705
▁実際	-10.0708
or	-10.0708
▁最近は	-10.0713
WEB	-10.0715
発言	-10.0719
夫婦	-10.0719
派	-10.072
モード	-10.0721
▁これからも	-10.0722
の一部	-10.0723
名の	-10.0727
枠	-10.0728
おすすめの	-10.0728
吉	-10.0729
トン	-10.0729
▁P	-10.0732
嫌	-10.0734
だったり	-10.0735
複数	-10.0742
規制	-10.0744
なし	-10.0747
していますが	-10.0749
TV	-10.075
もありますが	-10.0758
タイ	-10.076
思考	-10.0763
楽しんで	-10.0765
キャラ	-10.0766
をしっかり	-10.0767
対処	-10.0768
という事	-10.0769
してみてください	-10.0771
ことが多い	-10.0771
▁やはり	-10.0771
消費	-10.0774
になってしまった	-10.0775
団	-10.0778
あれ	-10.0781
スタッフが	-10.0782
して下さい	-10.0786
と考えています	-10.0786
わけではない	-10.0787
チャレンジ	-10.0788
メイク	-10.0791
ット	-10.0793
だそうです	-10.0794
金利	-10.0797
有料	-10.0801
確かに	-10.0807
便利な	-10.0807
東京都	-10.0808
は何	-10.0809
怖い	-10.0813
入って	-10.0815
人口	-10.0815
空気	-10.0816
もらった	-10.0816
残り	-10.0816
▁ということで	-10.082
塾	-10.0826
完了	-10.0828
靴	-10.0833
可能性がある	-10.0833
していると	-10.0834
誰でも	-10.0841
なりました	-10.0843
が少ない	-10.0847
できて	-10.0848
車の	-10.0852
予定です	-10.0854
向き	-10.0856
つけ	-10.0857
たいと思います	-10.0857
消費者金融	-10.086
なります	-10.0863
おく	-10.0863
レビュー	-10.0864
少年	-10.0866
だよ	-10.0868
友人	-10.087
独自の	-10.0872
▁東京	-10.0873
▁今年は	-10.0873
アル	-10.0874
転	-10.0874
鉄道	-10.0878
お仕事	-10.0878
為に	-10.0879
の一つ	-10.0895
なあ	-10.0899
先生の	-10.0901
掲示板	-10.0902
恋人	-10.0904
を出す	-10.0914
コーナー	-10.0928
の大きさ	-10.0933
誰	-10.0933
高齢者	-10.0938
林	-10.0938
に入れて	-10.0939
らず	-10.0942
過去の	-10.0943
科	-10.0945
カン	-10.0947
睡眠	-10.0948
の間に	-10.0954
説	-10.0955
▁なぜ	-10.0958
オン	-10.096
▁詳しくは	-10.0966
日本で	-10.0969
市で	-10.0975
こともあり	-10.0977
twitter	-10.098
簡単	-10.0981
自宅	-10.0988
良	-10.0988
を見た	-10.0993
異常	-10.0993
商品の	-10.1
携帯電話	-10.1007
経営者	-10.1008
と思われます	-10.1022
堂	-10.1031
を考えて	-10.1037
しないと	-10.1038
官	-10.1042
打ち	-10.1045
大事な	-10.1048
頃	-10.1049
尾	-10.1049
スケジュール	-10.1053
▁自分が	-10.1058
こともできます	-10.1061
生まれ	-10.1065
理由は	-10.1067
▁それを	-10.107
場面	-10.1071
Z	-10.1072
当時の	-10.1073
やっと	-10.1073
決済	-10.1075
だけです	-10.1077
こういった	-10.1086
バージョン	-10.109
に比べて	-10.1091
書籍	-10.1097
▁これで	-10.1097
急に	-10.1104
パッケージ	-10.1106
やっている	-10.1108
最後に	-10.1109
ショー	-10.1109
子供の	-10.111
工夫	-10.1112
メンテナンス	-10.1116
える	-10.1116
▁各	-10.1122
おいしい	-10.1123
ケーキ	-10.1128
ソフトウェア	-10.1129
感染	-10.1132
日記	-10.1134
落ち	-10.1138
まさに	-10.1138
認証	-10.1143
がいる	-10.1146
通常の	-10.1151
読む	-10.1152
だな	-10.1154
をつけて	-10.1155
マーケティング	-10.1155
つく	-10.1156
ミス	-10.1156
話し	-10.1157
僕	-10.1157
時まで	-10.1162
からね	-10.1165
オススメ	-10.1169
がありますので	-10.1172
もう一度	-10.1174
男女	-10.1175
基本的に	-10.1177
楽しめる	-10.1177
ボール	-10.1179
の変化	-10.118
と言っても	-10.1181
▁大	-10.1182
訓練	-10.1183
職業	-10.1184
わけで	-10.1186
」、「	-10.119
ようやく	-10.1191
思った	-10.1195
取り組み	-10.1198
代表	-10.1199
か月	-10.1202
食材	-10.1206
信	-10.1206
するという	-10.1208
人が多い	-10.121
突然	-10.1214
理	-10.1216
把握	-10.1221
▁とても	-10.1224
▁T	-10.1224
保管	-10.1224
が出てくる	-10.1225
ではありますが	-10.1225
回数	-10.1231
間に	-10.1235
主に	-10.1236
出会い系	-10.1239
等で	-10.1243
を考える	-10.1245
専門家	-10.1256
売	-10.1257
手数料	-10.1261
新しく	-10.1262
里	-10.127
に参加	-10.1271
>	-10.1276
お話し	-10.1279
事項	-10.1287
娘	-10.1287
女の子	-10.1291
もらって	-10.1293
ところです	-10.1294
批判	-10.1295
パス	-10.1297
マイ	-10.1297
ブロック	-10.1305
髪	-10.1306
像	-10.131
わけではありません	-10.1315
よろしくお願いいたします	-10.1323
▁だが	-10.1328
Twitter	-10.1329
どういう	-10.133
閲覧	-10.1332
のほうが	-10.1338
背景	-10.1338
車で	-10.1345
鼻	-10.1346
サイトの	-10.1348
毎月	-10.1356
滞在	-10.1359
しようと	-10.136
神経	-10.1362
借金	-10.1364
エル	-10.1366
▁こちらの	-10.1367
情報が	-10.1371
出会い系サイト	-10.1376
見られる	-10.1377
▁いや	-10.1381
の仕事	-10.1381
ご来店	-10.1389
面接	-10.139
くらいの	-10.1393
肌に	-10.1393
定	-10.1394
スピード	-10.1395
委員会	-10.1395
ペット	-10.1398
沢	-10.1401
出した	-10.1407
荷物	-10.1407
信用	-10.1416
飲む	-10.1417
患者	-10.1418
を楽しむ	-10.1418
みてください	-10.1421
ようになる	-10.1421
発展	-10.1422
何とか	-10.1425
▁M	-10.1425
停止	-10.143
ブラック	-10.1432
ダンス	-10.1432
頂き	-10.1433
連携	-10.1434
いう	-10.1435
カウンセリング	-10.144
奥	-10.1441
ニー	-10.1442
アルバイト	-10.1447
編	-10.1457
電子書籍	-10.1458
回目	-10.1458
余裕	-10.1461
世	-10.1463
良かったです	-10.1465
なのだ	-10.1466
を求める	-10.1466
ご購入	-10.1466
投票	-10.1474
父	-10.1475
子供が	-10.148
深	-10.148
時計	-10.1485
犯罪	-10.1486
re	-10.1491
を紹介	-10.1498
ご飯	-10.15
時間帯	-10.1506
と同じように	-10.1508
ボックス	-10.1511
森	-10.1514
してます	-10.1515
色の	-10.1521
証明	-10.1526
お茶	-10.1527
48	-10.1528
してみましょう	-10.153
▁他にも	-10.153
▁最後に	-10.153
大手	-10.1531
頂いた	-10.1533
言えば	-10.1533
乗り	-10.1537
ことによって	-10.1537
▁Q	-10.1538
卵	-10.1539
にも関わらず	-10.1541
になりたい	-10.1546
と思ったら	-10.1548
有名	-10.1549
地区	-10.1554
パスワード	-10.1555
本当の	-10.1556
入院	-10.1557
るような	-10.1558
沖縄	-10.1559
級	-10.1561
何度か	-10.1563
清	-10.1564
と考える	-10.1564
規定	-10.1565
日常	-10.1569
と思っていた	-10.1573
がたくさん	-10.1575
してしまいました	-10.1581
明らかに	-10.1581
シミ	-10.1583
綺麗な	-10.1584
現金	-10.1585
学び	-10.1585
出して	-10.1586
申込	-10.159
好	-10.1593
近	-10.1604
ほ	-10.1608
自動的に	-10.1608
▁何	-10.1609
お得な	-10.161
使用する	-10.1611
っています	-10.1613
お休み	-10.1615
同時に	-10.1616
サプリ	-10.1617
最新の	-10.1618
と言えば	-10.1619
してほしい	-10.162
モバイル	-10.162
今年は	-10.1621
イラスト	-10.1625
担当者	-10.1626
進化	-10.1628
完全	-10.163
からだ	-10.163
ようですが	-10.163
どうして	-10.1631
オフ	-10.1635
▁こうした	-10.1637
相続	-10.1637
かわいい	-10.1644
検証	-10.1647
アーティスト	-10.1649
十分な	-10.1658
ダメ	-10.1658
てしまいました	-10.1661
ノート	-10.1661
私に	-10.1673
取	-10.1675
会社に	-10.1677
っていう	-10.1681
道具	-10.1685
インド	-10.1686
年代	-10.1687
サーバ	-10.1691
着物	-10.1694
に合った	-10.1696
てくる	-10.1697
相当	-10.17
掛け	-10.17
もあった	-10.1703
ch	-10.1703
やり方	-10.1703
現象	-10.1704
断	-10.1706
別途	-10.1715
ライ	-10.1718
デジタル	-10.1719
キッチン	-10.1725
配送	-10.1728
冊	-10.173
扱い	-10.1732
義務	-10.1732
場合がございます	-10.1736
ジャ	-10.1736
使い方	-10.1739
▁本日	-10.174
雲	-10.1741
▁2015	-10.1741
今後も	-10.1742
久	-10.1743
どれだけ	-10.1746
言った	-10.1751
コピー	-10.1755
をお	-10.1757
だけに	-10.1761
カル	-10.1761
長期	-10.1763
ことになる	-10.1766
とされています	-10.1769
の設定	-10.1769
税	-10.177
志	-10.1772
問い合わせ	-10.1775
体調	-10.1776
家で	-10.1777
すら	-10.1778
リーダー	-10.1778
床	-10.1781
昨日	-10.1784
行政	-10.1786
現状	-10.1786
コントロール	-10.1787
いわゆる	-10.1787
アンケート	-10.1791
したこと	-10.1797
ことにより	-10.1802
そちら	-10.1803
釣り	-10.1803
てきました	-10.1809
シェア	-10.1809
→	-10.181
▁https	-10.1811
一気に	-10.1815
感想	-10.182
最近は	-10.1821
ものである	-10.1824
警察	-10.1827
罪	-10.1831
を買って	-10.1831
頂きました	-10.1837
的には	-10.1839
装置	-10.184
聞く	-10.184
デビュー	-10.1842
ファ	-10.1842
プロセス	-10.1843
泊	-10.1849
おそらく	-10.185
▁当社は	-10.1855
に向かって	-10.1863
いくつか	-10.1863
初心者	-10.1864
広く	-10.1866
要求	-10.1866
年前	-10.1866
従業員	-10.1869
上げ	-10.1876
まるで	-10.1878
ブル	-10.1879
お届け	-10.1882
券	-10.1884
金融機関	-10.1892
家具	-10.1892
▁今年も	-10.1892
標準	-10.1895
ゆ	-10.1897
円で	-10.19
がなく	-10.19
広い	-10.1901
したもの	-10.1903
クリア	-10.1905
第二	-10.1906
人間関係	-10.1908
副作用	-10.1908
主張	-10.1908
とはいえ	-10.1918
鉄	-10.192
気持ちが	-10.1926
の流れ	-10.1928
最後まで	-10.1931
体に	-10.1932
ウェブサイト	-10.1934
程度の	-10.1938
無事	-10.1938
▁http	-10.1946
いって	-10.1948
ガイド	-10.1948
事態	-10.1953
項	-10.1954
型の	-10.1961
したのは	-10.1961
指摘	-10.1961
窓	-10.1965
▁当	-10.1966
デバイス	-10.1966
ソン	-10.1966
シングル	-10.1972
日本に	-10.1974
が出て	-10.1976
意外と	-10.1981
▁とはいえ	-10.1981
無事に	-10.1983
と言われている	-10.1986
位置	-10.1986
中には	-10.1987
派遣	-10.1996
気がする	-10.1998
▁どんな	-10.2002
られます	-10.2004
製	-10.2006
ゲ	-10.2006
現代	-10.2009
を購入する	-10.2012
施工	-10.2013
あらかじめ	-10.2018
読者	-10.2021
側の	-10.2025
と感じる	-10.2029
お客さん	-10.2031
貴重な	-10.2033
患者さん	-10.2035
周りの	-10.2036
切	-10.2037
フィ	-10.2042
術	-10.2042
価値観	-10.2043
宗教	-10.2043
をよく	-10.2044
辛い	-10.2045
▁こちらは	-10.2045
掃除	-10.205
と言った	-10.2052
に変更	-10.2059
走	-10.2062
という言葉	-10.2063
詳細	-10.2063
をお願いします	-10.2065
受験	-10.2066
が大きい	-10.2067
彼	-10.2071
頻繁に	-10.2071
経	-10.2076
息子	-10.2094
をしたり	-10.2094
都	-10.2096
しなかった	-10.2097
といっても	-10.2099
スタジオ	-10.2101
るので	-10.2102
を目指して	-10.2106
が違う	-10.2108
態度	-10.2108
を知る	-10.2112
話す	-10.2115
の写真	-10.2115
開	-10.2119
現在は	-10.2119
のかもしれない	-10.2119
タン	-10.2125
プロフィール	-10.2128
を探して	-10.2132
ゼロ	-10.2135
しまうと	-10.2143
本日	-10.2144
だという	-10.2148
たちは	-10.215
いき	-10.2154
送料	-10.2155
禁止	-10.2155
▁これを	-10.2156
っていた	-10.2156
クライアント	-10.2157
サンプル	-10.2157
過	-10.2159
人がいる	-10.2162
引	-10.2166
状	-10.2169
駅から	-10.2169
最適な	-10.217
いや	-10.2173
路	-10.2177
しますが	-10.2177
どこに	-10.2182
発信	-10.2183
色んな	-10.2186
傾向	-10.2188
素	-10.2198
製作	-10.2202
ニキビ	-10.2204
到着	-10.2204
ることで	-10.2205
が高く	-10.2205
ちょっとした	-10.2205
わたし	-10.2207
の記事	-10.2212
地元	-10.2213
400	-10.2215
をしていた	-10.2216
もいい	-10.2217
難	-10.222
出来事	-10.222
がよく	-10.2222
マイナス	-10.2225
出力	-10.2226
ろう	-10.2228
ベース	-10.2235
調べて	-10.2237
の上に	-10.2242
意	-10.2246
▁ここ	-10.2247
収納	-10.226
書く	-10.2261
反対	-10.2266
手間	-10.2266
一年	-10.2268
近い	-10.2269
年収	-10.2269
名古屋	-10.2273
鍵	-10.2273
サイトで	-10.2274
美術館	-10.2274
セフレ	-10.2275
選択肢	-10.2276
ック	-10.2277
キャ	-10.2277
ドレス	-10.2278
軽	-10.2278
する方法	-10.2278
しておく	-10.2281
エンジン	-10.2281
OS	-10.2283
の特徴	-10.2288
言うと	-10.2289
ご案内	-10.2289
▁少し	-10.2292
の種類	-10.2293
てしまい	-10.2295
先日	-10.2303
残念ながら	-10.2304
▁ご	-10.2305
喜んで	-10.2306
の良さ	-10.2311
お菓子	-10.2312
関	-10.2314
プール	-10.232
▁まぁ	-10.2323
......。	-10.2324
があったので	-10.2324
返	-10.2326
いただきます	-10.2327
相手が	-10.2328
財産	-10.2337
勇気	-10.234
目を	-10.2345
an	-10.2354
▁最初は	-10.2359
消費者	-10.2359
不思議な	-10.236
受信	-10.236
便利	-10.2362
ゴルフ	-10.2363
なのでしょうか	-10.2364
電車	-10.2365
なん	-10.2366
ことが大切です	-10.2366
証	-10.2368
が出来る	-10.237
写真を	-10.2372
全員	-10.2374
口座	-10.2378
▁逆に	-10.238
効果が	-10.238
2015	-10.238
ヨーロッパ	-10.2382
とさせていただきます	-10.2382
の使用	-10.2384
になること	-10.2389
ご協力	-10.2391
アプローチ	-10.2401
手を	-10.2408
▁★	-10.2409
お電話	-10.2411
自然と	-10.2411
になりますが	-10.2417
やりたい	-10.242
タグ	-10.242
を取って	-10.2422
取材	-10.2424
特	-10.2425
▁F	-10.2426
それに	-10.2432
高さ	-10.2433
翻訳	-10.2434
坂	-10.2435
でもある	-10.2435
嬉しいです	-10.2436
豊かな	-10.2438
際には	-10.2443
注目	-10.2447
しますので	-10.2451
途中で	-10.2451
便利です	-10.2452
リア	-10.2453
ようと	-10.2456
一定の	-10.2457
▁こういう	-10.2459
段	-10.246
庭	-10.2461
▁毎日	-10.2464
年には	-10.2464
ことはありません	-10.2473
防止	-10.2474
現	-10.2475
虫	-10.2476
ることができる	-10.2477
仲	-10.2478
フランス	-10.2483
というような	-10.2484
方向	-10.2485
ベル	-10.2487
子育て	-10.2489
パーツ	-10.2489
いたり	-10.249
出てくる	-10.2493
するように	-10.2496
くれ	-10.25
事務	-10.2502
ゴミ	-10.2504
等を	-10.2506
ご家族	-10.2509
税金	-10.2511
最初は	-10.2512
優勝	-10.2514
脂肪	-10.2518
がいい	-10.2524
日程	-10.2525
情報は	-10.2528
歩き	-10.2529
効果がある	-10.2531
抜け	-10.2531
ことだ	-10.2531
を使用する	-10.2536
ヨガ	-10.2536
させた	-10.2538
合格	-10.2539
英	-10.2539
願い	-10.254
のである	-10.2545
約束	-10.2547
においても	-10.255
ヌ	-10.2553
▁それでは	-10.2555
上司	-10.2559
ar	-10.2559
してしまいます	-10.2561
ご参加	-10.2565
場合に	-10.2567
くれて	-10.2569
の前に	-10.2575
オイル	-10.2576
場合でも	-10.2578
コンビニ	-10.2579
基礎	-10.258
するためには	-10.2581
おいて	-10.2581
回目の	-10.2581
本当	-10.2585
コンサート	-10.2588
中止	-10.2589
に合わせた	-10.2593
ということが	-10.2595
の変更	-10.2602
en	-10.2602
が強い	-10.2607
回り	-10.2611
をもとに	-10.2613
あなたに	-10.2614
評判	-10.2615
接	-10.2615
小学校	-10.2617
は無い	-10.2619
ゲスト	-10.2619
毎回	-10.2621
カレー	-10.2627
いずれ	-10.2628
をかけて	-10.2629
アップデート	-10.2636
ご相談ください	-10.2646
造	-10.2651
男性が	-10.2655
サイン	-10.266
エントリー	-10.266
日より	-10.266
▁1.	-10.2671
芸術	-10.2671
れない	-10.2676
一体	-10.2676
横浜	-10.2677
次第	-10.2678
エン	-10.2679
オー	-10.2679
専用の	-10.268
作用	-10.2684
▁同じ	-10.2686
肌の	-10.2693
生き	-10.2695
好み	-10.2697
開業	-10.2698
今でも	-10.2702
医	-10.2702
見た目	-10.2702
性能	-10.2703
アメリカの	-10.2703
の仕方	-10.2707
わずか	-10.2707
を出して	-10.271
レンズ	-10.2711
バン	-10.2711
出る	-10.2715
周辺	-10.2724
してくる	-10.2726
農業	-10.2728
香	-10.2729
胸	-10.2732
を行った	-10.2733
みんなで	-10.2735
想い	-10.2737
ができない	-10.2739
幅広い	-10.2742
されていました	-10.2745
メイン	-10.2745
一部の	-10.2747
ごと	-10.2749
列	-10.275
かもしれませんね	-10.2752
できること	-10.2753
眼	-10.2753
関心	-10.2755
もあって	-10.2756
可	-10.2756
返品	-10.2762
大きさ	-10.2762
と同時に	-10.2763
le	-10.2766
の良い	-10.277
it	-10.277
聖	-10.2775
でもあります	-10.2779
児童	-10.2783
界	-10.2787
仮想通貨	-10.2787
を使い	-10.2789
の向上	-10.2791
はある	-10.2793
副業	-10.2799
受	-10.2799
▁あなたが	-10.2801
セール	-10.2802
詰め	-10.2802
群	-10.2802
動く	-10.2805
今では	-10.2806
僕が	-10.2811
離	-10.2816
本人	-10.2817
政	-10.2817
期限	-10.2819
選ぶ	-10.2829
七	-10.283
でございます	-10.2836
すぎ	-10.2836
最大の	-10.2837
の時間	-10.2837
ちょうど	-10.2838
電源	-10.2839
現地	-10.2844
できるので	-10.2847
からこそ	-10.2857
のようなもの	-10.2857
ダウン	-10.286
を行って	-10.286
に入った	-10.2862
大型	-10.2863
モン	-10.2867
を変える	-10.287
証明書	-10.2874
腹	-10.2881
むしろ	-10.2882
社長	-10.2884
顔を	-10.2885
嘘	-10.2885
は約	-10.2888
ゆっくりと	-10.289
半分	-10.289
ペン	-10.289
JR	-10.2892
お母さん	-10.2892
調べ	-10.2895
ものに	-10.2896
具体的に	-10.2898
風景	-10.2899
津	-10.2899
選挙	-10.29
被害者	-10.2902
▁その他	-10.2904
材	-10.2905
沢山の	-10.2909
物を	-10.2911
飲んで	-10.2915
菌	-10.2915
報	-10.292
秘密	-10.2924
につき	-10.2927
配慮	-10.2929
何でも	-10.293
野球	-10.293
上記の	-10.2932
をし	-10.2938
観光客	-10.294
シャンプー	-10.2942
kg	-10.2945
ありますが	-10.2955
事に	-10.2957
我慢	-10.2957
人もいる	-10.2963
選	-10.2964
ロシア	-10.2966
なんだか	-10.2967
生地	-10.2973
何が	-10.2974
ことが可能です	-10.2974
議員	-10.2975
散歩	-10.2978
十	-10.2979
誌	-10.2982
▁2.	-10.2986
指示	-10.2987
技	-10.2988
通勤	-10.2988
ことにしました	-10.2994
文書	-10.2996
江	-10.3004
走り	-10.3011
アレルギー	-10.3013
感じる	-10.3014
脱	-10.3015
いたのですが	-10.3016
視聴	-10.3018
ていきます	-10.3019
たった	-10.302
パック	-10.3023
一回	-10.3025
コミュニティ	-10.3027
ヨ	-10.3027
▁それで	-10.3028
▁20	-10.303
保	-10.3031
ドイツ	-10.3032
はほとんど	-10.3039
やった	-10.3041
領域	-10.3042
摂取	-10.3043
ように思います	-10.3045
羽	-10.3046
酵素	-10.3047
エラー	-10.3048
メモ	-10.3048
としたら	-10.305
の意味	-10.305
を利用した	-10.305
なかったので	-10.3051
する場合	-10.3053
京	-10.3055
樹	-10.3056
疾患	-10.3057
まとめて	-10.3058
クラ	-10.3059
受講	-10.3061
ユーザ	-10.3063
外部	-10.3065
彼氏	-10.3067
もらい	-10.3067
正直	-10.3068
されていて	-10.3076
個人の	-10.3076
当たり前	-10.3081
金融	-10.3084
していましたが	-10.3086
お酒	-10.3091
を知って	-10.3091
りました	-10.3094
午前	-10.3096
急	-10.3096
お問い合わせください	-10.3099
ハン	-10.3101
であって	-10.3104
プライベート	-10.3108
になるので	-10.3112
部品	-10.3113
してくれました	-10.3114
物質	-10.3115
▁今後	-10.3116
の歴史	-10.3117
PS	-10.312
止め	-10.3125
るか	-10.3126
ブラ	-10.3127
想定	-10.3129
やすく	-10.313
たので	-10.3131
管	-10.3138
進	-10.3138
レス	-10.3151
は一切	-10.3152
異	-10.3152
などと	-10.3159
音声	-10.3159
年前に	-10.316
Fi	-10.3162
ラーメン	-10.3162
大変な	-10.3164
ことなく	-10.3171
解釈	-10.3174
パート	-10.3174
▁次に	-10.3175
減少	-10.3177
退職	-10.3181
ているので	-10.3182
ものではありません	-10.3185
お友達	-10.3191
パー	-10.3192
が必要になります	-10.3193
子どもの	-10.3194
女性に	-10.3195
個性	-10.3195
手軽に	-10.3197
私には	-10.32
するような	-10.3204
脚	-10.3206
ガラス	-10.3208
買った	-10.3208
天気	-10.3209
ずつ	-10.3213
▁多くの	-10.3215
ロード	-10.3217
布	-10.3223
しかも	-10.3224
AI	-10.3225
風邪	-10.3227
初めての	-10.3231
心を	-10.3232
st	-10.3232
ことが出来る	-10.3232
不満	-10.3234
▁ありがとうございます	-10.3234
活動を	-10.3236
▁新	-10.3236
交通	-10.3236
になれば	-10.3237
充電	-10.3238
シン	-10.324
心が	-10.3241
記述	-10.3244
友	-10.3251
▁あなたは	-10.3252
痛	-10.3257
頂く	-10.3258
共同	-10.3258
ルート	-10.3259
アイドル	-10.3261
参考	-10.3263
32	-10.3271
宣伝	-10.3272
ドライブ	-10.3277
かなりの	-10.3277
替え	-10.3281
忘れ	-10.3283
を聞いて	-10.3285
前後	-10.3286
上昇	-10.3294
いろいろと	-10.3295
氏の	-10.3299
動か	-10.3299
今日の	-10.3299
実感	-10.3302
マップ	-10.3307
形式	-10.3307
全体	-10.3311
白い	-10.3319
ことができない	-10.332
の影響	-10.3322
大切に	-10.3323
という話	-10.3325
代の	-10.3326
講演	-10.3327
アパート	-10.3331
安定	-10.3332
雑	-10.3332
集団	-10.3337
生活を	-10.3337
致しました	-10.3338
加	-10.334
基本的な	-10.3344
糖尿病	-10.3344
▁すると	-10.3346
てください	-10.3347
忙しい	-10.3351
待って	-10.3351
承認	-10.3353
在	-10.3358
れた	-10.3364
ぶり	-10.3364
お子様	-10.3365
すっかり	-10.3368
ご希望	-10.3376
男性の	-10.3377
▁同	-10.3378
破	-10.3379
▁何か	-10.3379
収録	-10.338
もらいました	-10.338
言	-10.3381
出版	-10.3382
ころ	-10.3383
みなさん	-10.3388
高校生	-10.3388
振り	-10.3391
それだけ	-10.3393
トリ	-10.3393
台風	-10.3393
絶	-10.3396
つか	-10.3396
ソース	-10.3397
越	-10.3397
なんで	-10.3399
以上に	-10.34
広	-10.3401
につながる	-10.3402
債務整理	-10.3402
諸	-10.3405
▁とにかく	-10.3405
バラ	-10.3406
いること	-10.3407
お付き合い	-10.3407
SIM	-10.341
ドア	-10.3417
ゴール	-10.3418
体が	-10.3419
畑	-10.3419
推進	-10.342
レイ	-10.3423
ブルー	-10.3423
俺	-10.3426
続く	-10.3427
地元の	-10.3428
球	-10.3429
細かい	-10.3431
少女	-10.3433
今度は	-10.3435
常識	-10.3437
チン	-10.3437
流行	-10.344
結	-10.344
アイデア	-10.344
スムーズに	-10.3443
リーグ	-10.3445
も多い	-10.3446
さない	-10.3449
片	-10.3452
生きている	-10.3454
Amazon	-10.3457
豊富な	-10.3457
の際は	-10.3465
しておきましょう	-10.3466
ジェ	-10.3471
昼	-10.3474
効率	-10.3474
どこか	-10.3477
するだけで	-10.3477
上手く	-10.3484
視	-10.3486
引越し	-10.3486
回収	-10.3486
やら	-10.3491
際は	-10.3491
薄毛	-10.3493
乱	-10.3503
お腹	-10.3504
そのもの	-10.3504
みます	-10.3508
優れた	-10.3509
達成	-10.3511
の為に	-10.3514
ご連絡ください	-10.3515
来ました	-10.3516
給与	-10.3521
湖	-10.3522
日本では	-10.3523
が発生する	-10.3525
ロン	-10.3528
他にも	-10.353
手順	-10.3531
港	-10.3535
▁彼は	-10.3536
どこ	-10.3537
しなければなりません	-10.3542
武	-10.3543
行事	-10.3544
ざ	-10.3554
お勧め	-10.3557
バッテリー	-10.3564
オーダー	-10.3567
▁とりあえず	-10.3568
▁そのような	-10.3569
永	-10.3571
お客様が	-10.3572
景色	-10.3575
なお	-10.3577
を始める	-10.3577
独立	-10.358
の声	-10.358
開示	-10.3582
▁なぜなら	-10.3582
彼が	-10.3583
に行きました	-10.3585
低い	-10.3585
ご意見	-10.3585
ファイルを	-10.3589
主義	-10.3592
コンピュータ	-10.3593
方を	-10.3593
とのことです	-10.3593
でしょ	-10.3602
その場で	-10.3609
を使っている	-10.3613
大好きな	-10.3614
z	-10.3614
以外	-10.3621
経過	-10.3624
男性は	-10.3625
入学	-10.3626
回の	-10.3629
これまでの	-10.3629
が可能	-10.3631
たちの	-10.3633
配布	-10.3639
体力	-10.3642
魅力的な	-10.3642
ラジオ	-10.3646
Facebook	-10.3648
守	-10.3651
解約	-10.3653
時間に	-10.3662
くれます	-10.3671
反	-10.3672
竹	-10.3672
大学の	-10.3673
クラウド	-10.3679
変わる	-10.368
プレー	-10.3683
彼女は	-10.3685
休日	-10.369
ご質問	-10.3691
だからこそ	-10.3693
成果	-10.3693
神様	-10.3696
裁判	-10.3702
予測	-10.3703
始める	-10.3707
打	-10.3707
わざわざ	-10.3709
を経て	-10.3713
』(	-10.3714
どちら	-10.3714
46	-10.372
引っ越し	-10.3723
進んで	-10.3724
ワークショップ	-10.3725
ご要望	-10.3727
しまって	-10.3729
失	-10.3731
本体	-10.3734
牛	-10.3735
ピン	-10.3736
様の	-10.3739
面倒	-10.3741
仕上げ	-10.3747
してみると	-10.375
案件	-10.375
図書館	-10.3752
他に	-10.3752
飛行機	-10.3752
今年も	-10.3755
手に	-10.3756
込んだ	-10.3758
崎	-10.3759
も可能です	-10.3761
短い	-10.3763
涙	-10.3768
カップル	-10.3769
屋根	-10.3771
なくなります	-10.3772
できるよう	-10.3773
ドリンク	-10.3776
カ月	-10.3777
車を	-10.3782
した上で	-10.3784
中です	-10.3788
何らかの	-10.3791
仕事が	-10.3796
なっている	-10.3796
を見つけて	-10.38
数は	-10.3801
同じような	-10.3801
が大きく	-10.3802
以外に	-10.3804
それで	-10.3804
が欲しい	-10.3807
ッと	-10.3811
試	-10.3815
時間の	-10.3815
数値	-10.3816
のまま	-10.3816
だったのですが	-10.3816
作品を	-10.3818
大学生	-10.3819
息	-10.3819
ニュー	-10.3821
をすると	-10.3821
を読んで	-10.3822
少なくとも	-10.3828
という気持ち	-10.383
動	-10.3832
▁H	-10.3835
保湿	-10.3837
の皆様	-10.3838
自然に	-10.3839
自体は	-10.3841
なんとなく	-10.3841
時代の	-10.3847
自身	-10.3853
適用	-10.3858
維持	-10.3858
ヴィ	-10.3862
ってこと	-10.3865
ロボット	-10.3865
の販売	-10.3866
世の中	-10.3867
のようです	-10.3868
置いて	-10.3871
ますます	-10.3872
立て	-10.3875
の活動	-10.3878
ナー	-10.3881
なんですが	-10.3882
人間が	-10.3883
取って	-10.3886
の名前	-10.3887
内容は	-10.3894
改正	-10.3896
は本当に	-10.3897
と言われ	-10.3897
セッション	-10.3899
杯	-10.3902
賃貸	-10.3904
もらいたい	-10.3906
妹	-10.3908
▁しかしながら	-10.3912
生きて	-10.3912
に関わる	-10.3913
パフォーマンス	-10.3914
フード	-10.3914
払い	-10.3915
▁結局	-10.3917
ならない	-10.3922
機種	-10.3929
課	-10.3929
解消	-10.3933
使った	-10.3936
に出	-10.3936
という方は	-10.3936
お待ちしております	-10.3944
子どもたち	-10.3946
の治療	-10.3949
行きたい	-10.3952
測定	-10.3954
はこの	-10.3958
男子	-10.3962
のお店	-10.3966
復活	-10.3967
クロ	-10.3978
お試し	-10.398
と思うので	-10.398
することを	-10.398
アー	-10.398
ニーズ	-10.3982
集中	-10.3988
ランド	-10.3989
あれば	-10.3991
学会	-10.3992
ジャパン	-10.3994
心から	-10.3994
覚え	-10.3999
決め	-10.4001
サイ	-10.4003
みてはいかがでしょうか	-10.4004
乗	-10.4006
事も	-10.4008
最	-10.4011
待ち	-10.4014
当店	-10.4015
先生が	-10.4019
教えて	-10.4021
なぜか	-10.4022
ありがとう	-10.4022
に加えて	-10.4023
el	-10.4023
に基づき	-10.4024
池	-10.4026
を感じ	-10.4028
まあ	-10.4034
に伴い	-10.4034
参考に	-10.4035
に加え	-10.4035
明治	-10.4037
それなりに	-10.4038
次に	-10.4043
歩	-10.4043
定義	-10.4043
サービスを	-10.4044
当サイト	-10.4047
結論	-10.4048
カロリー	-10.4048
だけは	-10.4051
パリ	-10.4055
明るく	-10.4055
プラ	-10.4056
も含めて	-10.4057
ジュ	-10.4057
を見ながら	-10.4057
本来	-10.4059
藤	-10.4065
年金	-10.4066
ともに	-10.4066
するので	-10.4068
楽しむ	-10.4069
ウイルス	-10.4073
設立	-10.4073
一生	-10.4074
いきなり	-10.4078
穴	-10.4079
高級	-10.4079
記事を	-10.408
今年の	-10.4086
若干	-10.4088
あるので	-10.409
▁是非	-10.409
th	-10.4091
PDF	-10.4091
があっても	-10.4094
本気で	-10.4096
食べた	-10.4097
陰	-10.4098
収益	-10.4103
楽器	-10.4103
をしました	-10.4105
行っている	-10.4115
お部屋	-10.4115
▁前	-10.4117
だけが	-10.4117
誕生日	-10.4119
のではないかと思います	-10.4119
が入っている	-10.412
多くの人が	-10.4122
かというと	-10.4123
避難	-10.4124
最初から	-10.4126
させて頂きました	-10.4128
関東	-10.413
誰もが	-10.4132
を変えて	-10.4134
ようになり	-10.4137
クリック	-10.4138
基本的には	-10.4139
町で	-10.4142
日常生活	-10.4144
は全く	-10.4145
収集	-10.4146
お支払い	-10.4152
方がいい	-10.4155
それも	-10.4155
はじめて	-10.4158
快適な	-10.416
押し	-10.4164
仕事の	-10.4167
時間も	-10.4169
同意	-10.4169
方法です	-10.4173
▁仕事	-10.4175
確定	-10.4176
公式サイト	-10.4177
IC	-10.4179
合って	-10.4179
まる	-10.4182
そば	-10.4191
公表	-10.4193
ためにも	-10.4193
150	-10.4195
サイド	-10.4195
▁ブログ	-10.4199
くださいね	-10.4204
苦労	-10.4207
大人の	-10.421
軽く	-10.4213
んですか	-10.4214
になれる	-10.4219
温度	-10.4223
ユ	-10.4224
▁#	-10.4228
兄	-10.4229
浜	-10.4231
ほかの	-10.4231
住民	-10.4237
の開発	-10.4238
単語	-10.4239
過去に	-10.424
便秘	-10.424
高額	-10.4241
最新	-10.4242
充実した	-10.4243
繰り返し	-10.4243
所得	-10.4244
増加	-10.4248
療法	-10.4249
きれいな	-10.425
道を	-10.4254
をいただきました	-10.4258
を見つける	-10.4259
に限らず	-10.4262
▁というわけで	-10.4265
可能性が高い	-10.4268
表記	-10.4269
5000	-10.4271
の為	-10.4271
いただいて	-10.4272
放	-10.4278
見えない	-10.428
配	-10.4281
昔から	-10.4283
豊	-10.4284
給料	-10.4286
目が	-10.4287
やる気	-10.4291
会社が	-10.4291
常	-10.4293
当たり	-10.4295
教師	-10.4297
もありました	-10.43
お申込み	-10.4302
▁皆さん	-10.4302
毎週	-10.4306
のだから	-10.4307
の多い	-10.4307
生命	-10.4311
もありません	-10.4311
チャ	-10.4316
購入する	-10.4316
ブラウザ	-10.4317
となりますので	-10.4318
思います	-10.4321
生まれた	-10.4323
バックアップ	-10.4324
ってしまう	-10.4325
会計	-10.4326
時々	-10.4327
エンジニア	-10.4329
満	-10.433
の皆さん	-10.433
端	-10.433
こだわり	-10.4332
部門	-10.4332
銀	-10.4334
を用いて	-10.4338
加入	-10.434
も良い	-10.4342
不具合	-10.4346
http	-10.4353
化粧水	-10.4354
格安	-10.4354
ことはできません	-10.4355
に基づいて	-10.4356
いかに	-10.4356
たのは	-10.4356
ことはない	-10.4356
マスター	-10.436
話が	-10.437
活躍	-10.4372
覚悟	-10.4372
エステ	-10.4373
他人	-10.4373
心理	-10.4376
の魅力	-10.4377
新宿	-10.4381
していますので	-10.4384
ないといけない	-10.4385
となっており	-10.4389
ちゃ	-10.4392
本社	-10.4392
方式	-10.4395
パーク	-10.4398
ならではの	-10.4398
人々	-10.4399
緑	-10.4404
隠	-10.4404
期間は	-10.4404
▁あ	-10.4405
飲食店	-10.4409
していきたいと思います	-10.441
提出	-10.4411
ご紹介します	-10.4415
積	-10.4417
テクニック	-10.442
のことです	-10.442
いいのか	-10.4421
36	-10.4422
でない	-10.4425
くん	-10.4427
逃げ	-10.4427
退	-10.4431
競争	-10.4433
世紀	-10.4433
訴え	-10.4434
▁2014	-10.4434
呼吸	-10.4436
をとって	-10.4444
放置	-10.4446
と考えて	-10.4447
多数の	-10.4448
合計	-10.4449
▁ここまで	-10.4452
見積もり	-10.4453
明るい	-10.4454
写	-10.4455
即	-10.4458
措置	-10.4459
酸	-10.4462
胃	-10.4467
ブース	-10.4469
ながらも	-10.4471
が出	-10.4472
いただければ	-10.4473
学部	-10.4474
力を	-10.4481
大統領	-10.4482
プレイヤー	-10.4483
遠く	-10.4483
周年	-10.4484
赤ちゃん	-10.4486
のみで	-10.4487
そこ	-10.4487
ようですね	-10.4488
保護者	-10.4489
ないこと	-10.4489
ボディ	-10.4491
盤	-10.4493
タクシー	-10.4495
インタビュー	-10.4496
変な	-10.4498
表面	-10.4504
お客さま	-10.4506
六	-10.4511
保育園	-10.4513
スタ	-10.4513
レン	-10.4513
脱毛サロン	-10.4516
飛び	-10.4531
ティー	-10.4543
ことが多いです	-10.4545
キャンプ	-10.4547
▁新しい	-10.4547
一切	-10.4547
が変わる	-10.4548
を決める	-10.4549
皆様に	-10.4549
お風呂	-10.4553
糸	-10.4553
する場合は	-10.4554
建	-10.4554
社会人	-10.4554
張り	-10.4556
変わり	-10.4559
中古車	-10.4559
が原因	-10.456
▁初めて	-10.456
読んだ	-10.456
購入した	-10.4562
ウェブ	-10.4563
～。	-10.4563
教授	-10.4563
ール	-10.4565
帯	-10.457
読	-10.4571
服用	-10.4571
思わず	-10.4575
祭り	-10.4581
▁G	-10.4581
知らなかった	-10.4583
定期	-10.4583
台湾	-10.4584
遠	-10.4585
真実	-10.4586
1,000	-10.4587
司	-10.4591
こっち	-10.4591
あい	-10.4593
の量	-10.4598
リニューアル	-10.4598
兵	-10.4602
続き	-10.4602
優	-10.4604
獲得	-10.4604
魂	-10.4608
ショッピング	-10.4612
出場	-10.4614
人でも	-10.4614
働いて	-10.4617
入荷	-10.4617
可能性もあります	-10.4619
トラ	-10.462
ポート	-10.462
だいぶ	-10.4621
置き	-10.4621
自宅で	-10.4622
原則	-10.4622
示	-10.4626
がなければ	-10.4628
伝	-10.4628
誰が	-10.4629
資源	-10.463
データベース	-10.4631
怒り	-10.4634
がございます	-10.4635
しなければ	-10.4636
の効果	-10.4637
▁◆	-10.4637
と言われた	-10.4639
理論	-10.464
優しく	-10.4642
▁きっと	-10.4644
るのが	-10.4646
自治体	-10.465
間の	-10.4653
まり	-10.4653
老	-10.4655
今も	-10.4657
しておりますので	-10.4657
巻き	-10.466
史	-10.4663
こちらで	-10.4667
もともと	-10.4674
ジャンル	-10.4676
とは違う	-10.4677
人たちが	-10.4678
間違いなく	-10.4678
観察	-10.4679
必ずしも	-10.4679
▁́	-10.4681
なくなりました	-10.4682
内部	-10.4684
める	-10.4686
緊急	-10.4686
人から	-10.4692
バイ	-10.4693
凄い	-10.4697
の位置	-10.4699
▁もっと	-10.4699
かた	-10.47
トラック	-10.4706
ダー	-10.4712
しつつ	-10.4712
たこと	-10.4714
▁あの	-10.4715
ひとり	-10.472
関西	-10.4723
体を	-10.4724
安全性	-10.4726
俺は	-10.4727
ときの	-10.4729
を作り	-10.4729
余	-10.4739
いらっしゃる	-10.4742
をしっかりと	-10.4744
になっていた	-10.4745
少々	-10.4748
仏	-10.4748
▁pic	-10.4749
困る	-10.4753
教会	-10.4753
コマンド	-10.4754
はその	-10.4757
の中の	-10.4758
会う	-10.476
これも	-10.4763
安全な	-10.4764
跡	-10.4765
NHK	-10.4768
ED	-10.477
ヘ	-10.4771
速	-10.4771
困難	-10.4772
病院で	-10.4772
ジム	-10.4775
2014	-10.4776
せて	-10.4778
誰か	-10.4778
いきましょう	-10.4778
輸入	-10.4782
▁一度	-10.4784
ドメイン	-10.4791
帰り	-10.4793
ご覧	-10.4793
九州	-10.4795
候補	-10.4797
続け	-10.4798
考えた	-10.4799
することも	-10.4799
自分も	-10.4801
▁よく	-10.4802
書き込み	-10.4804
レシピ	-10.4805
一時	-10.4807
おけば	-10.4807
もありますので	-10.4809
ることなく	-10.4814
鏡	-10.4814
実に	-10.4815
電力	-10.4815
蔵	-10.4816
させていただいております	-10.4817
休憩	-10.4821
することができました	-10.4821
しかし	-10.4828
供給	-10.4828
順	-10.4832
会って	-10.4832
ではないか	-10.4833
落	-10.4835
福岡	-10.4836
電話で	-10.484
労働者	-10.4844
アクション	-10.4844
十分に	-10.4846
臭い	-10.4847
若者	-10.4847
Wi	-10.4848
源	-10.4849
タブレット	-10.485
る事	-10.485
取る	-10.4852
ビー	-10.4857
日付	-10.4859
粉	-10.486
普及	-10.486
任	-10.4869
勝利	-10.4869
▁D	-10.4871
モニター	-10.4872
▁All	-10.4872
以下のような	-10.4874
起	-10.4881
年目	-10.4882
時代に	-10.4884
デザイナー	-10.4885
ということになります	-10.4887
福	-10.4892
▁一	-10.4894
みたいに	-10.4895
診察	-10.4897
一生懸命	-10.4901
FX	-10.4907
隊	-10.4907
カップ	-10.491
皆様の	-10.4916
楽天	-10.4917
論文	-10.4918
の改善	-10.4921
始めて	-10.4921
テレビで	-10.4923
▁ところで	-10.4925
メートル	-10.4926
at	-10.4928
ON	-10.493
を参考に	-10.493
600	-10.4933
コツ	-10.4934
したところ	-10.4937
▁19	-10.4938
全身	-10.494
思って	-10.4942
初期	-10.4942
減	-10.4944
借入	-10.4949
▁上記	-10.4951
の様子	-10.4955
本の	-10.4956
地下	-10.4958
食生活	-10.4964
従	-10.4964
入会	-10.4965
そうした	-10.4968
占い	-10.4969
うち	-10.4975
お気に入りの	-10.4976
癖	-10.4977
2013	-10.4978
強化	-10.4984
を食べる	-10.4984
問	-10.4988
薄	-10.4988
するのも	-10.4989
心に	-10.4989
特集	-10.4991
USB	-10.4991
規模	-10.4992
側に	-10.4994
効果的な	-10.4996
軸	-10.4999
の確認	-10.4999
バカ	-10.4999
殺	-10.5
世界に	-10.5
泉	-10.5005
調子	-10.5008
結婚式	-10.5008
小学生	-10.5009
サイトを	-10.501
わかりやすく	-10.501
素人	-10.5011
のひとつ	-10.5011
一般的に	-10.5014
売る	-10.5022
思いを	-10.5023
はできません	-10.5023
なにか	-10.5027
と思うのですが	-10.5027
帰って	-10.503
理想	-10.5032
GB	-10.5032
共に	-10.5033
ボード	-10.5033
の対応	-10.5037
このように	-10.5038
っぽい	-10.504
事前	-10.504
管理者	-10.5044
ステップ	-10.5045
をたくさん	-10.5045
体質	-10.5045
が非常に	-10.5046
といわれています	-10.5046
母親	-10.5048
構築	-10.5052
片付け	-10.5053
という点	-10.5057
してた	-10.5058
ザー	-10.5063
郵送	-10.5063
つもり	-10.5065
のおかげで	-10.5066
フェ	-10.5067
夜の	-10.5069
の下	-10.5074
久しぶりに	-10.5074
▁ですので	-10.5077
エッチ	-10.5079
いただきたい	-10.5079
最低	-10.5081
に来た	-10.5084
、2018	-10.5084
売買	-10.5088
の対象	-10.509
ブログに	-10.5091
することが可能です	-10.5092
勝ち	-10.5092
負け	-10.5093
ますね	-10.5096
オリンピック	-10.5096
を実現	-10.51
育児	-10.51
▁あとは	-10.5103
本来の	-10.5105
日本人の	-10.5106
の関係	-10.5107
バレ	-10.5108
38	-10.511
引き続き	-10.511
の大	-10.5111
もっとも	-10.5112
陣	-10.5116
を大切に	-10.5117
ケーブル	-10.512
作られた	-10.5121
になりますので	-10.5122
が低い	-10.5123
入れて	-10.5126
およそ	-10.5126
ができ	-10.5127
▁@	-10.5127
塗装	-10.5131
結婚相談所	-10.5131
ジー	-10.5133
ことができた	-10.5135
した後	-10.5138
店の	-10.5141
中身	-10.5146
人妻	-10.5149
近所の	-10.515
演出	-10.5151
否定	-10.5155
800	-10.5158
探偵	-10.5163
保険料	-10.5165
過ぎて	-10.5168
になったら	-10.5168
-1	-10.5172
方や	-10.5172
▁"	-10.5172
が必要となります	-10.5177
▁現在は	-10.5184
さんも	-10.5185
今から	-10.5186
幼稚園	-10.5187
ノー	-10.5192
シンプルな	-10.5194
クーポン	-10.5195
元気に	-10.5196
規則	-10.5199
はこちら	-10.5201
というと	-10.5203
▁こういった	-10.5204
アルコール	-10.5205
比	-10.5209
を書いて	-10.5209
無駄	-10.521
を持っています	-10.521
▁Copyright	-10.5212
影	-10.5213
というのも	-10.5213
個人情報を	-10.5216
ニューヨーク	-10.5217
する必要がある	-10.5217
Android	-10.5218
があること	-10.5218
留	-10.5219
マニュアル	-10.522
を提供	-10.5221
の説明	-10.5226
こちらも	-10.5226
綺麗	-10.5227
別れ	-10.5227
ご注意ください	-10.5228
たびに	-10.5228
んじゃないか	-10.5228
が出た	-10.5231
重い	-10.5233
やつ	-10.5236
なさい	-10.5237
になっても	-10.5238
原発	-10.524
栽培	-10.5242
はありますが	-10.5245
人々の	-10.5247
一歩	-10.5249
ことになりました	-10.5252
るのか	-10.5254
押	-10.5254
あとは	-10.5255
危険な	-10.5256
ご覧ください	-10.5259
が増える	-10.526
ガー	-10.5261
死亡	-10.5261
玄関	-10.5261
収穫	-10.5262
グリーン	-10.5263
入手	-10.5265
はなく	-10.5265
当社の	-10.5266
両親	-10.5267
用に	-10.5268
アピール	-10.5269
ところは	-10.527
見え	-10.5272
ねぇ	-10.5274
イタリア	-10.5277
政権	-10.5277
初の	-10.528
があるのか	-10.528
も同じ	-10.5285
付き合い	-10.5287
教材	-10.5288
ダメージ	-10.5294
役割	-10.5295
ませんか	-10.5296
本格的な	-10.5298
の方々	-10.5301
嫌な	-10.5301
スキー	-10.5302
を考え	-10.5304
▁その結果	-10.5304
▁自分	-10.5306
イギリス	-10.5307
来年	-10.5309
そろそろ	-10.5309
砂	-10.531
アリ	-10.531
のではないかと	-10.5311
▁不倫	-10.5311
祝	-10.5312
なもの	-10.5317
全国の	-10.5318
という意味	-10.5321
自分自身	-10.5321
入る	-10.5322
作家	-10.5322
を守る	-10.5322
のホームページ	-10.5323
に向けた	-10.5327
お金が	-10.5327
最後	-10.5328
頂ける	-10.5328
を入れ	-10.5329
の購入	-10.5332
水分	-10.5334
こちらから	-10.5334
年も	-10.5336
沢山	-10.5337
ドライバー	-10.5339
のバランス	-10.5341
家族の	-10.5341
容量	-10.5342
▁最近では	-10.5344
個人的には	-10.5344
を検討	-10.5345
太陽	-10.5345
お願いいたします	-10.5348
おきたい	-10.5349
しておきます	-10.5352
にいる	-10.5353
エアコン	-10.5353
看護	-10.5354
単に	-10.5354
作業を	-10.5355
後半	-10.5355
アフィリエイト	-10.5356
利用できる	-10.5357
オーバー	-10.5359
が多いので	-10.536
関数	-10.5362
ご自身の	-10.5363
出て	-10.5363
第三者	-10.5363
手紙	-10.5363
ックス	-10.5363
はじめ	-10.5365
交際	-10.5365
商品が	-10.5366
目的で	-10.5368
笑顔で	-10.5368
お話を	-10.5368
サークル	-10.5369
そうですが	-10.5371
深夜	-10.5375
工	-10.5377
▁昨年	-10.538
と考えている	-10.5384
が表示されます	-10.5386
降	-10.5389
彼女が	-10.5389
を対象に	-10.5397
周りに	-10.5397
用途	-10.5404
▁Reserved	-10.5404
ことや	-10.5408
工業	-10.541
子が	-10.5415
変わらない	-10.5415
身体の	-10.5417
ビットコイン	-10.5417
を示す	-10.5418
助け	-10.5418
見ている	-10.5421
組み合わせ	-10.5421
ついて	-10.5422
じゃないですか	-10.5426
弁	-10.5429
寄付	-10.543
▁次の	-10.543
の時に	-10.5434
どれ	-10.5434
くださった	-10.5436
注意が必要です	-10.5438
改革	-10.5439
起動	-10.5441
たかった	-10.5444
に入り	-10.5448
競技	-10.5448
模様	-10.545
の準備	-10.5454
根拠	-10.5457
伝える	-10.546
履歴	-10.546
裁判所	-10.5462
党	-10.5463
意図	-10.5464
走って	-10.5467
の作成	-10.5468
下に	-10.5469
反省	-10.5471
フォロー	-10.5471
▁朝	-10.5472
いか	-10.5472
を書く	-10.5475
▁毎年	-10.5478
の中では	-10.548
温	-10.5481
要望	-10.5482
興奮	-10.5482
安全に	-10.5482
後で	-10.5483
上がる	-10.5483
と比べて	-10.5484
ワールド	-10.5484
▁ア	-10.5485
うちの	-10.549
詐欺	-10.5491
お気軽にお問い合わせください	-10.5496
▁今日の	-10.5496
していること	-10.5496
マナー	-10.5496
務	-10.5499
進行	-10.5499
鑑定	-10.5501
あえて	-10.5502
二人の	-10.5503
これら	-10.5504
辺	-10.5513
航空	-10.5514
ハワイ	-10.5517
をご紹介	-10.5525
博物館	-10.5525
混雑	-10.5526
...」	-10.5528
3000	-10.5529
はいけない	-10.5529
ブック	-10.553
吸収	-10.5532
はもう	-10.5538
調理	-10.5539
un	-10.554
棚	-10.5541
策	-10.5542
仕事で	-10.5543
の人が	-10.5543
教え	-10.5548
お父さん	-10.5548
随時	-10.555
のもと	-10.555
▁Rights	-10.5552
したので	-10.5553
お土産	-10.5554
降り	-10.5554
の数	-10.5555
夏の	-10.5556
はっきり	-10.5557
精	-10.5558
印	-10.5559
の使い方	-10.5559
菜	-10.5561
リズム	-10.5562
土曜日	-10.5565
副	-10.5567
ジン	-10.5567
お子さん	-10.5568
アウト	-10.5571
みよう	-10.5571
をとる	-10.5573
うえで	-10.5574
と言い	-10.5576
の紹介	-10.5577
出荷	-10.5577
自体が	-10.5577
人生の	-10.5581
高速	-10.5581
No	-10.5582
YouTube	-10.5582
みたら	-10.5582
画像を	-10.5583
プリント	-10.5586
年前の	-10.5588
代わりに	-10.5589
ご確認ください	-10.5591
マンガ	-10.5592
痛い	-10.5593
もよく	-10.5594
ではありませんが	-10.5594
の動き	-10.56
を入れる	-10.5601
言葉を	-10.5603
▁今後も	-10.5604
違った	-10.5606
宝	-10.5607
部屋に	-10.5611
▁やっぱり	-10.5612
庁	-10.5613
注	-10.5615
優先	-10.5619
ご理解	-10.5622
たく	-10.5623
炎	-10.5624
仕事に	-10.5625
その分	-10.5626
氏が	-10.5629
テン	-10.5631
▁おそらく	-10.5631
抵抗	-10.5633
とその	-10.5636
してしまい	-10.564
するもの	-10.564
はずだ	-10.5642
するのに	-10.5642
肌が	-10.5643
いつまでも	-10.5645
できている	-10.5648
ホワイト	-10.565
液	-10.5655
なければいけない	-10.5656
朝食	-10.566
一本	-10.5661
ものではない	-10.5662
が気になる	-10.5666
長時間	-10.567
倒	-10.5671
わかりやすい	-10.5671
フロント	-10.5673
フィールド	-10.5674
オーナー	-10.5676
に対応	-10.5679
聞いた	-10.5681
▁R	-10.5682
姉	-10.5685
の知識	-10.5686
参照	-10.5686
一方で	-10.5687
マーケット	-10.5687
美しく	-10.5688
正しく	-10.5689
複雑な	-10.5692
福島	-10.5695
変わった	-10.5697
不思議	-10.5697
正解	-10.5698
しかありません	-10.57
まって	-10.5702
ご提供	-10.5703
▁今年の	-10.5703
を考えると	-10.5706
▁これも	-10.571
ものとします	-10.571
噂	-10.5711
を求めて	-10.5711
▁3.	-10.5711
フォルダ	-10.5713
法令	-10.5713
そんなこと	-10.5715
落ち着いて	-10.5715
自社	-10.5717
を超えて	-10.5727
と言える	-10.5729
所に	-10.573
休	-10.5731
歯科	-10.5733
たりする	-10.5733
考えている	-10.5735
2～3	-10.5735
彼らの	-10.5735
幸せな	-10.5736
実家	-10.5736
これ以上	-10.5736
の時	-10.5736
00	-10.5737
自身が	-10.5739
売上	-10.5741
華	-10.5743
問題は	-10.5743
わかって	-10.5746
んだな	-10.5747
情報の	-10.5747
PR	-10.5752
to	-10.5753
起こる	-10.5754
メン	-10.5754
ではなかった	-10.5756
を使用した	-10.5758
原作	-10.5759
プレミアム	-10.5761
違反	-10.5761
細	-10.5761
無線	-10.5763
議会	-10.5768
▁女性	-10.5768
▁自分で	-10.5769
けれども	-10.5771
父親	-10.5771
株式	-10.5771
内容が	-10.5773
才	-10.5773
かどうかは	-10.5776
ギフト	-10.5776
腸	-10.5777
有効	-10.5781
してもらえる	-10.5783
マシン	-10.5787
カウンター	-10.5787
意味で	-10.5789
今すぐ	-10.5789
抜き	-10.579
▁株式会社	-10.5793
宣言	-10.5793
爪	-10.5795
装備	-10.58
医療機関	-10.5805
切って	-10.581
を楽しんで	-10.581
をつけ	-10.5816
始めました	-10.5816
昔の	-10.5817
成績	-10.5821
は必ず	-10.5821
成立	-10.5822
ものと	-10.5824
岡	-10.5824
を高める	-10.5826
通りに	-10.5826
ご使用	-10.5826
弟	-10.5829
商品は	-10.583
▁E	-10.5832
お悩み	-10.5832
したくない	-10.5835
確率	-10.5835
チェ	-10.5835
▁昨日は	-10.5845
愛情	-10.5847
を提供する	-10.5848
よかったです	-10.5857
何の	-10.5858
セル	-10.5861
であります	-10.5863
られています	-10.5864
ほとんどの	-10.5868
のイメージ	-10.587
回転	-10.5871
もしかしたら	-10.5872
済み	-10.5873
企業が	-10.5874
洋	-10.5875
~	-10.5875
これだけ	-10.5877
手続	-10.588
人や	-10.5882
することによって	-10.5884
であることを	-10.5888
だいたい	-10.5894
お店で	-10.5896
という思い	-10.5897
税込	-10.5899
トーク	-10.5899
説明会	-10.59
延長	-10.5901
の差	-10.5902
いつか	-10.5903
暑さ	-10.5905
▁浮気	-10.5905
いける	-10.5905
とおり	-10.5906
真剣に	-10.5906
快適に	-10.5911
送って	-10.5912
どこで	-10.5913
33	-10.5913
状態に	-10.5914
武器	-10.5914
実際には	-10.5917
IP	-10.5917
お料理	-10.5918
に挑戦	-10.5923
多分	-10.5923
統計	-10.5927
に行き	-10.5928
配置	-10.5929
のみならず	-10.5929
ブログで	-10.593
収	-10.5931
登場	-10.5931
たまに	-10.5932
お互いに	-10.5932
ra	-10.5933
綺麗に	-10.5935
駅の	-10.5936
▁みなさん	-10.594
頭痛	-10.5941
移転	-10.5943
窓口	-10.5944
中国の	-10.5947
ものがあります	-10.5948
日本は	-10.5952
コー	-10.5955
高め	-10.5956
誰にも	-10.5959
近くに	-10.5962
学ぶ	-10.5962
じゃなくて	-10.5964
後悔	-10.5965
していれば	-10.5966
乳	-10.5967
つけて	-10.5968
は特に	-10.5971
笑い	-10.5974
役員	-10.5974
を確認	-10.5975
夕食	-10.5975
支払	-10.5975
読書	-10.5979
主婦	-10.598
を与える	-10.5985
によれば	-10.5987
自らの	-10.5988
探	-10.5988
伸び	-10.5989
られました	-10.599
を得る	-10.5991
に出演	-10.5993
追い	-10.5993
リクエスト	-10.5996
していません	-10.5997
’	-10.5999
嫁	-10.6
次回	-10.6002
を与え	-10.6003
▁まだまだ	-10.6005
北朝鮮	-10.6007
いざ	-10.601
になってしまいました	-10.6012
▁明日	-10.6012
▁今の	-10.6014
数多くの	-10.6015
することにより	-10.6016
等は	-10.6019
先生に	-10.6031
を伝える	-10.6031
通貨	-10.6032
をつける	-10.6032
若	-10.6033
▁あまり	-10.6034
ければ	-10.6037
を食べ	-10.6037
iPad	-10.6041
陽	-10.6044
5%	-10.6048
歩く	-10.6049
瀬	-10.6052
分かって	-10.6052
社内	-10.6053
著作権	-10.6053
おか	-10.6055
職種	-10.6059
しく	-10.606
ログ	-10.6063
冷蔵庫	-10.6063
念	-10.6065
晴れ	-10.6067
分で	-10.607
遊んで	-10.607
続けている	-10.6072
帰る	-10.6072
無料の	-10.6072
柱	-10.6072
りする	-10.6077
夏休み	-10.6079
善	-10.6079
ついに	-10.6079
膝	-10.6081
であると	-10.6082
彼ら	-10.6084
サイトに	-10.6085
最近の	-10.6086
連絡先	-10.609
▁今年	-10.6091
はありませんが	-10.6092
ませんが	-10.6093
のご	-10.6093
と言えるでしょう	-10.6094
が来る	-10.6097
兄弟	-10.6098
復興	-10.6098
さすがに	-10.61
エピソード	-10.61
会員登録	-10.6101
圧	-10.6103
65	-10.6104
を選択	-10.6105
日時	-10.6105
遠い	-10.6106
戦い	-10.6109
出身	-10.611
なしで	-10.6111
せない	-10.6111
飽き	-10.6113
天皇	-10.6113
お買い物	-10.6114
走る	-10.6115
化学	-10.6118
お伝え	-10.6122
お申し込み	-10.6123
考えると	-10.6123
理想の	-10.6126
▁そういった	-10.6126
話は	-10.6128
を確認する	-10.6129
貸	-10.613
力が	-10.6131
相手を	-10.6132
IN	-10.6132
血液	-10.6133
節約	-10.6135
お弁当	-10.6135
もたくさん	-10.6137
にかけて	-10.6139
プログラミング	-10.6145
大体	-10.6145
ポケット	-10.6145
短	-10.6146
中学生	-10.6148
都合	-10.6156
見せ	-10.6157
お気軽にご相談ください	-10.6158
▁基本的に	-10.6158
甲	-10.6158
とされる	-10.6161
選んで	-10.6162
確保	-10.6164
ようになっています	-10.6164
皮膚	-10.6168
商	-10.617
わかりません	-10.6171
の雰囲気	-10.6173
天候	-10.6173
列車	-10.6175
▁どの	-10.6175
散	-10.6175
いよいよ	-10.6177
寒い	-10.6178
ボリューム	-10.618
を体験	-10.618
単位	-10.6183
OFF	-10.6184
の方も	-10.6185
学校の	-10.6185
になったり	-10.6187
ていること	-10.6188
サービスの	-10.6194
免許	-10.6195
気温	-10.6197
皮	-10.6197
マル	-10.6198
環境で	-10.6201
軽い	-10.6204
市内	-10.6205
破壊	-10.6205
を探し	-10.6205
じゃないか	-10.6208
票	-10.6215
ビーチ	-10.6216
防	-10.6217
珍しい	-10.6218
鍋	-10.6219
合わせて	-10.622
故障	-10.6222
神戸	-10.6222
を迎える	-10.6224
所で	-10.6224
音が	-10.6224
アレンジ	-10.6226
メモリ	-10.6227
人生を	-10.6227
インテリア	-10.6229
ブーム	-10.6229
私たちが	-10.6232
してみる	-10.6235
おき	-10.6236
おりました	-10.6238
をしながら	-10.6238
賀	-10.6238
格	-10.624
モチベーション	-10.624
偶然	-10.6247
だろ	-10.6248
ルー	-10.6251
万円の	-10.6251
ごろ	-10.6253
ご用意	-10.6253
仕上がり	-10.6253
幸	-10.6253
と思っております	-10.6257
ほう	-10.6257
方が良い	-10.6262
上位	-10.6262
軽減	-10.6263
的で	-10.6263
するなど	-10.6266
語り	-10.6268
動画を	-10.627
わない	-10.6271
んでしょうか	-10.6274
部屋の	-10.6274
具	-10.6275
クリーニング	-10.6276
やってる	-10.6276
ご依頼	-10.6277
ベトナム	-10.6277
コレクション	-10.6277
無く	-10.6278
タイミングで	-10.6279
カスタマイズ	-10.6284
早速	-10.6285
の多くは	-10.6286
向けに	-10.6286
37	-10.6286
助	-10.6287
スペシャル	-10.6287
るべき	-10.629
廃	-10.6291
ですけど	-10.6292
を作成	-10.6293
補助	-10.6294
願	-10.6295
創業	-10.6296
んだよね	-10.63
タッチ	-10.63
なくなり	-10.63
ご了承ください	-10.6303
中古	-10.6307
自覚	-10.6307
と思える	-10.6309
段階で	-10.631
割り	-10.6312
と考え	-10.6312
途中	-10.6314
どこかで	-10.6314
を元に	-10.6318
腰痛	-10.6319
は全て	-10.6321
ばかりで	-10.6323
10%	-10.6324
をします	-10.6324
ぁ	-10.6328
カレンダー	-10.6329
ダイ	-10.633
ページに	-10.6331
ないよう	-10.6336
▁一方で	-10.634
挨拶	-10.6341
後日	-10.6352
であったり	-10.6352
食事を	-10.6354
会長	-10.6356
外国	-10.6357
渋谷	-10.6361
事務局	-10.6368
ジョ	-10.6372
フレーム	-10.6374
一言	-10.6376
核	-10.6376
栄養素	-10.638
東北	-10.638
のでご了承ください	-10.6383
状況を	-10.6384
底	-10.6387
一緒	-10.6388
会社で	-10.6388
があるため	-10.639
向	-10.639
お祝い	-10.6392
ができて	-10.6392
寄	-10.6394
の事	-10.6395
スイッチ	-10.6396
徒歩	-10.6398
継続して	-10.64
日目	-10.6402
▁みんな	-10.6405
グローバル	-10.6408
～!	-10.6412
セン	-10.6413
適	-10.6413
憲法	-10.6413
するのか	-10.6415
していきたい	-10.6417
アップロード	-10.6418
は少し	-10.6424
同僚	-10.6424
引用	-10.6426
梅	-10.6426
年生の	-10.6427
して欲しい	-10.6428
補償	-10.6429
マウス	-10.6431
英語で	-10.6432
絵本	-10.6433
連載	-10.6435
なー	-10.6437
結果的に	-10.6437
の前で	-10.6439
34	-10.645
専門の	-10.645
研究者	-10.645
が良く	-10.6451
2.	-10.6451
服装	-10.6452
紹介した	-10.6453
のだと思います	-10.6455
▁J	-10.6455
いいですね	-10.6456
ワクワク	-10.6457
していきましょう	-10.6457
障害者	-10.6458
▁2013	-10.6459
進め	-10.646
風俗	-10.6464
背	-10.6467
はい	-10.6468
なのは	-10.647
..	-10.647
いきたい	-10.6471
るために	-10.6473
思っている	-10.6474
の生活	-10.6474
を上げる	-10.6475
FAX	-10.6475
が好きな	-10.6475
を高め	-10.6476
機構	-10.6479
伝統	-10.6482
食い	-10.6482
考えられる	-10.6483
不動産会社	-10.6484
子どもが	-10.649
中は	-10.6491
自分たちの	-10.6492
本を	-10.6499
▁本日は	-10.6503
が行われ	-10.6503
しておきたい	-10.6504
レー	-10.6504
終	-10.6505
UP	-10.6513
ような気がする	-10.6515
ことがない	-10.6515
行われる	-10.6515
寝る	-10.6515
エコ	-10.6517
くて	-10.6518
洗顔	-10.6518
盛り	-10.652
お名前	-10.6522
あまりにも	-10.6524
迷惑	-10.6524
使わない	-10.6525
されてしまう	-10.6525
de	-10.6532
太郎	-10.6532
気持ちを	-10.6533
飯	-10.6534
との関係	-10.6535
圏	-10.6536
があったり	-10.6536
中小企業	-10.6538
くれている	-10.6539
おかしい	-10.6541
告知	-10.6542
*	-10.6542
雄	-10.6543
ミー	-10.6544
～」	-10.6545
具合	-10.6547
もはや	-10.6548
を迎え	-10.6549
最近では	-10.6549
縦	-10.655
日中	-10.6551
子は	-10.6556
の間で	-10.6557
行います	-10.656
ますか	-10.6563
数が	-10.6568
周辺の	-10.6569
するまで	-10.6569
農	-10.6574
に来る	-10.6575
新築	-10.6581
コイン	-10.6582
55	-10.6583
上手に	-10.6584
の可能性	-10.6585
目の前に	-10.6585
いるのか	-10.6589
できず	-10.659
ジョン	-10.6592
決断	-10.6594
世界で	-10.6596
実際は	-10.6597
スマート	-10.6598
ひとつの	-10.6598
広島	-10.6601
研究所	-10.6601
のページ	-10.6601
あんまり	-10.6601
ヒット	-10.6604
紅葉	-10.6607
話し合い	-10.6609
んじゃないかな	-10.6609
交	-10.6609
を変更	-10.6611
プロの	-10.6611
▁これら	-10.6613
劇場	-10.6619
▁個人的には	-10.6621
けっこう	-10.6621
密	-10.6622
のですか	-10.6622
してしまうと	-10.6629
才能	-10.6631
2012	-10.6631
驚き	-10.6631
▁インターネット	-10.6633
様な	-10.6634
を始めた	-10.6636
生活習慣	-10.6638
社の	-10.6641
れて	-10.6641
の姿	-10.6643
でしたら	-10.6645
ライフスタイル	-10.6645
ようとする	-10.6649
本サービス	-10.6649
というものは	-10.6649
明け	-10.6649
関節	-10.665
皆さんに	-10.6651
手作り	-10.6652
▁小	-10.6654
チラシ	-10.6654
と言われて	-10.6655
以外は	-10.6659
グラ	-10.666
富	-10.6661
暑い	-10.6663
なんでも	-10.6664
恐れ	-10.6667
髪の毛	-10.6669
恵	-10.6673
はどう	-10.6674
をご利用	-10.6683
他人の	-10.6686
駅から徒歩	-10.6687
育毛剤	-10.6688
諦め	-10.6689
筋トレ	-10.6689
日曜日	-10.669
出品	-10.669
保育	-10.6691
申込み	-10.6693
を行っております	-10.6695
人形	-10.6695
に係る	-10.6699
フェア	-10.67
スマホで	-10.6701
を抑える	-10.6702
がある場合は	-10.6704
医学	-10.6708
の際	-10.6713
CO	-10.6714
孫	-10.6718
しなくても	-10.6722
することができ	-10.6723
言葉で	-10.6734
ぜ	-10.6737
覚えて	-10.6738
ノウハウ	-10.6739
出来ます	-10.674
してくれて	-10.6741
需要	-10.6742
▁こちら	-10.6742
小さく	-10.6743
らせて	-10.6745
ポイントを	-10.6746
起業	-10.6751
年末	-10.6752
▁したがって	-10.6752
混乱	-10.6752
を感じて	-10.6754
円の	-10.6754
、“	-10.6755
処方	-10.6755
▁すでに	-10.6757
科目	-10.6758
狭い	-10.6759
変換	-10.6759
に基づく	-10.6759
煮	-10.6762
と言います	-10.6765
部位	-10.6768
姿を	-10.6771
の支払い	-10.6774
トレード	-10.6774
、2017	-10.6778
全員が	-10.6781
ることは	-10.6782
てくれます	-10.6784
制御	-10.6785
地域で	-10.6785
邪魔	-10.6787
39	-10.6787
ことが多く	-10.6789
関連の	-10.679
はすべて	-10.6791
文句	-10.6793
といえます	-10.6795
▁普段	-10.6796
消化	-10.6796
誤解	-10.6796
ライセンス	-10.6797
をお願いいたします	-10.6799
カナダ	-10.68
ic	-10.68
を始め	-10.6806
意欲	-10.6807
知る	-10.681
チョコレート	-10.6811
かは	-10.6812
医薬品	-10.6812
遅れ	-10.6812
ショック	-10.6812
間違って	-10.6814
鬼	-10.6814
ノン	-10.6817
にあり	-10.6817
装	-10.6821
それらの	-10.6822
宗	-10.6825
クリ	-10.6826
子供達	-10.6827
を見つけ	-10.6828
をしたい	-10.6829
役に立つ	-10.6831
でしょうね	-10.6832
月額	-10.6832
飲み物	-10.6833
サブ	-10.6834
歳で	-10.6834
料金は	-10.6835
みんなが	-10.6835
伝えて	-10.6838
政治家	-10.6839
▁L	-10.6839
を行うこと	-10.6842
このまま	-10.6845
親子	-10.6846
低下	-10.6846
の形	-10.6847
j	-10.6847
の作品	-10.6847
強制	-10.6848
新鮮な	-10.6853
わけですが	-10.6858
ーン	-10.6858
被	-10.6859
▁だからこそ	-10.6861
荒	-10.6866
回線	-10.6867
多様な	-10.6872
塗り	-10.6872
インフルエンザ	-10.6873
に乗って	-10.6874
仕方ない	-10.6877
さんから	-10.6878
ここでは	-10.6885
いませんでした	-10.6885
過程	-10.6887
苦しい	-10.6889
▁映画	-10.6889
ことができません	-10.6889
半年	-10.689
のご利用	-10.689
水準	-10.6893
新幹線	-10.6896
共	-10.6897
かと思いますが	-10.6899
楽曲	-10.6902
の言葉	-10.6904
その後の	-10.6906
の際には	-10.6907
広場	-10.6914
記事に	-10.6915
慎重に	-10.6915
▁もともと	-10.6917
九	-10.6918
仕	-10.6921
日で	-10.6922
子の	-10.6923
の第	-10.6924
▁いま	-10.6928
気持ちで	-10.6929
いいと思います	-10.693
麺	-10.6931
上がって	-10.6933
電池	-10.6937
短期	-10.6942
素直に	-10.6946
子供たち	-10.6946
当て	-10.6948
ユーザーの	-10.6949
を担当	-10.695
住まい	-10.6951
立って	-10.6952
味わい	-10.6954
一枚	-10.6955
の色	-10.6957
個別	-10.6959
形成	-10.6962
家事	-10.6962
のほか	-10.6963
タイヤ	-10.6963
ポイントは	-10.6964
登記	-10.6964
勉強会	-10.6965
の力	-10.6966
隣の	-10.697
きり	-10.697
テンプレート	-10.6972
住宅ローン	-10.6973
誤	-10.6978
事業所	-10.6982
ディスプレイ	-10.6983
自然な	-10.6983
EC	-10.6986
んだから	-10.6987
デモ	-10.6988
しないように	-10.6989
時も	-10.6991
されていません	-10.6991
冷え	-10.6991
控え	-10.6992
合意	-10.6996
ることが	-10.6997
がいっぱい	-10.6997
を使えば	-10.6997
わかった	-10.6999
の商品	-10.7
マルチ	-10.7
女優	-10.7001
とします	-10.7002
次のような	-10.7002
伝え	-10.7004
用品	-10.7005
大量の	-10.7007
していただき	-10.7008
たくなる	-10.7009
センチ	-10.7009
左右	-10.7011
おきましょう	-10.7014
後ろ	-10.7015
人達	-10.7016
を確保	-10.7017
経費	-10.7018
んでいる	-10.7019
感じた	-10.7019
美術	-10.7021
プレ	-10.7022
を活用して	-10.7023
▁ネット	-10.7024
トレンド	-10.7025
専門店	-10.7026
問題ない	-10.7027
同じように	-10.7028
がかかる	-10.7032
言われた	-10.7034
キス	-10.7037
解析	-10.704
私達	-10.7041
お互い	-10.7042
と同様に	-10.7045
本格的に	-10.7045
クロス	-10.7048
の意見	-10.7051
前回	-10.7051
▁通常	-10.7052
の中心	-10.7054
しようとする	-10.7055
先生は	-10.7056
本番	-10.7057
違和感	-10.7059
折	-10.7059
チャット	-10.7061
▁詳細は	-10.7062
▁N	-10.7064
が起こる	-10.7064
していただく	-10.7066
より良い	-10.7066
何より	-10.7067
を含め	-10.7069
に応じた	-10.707
お早めに	-10.7072
弱い	-10.7074
看板	-10.7077
ri	-10.7079
尿	-10.708
を作成する	-10.708
平日	-10.7084
お手伝い	-10.7084
を紹介しています	-10.7085
を防ぐ	-10.7087
部分を	-10.7087
net	-10.7087
痩せ	-10.7087
氷	-10.7091
気になって	-10.7091
ユーザーが	-10.7092
月末	-10.7096
形態	-10.7096
思いました	-10.7097
支給	-10.71
チャー	-10.7101
浸透	-10.7102
生物	-10.7102
ではないので	-10.7107
する前に	-10.7109
葬儀	-10.7109
リラックス	-10.7109
自分自身の	-10.7112
嫌い	-10.7112
自殺	-10.7112
をまとめて	-10.7114
せば	-10.7116
°	-10.7117
いけば	-10.7119
入金	-10.712
それら	-10.7121
してみて	-10.7122
分割	-10.7123
過ごす	-10.7123
純	-10.7123
一方	-10.7124
ティング	-10.7128
がないと	-10.7129
空き	-10.713
落ち着いた	-10.713
おすすめです	-10.7132
になっていました	-10.7136
心臓	-10.7136
ご来場	-10.714
タバコ	-10.714
能	-10.7141
部の	-10.7142
の方法	-10.7144
コール	-10.7145
ダン	-10.7145
投資家	-10.7146
使いやすい	-10.7148
教員	-10.715
終わった	-10.7151
生理	-10.7154
詳しい	-10.7154
エロ	-10.7157
入れる	-10.7158
報告書	-10.7159
防災	-10.716
ビュー	-10.7162
ていますが	-10.7162
起こ	-10.7163
一定	-10.7164
オーストラリア	-10.7165
教えてください	-10.7165
不正	-10.7165
点検	-10.7167
控除	-10.7169
したのですが	-10.7171
話を聞いて	-10.7175
返金	-10.7177
監視	-10.7177
海外の	-10.7179
していなかった	-10.718
出てきた	-10.7184
困った	-10.7184
ようになって	-10.7186
レベルの	-10.7186
見たい	-10.7186
なかったり	-10.7187
の開催	-10.7188
の家	-10.7192
を読み	-10.7192
されているので	-10.7193
しゃ	-10.7193
ちゃんの	-10.7194
拠点	-10.7196
わけではなく	-10.7196
まぁ	-10.7197
▁K	-10.7197
を選んだ	-10.7198
路線	-10.7199
家賃	-10.7199
借り入れ	-10.7201
恐怖	-10.7202
撮って	-10.7202
ことをおすすめします	-10.7206
をご利用ください	-10.7206
打ち合わせ	-10.7207
違います	-10.7207
の花	-10.7207
長年	-10.7213
見ると	-10.7214
かも知れません	-10.7216
認知症	-10.722
基	-10.7221
演技	-10.7222
どうすれば	-10.7223
洗濯	-10.7224
リアル	-10.7231
タオル	-10.7232
どこの	-10.7235
今までの	-10.7236
経緯	-10.7241
かかります	-10.7244
▁W	-10.7247
みませんか	-10.7247
貴	-10.7253
背中	-10.7253
とし	-10.7254
知りたい	-10.7255
ああ	-10.7256
受け入れ	-10.7256
初回	-10.7256
が好き	-10.7256
統一	-10.7258
スープ	-10.7259
▁」「	-10.7264
女性と	-10.7265
アダルト	-10.7266
うれしい	-10.7267
と違って	-10.7268
がないので	-10.7271
外で	-10.7272
素敵	-10.7274
を中心とした	-10.7276
今のところ	-10.7276
気になった	-10.7276
世界中の	-10.7278
応用	-10.7278
一時的に	-10.7279
人々が	-10.7281
害	-10.7282
苦	-10.7282
頭に	-10.7282
知人	-10.7283
Apple	-10.7283
周り	-10.7285
終わって	-10.7285
近年	-10.7287
じっくり	-10.7288
分から	-10.729
入浴	-10.7291
▁ここは	-10.7294
ここは	-10.7299
てしまって	-10.73
配達	-10.7302
だと思いますが	-10.7303
に従って	-10.7303
あげる	-10.7305
▁日本では	-10.7306
LAN	-10.7307
一応	-10.7308
既存の	-10.731
室内	-10.7318
他社	-10.7318
場合も	-10.7319
ストア	-10.732
の研究	-10.7321
クス	-10.7321
いいね	-10.7332
駅前	-10.7333
個人情報の	-10.7333
共通	-10.7333
を購入	-10.7335
なか	-10.7335
少しだけ	-10.7336
パネル	-10.7337
が増えて	-10.734
長さ	-10.7344
が原因で	-10.7345
でもない	-10.7345
価格で	-10.7346
受け付けていません	-10.7347
先行	-10.7348
欧米	-10.7349
ないか	-10.7353
はなかった	-10.7354
を選択する	-10.736
委託	-10.7363
ける	-10.7364
住んでいる	-10.7364
の有無	-10.7368
変わって	-10.7369
単なる	-10.7372
を手に入れる	-10.7372
になっていて	-10.7372
無視	-10.7377
龍	-10.7377
らしいです	-10.7378
利用できます	-10.7381
体験談	-10.7381
がなかった	-10.7384
なくてはならない	-10.7385
周囲	-10.7386
スーツ	-10.7388
ことはできない	-10.739
カードを	-10.739
日々の	-10.7393
信号	-10.7394
ことが出来ました	-10.7396
いませんか	-10.7401
多数	-10.7406
▁せっかく	-10.7407
銃	-10.7409
と考えられます	-10.741
を実施	-10.7411
探す	-10.7411
ed	-10.7413
コート	-10.7414
位の	-10.7416
甘い	-10.7418
欲	-10.7424
衣装	-10.7425
せっかく	-10.7426
することなく	-10.7428
思想	-10.7429
周	-10.743
はなかなか	-10.7432
受ける	-10.7433
たまたま	-10.7435
つながり	-10.7437
夕方	-10.7444
熱い	-10.7445
▁近年	-10.7445
の評価	-10.7445
ツイート	-10.7448
氏名	-10.7449
理由で	-10.745
知り合い	-10.7452
撮り	-10.7456
信仰	-10.7458
職人	-10.7459
やすくなります	-10.746
を問わず	-10.7461
金属	-10.7462
許	-10.7463
一杯	-10.7463
最終的に	-10.7464
お店の	-10.7465
ターゲット	-10.7466
あっという間に	-10.7466
本当にありがとうございました	-10.7468
しないで	-10.7469
礼	-10.747
発想	-10.747
配合	-10.7473
誕生	-10.7473
一週間	-10.7476
することもできます	-10.7479
価格は	-10.748
といって	-10.748
ればいい	-10.7481
▁それぞれの	-10.7482
お得に	-10.7485
頭皮	-10.7486
民族	-10.7487
元の	-10.7487
といい	-10.7488
だと思っています	-10.7488
はございません	-10.7488
族	-10.7491
範囲で	-10.7492
彼に	-10.7493
おもちゃ	-10.7493
が行われました	-10.7495
のですから	-10.7501
軒	-10.7503
損害	-10.7504
我々	-10.7504
必須	-10.7505
ヘア	-10.7507
受診	-10.7515
差別	-10.7517
人類	-10.752
代金	-10.752
車が	-10.7523
お花	-10.7523
望	-10.7525
ヒント	-10.7529
恥ずかしい	-10.7531
対策を	-10.7534
新作	-10.7535
丁目	-10.7535
MA	-10.7536
のデータ	-10.7536
部分は	-10.7542
がありましたら	-10.7543
枝	-10.7543
赤い	-10.7544
暇	-10.7545
お出かけ	-10.7545
レジ	-10.7547
○○	-10.7548
としている	-10.7548
冬の	-10.7549
▁そういえば	-10.755
にとっても	-10.7554
ひどい	-10.7555
とう	-10.7558
でしょうが	-10.7559
俺の	-10.756
センス	-10.756
メールを	-10.7561
捜査	-10.7562
使え	-10.7563
上映	-10.7563
の存在	-10.7564
基盤	-10.7564
秋の	-10.7565
借り	-10.7566
どういった	-10.7569
居る	-10.7569
▁前回	-10.757
矢	-10.7572
ある程度の	-10.7574
※	-10.7574
▁むしろ	-10.7575
陸	-10.7577
徳	-10.7578
金曜日	-10.7581
施行	-10.7581
安心感	-10.7583
120	-10.7584
司法書士	-10.7584
▁ホテル	-10.7586
ギター	-10.7586
の経験	-10.7587
何よりも	-10.7588
ご確認	-10.759
隣	-10.7591
欄	-10.7591
それまで	-10.7592
舞	-10.7594
男の子	-10.7594
難しく	-10.7595
700	-10.7597
きれいに	-10.7597
誰かが	-10.7599
ユニット	-10.7601
講義	-10.7604
たとえ	-10.7605
▁今日も	-10.7608
以前から	-10.7609
ハード	-10.7609
▁Web	-10.7612
カテゴリ	-10.7615
▁お客様の	-10.7617
気をつけ	-10.7617
時間がかかる	-10.7617
▁皆様	-10.7617
3.	-10.7619
が強く	-10.7619
健	-10.762
末	-10.7623
▁写真	-10.7623
国民の	-10.7625
正確な	-10.7625
いただいている	-10.7626
キーボード	-10.7628
紫外線	-10.7631
帰宅	-10.7641
毒	-10.7642
してみてはいかがでしょうか	-10.7642
送	-10.7644
統合	-10.7644
2011	-10.7644
付いて	-10.7647
者に	-10.7648
ことなど	-10.7648
こちらに	-10.7648
一瞬	-10.765
後から	-10.765
出来た	-10.7652
の管理	-10.7653
スッキリ	-10.7654
会社は	-10.7655
次は	-10.7656
#	-10.7656
信頼できる	-10.7656
を決めて	-10.7656
アイコン	-10.7657
医者	-10.7661
びっくり	-10.7663
勝負	-10.7664
異なります	-10.7666
デイ	-10.7671
ご提案	-10.7674
脇	-10.7675
テロ	-10.7676
関係ない	-10.7679
出席	-10.7681
身長	-10.7683
人もいます	-10.7684
奥さん	-10.7686
廃止	-10.7686
もん	-10.7687
フォト	-10.7689
いきたいと思います	-10.769
お越し	-10.7691
を増やす	-10.7691
個人的に	-10.7691
とのことで	-10.7692
プラグイン	-10.7693
▁2012	-10.7694
差し	-10.7694
へ行く	-10.7696
起き	-10.7696
有効な	-10.7697
<	-10.7698
という方	-10.7698
布団	-10.7699
コレ	-10.77
の基本	-10.77
内容の	-10.7702
人事	-10.7705
将来の	-10.7708
5,000	-10.7714
楽しかった	-10.7714
しているのは	-10.7715
介	-10.7718
検	-10.7719
に関する情報	-10.7719
復旧	-10.772
くれない	-10.7721
特殊な	-10.7723
のイベント	-10.7723
面積	-10.7723
二重	-10.7729
を見せて	-10.7729
どうも	-10.773
豆	-10.7731
地下鉄	-10.7731
SE	-10.7733
時刻	-10.7735
ちゃう	-10.7735
は大変	-10.7737
からといって	-10.7737
不倫証拠	-10.7739
★	-10.774
問題なく	-10.7743
解除	-10.7746
元々	-10.7746
週末	-10.775
残業	-10.775
使えます	-10.7751
言われて	-10.7751
is	-10.7752
持つ	-10.7756
死ぬ	-10.7759
拡張	-10.776
ギャラリー	-10.7761
させていただく	-10.7763
▁30	-10.7766
○	-10.7766
商店街	-10.777
万が一	-10.777
中学	-10.7771
が存在する	-10.7777
ができた	-10.7777
する際に	-10.7778
が出ている	-10.7779
厚	-10.778
ほうがいい	-10.7781
きている	-10.7782
捨て	-10.7784
流通	-10.7787
思っていた	-10.7787
頂きます	-10.7788
階段	-10.7788
年後	-10.7788
と考えております	-10.7791
▁尚	-10.7792
終了後	-10.7794
チャンネル	-10.7794
入場	-10.7794
送り	-10.7797
例外	-10.7798
チーズ	-10.78
をクリックして	-10.7801
スタッフの	-10.7802
まつり	-10.7802
眠	-10.7803
方向に	-10.7808
Mac	-10.7809
なくなって	-10.7812
プリ	-10.7813
護	-10.7814
必要はありません	-10.7816
ますよ	-10.7818
率は	-10.7818
ご利用いただけます	-10.7823
しまっている	-10.7825
でしたので	-10.7825
どうか	-10.7825
再開	-10.7826
財布	-10.7826
たぶん	-10.7826
.1	-10.7828
の女性	-10.7829
血管	-10.7829
発生する	-10.783
譲渡	-10.7834
姫	-10.7835
メッセージを	-10.7836
清掃	-10.7837
方で	-10.784
その人	-10.7842
▁上記の	-10.7843
代行	-10.7844
アクセサリー	-10.7845
お得	-10.7845
ポスター	-10.7845
どちらも	-10.7848
の価格	-10.7849
no	-10.7849
殆ど	-10.785
債務	-10.785
誰かに	-10.785
に興味	-10.7855
ものですが	-10.7861
主人公	-10.7861
のでご注意ください	-10.7861
寒さ	-10.7862
相性	-10.7862
走行	-10.7863
どれくらい	-10.7865
アドバイスを	-10.7867
グラフ	-10.7871
が必要になる	-10.7871
気味	-10.7874
ング	-10.7875
してくれ	-10.7876
光景	-10.7877
をご確認ください	-10.7877
中心	-10.788
つける	-10.7881
支持	-10.7882
だと思って	-10.7884
出店	-10.7884
に住む	-10.7886
プラットフォーム	-10.7886
されると	-10.7887
大いに	-10.7889
おくと	-10.7892
を切り	-10.7892
用語	-10.7892
を減らす	-10.7894
仮	-10.7895
やってきた	-10.7895
この記事	-10.7895
レコード	-10.7895
ポジション	-10.7896
子ども達	-10.7896
ものでした	-10.7898
いくと	-10.7898
そのうち	-10.7898
ありますので	-10.79
手の	-10.7903
限界	-10.7903
次元	-10.7906
損失	-10.7907
ロンドン	-10.7907
その時	-10.7908
創造	-10.7912
−	-10.7912
をみて	-10.7913
美味しく	-10.7915
運行	-10.7918
接客	-10.7918
ニア	-10.7919
原則として	-10.7919
の後	-10.7923
香港	-10.7924
上がり	-10.7925
単純に	-10.7926
ッツ	-10.7927
te	-10.7928
削減	-10.7929
ウィ	-10.7929
不可	-10.7929
側面	-10.793
ミッション	-10.7932
ヶ	-10.7934
たもの	-10.7935
ナイト	-10.7935
使用している	-10.7936
ようなので	-10.7939
に相談	-10.7941
驚いた	-10.7945
キング	-10.7946
しているため	-10.7947
という人は	-10.7947
洗い	-10.7948
まい	-10.7949
ER	-10.795
言えない	-10.7953
慣れ	-10.7953
出た	-10.7954
唯一の	-10.7954
告白	-10.7955
を維持	-10.7955
ツイッター	-10.7956
郷	-10.7956
当初	-10.7956
自己破産	-10.7961
歓迎	-10.7961
土日	-10.7963
夫の	-10.7963
専門学校	-10.7965
にわたって	-10.7968
SA	-10.797
自分でも	-10.7974
だと言えます	-10.7975
栄	-10.7977
の無い	-10.7979
大事に	-10.7982
用紙	-10.7982
遊	-10.7984
戦闘	-10.7985
遊ぶ	-10.7986
とは思いますが	-10.7986
したりする	-10.7987
記入	-10.7988
ことができれば	-10.7992
データの	-10.7992
営	-10.7993
なかったのですが	-10.7994
を起こす	-10.7995
のなかで	-10.7997
▁18	-10.7997
関係の	-10.7998
問題を	-10.7999
ものであり	-10.8001
の詳細	-10.8005
現場で	-10.8006
お気に入り	-10.8007
分解	-10.8008
どんなに	-10.8009
と思っていました	-10.8009
歴	-10.801
りして	-10.8011
が増え	-10.8011
アフリカ	-10.8012
残っている	-10.8013
住む	-10.8013
命令	-10.8015
ゴールド	-10.8016
▁はコメントを	-10.8017
が多かった	-10.8017
部分が	-10.8018
と言われました	-10.802
写真は	-10.802
従来の	-10.8021
をご用意	-10.8022
ご希望の	-10.8024
カテゴリー	-10.8026
日以内に	-10.8028
に役立つ	-10.8028
ことができるので	-10.8031
外出	-10.8033
視点	-10.8034
方法が	-10.8035
負荷	-10.8035
の質	-10.8036
にもなる	-10.8036
営業時間	-10.8037
mo	-10.8039
時間をかけて	-10.804
ゾ	-10.804
になると思います	-10.8044
をかける	-10.8044
というところ	-10.8045
症状が	-10.8045
年間の	-10.8047
の提供	-10.8048
47	-10.8049
行われ	-10.805
よろしくお願い致します	-10.8052
の場	-10.8052
であるため	-10.8053
録音	-10.8054
マラソン	-10.8054
を大きく	-10.8056
彼らは	-10.8056
リビング	-10.8058
▁中には	-10.806
解放	-10.8061
▁スマホ	-10.8062
お食事	-10.8063
何かを	-10.8065
NG	-10.8065
を除く	-10.8066
がございましたら	-10.8067
を進める	-10.8069
キャスト	-10.807
独特の	-10.807
転送	-10.8071
ホルモン	-10.8072
撃	-10.8072
破損	-10.8072
シティ	-10.8073
一括	-10.8073
みな	-10.8074
社会的	-10.8076
薬剤師	-10.8077
マッチ	-10.808
が可能な	-10.808
周囲の	-10.8081
は絶対に	-10.8083
ナン	-10.8084
行きました	-10.8085
似たような	-10.8086
暴力	-10.8088
一旦	-10.8089
そうですね	-10.8091
お願い致します	-10.8092
翌日	-10.8096
いますので	-10.8097
ご支援	-10.8098
▁無料	-10.8099
勢	-10.8101
その人の	-10.8102
離れ	-10.8102
デザインの	-10.8102
目で	-10.8102
拒否	-10.8103
になってから	-10.8104
これからの	-10.8105
当社が	-10.8106
マネジメント	-10.8109
マスク	-10.811
異性	-10.811
に位置する	-10.8111
分ほど	-10.8111
▁だけど	-10.8112
すればいい	-10.8113
実力	-10.8113
バル	-10.8114
耳に	-10.8119
など様々な	-10.8119
メント	-10.812
実装	-10.8122
連続	-10.8123
お互いの	-10.8123
頃に	-10.8123
集合	-10.8124
を学ぶ	-10.8126
申告	-10.8128
せいか	-10.8129
民間	-10.8129
SEO	-10.8129
治療法	-10.813
よくある	-10.813
事ができます	-10.8131
と感じた	-10.8131
魔	-10.8131
動いて	-10.8132
の機能	-10.8133
75	-10.8133
にもなります	-10.8133
震災	-10.8134
洋服	-10.8137
が難しい	-10.8138
寝て	-10.814
決めて	-10.8143
灯	-10.8146
リゾート	-10.8146
けどね	-10.8147
消	-10.8148
本部	-10.8148
細かく	-10.815
人も多い	-10.8153
機能を	-10.8154
極めて	-10.816
ST	-10.8161
にかかる	-10.8164
がおすすめです	-10.8164
判	-10.8165
情	-10.8166
言葉に	-10.8167
冷	-10.8171
奴	-10.8172
お客様から	-10.8173
ごく	-10.8174
の上で	-10.8174
札幌	-10.8176
大切	-10.8178
銀座	-10.8178
は基本的に	-10.8181
にした	-10.8182
好評	-10.8183
くださる	-10.8184
ようにして	-10.8184
なこと	-10.8184
存在する	-10.8185
店で	-10.8186
決意	-10.8187
の症状	-10.819
毎に	-10.819
連れ	-10.8191
それなりの	-10.8191
浦	-10.8192
ドン	-10.8192
プライバシー	-10.8194
仙台	-10.8196
働いている	-10.8199
▁正直	-10.8204
援助	-10.8204
置	-10.8204
▁アメリカ	-10.8204
クルマ	-10.8204
一人の	-10.8205
;	-10.8207
所属	-10.8207
連休	-10.8208
の方から	-10.8209
スペイン	-10.8209
それから	-10.821
美肌	-10.8211
で働く	-10.8211
るもの	-10.8212
そうでない	-10.8214
塔	-10.8216
ご存知	-10.8216
開設	-10.8219
不可能	-10.8223
出会	-10.8224
ワー	-10.8225
の長さ	-10.8226
驚きました	-10.8226
椅子	-10.8228
ストレッチ	-10.8232
濃い	-10.8233
個室	-10.8234
祝日	-10.8235
訂正	-10.8235
業者に	-10.8236
誠にありがとうございます	-10.8236
網	-10.8239
に含まれる	-10.824
とり	-10.824
支え	-10.824
突	-10.8241
ディスク	-10.8241
なしに	-10.8241
・・・」	-10.8243
をすること	-10.8244
悲しい	-10.8245
au	-10.825
だったが	-10.8251
が始まる	-10.8252
矯正	-10.8252
合成	-10.8253
と思いますので	-10.8254
お肌	-10.8254
確定申告	-10.8255
管理人	-10.8257
がんばって	-10.8257
を知り	-10.8258
を見ていると	-10.826
来店	-10.8261
イー	-10.8262
こない	-10.8262
いただいております	-10.8263
革	-10.8263
があるから	-10.8264
分かった	-10.8265
お断り	-10.8267
ma	-10.8267
歌詞	-10.8268
20%	-10.827
をすれば	-10.8271
人間は	-10.8271
web	-10.8271
に直接	-10.8275
をやっている	-10.8277
実習	-10.8277
はあります	-10.8278
と感じました	-10.8278
だんだん	-10.8279
をクリックすると	-10.8281
短く	-10.8281
国立	-10.8282
手で	-10.8284
分かりやすく	-10.8286
頭が	-10.8287
どこまで	-10.8287
表示される	-10.8292
おきます	-10.8293
のんびり	-10.8302
田舎	-10.8302
るという	-10.8302
おらず	-10.8302
一般の	-10.8303
智	-10.8304
サイズの	-10.8304
いきました	-10.8305
世帯	-10.831
やりたいこと	-10.8314
もあれば	-10.8314
児	-10.8314
我	-10.8314
きれい	-10.8319
判決	-10.8321
をとり	-10.8321
札	-10.8321
ベルト	-10.8324
中学校	-10.8325
勘違い	-10.8326
なさ	-10.8326
魅力的	-10.8331
爆発	-10.8332
たま	-10.8333
1.	-10.8335
、2016	-10.8338
してみた	-10.8342
最初	-10.8343
復帰	-10.8343
修	-10.8347
RE	-10.8348
日には	-10.835
風呂	-10.8352
SP	-10.8355
もまた	-10.8355
お値段	-10.8358
イオン	-10.8361
数々の	-10.8361
まち	-10.8361
のメンバー	-10.8364
の練習	-10.8367
感じで	-10.837
搭載	-10.8371
学科	-10.8376
サイクル	-10.8377
ステ	-10.8377
お時間	-10.8378
フィリピン	-10.8379
テクノロジー	-10.8379
が上がる	-10.838
パーティ	-10.8381
変動	-10.8382
サラリーマン	-10.8383
かい	-10.8384
をクリックします	-10.8384
築	-10.8385
64	-10.8385
▁Google	-10.8386
天然	-10.8387
口に	-10.8388
かと	-10.8389
行きます	-10.839
手が	-10.8392
の人気	-10.8392
送料無料	-10.8392
直し	-10.8393
されたり	-10.8394
作成した	-10.8394
お問合せ	-10.8396
自体	-10.8397
子さん	-10.8397
貴方	-10.8398
に沿って	-10.8399
没	-10.84
ad	-10.8403
怪我	-10.8407
このブログ	-10.8407
メソッド	-10.8409
インチ	-10.841
機能が	-10.8411
等に	-10.8413
にまで	-10.8415
を続ける	-10.8415
代謝	-10.8416
▁その中で	-10.8418
第三	-10.8418
之	-10.8418
▁現在の	-10.842
お客様は	-10.8421
困っている	-10.8421
要件	-10.8426
原因は	-10.8427
外に	-10.8432
おられる	-10.8432
結婚して	-10.8432
書いている	-10.8432
問題が	-10.8436
メールにて	-10.844
頻度	-10.844
をチェック	-10.8441
のサイト	-10.8442
があったら	-10.8443
頃から	-10.8443
を食べて	-10.8445
好きな人	-10.8446
を多く	-10.8446
などから	-10.8447
とこ	-10.845
天井	-10.845
自宅に	-10.845
育成	-10.845
正社員	-10.8451
クッキー	-10.8452
ランク	-10.8454
デー	-10.8456
委員	-10.8458
保険会社	-10.8458
訴訟	-10.846
飲み会	-10.8461
同士の	-10.8463
インターネットで	-10.8464
毛穴	-10.8466
幕	-10.8467
を変え	-10.8467
ッド	-10.8467
寒	-10.8469
をかけ	-10.8471
ありがたい	-10.8473
に掲載	-10.8473
タウン	-10.8474
お湯	-10.8474
注射	-10.8475
入った	-10.8477
なくなってしまう	-10.8478
ay	-10.8478
してもらった	-10.848
分かりやすい	-10.848
試し読み	-10.8481
の成長	-10.8481
帰国	-10.8482
生徒さん	-10.8482
千葉	-10.8486
全身脱毛	-10.8486
炎症	-10.8488
イライラ	-10.8489
▁V	-10.8489
しておけば	-10.8491
タブ	-10.8492
GO	-10.8493
マス	-10.8493
点は	-10.8493
英国	-10.8497
着用	-10.8501
▁中国	-10.8501
シャワー	-10.8501
効果は	-10.8504
オブ	-10.8504
独身	-10.8505
取り付け	-10.8507
犯	-10.8507
がかなり	-10.8509
いただければと思います	-10.8511
言っている	-10.8512
並んで	-10.8516
しま	-10.852
にあたって	-10.8523
当事者	-10.8525
▁X	-10.8527
古代	-10.8528
チャート	-10.853
集客	-10.8531
河	-10.8534
カタログ	-10.8534
業種	-10.8537
触れ	-10.8537
貢献	-10.8538
交付	-10.8542
トロ	-10.8545
っていました	-10.8546
さが	-10.8546
が出てきます	-10.8546
価格が	-10.8548
手帳	-10.8548
丁寧な	-10.8549
ジュース	-10.855
コスメ	-10.855
ごとの	-10.855
キット	-10.855
衝撃	-10.8551
2010	-10.8551
盛	-10.8557
ブログを	-10.8557
の状況	-10.8557
年で	-10.8558
家庭教師	-10.8563
製の	-10.8565
してました	-10.8567
を追加	-10.857
ずいぶん	-10.8571
りと	-10.8571
的にも	-10.8572
生成	-10.8573
がわかる	-10.8573
にしか	-10.8574
を求め	-10.8575
できていない	-10.8575
匹	-10.8577
以前の	-10.8579
講演会	-10.858
今月	-10.8582
に戻って	-10.8583
ものではなく	-10.8584
の目的	-10.8584
を引き	-10.8585
かかって	-10.8588
沼	-10.8589
通院	-10.8589
筆	-10.8591
ところが	-10.8592
悩んでいる	-10.8593
時期に	-10.8595
紀	-10.8596
(1	-10.86
ダブル	-10.86
と考えます	-10.8603
俳優	-10.8605
と思ってます	-10.8607
患者様	-10.8607
返す	-10.8609
ボーナス	-10.8609
充実	-10.861
江戸	-10.861
出来るだけ	-10.861
が出てきた	-10.8612
ポケモン	-10.8615
させること	-10.8615
ばかりの	-10.8616
を作った	-10.8617
発症	-10.8618
を提示	-10.8623
展示会	-10.8625
が行われる	-10.8625
ところを	-10.8628
TO	-10.863
をもつ	-10.863
▁東京都	-10.8631
レッド	-10.8632
つらい	-10.8636
イエス	-10.8638
業績	-10.8638
わかります	-10.8638
行ける	-10.8638
をきちんと	-10.8639
わけですから	-10.864
らなかった	-10.8641
保障	-10.8641
大丈夫です	-10.8641
地上	-10.8642
もかなり	-10.8645
主催	-10.8648
人たちは	-10.865
総会	-10.8651
をより	-10.8654
▁それと	-10.8656
貯金	-10.8658
仕方がない	-10.8658
ことのない	-10.8659
乾燥肌	-10.866
身体に	-10.866
ではなくて	-10.8661
ドキドキ	-10.8665
だらけ	-10.8666
後も	-10.8667
焼	-10.8668
している人	-10.8668
以前に	-10.8668
テープ	-10.867
ッチ	-10.8678
稲	-10.8682
を有する	-10.8682
不明	-10.8682
販売店	-10.8683
足りない	-10.8684
ペース	-10.8685
子供に	-10.8685
が多数	-10.8688
どっち	-10.8688
男性に	-10.8689
現役	-10.8689
ってしまった	-10.869
の通り	-10.8691
年間で	-10.8693
続けた	-10.8693
▁Windows	-10.8693
即日	-10.8695
サクラ	-10.8695
出勤	-10.8696
大事	-10.8696
歯の	-10.8696
温かい	-10.8698
修復	-10.8698
ただの	-10.8699
送付	-10.8701
一面	-10.8702
間で	-10.8702
言われる	-10.8707
の下に	-10.8709
進む	-10.8709
ショート	-10.8709
外れ	-10.8709
んじゃない	-10.8709
▁自分は	-10.8713
US	-10.8717
働き方	-10.8718
を獲得	-10.8725
漢字	-10.8725
水を	-10.8727
の撮影	-10.8728
照明	-10.8729
を開催します	-10.8732
ことも可能です	-10.8734
NO	-10.8735
グル	-10.8737
を用意	-10.8738
にあたり	-10.8739
に注目	-10.874
文学	-10.8741
作品は	-10.8741
当選	-10.8741
行い	-10.8746
利用者の	-10.8748
奈	-10.875
結果として	-10.875
足を	-10.8751
を使用している	-10.8753
ご利用ください	-10.8754
失礼	-10.8755
を理解し	-10.8756
にお	-10.8757
度に	-10.8759
良くない	-10.876
厳しく	-10.8761
仕入れ	-10.8764
手続きを	-10.8764
に比べると	-10.8766
漏れ	-10.8768
ファミリー	-10.8768
が登場	-10.8768
50%	-10.8769
名様	-10.8771
をきっかけに	-10.8773
うつ	-10.8776
かわからない	-10.8776
自分から	-10.8777
共感	-10.878
基地	-10.8785
ro	-10.8787
てきて	-10.8787
いけない	-10.8787
急な	-10.8789
気に入った	-10.8792
をやって	-10.8792
ソリューション	-10.8795
のポイント	-10.8795
集まって	-10.8796
にはならない	-10.8796
月曜日	-10.8801
HTML	-10.8801
持続	-10.8806
方法について	-10.8809
所有	-10.881
友達と	-10.881
と言っている	-10.8811
予め	-10.8812
成人	-10.8813
舌	-10.8813
しているのか	-10.8814
ということもあり	-10.8815
泣き	-10.8817
旅館	-10.8818
分くらい	-10.8818
はもちろんのこと	-10.8818
やろう	-10.8821
消費税	-10.8823
施策	-10.8825
を受けている	-10.8827
していたので	-10.8827
期間が	-10.8828
が入って	-10.8828
山の	-10.8829
オブジェクト	-10.8829
してみませんか	-10.8831
ことと	-10.8831
レーザー	-10.8832
ne	-10.8833
全般	-10.8833
皆さんの	-10.8834
外の	-10.8835
を出	-10.8835
ようにしています	-10.884
建物の	-10.884
してまいります	-10.8843
世間	-10.8844
の予約	-10.8844
無駄な	-10.8846
▁これにより	-10.8847
▁iPhone	-10.8847
かつて	-10.8847
りします	-10.8848
しておくと	-10.8849
状態です	-10.8851
できるようになりました	-10.8851
広報	-10.8852
に移	-10.8855
コンテスト	-10.8856
奇	-10.8857
読める	-10.8858
亡くなった	-10.8858
彩	-10.8858
ビジョン	-10.8858
相互	-10.8859
初日	-10.886
ということも	-10.8861
条例	-10.8862
は決して	-10.8862
選手が	-10.8863
に感謝	-10.8864
こちらは	-10.8864
に登録	-10.8865
訪れる	-10.8865
▁残念ながら	-10.8865
ATM	-10.8866
親の	-10.8868
処置	-10.8868
犬の	-10.8869
造り	-10.887
領	-10.8873
の口コミ	-10.8874
紹介します	-10.8877
創	-10.8877
付き合って	-10.8878
使われる	-10.8881
を繰り返し	-10.8882
宜しくお願い致します	-10.8886
わり	-10.8886
マスコミ	-10.8887
を図る	-10.8897
を明確に	-10.8898
ウェイ	-10.8898
あくまで	-10.8899
ブリ	-10.8901
ビザ	-10.8902
をつくる	-10.8903
費用は	-10.8903
と聞いて	-10.8905
FC	-10.8905
言います	-10.8905
キュ	-10.8907
埼玉県	-10.8907
だったのか	-10.8908
▁以下の	-10.8909
観光地	-10.891
した方が	-10.8914
親が	-10.8914
料金が	-10.8915
サービスは	-10.8915
ミン	-10.8916
赤ちゃんの	-10.8918
▁一般的に	-10.8918
▁最初に	-10.8919
2020	-10.8919
両方	-10.8919
カラ	-10.892
グルメ	-10.8922
税理士	-10.8923
のサービス	-10.8925
たくて	-10.8925
なんだろう	-10.8926
だけを	-10.8927
お昼	-10.8933
コンサルタント	-10.8933
誘導	-10.8933
取り扱い	-10.8936
というわけです	-10.8939
に合う	-10.8943
際の	-10.8945
やすくなる	-10.8945
数学	-10.8945
を超えた	-10.8946
お手入れ	-10.8946
お楽しみ	-10.8946
講習	-10.8948
当社は	-10.8949
自分にとって	-10.8951
ったら	-10.8951
職場の	-10.8951
▁以下	-10.8953
薬局	-10.8954
感じです	-10.8955
頂いて	-10.8955
の情報を	-10.8955
ケン	-10.8956
そうなので	-10.8958
雑貨	-10.8958
小型	-10.8958
住	-10.896
英語の	-10.8961
謝	-10.8962
投	-10.8963
の働き	-10.8966
いこう	-10.8966
狭	-10.8967
海外旅行	-10.8969
下り	-10.8973
財政	-10.8976
するのではなく	-10.8977
ディズニー	-10.8979
権限	-10.898
とある	-10.898
奈良	-10.8981
を確認して	-10.8982
テニス	-10.8983
ないし	-10.8984
移住	-10.8984
戻	-10.8986
疲労	-10.8988
を使用し	-10.8989
▁たくさんの	-10.8991
フィルム	-10.8992
と比べると	-10.8994
タンパク質	-10.8996
頭の	-10.8997
フルーツ	-10.8998
身近な	-10.8999
文字列	-10.8999
無効	-10.8999
数日	-10.9
に向かう	-10.9001
活	-10.9002
新人	-10.9003
つもりで	-10.9004
を目指し	-10.9007
のデザイン	-10.9007
▁一番	-10.9007
終わる	-10.9008
いかない	-10.9011
た場合	-10.9014
組合	-10.9014
やめ	-10.9014
一度は	-10.9015
求める	-10.9016
▁北海道	-10.902
がなくても	-10.9021
臭	-10.9023
ハー	-10.9027
▁もしかしたら	-10.9027
出展	-10.9028
かない	-10.9028
をしても	-10.9029
に入れる	-10.903
▁はい	-10.903
お伺い	-10.9033
▁私たち	-10.9038
顔の	-10.9039
支配	-10.904
詩	-10.904
衣	-10.9041
ふと	-10.9043
に見える	-10.9045
の人は	-10.9047
巡り	-10.9047
納	-10.905
使い勝手	-10.9052
コミック	-10.9052
頭を	-10.9053
44	-10.9054
立派な	-10.9055
受賞	-10.9056
感染症	-10.9057
判定	-10.906
していただきました	-10.906
コンセプト	-10.906
交通事故	-10.9061
同期	-10.9062
▁2011	-10.9063
佐	-10.9063
がつく	-10.9064
通話	-10.9066
神の	-10.9067
起きて	-10.9067
知った	-10.9068
せい	-10.9071
上から	-10.9071
ロング	-10.9072
▁この度	-10.9072
の人	-10.9073
はありませんでした	-10.9074
なきゃ	-10.9076
▁但し	-10.9077
富士	-10.9079
▁更に	-10.9082
配偶者	-10.9084
正確に	-10.9087
かかった	-10.9087
工程	-10.9088
変え	-10.9092
との出会い	-10.9096
心理学	-10.9098
のお客様	-10.9098
のですね	-10.91
を探している	-10.9101
大阪府	-10.9104
抗	-10.9107
頼	-10.9108
どれも	-10.9108
同時	-10.9116
マイル	-10.9117
ワード	-10.9119
経験を	-10.9119
いるようです	-10.912
くらいに	-10.9122
コーチ	-10.9125
博士	-10.9127
不要	-10.9127
ピー	-10.9128
健康に	-10.9131
が必要だ	-10.9131
生涯	-10.9132
を参照	-10.9133
ページの	-10.9134
くなる	-10.9136
を送る	-10.9138
人工	-10.9139
レート	-10.9141
▁以上	-10.9141
激しい	-10.9141
▁この場合	-10.9142
IS	-10.9142
ことのできる	-10.9145
゚	-10.9147
引退	-10.9147
ロール	-10.9147
を開く	-10.9148
の導入	-10.915
一致	-10.9152
どのくらい	-10.9152
でしか	-10.9154
がわからない	-10.9154
▁彼女は	-10.9157
改良	-10.9161
が出来	-10.9161
補助金	-10.9161
興味深い	-10.9161
肌荒れ	-10.9164
ゆう	-10.9165
▁こちらも	-10.9166
だね	-10.9168
選んだ	-10.9171
勢い	-10.9175
大阪市	-10.9175
花火	-10.9176
場所は	-10.9177
割合	-10.9177
カリ	-10.9177
を付けて	-10.9178
努力を	-10.9178
のご案内	-10.9179
緩和	-10.918
キン	-10.918
42	-10.9182
売って	-10.9182
トー	-10.9183
が足りない	-10.9187
タスク	-10.9189
使われている	-10.919
とのことでした	-10.9192
そういうこと	-10.9194
悩んで	-10.9196
数年	-10.9199
参考になる	-10.9199
中間	-10.92
ローカル	-10.92
虫歯	-10.9202
をすることで	-10.9203
机	-10.9203
お店に	-10.9206
演	-10.9206
49	-10.9207
することがあります	-10.9208
部分に	-10.9209
▁I	-10.9211
迎え	-10.9211
の森	-10.9215
いえ	-10.9215
仁	-10.9216
べく	-10.9217
はしない	-10.9218
ようでした	-10.9218
ップ	-10.9219
レイアウト	-10.9221
化粧	-10.9223
店内	-10.9223
購入しました	-10.9224
それだけで	-10.9227
いいか	-10.9228
がほとんど	-10.9229
されております	-10.9232
ミルク	-10.9233
寂しい	-10.9235
棟	-10.9236
優秀な	-10.9236
をご用意しております	-10.9236
定め	-10.9237
英会話	-10.9241
RO	-10.9244
の子	-10.9247
できる限り	-10.9249
針	-10.925
犯人	-10.925
サイトです	-10.9251
まさか	-10.9253
周年記念	-10.9254
のお知らせ	-10.9254
いただくと	-10.9256
ございます	-10.9258
防衛	-10.9258
っこ	-10.926
生き方	-10.926
てから	-10.9262
ないけど	-10.9262
ある意味	-10.9263
指導者	-10.9264
幅広く	-10.9264
決まり	-10.9264
聞こえ	-10.9265
を送って	-10.9268
大規模な	-10.9272
を提案	-10.9275
ジャー	-10.9275
本人が	-10.9275
方でも	-10.9277
ω	-10.9277
方面	-10.9277
悪化	-10.9277
一度も	-10.9281
――	-10.9281
何回も	-10.9281
千葉県	-10.9283
明確な	-10.9284
該当	-10.9285
▁様々な	-10.9285
してみたい	-10.9286
録画	-10.9286
子供を	-10.9287
凄く	-10.9288
エア	-10.9288
上げて	-10.9293
▁結婚	-10.9294
あわせて	-10.9294
参	-10.9295
可能性が	-10.9296
単位で	-10.9296
二つ	-10.93
美人	-10.9302
id	-10.9302
浮気不倫調査は探偵	-10.9302
追	-10.9303
シュー	-10.9303
▁大阪	-10.9306
彼と	-10.9306
暖かい	-10.9306
うる	-10.9308
粒	-10.931
をお持ち	-10.931
得られる	-10.931
養	-10.9311
個々の	-10.9311
がち	-10.9312
ちゃんが	-10.9312
主要	-10.9313
はどこ	-10.9313
てくれた	-10.9313
』『	-10.9315
進学	-10.9317
AL	-10.932
お前	-10.932
最終的には	-10.9321
特許	-10.9325
利息	-10.9326
ロス	-10.9327
食べられる	-10.9328
リード	-10.933
▁海外	-10.934
安定した	-10.9344
決めた	-10.9344
朝の	-10.9345
VR	-10.9348
した結果	-10.9348
時間で	-10.9349
順に	-10.935
オレンジ	-10.9351
飾り	-10.9352
に使う	-10.9352
男が	-10.9356
かれ	-10.9356
興	-10.9356
をテーマに	-10.9356
個人的な	-10.9357
してもらって	-10.9359
切手	-10.9362
利用している	-10.9362
システムの	-10.9363
休業	-10.9363
行こう	-10.9363
を進め	-10.9365
製品の	-10.9366
学校で	-10.9367
応え	-10.9367
意見を	-10.9368
的なもの	-10.9368
されたもの	-10.9369
鑑賞	-10.9369
(?	-10.9371
得意	-10.9371
てしまうと	-10.9372
行かない	-10.9372
祈り	-10.9372
特殊	-10.9374
推奨	-10.9378
効果があります	-10.9378
というより	-10.9381
登山	-10.9385
豊富	-10.9392
開き	-10.9392
の時期	-10.9394
紛失	-10.9396
▁ある	-10.9398
年度の	-10.9399
ポスト	-10.9401
重視	-10.9402
題	-10.9402
のだけど	-10.9403
アナ	-10.9405
をしていました	-10.9406
身に	-10.9407
全体的に	-10.9407
の手続き	-10.9408
の画像	-10.9409
銘柄	-10.9409
の様子を	-10.941
都道府県	-10.9411
%	-10.9418
生き物	-10.9418
本人の	-10.9418
申し	-10.9419
パパ活	-10.9419
99	-10.9419
同様	-10.942
アマゾン	-10.942
どうやら	-10.9421
冷たい	-10.9421
揚げ	-10.9424
サービスです	-10.9425
んじゃ	-10.9426
お手数ですが	-10.9428
杉	-10.9429
と考えた	-10.9429
していても	-10.9432
込め	-10.9433
他人に	-10.9434
ことについて	-10.9435
の価値	-10.9435
確か	-10.9438
見つけた	-10.9438
▁テレビ	-10.944
をお願い致します	-10.944
チュ	-10.9441
ソロ	-10.9441
評	-10.9442
をしてくれる	-10.9443
区別	-10.9445
を決め	-10.9446
早朝	-10.9447
▁4.	-10.9447
性質	-10.9448
がありましたが	-10.9449
こうして	-10.945
自分に合った	-10.9451
観測	-10.9451
お答え	-10.9451
るため	-10.9452
▁――	-10.9453
ビット	-10.9454
▁男性	-10.9456
決める	-10.9458
当日の	-10.9458
外観	-10.946
客室	-10.946
▁→	-10.9462
の授業	-10.9462
ホテルの	-10.9463
らせ	-10.9465
仕事をしている	-10.9465
1%	-10.9465
▁・・・	-10.9466
繋がり	-10.9468
日本でも	-10.9469
よりは	-10.947
書かれた	-10.9472
が入る	-10.9472
をはじめとする	-10.9473
主体	-10.9477
抜け毛	-10.9479
本物の	-10.9479
言われ	-10.948
▁三	-10.9481
言葉が	-10.9482
鳴	-10.9483
をそのまま	-10.9483
分間	-10.9483
いないので	-10.9485
よくわからない	-10.9487
お金の	-10.9487
余計な	-10.9487
狙い	-10.9488
はどんな	-10.949
ジャケット	-10.949
今日も	-10.949
しろ	-10.9492
を一緒に	-10.9492
を買い	-10.9496
人にとっては	-10.9497
剣	-10.9498
張	-10.9498
お肉	-10.9501
ボー	-10.9504
通りの	-10.9505
強力な	-10.9505
方から	-10.9506
を出し	-10.9508
を読む	-10.9509
ないもの	-10.9509
これまでに	-10.951
で行われた	-10.951
わけじゃない	-10.9511
ハンド	-10.9513
市町村	-10.9515
▁以前は	-10.9517
がついて	-10.9519
メルマガ	-10.9522
だとか	-10.9522
亀	-10.9523
かん	-10.9524
▁なんと	-10.9525
週に	-10.9526
を感じた	-10.9526
2019	-10.9526
1～2	-10.9527
に戻る	-10.9528
ものがある	-10.9528
になるのか	-10.9529
を続けて	-10.953
は難しい	-10.9533
倉	-10.9533
協議	-10.9535
学園	-10.9535
記者	-10.9536
添付	-10.9537
を渡	-10.954
考慮	-10.9542
CA	-10.9543
畳	-10.9544
振興	-10.9546
AN	-10.9548
悩む	-10.9548
行動を	-10.9552
昼食	-10.9552
LED	-10.9554
足の	-10.9555
どころ	-10.9556
を取得	-10.9556
嫁の浮気を見破る方法	-10.9556
たっぷり	-10.9557
が入った	-10.9558
真似	-10.9561
令	-10.9562
▁夏	-10.9563
ぼく	-10.9565
入居	-10.9568
を利用	-10.957
の部分	-10.9571
だったと思います	-10.9573
ロゴ	-10.9573
になっており	-10.9574
コラボ	-10.9574
チームの	-10.9576
立地	-10.9577
まった	-10.958
させて頂いております	-10.958
試み	-10.9581
が続く	-10.9585
が少し	-10.9588
おかげで	-10.9589
決	-10.9589
アレ	-10.959
に住んでいる	-10.959
いませんが	-10.9591
こそが	-10.9594
愛用	-10.9594
する人	-10.9595
ゆる	-10.9597
夜間	-10.9598
男の	-10.9599
に貢献	-10.9599
気づいた	-10.9601
衛生	-10.9601
の元	-10.9601
に出る	-10.9603
▁彼らは	-10.9603
聴いて	-10.9603
できませんでした	-10.9604
上下	-10.9604
敏感肌	-10.9605
得る	-10.9606
することはできません	-10.9607
速やかに	-10.9608
描き	-10.9612
8.	-10.9613
ことができるのです	-10.9614
・・・・	-10.9615
形状	-10.9616
妻が	-10.9617
より多くの	-10.9617
家を	-10.9618
黄	-10.9619
が生じる	-10.9621
ホット	-10.9621
病院に	-10.9621
いずれも	-10.9622
ご説明	-10.9622
スタンプ	-10.9622
保育士	-10.9624
ついつい	-10.9624
借	-10.9625
発表会	-10.9626
はっきりと	-10.9626
似ている	-10.9627
美容液	-10.9627
不調	-10.9628
格好	-10.9628
―	-10.9629
も一緒に	-10.963
us	-10.963
モンスター	-10.963
だと思いました	-10.9632
関わり	-10.9633
感覚で	-10.9635
男は	-10.9635
探して	-10.9635
かのように	-10.9635
前は	-10.9637
1.5	-10.9637
クラスの	-10.9638
めて	-10.964
謎	-10.964
うつ病	-10.964
支払う	-10.9641
ver	-10.9641
▁こうして	-10.9641
詳細な	-10.9645
の更新	-10.9646
部下	-10.9648
しておりません	-10.9648
を掲載	-10.9648
社会の	-10.9649
をプレゼント	-10.965
ation	-10.9651
のが一番	-10.9652
度の	-10.9653
▁なかなか	-10.9654
を含めて	-10.9654
などにも	-10.9655
稼げる	-10.9655
月には	-10.9656
付きの	-10.9657
▁昔	-10.9657
のお仕事	-10.9658
ネット上で	-10.9659
環境に	-10.9659
いたしますので	-10.9659
水道	-10.966
ほんの	-10.9663
みれば	-10.9664
に関連する	-10.9667
技術者	-10.9668
かも知れない	-10.9668
達が	-10.967
かわ	-10.9672
事です	-10.9673
だということ	-10.9674
しておりました	-10.9674
を得て	-10.9675
ものすごく	-10.9677
ラブ	-10.9678
モー	-10.9679
朝から	-10.9679
二人で	-10.968
合わない	-10.9682
元気な	-10.9685
執筆	-10.9685
黒い	-10.9688
現代の	-10.969
を飲む	-10.9691
▁それにしても	-10.9693
全力で	-10.9693
某	-10.9694
に乗り	-10.9696
▁最近の	-10.9697
▁子供	-10.9698
を知っている	-10.9701
観客	-10.9702
にわたり	-10.9702
以降の	-10.9703
スレ	-10.9703
益	-10.9703
されてる	-10.9706
旦那さん	-10.9709
そこは	-10.9711
で開催される	-10.9712
を置いて	-10.9713
の味	-10.9715
ここから	-10.9716
麻	-10.9716
ばかりです	-10.9718
算	-10.9719
顔が	-10.9719
に入っている	-10.9722
ハート	-10.9722
こんにちは	-10.9724
and	-10.9725
発達	-10.9727
気をつけて	-10.9731
千円	-10.9731
しないといけない	-10.9732
のうえ	-10.9733
都会	-10.9733
に設定	-10.9736
持	-10.9736
妻の	-10.974
余り	-10.9741
食べたい	-10.9742
スイーツ	-10.9743
あきらめ	-10.9743
備え	-10.9744
仏教	-10.9744
良いです	-10.9744
のは難しい	-10.9746
会の	-10.9746
疑い	-10.9746
体型	-10.9747
運命	-10.9748
俺が	-10.975
宅配	-10.9751
を考えている	-10.9751
シフト	-10.9751
例え	-10.9752
蓄積	-10.9756
桃	-10.9758
のサイズ	-10.9758
言ってる	-10.9758
次のように	-10.9759
ドラ	-10.9761
のほう	-10.9761
は少ない	-10.9762
かもしれないが	-10.9762
▁○	-10.9763
に対しては	-10.9763
あまりに	-10.9764
ウィンドウ	-10.9766
DS	-10.9766
名が	-10.9767
夫が	-10.9769
でありながら	-10.9769
▁JR	-10.9769
懸念	-10.977
すこと	-10.9771
明確に	-10.9772
同一	-10.9773
ヵ月	-10.9773
キレイ	-10.9774
良いのか	-10.9774
遺伝子	-10.9775
言わない	-10.9776
シア	-10.9776
知ってる	-10.9776
マッチング	-10.9777
排出	-10.9777
という感じ	-10.9778
誇り	-10.9781
できるか	-10.9781
名刺	-10.9784
規格	-10.9784
かもしれないけど	-10.9786
▁この日は	-10.9786
▁/	-10.9787
容易に	-10.9788
市長	-10.9788
砂糖	-10.9789
コンピューター	-10.9791
▁そうした	-10.9791
依存	-10.9792
刀	-10.9793
乗って	-10.9794
ていません	-10.9796
兼	-10.9798
階の	-10.98
財	-10.9803
のリスク	-10.9804
を使用しています	-10.9805
昼間	-10.9805
もありましたが	-10.9806
署名	-10.9807
つつある	-10.9808
稼働	-10.981
形に	-10.981
保守	-10.9811
ことになった	-10.9815
自立	-10.9819
パンツ	-10.9822
ピンク	-10.9823
給	-10.9824
金額が	-10.9824
という事で	-10.9826
出身の	-10.9828
の内容を	-10.9828
要請	-10.9831
入社	-10.9831
みたり	-10.9832
されません	-10.9832
投げ	-10.9833
ta	-10.9833
神奈川県	-10.9834
本作	-10.9835
ご本人	-10.9836
求め	-10.9838
難易度	-10.9839
という人	-10.984
暗い	-10.9842
域	-10.9842
▁全	-10.9843
ダム	-10.9845
はすでに	-10.9845
ポン	-10.9846
▁私たちの	-10.9849
を実行	-10.9851
あげ	-10.9851
熟	-10.9851
学んで	-10.9853
刺	-10.9854
HO	-10.9856
というイメージ	-10.9857
するなら	-10.9857
化する	-10.9859
冷静に	-10.9861
家族で	-10.9863
が好きで	-10.9864
希望の	-10.9864
まれ	-10.9864
させていただいた	-10.9865
たか	-10.9865
をご	-10.9865
任意整理	-10.9867
▁かなり	-10.9868
頃には	-10.9868
幸福	-10.9869
▁当然	-10.987
ていると	-10.987
歌手	-10.9873
圧倒的に	-10.9873
健康な	-10.9877
おう	-10.9877
射	-10.9878
いつの間にか	-10.9879
する機会	-10.988
すっきり	-10.9883
していくこと	-10.9884
がある場合	-10.9884
na	-10.9884
年半	-10.9885
ままに	-10.9886
会える	-10.9892
暗	-10.9893
おしゃれ	-10.9894
声をかけて	-10.9894
自動で	-10.9898
認知	-10.9898
問題ありません	-10.9905
グリ	-10.9907
開いて	-10.9909
就職活動	-10.9909
喜	-10.991
取扱	-10.9911
売れ	-10.9912
学者	-10.9913
続いて	-10.9913
保有	-10.9914
情熱	-10.9914
その結果	-10.9916
なのかな	-10.9916
リス	-10.9917
シンガポール	-10.9918
を積極的に	-10.9918
われ	-10.9919
出会った	-10.9919
▁そこで今回は	-10.9919
重量	-10.9921
▁当時	-10.9922
コンサルティング	-10.9922
原料	-10.9922
ものもあります	-10.9924
何となく	-10.9925
輸出	-10.9927
わたしは	-10.9927
アイス	-10.9927
書店	-10.9928
オススメです	-10.9928
うどん	-10.9928
56	-10.9928
商売	-10.9929
伊	-10.993
担保	-10.9933
注意点	-10.9933
よし	-10.9935
ためです	-10.9936
MI	-10.9938
警告	-10.9939
お店です	-10.994
線の	-10.9941
劣化	-10.9942
思っています	-10.9943
ができました	-10.9945
進み	-10.9945
・・。	-10.9945
どおり	-10.9946
紹介しています	-10.9946
シンプル	-10.9946
ネイル	-10.9948
この本	-10.9949
はほぼ	-10.9953
と思いますよ	-10.9954
殿	-10.9954
▁当サイト	-10.9956
激	-10.9956
物事	-10.9956
気候	-10.9958
の影響で	-10.9958
登	-10.9959
みても	-10.9961
滝	-10.9963
本当は	-10.9965
夜に	-10.9968
ネコ	-10.9969
当院	-10.997
ますよね	-10.997
になるでしょう	-10.9972
当時は	-10.9974
性の	-10.9976
家族が	-10.9978
エス	-10.9982
チップ	-10.9982
私にとって	-10.9983
違法	-10.9983
店頭	-10.9983
決まった	-10.9983
くださり	-10.9984
以下のように	-10.9984
過ご	-10.9987
証券	-10.9988
▁商品	-10.999
行ってきました	-10.999
切る	-10.9991
総額	-10.9992
ガーデン	-10.9993
NPO	-10.9994
芸能人	-10.9994
並び	-10.9994
方法があります	-10.9997
テレ	-10.9999
緩	-11
というものです	-11.0002
みたいで	-11.0004
可能性もある	-11.0006
きましたが	-11.0008
澤	-11.0009
私と	-11.001
整	-11.0012
▁約	-11.0013
かなぁ	-11.0014
トマト	-11.0015
の新	-11.0016
中々	-11.0017
提示	-11.0018
良いと思います	-11.0024
現在では	-11.0025
わたしの	-11.0026
が最も	-11.0027
を満喫	-11.0028
みたいですね	-11.003
博	-11.0031
感じました	-11.0031
インター	-11.0034
43	-11.0034
上手	-11.0034
タレント	-11.0036
逮捕	-11.0036
になっているので	-11.0039
を支える	-11.0042
になっております	-11.0043
美しさ	-11.0044
愛知県	-11.0044
に行くと	-11.0046
オリジナルの	-11.0047
秀	-11.0048
カードの	-11.0051
▁よって	-11.0052
意思	-11.0052
禁煙	-11.0055
早期	-11.0055
に立ち	-11.0058
ことができて	-11.006
歯科医院	-11.0061
高等学校	-11.0063
死んで	-11.0063
可能な限り	-11.0063
高度な	-11.0064
それ以外の	-11.0064
ご応募	-11.0065
つぶ	-11.0065
やらない	-11.0066
▁気になる	-11.0068
訪れた	-11.007
ナビ	-11.0073
アド	-11.0073
活性化	-11.0077
晩	-11.0077
サイトは	-11.0078
簡単です	-11.008
かを	-11.0081
遅い	-11.0081
ココ	-11.0082
書いてある	-11.0085
部署	-11.0086
を選択し	-11.0088
を開いて	-11.009
直す	-11.0091
ご登録	-11.0092
いったい	-11.0094
▁彼の	-11.0095
くら	-11.0097
に連絡	-11.0097
効果的	-11.01
彼らが	-11.01
時半	-11.01
提携	-11.0101
分類	-11.0101
長男	-11.0102
ラスト	-11.0105
ヒト	-11.0107
株価	-11.0108
闘	-11.0108
参加して	-11.0119
何故	-11.012
II	-11.012
スコア	-11.0121
国道	-11.0122
といわれる	-11.0123
があるか	-11.0123
死んだ	-11.0123
アニメーション	-11.0124
言い方	-11.0125
冒険	-11.0125
li	-11.0126
合っている	-11.0126
を紹介する	-11.013
洗浄	-11.013
巨大な	-11.0131
を超え	-11.0133
を置く	-11.0135
に通う	-11.0138
糖質	-11.0139
仕掛け	-11.014
金額を	-11.014
ヘッド	-11.0142
スピーカー	-11.0142
ねえ	-11.0144
コーディネート	-11.0144
の相談	-11.0146
尊敬	-11.0148
属性	-11.015
入口	-11.015
いじめ	-11.0151
オークション	-11.0152
必要に応じて	-11.0152
の方の	-11.0154
役立つ	-11.0154
自衛隊	-11.0156
と思っていましたが	-11.0157
をどう	-11.0157
が重要	-11.0159
花粉症	-11.016
▁これだけ	-11.0162
悪く	-11.0163
おしゃれな	-11.0165
泡	-11.0165
棒	-11.0166
▁俺は	-11.0167
年末年始	-11.0167
はよく	-11.0168
▁ダイエット	-11.0169
ユー	-11.0169
貿易	-11.0174
ゆく	-11.0174
休暇	-11.0174
お好きな	-11.0174
他者	-11.0174
は何も	-11.0175
ート	-11.0176
のご予約	-11.0178
普段から	-11.0179
係	-11.018
ぐらいの	-11.0182
決算	-11.0182
さらなる	-11.0182
選手の	-11.0183
頂けます	-11.0183
向こう	-11.0183
たとき	-11.0185
食物繊維	-11.0185
いている	-11.0186
使えない	-11.0187
これに	-11.0187
面倒な	-11.0187
コラーゲン	-11.0188
、2015	-11.0191
お金を借りる	-11.0191
同社	-11.0192
チョコ	-11.0192
ピーク	-11.0193
面で	-11.0195
することが出来ます	-11.0195
場合によっては	-11.0196
もしっかり	-11.0198
長い間	-11.02
といえる	-11.02
言える	-11.0201
を活用する	-11.0204
所有者	-11.0205
賃金	-11.0207
ひたすら	-11.0208
免疫	-11.0208
3,000	-11.0208
にアクセス	-11.0209
St	-11.0211
それぞれに	-11.0211
閉鎖	-11.0213
手元に	-11.0213
生活に	-11.0215
襲	-11.0215
あげて	-11.0217
東日本大震災	-11.0218
日曜	-11.022
好きです	-11.0221
を知らない	-11.0222
ME	-11.0224
レベルで	-11.0227
の予防	-11.0228
いながら	-11.023
ちゃった	-11.0234
デスクトップ	-11.0234
法律事務所	-11.0234
おめでとうございます	-11.0235
の営業	-11.0235
09	-11.0236
の一つです	-11.0236
効率よく	-11.0237
求人情報	-11.0238
を頂きました	-11.0238
条約	-11.0238
どこでも	-11.0238
この日	-11.0238
するべき	-11.024
購入して	-11.0241
ぷ	-11.0242
発音	-11.0242
在宅	-11.0242
リサーチ	-11.0243
をご覧	-11.0244
トライ	-11.0245
していたら	-11.0245
4.	-11.0246
彼女に	-11.0248
侵入	-11.025
台の	-11.025
を買った	-11.0251
表示されます	-11.0251
契約書	-11.0253
前半	-11.0255
間違った	-11.0255
発売された	-11.0257
仲良く	-11.0257
▁このため	-11.0259
の時代	-11.0259
場所を	-11.026
壊	-11.0262
煙	-11.0263
首相	-11.0264
2006	-11.0265
を飲んで	-11.0267
レア	-11.0267
の仕組み	-11.0268
の普及	-11.027
月号	-11.0272
子どもたちの	-11.0275
ということだ	-11.0276
感じられる	-11.0278
の考え方	-11.028
が含まれている	-11.028
ション	-11.0282
静かに	-11.0282
してない	-11.0283
今週	-11.0284
してみよう	-11.0288
業者が	-11.0289
声が	-11.0289
岸	-11.0291
竜	-11.0294
の負担	-11.0295
皆さま	-11.0297
踏み	-11.0297
が増えている	-11.0298
効果的です	-11.0298
簡易	-11.0299
なっています	-11.0299
滑	-11.03
補	-11.0302
代理店	-11.0302
に行きたい	-11.0305
情報収集	-11.0305
主人	-11.0306
招待	-11.0308
べきです	-11.0309
オール	-11.031
富士山	-11.031
ライター	-11.0311
欧州	-11.0314
聴	-11.0314
▁水	-11.0314
巣	-11.0314
お電話で	-11.0315
をもたらす	-11.0318
劣	-11.0319
に取り組む	-11.0319
堀	-11.0319
日本が	-11.0319
期間中	-11.0323
ウス	-11.0323
を教えて	-11.0326
オート	-11.0327
視線	-11.0328
か否か	-11.033
上げる	-11.033
式の	-11.0331
たる	-11.0332
曲を	-11.0332
性別	-11.0333
若手	-11.0334
の試合	-11.0335
複雑	-11.0337
話題の	-11.034
んだろうな	-11.0341
のかを	-11.0341
作品の	-11.0342
を購入して	-11.0342
無し	-11.0343
代わり	-11.0344
韓国の	-11.0345
の他に	-11.0345
▁基本的には	-11.0346
ヴァ	-11.0347
を見ている	-11.0349
フォ	-11.035
笑って	-11.0351
汚	-11.0352
キャッシュ	-11.0353
2,000	-11.0354
としています	-11.0355
移行	-11.0355
議	-11.0356
遺	-11.0356
容器	-11.0357
保健	-11.036
パスポート	-11.0363
知り	-11.0365
の場所	-11.0366
高齢	-11.0367
私を	-11.0368
製品を	-11.0369
手当	-11.0369
万円以上	-11.0372
ボトル	-11.0375
を始めて	-11.0377
のだそうです	-11.0378
は常に	-11.0378
中国語	-11.0379
職場で	-11.038
丘	-11.0381
を使うと	-11.0381
チェーン	-11.0384
を表示	-11.0385
▁それとも	-11.0386
だろうが	-11.0386
が決定	-11.0386
チョ	-11.0386
送る	-11.0386
気に入って	-11.0388
されていますが	-11.0388
が来て	-11.0389
に参加する	-11.0391
を選択して	-11.0393
歳以上	-11.0393
少	-11.0394
稼ぎ	-11.0394
9.	-11.0394
ことですが	-11.0394
で一番	-11.0395
えて	-11.0395
しませんか	-11.0396
思い切って	-11.0397
デン	-11.0398
こんな感じ	-11.0398
の技術	-11.0398
つもりです	-11.0399
250	-11.04
らずに	-11.04
たけど	-11.0402
しなければいけない	-11.0404
▁なんか	-11.0405
定員	-11.0405
▁もしも	-11.0407
静かな	-11.041
ゴム	-11.0411
0.	-11.0415
ミネラル	-11.0415
進める	-11.0416
映	-11.0416
体感	-11.0417
浮	-11.0418
お米	-11.0418
の感想	-11.0421
ミリ	-11.0422
帳	-11.0422
謝罪	-11.0424
県内	-11.0427
感じて	-11.0427
フレ	-11.0427
執行	-11.0428
の音	-11.043
ところから	-11.043
を聞く	-11.043
率が	-11.0433
劇	-11.0434
グループの	-11.0435
ようなもの	-11.0436
オレ	-11.0438
親戚	-11.0438
に入れ	-11.0438
が増えた	-11.044
▁具体的には	-11.0442
イヤ	-11.0443
ポイントが	-11.0445
していただいた	-11.0445
フロア	-11.0445
技能	-11.0448
することに	-11.0449
除	-11.045
▁2010	-11.0452
ページを	-11.0452
味が	-11.0454
スパ	-11.0456
がたくさんあります	-11.0457
ウェア	-11.0459
▁家族	-11.046
ブラジル	-11.0463
|	-11.0463
とは言えない	-11.0464
に記載	-11.0465
のサポート	-11.0465
相手と	-11.0466
スの	-11.0466
提供する	-11.0472
▁そこに	-11.0474
なくなってしまった	-11.0479
相続人	-11.048
メガネ	-11.048
会社を	-11.048
がかかります	-11.048
▁今では	-11.0482
学年	-11.0482
ローマ	-11.0486
の判断	-11.0489
ちょ	-11.0492
180	-11.0493
人たちの	-11.0493
▁パソコン	-11.0494
じゃあ	-11.0495
今後は	-11.0495
▁今回も	-11.0497
本音	-11.0498
があるのです	-11.05
おばあちゃん	-11.05
する必要	-11.0503
の増加	-11.0505
フォント	-11.0506
帰	-11.051
は高い	-11.051
物の	-11.0511
従来	-11.0512
になるのは	-11.0516
と比較して	-11.0517
娘が	-11.0517
と思いながら	-11.0518
を依頼	-11.0519
ないような	-11.0519
酸素	-11.0519
の両方	-11.0521
目安	-11.0521
選考	-11.0522
me	-11.0522
してもらい	-11.0522
過ごして	-11.0523
くださいませ	-11.0526
どうにか	-11.0527
ちゃんは	-11.053
おお	-11.0533
▁よろしくお願いします	-11.0534
et	-11.0534
パンフレット	-11.0535
好みの	-11.0536
しょう	-11.0536
大勢	-11.0537
ものなので	-11.0541
詳細は	-11.0541
たん	-11.0542
物が	-11.0545
Yahoo	-11.0547
出来て	-11.0547
同様に	-11.0548
フェスティバル	-11.055
はいけません	-11.0551
電波	-11.0554
は日本	-11.0554
しっかりとした	-11.0556
様式	-11.0556
苦痛	-11.0558
回避	-11.0559
をお願い	-11.0563
do	-11.0564
を抑え	-11.0568
に置いて	-11.0568
中でも	-11.0568
グラス	-11.0568
吸	-11.0569
も含め	-11.0569
事があります	-11.057
▁そんな中	-11.0571
ファースト	-11.0572
古くから	-11.0578
正規	-11.0579
知恵	-11.0579
なと思います	-11.058
最終日	-11.0581
した場合は	-11.0581
RA	-11.0581
載せ	-11.0583
iOS	-11.0584
概要	-11.0586
写真の	-11.0586
インフラ	-11.0588
しているか	-11.0589
▁ゲーム	-11.059
プル	-11.059
んですけどね	-11.059
を保つ	-11.059
沖縄県	-11.0591
を連れて	-11.0593
添え	-11.0593
なんですね	-11.0593
した際に	-11.0594
入っている	-11.0594
しているのです	-11.0595
の手	-11.0597
▁☆	-11.0598
日常的に	-11.06
ぽ	-11.0602
甘	-11.0606
結果を	-11.0611
ha	-11.0612
形式で	-11.0613
に集中	-11.0614
行われた	-11.0615
させていただき	-11.0621
が開催されました	-11.0622
戻り	-11.0622
もったいない	-11.0624
幸いです	-11.0624
海の	-11.0626
ate	-11.0626
ion	-11.0627
残った	-11.0627
900	-11.063
DA	-11.063
指標	-11.063
サラダ	-11.0632
特性	-11.0633
懐かしい	-11.0634
いつもの	-11.0635
プチ	-11.0639
残りの	-11.064
▁というのも	-11.0641
▁どうしても	-11.0641
カイ	-11.0642
順調に	-11.0642
トレ	-11.0643
否	-11.0645
寄り	-11.0646
生きていく	-11.0646
中国人	-11.0651
安心です	-11.0652
の表示	-11.0653
PV	-11.0654
似	-11.0655
って感じ	-11.0658
分かりません	-11.0659
課金	-11.066
という考え	-11.0661
納品	-11.0661
たちに	-11.0662
(*	-11.0663
の予定	-11.0665
東京の	-11.0666
es	-11.0668
07	-11.0668
の場合には	-11.0671
場で	-11.0672
色が	-11.0673
向かい	-11.0673
59	-11.0674
苦しみ	-11.0677
ますし	-11.0678
状況で	-11.0678
臨床	-11.0679
軍事	-11.068
タワー	-11.068
まん	-11.0681
クル	-11.0681
チャン	-11.0681
進出	-11.0684
同じく	-11.0685
が出てきて	-11.0685
優良	-11.0687
不便	-11.069
ハリ	-11.069
を描いた	-11.0693
悪いこと	-11.0696
包	-11.0696
ようにしてください	-11.0696
が少なく	-11.07
割れ	-11.0702
確認できます	-11.0705
が変わった	-11.0706
世界を	-11.0707
を上げて	-11.0708
駐車	-11.0709
多くの人に	-11.0709
計測	-11.071
ない場合は	-11.071
使用される	-11.0711
すばらしい	-11.0711
血圧	-11.0714
相手は	-11.0715
365	-11.072
SEX	-11.0721
見直し	-11.0721
男性と	-11.0721
AC	-11.0722
の組み合わせ	-11.0723
事が出来る	-11.0724
痛みが	-11.0724
対処法	-11.0725
厳	-11.0726
認可	-11.0728
のメリット	-11.0729
と違う	-11.073
揺れ	-11.0731
お尻	-11.0732
のトラブル	-11.0732
という声	-11.0733
革命	-11.0735
ホスト	-11.0735
転換	-11.0738
暮らす	-11.0738
田中	-11.074
はずの	-11.0741
癌	-11.0744
たりして	-11.0746
とは限りません	-11.0747
主演	-11.0747
》	-11.0747
生活保護	-11.0747
仰	-11.0747
メーカーの	-11.0748
量が	-11.0748
集中力	-11.0749
汚染	-11.0749
ついでに	-11.0749
られません	-11.0755
▁韓国	-11.0756
センサー	-11.0756
にチャレンジ	-11.0756
カスタム	-11.0756
あっ	-11.0757
SD	-11.0758
業界の	-11.0758
そこそこ	-11.0759
徹底	-11.0759
ジャンプ	-11.0759
まわり	-11.0759
膨大な	-11.076
が完了	-11.0762
2009	-11.0762
成分が	-11.0762
麻酔	-11.0762
点が	-11.0762
インパクト	-11.0763
研究会	-11.0764
の重要性	-11.0765
入試	-11.0766
してくださった	-11.0769
面談	-11.0769
場合もございます	-11.0771
サービスが	-11.0771
方へ	-11.0773
スタンド	-11.0775
の顔	-11.0775
前日	-11.0777
をご提供	-11.0777
そこには	-11.0777
も可能	-11.0778
静	-11.0779
に特化した	-11.0781
をしない	-11.0782
上限	-11.0783
この機会に	-11.0783
単	-11.0783
同様の	-11.0784
吹	-11.0786
自主	-11.0788
することになりました	-11.0788
お祭り	-11.079
ウォーキング	-11.0791
奇跡	-11.0791
経って	-11.0792
と思うと	-11.0793
nd	-11.0793
熱中症	-11.0794
▁京都	-11.0797
欠	-11.0798
通学	-11.08
大学院	-11.08
を確認し	-11.08
が多くて	-11.0802
に適した	-11.0803
できますので	-11.0803
ない限り	-11.0806
午前中	-11.0807
をおすすめします	-11.0807
レンタカー	-11.0808
▁たぶん	-11.0809
子供は	-11.0811
ur	-11.0813
枕	-11.0814
木の	-11.0815
多少の	-11.0817
家電	-11.0817
ナイ	-11.082
していたのですが	-11.0823
同士	-11.0823
書面	-11.0823
紫	-11.0826
さら	-11.0828
住み	-11.0829
のだけれど	-11.0829
利便性	-11.083
戦後	-11.0831
伝統的な	-11.0832
宜しくお願いします	-11.0832
傘	-11.0835
輸送	-11.0836
一人暮らし	-11.0837
自分と	-11.0837
に違いない	-11.0838
キャンパス	-11.0839
を開催	-11.0841
の基礎	-11.0842
を実感	-11.0842
って言う	-11.0846
絵画	-11.0847
おやつ	-11.0847
取引所	-11.0847
ご報告	-11.0849
発注	-11.0849
に影響	-11.085
の役割	-11.085
記念日	-11.0852
適正な	-11.0853
料理を	-11.0855
会った	-11.0857
ソー	-11.0857
糖	-11.0858
法第	-11.0859
とは思えない	-11.0859
開く	-11.0859
いただけた	-11.0862
講習会	-11.0863
通う	-11.0863
高額な	-11.0863
を強く	-11.0864
肌を	-11.0864
強み	-11.0866
出ている	-11.0867
目的地	-11.0869
を選択します	-11.0869
飼育	-11.087
接触	-11.087
01	-11.0872
バトル	-11.0873
などでも	-11.0873
るようになりました	-11.0873
へのアクセス	-11.0873
その中で	-11.0876
朝鮮	-11.0877
チェックイン	-11.0879
場合や	-11.0879
味方	-11.0879
ディーラー	-11.0879
のではないだろうか	-11.088
se	-11.0881
ことが重要です	-11.0882
種の	-11.0886
▁お客様	-11.0887
ておく	-11.0888
に触れ	-11.0889
体温	-11.089
確立	-11.0891
しわ	-11.0892
蓋	-11.0894
程度で	-11.0895
駅で	-11.0895
金沢	-11.0895
したとき	-11.0896
▁おはようございます	-11.0896
見ても	-11.0897
ないのです	-11.0898
してもらいました	-11.09
食欲	-11.0901
の話を	-11.0903
んでしょうね	-11.0904
のみの	-11.0904
分野で	-11.0905
が発生し	-11.0905
残念	-11.0906
検索エンジン	-11.0906
わかりました	-11.0907
返事	-11.0908
を発表した	-11.0908
期間限定	-11.0911
エンド	-11.0911
なかったら	-11.0912
国連	-11.0912
変数	-11.0912
▁ちょうど	-11.0913
会い	-11.0914
市内の	-11.0914
作戦	-11.0915
大規模	-11.0916
仮に	-11.0917
できるのは	-11.0917
に該当する	-11.0918
の木	-11.092
の一環として	-11.0922
▁本来	-11.0922
信じられない	-11.0929
ヶ月間	-11.093
芸	-11.093
臨	-11.093
に繋がる	-11.0931
想	-11.0933
をやる	-11.0933
人々は	-11.0933
長崎	-11.0933
することになります	-11.0935
を無料で	-11.0937
▁この度は	-11.0939
スクリーン	-11.0941
その前に	-11.0942
をご紹介しています	-11.0943
どうでもいい	-11.0945
8%	-11.0947
事が出来ます	-11.0947
お知らせします	-11.0948
歯周病	-11.0949
海岸	-11.0951
切った	-11.0952
来ている	-11.0952
ウン	-11.0952
もとても	-11.0952
かり	-11.0952
創作	-11.0953
▁PC	-11.0953
展覧会	-11.0954
塚	-11.0954
必要なもの	-11.0955
遅く	-11.0955
あくまでも	-11.0958
治療を	-11.0959
存在感	-11.0959
高度	-11.0959
ることができました	-11.0964
実態	-11.0965
はできない	-11.0966
割と	-11.0967
通過	-11.0968
微	-11.0969
使われ	-11.0969
主な	-11.0969
トル	-11.0969
結果は	-11.097
TA	-11.0971
た時	-11.0971
を簡単に	-11.0972
を上げ	-11.0972
みたいなもの	-11.0975
の国	-11.0977
牛乳	-11.0978
やり取り	-11.0978
ブレ	-11.098
ディング	-11.0981
に出て	-11.0981
おススメ	-11.0983
規約	-11.0983
ご自宅	-11.0985
離れた	-11.0987
保持	-11.0987
売れる	-11.0989
簡単で	-11.0989
の強い	-11.0989
勝つ	-11.099
なるほど	-11.099
参考にしてください	-11.099
方にも	-11.0991
コア	-11.0991
のブログ	-11.0994
を感じます	-11.0995
自分たち	-11.0997
公務員	-11.0997
▁最初の	-11.0998
に関しましては	-11.0998
餌	-11.1001
しているようです	-11.1004
を実現する	-11.1006
ようになっている	-11.1006
るのに	-11.1007
なければいけません	-11.1008
ものとして	-11.101
なんだけど	-11.101
缶	-11.101
熊本	-11.1011
することです	-11.1012
重大な	-11.1013
の確保	-11.1015
反映	-11.1016
を含めた	-11.1017
漁	-11.1017
二つの	-11.1018
ところまで	-11.1018
を用意して	-11.1019
順位	-11.1019
ファー	-11.102
でしたね	-11.102
どちらか	-11.1021
魔法	-11.1022
敗	-11.1022
恐ろしい	-11.1025
なのかもしれません	-11.1025
メールが	-11.1026
急いで	-11.1028
とされている	-11.1028
人権	-11.1028
知事	-11.1031
情報提供	-11.1032
を知った	-11.1033
通報	-11.1033
開放	-11.1033
もいる	-11.1034
喧嘩	-11.1034
忘れて	-11.1034
娘の	-11.1034
唯一	-11.1035
日数	-11.1035
減ら	-11.1037
を意識して	-11.1037
EX	-11.1038
スペック	-11.1038
になってしまい	-11.1039
AR	-11.104
した時に	-11.104
精神的な	-11.1041
っていく	-11.1041
いいな	-11.1042
とても良い	-11.1044
▁僕の	-11.1045
納期	-11.1046
▁先ほど	-11.1046
が中心	-11.1046
不要な	-11.1051
メンズ	-11.1051
ために必要な	-11.1053
苦手な	-11.1053
all	-11.1055
精神的に	-11.1055
ですからね	-11.1055
部分の	-11.1056
美容室	-11.1057
ボン	-11.1058
いくこと	-11.1058
ーズ	-11.1059
キッズ	-11.1066
稼ぐ	-11.1067
したときに	-11.1068
しまえば	-11.1068
することも可能です	-11.1068
希望者	-11.1069
今回も	-11.1069
貸し	-11.107
かみ	-11.1072
が多いです	-11.1075
▁弊社	-11.1075
▁いくら	-11.1078
っけ	-11.108
突き	-11.108
忙しく	-11.1081
コラム	-11.1082
^^	-11.1082
OL	-11.1082
ように感じます	-11.1083
仕事は	-11.1083
を設置	-11.1083
再現	-11.1084
定着	-11.1084
届出	-11.1084
採	-11.1085
渋滞	-11.1085
人にとって	-11.1086
このページ	-11.1086
▁«	-11.1086
鹿	-11.1087
だけだ	-11.1088
なってきた	-11.1089
ないから	-11.109
一番の	-11.109
コメントを	-11.1091
などについて	-11.1091
バストアップ	-11.1092
の専門家	-11.1093
妊娠中	-11.1093
さくら	-11.1094
08	-11.1095
危機	-11.1096
退会	-11.1096
手配	-11.1097
日までに	-11.1098
にもよりますが	-11.1099
取扱い	-11.1099
側から	-11.11
無かった	-11.1101
駆け	-11.1101
▁15	-11.1103
豚	-11.1105
できるようになる	-11.1106
場合もある	-11.1106
▁他	-11.1107
を作成し	-11.1107
その場	-11.1108
クオリティ	-11.1111
好きで	-11.1111
等が	-11.1113
美白	-11.1115
世話	-11.1115
画面で	-11.1115
墓	-11.1115
方も多いのではないでしょうか	-11.1115
だめ	-11.1115
の痛み	-11.1116
クレジット	-11.1117
対戦	-11.1118
快	-11.1118
を手に	-11.1119
いけ	-11.112
多くの方に	-11.1121
ラク	-11.1122
オス	-11.1123
嬉しかったです	-11.1123
をしていると	-11.1123
大量に	-11.1123
技術を	-11.1124
落とし	-11.1124
経験者	-11.1125
癒し	-11.1126
のが特徴です	-11.1127
うちは	-11.1129
受けて	-11.113
が開催されます	-11.1131
得た	-11.1132
ファイ	-11.1132
怪しい	-11.1134
いかなる	-11.1135
に参加して	-11.1136
君の	-11.1137
往復	-11.1138
内装	-11.1139
それらを	-11.1141
▁初めての	-11.1142
▁今後は	-11.1143
▁多分	-11.1144
孤独	-11.1145
を作ること	-11.1145
妄想	-11.1145
田さん	-11.1148
潮	-11.1148
mi	-11.1148
SS	-11.1148
意志	-11.1148
皮脂	-11.1149
のご注文	-11.115
乗り換え	-11.1152
▁その時	-11.1152
その理由	-11.1153
生活習慣病	-11.1154
されても	-11.1154
観戦	-11.1154
進歩	-11.1154
お問い合わせ下さい	-11.1155
ポリシー	-11.1156
の悩み	-11.1157
眠り	-11.1158
以内	-11.1159
見かけ	-11.1159
意識して	-11.116
家族に	-11.116
乗車	-11.116
分かり	-11.1162
感じます	-11.1162
行け	-11.1163
経由で	-11.1163
ベビー	-11.1165
合った	-11.1165
の前	-11.1165
飛んで	-11.1166
も良く	-11.1167
上達	-11.1168
▁春	-11.1168
の中にある	-11.1169
仕事をする	-11.117
ているのです	-11.1172
終了しました	-11.1173
と同じような	-11.1173
しょうがない	-11.1173
にしました	-11.1175
べきだ	-11.1175
になりそうです	-11.1175
そうと	-11.1176
ent	-11.1176
査定額	-11.1177
▁of	-11.1178
考えれば	-11.1178
その通り	-11.1179
浅	-11.118
闇	-11.118
行か	-11.1181
かえって	-11.1181
単純な	-11.1181
はちょっと	-11.1182
したいという	-11.1183
情報や	-11.1183
エイ	-11.1184
嵐	-11.1185
地に	-11.1186
の先生	-11.1186
を基に	-11.1187
の範囲	-11.1187
ように見える	-11.1189
汁	-11.119
と指摘	-11.119
してみます	-11.1191
会場で	-11.1191
厚生労働省	-11.1192
解決策	-11.1193
踊り	-11.1194
以後	-11.1195
を構築	-11.1196
国内で	-11.1199
明らか	-11.1201
抑制	-11.1201
したのが	-11.1201
ないのに	-11.1203
プロモーション	-11.1204
▁それだけ	-11.1204
ソウル	-11.1206
が見える	-11.1208
喉	-11.1208
夜は	-11.1208
ボス	-11.1209
リフレッシュ	-11.1212
立つ	-11.1213
心より	-11.1213
をクリア	-11.1214
友人が	-11.1215
を用いた	-11.1219
次第に	-11.1219
に行こう	-11.1222
作品が	-11.1224
願います	-11.1224
を利用している	-11.1225
されてきた	-11.1225
現在も	-11.1226
伴	-11.1228
シリーズの	-11.1231
▁私自身	-11.1232
as	-11.1232
ow	-11.1232
藩	-11.1235
するとともに	-11.1236
外から	-11.1237
▁既に	-11.124
オススメの	-11.124
だったのです	-11.1241
しにくい	-11.1242
を得た	-11.1243
をチェックして	-11.1246
出血	-11.1247
可能性は	-11.1247
有機	-11.1249
復元	-11.1249
ていましたが	-11.1249
吹き	-11.1249
公共	-11.1251
▁たとえ	-11.1251
競馬	-11.1253
銀行の	-11.1254
豪	-11.1256
年ぶりに	-11.1256
57	-11.1258
で購入	-11.1258
を大事に	-11.1259
津波	-11.1259
もらえます	-11.1261
方が多い	-11.1262
グラフィック	-11.1262
を見ても	-11.1264
車検	-11.1265
$	-11.1266
理解できる	-11.1266
由	-11.1268
苦手	-11.1269
爆	-11.1269
ときも	-11.127
可能性も	-11.1271
ラインナップ	-11.1271
05	-11.1272
飾	-11.1272
▁高	-11.1273
に入ると	-11.1273
などなど	-11.1273
私自身	-11.1274
出会う	-11.1275
名義	-11.1276
を良く	-11.1278
日頃の	-11.1279
熟女	-11.1279
心地	-11.1281
が見られる	-11.1281
は現在	-11.1282
バナー	-11.1282
方のために	-11.1283
レット	-11.1283
じゃん	-11.1283
減って	-11.1283
かね	-11.1285
▁それも	-11.1285
54	-11.1285
みて下さい	-11.1285
声優	-11.1287
してもらいたい	-11.1287
なかで	-11.1287
飛ば	-11.1287
喫煙	-11.1288
締め	-11.1293
猫の	-11.1293
も必要	-11.1293
居酒屋	-11.1294
在籍	-11.1294
いらっしゃいます	-11.1294
ビックリ	-11.1295
日本酒	-11.1296
不安な	-11.1296
協議会	-11.1298
メールの	-11.1299
勧誘	-11.1299
が出来ない	-11.13
を調べる	-11.1301
▁in	-11.1304
数十	-11.1304
受け取り	-11.1305
量は	-11.1306
ずれ	-11.1307
店長	-11.1307
攻略	-11.1308
届く	-11.1308
黄色	-11.131
ハロウィン	-11.1312
インプラント	-11.1312
▁参加	-11.1313
どころか	-11.1314
に対しても	-11.1314
が表示され	-11.1315
老化	-11.1316
書かれている	-11.1318
▁一緒に	-11.1318
韓国人	-11.1318
人格	-11.1322
変わらず	-11.1323
観て	-11.1324
2008	-11.1324
おじさん	-11.1325
事ができる	-11.1326
することが可能	-11.1327
行われている	-11.1328
世界的に	-11.1329
内科	-11.133
するよう	-11.133
カラオケ	-11.1331
とは違い	-11.1331
▁当日	-11.1332
エージェント	-11.1332
ごめんなさい	-11.1332
受けた	-11.1333
境	-11.1334
リオ	-11.1334
延	-11.1335
が含まれています	-11.1335
時給	-11.1335
来ない	-11.1335
農家	-11.1335
が始まった	-11.1335
っぱ	-11.1336
夕	-11.1337
お肌の	-11.1339
が付いて	-11.1339
リサイクル	-11.134
できるような	-11.1341
ご自身で	-11.1341
辺り	-11.1341
のいい	-11.1342
せん	-11.1345
描いて	-11.1345
と言う事	-11.1345
の一	-11.1347
あれこれ	-11.1347
抽選	-11.1347
だろうと	-11.1348
の旅	-11.1348
この先	-11.135
信頼性	-11.135
を使用	-11.1351
▁出会い	-11.1351
分散	-11.1354
▁そのために	-11.1357
が異なる	-11.1357
受注	-11.1357
新潟県	-11.1358
いで	-11.136
近隣	-11.136
芽	-11.1362
AV	-11.1364
を重ね	-11.1364
抜群	-11.1365
に接続	-11.1367
一つ一つ	-11.1367
参加する	-11.1368
多くの方が	-11.1369
通販サイト	-11.137
のライブ	-11.1371
Re	-11.1372
同士で	-11.1375
共通の	-11.1376
を集めて	-11.1376
切り替え	-11.1377
が生まれる	-11.1378
写真を撮って	-11.1379
意外に	-11.1379
をお待ちしております	-11.1384
でいい	-11.1385
するようにしましょう	-11.1386
が行われた	-11.1386
先ほど	-11.1386
と呼ばれ	-11.1386
ことだと思います	-11.1388
醤油	-11.1389
テンション	-11.1391
があるようです	-11.1391
なのが	-11.1392
はいつも	-11.1396
も多数	-11.1399
出来れば	-11.1399
の発生	-11.1401
教科書	-11.1401
兵庫県	-11.1402
特有の	-11.1404
を守り	-11.1405
発揮	-11.1406
もち	-11.141
ラッキー	-11.1411
細菌	-11.1414
と同様	-11.1415
もうちょっと	-11.1415
言いたい	-11.1416
警戒	-11.1417
崩れ	-11.1417
耐久性	-11.142
疲れた	-11.1422
チェックして	-11.1423
悩ま	-11.1423
お願い申し上げます	-11.1424
っていうのは	-11.1427
トヨタ	-11.1429
満足度	-11.1431
希	-11.1431
調べてみると	-11.1431
政府は	-11.1434
習	-11.1436
いるのですが	-11.1438
すぎると	-11.1438
▁もっとも	-11.1438
体験を	-11.1438
になれ	-11.1439
時より	-11.1439
加速	-11.144
▁メール	-11.1441
景気	-11.1442
頂ければ	-11.1442
に強い	-11.1442
お知らせいたします	-11.1443
を守って	-11.1445
づ	-11.1446
を比較	-11.1447
▁>>	-11.1449
順次	-11.145
指名	-11.145
フィルター	-11.1451
患者さんの	-11.1452
その日の	-11.1453
精一杯	-11.1453
次第で	-11.1454
で開催された	-11.1455
どこから	-11.1456
を作りたい	-11.1457
壊れ	-11.1458
ワクチン	-11.1458
車に	-11.1461
名称	-11.1463
店に	-11.1463
ひとりで	-11.1464
レンタ	-11.1464
倉庫	-11.1465
買取業者	-11.1466
子どもたちが	-11.1466
2005	-11.1467
の登録	-11.1468
ませんでしたが	-11.1469
気になる方は	-11.1469
装着	-11.1469
母の	-11.147
経済的	-11.147
のお話	-11.147
友人に	-11.1471
スクリプト	-11.1472
区の	-11.1472
留学生	-11.1473
サービスを提供	-11.1473
フォー	-11.1473
露	-11.1474
を理解して	-11.1475
小物	-11.1477
の道	-11.1477
リハビリ	-11.1478
被災地	-11.1479
何卒	-11.148
実物	-11.1481
の動画	-11.1483
に至るまで	-11.1485
てきます	-11.1486
はいない	-11.1487
ディナー	-11.1488
▁元々	-11.1488
相変わらず	-11.1488
意義	-11.1489
名を	-11.149
質問を	-11.149
限度額	-11.149
老人	-11.1491
できますが	-11.1491
がないか	-11.1493
をいただき	-11.1493
申し訳ない	-11.1495
知らせ	-11.1495
奥様	-11.1495
思われ	-11.1496
フラワー	-11.1497
をベースに	-11.1497
自己紹介	-11.1499
使用されている	-11.1499
大変なこと	-11.1499
去年	-11.1501
PA	-11.1503
促進	-11.1506
今度	-11.1506
良いもの	-11.1507
田市	-11.1507
慰謝料	-11.1508
習得	-11.1509
確信	-11.1509
▁食事	-11.151
親族	-11.151
好意	-11.1513
は大きく	-11.1516
暗号化	-11.1516
ディレクトリ	-11.1518
我々の	-11.1519
を調べて	-11.1521
グレー	-11.1522
エレベーター	-11.1523
できたら	-11.1523
気持ちよく	-11.1526
したいです	-11.1528
っぱなし	-11.1529
が分からない	-11.1529
のコメント	-11.153
を行なう	-11.1532
躊躇	-11.1533
のかもしれませんね	-11.1534
やめて	-11.1535
犠牲	-11.1535
気を付け	-11.1539
取り組んで	-11.1541
書いています	-11.1541
問い	-11.1542
全額	-11.1542
復縁	-11.1542
愛犬	-11.1542
埋め	-11.1543
禁	-11.1543
ご希望の方は	-11.1544
カジノ	-11.1544
優れている	-11.1545
回る	-11.1546
▁だって	-11.1546
しかった	-11.1547
づらい	-11.1547
▁そこから	-11.155
最適	-11.155
必要はない	-11.1552
おりますので	-11.1552
やること	-11.1553
とさせて頂きます	-11.1554
の責任	-11.1554
いなければ	-11.1555
こんなこと	-11.1555
驚く	-11.1557
みんなの	-11.1559
利用して	-11.1559
感想を	-11.1559
が残っている	-11.1561
済	-11.1562
外壁塗装	-11.1563
人によって	-11.1564
▁昭和	-11.1564
のやり取り	-11.1564
郵便局	-11.1565
載って	-11.1565
回って	-11.157
に最適な	-11.1572
柳	-11.1572
が何	-11.1573
らせる	-11.1574
を教えてください	-11.1575
コンパクト	-11.1577
より一層	-11.1577
気を	-11.1579
ライバル	-11.1579
飼い主	-11.158
詳しくは	-11.1581
であるが	-11.1581
された方	-11.1581
岐阜県	-11.1581
戦う	-11.1582
わかっている	-11.1582
ことがわかりました	-11.1583
久しぶり	-11.1583
身近に	-11.1585
るだけで	-11.1586
リセット	-11.1587
2001	-11.1587
関与	-11.1588
AGA	-11.1588
にあたる	-11.1588
を書き	-11.1591
敷	-11.1592
高速道路	-11.1592
感謝の気持ち	-11.1592
▁世界	-11.1592
理由を	-11.1594
君は	-11.1594
自由な	-11.1594
を設け	-11.1597
セルフ	-11.1598
後輩	-11.1598
重要です	-11.1599
という名前	-11.16
したものです	-11.16
どういうこと	-11.1601
を発見	-11.1602
▁恋愛	-11.1602
摂	-11.1604
あっても	-11.1604
を押し	-11.1605
3%	-11.1605
っていて	-11.1605
移	-11.1606
いたしません	-11.1608
¥	-11.1609
至	-11.161
攻め	-11.161
湾	-11.1611
予選	-11.1612
しやすく	-11.1612
って何	-11.1612
ml	-11.1613
べきか	-11.1614
儲け	-11.1616
って言って	-11.1616
58	-11.1616
費用を	-11.1617
おもてなし	-11.162
▁夜	-11.162
変わります	-11.1621
がちな	-11.1622
問題点	-11.1622
解散	-11.1623
なっていく	-11.1624
を引き起こす	-11.1626
適切に	-11.1626
で行う	-11.1626
月より	-11.1628
ワイ	-11.1629
することにしました	-11.163
ストップ	-11.1631
周囲に	-11.1631
パラ	-11.1631
市にある	-11.1632
ドクター	-11.1632
MO	-11.1632
ってのは	-11.1633
お天気	-11.1634
松本	-11.1635
を調整	-11.1635
AM	-11.1635
羊	-11.1636
遺産	-11.1636
続	-11.1636
なってしまう	-11.1637
測	-11.1638
ご縁	-11.1639
いただいています	-11.1641
ないで	-11.1642
今年度	-11.1643
火災	-11.1643
何年も	-11.1643
とは何か	-11.1644
があまり	-11.1644
件の	-11.1645
含まれ	-11.1645
街の	-11.1645
欲求	-11.1645
溶け	-11.1645
視聴者	-11.1649
どうしたら	-11.1649
の機会	-11.1651
はあった	-11.1651
ゲット	-11.1651
友達が	-11.1651
確実	-11.1652
で行われる	-11.1652
のレベル	-11.1654
果たして	-11.1655
▁仮に	-11.1656
ないという	-11.1656
ポーズ	-11.1656
ことにした	-11.166
歌う	-11.1661
足を運んで	-11.1662
アプリで	-11.1664
さっぱり	-11.1664
西洋	-11.1665
んじゃないの	-11.1665
に行ったり	-11.1665
描いた	-11.1665
ランニング	-11.1666
返し	-11.1668
合わ	-11.1668
に到着	-11.167
るようになった	-11.1676
薄い	-11.1676
ハードル	-11.1677
免疫力	-11.1678
▁そうすると	-11.168
させて頂く	-11.1683
何度	-11.1684
▁わたしは	-11.1685
取引先	-11.1686
にならないように	-11.1688
多かった	-11.1689
府	-11.1693
という形で	-11.1693
人目	-11.1696
しておいて	-11.1697
映画の	-11.1697
方々に	-11.1698
支部	-11.17
ごはん	-11.1702
ソフトバンク	-11.1702
アドバイザー	-11.1702
いるのです	-11.1704
日本人が	-11.1704
最適化	-11.1707
で最も	-11.1707
も無い	-11.1708
してしまって	-11.1708
長期間	-11.1708
の求人	-11.1709
起きる	-11.1709
沈	-11.171
皿	-11.171
といえるでしょう	-11.1711
投入	-11.1711
ることも	-11.1712
認められ	-11.1712
あふれる	-11.1712
は必要	-11.1713
お待ち	-11.1713
ドコモ	-11.1714
▁車	-11.1715
使用できる	-11.1715
コードを	-11.1715
な感じ	-11.1715
スタッフ一同	-11.1716
英語を	-11.1717
、[	-11.1719
と思うのです	-11.1719
を開始	-11.1721
もあるようです	-11.1722
郎	-11.1722
見積	-11.1722
薄く	-11.1722
承諾	-11.1723
臨時	-11.1723
増えて	-11.1723
季	-11.1724
パル	-11.1726
予定の	-11.1726
▁うちの	-11.1726
▁予約	-11.1727
理解して	-11.1732
借金を	-11.1733
無駄に	-11.1734
BA	-11.1734
モジュール	-11.1734
調達	-11.1734
の距離	-11.1735
市販の	-11.1736
ビン	-11.1737
確認する	-11.1737
生産性	-11.1738
額は	-11.1739
えない	-11.1742
は結構	-11.1742
除去	-11.1743
離れて	-11.1744
商業	-11.1745
けて	-11.1745
楽しみです	-11.1746
が気になって	-11.1747
あんな	-11.1751
ポリ	-11.1753
予告	-11.1754
場所です	-11.1754
久々に	-11.1755
宿泊施設	-11.1756
▁どうぞ	-11.1757
ユーロ	-11.1759
口臭	-11.1763
ハーブ	-11.1763
増大	-11.1763
イスラエル	-11.1765
の相場	-11.1765
▁その際	-11.1765
崩壊	-11.1766
でなく	-11.1766
30%	-11.1767
時間半	-11.1769
が悪く	-11.1771
ペア	-11.1773
41	-11.1774
を掲載しています	-11.1774
フォーラム	-11.1776
以外で	-11.1777
フェス	-11.1777
いるのは	-11.1777
贈り物	-11.1779
地域に	-11.1781
迷惑をかけ	-11.1782
通って	-11.1782
海外で	-11.1784
発表した	-11.1784
アクティブ	-11.1785
▁この時	-11.1787
マネージャー	-11.1788
大臣	-11.1788
紅茶	-11.179
談	-11.1791
協定	-11.1792
られなかった	-11.1794
足が	-11.1795
見込み	-11.1798
限	-11.1798
https	-11.1798
試して	-11.1798
に関しても	-11.1798
知名度	-11.1799
無理な	-11.18
の気持ち	-11.1801
良いですね	-11.1802
視点で	-11.1804
テント	-11.1805
のかも	-11.1806
効率的に	-11.1806
の一人	-11.1807
フラ	-11.1808
栗	-11.1809
過ぎる	-11.1811
ご主人	-11.1813
AT	-11.1815
価値がある	-11.1816
ことをお勧めします	-11.1816
▁これまでの	-11.1818
秘	-11.1818
ホン	-11.1818
の幅	-11.1818
が崩れ	-11.182
改	-11.1821
マイクロ	-11.1821
起きた	-11.1822
していただける	-11.1823
に比べ	-11.1824
お寺	-11.1824
どうする	-11.1824
うれしいです	-11.1825
紛争	-11.1825
って思う	-11.1826
風の	-11.1827
が出来て	-11.183
庭園	-11.1831
の中身	-11.1833
専	-11.1833
研	-11.1834
開店	-11.1835
エステサロン	-11.1835
動物園	-11.1835
もうひとつ	-11.1838
亜	-11.184
はありますか	-11.184
山田	-11.184
ラウンジ	-11.1841
▁どうも	-11.1841
時間ほど	-11.1841
適当に	-11.1842
固	-11.1842
と言われます	-11.1842
座席	-11.1842
学術	-11.1842
自然の	-11.1844
外交	-11.1845
ムダ毛	-11.1846
クール	-11.1847
普段の	-11.1847
無理に	-11.1848
たとえば	-11.185
てしまっている	-11.185
とんでもない	-11.185
集め	-11.1852
サウンド	-11.1853
達の	-11.1853
▁当社	-11.1855
我々は	-11.1855
年ぶり	-11.1856
04	-11.1856
に伴う	-11.1856
だったけど	-11.1858
ってる	-11.1858
買える	-11.1859
クラシック	-11.186
勢力	-11.1861
マット	-11.1862
誰にでも	-11.1862
裁	-11.1863
媒体	-11.1863
▁ここに	-11.1864
させたい	-11.1864
遺跡	-11.1865
肥満	-11.1865
現地の	-11.1866
入り口	-11.1867
ミーティング	-11.1867
飲食	-11.1868
定番	-11.1868
島の	-11.1869
入札	-11.1869
かなと思います	-11.1869
をつくり	-11.187
原稿	-11.1871
になっていく	-11.1873
寿命	-11.1876
一層	-11.1876
▁すべての	-11.1877
を続け	-11.1877
だろうな	-11.1877
クセ	-11.1878
am	-11.1879
ベイ	-11.188
ドライ	-11.188
歳まで	-11.1882
危険性	-11.1883
▁ご注文	-11.1883
▁当日は	-11.1884
を呼び	-11.1885
たまま	-11.1888
現地で	-11.189
金額は	-11.1891
視野	-11.1895
ガイドライン	-11.1895
してくださいね	-11.1896
こな	-11.1896
いい感じ	-11.1896
ヴェ	-11.1897
アプリの	-11.1897
友達に	-11.1899
言及	-11.1901
楽しさ	-11.1902
帝国	-11.1904
▁<	-11.1905
概念	-11.1905
診	-11.1907
青汁	-11.1909
の強さ	-11.1909
に限り	-11.1912
治療薬	-11.1913
冷や	-11.1915
宅	-11.1916
旗	-11.1917
こともあって	-11.1917
してくれている	-11.1918
に大きな	-11.192
装飾	-11.192
▁昨日の	-11.1921
彦	-11.1922
なんですよ	-11.1922
鎌倉	-11.1923
の健康	-11.1923
利用者が	-11.1924
上野	-11.1925
検診	-11.1925
点を	-11.1926
達は	-11.1928
できなくなる	-11.1928
▁本当は	-11.1932
お返事	-11.1935
を提供しています	-11.1936
過ぎた	-11.1937
グランド	-11.1938
大幅に	-11.1938
件数	-11.1939
を扱う	-11.1939
にくく	-11.194
時頃	-11.194
定める	-11.1941
の見直し	-11.1941
人にも	-11.1944
新潟	-11.1944
行っています	-11.1944
した時	-11.1945
いじ	-11.1946
参拝	-11.1946
手入れ	-11.1946
を表す	-11.1947
の本	-11.1947
長野県	-11.1951
企業は	-11.1953
お客さまの	-11.1954
ビッグ	-11.1956
個人情報保護	-11.1956
浮気調査	-11.1956
下手	-11.1956
確実な	-11.1957
著者	-11.1958
しているという	-11.1958
短縮	-11.1959
何回か	-11.1959
ナンバー	-11.196
と思っていたのですが	-11.196
大分	-11.1962
郵便	-11.1965
くり	-11.1965
の調査	-11.1966
頑張る	-11.1966
の少ない	-11.1967
52	-11.1968
らい	-11.1969
自慢	-11.1969
は今	-11.197
付ける	-11.1971
望む	-11.1971
きたので	-11.1972
者として	-11.1972
募金	-11.1972
だからです	-11.1975
が始まりました	-11.1976
本書	-11.1976
▁個人	-11.1978
を促す	-11.1978
ねー	-11.1981
▁英語	-11.1981
ワンちゃん	-11.1982
が変わって	-11.1983
ことがあった	-11.1984
の資格	-11.1985
できるもの	-11.1987
青年	-11.1988
トリートメント	-11.1989
わけだ	-11.199
生活が	-11.199
話を聞く	-11.199
最低でも	-11.1992
場面で	-11.1994
福島県	-11.1994
学校に	-11.1995
放映	-11.1995
作品です	-11.1995
お申し込みください	-11.1997
▁学校	-11.1998
ひろ	-11.1998
を作りました	-11.1998
条件で	-11.1999
画面に	-11.2
分かっている	-11.2
紐	-11.2
湿度	-11.2
アロマ	-11.2001
ことも多い	-11.2002
の会	-11.2002
されるので	-11.2002
髪の	-11.2004
無料相談	-11.2004
ふたり	-11.2004
くると	-11.2006
使っていた	-11.2006
をクリック	-11.2006
隆	-11.2009
自信を持って	-11.201
ことを考えると	-11.2011
つです	-11.2012
を取り戻	-11.2013
カート	-11.2014
気持ちは	-11.2016
枚の	-11.2017
連絡を	-11.2018
いただければ幸いです	-11.2018
事業の	-11.2019
撮った	-11.2019
注意して	-11.202
ゲームを	-11.202
を変更する	-11.2021
が流れ	-11.2021
表示されている	-11.2021
を記録	-11.2022
実務	-11.2022
くらいで	-11.2022
MS	-11.2022
業者の	-11.2023
LE	-11.2023
調べた	-11.2024
メンタル	-11.2026
は自分で	-11.2026
まし	-11.2028
オーディオ	-11.2028
居住	-11.2029
の方で	-11.2029
お家	-11.2029
出費	-11.2029
頑張ります	-11.2031
のかどうか	-11.2033
の他	-11.2035
ありませんでした	-11.2036
世界観	-11.2037
を聞き	-11.2038
日頃から	-11.2038
ファイルの	-11.204
▁ネットで	-11.2041
部屋で	-11.2041
の一種	-11.2041
フロー	-11.2043
単価	-11.2043
住んで	-11.2043
判断する	-11.2045
なりたい	-11.2046
完全な	-11.2046
るのも	-11.2048
修了	-11.2049
声を	-11.205
▁(1)	-11.205
しているのですが	-11.2051
使	-11.2052
循環	-11.2053
もう一つ	-11.2053
呼びかけ	-11.2053
をゲット	-11.2054
そのとき	-11.2056
▁このページでは	-11.2056
2〜3	-11.2057
ダイビング	-11.2059
画像は	-11.2059
青い	-11.206
堅	-11.206
福岡県	-11.2062
監査	-11.2062
のみなさん	-11.2062
店舗で	-11.2062
大手の	-11.2062
ものとする	-11.2062
味噌	-11.2063
の季節	-11.2063
歳から	-11.2063
1500	-11.2064
を受けました	-11.2064
年代の	-11.2064
とは思って	-11.2064
おこう	-11.2064
下さいませ	-11.2064
処	-11.2065
▁大変	-11.2067
スク	-11.2067
桁	-11.2067
一度に	-11.2069
略	-11.2069
効率化	-11.207
パーセント	-11.207
たいてい	-11.2071
馬鹿	-11.2072
申込書	-11.2074
わか	-11.2075
が全く	-11.2075
ぴ	-11.2075
体育	-11.2075
この曲	-11.2076
深刻な	-11.2078
すみません	-11.2079
▁いよいよ	-11.2081
の参加	-11.2081
預金	-11.2082
三重県	-11.2083
確かな	-11.2083
階に	-11.2084
お二人	-11.2084
によるもの	-11.2085
コト	-11.2088
▁僕が	-11.2088
の選択	-11.209
肉体	-11.2091
おもしろい	-11.2091
この作品	-11.2093
新品	-11.2096
06	-11.2099
デッキ	-11.2102
頑張っている	-11.2102
順番	-11.2103
工房	-11.2104
方も多い	-11.2105
産後	-11.2106
下痢	-11.2108
できるのか	-11.2108
してくれるので	-11.2109
これほど	-11.211
シミュレーション	-11.2112
目の前の	-11.2112
ly	-11.2113
各社	-11.2113
を考えた	-11.2113
いただくこと	-11.2114
肝	-11.2115
自社の	-11.2115
を利用すれば	-11.2115
見通し	-11.2116
を増やし	-11.2116
待機	-11.2117
直後	-11.2117
掲載しています	-11.2118
使命	-11.2118
という意見	-11.2119
んじゃないでしょうか	-11.212
旨	-11.2123
もらうこと	-11.2123
と思うけど	-11.2124
学生時代	-11.2125
ってくる	-11.2125
▁そのためには	-11.2126
を楽しめる	-11.2127
を求めている	-11.2127
見せる	-11.2128
待つ	-11.2128
2%	-11.2129
調べる	-11.2129
病院の	-11.213
AS	-11.213
角度	-11.2131
EN	-11.2131
制約	-11.2131
をもっと	-11.2134
母が	-11.2135
そうに	-11.2135
アメリカで	-11.2136
を目指します	-11.2137
額が	-11.2138
テラス	-11.2139
すり	-11.2139
どちらかというと	-11.214
AP	-11.2141
くらいです	-11.2142
その内容	-11.2144
理想的な	-11.2144
果物	-11.2146
カーテン	-11.2146
の発表	-11.2149
充	-11.2149
まいりました	-11.2149
インドネシア	-11.215
ハッピー	-11.2151
するとき	-11.2151
めの	-11.2152
の運営	-11.2154
発表された	-11.2155
外来	-11.2157
ストリート	-11.2158
を利用し	-11.2159
楽しかったです	-11.2159
▁イベント	-11.2162
と一緒	-11.2163
考察	-11.2163
世界遺産	-11.2164
作者	-11.2165
年々	-11.2165
応	-11.2167
マリ	-11.2168
フレーズ	-11.2168
名前を	-11.2168
ブログの	-11.2168
バンク	-11.2169
になるか	-11.217
規模の	-11.217
をしていて	-11.217
に手を	-11.2171
結び	-11.2172
からすると	-11.2175
を取った	-11.2175
感じている	-11.2176
目撃	-11.2179
ゲン	-11.2179
念のため	-11.2179
梱包	-11.2182
▁お店	-11.2182
湿	-11.2182
の内容は	-11.2183
楽に	-11.2183
▁当院では	-11.2184
何人か	-11.2187
に登場する	-11.2187
ゲート	-11.2191
検索結果	-11.2191
なってきました	-11.2191
行列	-11.2192
カラダ	-11.2194
意味がない	-11.2194
.2	-11.2194
あなたも	-11.2194
来週	-11.2194
を対象とした	-11.2196
データは	-11.2199
集会	-11.22
解体	-11.2201
したりして	-11.2201
はならない	-11.2202
を代表する	-11.2202
感じがします	-11.2203
ディー	-11.2205
してある	-11.2206
もございます	-11.2207
がなくなる	-11.2207
どなたでも	-11.2209
りません	-11.2209
法案	-11.2209
に関連した	-11.221
と感じます	-11.2211
の悪い	-11.2211
責任者	-11.2211
ものだった	-11.2212
試しに	-11.2212
任意	-11.2213
ter	-11.2213
一冊	-11.2215
ko	-11.2215
ショ	-11.2215
小学	-11.2215
挿入	-11.2216
佐藤	-11.2218
望み	-11.2218
言い訳	-11.2219
ィ	-11.2219
ただし	-11.2219
しているところ	-11.222
▁西	-11.222
気になっている	-11.2224
▁アニメ	-11.2224
放題	-11.2224
暖	-11.2224
はまったく	-11.2224
ベン	-11.2225
ボク	-11.2225
アス	-11.2226
で約	-11.2226
オシャレ	-11.2226
真の	-11.2227
吉田	-11.2228
▁早速	-11.2228
欠かせない	-11.2228
がついている	-11.2228
は同じ	-11.223
絆	-11.2231
聞いたこと	-11.2231
ぴったり	-11.2232
溶	-11.2232
業務を	-11.2233
らん	-11.2235
どちらが	-11.2236
刻	-11.2239
食堂	-11.2241
ローズ	-11.2242
骨盤	-11.2242
少なく	-11.2243
大事です	-11.2243
露出	-11.2243
▁普通の	-11.2244
多彩な	-11.2244
主催者	-11.2245
暖かく	-11.2245
市に	-11.2246
せた	-11.2246
を閉じ	-11.2247
写真が	-11.2248
▁さすがに	-11.225
バグ	-11.225
貼り付け	-11.2251
則	-11.2251
サイズは	-11.2253
物は	-11.2253
ブレーキ	-11.2254
数の	-11.2256
阿	-11.2256
仕事や	-11.2258
折り	-11.2258
と同じく	-11.2258
くださいました	-11.226
のは初めて	-11.2261
自民党	-11.2261
▁少しでも	-11.2265
53	-11.2265
紹介する	-11.2266
たいという	-11.2267
のやり方	-11.2267
太陽光発電	-11.2267
時間以上	-11.2268
ついた	-11.227
お楽しみに	-11.227
側は	-11.227
権力	-11.2272
-2	-11.2273
いるのに	-11.2274
脂	-11.2275
やさしい	-11.2275
干	-11.2276
が行われます	-11.2277
ネットの	-11.2279
降りて	-11.228
▁しばらく	-11.228
という考え方	-11.2281
に戻	-11.2281
皮膚科	-11.2286
還元	-11.2287
単純	-11.2289
だと思っている	-11.229
▁昔は	-11.2291
以前は	-11.2293
を学び	-11.2293
取れる	-11.2293
▁▼	-11.2296
2002	-11.2297
東京で	-11.2299
だけなので	-11.23
全てが	-11.23
を進めて	-11.23
を経験	-11.2302
ge	-11.2303
▁U	-11.2303
ネットショップ	-11.2304
修行	-11.2309
に関わらず	-11.2309
を披露	-11.231
世界中で	-11.2312
学生の	-11.2313
を描く	-11.2315
の整備	-11.2315
友人の	-11.2315
た後	-11.2315
言葉は	-11.2316
じっくりと	-11.2317
水着	-11.2318
しばしば	-11.232
燃料	-11.2321
横浜市	-11.2321
したのか	-11.2322
本文	-11.2324
買取り	-11.2326
大量	-11.2326
させるために	-11.2327
を定め	-11.2327
医療費	-11.2329
穏やかな	-11.2329
をインストール	-11.233
個の	-11.233
僕も	-11.233
一見	-11.2331
充分	-11.2332
ダメな	-11.2332
質の高い	-11.2333
体操	-11.2334
受け付け	-11.2334
をお伝え	-11.2335
〇	-11.2336
稽古	-11.2336
ということですね	-11.2338
よー	-11.2339
月中旬	-11.2339
良いでしょう	-11.2339
を受けること	-11.234
付けて	-11.2341
事がある	-11.2342
倒れ	-11.2342
勤め	-11.2343
欄に	-11.2343
興味のある方は	-11.2344
がどう	-11.2345
キレイに	-11.2346
東海	-11.2347
豪華	-11.2347
ダイヤモンド	-11.2348
国籍	-11.2348
人なら	-11.2348
の方々に	-11.2349
お越しください	-11.2349
気づき	-11.2351
(2	-11.2353
憧れ	-11.2353
んな	-11.2353
急速に	-11.2354
を発行	-11.2355
はいかがでしょうか	-11.2355
できるようになります	-11.2356
される方	-11.2356
カウンセラー	-11.2361
飛行	-11.2363
シューズ	-11.2364
結成	-11.2364
つに	-11.2365
知れ	-11.2365
お誕生日	-11.2366
寝ている	-11.2366
扱う	-11.2366
合同	-11.2367
課税	-11.2369
われる	-11.2369
利点	-11.237
前提	-11.2372
▁というか	-11.2372
を知りたい	-11.2373
go	-11.2375
を更新	-11.2375
登場人物	-11.2375
稀	-11.2376
フィー	-11.2376
酷い	-11.2378
その日	-11.2378
大学で	-11.2378
um	-11.2378
も高い	-11.2379
潤	-11.2379
進めて	-11.2379
今年で	-11.2379
尻	-11.238
la	-11.238
困って	-11.238
穂	-11.238
が出ない	-11.2382
側が	-11.2384
細かな	-11.2386
日本人は	-11.2388
放射線	-11.2389
身体が	-11.2391
あの人	-11.2391
肩こり	-11.2392
る人	-11.2394
Microsoft	-11.2395
日本代表	-11.2395
国内の	-11.2396
あら	-11.2398
貧困	-11.24
お客様には	-11.24
鶏	-11.2401
▁事前に	-11.2401
▁普段は	-11.2403
を検索	-11.2403
ことができるでしょう	-11.2403
▁いろんな	-11.2403
5.	-11.2404
属	-11.2404
シール	-11.2406
忠	-11.2407
ッシュ	-11.2408
ヨーグルト	-11.2409
お預かり	-11.241
染め	-11.241
会社員	-11.2411
op	-11.2411
ことになり	-11.2411
くなり	-11.2412
わけでもない	-11.2412
のいずれか	-11.2414
データが	-11.2414
先生方	-11.2414
注意してください	-11.2418
を出て	-11.2418
なってきて	-11.2421
を動かす	-11.2421
内容で	-11.2422
話して	-11.2423
って事	-11.2426
シンプルで	-11.2427
に対応している	-11.2428
哲学	-11.2429
を発揮	-11.243
のレッスン	-11.243
▁O	-11.2431
助かりました	-11.2432
気になっていた	-11.2433
外側	-11.2434
tion	-11.2435
名で	-11.2435
ないでください	-11.2436
店員	-11.2437
腫れ	-11.2438
月下旬	-11.2438
改定	-11.2438
微妙な	-11.2438
感性	-11.2439
UN	-11.2439
成功する	-11.244
きれない	-11.2441
▁東	-11.2442
血糖値	-11.2443
艦	-11.2445
SSL	-11.2445
輝き	-11.2446
▁ずっと	-11.2447
出ない	-11.2447
を覚え	-11.2448
必要性	-11.245
とお	-11.245
最悪	-11.245
就活	-11.245
表れ	-11.2452
正式に	-11.2452
残る	-11.2453
代表的な	-11.2453
の香り	-11.2454
気付いた	-11.2455
どうなるか	-11.2458
一般に	-11.2458
丈	-11.246
前向きに	-11.2461
を決定	-11.2461
トレーナー	-11.2461
を考慮して	-11.2462
画面の	-11.2462
の交換	-11.2462
馴染み	-11.2463
寿司	-11.2463
労	-11.2464
ES	-11.2466
▁下記	-11.2466
オーガニック	-11.2467
怪	-11.2467
効果を実感	-11.2468
キリスト教	-11.2469
▁次回	-11.247
弊社の	-11.2471
限定で	-11.2471
▁100	-11.2473
、2014	-11.2475
脳の	-11.2475
って思って	-11.2475
NA	-11.2478
国が	-11.2478
閉店	-11.2479
を選び	-11.2479
(3	-11.2479
を持つこと	-11.248
とは別に	-11.248
ai	-11.2481
ことがありました	-11.2483
始まった	-11.2484
の下で	-11.2486
日常の	-11.2488
lo	-11.2488
強度	-11.2489
削	-11.2489
お送り	-11.2492
やりとり	-11.2492
短期間で	-11.2493
重さ	-11.2493
っちゃ	-11.2494
当初は	-11.2495
誠にありがとうございました	-11.2496
しませんでした	-11.2497
外に出	-11.2497
版の	-11.2497
未来の	-11.2499
訪れて	-11.2499
▁まさに	-11.2499
の発展	-11.2501
の一部を	-11.2502
敷地	-11.2503
群馬県	-11.2504
等により	-11.2504
された場合	-11.2507
ってきた	-11.251
ミュージック	-11.2511
の施術	-11.2514
既婚者	-11.2514
増え	-11.2514
確認して	-11.2515
形の	-11.2516
行うこと	-11.2517
わけではないので	-11.2517
欲しかった	-11.2517
を参照してください	-11.2518
付く	-11.2518
並びに	-11.252
大企業	-11.252
寮	-11.2521
くなって	-11.2521
MB	-11.2521
見られない	-11.2523
婚	-11.2524
外見	-11.2525
させない	-11.2527
▁どちらも	-11.2527
のせい	-11.2529
シナリオ	-11.253
聞か	-11.2531
になるまで	-11.2531
食器	-11.2532
限られた	-11.2532
さほど	-11.2533
ゾーン	-11.2535
諸国	-11.2535
すべてが	-11.2536
と考えられる	-11.2536
会いたい	-11.2538
リック	-11.254
▁そのとき	-11.254
お散歩	-11.2542
理念	-11.2542
イベントで	-11.2543
混	-11.2544
やがて	-11.2545
論理	-11.2547
なれば	-11.2547
をお楽しみください	-11.2547
お正月	-11.2548
生命保険	-11.2548
なくてはいけない	-11.2549
BS	-11.255
推測	-11.255
条第	-11.2551
借りる	-11.2552
連合	-11.2552
のことで	-11.2552
発売日	-11.2553
に達し	-11.2553
行われます	-11.2553
社員の	-11.2553
に乗る	-11.2553
並み	-11.2554
と感じている	-11.2554
あう	-11.2555
▁そうすれば	-11.2555
下部	-11.2556
大半	-11.2558
〜。	-11.2559
決まって	-11.256
場所が	-11.2561
出来ません	-11.2562
圧力	-11.2562
さを	-11.2563
株主	-11.2563
に掲載されている	-11.2566
過程で	-11.2568
を繰り返す	-11.2568
意外な	-11.2568
辞書	-11.2569
ごみ	-11.2569
宇	-11.2569
の期間	-11.2571
殺人	-11.2571
対話	-11.2572
と思っても	-11.2573
履歴書	-11.2575
限定の	-11.2575
▁会場	-11.2577
が必須	-11.2579
の水	-11.2579
やれる	-11.258
おかしく	-11.2581
ほうが良い	-11.2581
ヒーロー	-11.2582
▁Re	-11.2583
セリフ	-11.2583
▁一般的な	-11.2586
迷い	-11.2586
も少なく	-11.2586
光の	-11.2586
ショット	-11.2588
ような気がして	-11.2591
なのかもしれない	-11.2591
を生み出し	-11.2591
向いて	-11.2592
を実践	-11.2594
量の	-11.2595
さず	-11.2598
参加した	-11.2599
各自	-11.2599
アラ	-11.2599
ドー	-11.2601
この人	-11.2601
に変化	-11.2602
洗濯機	-11.2603
をどのように	-11.2603
来院	-11.2603
を見せ	-11.2604
時間を過ご	-11.2604
用事	-11.2604
の街	-11.2605
盗	-11.2606
所定の	-11.2606
ことがわかります	-11.2606
と呼ぶ	-11.2606
供	-11.2607
幸せに	-11.2607
の勉強	-11.2607
いらっしゃいました	-11.2608
を与えて	-11.2609
するときに	-11.2609
プライバシーポリシー	-11.2609
を付け	-11.2609
になるように	-11.261
村の	-11.2614
しようと思います	-11.2614
を生み出す	-11.2614
がついた	-11.2615
調節	-11.2615
血流	-11.2617
進路	-11.2618
したかった	-11.2618
のうちに	-11.2619
金銭	-11.262
届	-11.2621
欠点	-11.2622
未だに	-11.2623
の低下	-11.2623
液晶	-11.2624
▁(2)	-11.2625
が分かる	-11.2625
を共有	-11.2626
(18	-11.2627
高血圧	-11.2627
が来た	-11.2627
づけ	-11.2627
願望	-11.263
レーション	-11.2632
クト	-11.2634
あん	-11.2634
助かります	-11.2636
オランダ	-11.2636
傾向にあります	-11.2637
スイス	-11.2637
してはいけない	-11.2638
就労	-11.264
高橋	-11.264
花火大会	-11.2641
日焼け	-11.2641
エー	-11.2641
他の人	-11.2642
との連携	-11.2643
年まで	-11.2643
を売る	-11.2643
機材	-11.2644
じゃなかった	-11.2647
の奥	-11.2647
お姉さん	-11.2648
通った	-11.2648
カリキュラム	-11.2649
地獄	-11.2649
姉妹	-11.2651
有名です	-11.2651
▁どうやら	-11.2652
毎日の	-11.2653
やりがい	-11.2656
ノリ	-11.2656
年ほど	-11.2657
お渡し	-11.2657
瓶	-11.2659
キャッシュバック	-11.2659
知識を	-11.2662
気配	-11.2663
と考えられています	-11.2665
天使	-11.2665
し続ける	-11.2665
パソコンの	-11.2666
書きました	-11.2667
品種	-11.2667
シルバー	-11.2667
詰まって	-11.2669
たのですが	-11.267
新年	-11.2671
コミ	-11.2672
が起きる	-11.2673
とも言える	-11.2674
経験がある	-11.2674
留め	-11.2674
縮小	-11.2676
参考にして	-11.2676
ユーザーは	-11.2677
省略	-11.2678
▁一応	-11.2678
を表示する	-11.2679
ジェル	-11.2679
来ます	-11.268
効果を	-11.268
友人と	-11.2681
ジャズ	-11.2681
信じて	-11.2682
を理解する	-11.2682
動機	-11.2682
膜	-11.2684
利用目的	-11.2684
過ごし	-11.2686
のでしょうね	-11.2686
を集める	-11.2687
対応を	-11.2687
るよう	-11.2687
わず	-11.2689
導	-11.2689
▁すぐに	-11.269
▁前回の	-11.2691
▁その場合	-11.2691
と違い	-11.2692
をまとめました	-11.2692
1980	-11.2692
期の	-11.2692
見えて	-11.2692
が届く	-11.2693
組み	-11.2694
無料漫画	-11.2694
スルー	-11.2695
本物	-11.2696
照	-11.2698
取った	-11.2698
資本	-11.2699
なんですけど	-11.2699
集まった	-11.27
価	-11.27
咲	-11.2701
▁ホームページ	-11.2701
優しさ	-11.2702
それとも	-11.2703
マイク	-11.2704
立体	-11.2705
広がり	-11.2707
顧問	-11.2708
器具	-11.2709
企業に	-11.271
いる人	-11.2711
売り上げ	-11.2711
有効期限	-11.2712
mg	-11.2712
運び	-11.2712
池袋	-11.2713
にはなりません	-11.2713
債権者	-11.2714
こども	-11.2715
個別に	-11.2715
流出	-11.2717
届いた	-11.2717
いいのですが	-11.2718
お墓	-11.2718
であることが	-11.2719
早めの	-11.2719
のあり方	-11.2721
の実施	-11.2721
▁Pro	-11.2721
伝説	-11.2722
を出した	-11.2723
あげた	-11.2723
適応	-11.2725
注意事項	-11.2728
ステーション	-11.2728
分かります	-11.2729
に期待	-11.2729
外壁	-11.2729
体内に	-11.2729
化した	-11.2733
薬の	-11.2733
刑事	-11.2735
にあって	-11.2736
家が	-11.2739
明記	-11.2739
出来なかった	-11.2741
▁元	-11.2741
工作	-11.2744
手前	-11.2746
ふく	-11.2747
行けない	-11.2747
んだり	-11.2747
▁音楽	-11.2748
を購入した	-11.2749
せめて	-11.275
4000	-11.2751
を必要とする	-11.2751
ような感じ	-11.2751
を残す	-11.2751
このサイト	-11.2751
というわけではありません	-11.2752
方は是非	-11.2752
▁その為	-11.2753
支店	-11.2754
取り入れ	-11.2754
料金を	-11.2754
保つ	-11.2755
▁ご了承ください	-11.2756
mail	-11.2759
伝わる	-11.276
本店	-11.276
岡山	-11.2761
容疑者	-11.2763
アミノ酸	-11.2764
点数	-11.2765
プレゼン	-11.2765
瞑想	-11.2768
優秀	-11.2768
時期は	-11.2769
を楽しむことができます	-11.2769
根本	-11.2769
正面	-11.277
理由が	-11.2771
梅雨	-11.2771
理解できない	-11.2772
に向け	-11.2773
春の	-11.2773
への対応	-11.2774
はずなのに	-11.2774
▁先週	-11.2775
医院	-11.2775
生の	-11.2776
本屋	-11.2777
錠	-11.2778
何だか	-11.2779
戻って	-11.2779
付与	-11.2783
人気のある	-11.2783
実質	-11.2784
医師の	-11.2784
▁当サイトでは	-11.2785
語る	-11.2786
硬	-11.2786
ないのですが	-11.2787
世代の	-11.2787
見たこと	-11.2787
全体が	-11.2788
いただきまして	-11.279
るから	-11.279
をさせていただきます	-11.2791
試行錯誤	-11.2792
先週	-11.2793
ので注意が必要です	-11.2794
不幸	-11.2795
高校の	-11.2795
になってきます	-11.2795
肝臓	-11.2796
を演出	-11.2799
の条件	-11.2799
息子が	-11.28
追記	-11.2805
ろうと	-11.2806
▁明日は	-11.2807
なと思いました	-11.2807
内容に	-11.2808
遺言	-11.2809
上場	-11.2809
山口	-11.2811
CC	-11.2811
ラベル	-11.2813
北部	-11.2813
方と	-11.2814
滋賀県	-11.2814
巨大	-11.2815
開発者	-11.2816
と感じています	-11.2816
整体	-11.2817
当局	-11.2818
の美しさ	-11.2818
が終わって	-11.2819
駆除	-11.2819
を見つめ	-11.2821
泣いて	-11.2821
をサポート	-11.2821
ないため	-11.2822
下さいね	-11.2822
ブランドの	-11.2823
あらためて	-11.2825
延期	-11.2826
どこかに	-11.2826
という印象	-11.2826
なったり	-11.2829
たいと思っています	-11.283
の大きな	-11.2833
情報発信	-11.2833
が得られる	-11.2834
柔らかく	-11.2835
▁お金	-11.2835
のご相談	-11.2836
いいです	-11.2837
によっても	-11.2838
の作業	-11.2838
スタジアム	-11.2839
アンテナ	-11.2841
を示した	-11.2842
スカ	-11.2844
量を	-11.2844
航空券	-11.2845
育って	-11.2845
磨	-11.2845
のニュース	-11.2845
鈴木	-11.2846
っても	-11.2847
▁どうして	-11.2848
の壁	-11.2848
仲介	-11.2848
旬	-11.2848
ケイ	-11.2849
それ以上	-11.2849
il	-11.2849
を感じました	-11.2849
を踏まえて	-11.2851
は以下の	-11.2853
の成果	-11.2853
出せる	-11.2854
MP	-11.2854
でないと	-11.2854
でなければ	-11.2854
おいしく	-11.2856
がまだ	-11.2856
と聞くと	-11.2856
ry	-11.2857
ユニークな	-11.2859
冠	-11.286
アプリを	-11.2861
飛	-11.2861
もっともっと	-11.2862
争い	-11.2864
再起動	-11.2865
か分からない	-11.2866
国産	-11.2866
フォン	-11.2866
というよりも	-11.2867
▁去年	-11.2868
現場の	-11.2868
いだ	-11.2871
の報告	-11.2872
売り切れ	-11.2872
結果が	-11.2873
となれば	-11.2874
自分には	-11.2875
▁最後の	-11.2875
組み立て	-11.2877
身体を	-11.2878
父の	-11.2878
唐	-11.2878
だったから	-11.2879
完結	-11.288
と言っていた	-11.2881
いたい	-11.2881
平等	-11.2882
清水	-11.2882
と良いでしょう	-11.2884
▁北	-11.2884
続けること	-11.2885
続けられる	-11.2885
発明	-11.2885
気になります	-11.2886
その辺	-11.2886
を全て	-11.2886
我が家	-11.2886
アップル	-11.2886
ぱ	-11.2886
疲れて	-11.2887
息子の	-11.2888
養成	-11.2889
曲が	-11.289
を少し	-11.289
改造	-11.2892
任せ	-11.2892
を決めた	-11.2893
こともあるので	-11.2894
正義	-11.2895
を重ねて	-11.2895
▁大人	-11.2898
スタンダード	-11.2899
嬉しく	-11.29
アップグレード	-11.2901
▁二	-11.2901
北区	-11.2901
勉強する	-11.2902
中村	-11.2902
南部	-11.2902
に分けて	-11.2902
ているのか	-11.2903
ということになる	-11.2903
獣	-11.2904
を開設	-11.2905
落ち着き	-11.2905
2007	-11.2905
聴き	-11.2906
変化する	-11.2907
脅威	-11.2908
慢性	-11.2908
耐震	-11.2908
大変です	-11.2909
指定した	-11.2909
見つけ	-11.291
呼び	-11.2911
気にならない	-11.2911
ここの	-11.2912
視点から	-11.2913
になりやすい	-11.2915
見れば	-11.2915
地の	-11.2915
壁に	-11.2916
風味	-11.2919
の金額	-11.292
に限って	-11.2921
に出席	-11.2922
身の	-11.2923
▁こんばんは	-11.2923
体育館	-11.2924
ページで	-11.2924
があった場合	-11.2924
健康診断	-11.2925
を見れば	-11.2926
米国の	-11.2926
常時	-11.2931
赤字	-11.2932
典	-11.2933
写真を撮る	-11.2933
デザート	-11.2935
選定	-11.2936
▁エ	-11.2937
扉	-11.2938
いなくても	-11.2939
デスク	-11.2939
原理	-11.294
止	-11.2941
目の前で	-11.2942
なんですよね	-11.2943
普段は	-11.2943
サイトから	-11.2946
購読	-11.2947
〇〇	-11.2947
-0	-11.2948
デュ	-11.295
経つ	-11.295
個人で	-11.295
意味がある	-11.295
つま	-11.2952
とは異なる	-11.2952
ケースもあります	-11.2953
を維持する	-11.2953
が付いている	-11.2953
02	-11.2956
週間ほど	-11.2956
お近くの	-11.2958
現時点で	-11.2959
行為を	-11.2961
ゆえに	-11.2962
が集まり	-11.2963
森林	-11.2963
と合わせて	-11.2963
ソニー	-11.2965
▁40	-11.2966
で購入する	-11.2967
書きます	-11.2967
にも対応	-11.2967
ジャック	-11.2967
乳酸菌	-11.2968
足り	-11.2969
荒れ	-11.297
サイトが	-11.2971
思うように	-11.2971
いち	-11.2973
があるのですが	-11.2975
こともできる	-11.2975
という事実	-11.2975
やすさ	-11.2975
座って	-11.2976
地方の	-11.2977
という意味で	-11.2977
事前の	-11.2979
触	-11.2979
茨城県	-11.2979
寺院	-11.298
メンバーが	-11.2981
を活用した	-11.2981
返却	-11.2981
説明書	-11.2981
くださって	-11.2981
近代	-11.2982
生活の	-11.2983
ことがありません	-11.2985
次々と	-11.2985
怖	-11.2986
日以降	-11.2986
倍の	-11.2986
io	-11.2986
の舞台	-11.2986
合併	-11.2987
見守って	-11.2987
人として	-11.2987
見事に	-11.2989
を公開	-11.299
移動する	-11.299
代後半	-11.299
消え	-11.2992
の一つとして	-11.2993
ガル	-11.2993
考えています	-11.2994
進展	-11.2994
の代わりに	-11.2995
リンク先	-11.2995
人たちに	-11.2995
お考え	-11.2996
た上で	-11.2997
全てを	-11.2997
婚活パーティー	-11.2998
しょ	-11.2998
仕事も	-11.2999
独	-11.3
種類があります	-11.3001
雷	-11.3001
日間の	-11.3003
に触れる	-11.3004
がたくさんある	-11.3004
新型	-11.3004
大好き	-11.3004
結局は	-11.3005
言うこと	-11.3005
68	-11.3005
後ろに	-11.3007
次世代	-11.3007
を見てみると	-11.3008
を信じて	-11.3008
合宿	-11.3009
コマ	-11.301
を起こし	-11.301
印鑑	-11.3011
育毛	-11.3011
始まり	-11.3011
消えて	-11.3013
ならず	-11.3014
ほんとに	-11.3015
人がいます	-11.3017
失敗した	-11.3018
検出	-11.3018
いなかったので	-11.302
を下げる	-11.3021
で有名な	-11.3025
を満た	-11.3025
髪型	-11.3026
使用した	-11.3026
加熱	-11.3028
もしも	-11.3028
ソング	-11.3029
申し上げ	-11.3032
03	-11.3034
でなくても	-11.3035
腐	-11.3035
見かける	-11.3036
にかかわらず	-11.3036
状態の	-11.3037
▁いろいろな	-11.3038
ステータス	-11.3038
全体で	-11.3038
強さ	-11.3038
スタッフに	-11.3038
現れ	-11.304
状況が	-11.3041
彼女と	-11.3041
与	-11.3042
日本語で	-11.3042
熊本県	-11.3043
てしまうこと	-11.3046
sh	-11.3047
みてくださいね	-11.3049
見たら	-11.3049
その時の	-11.305
みたいと思います	-11.3051
大事なこと	-11.3051
部長	-11.3052
両者	-11.3052
を受け取る	-11.3053
上がった	-11.3055
まちづくり	-11.3057
全国で	-11.3057
を増やして	-11.3058
虐待	-11.3058
...?	-11.3058
プレート	-11.3059
半ば	-11.3059
が起き	-11.3059
額を	-11.306
消滅	-11.3061
お疲れ様でした	-11.3062
入居者	-11.3064
フラッシュ	-11.3065
ホー	-11.3065
ドリ	-11.3065
対象外	-11.3065
積極的な	-11.3066
描写	-11.3068
研究室	-11.3069
のとき	-11.3071
が続いて	-11.3071
祝い	-11.3072
言動	-11.3072
蓮	-11.3073
▁なんで	-11.3075
▁2009	-11.3077
▁白	-11.3078
結婚する	-11.3078
也	-11.3079
定期的な	-11.3079
遅	-11.3079
手に入れる	-11.3079
も非常に	-11.3079
あげたい	-11.308
民主主義	-11.308
メル	-11.3081
▁ここの	-11.3081
濡れ	-11.3082
敬	-11.3082
毎日のように	-11.3083
称	-11.3083
教える	-11.3083
存在している	-11.3085
85	-11.309
しん	-11.309
下がり	-11.3091
拡散	-11.3091
使われています	-11.3092
てい	-11.3092
した方がいい	-11.3092
出された	-11.3093
薬を	-11.3093
が取れ	-11.3093
95	-11.3094
足元	-11.3094
～1	-11.3095
を設定する	-11.3095
を目指しています	-11.3097
自分の好きな	-11.3097
全体を	-11.3098
の心	-11.3099
かせて	-11.3099
育	-11.3099
ポール	-11.3102
プレッシャー	-11.3102
付き合う	-11.3102
金を	-11.3103
友だち	-11.3104
継続的に	-11.3105
▁万が一	-11.3105
年賀状	-11.3108
を指定	-11.3109
かも知れませんが	-11.3109
うん	-11.3111
れます	-11.3114
車は	-11.3114
荷物を	-11.3114
にせよ	-11.3118
かす	-11.3118
祖母	-11.3118
することができない	-11.3119
ポップ	-11.312
している場合	-11.312
伝えた	-11.3121
訳です	-11.3121
パイ	-11.3122
梨	-11.3122
検定	-11.3123
なりません	-11.3125
up	-11.3125
発電	-11.3127
▁大きな	-11.3127
はまだまだ	-11.3128
ネス	-11.3129
流れる	-11.313
さに	-11.3131
おられます	-11.3131
の指導	-11.3132
幸い	-11.3134
がどんどん	-11.3138
尊	-11.3139
政府の	-11.314
を十分に	-11.3141
交流会	-11.3142
送金	-11.3144
▁ご予約	-11.3148
画像の	-11.3148
大和	-11.3148
参考にしてみてください	-11.3148
方向性	-11.3151
を加えて	-11.3152
施設の	-11.3153
雰囲気が	-11.3153
救急	-11.3154
興味のある	-11.3155
を開き	-11.3156
支出	-11.3157
▁一般	-11.3157
ましたね	-11.3158
民主党	-11.3159
くなった	-11.316
▁f	-11.3161
矛盾	-11.3161
などがあります	-11.3162
ki	-11.3163
航	-11.3163
フェイスブック	-11.3165
フリーランス	-11.3166
買い取り	-11.3166
刑	-11.3167
最安値	-11.3167
説明する	-11.3169
ことはありませんか	-11.3169
送迎	-11.3169
目線	-11.3171
更なる	-11.3171
の約	-11.3171
ビス	-11.3172
SH	-11.3172
ものも	-11.3173
然と	-11.3173
アイディア	-11.3174
あたりの	-11.3175
▁家	-11.3176
来日	-11.3176
してきましたが	-11.3176
(4	-11.3177
フォーマット	-11.3177
非難	-11.3178
店は	-11.3179
が見え	-11.3182
▁少なくとも	-11.3183
まいります	-11.3183
が始まって	-11.3184
全世界	-11.3185
大正	-11.3186
を発表	-11.3186
岩手県	-11.3187
▁次回は	-11.3187
を合わせて	-11.3187
を記念して	-11.3187
を堪能	-11.3188
賠償	-11.319
なんていう	-11.319
伝えたい	-11.319
増える	-11.3191
歌って	-11.3193
安定して	-11.3194
ネガティブな	-11.3195
悲しみ	-11.3197
トゥ	-11.3197
ランプ	-11.3198
を取得する	-11.3199
ード	-11.3199
ホント	-11.3201
セールス	-11.3201
々と	-11.3201
を聞いた	-11.3203
の調整	-11.3203
賛成	-11.3203
トンネル	-11.3204
面白く	-11.3204
救い	-11.3205
になるのです	-11.3211
嫌だ	-11.3211
国会	-11.3211
勤務先	-11.3213
肌トラブル	-11.3214
運動を	-11.3214
いらない	-11.3215
サポーター	-11.3215
眼鏡	-11.3215
在住	-11.3217
ッカー	-11.3219
を改善する	-11.322
うまくいかない	-11.3221
翌年	-11.3222
▁僕も	-11.3223
セイ	-11.3223
目的の	-11.3224
...!	-11.3225
罰	-11.3225
分野の	-11.3225
の事を	-11.3226
即日融資	-11.3227
が楽しめる	-11.3228
不良	-11.3229
とは言えません	-11.3229
ゲームの	-11.3229
バスト	-11.323
性の高い	-11.323
を込めて	-11.3231
イイ	-11.3232
ホントに	-11.3234
をダウンロード	-11.3234
を有効に	-11.3235
観光スポット	-11.3237
容	-11.3237
覚	-11.3237
後期	-11.3238
パスタ	-11.3238
なのでしょう	-11.3238
消防	-11.3239
バリ	-11.3239
様々	-11.3239
人々に	-11.3239
年後の	-11.3239
サービスで	-11.324
披露	-11.3241
結婚したい	-11.3242
ですかね	-11.3243
を作っている	-11.3244
ばっかり	-11.3244
車内	-11.3244
の関係で	-11.3246
CH	-11.3246
つかない	-11.3246
以下に	-11.3247
テレビ番組	-11.3247
今現在	-11.3247
ネック	-11.3247
がメイン	-11.3248
なにも	-11.3248
つは	-11.3249
がうまく	-11.325
ないのか	-11.325
代替	-11.3251
の皆さま	-11.3251
短時間で	-11.3251
感が	-11.3251
関係を	-11.3252
までご連絡ください	-11.3252
を入力して	-11.3253
を育てる	-11.3254
のタイトル	-11.3255
機会があれば	-11.3255
濃度	-11.326
地点	-11.326
下取り	-11.3261
がない場合は	-11.3263
のせいで	-11.3264
いただけるよう	-11.3265
を達成	-11.3265
再発	-11.3265
フリ	-11.3265
因	-11.3265
口の中	-11.3265
車種	-11.3266
▁ビジネス	-11.3268
伝わって	-11.3269
むくみ	-11.3269
できるようになった	-11.327
のとおり	-11.3271
痩せる	-11.3271
中央区	-11.3274
数ヶ月	-11.3274
給付	-11.3274
を務め	-11.3275
見れる	-11.3275
個人情報は	-11.3276
全国に	-11.3276
状態が	-11.3277
衝突	-11.3277
カビ	-11.3277
会場に	-11.3281
ものだと	-11.3282
初め	-11.3282
たところ	-11.3282
条の	-11.3284
の依頼	-11.3285
るだけ	-11.3285
を自分で	-11.3285
を得	-11.3286
わい	-11.3286
一人一人	-11.3287
歩いている	-11.3289
自分の中で	-11.3289
▁もう少し	-11.329
アメリカ人	-11.329
あるのか	-11.329
市役所	-11.3291
託	-11.3291
引き出し	-11.3291
毎	-11.3292
ぇ	-11.3292
ちょっとだけ	-11.3294
を依頼する	-11.3295
▁相場	-11.3295
のよ	-11.3296
に沿った	-11.3296
各地で	-11.3298
日本と	-11.3299
▁2008	-11.3299
しまったり	-11.3299
の申し込み	-11.33
ポイントです	-11.33
珍しく	-11.3301
反射	-11.3304
しないこと	-11.3305
激安	-11.3307
を伝え	-11.3308
と判断	-11.3309
あた	-11.3309
偏	-11.331
霧	-11.331
▁24	-11.331
リソース	-11.3316
する予定です	-11.3316
利用規約	-11.3316
家族や	-11.3317
などにより	-11.3317
を入れた	-11.3318
であることは	-11.3318
費用が	-11.3322
ご愛顧	-11.3324
をうまく	-11.3324
すと	-11.3325
お薬	-11.3325
ましたので	-11.3326
られていた	-11.3326
知られ	-11.3326
は他の	-11.3326
四国	-11.3326
多くの人	-11.333
圧倒的な	-11.3332
ターミナル	-11.3335
あたし	-11.3335
君が	-11.3335
実際のところ	-11.3336
ターン	-11.3337
ラム	-11.3337
赤ちゃんが	-11.3338
参入	-11.3339
に至る	-11.3339
▁TV	-11.3341
火曜日	-11.3341
無限	-11.3341
フライト	-11.3342
▁通常の	-11.3342
ドキュメント	-11.3343
分に	-11.3344
が同じ	-11.3345
情報など	-11.3345
こともあるでしょう	-11.3347
▁今月	-11.3347
専門医	-11.3347
最短	-11.335
嫌いな	-11.335
最低限	-11.335
られるように	-11.335
快適	-11.335
解決する	-11.3351
よろしく	-11.3353
買取価格	-11.3353
ないでしょう	-11.3353
寄せ	-11.3354
酸化	-11.3355
有り	-11.3355
の安全	-11.3355
われた	-11.3357
いますか	-11.3357
例年	-11.3357
日午後	-11.3359
歯が	-11.3359
が大好きな	-11.3359
家庭で	-11.336
ラボ	-11.3361
帽子	-11.3362
機能性	-11.3363
になってくる	-11.3364
グラム	-11.3366
ジャン	-11.3366
公開された	-11.3366
続けています	-11.3367
▁それぞれ	-11.3367
無難	-11.337
の移動	-11.337
▁大学	-11.3371
休止	-11.3371
感謝しています	-11.3371
EU	-11.3371
1990	-11.3372
の取り組み	-11.3372
ことが多いので	-11.3374
様が	-11.3374
シワ	-11.3375
The	-11.3377
効	-11.3377
を送り	-11.3378
待ち時間	-11.3379
任意の	-11.338
ボート	-11.338
家は	-11.3381
にしている	-11.3382
をお持ちの方	-11.3383
▁日本で	-11.3383
カ国	-11.3386
ce	-11.3387
を得られる	-11.3388
▁久しぶりに	-11.3388
傾向があります	-11.3389
の時は	-11.3389
関係が	-11.3392
見方	-11.3393
と思ってしまう	-11.3394
ほっと	-11.3395
トルコ	-11.3397
取れ	-11.3397
間違いない	-11.3398
を実施する	-11.3401
申請書	-11.3402
カードは	-11.3404
帰りに	-11.3404
と思えば	-11.3405
とくに	-11.3405
人工知能	-11.3406
66	-11.3407
に関心	-11.3407
横に	-11.3407
の中にも	-11.3408
の処理	-11.3408
区域	-11.341
ゴールデンウィーク	-11.341
88	-11.3411
加害者	-11.3411
ほかにも	-11.3413
▁下記の	-11.3414
ということでした	-11.3414
調停	-11.3414
のプロ	-11.3414
こんな風に	-11.3414
色合い	-11.3414
ことがありますが	-11.3415
スライド	-11.3415
悪くない	-11.3416
をお勧めします	-11.3416
も多いので	-11.3419
話で	-11.3419
自律神経	-11.342
いいこと	-11.3421
認める	-11.3421
それによって	-11.3422
意味が	-11.3423
を展開	-11.3424
完売	-11.3425
予防接種	-11.3425
と思ったのですが	-11.3425
カツ	-11.3426
幼児	-11.3428
なんだよ	-11.3428
話をする	-11.3428
申し訳ありません	-11.3429
破産	-11.343
の食事	-11.343
皮膚の	-11.343
瞬間に	-11.343
出せ	-11.343
をつけた	-11.3432
を踏まえ	-11.3433
受け取る	-11.3433
をつくって	-11.3433
同居	-11.3434
使いたい	-11.3434
よくない	-11.3435
していただきます	-11.3435
黙って	-11.3436
ライブラリ	-11.3438
▁予めご了承ください	-11.3438
たまには	-11.3439
お盆	-11.344
きょう	-11.344
小林	-11.3441
良いのですが	-11.3442
を残して	-11.3442
と同	-11.3442
の作り方	-11.3443
になってる	-11.3444
App	-11.3444
勤	-11.3444
機能は	-11.3445
▁次は	-11.3445
スカイ	-11.3446
で使う	-11.3446
万ドル	-11.3447
頼り	-11.3447
財務	-11.3447
イケメン	-11.3447
チームが	-11.3448
ite	-11.3448
頂きたい	-11.3449
トータル	-11.3449
次第です	-11.345
になってきました	-11.3451
ex	-11.3452
こちらが	-11.3452
営業日	-11.3452
だけれど	-11.3453
▁この記事では	-11.3454
によって異なります	-11.3454
二次	-11.3455
するときは	-11.3457
徹底的に	-11.3457
と言うのは	-11.3457
ia	-11.3457
非常	-11.3459
見ました	-11.346
できないこと	-11.346
恩	-11.3461
と言うと	-11.3462
占い師	-11.3463
相続税	-11.3463
であれ	-11.3464
一般的には	-11.3464
がい	-11.3464
blog	-11.3466
に興味がある	-11.3466
登場する	-11.3466
させてくれる	-11.3467
調べてみました	-11.3468
にしろ	-11.3468
見せて	-11.3469
静岡	-11.3469
ぼう	-11.3469
何処	-11.3472
わたしが	-11.3472
個人再生	-11.3474
付近	-11.3474
振込	-11.3475
区分	-11.3475
どうなる	-11.3476
関係なく	-11.3478
女性を	-11.348
答えは	-11.348
悪魔	-11.3481
残高	-11.3481
筋肉が	-11.3482
推薦	-11.3482
を見つけた	-11.3483
正確	-11.3483
建築物	-11.3483
貼って	-11.3483
額の	-11.3484
▁小さな	-11.3484
あなたを	-11.3484
本気	-11.3484
▁これらは	-11.3484
山本	-11.3486
が見つかる	-11.3486
触って	-11.3486
前には	-11.3487
を応援	-11.3487
▁まるで	-11.3487
▁リ	-11.3488
▁秋	-11.3488
与えられた	-11.3489
今夜	-11.3489
クマ	-11.349
裕	-11.3491
大切なのは	-11.3492
甘え	-11.3492
方法や	-11.3492
調和	-11.3493
彼女たち	-11.3495
を迎えた	-11.3495
偽	-11.3495
▁私たちが	-11.3496
隠し	-11.3497
ni	-11.3497
のところ	-11.3498
が生まれ	-11.3498
年くらい	-11.3498
接近	-11.3498
お腹が	-11.3499
会館	-11.3499
ございません	-11.35
然	-11.3502
ところもあります	-11.3502
を提供し	-11.3504
麗	-11.3504
育ち	-11.3506
が求められる	-11.3506
集計	-11.3506
に住んで	-11.3506
けん	-11.3506
▁今後とも	-11.3507
かからない	-11.3507
があるのは	-11.3508
したいと思っています	-11.3508
方など	-11.3508
ッパー	-11.3509
お世話	-11.3511
おしゃべり	-11.3514
マシ	-11.3515
連盟	-11.3515
恐	-11.3516
する予定	-11.3516
伊藤	-11.3516
〜!	-11.3517
にすると	-11.3517
いただいた方	-11.352
▁先生	-11.352
と思ってる	-11.3521
▁主に	-11.3521
ページです	-11.3522
残って	-11.3522
引っ	-11.3523
起こった	-11.3524
つくり	-11.3526
ムービー	-11.3526
から約	-11.3526
に対応する	-11.3526
近隣の	-11.3527
しておくこと	-11.3529
命を	-11.3529
の必要性	-11.3529
豊かに	-11.353
360	-11.353
スポンサー	-11.353
をご希望の方は	-11.353
価格の	-11.3531
2004	-11.3532
位に	-11.3532
ご相談下さい	-11.3532
なってきます	-11.3534
本規約	-11.3535
ニング	-11.3535
遅延	-11.3536
▁他に	-11.3536
指定された	-11.3538
家づくり	-11.3538
よろしければ	-11.3539
店員さん	-11.3539
対立	-11.354
慶	-11.354
の多くが	-11.354
を誇る	-11.354
▁5.	-11.354
鶴	-11.3541
羅	-11.3542
クレーム	-11.3542
主催の	-11.3543
勘	-11.3545
泥	-11.3547
誘って	-11.3548
嬉しかった	-11.3549
リース	-11.3549
食事の	-11.3549
案外	-11.3549
共演	-11.355
身に着け	-11.355
メンバーの	-11.3551
一連の	-11.3552
DL	-11.3553
私たちに	-11.3553
そのものが	-11.3555
帰ってきた	-11.3555
るようになる	-11.3556
ho	-11.3556
を開催しました	-11.3557
コム	-11.3557
んだが	-11.3559
甲斐	-11.356
しまうこと	-11.356
Renta	-11.356
▁不動産	-11.3561
移民	-11.3562
交通費	-11.3566
▁ID	-11.3566
なってしまいます	-11.3566
関係性	-11.3566
の魅力を	-11.3566
予報	-11.3566
訳で	-11.3566
....	-11.3568
みなさま	-11.3568
オリ	-11.3569
どれほど	-11.3569
迫	-11.3571
クレ	-11.3572
ハム	-11.3572
ことができず	-11.3572
側で	-11.3574
敏感	-11.3574
責任を	-11.3575
綿	-11.3575
なのだろう	-11.3575
があると思います	-11.3575
は多い	-11.3575
私達の	-11.3575
なくとも	-11.3575
▁弊社は	-11.3576
再会	-11.3576
を指す	-11.3576
ようにする	-11.3577
キリスト	-11.3578
お使いの	-11.3578
注目されている	-11.358
社会に	-11.358
水が	-11.3581
子供の頃	-11.3582
奪	-11.3582
もらえない	-11.3582
という状況	-11.3582
時間がかかります	-11.3583
▁色々な	-11.3587
ビア	-11.3588
チェンジ	-11.3588
名は	-11.3591
我が	-11.3592
日本政府	-11.3593
間違え	-11.3594
土地の	-11.3595
で検索	-11.3596
レモン	-11.3598
航空会社	-11.3599
お世話になりました	-11.3599
ええ	-11.3599
した後に	-11.3599
を立て	-11.36
協	-11.36
真面目に	-11.3601
じっと	-11.3602
▁毎月	-11.3602
日頃	-11.3603
メイ	-11.3603
中継	-11.3603
を記載	-11.3603
見られ	-11.3603
存在します	-11.3605
ことをオススメします	-11.3606
っきり	-11.3607
迷って	-11.3608
ーション	-11.3608
ネイティブ	-11.3608
死に	-11.3609
ライダー	-11.3609
かえ	-11.361
主役	-11.361
▁あなた	-11.361
ているのは	-11.361
句	-11.3611
集中して	-11.3611
出演者	-11.3612
への影響	-11.3613
未満	-11.3614
写真撮影	-11.3614
視聴率	-11.3615
話せる	-11.3616
ネタバレ	-11.3616
美味しかったです	-11.3616
▁そんなこと	-11.3617
のチェック	-11.3617
傾	-11.3618
ぜひ一度	-11.3618
静岡県	-11.3619
お買い上げ	-11.3619
を受けられる	-11.3619
の規定	-11.362
しているような	-11.362
編成	-11.3622
を募集しています	-11.3622
につれて	-11.3623
幻	-11.3624
に従い	-11.3626
オンラインショップ	-11.3626
ようとしている	-11.3627
下げ	-11.3628
グラン	-11.3628
▁まさか	-11.3629
を希望する	-11.3631
すぎた	-11.3631
空間で	-11.3631
担	-11.3632
作られている	-11.3632
ラス	-11.3632
設定を	-11.3633
わからず	-11.3633
ドロップ	-11.3634
自宅の	-11.3634
前で	-11.3635
領収書	-11.3635
歴史的	-11.3636
モーター	-11.3636
周期	-11.3638
以降は	-11.3639
多摩	-11.3639
メキシコ	-11.364
に恵まれ	-11.3642
ec	-11.3643
を上手に	-11.3644
の被害	-11.3645
を見ることができます	-11.3645
のやりとり	-11.3645
上り	-11.3646
だと思った	-11.3646
がなくて	-11.3646
テック	-11.3646
推移	-11.3646
撮れ	-11.3647
をサポートする	-11.3648
年以降	-11.3648
脱出	-11.3649
スプレー	-11.3651
請求書	-11.3653
お客さんが	-11.3653
込	-11.3654
目は	-11.3654
ゆとり	-11.3654
トップページ	-11.3654
調味料	-11.3654
との交流	-11.3655
大陸	-11.3655
初めに	-11.3655
したという	-11.3658
付属	-11.3659
うまい	-11.3661
不在	-11.3661
を使っています	-11.3663
の部屋	-11.3664
が集まる	-11.3665
音楽を	-11.3666
タンク	-11.3666
イノベーション	-11.3666
アク	-11.3667
したい場合は	-11.3667
しているのが	-11.3667
ここ数年	-11.3667
ドラッグ	-11.3668
目立つ	-11.3669
転職活動	-11.3669
アイテムを	-11.3669
を使わない	-11.367
したいと	-11.3671
こいつ	-11.3672
age	-11.3672
と述べた	-11.3672
チャージ	-11.3673
示す	-11.3674
の受付	-11.3675
が届きました	-11.3675
時間と	-11.3675
ガード	-11.3675
視力	-11.3676
シス	-11.3678
立ち読み	-11.368
スタンス	-11.368
当ブログ	-11.368
のファン	-11.3681
輝く	-11.3681
栃木県	-11.3683
産地	-11.3686
にご	-11.3686
いちばん	-11.3688
につながります	-11.3688
の立場	-11.369
▁親	-11.369
▁クリスマス	-11.3692
ペーパー	-11.3693
館内	-11.3693
つ目は	-11.3694
卒業生	-11.3694
期間中に	-11.3694
積み	-11.3694
セブン	-11.3694
ロビー	-11.3697
会社から	-11.3697
キリ	-11.3697
知らない人	-11.3699
学生が	-11.37
それはそれで	-11.3704
着実に	-11.3707
迫力	-11.3707
電子メール	-11.3708
本当にありがとうございます	-11.3708
販売されている	-11.3708
狂	-11.3709
亡くなって	-11.371
宴会	-11.3711
ct	-11.3711
たいと思う	-11.3715
をすべて	-11.3715
を目的として	-11.3715
だったのに	-11.3716
茂	-11.3716
滅	-11.3716
が増えています	-11.3716
選ばれ	-11.3718
相当な	-11.3719
となりますが	-11.3719
イル	-11.3721
hi	-11.3721
老舗	-11.3722
専門的な	-11.3722
根本的な	-11.3722
ap	-11.3724
に対応した	-11.3726
のご依頼	-11.3727
永久脱毛	-11.3729
経験から	-11.3729
連れて	-11.3731
を止め	-11.3731
情勢	-11.3732
閉	-11.3732
しておりますが	-11.3733
だからといって	-11.3733
▁お問い合わせ	-11.3733
ものなのです	-11.3734
素早く	-11.3734
▁プロ	-11.3735
見解	-11.3735
待遇	-11.3736
双方	-11.3736
枚数	-11.3737
もできます	-11.3737
をご参照ください	-11.3738
集まり	-11.3738
奨学金	-11.374
日本から	-11.3741
大ヒット	-11.3741
スは	-11.3742
を搭載	-11.3744
真ん中	-11.3744
どうなっている	-11.3745
を覚える	-11.3745
勉強して	-11.3748
77	-11.3749
問題です	-11.375
ご自分の	-11.3751
それ以上に	-11.3752
ピザ	-11.3753
良いこと	-11.3753
すなわち	-11.3754
年会費	-11.3755
ことが可能	-11.3755
が苦手	-11.3755
見ることができます	-11.3756
▁従って	-11.3757
▁全ての	-11.3757
分離	-11.3758
埼玉	-11.3758
～2	-11.3759
の基準	-11.3759
数を	-11.376
動いている	-11.3761
強調	-11.3761
▁午後	-11.3762
米軍	-11.3763
の設置	-11.3763
を忘れて	-11.3764
伸ば	-11.3765
ないまま	-11.3767
紅	-11.3768
そのように	-11.3769
がしっかり	-11.3771
追いかけ	-11.3775
石油	-11.3777
を提供します	-11.3779
本を読んで	-11.3779
解明	-11.378
する際は	-11.3781
《	-11.3782
が発生します	-11.3783
出てきて	-11.3784
してくれない	-11.3784
事もあります	-11.3784
GW	-11.3785
与え	-11.3786
創立	-11.3786
岡山県	-11.3787
、2013	-11.3787
問題解決	-11.3788
info	-11.3788
とは限らない	-11.3789
エネルギーを	-11.3789
描く	-11.3789
コンタクト	-11.3789
新商品	-11.3789
考えていた	-11.3789
Mo	-11.379
ムラ	-11.3791
ir	-11.3792
im	-11.3792
下がって	-11.3792
▁海	-11.3792
法的	-11.3792
スリム	-11.3792
かれた	-11.3792
ロケーション	-11.3793
ヒアルロン酸	-11.3794
マクロ	-11.3795
衰え	-11.3795
女の子が	-11.3795
▁どんなに	-11.3795
政府が	-11.3796
CPU	-11.3796
贅沢	-11.3797
結構な	-11.3797
未経験	-11.3797
喜ぶ	-11.3798
開け	-11.3799
所得税	-11.38
るほど	-11.38
イス	-11.38
位置に	-11.3801
小学校の	-11.3802
商品です	-11.3805
▁別に	-11.3805
6.	-11.3805
須	-11.3806
98	-11.3806
ヶ月で	-11.3807
に関係なく	-11.3809
行政書士	-11.3811
ray	-11.3811
▁そんなわけで	-11.3811
綱	-11.3811
移植	-11.3812
パチンコ	-11.3812
補給	-11.3813
を打ち	-11.3814
教えてくれた	-11.3815
ことが大事	-11.3815
ご記入	-11.3816
中断	-11.3816
かく	-11.3817
過ごした	-11.3819
戻る	-11.3819
たのか	-11.3821
2.5	-11.3822
受け付けております	-11.3822
IE	-11.3822
を始めました	-11.3823
踏	-11.3823
を終えて	-11.3823
家族と	-11.3823
大人気	-11.3824
かっこいい	-11.3825
カルシウム	-11.3827
故郷	-11.3827
お礼	-11.3828
絶望	-11.3828
が残る	-11.3829
面白かった	-11.3829
日午前	-11.383
▁又	-11.383
▁妊娠	-11.383
安心できる	-11.3831
へ行って	-11.3833
聞きたい	-11.3834
自分の人生	-11.3834
屋外	-11.3834
僕たち	-11.3838
風に	-11.3839
したことで	-11.3839
効果的に	-11.3841
がつかない	-11.3841
指輪	-11.3841
増えている	-11.3842
屈	-11.3843
チェックしてみてください	-11.3843
に注意	-11.3845
辞め	-11.3845
飲んだ	-11.3846
当たり前のこと	-11.3846
する場合があります	-11.3846
堂々と	-11.3846
宮崎	-11.3848
のかもしれませんが	-11.3848
することが大切です	-11.3849
英語力	-11.385
下着	-11.3851
NTT	-11.3851
を覚えて	-11.3852
込んでいる	-11.3853
ガソリン	-11.3853
する際	-11.3854
を目的とした	-11.3855
しまいましたが	-11.3855
テル	-11.3855
影響力	-11.3855
が発売	-11.3856
助言	-11.386
この度	-11.3861
というよりは	-11.3861
会話を	-11.3861
があるなら	-11.3863
監督の	-11.3863
モテ	-11.3864
とらえ	-11.3867
と呼ばれている	-11.3868
を読んだ	-11.3868
低く	-11.3869
重く	-11.3869
▁日本は	-11.3869
住居	-11.3871
匂い	-11.3872
なんでしょうか	-11.3872
たいです	-11.3874
たいへん	-11.3876
だなぁ	-11.3876
着替え	-11.3876
生活費	-11.3878
ファンド	-11.3879
▁複数の	-11.3879
必死に	-11.388
功	-11.388
どうしようもない	-11.3882
日帰り	-11.3882
介護保険	-11.3882
半額	-11.3882
かれる	-11.3885
▁◎	-11.3885
スラ	-11.3887
GPS	-11.3887
初心者の方	-11.3889
律	-11.3892
折れ	-11.3893
定休日	-11.3893
酢	-11.3894
ビジュアル	-11.3894
二十	-11.3898
ネーム	-11.3898
が起こった	-11.3899
を引き起こし	-11.39
途	-11.39
学べる	-11.3901
ぽっちゃり	-11.3903
類似	-11.3904
盛り上がって	-11.3904
文明	-11.3904
るための	-11.3906
小屋	-11.3906
分だけ	-11.3907
だす	-11.391
ありえない	-11.391
▁なんだか	-11.391
わからなかった	-11.3912
締め切り	-11.3912
銀行振込	-11.3913
やま	-11.3916
を感じている	-11.3917
びっくりしました	-11.3917
記事の	-11.3918
漬け	-11.3918
が上がって	-11.3918
のところに	-11.392
最新情報	-11.392
が表示される	-11.392
かける	-11.3922
リアルな	-11.3926
予	-11.3927
んだと思います	-11.393
いったん	-11.3931
を守るために	-11.3931
良いか	-11.3931
になりましたが	-11.3932
ことが重要	-11.3932
ゲイ	-11.3932
わる	-11.3932
いつもより	-11.3932
程度に	-11.3932
になりません	-11.3933
ご指定	-11.3933
広島県	-11.3933
クイズ	-11.3934
が起きた	-11.3937
は既に	-11.3939
翌	-11.3939
体調不良	-11.3939
(5	-11.394
リアルタイムで	-11.394
を楽しみたい	-11.394
こともありますが	-11.3941
適合	-11.3942
開催される	-11.3942
済む	-11.3943
助成	-11.3946
なるもの	-11.3948
ませんので	-11.395
(^^)	-11.395
を解消	-11.395
雨の日	-11.3951
患者の	-11.3951
わけではありませんが	-11.3952
忙しくて	-11.3952
裸	-11.3952
よろしくお願い申し上げます	-11.3953
てしまうので	-11.3954
経歴	-11.3954
元気で	-11.3954
合コン	-11.3954
を見せる	-11.3955
に浸	-11.3955
などでは	-11.3958
景	-11.3958
おりますが	-11.3958
ホテルで	-11.396
ゆったり	-11.3961
歳以上の	-11.3961
工学	-11.3961
ズレ	-11.3963
てみませんか	-11.3964
▁けれども	-11.3966
下落	-11.3966
辛	-11.3968
極力	-11.3968
ゲー	-11.3968
是非とも	-11.3968
シニア	-11.3969
バリエーション	-11.3969
迷う	-11.3969
変わってきます	-11.3969
one	-11.3969
お過ごし	-11.397
自分なりに	-11.3971
水曜日	-11.3971
再婚	-11.3971
80%	-11.3973
をクリックしてください	-11.3974
の本質	-11.3975
頭の中	-11.3975
に渡って	-11.3975
〜」	-11.3975
知っていた	-11.3976
下さった	-11.3977
進んだ	-11.3977
の取得	-11.3977
できないので	-11.3977
本学	-11.3978
スキャン	-11.3978
多大な	-11.3978
石鹸	-11.3979
お肌に	-11.398
に取り組んで	-11.3982
の詳細は	-11.3983
居心地	-11.3984
だけではありません	-11.3984
選手は	-11.3985
のが現状です	-11.3987
であるか	-11.3987
聖書	-11.3988
の目	-11.3993
つけた	-11.3993
が主流	-11.3995
▁コメント	-11.3995
インク	-11.3996
の誕生日	-11.3996
抜けて	-11.3996
安くて	-11.3997
京都市	-11.3997
適正	-11.3999
▁ま	-11.3999
を付ける	-11.3999
磨き	-11.4
この映画	-11.4002
その時は	-11.4002
かけた	-11.4003
世の	-11.4003
日本全国	-11.4003
プラスチック	-11.4003
ストレージ	-11.4006
51	-11.4006
逃	-11.4011
速く	-11.4012
ホテルに	-11.4013
お金は	-11.4014
ゴー	-11.4015
死者	-11.4015
が行われている	-11.4015
旅行者	-11.4016
通訳	-11.4016
▁常に	-11.4017
シェ	-11.4018
信じ	-11.4022
健康的な	-11.4022
フランスの	-11.4022
をお届け	-11.4023
金の	-11.4024
お見合い	-11.4026
の追加	-11.4027
ANA	-11.4028
立ち上げ	-11.4029
ジュエリー	-11.4029
美味しさ	-11.403
プレーヤー	-11.403
/1	-11.403
態	-11.4031
この時期	-11.4032
を継続	-11.4032
太平洋	-11.4032
儀	-11.4032
▁↑	-11.4032
予約を	-11.4034
姿が	-11.4034
場合の	-11.4035
へのリンク	-11.4035
貼り	-11.4036
立っている	-11.4036
して頂き	-11.4037
▁日本人	-11.4037
申し上げます	-11.4038
日米	-11.4038
アンド	-11.4038
▁過去	-11.4038
SO	-11.4039
加齢	-11.4039
お届けします	-11.4041
することはありません	-11.4042
からスタート	-11.4049
抽出	-11.405
だけあって	-11.4051
WA	-11.4051
行きましょう	-11.4051
est	-11.4052
昨日の	-11.4053
覆	-11.4056
病気の	-11.4056
に備えて	-11.4057
力を入れ	-11.4059
精神的	-11.406
した際	-11.406
少なからず	-11.4061
プレス	-11.4061
を強化	-11.4062
乗り越え	-11.4062
正月	-11.4063
現実に	-11.4064
気づいて	-11.4064
ていくこと	-11.4066
指針	-11.4067
若しくは	-11.4067
が始まり	-11.4068
るんだ	-11.4068
を制作	-11.4069
点です	-11.4071
全面	-11.4072
所在地	-11.4073
を停止	-11.4074
子も	-11.4074
ソーシャル	-11.4074
出会い系アプリ	-11.4077
ウル	-11.4077
▁とくに	-11.4078
を取り戻す	-11.4081
乃	-11.4082
含まれており	-11.4082
持ち込み	-11.4083
排除	-11.4084
つ目の	-11.4084
って思った	-11.4085
の評判	-11.4086
製品は	-11.4086
のときに	-11.4088
小規模	-11.4089
取り組む	-11.409
の観点から	-11.4091
▁台風	-11.4091
DE	-11.4093
2、3	-11.4093
着る	-11.4094
コンプレックス	-11.4095
▁今から	-11.4095
を学んで	-11.4095
さらには	-11.4095
何で	-11.4096
当日は	-11.4097
委員長	-11.4097
▁このたび	-11.4099
の適用	-11.4099
を推進	-11.41
イチ	-11.41
交差点	-11.4103
年近く	-11.4106
余計に	-11.4106
幸運	-11.4108
劇場版	-11.4109
浪	-11.411
座り	-11.4111
を注文	-11.4112
システムを	-11.4112
録	-11.4113
描かれている	-11.4115
ユーザーに	-11.4116
ac	-11.4116
広め	-11.4118
が出来た	-11.4119
ラップ	-11.4119
残念な	-11.4119
その中に	-11.4119
が生じ	-11.4122
らしさ	-11.4122
プロミス	-11.4122
電車で	-11.4124
同行	-11.4124
如何	-11.4124
締結	-11.4124
の記録	-11.4127
思える	-11.4127
のニーズ	-11.4127
にしたい	-11.4128
ハンドル	-11.4129
と言うこと	-11.4129
ハマ	-11.413
創設	-11.413
♡	-11.413
国で	-11.4133
プラザ	-11.4133
その時に	-11.4134
の申請	-11.4134
数回	-11.4136
ヨン	-11.4136
と思うんです	-11.4138
を起動	-11.4138
落札	-11.4138
全国的に	-11.4139
ズの	-11.4139
出てこない	-11.414
コンディション	-11.414
一言で	-11.414
を立てて	-11.4141
お店が	-11.4141
拝見	-11.4144
兆	-11.4145
ありましたが	-11.4145
圧縮	-11.4145
そんな事	-11.4146
名古屋市	-11.4147
連日	-11.4149
やってみたい	-11.4149
の支援	-11.415
ーク	-11.4151
本校	-11.4151
適切	-11.4152
▁この記事	-11.4152
最後は	-11.4153
っていない	-11.4153
手に入る	-11.4153
随分	-11.4155
こちらの記事	-11.4155
晴	-11.4156
シャッター	-11.4156
のテーマ	-11.4157
(19	-11.4158
ご了承下さい	-11.4158
の取引	-11.4158
コル	-11.4159
記事が	-11.4161
ゆったりと	-11.4162
イメージが	-11.4162
お相手	-11.4164
JA	-11.4164
という結果	-11.4165
重点	-11.4165
尽く	-11.4166
の概要	-11.4168
仲間と	-11.4168
出版社	-11.4169
はもっと	-11.4169
ッター	-11.4169
ているため	-11.4169
主要な	-11.417
が進む	-11.417
▁非常に	-11.417
▁–	-11.417
同級生	-11.417
めちゃくちゃ	-11.4171
必要とされる	-11.4172
Instagram	-11.4172
テレビの	-11.4173
という方も	-11.4174
人が多く	-11.4174
人は多い	-11.4176
させます	-11.4176
弁当	-11.4176
空気が	-11.4177
聞かれる	-11.4179
産の	-11.4179
為の	-11.4179
はどのように	-11.4179
来年の	-11.4179
免除	-11.418
落ちた	-11.418
潤い	-11.418
が挙げられます	-11.4182
(1)	-11.4183
を図り	-11.4184
ルーター	-11.4186
落ちて	-11.4186
制定	-11.4186
分かりました	-11.4187
フィギュア	-11.4187
▁過去の	-11.4187
数分	-11.4188
を少しでも	-11.4188
してあります	-11.4188
防水	-11.4188
走っている	-11.4189
インストラクター	-11.419
も少なくありません	-11.4191
選べる	-11.4192
お電話にて	-11.4193
▁いつ	-11.4194
実施する	-11.4194
気を付けて	-11.4194
を行うことで	-11.4195
こまめに	-11.4199
▁登録	-11.4201
運転手	-11.4202
も大変	-11.4203
号線	-11.4204
顔に	-11.4204
人気がある	-11.4205
ケガ	-11.4205
退院	-11.4205
LA	-11.4205
を更新しました	-11.4207
お世話になった	-11.4207
人それぞれ	-11.4208
お勧めです	-11.4208
苗	-11.4209
損害賠償	-11.4212
そっち	-11.4212
を望む	-11.4212
おりません	-11.4215
新車	-11.4215
継承	-11.4216
ハーフ	-11.4216
隠れ	-11.4217
とすれば	-11.4219
寛	-11.4219
市民の	-11.4219
の人に	-11.4219
速い	-11.4219
だと思われます	-11.422
開いた	-11.4221
化して	-11.4221
夫は	-11.4221
▁皆様の	-11.4221
川崎	-11.4222
うっかり	-11.4222
出会える	-11.4223
生後	-11.4226
感激	-11.4227
あったので	-11.4227
少量	-11.4227
▁^	-11.4228
認め	-11.4229
▁Amazon	-11.4229
グーグル	-11.4229
▁the	-11.423
PHP	-11.423
®	-11.423
でいっぱい	-11.423
に同意	-11.4231
感じが	-11.4231
に行ったら	-11.4232
を徹底	-11.4232
れている	-11.4233
なんとも	-11.4233
こころ	-11.4233
変える	-11.4234
わら	-11.4234
店頭で	-11.4234
恐らく	-11.4235
というのを	-11.4235
スカート	-11.4237
のホテル	-11.4239
申し込む	-11.4239
ふり	-11.4239
いただきたいと思います	-11.424
天気予報	-11.424
で見た	-11.4241
を見たり	-11.4244
クレンジング	-11.4244
場合を除き	-11.4245
の費用	-11.4245
減額	-11.4246
を落とす	-11.4247
をお届けします	-11.4247
クラウドファンディング	-11.4249
商標	-11.4249
駅まで	-11.4249
作曲	-11.4249
と出会う	-11.425
エリアで	-11.4251
)』	-11.4251
明日の	-11.4252
イメージを	-11.4254
回路	-11.4255
の方には	-11.4256
漫画を	-11.4256
飾って	-11.4256
の男性	-11.4256
コーティング	-11.4257
に努め	-11.4257
懇親会	-11.4257
は自分の	-11.4259
おいた	-11.426
状況は	-11.426
薬剤	-11.426
という事は	-11.4261
▁上	-11.4263
というものが	-11.4264
▁クレジットカード	-11.4265
▁米国	-11.4268
不動産投資	-11.4269
マンションの	-11.4269
んでしょう	-11.427
が実現	-11.427
承ります	-11.4272
ないです	-11.4274
ストック	-11.4274
円です	-11.4276
三菱	-11.4276
イカ	-11.4276
ご存じ	-11.4276
有効です	-11.4278
いつものように	-11.4278
人によっては	-11.4278
見てください	-11.4279
一覧です	-11.428
黙	-11.428
きています	-11.428
損傷	-11.428
プロフェッショナル	-11.4281
ナンパ	-11.4283
の買取	-11.4284
かどうかを	-11.4285
内臓	-11.4285
入れ替え	-11.4285
してきて	-11.4286
の映画	-11.4287
が異なります	-11.4288
もうすぐ	-11.4288
を開始する	-11.4289
併設	-11.4291
も多かった	-11.4291
これからは	-11.4292
蘇	-11.4292
者たち	-11.4293
鹿児島	-11.4294
イギリスの	-11.4294
在住の	-11.4297
ているようです	-11.4298
しているもの	-11.43
若い頃	-11.43
餅	-11.43
女性ホルモン	-11.4301
コンテンツを	-11.4302
開拓	-11.4302
文法	-11.4302
闇金	-11.4302
拘束	-11.4303
近くで	-11.4303
なってくる	-11.4303
の権利	-11.4304
の話題	-11.4304
木曜日	-11.4305
虚	-11.4306
▁米	-11.4307
その中でも	-11.4307
財団	-11.4308
美容院	-11.4308
蒸し	-11.4309
尚	-11.4309
に追加	-11.4312
けば	-11.4312
をご提案	-11.4312
登録した	-11.4312
苦情	-11.4312
トム	-11.4312
てみました	-11.4313
キュー	-11.4314
蕎麦	-11.4315
専業主婦	-11.4316
承知	-11.4316
を導入	-11.4317
土曜	-11.4317
冷凍	-11.4317
する必要はありません	-11.4317
ご挨拶	-11.432
近くにある	-11.4322
したことがある	-11.4322
▁Y	-11.4323
▁子ども	-11.4323
▁電話	-11.4324
をいくつか	-11.4325
では無い	-11.4325
盛り上がり	-11.4325
NEXT	-11.4326
お知らせください	-11.4327
わたしたち	-11.4327
危ない	-11.4327
終わりました	-11.4328
を摂取	-11.4328
効能	-11.4329
超え	-11.433
債権	-11.433
いるため	-11.4331
GA	-11.4331
の思い出	-11.4332
あとで	-11.4333
スケール	-11.4333
ヴ	-11.4334
いつまで	-11.4334
している人は	-11.4334
が本当に	-11.4334
右手	-11.4335
で見る	-11.4335
分程度	-11.4337
をリリース	-11.4337
の日程	-11.4337
の割合	-11.4338
撮影した	-11.4338
くらいは	-11.4339
ピッタリ	-11.434
ものづくり	-11.434
容易	-11.434
抗議	-11.4341
お求め	-11.4342
首都圏	-11.4343
▁毎回	-11.4346
縮	-11.4347
反発	-11.4348
-3	-11.4348
という事です	-11.4349
▁そこには	-11.4349
互いに	-11.4349
お客様と	-11.435
67	-11.4351
芝	-11.4351
複製	-11.4351
警察に	-11.4352
▁人間	-11.4352
されてしまった	-11.4356
わかり	-11.4356
先で	-11.4356
比べ	-11.4356
シャン	-11.4357
今や	-11.4357
ていなかった	-11.4358
はどのような	-11.4358
▁16	-11.4358
音を	-11.4361
んだろ	-11.4361
ギリギリ	-11.4364
会議室	-11.4364
ご飯を食べ	-11.4366
さい	-11.4367
隙間	-11.4367
準備を	-11.4367
経った	-11.4369
状態を	-11.437
言っても	-11.4371
慣れない	-11.4372
慣れて	-11.4373
もありますし	-11.4373
生まれる	-11.4373
多様化	-11.4374
)～	-11.4374
の項目	-11.4374
▁俺	-11.4375
ワキガ	-11.4375
110	-11.4375
LO	-11.4375
▁画像	-11.4376
が大切	-11.4376
お受け	-11.4377
一点	-11.4377
菅	-11.4377
セットで	-11.4378
間取り	-11.4379
二人は	-11.438
かしら	-11.4381
部屋を	-11.4382
庫	-11.4382
を見つけました	-11.4382
それぞれが	-11.4382
ラウンド	-11.4383
さえあれば	-11.4383
を広げ	-11.4384
だとしても	-11.4384
土台	-11.4385
と思いつつ	-11.4385
専攻	-11.4385
されていること	-11.4386
の低い	-11.4386
年代に	-11.4386
だれ	-11.4387
椎	-11.4389
技術力	-11.4389
あー	-11.439
どの程度	-11.439
サプライズ	-11.439
家計	-11.4391
HD	-11.4392
していただきたい	-11.4392
先端	-11.4392
マジ	-11.4395
が運営する	-11.4395
サル	-11.4396
86	-11.4397
ウォーター	-11.4398
いいですよ	-11.4398
年頃	-11.4398
昇	-11.4399
僕ら	-11.4399
映画館	-11.4399
つつあります	-11.44
禅	-11.4402
重要なポイント	-11.4403
休んで	-11.4404
はこちらから	-11.4404
演劇	-11.4404
ミラー	-11.4407
のお問い合わせ	-11.4409
重ね	-11.4409
ウィルス	-11.4411
方法として	-11.4413
を設定	-11.4414
添加物	-11.4415
助けて	-11.4415
改修	-11.4416
細い	-11.4416
状況に	-11.4417
乃木坂	-11.4418
・・・?	-11.4419
ワールドカップ	-11.4419
絞	-11.4419
いまだに	-11.442
になってきた	-11.442
が存在します	-11.4424
に参加した	-11.4424
の地	-11.4425
の戦い	-11.4425
人柄	-11.4427
午後から	-11.4428
肯定	-11.4428
前回の	-11.4429
迷った	-11.4429
考えられない	-11.443
遅れて	-11.4431
ッカ	-11.4431
が始まります	-11.4433
髪を	-11.4434
の一番	-11.4435
フラン	-11.4435
旅の	-11.4437
感じたこと	-11.4437
る必要があります	-11.4439
開発した	-11.444
を拝見	-11.444
を払う	-11.444
直後に	-11.4442
テー	-11.4443
メス	-11.4443
OB	-11.4445
登り	-11.4445
出現	-11.4445
有意義な	-11.4446
セフレ募集	-11.4446
が大変	-11.4448
▁全国	-11.4449
になるかもしれません	-11.445
子どもに	-11.4452
処理を	-11.4455
▁いわゆる	-11.4456
よいでしょう	-11.4459
環	-11.4459
も高く	-11.4459
されるのは	-11.4459
いいもの	-11.4459
72	-11.446
ご連絡下さい	-11.446
完璧	-11.4461
すべてを	-11.4462
帰ってくる	-11.4464
載	-11.4466
咳	-11.4466
アップする	-11.4466
ありませんが	-11.4469
WordPress	-11.447
と異なる	-11.4471
と比べ	-11.4471
失敗する	-11.4472
療養	-11.4472
を続けている	-11.4472
だったか	-11.4473
ka	-11.4473
メタ	-11.4474
予めご了承下さい	-11.4474
過ごせる	-11.4474
事柄	-11.4475
調査結果	-11.4477
があるかもしれません	-11.4478
洗って	-11.4479
熱心に	-11.448
利用される	-11.4481
ホームページを	-11.4481
ベテラン	-11.4482
ひとつひとつ	-11.4482
通っている	-11.4483
▁あるいは	-11.4483
は初めて	-11.4483
現れる	-11.4484
何事も	-11.4485
の料金	-11.4485
の多さ	-11.4486
母は	-11.4487
著	-11.4489
がございますので	-11.449
フィン	-11.449
楽しみ方	-11.449
お待ちしています	-11.4491
69	-11.4491
帰ってきて	-11.4492
家を売る	-11.4492
相談して	-11.4493
▁日本語	-11.4494
バイオ	-11.4494
職務	-11.4495
部隊	-11.4495
のアルバイト	-11.4495
ご自身	-11.4496
見積り	-11.4496
カメラマン	-11.4497
問題に	-11.4498
皆さんが	-11.4498
▁女性の	-11.4498
サイズが	-11.4498
上海	-11.4498
女性も	-11.4499
話した	-11.4499
たとしても	-11.4501
対策として	-11.4501
でしょうし	-11.4502
発達障害	-11.4503
▁加えて	-11.4503
が終わった	-11.4503
代理人	-11.4503
問題で	-11.4503
おおよそ	-11.4506
られず	-11.4506
銅	-11.4506
雨が降って	-11.4506
かのような	-11.4507
1:	-11.4507
筋力	-11.4507
のアドバイス	-11.4511
適当な	-11.4511
を使うこと	-11.4512
シャー	-11.4512
が無かった	-11.4512
いたこと	-11.4512
事業を	-11.4512
気分が	-11.4513
があるの	-11.4513
をご紹介いたします	-11.4513
伊勢	-11.4514
川の	-11.4514
の人たち	-11.4515
文庫	-11.4515
将	-11.4515
すみ	-11.4515
を常に	-11.4516
に基づいた	-11.4516
にあわせて	-11.4517
のよい	-11.4517
構想	-11.4517
症候群	-11.4518
後者	-11.4518
160	-11.4519
つまらない	-11.4519
を支援する	-11.4522
めた	-11.4522
景観	-11.4523
プロパティ	-11.4524
ることができ	-11.4524
に行くこと	-11.4525
しばらくは	-11.4525
業者は	-11.4527
お聞き	-11.4527
時点	-11.4528
溝	-11.4528
に行か	-11.4529
やっています	-11.4529
健全な	-11.453
由来	-11.453
たって	-11.453
悪質な	-11.4532
があるんです	-11.4532
▁詳細	-11.4532
研修会	-11.4532
威	-11.4533
迷惑メール	-11.4537
若い人	-11.4537
述べた	-11.4538
場合が多い	-11.4538
ることを	-11.4539
易	-11.454
▁このブログ	-11.4541
天才	-11.4541
戻ってくる	-11.4541
社員が	-11.4541
その都度	-11.4541
たのが	-11.4542
怠	-11.4542
作れ	-11.4542
使っています	-11.4542
動かない	-11.4543
ことではありません	-11.4544
▁(※	-11.4545
からと言って	-11.4545
そこを	-11.4546
包装	-11.4547
はそれほど	-11.4547
夢を	-11.4548
ならびに	-11.4548
顎	-11.4549
シェフ	-11.4549
ていれば	-11.4549
を支払う	-11.455
あらすじ	-11.4553
してあげる	-11.4556
対面	-11.4556
木材	-11.4556
派の	-11.4556
原材料	-11.4557
出せない	-11.4557
イルミネーション	-11.4558
ガチャ	-11.4558
を組んで	-11.4559
いちいち	-11.4559
信念	-11.456
講	-11.456
年より	-11.456
契約を	-11.456
健康食品	-11.4561
選出	-11.4561
Sh	-11.4561
に合わせ	-11.4563
ありませんか	-11.4567
を伴う	-11.4567
鹿児島県	-11.4567
のある方	-11.4568
楽しみながら	-11.457
いたが	-11.457
▁過去に	-11.4571
行くと	-11.4572
ってしまいました	-11.4575
メー	-11.4576
父が	-11.4576
しましたので	-11.4578
なくては	-11.4579
を満たす	-11.4579
ゴン	-11.4579
関わる	-11.4579
有難うございました	-11.458
私立	-11.458
は何か	-11.4582
の課題	-11.4582
が悪かった	-11.4582
荷	-11.4583
守り	-11.4583
様子を	-11.4586
の構築	-11.4586
を止める	-11.4587
わりと	-11.4588
長所	-11.4588
不動産の	-11.4588
振	-11.4589
滑り	-11.4589
出入り	-11.4589
回以上	-11.459
情報交換	-11.4591
空いている	-11.4591
登録して	-11.4592
格差	-11.4592
預け	-11.4592
邦	-11.4593
という言葉を	-11.4594
を振り	-11.4595
を開催いたします	-11.4595
ようになってきました	-11.4596
返還	-11.4598
働ける	-11.46
神奈川	-11.46
が好きです	-11.4601
福岡市	-11.4601
4%	-11.4601
▁結果	-11.4602
をまとめた	-11.4602
というように	-11.4603
が高くなる	-11.4603
してみて下さい	-11.4603
訳ではありません	-11.4604
点で	-11.4605
冷め	-11.4606
資料請求	-11.4606
消去	-11.4606
スマホの	-11.4606
被災者	-11.4608
お困りの	-11.4608
多くの場合	-11.4608
のと同じ	-11.4609
直ちに	-11.461
したまま	-11.4611
に出てくる	-11.4611
任意売却	-11.4611
までお問い合わせください	-11.4611
エクササイズ	-11.4614
ない場合	-11.4614
届け	-11.4614
ニック	-11.4617
楽しそうに	-11.4617
HDD	-11.4619
を加え	-11.4619
行える	-11.462
が問題	-11.4621
女の	-11.4622
月まで	-11.4624
を終え	-11.4625
織	-11.4626
止める	-11.4627
値段が	-11.4627
の活用	-11.4627
マジック	-11.4627
対応する	-11.4628
スピ	-11.4628
技術の	-11.4628
岳	-11.4628
響き	-11.4628
審	-11.4628
なのだが	-11.463
いなくて	-11.463
年ぶりの	-11.4631
近頃	-11.4632
の協力	-11.4632
芳	-11.4634
が起こり	-11.4635
だよね	-11.4636
シンポジウム	-11.4637
ブログ記事	-11.4639
停電	-11.4639
姿は	-11.464
溢れる	-11.464
の値段	-11.464
▁かつて	-11.4642
そうだった	-11.4642
▁そろそろ	-11.4643
名誉	-11.4644
共通点	-11.4644
クリエイター	-11.4644
まえ	-11.4646
あると思います	-11.4647
効率的な	-11.4647
のお客様は	-11.4647
写真や	-11.4648
を拡大	-11.465
タップ	-11.4651
が遅れ	-11.4652
柏	-11.4652
ありがたいです	-11.4652
握	-11.4653
求めている	-11.4654
を目指している	-11.4654
そうか	-11.4655
ニオイ	-11.4656
アウトドア	-11.4658
貸切	-11.466
なくてはなりません	-11.4662
▁当社では	-11.4662
レストランで	-11.4662
ものや	-11.4662
研究開発	-11.4663
人以上	-11.4666
様々です	-11.4667
の選び方	-11.4668
変えて	-11.4668
宿題	-11.4668
正常に	-11.4669
も大きく	-11.4669
▁こう	-11.4669
説明した	-11.467
付きで	-11.467
ドーム	-11.4671
私ども	-11.4672
料理の	-11.4673
オープニング	-11.4677
を担う	-11.4677
未だ	-11.4677
で買う	-11.4679
してもいい	-11.4679
に欠かせない	-11.4679
オル	-11.4679
の各	-11.468
外食	-11.468
役所	-11.468
を削除	-11.4681
坪	-11.4681
の方と	-11.4681
帰った	-11.4681
長期的に	-11.4681
治安	-11.4682
を減らし	-11.4683
に成功	-11.4683
の平均	-11.4684
入国	-11.4684
よいのか	-11.4684
標高	-11.4687
ご家庭	-11.4688
自分だけ	-11.4688
目指	-11.4689
に当たって	-11.4692
は多く	-11.4692
だったりする	-11.4693
をまとめてみました	-11.4693
頂いております	-11.4696
その点	-11.4696
円以上	-11.4697
▁ホーム	-11.4698
と言っていました	-11.47
昔は	-11.47
▁その場合は	-11.47
水の	-11.4702
を観	-11.4702
何故か	-11.4703
まっ	-11.4704
を介して	-11.4704
永久	-11.4704
▁for	-11.4704
視覚	-11.4707
正式	-11.4708
沖	-11.4708
が考えられます	-11.4709
を終えた	-11.471
世に	-11.4711
の投稿	-11.4711
部活	-11.4711
お迎え	-11.4712
の写真を	-11.4712
色を	-11.4713
、40	-11.4714
bit	-11.4715
▁今までは	-11.4716
発売される	-11.4717
して頂く	-11.4717
無料コミック	-11.4718
をさらに	-11.4718
レディース	-11.4718
殺害	-11.4718
メジャー	-11.4719
シリア	-11.472
濃く	-11.472
マイホーム	-11.472
彼を	-11.4721
をチェックする	-11.4722
のお手伝いを	-11.4722
上記のような	-11.4722
▁この日	-11.4723
いれ	-11.4724
バター	-11.4724
並んでいる	-11.4725
描かれた	-11.4726
の映像	-11.4726
を紹介して	-11.4726
ざるを得ない	-11.4727
秋田	-11.4727
ベンチ	-11.4727
宮城県	-11.4731
直ぐに	-11.4731
が大事	-11.4731
ことである	-11.4731
えた	-11.4731
を突破	-11.4731
が発生	-11.4732
止めて	-11.4733
難民	-11.4734
っか	-11.4734
妥協	-11.4734
境内	-11.4734
の始まり	-11.4736
と心配	-11.4737
0°	-11.4738
正直に	-11.474
が違います	-11.4742
独自	-11.4743
お祈り	-11.4743
キラキラ	-11.4743
ある日	-11.4744
マレーシア	-11.4744
動画で	-11.4745
最終回	-11.4746
円程度	-11.4747
ラッシュ	-11.4747
る前に	-11.4747
知られている	-11.4747
最低限の	-11.4748
ウェ	-11.4749
表紙	-11.4751
▁おすすめ	-11.4752
ことが出来た	-11.4752
を入力する	-11.4753
ポー	-11.4753
さんで	-11.4754
この問題	-11.4754
のひとつです	-11.4754
時代は	-11.4755
答	-11.4756
なんといっても	-11.4756
を整え	-11.4757
Linux	-11.4758
残念です	-11.4758
壁紙	-11.4758
良さ	-11.4759
事件の	-11.4759
出来る限り	-11.476
前まで	-11.476
片方	-11.476
理解し	-11.4761
驚くほど	-11.4761
したとしても	-11.4761
さずに	-11.4762
仮想	-11.4762
が完成	-11.4763
7%	-11.4763
完璧に	-11.4763
食感	-11.4765
▁あれ	-11.4766
しき	-11.4766
塗料	-11.4766
億ドル	-11.4767
まとめました	-11.4767
新しいもの	-11.4768
ことが大事です	-11.4768
安全で	-11.4768
開幕	-11.4769
市場で	-11.4769
それこそ	-11.4769
html	-11.477
クレジットカードの	-11.4771
とのコミュニケーション	-11.4771
ブラン	-11.4771
チキン	-11.4772
きちんとした	-11.4772
に通って	-11.4773
を書いた	-11.4773
出資	-11.4773
ツボ	-11.4774
していった	-11.4774
増えた	-11.4775
勉強を	-11.4777
見出し	-11.4778
が減って	-11.478
練	-11.4781
MC	-11.4782
が沢山	-11.4783
日本国内	-11.4783
に位置し	-11.4784
▁沖縄	-11.4784
既	-11.4785
資金を	-11.4785
としか	-11.4786
スタッフは	-11.4786
スタッフさん	-11.4788
という言葉が	-11.4791
be	-11.4791
平日の	-11.4791
の入力	-11.4792
を集め	-11.4792
中華	-11.4793
と思っていたら	-11.4793
をしてもらう	-11.4794
健診	-11.4794
やれば	-11.4795
世の中に	-11.4795
は無理	-11.4796
加藤	-11.4798
奏	-11.4799
のコツ	-11.4799
▁動画	-11.48
インスタグラム	-11.4801
回は	-11.4801
下ろ	-11.4803
再建	-11.4805
和食	-11.4806
内定	-11.4806
母乳	-11.4806
ab	-11.4806
を希望	-11.4806
良好	-11.4806
リラックスして	-11.4808
写真集	-11.4808
読み放題	-11.4808
を意味する	-11.4808
させている	-11.4809
を持っていない	-11.481
▁彼女	-11.4811
でさえ	-11.4811
がお	-11.4811
んだよな	-11.4811
駒	-11.4812
でもあり	-11.4812
を把握	-11.4814
往	-11.4814
してしまうこと	-11.4815
出かける	-11.4815
勧め	-11.4816
vi	-11.4817
は別	-11.4817
結婚した	-11.4818
沿い	-11.4819
様は	-11.482
ぺ	-11.482
表彰	-11.482
ビルの	-11.482
プロデューサー	-11.4821
治る	-11.4821
期間を	-11.4822
BookLive	-11.4822
▁このサイト	-11.4822
閉じ	-11.4825
▁......	-11.4826
を確立	-11.4826
お店は	-11.4826
マネ	-11.4827
こともない	-11.4828
なくてもいい	-11.4829
整形	-11.4832
(6	-11.4832
都心	-11.4832
がつき	-11.4832
を挙げて	-11.4832
システムは	-11.4833
だろうし	-11.4833
曜日	-11.4833
購入者	-11.4833
生徒が	-11.4835
当方	-11.4835
までには	-11.4837
を楽しみに	-11.4838
説明を	-11.4839
子供たちが	-11.4839
いるような	-11.4843
らす	-11.4844
繊維	-11.4845
あらかじめご了承ください	-11.4845
この手の	-11.4846
ニン	-11.4846
楽しめ	-11.4847
に所属	-11.4847
の行動	-11.4847
お好みの	-11.4848
兆円	-11.485
満たされ	-11.485
ない人	-11.485
者を	-11.4851
購入できる	-11.4852
補正	-11.4853
那	-11.4853
da	-11.4853
青森県	-11.4854
様子が	-11.4855
葬	-11.4855
▁普通	-11.4855
こんで	-11.4856
留意	-11.4857
ますようお願い申し上げます	-11.4857
出口	-11.4859
訳ではない	-11.4859
比率	-11.4859
▁いずれにしても	-11.486
待っている	-11.4861
両手	-11.4861
阪神	-11.4864
、2012	-11.4864
特長	-11.4864
させていただきますので	-11.4865
卒業後	-11.4866
ピックアップ	-11.4866
暦	-11.4867
▁たまに	-11.4869
間隔	-11.4869
睡眠時間	-11.487
生え	-11.487
状況です	-11.487
お金持ち	-11.4871
方もいらっしゃる	-11.4872
遭遇	-11.4872
▁いろいろ	-11.4872
狩り	-11.4873
かせ	-11.4873
得点	-11.4873
知られています	-11.4873
この日は	-11.4873
子どもたちは	-11.4874
とは言え	-11.4874
をあげて	-11.4875
ほんの少し	-11.4876
完成した	-11.4876
DM	-11.4876
を参考にして	-11.4876
TE	-11.4877
いいよ	-11.4878
答えて	-11.4879
訪れ	-11.4879
ダメだ	-11.488
ゆったりとした	-11.4881
開発された	-11.4883
(@	-11.4883
が高まる	-11.4885
する事で	-11.4886
酷	-11.4889
併用	-11.4889
競	-11.4889
ドローン	-11.489
KO	-11.4891
発足	-11.4891
バスで	-11.4891
のタイミング	-11.4892
遊びに来て	-11.4893
大雨	-11.4893
ub	-11.4894
場合がある	-11.4895
の実現	-11.4895
の許可	-11.4895
を抱えている	-11.4896
クエスト	-11.4897
の公式	-11.4897
を飲み	-11.4899
の出来事	-11.49
78	-11.49
Excel	-11.4901
るまで	-11.4901
ことではない	-11.4901
お仕事を	-11.4901
2003	-11.4901
▁おかげさまで	-11.4901
90%	-11.4902
いかがでしょうか	-11.4903
窓から	-11.4904
に応じ	-11.4904
本能	-11.4907
7.	-11.4908
直前に	-11.4908
燃え	-11.4908
RI	-11.4908
を観て	-11.491
用いられ	-11.491
選ばれた	-11.4911
じゃないの	-11.4911
まわ	-11.4912
給食	-11.4912
侵害	-11.4913
私にとっては	-11.4913
品物	-11.4914
で確認	-11.4915
63	-11.4916
がどのように	-11.4917
が正しい	-11.4917
堪能	-11.4917
いる場合	-11.4919
譲	-11.492
意見交換	-11.492
市は	-11.492
流し	-11.492
決勝	-11.4921
ところにある	-11.4921
所持	-11.4922
▁こんなに	-11.4922
ものですね	-11.4922
察	-11.4923
就業	-11.4925
たて	-11.4927
大抵	-11.4927
クッション	-11.493
と同じで	-11.493
をキープ	-11.4932
整形外科	-11.4932
取組	-11.4933
になるため	-11.4933
ミュージシャン	-11.4933
お言葉	-11.4934
知りませんでした	-11.4935
▁漫画	-11.4936
上部	-11.4936
カム	-11.4936
各国	-11.4936
ことなのです	-11.4936
ミックス	-11.4937
遠慮	-11.4938
接種	-11.4938
ねば	-11.4939
お教え	-11.4941
来場者	-11.4943
を持っていた	-11.4944
取り入れて	-11.4945
にあたっては	-11.4946
実家に	-11.4946
の実	-11.4947
砲	-11.4947
北京	-11.4947
緊張感	-11.4947
洗練された	-11.4949
so	-11.4949
渡す	-11.495
心配な	-11.4953
▁何度も	-11.4954
SF	-11.4954
を繰り返して	-11.4955
アコム	-11.4956
を持たない	-11.4956
ラック	-11.4957
が落ち	-11.4958
を活用し	-11.4959
学問	-11.4959
クリーン	-11.4959
殻	-11.496
出願	-11.496
怒	-11.4961
協力して	-11.4962
を訪れた	-11.4963
従業員の	-11.4964
を失って	-11.4965
多種多様な	-11.4965
隅	-11.4965
祖父	-11.4967
落ちる	-11.4969
大豆	-11.4969
皆で	-11.4969
仙	-11.497
二度と	-11.4971
続けられ	-11.4971
やっていた	-11.4972
お会い	-11.4973
を失った	-11.4973
なってきている	-11.4975
▁ここから	-11.4975
イベントの	-11.4975
企業様	-11.4975
デザインを	-11.4977
ギリシャ	-11.4979
歌い	-11.498
使用できます	-11.498
子供も	-11.498
なくなってしまいます	-11.4981
操	-11.4981
の強化	-11.4981
の中を	-11.4981
山梨県	-11.4983
対象者	-11.4983
その中から	-11.4983
しめ	-11.4984
と思ってた	-11.4986
ドラッグストア	-11.4987
を防ぐために	-11.4989
ET	-11.499
日光	-11.4991
ピア	-11.4993
すき	-11.4994
文献	-11.4997
モール	-11.4997
する際には	-11.4998
書いてあります	-11.5
ショップで	-11.5001
を目的に	-11.5001
を認め	-11.5001
事が出来ました	-11.5001
殺し	-11.5002
お試しください	-11.5003
語った	-11.5003
▁名前	-11.5003
を尊重し	-11.5005
ol	-11.5005
れません	-11.5006
開花	-11.5007
木造	-11.5008
公立	-11.5009
申し出	-11.5009
されたこと	-11.501
を避ける	-11.5011
だとしたら	-11.5012
▁早く	-11.5013
助成金	-11.5013
デル	-11.5013
の様な	-11.5013
のだとか	-11.5014
ご覧いただけます	-11.5015
が必要となる	-11.5017
家に帰って	-11.5017
申し込みを	-11.5019
口から	-11.5019
ことが出来ない	-11.502
生じる	-11.502
レジャー	-11.502
夢の	-11.5021
のルール	-11.5021
ブロックチェーン	-11.5021
妻は	-11.5021
されている方	-11.5022
os	-11.5022
レギュラー	-11.5022
輝	-11.5022
を持っている人	-11.5023
きたら	-11.5024
▁当社の	-11.5025
識別	-11.5025
も出	-11.5026
アナログ	-11.5027
の近くに	-11.5027
星の	-11.5027
いるか	-11.5027
雅	-11.5028
方もいる	-11.5028
憲	-11.5029
▁そのうち	-11.5029
貰える	-11.5029
改め	-11.503
自分自身が	-11.5031
をご用意しています	-11.5032
生活を送る	-11.5033
を呼んで	-11.5033
の出会い	-11.5034
向いている	-11.5034
見つめ	-11.5034
理由がある	-11.5036
しようとしている	-11.5036
として活躍	-11.5037
てくれました	-11.5037
客観的に	-11.5038
本日は	-11.5038
をしましょう	-11.5038
んだろうか	-11.5038
折り返し	-11.5038
されていく	-11.5039
詳細を	-11.5039
捨てる	-11.5039
全部で	-11.504
になるという	-11.5041
たいと思っている	-11.5043
ケアを	-11.5043
の頃	-11.5044
親に	-11.5044
を借りて	-11.5045
交代	-11.5045
彫刻	-11.5045
まっすぐ	-11.5045
てた	-11.5046
大勢の	-11.5046
宝石	-11.5047
感心	-11.5048
番目の	-11.5049
てしまったり	-11.5051
伸	-11.5051
うこと	-11.5054
賢	-11.5054
が進んで	-11.5056
排	-11.5056
道の駅	-11.5058
イベントは	-11.5058
になったので	-11.5058
さっそく	-11.5061
まとめた	-11.5062
可能性が高いです	-11.5063
▁これからは	-11.5063
去る	-11.5063
もあるため	-11.5064
食べられ	-11.5065
策定	-11.5065
可能性を	-11.5065
えば	-11.5065
が出ます	-11.5065
▁マ	-11.5067
労力	-11.5067
の名	-11.5067
幹部	-11.5067
摂り	-11.5069
ないといけません	-11.5069
健康保険	-11.507
の指定	-11.5071
のメール	-11.5071
そこの	-11.5072
プリンター	-11.5075
解雇	-11.5075
に当たる	-11.5075
法の	-11.5076
していたり	-11.5078
生徒たち	-11.5079
先生と	-11.5079
を用いる	-11.5079
するつもり	-11.508
良質な	-11.508
確認できる	-11.5081
体は	-11.5081
花の	-11.5084
▁当時は	-11.5084
ということに	-11.5084
▁タイトル	-11.5084
展望	-11.5085
豆腐	-11.5085
の心配	-11.5085
から徒歩	-11.5085
と思いましたが	-11.5086
代前半	-11.5086
ティック	-11.5087
は誰	-11.5087
廃棄物	-11.5088
をテーマにした	-11.5088
会員の	-11.5088
付いた	-11.5089
直前	-11.509
スキルアップ	-11.5091
を終了	-11.5092
▁その中でも	-11.5092
といわれている	-11.5092
耐	-11.5095
の御	-11.5096
アトピー	-11.5097
オーディション	-11.5097
ように思う	-11.5097
BO	-11.5098
本サイト	-11.51
ツー	-11.51
歯医者	-11.51
▁子供が	-11.5101
贅沢な	-11.5101
の人々	-11.5102
キャップ	-11.5102
まともな	-11.5104
期間限定で	-11.5104
の電話	-11.5104
意外	-11.5105
飲み放題	-11.5106
周辺で	-11.5106
数ある	-11.5106
6%	-11.5106
なかなか難しい	-11.5107
▁写真は	-11.5108
SC	-11.5111
頑張り	-11.5111
番組で	-11.5112
を描いて	-11.5113
まくって	-11.5113
気づか	-11.5113
▁どのような	-11.5113
ドイツの	-11.5115
モリ	-11.5115
を聴いて	-11.5116
空室	-11.5116
▁その点	-11.5117
生産者	-11.5118
サービスの提供	-11.5118
値引き	-11.5118
行方不明	-11.5119
ようになってから	-11.5119
独占	-11.5121
知られる	-11.5121
行えます	-11.5121
散策	-11.5122
残された	-11.5122
満足しています	-11.5123
が無く	-11.5123
▁無	-11.5123
ラル	-11.5124
続けてきた	-11.5124
した人	-11.5124
透明	-11.5125
を掛け	-11.5125
整骨院	-11.5125
あるもの	-11.5126
左手	-11.5126
と主張	-11.5126
開かれた	-11.5127
甘く	-11.5128
を占める	-11.5129
に耐え	-11.513
JavaScript	-11.5131
写真で	-11.5131
ことがあり	-11.5132
食べること	-11.5133
加盟	-11.5133
審判	-11.5134
に登録して	-11.5134
におすすめの	-11.5135
ものなのか	-11.5135
わからないこと	-11.5136
度目の	-11.5138
人です	-11.5138
成長する	-11.5138
大会で	-11.5139
昨年の	-11.514
崩	-11.5141
重要なのは	-11.5141
通行	-11.5141
書かれて	-11.5142
とは違って	-11.5142
を推奨	-11.5142
前後の	-11.5142
もよい	-11.5143
京都の	-11.5143
が集まって	-11.5144
ブロガー	-11.5144
弘	-11.5146
を機に	-11.5146
反論	-11.5147
しておこう	-11.5147
万円を	-11.5148
ではあるが	-11.5148
比較して	-11.5149
こういうこと	-11.5149
問題がある	-11.5151
を実行する	-11.5151
▁このまま	-11.5151
柔らかい	-11.5151
のプレゼント	-11.5152
含	-11.5155
高齢化	-11.5156
担当の	-11.5157
方法も	-11.5157
▁今度は	-11.5158
告げ	-11.516
行動する	-11.5161
周りの人	-11.5161
見つけられ	-11.5161
すご	-11.5162
院長	-11.5162
を避け	-11.5162
町に	-11.5163
を作成して	-11.5164
SI	-11.5164
▁中でも	-11.5166
LIVE	-11.5167
都内	-11.5167
お使い	-11.5167
山形県	-11.5168
のリンク	-11.5168
漏洩	-11.5169
は完全に	-11.517
▁駐車場	-11.517
ストレスが	-11.5172
万人以上	-11.5174
ことが大切	-11.5174
史上	-11.5175
浴衣	-11.5176
エジプト	-11.5176
たときに	-11.5177
▁彼女の	-11.5178
るけど	-11.5178
並ぶ	-11.5179
する場合には	-11.5179
繋げ	-11.5179
本件	-11.5181
たるみ	-11.5181
が見つかった	-11.5181
納付	-11.5181
四季	-11.5182
以前より	-11.5183
ハードウェア	-11.5184
準	-11.5184
問題の	-11.5185
してみたら	-11.5186
活発に	-11.5188
はないので	-11.5189
電話を	-11.5189
だんだんと	-11.5189
みることにしました	-11.519
アメリカでは	-11.5191
自作	-11.5192
捕	-11.5192
遺伝	-11.5193
を整える	-11.5194
洗剤	-11.5194
動画が	-11.5194
好奇心	-11.5194
ーん	-11.5195
役者	-11.5197
水分を	-11.5198
は無料	-11.5198
がありませんでした	-11.5198
遊べる	-11.5203
を手に入れ	-11.5204
すれば良い	-11.5205
させてください	-11.5206
よいか	-11.5206
の印象	-11.5206
という理由で	-11.5207
貰って	-11.5208
▁そうなると	-11.5208
結婚相手	-11.5209
に突入	-11.5209
資料を	-11.5209
楽しめます	-11.521
に加入	-11.5211
がすごく	-11.5211
値を	-11.5212
移り	-11.5214
した方が良い	-11.5215
者と	-11.5215
は通常	-11.5216
匿名	-11.5217
業界で	-11.5219
には様々な	-11.5219
に記載されている	-11.522
▁名古屋	-11.5223
牧	-11.5226
▁年齢	-11.5226
ナチュラル	-11.5227
されますが	-11.5227
▁17	-11.5228
放送された	-11.5228
TBS	-11.5228
▁このとき	-11.5228
CSS	-11.5228
ペイ	-11.5228
への参加	-11.5228
受給	-11.5229
同盟	-11.523
レンジ	-11.5231
ことができなかった	-11.5232
全体に	-11.5232
迅速に	-11.5232
化された	-11.5233
ot	-11.5233
楽天市場	-11.5233
一体何	-11.5233
併せて	-11.5234
分からなかった	-11.5234
は大	-11.5234
一方的に	-11.5234
できると思います	-11.5235
巡	-11.5237
さないように	-11.5237
時間がない	-11.5237
の業務	-11.5237
示唆	-11.5237
人気があります	-11.5239
内面	-11.524
リモート	-11.524
バブル	-11.5241
豪華な	-11.5241
したうえで	-11.5241
が必要である	-11.5241
英文	-11.5241
工務店	-11.5241
パソコンで	-11.5241
現金化	-11.5241
時でも	-11.5242
生まれて	-11.5242
買	-11.5242
の全	-11.5242
と感じ	-11.5243
屋の	-11.5243
▁学生	-11.5244
何かと	-11.5244
モテる	-11.5244
見ない	-11.5245
決められた	-11.5246
▁2007	-11.5247
無理なく	-11.5248
を開け	-11.5248
▁ほとんどの	-11.5248
夏に	-11.5248
の募集	-11.5249
ンズ	-11.525
をやめ	-11.5251
為には	-11.5252
との事	-11.5258
物事を	-11.5258
もあるのです	-11.5258
の再	-11.526
考えること	-11.526
プレゼンテーション	-11.5262
使用して	-11.5262
インデックス	-11.5263
みましたが	-11.5265
韓	-11.5267
貰え	-11.5268
諦めて	-11.5269
カードが	-11.5269
▁そうそう	-11.5269
を選べば	-11.527
楽しいです	-11.527
DI	-11.5271
デザインが	-11.5271
第三者に	-11.5271
者様	-11.5272
話題になっている	-11.5273
順番に	-11.5273
(^	-11.5274
を集めた	-11.5274
の反応	-11.5278
頂	-11.5278
動きが	-11.5279
昨今	-11.5279
割り切り	-11.528
を支援	-11.5281
とは異なり	-11.5281
自力で	-11.5282
パーマ	-11.5282
泊まり	-11.5283
照射	-11.5284
を占め	-11.5284
その後は	-11.5284
にもなり	-11.5284
万円程度	-11.5285
はじめに	-11.5285
腸内環境	-11.5285
子供たちの	-11.5286
果	-11.5286
が出ています	-11.5287
飼い	-11.5287
参加費	-11.5288
この子	-11.5288
しようか	-11.5289
営業マン	-11.5291
を再開	-11.5291
地位	-11.5292
石川県	-11.5292
丼	-11.5292
ess	-11.5293
生存	-11.5293
先進国	-11.5295
▁じゃあ	-11.5296
山頂	-11.5296
が全て	-11.5296
消し	-11.5296
配列	-11.5297
Adobe	-11.5297
リスクを	-11.5297
お伝えします	-11.5297
レディ	-11.5297
加算	-11.5298
そのことを	-11.5298
柔軟性	-11.5298
なかったこと	-11.5298
ハッキリ	-11.5298
96	-11.5299
融合	-11.5299
子どもたちに	-11.5301
西日本	-11.5302
体系	-11.5302
に襲われ	-11.5303
困難な	-11.5303
妊活	-11.5303
朝日	-11.5304
行っても	-11.5304
内にある	-11.5304
した事	-11.5304
含まれています	-11.5307
勇	-11.5307
プログラムを	-11.5308
を突き	-11.5309
回し	-11.5309
で開催	-11.531
建て	-11.5311
次の日	-11.5312
Ver	-11.5312
ような感覚	-11.5313
うた	-11.5313
食料	-11.5314
走った	-11.5317
OR	-11.5318
ご連絡を	-11.532
経験が	-11.532
▁同時に	-11.5321
などの情報	-11.5321
▁口コミ	-11.5322
フィードバック	-11.5323
触れて	-11.5323
の発売	-11.5324
経ちました	-11.5324
飼い主さん	-11.5324
が早い	-11.5324
ってしまいます	-11.5326
夜景	-11.5326
の段階で	-11.5326
とすると	-11.5327
もって	-11.5327
唇	-11.5328
の山	-11.5329
▁好きな	-11.5329
状の	-11.5329
を使用します	-11.533
といったこと	-11.5331
オタク	-11.5333
を気にする	-11.5333
ナル	-11.5333
に入ります	-11.5334
ソファ	-11.5335
緑の	-11.5335
のかというと	-11.5336
▁今後の	-11.5338
時間や	-11.5338
ハル	-11.5339
の活躍	-11.534
地で	-11.534
眺め	-11.534
反面	-11.534
を体感	-11.5341
がある方は	-11.5342
時や	-11.5342
信頼関係	-11.5343
多額の	-11.5343
してくださる	-11.5344
を狙って	-11.5344
sa	-11.5345
バスの	-11.5345
活動に	-11.5347
現場に	-11.5347
までの間	-11.5348
女性の方	-11.5349
～6	-11.535
ベストな	-11.535
are	-11.535
始めます	-11.535
日差し	-11.5352
浄化	-11.5352
の記載	-11.5352
イヤー	-11.5353
一般的	-11.5354
▁その他にも	-11.5356
置いてある	-11.5356
▁南	-11.5359
空いて	-11.536
ご覧下さい	-11.5361
をしております	-11.5361
方はぜひ	-11.5361
なくなっている	-11.5363
数が多い	-11.5364
期待して	-11.5364
紙の	-11.5364
を見学	-11.5366
状態になる	-11.5366
作業は	-11.5367
も増え	-11.5367
ていたので	-11.5367
持参	-11.5368
いないと	-11.5369
パスワードを	-11.537
国に	-11.537
CT	-11.537
防犯	-11.5372
内容について	-11.5373
勝手な	-11.5373
ゼミ	-11.5375
も無く	-11.5375
フェイス	-11.5376
▁0	-11.5378
されていますので	-11.5378
ボタンを	-11.5379
三人	-11.538
されたら	-11.5381
生徒の	-11.5381
が好きな人	-11.5381
di	-11.5382
イラク	-11.5382
デフォルト	-11.5383
満席	-11.5383
この辺り	-11.5383
王国	-11.5384
代目	-11.5384
いられる	-11.5384
攻	-11.5386
こともありません	-11.5387
若い女性	-11.5388
税別	-11.5388
したのです	-11.5389
▁自宅	-11.5391
コロ	-11.5391
りん	-11.5391
去って	-11.5392
支	-11.5394
が認められ	-11.5396
ギャンブル	-11.5397
の企画	-11.5397
に囲まれた	-11.5398
精度	-11.5399
することをおすすめします	-11.54
▁何も	-11.5401
明日から	-11.5402
育て	-11.5403
ようにします	-11.5404
.5%	-11.5404
をもらって	-11.5404
既存	-11.5404
バーベキュー	-11.5405
ip	-11.5407
▁RT	-11.5408
ix	-11.5408
に出た	-11.5408
を使います	-11.5409
する為に	-11.5409
っち	-11.541
かねない	-11.5412
画家	-11.5412
To	-11.5413
シップ	-11.5413
することができません	-11.5414
激しく	-11.5414
わかるように	-11.5417
の件	-11.5417
をお伝えします	-11.5419
彼氏が	-11.542
と言われても	-11.542
花粉	-11.5421
報じ	-11.5421
くれたら	-11.5421
していただいて	-11.5422
を行ってください	-11.5423
▁以前から	-11.5423
プライド	-11.5425
の文字	-11.5426
聴く	-11.5426
コンクリート	-11.5426
置き換え	-11.5427
考	-11.5428
飲料	-11.5428
問われ	-11.5429
のケア	-11.5429
会員様	-11.5429
-8	-11.543
紹介されている	-11.543
山口県	-11.5431
承	-11.5432
早急に	-11.5433
足で	-11.5435
フランス語	-11.5436
あり得ない	-11.5436
見どころ	-11.5437
ut	-11.5437
励まし	-11.5438
高収入	-11.5438
有利	-11.544
冗談	-11.5441
の請求	-11.5442
苦しく	-11.5442
後々	-11.5444
ヒーリング	-11.5445
思いやり	-11.5445
腕時計	-11.5446
方法など	-11.5446
菓子	-11.5446
読みたい	-11.5446
ように思えます	-11.5448
じゃないと	-11.5448
妻と	-11.5449
らないように	-11.5449
業務の	-11.5449
カス	-11.5449
非常に高い	-11.545
▁下	-11.545
に過ぎない	-11.545
と感じて	-11.545
つめ	-11.5451
3～4	-11.5453
ba	-11.5455
紋	-11.5458
スピーチ	-11.5458
▁©	-11.5458
アメリカン	-11.5458
料金の	-11.546
ゲル	-11.546
賞を受賞	-11.5462
一戸建て	-11.5462
発掘	-11.5462
を行なって	-11.5462
を訪れる	-11.5463
教育委員会	-11.5463
していこう	-11.5464
ことはなかった	-11.5467
に入ってから	-11.5467
▁勿論	-11.5468
もらえれば	-11.5468
理事会	-11.5469
費や	-11.5471
にお住まいの方	-11.5471
はやはり	-11.5471
なったら	-11.5471
数時間	-11.5472
旋	-11.5472
に取り組んでいます	-11.5472
,800	-11.5473
できています	-11.5473
というわけではない	-11.5473
ヨー	-11.5473
なかったです	-11.5474
図面	-11.5474
でお	-11.5475
内蔵	-11.5475
思わぬ	-11.5475
懐	-11.5475
行ってみたい	-11.5475
どうした	-11.5475
嫌われ	-11.5477
の時点で	-11.5477
集まる	-11.5478
今シーズン	-11.5479
にふさわしい	-11.5479
京都府	-11.548
皆が	-11.548
気づく	-11.548
胸が	-11.548
ell	-11.548
使い方を	-11.5482
が続いている	-11.5483
見えました	-11.5484
マリア	-11.5484
が発生した	-11.5484
▁今までの	-11.5484
国語	-11.5485
見ていて	-11.5487
ないと思います	-11.5488
ねばならない	-11.5488
ファンの	-11.5488
▁たった	-11.5489
が足り	-11.5489
又	-11.549
フラット	-11.549
▁彼が	-11.549
希望する	-11.549
去	-11.5491
逃れ	-11.5493
全日本	-11.5494
てない	-11.5495
選手権	-11.5495
企業や	-11.5496
週間で	-11.5497
ループ	-11.5498
寄り添	-11.5498
完璧な	-11.5498
を食べた	-11.5499
自動車保険	-11.5499
元に戻	-11.5499
香りが	-11.5499
バージョンアップ	-11.55
に触れて	-11.5501
かゆみ	-11.5501
(10	-11.5502
インターネットの	-11.5502
にいた	-11.5503
将来的に	-11.5503
飛ぶ	-11.5503
を実施し	-11.5503
取得した	-11.5504
まずい	-11.5504
ヤマ	-11.5505
品川	-11.5505
お金を借り	-11.5505
挫折	-11.5506
心がけ	-11.5506
の目安	-11.5507
にぴったりの	-11.5507
今朝	-11.5507
荘	-11.5509
万人の	-11.551
青春	-11.5511
得られた	-11.5511
▁自然	-11.5511
歯医者さん	-11.5512
～10	-11.5512
色は	-11.5513
どうでしょう	-11.5514
手段として	-11.5514
[...]
