<unk>	0
<s>	0
</s>	0
.	-3.13409
,	-3.41908
▁the	-3.45944
s	-3.51682
▁to	-3.81902
▁and	-3.96484
▁a	-4.00202
▁of	-4.07975
▁in	-4.44063
▁I	-4.6137
▁is	-4.72941
▁for	-4.83445
▁that	-4.84673
▁you	-4.84894
’	-4.99169
▁it	-5.04497
t	-5.06579
'	-5.11175
-	-5.16196
▁on	-5.19941
▁with	-5.20496
▁be	-5.26724
▁are	-5.36602
ing	-5.37912
▁have	-5.48067
ed	-5.48502
▁your	-5.50177
▁this	-5.58306
▁as	-5.62858
▁The	-5.6511
▁was	-5.65687
d	-5.66705
▁or	-5.69864
▁can	-5.74362
▁at	-5.75755
▁not	-5.7714
▁will	-5.83835
▁from	-5.8667
▁we	-5.90726
▁an	-5.91857
▁but	-5.99785
▁by	-6.03186
▁my	-6.0466
▁all	-6.06549
▁“	-6.11206
m	-6.11255
▁(	-6.11655
▁they	-6.12018
ly	-6.19066
▁has	-6.19459
▁so	-6.19663
▁more	-6.20105
▁about	-6.21395
re	-6.21757
▁one	-6.21929
er	-6.25218
▁out	-6.26099
▁he	-6.27216
▁their	-6.27572
▁up	-6.32351
▁our	-6.32966
▁"	-6.33377
:	-6.35482
y	-6.35673
▁It	-6.358
▁time	-6.36336
▁me	-6.41242
▁like	-6.44908
▁A	-6.44916
▁do	-6.48016
▁if	-6.51198
▁	-6.51346
▁his	-6.51997
▁just	-6.52137
▁who	-6.532
▁been	-6.54498
)	-6.54607
▁what	-6.54959
▁which	-6.58726
▁there	-6.59454
▁would	-6.60844
▁get	-6.61426
▁some	-6.61899
▁when	-6.62845
e	-6.63596
▁We	-6.63756
▁had	-6.65445
▁them	-6.65593
▁This	-6.67914
▁people	-6.70264
ve	-6.72002
...	-6.72472
▁other	-6.73128
▁her	-6.7442
▁also	-6.74538
▁than	-6.79728
▁were	-6.8081
ll	-6.82437
▁no	-6.83539
al	-6.84066
▁In	-6.84247
▁any	-6.84983
▁make	-6.85174
▁new	-6.85547
▁You	-6.85655
▁said	-6.8575
▁over	-6.86909
▁how	-6.87358
r	-6.88474
a	-6.8903
?	-6.89491
or	-6.89511
▁know	-6.90237
▁into	-6.90682
n	-6.91217
▁If	-6.93155
!	-6.93426
▁very	-6.94436
in	-6.9459
I	-6.95399
▁don	-6.95614
▁work	-6.95821
▁good	-6.97456
▁she	-6.97692
▁us	-6.9854
▁only	-6.99242
▁need	-7.02423
▁way	-7.04922
▁may	-7.05718
▁well	-7.0621
▁see	-7.06327
/	-7.0843
▁much	-7.10177
th	-7.10955
▁most	-7.11044
▁first	-7.11137
▁back	-7.12628
▁these	-7.13016
▁S	-7.14682
▁now	-7.14947
▁many	-7.15033
▁could	-7.15402
▁years	-7.15788
es	-7.16312
S	-7.17042
▁think	-7.17222
▁use	-7.17544
▁He	-7.18713
▁re	-7.19092
▁want	-7.20432
▁year	-7.21834
▁even	-7.21903
▁should	-7.22367
▁here	-7.23293
▁-	-7.23393
▁really	-7.24039
▁because	-7.24589
▁help	-7.25053
”	-7.25653
▁go	-7.26312
▁day	-7.26739
▁take	-7.26869
▁–	-7.27167
▁two	-7.28287
ers	-7.30278
"	-7.30655
▁But	-7.31451
▁then	-7.31593
▁where	-7.32526
▁And	-7.32593
▁after	-7.32957
▁through	-7.33505
▁great	-7.34006
c	-7.36655
▁him	-7.36793
▁right	-7.37124
▁those	-7.39167
▁being	-7.39693
▁before	-7.39722
g	-7.40294
o	-7.40765
▁find	-7.42054
▁going	-7.43332
▁best	-7.44296
▁am	-7.44571
▁home	-7.45401
▁such	-7.45587
▁its	-7.4566
i	-7.46333
▁too	-7.46333
;	-7.46938
▁life	-7.46947
▁There	-7.47077
b	-7.48031
▁off	-7.48409
▁So	-7.49634
▁still	-7.50033
▁made	-7.5095
l	-7.50965
▁down	-7.51234
▁For	-7.51323
▁last	-7.5243
).	-7.52741
▁information	-7.53826
le	-7.53864
▁love	-7.54412
▁own	-7.55433
▁around	-7.55591
▁long	-7.5579
▁They	-7.56336
▁look	-7.56719
D	-7.57559
▁B	-7.58047
▁things	-7.58356
▁C	-7.59349
▁few	-7.60805
▁something	-7.61864
▁little	-7.62148
▁world	-7.62664
C	-7.63714
▁un	-7.65051
▁business	-7.65303
on	-7.65454
▁every	-7.65684
▁lot	-7.65685
▁always	-7.66382
▁same	-7.67162
▁F	-7.67984
▁come	-7.68251
▁part	-7.68402
▁say	-7.68601
ation	-7.68697
▁As	-7.68814
▁while	-7.68948
▁used	-7.6931
▁sure	-7.69595
▁each	-7.69974
,”	-7.70134
▁place	-7.70451
▁did	-7.72281
▁E	-7.72768
▁better	-7.74126
▁That	-7.75012
able	-7.75047
▁never	-7.75077
▁3	-7.7523
p	-7.75254
▁different	-7.76486
▁2	-7.76566
A	-7.78621
▁s	-7.78883
▁might	-7.79048
▁got	-7.79118
P	-7.79578
▁i	-7.80299
an	-7.82142
il	-7.8246
it	-7.8293
f	-7.83308
▁G	-7.83455
T	-7.84504
▁She	-7.84984
ment	-7.85374
ion	-7.85786
el	-7.86089
B	-7.86249
▁must	-7.86265
ic	-7.86812
▁under	-7.86872
▁To	-7.87395
▁post	-7.8753
▁next	-7.88197
▁high	-7.88453
▁When	-7.89219
▁both	-7.89426
▁feel	-7.89469
▁thing	-7.89497
▁p	-7.89735
▁e	-7.90341
▁found	-7.91152
▁experience	-7.91288
▁5	-7.91355
▁end	-7.91429
▁family	-7.91521
▁give	-7.91645
▁without	-7.91675
▁keep	-7.91778
▁Re	-7.91982
k	-7.92005
ar	-7.92259
▁free	-7.92406
▁another	-7.92537
en	-7.92629
u	-7.928
▁1	-7.93362
▁since	-7.93969
▁again	-7.94402
ity	-7.95347
to	-7.95759
▁P	-7.96228
▁put	-7.96271
▁de	-7.97163
▁week	-7.97253
▁My	-7.97347
▁able	-7.97751
▁does	-7.98643
▁10	-7.99297
▁4	-7.99374
▁start	-7.99595
▁car	-7.9982
▁between	-8.00059
h	-8.00077
▁didn	-8.00187
▁three	-8.00221
▁set	-8.00226
F	-8.00272
▁important	-8.00627
▁service	-8.00909
▁looking	-8.01141
▁site	-8.01195
ur	-8.01314
▁days	-8.01519
▁...	-8.01534
▁D	-8.01557
▁T	-8.02322
▁number	-8.02695
est	-8.02826
▁support	-8.02884
▁using	-8.03786
▁team	-8.03826
▁company	-8.03977
de	-8.04249
▁available	-8.04281
M	-8.04348
E	-8.0521
▁.	-8.05333
▁during	-8.05389
▁away	-8.05475
▁read	-8.06364
G	-8.06397
▁system	-8.07246
▁19	-8.07462
▁point	-8.07965
▁let	-8.08347
▁person	-8.08648
▁why	-8.09676
li	-8.09909
▁M	-8.09911
▁money	-8.10075
and	-8.10107
▁working	-8.10142
▁water	-8.10164
▁book	-8.10294
ry	-8.10445
▁game	-8.1046
w	-8.11278
▁course	-8.11431
▁hard	-8.11531
▁making	-8.12221
,"	-8.12242
▁small	-8.12387
▁show	-8.12498
▁today	-8.12709
▁No	-8.12929
la	-8.13052
▁school	-8.13187
ent	-8.13394
▁R	-8.13535
ive	-8.13928
▁‘	-8.14123
▁real	-8.14124
▁enough	-8.14142
▁care	-8.14147
▁website	-8.14148
com	-8.14279
▁children	-8.14521
▁provide	-8.14525
▁W	-8.14587
▁process	-8.1459
▁done	-8.15635
▁getting	-8.1586
▁full	-8.15911
▁change	-8.15992
▁doesn	-8.16525
▁per	-8.16612
▁old	-8.16868
▁having	-8.1687
ra	-8.17122
▁U	-8.17403
▁ever	-8.17474
▁man	-8.17805
▁order	-8.18209
▁though	-8.18301
▁bit	-8.18887
▁far	-8.19397
▁doing	-8.20429
▁All	-8.20739
▁big	-8.21303
▁least	-8.21372
ne	-8.22198
up	-8.22322
L	-8.22357
ness	-8.22434
▁case	-8.22523
▁actually	-8.22636
lo	-8.22752
▁until	-8.22974
▁thought	-8.23561
),	-8.23598
co	-8.23613
▁try	-8.23641
▁already	-8.23709
at	-8.2435
▁often	-8.24617
▁O	-8.24643
▁local	-8.24655
age	-8.24937
▁data	-8.25061
▁health	-8.25109
▁less	-8.25151
▁including	-8.2523
man	-8.25367
▁area	-8.25577
ter	-8.25631
▁What	-8.25904
us	-8.26124
▁online	-8.26147
ist	-8.26752
▁night	-8.26821
▁open	-8.26849
▁job	-8.26918
W	-8.27079
▁hope	-8.2713
▁believe	-8.27185
▁6	-8.27493
▁New	-8.27515
▁live	-8.27785
▁services	-8.27926
▁past	-8.2794
▁public	-8.28353
▁hand	-8.2854
▁play	-8.28564
▁easy	-8.28718
▁top	-8.28743
rs	-8.29147
▁says	-8.29185
▁food	-8.29191
▁together	-8.29643
▁within	-8.29702
▁possible	-8.29821
▁N	-8.30735
▁someone	-8.30861
▁call	-8.31099
▁kind	-8.313
▁mind	-8.3148
ate	-8.31903
the	-8.32063
et	-8.32344
▁list	-8.32791
The	-8.33132
▁blog	-8.33632
▁H	-8.33683
▁'	-8.3374
ting	-8.33761
▁room	-8.33905
▁—	-8.34093
ies	-8.34116
▁At	-8.34399
▁Our	-8.34427
▁problem	-8.34488
▁anything	-8.34729
▁&	-8.34838
,000	-8.34872
▁state	-8.35155
N	-8.35188
▁become	-8.35538
▁name	-8.35921
am	-8.3606
▁needs	-8.36176
R	-8.36375
x	-8.36616
ie	-8.36673
▁7	-8.36781
▁pay	-8.3679
na	-8.3694
ro	-8.37252
▁co	-8.37448
▁share	-8.37595
▁fact	-8.37599
me	-8.37678
▁left	-8.37772
▁market	-8.378
▁One	-8.37857
▁against	-8.37873
▁c	-8.37981
ine	-8.38013
▁With	-8.38357
▁check	-8.38392
▁side	-8.38601
▁everything	-8.38662
▁students	-8.3867
▁once	-8.387
as	-8.3873
▁offer	-8.39167
ma	-8.39504
2	-8.39579
▁short	-8.3996
ty	-8.40397
id	-8.40458
ance	-8.40461
▁head	-8.40467
▁means	-8.40633
▁came	-8.40657
ri	-8.40868
▁contact	-8.40885
▁understand	-8.4093
▁social	-8.41115
ol	-8.41138
te	-8.41155
ary	-8.41208
▁house	-8.41228
▁K	-8.41337
▁please	-8.41365
▁fun	-8.41413
▁times	-8.41547
▁idea	-8.41931
▁personal	-8.41965
▁won	-8.42101
▁country	-8.42339
▁story	-8.42349
ul	-8.424
▁project	-8.42455
▁group	-8.42478
H	-8.42765
▁These	-8.42926
▁create	-8.43149
▁learn	-8.43184
un	-8.43349
is	-8.43884
▁power	-8.44066
1	-8.44118
▁yet	-8.44316
▁months	-8.44391
▁women	-8.44613
▁Do	-8.44725
▁government	-8.44778
▁community	-8.44783
▁However	-8.45103
▁plan	-8.45173
▁t	-8.45237
mo	-8.4614
▁[	-8.46198
V	-8.46287
ir	-8.46436
▁run	-8.46578
▁everyone	-8.46723
▁8	-8.46806
▁friends	-8.46848
▁pretty	-8.46959
▁hours	-8.46966
▁tell	-8.47
ce	-8.4704
▁9	-8.47377
▁second	-8.47388
▁b	-8.47509
▁probably	-8.47947
]	-8.47967
ch	-8.4812
▁face	-8.48272
▁future	-8.48612
U	-8.48725
▁started	-8.48727
▁L	-8.48893
▁went	-8.48971
▁ago	-8.49019
ling	-8.49032
▁whole	-8.49156
▁20	-8.49176
O	-8.49389
▁quality	-8.49498
▁others	-8.49541
▁body	-8.49667
▁comes	-8.49881
▁quite	-8.50081
3	-8.50144
▁design	-8.50147
▁visit	-8.50167
▁line	-8.50421
▁makes	-8.50548
▁page	-8.5078
▁large	-8.50911
ia	-8.51021
▁several	-8.51241
se	-8.51261
▁research	-8.51286
▁Your	-8.51389
▁cost	-8.51476
▁season	-8.51503
ta	-8.51721
▁bad	-8.5203
▁seen	-8.52194
▁God	-8.52225
▁program	-8.52242
▁took	-8.52288
▁trying	-8.52398
5	-8.52526
▁After	-8.52793
▁Be	-8.53057
▁special	-8.53166
▁access	-8.5325
ck	-8.53496
▁products	-8.53851
▁dis	-8.54109
▁across	-8.54196
▁De	-8.54227
▁level	-8.54276
▁pre	-8.55064
▁On	-8.55152
▁million	-8.55193
▁taking	-8.55261
—	-8.55291
▁along	-8.5547
▁heart	-8.55656
▁light	-8.56626
▁con	-8.56804
▁price	-8.5695
▁email	-8.57101
▁content	-8.57129
um	-8.57579
▁minutes	-8.57648
ant	-8.57968
ous	-8.57971
We	-8.58129
▁space	-8.58414
ge	-8.58745
4	-8.5881
im	-8.59331
▁web	-8.59912
▁isn	-8.59914
▁called	-8.6018
▁development	-8.60283
z	-8.60557
less	-8.606
▁month	-8.60802
▁event	-8.60838
▁nothing	-8.60906
▁told	-8.60908
▁question	-8.61056
K	-8.61088
▁Now	-8.61259
▁based	-8.61591
ated	-8.61632
▁yourself	-8.61912
▁example	-8.62207
▁Please	-8.62361
▁reason	-8.62455
▁couple	-8.62542
▁matter	-8.62694
▁12	-8.62699
▁control	-8.6275
▁move	-8.62827
▁later	-8.62935
▁video	-8.63053
▁form	-8.63351
▁Not	-8.63441
▁simple	-8.63565
▁child	-8.63594
▁young	-8.63699
▁four	-8.63704
▁issues	-8.63746
▁An	-8.63861
▁ask	-8.64073
▁pro	-8.64113
▁nice	-8.64194
ating	-8.64244
▁given	-8.6453
▁product	-8.64643
▁Le	-8.64651
▁questions	-8.64652
▁enjoy	-8.64701
▁stay	-8.64715
▁else	-8.64742
▁almost	-8.6482
be	-8.64884
▁whether	-8.65011
▁close	-8.65155
▁clear	-8.65387
▁media	-8.6563
▁seems	-8.65744
no	-8.65817
▁wanted	-8.65849
▁St	-8.65928
ha	-8.66422
ad	-8.66471
▁especially	-8.66557
▁f	-8.66669
▁happy	-8.66734
▁perfect	-8.67267
▁above	-8.67308
▁music	-8.67336
▁city	-8.67388
▁beautiful	-8.67693
▁Thank	-8.67814
▁early	-8.68179
v	-8.68257
▁view	-8.68498
▁either	-8.68736
▁value	-8.68903
▁account	-8.68938
▁deal	-8.68992
▁Just	-8.69002
▁writing	-8.69196
▁anyone	-8.69216
▁companies	-8.69288
▁Thanks	-8.69525
▁below	-8.69862
▁mean	-8.69886
▁rest	-8.69892
ex	-8.69958
▁office	-8.70142
▁add	-8.70581
▁Some	-8.7075
▁30	-8.70775
ci	-8.7104
▁coming	-8.71041
▁members	-8.71182
▁issue	-8.71279
ted	-8.71352
▁industry	-8.71651
do	-8.71657
▁key	-8.71767
sh	-8.71791
://	-8.72269
▁non	-8.72478
▁etc	-8.72632
▁soon	-8.72683
tic	-8.72742
▁asked	-8.72792
▁report	-8.72908
ton	-8.73309
▁bring	-8.73369
▁law	-8.73389
▁Here	-8.73558
▁professional	-8.73926
▁stop	-8.74325
▁simply	-8.74362
▁rather	-8.74429
bo	-8.74467
ful	-8.74656
▁article	-8.74683
▁remember	-8.74708
▁building	-8.74852
▁men	-8.7493
▁single	-8.75116
It	-8.75201
▁15	-8.7539
▁likely	-8.75472
ian	-8.75511
▁include	-8.75664
▁buy	-8.75771
▁age	-8.75786
▁due	-8.75916
ke	-8.75957
▁meet	-8.76039
▁kids	-8.76463
▁ex	-8.7648
▁While	-8.76539
▁half	-8.76572
▁18	-8.76636
ally	-8.76683
pe	-8.76783
▁forward	-8.7684
time	-8.76961
▁turn	-8.77116
▁taken	-8.77118
ism	-8.77229
▁staff	-8.77387
▁phone	-8.77399
▁self	-8.77554
▁La	-8.77823
▁needed	-8.78105
▁insurance	-8.78212
▁leave	-8.78236
▁low	-8.78466
9	-8.78491
▁talk	-8.7854
▁five	-8.78551
▁current	-8.78968
▁result	-8.79075
con	-8.79143
▁problems	-8.79544
▁living	-8.79632
▁present	-8.80151
▁type	-8.8027
▁following	-8.80351
▁Me	-8.80626
▁customers	-8.8072
▁human	-8.80741
▁reading	-8.80897
per	-8.81098
▁myself	-8.81262
▁Con	-8.81298
▁Co	-8.81314
op	-8.81594
▁amount	-8.81641
▁g	-8.81654
▁range	-8.8174
▁financial	-8.81773
▁training	-8.81795
▁words	-8.81922
00	-8.82081
▁however	-8.82417
son	-8.82486
▁follow	-8.82607
▁known	-8.82992
▁weeks	-8.83085
▁Ma	-8.83402
▁Well	-8.83438
▁true	-8.83445
▁write	-8.83886
Y	-8.83955
▁friend	-8.84315
out	-8.84337
▁period	-8.84496
one	-8.84609
▁risk	-8.84731
va	-8.84773
▁build	-8.8489
0	-8.85091
▁certain	-8.8539
▁V	-8.85395
we	-8.85508
old	-8.85578
▁US	-8.85694
▁en	-8.85885
▁further	-8.86121
▁energy	-8.86197
▁hear	-8.86251
▁Don	-8.86269
▁search	-8.86382
▁clean	-8.86412
▁continue	-8.86418
▁sense	-8.8654
▁ensure	-8.86559
▁travel	-8.8679
go	-8.86842
ac	-8.87065
▁worth	-8.87134
▁results	-8.87279
▁front	-8.87346
▁complete	-8.87607
▁J	-8.87785
▁review	-8.88035
▁air	-8.88124
▁class	-8.88303
▁opportunity	-8.88339
▁longer	-8.88512
▁major	-8.88675
▁subject	-8.88678
▁usually	-8.88685
▁morning	-8.88932
year	-8.89192
ru	-8.89444
▁interest	-8.89483
▁specific	-8.89503
ig	-8.89609
8	-8.89633
▁wasn	-8.89864
side	-8.89911
vi	-8.89916
▁study	-8.89969
▁seem	-8.90034
▁stuff	-8.90122
▁answer	-8.90194
▁wish	-8.90203
▁date	-8.90547
▁Po	-8.90644
ut	-8.90799
▁technology	-8.90842
▁Pro	-8.90843
▁history	-8.90867
way	-8.90907
▁11	-8.90935
▁looks	-8.90942
line	-8.91093
ning	-8.91187
▁amazing	-8.91227
nd	-8.91365
▁moment	-8.91621
▁step	-8.91745
6	-8.91857
▁required	-8.9207
▁cannot	-8.92153
der	-8.92354
▁outside	-8.92425
▁wait	-8.92529
▁receive	-8.92624
ti	-8.92651
▁trip	-8.92974
▁ready	-8.93167
▁wrong	-8.9323
.”	-8.93273
▁interesting	-8.933
▁table	-8.93328
lu	-8.93652
▁American	-8.93787
▁behind	-8.93884
▁ways	-8.93954
▁card	-8.9396
▁individual	-8.94143
▁common	-8.94158
▁choose	-8.94346
▁Or	-8.94469
▁How	-8.94509
▁fire	-8.94678
▁property	-8.94712
ca	-8.95189
▁Dr	-8.9529
ster	-8.95304
▁strong	-8.95502
land	-8.9569
▁credit	-8.95695
▁Even	-8.95711
ni	-8.95815
▁chance	-8.95868
▁app	-8.95929
▁--	-8.9634
▁allow	-8.96342
▁running	-8.96458
▁drive	-8.96711
▁difficult	-8.96778
▁added	-8.96821
▁cut	-8.96986
▁walk	-8.9713
▁thinking	-8.97293
tri	-8.97354
▁role	-8.97384
ho	-8.97489
▁management	-8.97501
▁hit	-8.97529
▁break	-8.97609
ga	-8.97626
▁main	-8.97778
ba	-8.97843
▁road	-8.97918
ized	-8.97941
▁land	-8.97942
▁games	-8.98214
▁percent	-8.98352
▁increase	-8.98373
▁Mo	-8.98444
▁details	-8.98467
▁Mr	-8.98619
▁saw	-8.98711
▁focus	-8.9883
▁art	-8.98834
▁areas	-8.98902
▁United	-8.98943
▁Bo	-8.98958
▁success	-8.99073
ship	-8.99252
▁various	-8.9932
ial	-8.99399
▁d	-8.99562
▁test	-8.99596
ence	-8.99694
he	-8.99964
▁cause	-9.00275
▁customer	-9.00459
▁works	-9.00542
▁consider	-9.00566
▁heard	-9.00634
ped	-9.00649
▁address	-9.00795
▁environment	-9.00828
em	-9.00864
▁sound	-9.00874
▁word	-9.00913
▁learning	-9.01044
▁according	-9.01184
ap	-9.0121
▁approach	-9.01273
▁mo	-9.01413
by	-9.01447
▁His	-9.01468
ard	-9.0147
▁favorite	-9.02003
▁size	-9.02018
▁lives	-9.0218
7	-9.02292
▁position	-9.02497
ities	-9.02501
▁definitely	-9.02501
▁impact	-9.02512
▁comment	-9.02529
▁series	-9.0253
▁extra	-9.026
po	-9.02641
▁By	-9.02678
▁party	-9.02729
▁six	-9.02733
▁quickly	-9.02865
▁Let	-9.02912
▁themselves	-9.02961
▁security	-9.0313
▁rate	-9.03321
▁similar	-9.03345
om	-9.03358
ical	-9.03494
▁Ro	-9.03639
▁v	-9.03728
ak	-9.03785
▁Hi	-9.03808
▁skills	-9.03905
▁Ra	-9.03917
mb	-9.03955
▁near	-9.03956
king	-9.04187
­	-9.04198
▁Yes	-9.042
ious	-9.0424
▁private	-9.04251
▁events	-9.04495
▁performance	-9.04558
▁parents	-9.04782
▁changes	-9.04846
▁link	-9.0486
▁goes	-9.0493
▁education	-9.04999
▁death	-9.05067
▁lead	-9.05123
▁eyes	-9.05158
▁watch	-9.05223
▁entire	-9.05306
(	-9.05369
▁action	-9.05502
▁policy	-9.05504
▁offers	-9.05572
▁attention	-9.05738
▁1.	-9.0575
▁Then	-9.05774
▁unique	-9.05815
▁send	-9.05915
▁cool	-9.05928
da	-9.05957
▁marketing	-9.06032
You	-9.06128
▁general	-9.06139
▁happen	-9.06229
▁win	-9.06371
▁lost	-9.06417
our	-9.06421
▁Al	-9.06441
ish	-9.06619
▁saying	-9.06672
▁war	-9.0674
▁shall	-9.0676
▁woman	-9.06788
▁options	-9.06893
▁potential	-9.07079
▁May	-9.07108
▁provided	-9.07161
▁touch	-9.07217
▁recent	-9.07288
▁takes	-9.0736
▁wonderful	-9.07368
▁save	-9.07413
▁white	-9.0765
▁sort	-9.07745
▁store	-9.07767
▁safe	-9.0786
▁knowledge	-9.07891
▁fall	-9.07988
▁spend	-9.08008
▁option	-9.08104
▁among	-9.08175
▁decided	-9.08342
▁treatment	-9.08474
dy	-9.08495
▁clients	-9.08528
▁final	-9.0871
▁medical	-9.08831
▁return	-9.08862
▁st	-9.08914
▁o	-9.09037
▁choice	-9.09044
▁film	-9.09077
▁interested	-9.0934
ding	-9.09406
▁huge	-9.09407
ring	-9.09418
▁maybe	-9.09536
di	-9.09542
▁Ha	-9.09547
▁natural	-9.09662
▁inside	-9.09715
▁oil	-9.09764
▁practice	-9.09782
▁style	-9.09916
▁felt	-9.09955
J	-9.1
▁instead	-9.10135
▁decision	-9.10191
▁legal	-9.10248
▁late	-9.104
▁upon	-9.1064
▁mother	-9.10645
▁addition	-9.10647
▁ra	-9.10688
▁track	-9.10731
bi	-9.10734
▁tax	-9.10803
▁bar	-9.10813
mon	-9.10973
▁activities	-9.11034
ize	-9.11149
▁improve	-9.11164
▁summer	-9.11175
▁door	-9.11207
▁Mar	-9.11285
▁Most	-9.11413
▁town	-9.11437
▁situation	-9.11707
▁field	-9.11711
▁particular	-9.11758
ot	-9.11798
oo	-9.1191
▁news	-9.1197
▁screen	-9.12013
▁fine	-9.12167
▁expect	-9.12353
▁term	-9.12431
▁computer	-9.12489
▁pain	-9.12555
pa	-9.1271
▁ideas	-9.12715
▁meeting	-9.12833
▁books	-9.12837
ft	-9.12892
▁agree	-9.12925
▁ground	-9.12994
▁completely	-9.13048
▁brand	-9.1307
ise	-9.1318
▁purchase	-9.13407
▁easily	-9.13417
▁Ca	-9.13483
ee	-9.13559
▁avoid	-9.1357
day	-9.13618
▁hair	-9.13631
▁third	-9.13704
min	-9.13714
ber	-9.13767
▁haven	-9.13798
▁Li	-9.13803
▁recently	-9.1382
▁sub	-9.13887
▁looked	-9.14091
▁involved	-9.14313
▁certainly	-9.14441
▁career	-9.14522
▁written	-9.14531
▁sometimes	-9.14602
▁sales	-9.14622
▁feeling	-9.1465
▁worked	-9.14668
▁black	-9.14671
▁board	-9.14717
▁Of	-9.14803
▁pick	-9.1483
▁exactly	-9.1485
▁application	-9.14914
ten	-9.14923
50	-9.15055
▁hands	-9.15117
▁additional	-9.15285
▁necessary	-9.1529
▁Many	-9.15314
▁version	-9.15473
▁Also	-9.15579
▁fast	-9.15683
ner	-9.15715
led	-9.15796
▁knew	-9.15921
▁fit	-9.15968
▁hot	-9.16115
▁higher	-9.1612
▁weight	-9.16166
▁giving	-9.1638
▁tried	-9.16465
tion	-9.16469
▁Ho	-9.16583
▁features	-9.16778
▁Can	-9.17022
ions	-9.17044
▁points	-9.1711
▁di	-9.17145
▁received	-9.17157
of	-9.172
▁software	-9.17231
▁cover	-9.17233
▁paper	-9.17263
▁section	-9.17414
▁items	-9.17437
▁click	-9.17582
▁playing	-9.176
▁hold	-9.17733
ow	-9.178
▁http	-9.17878
▁couldn	-9.17924
▁ability	-9.17941
▁li	-9.18045
▁currently	-9.18082
▁hour	-9.18204
▁Ba	-9.18252
les	-9.18438
tter	-9.18581
▁hotel	-9.18601
tro	-9.18624
ite	-9.18764
▁positive	-9.18935
▁created	-9.19137
▁throughout	-9.19137
▁talking	-9.19181
▁$1	-9.19392
▁skin	-9.19428
▁held	-9.19432
▁shows	-9.19611
▁sign	-9.19674
▁quick	-9.19726
▁code	-9.19733
▁designed	-9.19903
▁countries	-9.19968
▁excellent	-9.20126
▁effective	-9.20154
▁costs	-9.20154
▁reach	-9.20209
▁national	-9.20286
▁York	-9.20585
▁users	-9.20601
sion	-9.20637
▁court	-9.20706
▁13	-9.20905
▁16	-9.20922
▁guess	-9.21134
▁weekend	-9.21144
▁14	-9.21177
▁wide	-9.21192
▁recommend	-9.21235
▁location	-9.21289
▁total	-9.21339
▁growth	-9.21388
▁States	-9.21879
▁response	-9.21904
ative	-9.22028
▁grow	-9.22056
ice	-9.22126
▁Go	-9.22297
▁ch	-9.22548
▁50	-9.22624
▁terms	-9.22652
▁record	-9.22742
▁stand	-9.22823
ping	-9.22846
▁picture	-9.22898
▁eat	-9.22912
▁turned	-9.22915
ki	-9.22923
▁ho	-9.22973
▁popular	-9.23044
▁economic	-9.23226
▁spot	-9.23436
▁text	-9.2349
▁user	-9.23669
▁member	-9.23819
▁provides	-9.2382
for	-9.23877
▁blood	-9.23942
▁model	-9.24036
▁goal	-9.24055
▁international	-9.24117
▁gave	-9.24234
▁warm	-9.24331
ub	-9.24378
▁itself	-9.24396
▁2.	-9.24462
▁From	-9.24481
▁projects	-9.24625
▁student	-9.24693
▁benefits	-9.24719
▁ten	-9.24797
▁piece	-9.24841
▁political	-9.24965
▁thank	-9.24968
▁language	-9.2506
▁wouldn	-9.25097
▁organization	-9.25165
▁original	-9.25286
ah	-9.25295
▁eye	-9.2533
tra	-9.25375
▁Pa	-9.25389
mm	-9.25445
▁fl	-9.25446
nce	-9.25695
▁red	-9.2576
▁note	-9.25869
▁starting	-9.25971
gu	-9.26001
port	-9.2611
▁investment	-9.26134
▁guide	-9.26426
▁City	-9.26534
▁average	-9.26559
▁Google	-9.26613
▁voice	-9.26674
▁advice	-9.26681
▁prevent	-9.26854
▁via	-9.27001
▁University	-9.27004
▁aren	-9.27135
▁spent	-9.27248
▁South	-9.27267
▁World	-9.27303
▁planning	-9.2732
▁message	-9.27363
▁State	-9.27384
▁develop	-9.27509
ley	-9.27553
▁24	-9.27698
▁relationship	-9.27767
ging	-9.27774
▁floor	-9.27968
▁Once	-9.28027
▁resources	-9.2817
▁25	-9.28217
▁variety	-9.28326
▁police	-9.28338
nt	-9.28432
os	-9.28451
red	-9.28454
ure	-9.28469
▁daily	-9.2882
▁la	-9.28915
▁color	-9.28932
ill	-9.29051
▁lower	-9.29115
▁America	-9.29167
▁global	-9.2918
▁girl	-9.2923
▁guy	-9.29362
qui	-9.29561
end	-9.29712
▁center	-9.29806
ving	-9.2983
▁cases	-9.29875
▁100	-9.29979
▁internet	-9.2998
▁Vi	-9.30107
lic	-9.30272
mp	-9.30345
▁Facebook	-9.30393
▁finally	-9.3048
▁sp	-9.30569
lin	-9.30652
que	-9.30657
▁fresh	-9.30662
▁systems	-9.30723
▁stage	-9.30752
▁loss	-9.30788
▁Di	-9.31026
▁related	-9.31095
▁expected	-9.31175
▁condition	-9.31181
▁Sa	-9.31291
▁conditions	-9.31439
▁Day	-9.31539
▁campaign	-9.3156
▁thanks	-9.31614
bu	-9.31692
▁benefit	-9.31799
▁built	-9.31909
▁loved	-9.31946
▁release	-9.32013
ick	-9.3206
▁difference	-9.32146
."	-9.32155
▁X	-9.32184
▁First	-9.32229
▁truly	-9.32256
▁happened	-9.32318
▁trade	-9.32404
▁respect	-9.32429
▁safety	-9.32586
▁healthy	-9.32595
▁John	-9.32677
▁alone	-9.32685
▁character	-9.32778
ization	-9.32816
▁guys	-9.32895
▁players	-9.32951
fe	-9.33099
▁paid	-9.33206
▁National	-9.33214
▁college	-9.33242
▁Lo	-9.33313
pro	-9.33315
▁vi	-9.33318
▁highly	-9.33342
▁easier	-9.33386
use	-9.33401
&	-9.33412
▁17	-9.33448
ide	-9.33458
▁solution	-9.33503
▁businesses	-9.3368
ations	-9.33746
▁*	-9.33796
▁providing	-9.33887
▁require	-9.33953
▁Ka	-9.34012
▁sharing	-9.34018
▁effort	-9.34265
@	-9.34272
▁host	-9.34293
▁serious	-9.34325
▁image	-9.34408
▁Car	-9.34567
▁speak	-9.34568
ron	-9.34618
▁photos	-9.34644
ual	-9.34813
▁source	-9.3483
▁latest	-9.34897
www	-9.34956
▁Q	-9.34971
tal	-9.35214
▁sent	-9.35218
▁2017	-9.35252
▁sleep	-9.35256
ug	-9.3526
▁stories	-9.35359
▁Na	-9.35376
▁bed	-9.35413
▁3.	-9.35422
▁baby	-9.35431
mer	-9.35498
▁patients	-9.3562
▁box	-9.35624
▁protect	-9.35829
▁successful	-9.35831
▁levels	-9.35847
fi	-9.35912
▁plans	-9.36006
▁War	-9.36012
▁interview	-9.36051
▁son	-9.36134
▁Since	-9.36159
▁gone	-9.36202
▁effect	-9.36264
but	-9.36279
▁Great	-9.3631
▁lack	-9.36425
ler	-9.36459
▁useful	-9.36459
▁met	-9.36467
▁act	-9.36559
▁movie	-9.36763
▁himself	-9.3677
▁file	-9.36963
▁programs	-9.36967
▁trust	-9.36988
▁regular	-9.37016
▁individuals	-9.37137
ction	-9.37193
ud	-9.37194
▁finding	-9.37265
▁growing	-9.37271
▁challenge	-9.37311
▁ma	-9.37407
▁physical	-9.37495
▁employees	-9.37575
▁network	-9.37649
▁Man	-9.37685
ward	-9.37778
hi	-9.38027
gg	-9.38063
▁damage	-9.38068
▁Christmas	-9.38147
▁Ta	-9.38201
ff	-9.38571
▁budget	-9.3859
▁families	-9.38865
▁anti	-9.38922
▁production	-9.38923
▁significant	-9.38934
ER	-9.38934
ue	-9.38999
▁includes	-9.39143
▁UK	-9.39174
duc	-9.39288
▁imp	-9.39334
▁comments	-9.39362
▁material	-9.39447
her	-9.39499
▁40	-9.39544
▁dog	-9.39597
▁towards	-9.396
▁begin	-9.39684
▁sell	-9.39873
▁began	-9.399
▁Good	-9.39936
▁tools	-9.39945
oc	-9.40013
▁fear	-9.4014
▁culture	-9.40145
▁considered	-9.40192
▁super	-9.40279
▁moving	-9.40361
▁basic	-9.40451
▁groups	-9.40524
▁located	-9.40561
▁round	-9.40571
▁claim	-9.4072
▁apply	-9.40722
▁contract	-9.40756
work	-9.40771
ever	-9.40846
▁Se	-9.40866
▁stock	-9.40878
▁speed	-9.40883
ile	-9.40944
▁TV	-9.40946
▁2016	-9.41008
▁Oh	-9.41055
▁directly	-9.41076
let	-9.41097
X	-9.41208
▁Because	-9.4122
ip	-9.41331
▁photo	-9.41362
▁beginning	-9.41399
▁understanding	-9.41412
▁standard	-9.41487
▁opportunities	-9.41647
▁fully	-9.41653
▁block	-9.41689
▁North	-9.41711
iv	-9.41885
▁sun	-9.41899
▁comp	-9.42017
▁father	-9.42171
▁treat	-9.42228
▁star	-9.42428
▁cr	-9.42451
ey	-9.42484
▁fight	-9.42514
▁deep	-9.42656
▁title	-9.42713
▁helpful	-9.42901
▁charge	-9.42974
▁modern	-9.43195
based	-9.43219
▁download	-9.4343
ep	-9.43435
my	-9.43457
nch	-9.43458
▁reduce	-9.43521
▁exercise	-9.43574
▁hospital	-9.43894
▁shop	-9.43976
▁notice	-9.44019
▁brought	-9.44119
▁previous	-9.44148
ight	-9.44165
▁Make	-9.44183
▁nearly	-9.44216
▁allows	-9.44328
▁More	-9.44355
▁inter	-9.4436
▁se	-9.44404
▁husband	-9.44499
▁evidence	-9.44506
▁nature	-9.44573
term	-9.4459
▁wife	-9.44719
▁method	-9.44742
▁included	-9.44856
▁ba	-9.44857
▁th	-9.44866
▁mu	-9.4491
▁President	-9.44916
▁types	-9.4494
▁creating	-9.44986
uff	-9.45092
▁race	-9.4517
▁glad	-9.45224
▁correct	-9.45409
nk	-9.45418
▁mobile	-9.45425
ral	-9.45516
▁places	-9.45586
▁seeing	-9.45645
▁Mi	-9.45695
ther	-9.45791
▁limited	-9.45882
▁digital	-9.45903
▁poor	-9.45922
▁feet	-9.4594
▁Friday	-9.4596
book	-9.46112
▁affect	-9.46117
▁advantage	-9.46448
▁changed	-9.46493
▁2018	-9.46502
fa	-9.46543
▁pictures	-9.46554
▁welcome	-9.46574
▁gives	-9.46601
ble	-9.46625
▁match	-9.4667
▁multiple	-9.46678
if	-9.4681
10	-9.46883
▁cross	-9.469
▁became	-9.46929
cc	-9.46941
▁attack	-9.47
io	-9.47045
▁equipment	-9.47066
▁cold	-9.47137
▁path	-9.47171
▁collection	-9.4718
▁mine	-9.47246
▁stress	-9.47264
▁gain	-9.47301
▁Although	-9.47346
mi	-9.47372
▁attempt	-9.47403
He	-9.47446
▁basis	-9.47492
▁reasons	-9.47496
▁particularly	-9.47503
▁green	-9.47622
▁Her	-9.47748
▁author	-9.47856
men	-9.47888
▁join	-9.47936
ments	-9.47962
tch	-9.48005
▁gift	-9.48016
▁extremely	-9.48021
ably	-9.48208
▁although	-9.48243
▁lose	-9.48306
▁House	-9.48438
▁daughter	-9.48477
▁pass	-9.48551
▁billion	-9.48589
ible	-9.48595
▁El	-9.4861
▁goals	-9.48696
▁pressure	-9.48878
▁purpose	-9.48976
▁ahead	-9.49015
▁heat	-9.49159
▁em	-9.49277
ag	-9.49281
▁request	-9.49444
▁People	-9.49481
▁camera	-9.49605
ny	-9.49607
act	-9.49612
vo	-9.49644
▁sit	-9.49756
▁weather	-9.49756
ven	-9.49917
....	-9.49924
▁club	-9.49937
▁brain	-9.50004
▁wrote	-9.50037
ear	-9.50111
▁lots	-9.50312
▁count	-9.50322
ified	-9.5039
ctor	-9.50419
▁m	-9.50569
▁beyond	-9.50584
▁figure	-9.50596
▁comfortable	-9.50652
row	-9.50659
br	-9.50678
▁topic	-9.50682
ology	-9.50792
▁appropriate	-9.50849
▁drop	-9.50853
▁po	-9.50857
ier	-9.50906
ab	-9.50916
▁Every	-9.51102
▁client	-9.51232
ach	-9.51272
▁target	-9.51307
ability	-9.5149
▁disease	-9.51512
▁info	-9.51545
▁whatever	-9.51596
▁ca	-9.51603
▁bo	-9.51654
▁requirements	-9.51714
▁audience	-9.51723
▁Mon	-9.52053
▁demand	-9.52089
▁multi	-9.52209
▁waiting	-9.5233
▁park	-9.52411
▁gra	-9.52411
▁slow	-9.52534
▁mis	-9.52588
▁garden	-9.52618
ged	-9.52647
▁immediately	-9.52691
▁Today	-9.52708
che	-9.52988
▁played	-9.53141
▁normal	-9.53214
This	-9.533
▁Have	-9.53316
like	-9.53387
mit	-9.53459
▁2015	-9.53489
▁press	-9.5352
pp	-9.53572
▁progress	-9.53575
▁structure	-9.53597
rr	-9.5361
▁science	-9.53615
▁im	-9.53632
▁leading	-9.53704
▁base	-9.53727
▁Ne	-9.53796
▁sweet	-9.53911
▁discussion	-9.53957
ver	-9.54049
▁truth	-9.54086
▁cash	-9.5419
▁worry	-9.54201
▁21	-9.54242
dic	-9.54263
▁earlier	-9.54276
▁prices	-9.54297
▁Ga	-9.54386
▁region	-9.54485
▁rules	-9.54549
▁tips	-9.54585
▁fair	-9.54624
▁Bar	-9.54643
▁perhaps	-9.54664
▁k	-9.54665
▁helping	-9.54667
ka	-9.54675
▁forget	-9.54677
▁School	-9.54689
▁u	-9.547
val	-9.54785
▁cancer	-9.54817
▁mental	-9.54851
▁learned	-9.54899
▁Sunday	-9.5503
▁band	-9.55047
▁appear	-9.55117
▁Su	-9.55145
▁Z	-9.55194
▁doubt	-9.55202
▁income	-9.55338
▁helped	-9.55403
ph	-9.5542
bb	-9.55452
▁fan	-9.55472
tain	-9.55495
▁listen	-9.55527
▁vote	-9.55618
▁sea	-9.55666
▁#	-9.55687
ration	-9.55852
▁vehicle	-9.55921
".	-9.55924
▁firm	-9.55934
▁dead	-9.55991
▁released	-9.56141
cent	-9.56164
den	-9.56199
▁Th	-9.56211
▁r	-9.56228
▁allowed	-9.56244
▁accept	-9.56307
▁lo	-9.56342
back	-9.56444
▁sites	-9.56469
▁absolutely	-9.56534
▁Park	-9.56583
▁activity	-9.56605
▁decide	-9.56628
ay	-9.56676
▁traditional	-9.56721
▁March	-9.56817
▁remain	-9.56882
ger	-9.56887
▁June	-9.56944
▁rock	-9.57046
▁English	-9.5705
▁direct	-9.57054
▁kitchen	-9.57058
press	-9.57064
▁manage	-9.57094
30	-9.57121
▁shot	-9.57171
▁Health	-9.57178
▁bank	-9.57345
▁reported	-9.57369
▁nation	-9.57389
▁solutions	-9.57414
▁offering	-9.57472
ries	-9.57484
▁Ad	-9.57675
▁THE	-9.57699
▁dark	-9.57702
▁Maybe	-9.57786
ition	-9.57825
▁tend	-9.58003
wi	-9.58021
▁middle	-9.58049
▁produce	-9.58122
▁trouble	-9.58249
▁Act	-9.58309
▁doctor	-9.58423
▁stick	-9.58495
▁parts	-9.58495
▁statement	-9.58497
▁feature	-9.58566
cle	-9.5857
▁kept	-9.58585
▁published	-9.58594
▁San	-9.58686
▁commercial	-9.58737
In	-9.58862
▁machine	-9.58936
▁accident	-9.5911
▁High	-9.59191
▁player	-9.59193
▁helps	-9.59243
ang	-9.59299
▁serve	-9.59426
▁gas	-9.59446
▁sector	-9.59547
▁wants	-9.5957
▁experienced	-9.59606
▁creative	-9.59675
▁@	-9.59692
▁happens	-9.59747
▁wonder	-9.59808
▁4.	-9.59825
▁sex	-9.59829
▁•	-9.599
ists	-9.59949
▁explain	-9.60018
ake	-9.60033
▁limit	-9.60084
▁device	-9.60113
▁song	-9.60124
▁aware	-9.60125
▁gets	-9.60128
▁diet	-9.60182
▁posts	-9.60201
▁Internet	-9.60224
▁Saturday	-9.60354
▁direction	-9.60403
light	-9.60468
▁setting	-9.60538
rd	-9.60617
▁connect	-9.60679
▁pop	-9.60695
▁yes	-9.60719
▁mark	-9.60803
▁former	-9.60862
pri	-9.60895
izing	-9.60943
▁director	-9.61081
▁rates	-9.61109
▁plenty	-9.61121
%	-9.6115
▁driving	-9.61173
ct	-9.61198
▁function	-9.6124
▁Pi	-9.61254
▁friendly	-9.61338
▁Wi	-9.61456
ze	-9.61523
20	-9.61542
▁materials	-9.61586
▁wear	-9.61589
▁holiday	-9.6162
▁shape	-9.6162
▁custom	-9.61683
▁watching	-9.61705
▁seven	-9.61846
▁deliver	-9.61853
pi	-9.61962
▁display	-9.62003
▁Ex	-9.62039
▁essential	-9.62085
?”	-9.62092
▁tool	-9.62158
▁effects	-9.62226
▁sounds	-9.62452
▁Love	-9.62497
▁Like	-9.62515
▁separate	-9.62557
▁powerful	-9.62603
▁select	-9.62619
▁April	-9.62684
▁encourage	-9.62734
▁assist	-9.62737
▁traffic	-9.62797
▁mid	-9.62881
over	-9.63107
form	-9.63125
▁achieve	-9.63137
▁sta	-9.63172
▁partner	-9.63256
▁ball	-9.63327
▁discuss	-9.63335
▁fix	-9.63402
▁button	-9.63435
▁images	-9.63692
▁suit	-9.63777
off	-9.63777
▁Center	-9.63793
▁steps	-9.63832
▁offered	-9.63836
▁Read	-9.6389
▁wedding	-9.63946
▁journey	-9.63997
▁Fi	-9.64003
▁sc	-9.6413
▁coffee	-9.64133
ised	-9.64177
▁dream	-9.64201
▁Ch	-9.64266
▁secret	-9.64295
▁Each	-9.64365
▁reality	-9.64463
▁Take	-9.64484
▁enjoyed	-9.64545
▁Monday	-9.64557
ple	-9.64562
lan	-9.64562
▁tour	-9.64564
ium	-9.64618
▁/	-9.64647
▁moved	-9.64699
▁population	-9.64851
▁sale	-9.64882
▁schedule	-9.64971
▁complex	-9.64983
▁rights	-9.64989
▁taste	-9.65013
▁copy	-9.65072
Q	-9.6508
▁According	-9.65096
RE	-9.65202
▁mentioned	-9.65258
▁pool	-9.65331
▁July	-9.65343
▁responsible	-9.65413
▁developed	-9.6546
▁finish	-9.65474
od	-9.65542
▁miles	-9.656
▁pet	-9.65666
au	-9.65674
▁strategy	-9.65677
▁December	-9.65704
–	-9.65733
▁2014	-9.65786
▁w	-9.65845
▁foot	-9.65868
lar	-9.65907
▁blue	-9.65943
▁catch	-9.65967
▁West	-9.65976
board	-9.66037
▁older	-9.66061
▁Fa	-9.66062
▁sold	-9.66137
▁straight	-9.66167
▁payment	-9.66229
▁opinion	-9.66247
▁patient	-9.66318
gan	-9.66409
▁appreciate	-9.66548
▁jobs	-9.66584
▁camp	-9.66594
▁bus	-9.66601
▁bill	-9.66625
▁keeping	-9.66641
▁plant	-9.66748
right	-9.66753
▁September	-9.66775
▁regarding	-9.6681
▁dinner	-9.66845
rn	-9.67078
▁society	-9.67129
▁January	-9.67183
▁overall	-9.67189
▁station	-9.67217
▁schools	-9.67271
▁Jesus	-9.67308
▁Get	-9.67319
▁secure	-9.67335
ens	-9.67469
pt	-9.67477
str	-9.67486
▁Why	-9.67487
▁China	-9.67501
▁awesome	-9.67595
▁force	-9.6776
▁numbers	-9.6779
▁mention	-9.67821
qu	-9.67868
▁du	-9.67889
▁Pre	-9.67968
ack	-9.67985
▁evening	-9.67992
▁double	-9.68012
ng	-9.68019
▁ride	-9.68077
cy	-9.68129
▁cat	-9.68192
▁ideal	-9.68358
▁enter	-9.68429
mail	-9.68474
▁active	-9.68491
▁economy	-9.68594
pm	-9.68653
▁suggest	-9.68657
▁imagine	-9.68746
▁girls	-9.6879
▁unless	-9.68795
▁maintain	-9.68807
▁bottom	-9.6881
ned	-9.68825
▁Je	-9.68827
▁capital	-9.68831
▁October	-9.68844
▁Department	-9.6892
▁ones	-9.68945
▁Ja	-9.68958
▁excited	-9.68966
▁seemed	-9.69055
ec	-9.69058
▁com	-9.69142
▁dry	-9.69183
▁technical	-9.69291
▁Dis	-9.69383
ins	-9.695
▁bought	-9.69541
▁shown	-9.6972
▁Trump	-9.69756
▁unit	-9.69838
▁movement	-9.69845
▁rule	-9.699
15	-9.70074
rk	-9.70117
▁prior	-9.70145
▁degree	-9.70155
ran	-9.70168
”.	-9.70199
▁pa	-9.70282
▁November	-9.70331
▁church	-9.70333
▁See	-9.70405
▁repair	-9.70416
▁finished	-9.70478
▁busy	-9.70513
▁explore	-9.70714
▁bi	-9.70806
▁perform	-9.70811
▁Gu	-9.70833
▁generally	-9.70888
▁carry	-9.70907
▁sexual	-9.71009
▁spread	-9.71038
not	-9.71039
▁Art	-9.71084
▁nu	-9.71099
▁fill	-9.71119
▁increased	-9.71128
▁brother	-9.71143
▁platform	-9.71195
▁scene	-9.71228
▁realize	-9.7126
IN	-9.7138
▁mission	-9.71382
▁dress	-9.71383
ator	-9.71471
▁totally	-9.7152
▁putting	-9.71558
▁posted	-9.71571
▁Sp	-9.71592
▁spending	-9.71648
▁supply	-9.71657
▁60	-9.71662
▁feed	-9.71718
▁biggest	-9.71845
aw	-9.71921
▁greater	-9.71921
▁workers	-9.71937
▁shared	-9.72082
▁Over	-9.72135
▁advance	-9.72172
▁cu	-9.72199
so	-9.72245
▁efforts	-9.7227
▁Per	-9.72432
▁conference	-9.72462
gi	-9.72679
▁waste	-9.72686
▁alternative	-9.72725
▁handle	-9.72772
▁kid	-9.72805
▁critical	-9.72869
ric	-9.72875
▁pe	-9.72935
▁background	-9.7296
bit	-9.72971
▁Y	-9.73045
▁passed	-9.7306
ham	-9.73118
▁jump	-9.73143
▁clearly	-9.73176
▁train	-9.7319
▁military	-9.73225
rate	-9.73238
ants	-9.73238
room	-9.73261
▁annual	-9.73425
▁rain	-9.73425
▁eight	-9.73425
▁states	-9.73516
▁generation	-9.73539
ook	-9.73616
▁fantastic	-9.73662
▁influence	-9.73718
▁letter	-9.73769
▁eating	-9.73787
vent	-9.73912
▁construction	-9.74006
▁mix	-9.74015
▁balance	-9.74046
▁wind	-9.74112
▁worse	-9.74136
▁lovely	-9.74137
▁actual	-9.7423
j	-9.74248
▁Ju	-9.743
▁minute	-9.74309
▁update	-9.7435
all	-9.74488
uck	-9.74602
▁led	-9.7467
tu	-9.7484
▁Hu	-9.74871
▁Use	-9.74891
▁expensive	-9.74906
▁wine	-9.74949
▁whose	-9.7503
▁ship	-9.75039
▁buying	-9.7507
▁communication	-9.75209
▁thoughts	-9.75259
▁2013	-9.75354
▁gun	-9.75397
art	-9.75403
▁Last	-9.75599
+	-9.75733
▁Any	-9.75746
▁fish	-9.75752
▁Un	-9.75755
▁Home	-9.75779
serv	-9.75819
▁2012	-9.75821
av	-9.75845
rt	-9.7586
▁sad	-9.75862
▁fat	-9.75896
▁window	-9.75935
▁www	-9.76052
▁identify	-9.76061
▁draw	-9.76066
▁asking	-9.76119
▁Europe	-9.76197
ren	-9.76222
▁reports	-9.7626
▁official	-9.76357
well	-9.7637
org	-9.76391
▁East	-9.76402
▁European	-9.7646
▁promote	-9.7654
▁election	-9.76561
ify	-9.76582
▁Check	-9.76611
ps	-9.7662
▁protection	-9.7671
▁discover	-9.76766
bs	-9.76832
▁print	-9.7686
▁ob	-9.76894
▁sorry	-9.77011
▁London	-9.77185
ES	-9.77188
▁wa	-9.77197
▁drink	-9.77208
▁department	-9.77247
▁comfort	-9.77312
▁prefer	-9.77345
▁seek	-9.77409
If	-9.77441
wn	-9.77444
cing	-9.77469
▁existing	-9.77519
▁Click	-9.77619
▁debt	-9.77683
_	-9.7775
▁mom	-9.7776
▁farm	-9.77788
▁behavior	-9.77794
▁gr	-9.77844
▁cards	-9.77925
▁street	-9.77945
▁winter	-9.78014
ash	-9.78027
11	-9.7809
▁walking	-9.78112
sis	-9.7812
▁boy	-9.78294
▁becoming	-9.78294
▁federal	-9.78377
▁respond	-9.78381
▁strength	-9.78402
ING	-9.7842
▁wall	-9.78504
▁August	-9.78599
▁teaching	-9.78637
▁collect	-9.78661
*	-9.78808
▁para	-9.78813
▁miss	-9.78853
No	-9.79028
tan	-9.79034
▁load	-9.79038
▁flow	-9.79045
▁map	-9.79104
▁tea	-9.79123
low	-9.79192
pping	-9.79333
▁died	-9.79348
▁California	-9.79399
ult	-9.79412
▁otherwise	-9.79569
▁challenges	-9.79574
▁concept	-9.79613
▁delivery	-9.79692
▁competition	-9.79775
▁leaders	-9.79816
▁covered	-9.79842
▁shopping	-9.79914
▁ha	-9.79996
▁born	-9.80014
▁install	-9.80026
▁Du	-9.80106
▁prepared	-9.80113
▁president	-9.80167
▁selection	-9.80181
▁En	-9.80227
▁agreement	-9.80274
wa	-9.80286
▁album	-9.80287
nu	-9.80298
▁Keep	-9.80314
▁soft	-9.80319
▁thousands	-9.80411
▁determine	-9.80411
part	-9.80552
▁smart	-9.80562
▁pages	-9.80587
▁relevant	-9.80702
▁Another	-9.80778
▁ran	-9.80814
▁Che	-9.81076
▁document	-9.81128
▁completed	-9.81137
▁applications	-9.81261
▁Mu	-9.81315
▁leaving	-9.81318
▁reflect	-9.81487
▁County	-9.81543
▁session	-9.81556
▁raise	-9.81616
len	-9.81628
▁Ar	-9.81639
▁22	-9.81699
▁plus	-9.81707
▁sha	-9.81727
▁parties	-9.81735
▁fruit	-9.81754
▁Col	-9.81778
▁cent	-9.81785
ound	-9.8181
▁studies	-9.8182
ai	-9.81884
▁crime	-9.81942
▁honest	-9.81962
▁sh	-9.81967
▁analysis	-9.81996
▁meant	-9.82068
▁corner	-9.82087
▁roll	-9.82092
▁fans	-9.82098
▁quiet	-9.82105
▁sitting	-9.82139
▁aim	-9.8215
▁App	-9.82204
▁rise	-9.82256
▁drug	-9.82294
▁bag	-9.82375
▁lunch	-9.824
▁rich	-9.82434
gra	-9.82512
▁judge	-9.82549
▁na	-9.82591
za	-9.82607
▁cell	-9.8263
▁reference	-9.82643
▁hurt	-9.8266
▁task	-9.82817
▁conversation	-9.82869
▁quarter	-9.82906
▁master	-9.82926
▁auto	-9.82944
▁negative	-9.82971
▁Whether	-9.82988
▁developing	-9.83033
▁opening	-9.83114
▁requires	-9.83159
?"	-9.83177
--	-9.83197
▁sa	-9.83461
▁Christian	-9.83547
cu	-9.83751
▁Other	-9.83763
tern	-9.83772
▁smile	-9.83788
▁pieces	-9.84142
▁changing	-9.84155
▁remove	-9.84161
▁wood	-9.8424
▁characters	-9.843
▁pack	-9.84314
ED	-9.84324
▁independent	-9.84329
▁larger	-9.84367
▁followed	-9.84383
▁peace	-9.84407
▁proud	-9.84489
▁meaning	-9.84541
▁hate	-9.84622
▁organizations	-9.84635
▁rent	-9.84679
▁tough	-9.84688
▁International	-9.84712
▁devices	-9.8476
bl	-9.84805
▁announced	-9.84923
▁exciting	-9.84986
▁desire	-9.84996
▁pen	-9.85032
▁score	-9.85099
ification	-9.85104
▁episode	-9.85203
▁Those	-9.85215
▁Christ	-9.85236
▁owner	-9.85258
new	-9.85263
▁connection	-9.85289
▁fee	-9.85329
▁estate	-9.8538
ina	-9.85505
par	-9.8566
▁associated	-9.85676
AR	-9.85863
▁pair	-9.85922
ets	-9.86038
▁Gra	-9.86039
▁appears	-9.86076
▁During	-9.86142
OR	-9.86215
▁temperature	-9.86216
▁apartment	-9.86287
▁sports	-9.86303
▁adding	-9.86452
AN	-9.86482
pl	-9.86482
▁caused	-9.86512
▁sister	-9.86531
▁Ki	-9.86707
sp	-9.86726
▁communities	-9.86857
▁restaurant	-9.87148
▁links	-9.87151
▁adjust	-9.87176
▁award	-9.87228
▁toward	-9.87231
ery	-9.87262
▁owners	-9.87282
▁majority	-9.87288
▁Pe	-9.87298
ose	-9.87311
▁survey	-9.87315
▁Ri	-9.87338
spect	-9.87351
▁largest	-9.87432
▁compared	-9.87441
▁vision	-9.87494
▁Jo	-9.87565
▁detail	-9.87612
▁Bi	-9.87668
▁ourselves	-9.87714
▁0	-9.87759
▁Will	-9.87765
▁managed	-9.87894
▁views	-9.87974
▁therefore	-9.88036
▁$2	-9.88043
ically	-9.88054
▁facilities	-9.8809
▁seat	-9.88094
▁onto	-9.88099
▁lines	-9.88111
▁ro	-9.8818
▁decisions	-9.88189
▁snow	-9.88246
▁foreign	-9.88248
bar	-9.88279
▁server	-9.88384
▁heavy	-9.88427
▁Har	-9.88493
▁standards	-9.88554
▁transfer	-9.8859
▁Council	-9.88591
▁exist	-9.88687
▁trial	-9.88725
▁practical	-9.88743
!!	-9.88781
mate	-9.88785
sive	-9.88904
▁highest	-9.88967
und	-9.89015
▁continued	-9.89023
tric	-9.89033
▁beach	-9.89082
▁Canada	-9.89132
▁hearing	-9.89184
▁ended	-9.89194
40	-9.89208
IT	-9.89218
top	-9.89226
▁served	-9.89345
car	-9.89392
clu	-9.89499
▁surface	-9.89587
struct	-9.89684
ass	-9.89685
▁Black	-9.89713
12	-9.89745
fin	-9.89775
down	-9.89786
▁teams	-9.89887
▁ice	-9.90007
▁cup	-9.90009
▁wi	-9.90051
amp	-9.90102
▁experiences	-9.90148
▁factors	-9.90231
▁emotional	-9.90267
▁Fe	-9.90439
There	-9.90464
▁chair	-9.90485
▁fo	-9.9056
▁Life	-9.9059
▁profit	-9.90601
▁proper	-9.9063
▁engine	-9.90646
▁h	-9.90713
▁cheap	-9.90753
▁willing	-9.90784
▁visitors	-9.9081
▁die	-9.90845
▁nor	-9.90904
▁Right	-9.90944
free	-9.9096
▁bright	-9.90982
▁operate	-9.90987
▁flat	-9.90999
ome	-9.91032
▁Look	-9.91103
▁ti	-9.91109
▁retail	-9.91145
▁regard	-9.91188
ute	-9.9135
99	-9.91373
▁length	-9.91391
▁classes	-9.91403
▁India	-9.91403
▁status	-9.91413
house	-9.91443
read	-9.91469
▁2010	-9.91515
▁colour	-9.91546
istic	-9.91581
▁supposed	-9.91686
cor	-9.9169
▁kick	-9.91751
▁teach	-9.91809
▁relationships	-9.91848
▁Are	-9.91927
▁articles	-9.91936
▁methods	-9.9194
▁mail	-9.9197
▁showing	-9.92039
▁selling	-9.92042
▁cap	-9.92047
Re	-9.92053
▁memory	-9.92089
▁anywhere	-9.92098
ture	-9.921
▁spring	-9.92144
▁crowd	-9.92159
▁coverage	-9.92167
▁exchange	-9.92177
▁flight	-9.92185
▁driver	-9.92233
AL	-9.92263
▁opened	-9.92336
▁mostly	-9.92351
▁fund	-9.92375
▁:	-9.92385
cus	-9.92392
▁struggle	-9.92408
▁anyway	-9.92436
ney	-9.92449
▁instance	-9.92484
▁attend	-9.92505
▁entry	-9.92526
▁policies	-9.92532
▁except	-9.92538
▁Before	-9.92586
▁lu	-9.92619
▁Sometimes	-9.92625
▁5.	-9.92638
▁counter	-9.92661
▁fi	-9.9268
▁switch	-9.92733
ect	-9.9278
▁mouth	-9.92803
▁surprise	-9.92858
▁parent	-9.92878
▁Work	-9.92886
▁Tra	-9.9293
she	-9.92966
▁rooms	-9.92998
▁launch	-9.9306
▁paying	-9.93075
▁Service	-9.93086
▁broad	-9.93115
▁2011	-9.93123
▁distance	-9.93156
▁abuse	-9.93223
▁da	-9.93346
▁pan	-9.93393
point	-9.93396
▁ne	-9.93412
▁assistance	-9.93488
▁senior	-9.9351
▁experts	-9.93532
▁Court	-9.93535
▁funds	-9.93543
you	-9.93558
kin	-9.93561
ix	-9.93652
▁appeal	-9.93677
▁Business	-9.938
▁videos	-9.93826
▁measure	-9.93862
cal	-9.9389
▁Cha	-9.93893
▁package	-9.93909
▁despite	-9.9393
▁beat	-9.93982
▁Who	-9.94008
lit	-9.9401
▁23	-9.94053
eg	-9.94112
▁perspective	-9.9414
▁yesterday	-9.94165
▁General	-9.94197
▁cast	-9.9432
▁Street	-9.94346
▁animals	-9.94375
▁item	-9.94426
▁established	-9.94452
ker	-9.94463
▁battle	-9.94489
▁guests	-9.94517
▁enable	-9.94552
▁sugar	-9.94591
▁solid	-9.94763
25	-9.94823
▁discovered	-9.94952
hu	-9.95022
▁pull	-9.95036
▁possibly	-9.95057
▁calls	-9.95097
sure	-9.95101
▁NOT	-9.95103
▁trick	-9.95157
▁killed	-9.95252
▁Bu	-9.95304
▁Very	-9.95362
▁teacher	-9.95386
▁minimum	-9.95422
▁files	-9.95434
can	-9.95479
▁glass	-9.95506
▁feedback	-9.95515
list	-9.95607
▁residents	-9.95709
▁climate	-9.95731
▁shift	-9.95736
▁recipe	-9.9575
▁programme	-9.95913
▁environmental	-9.95951
▁tree	-9.95956
▁Bill	-9.96011
▁dedicated	-9.96071
▁expert	-9.9609
net	-9.96164
▁listed	-9.96235
▁dig	-9.96266
▁bike	-9.96281
▁filled	-9.9635
ev	-9.96354
▁properly	-9.96361
▁White	-9.96515
▁closed	-9.96558
▁Tri	-9.96574
▁novel	-9.9665
▁Sha	-9.96662
▁manner	-9.96739
▁eventually	-9.9674
▁Washington	-9.96746
gen	-9.96751
▁route	-9.96809
▁enhance	-9.96823
▁claims	-9.96824
▁Tuesday	-9.96831
▁mar	-9.96963
IS	-9.96978
ming	-9.96996
set	-9.97003
▁x	-9.97017
app	-9.97077
▁knows	-9.97168
▁Year	-9.97249
▁Lord	-9.97258
▁fuel	-9.97291
hy	-9.9735
ax	-9.97375
▁fashion	-9.9739
▁profile	-9.974
▁missing	-9.97414
ky	-9.97434
▁commitment	-9.97467
▁leader	-9.9747
▁Thursday	-9.97646
▁responsibility	-9.9778
▁Their	-9.97851
▁centre	-9.97863
ory	-9.97868
gar	-9.97872
▁faith	-9.97985
ians	-9.97998
▁sat	-9.98021
▁menu	-9.98072
▁century	-9.98105
▁happening	-9.98144
▁solve	-9.9821
▁discount	-9.98214
▁manager	-9.9824
▁described	-9.98252
▁Out	-9.9828
▁concerns	-9.98294
▁primary	-9.9833
▁surprised	-9.98474
What	-9.98491
▁tro	-9.98509
▁Obama	-9.98534
▁raised	-9.98535
▁funding	-9.98546
▁cars	-9.98576
own	-9.98586
▁folks	-9.9862
▁assume	-9.98763
ja	-9.98845
▁promise	-9.98855
▁Em	-9.98867
▁stopped	-9.98942
▁Te	-9.98948
ters	-9.98981
▁smaller	-9.99025
▁Comp	-9.9904
ising	-9.99115
ana	-9.99127
▁readers	-9.99129
▁tomorrow	-9.992
▁breakfast	-9.99208
▁arm	-9.99281
▁focused	-9.99308
▁participate	-9.99341
▁professionals	-9.99409
▁bedroom	-9.99415
ware	-9.99434
air	-9.9951
▁threat	-9.99518
▁teachers	-9.99568
▁argument	-9.99629
▁obtain	-9.99689
▁celebrate	-9.99717
▁caught	-9.9973
▁theme	-9.99774
▁birthday	-9.99835
▁female	-9.99851
▁brief	-9.99869
▁reward	-9.99922
!)	-9.99992
▁log	-10.0004
▁Sam	-10.0005
▁boat	-10.0011
lea	-10.0013
▁injury	-10.0014
▁Only	-10.0023
▁craft	-10.0028
▁Australia	-10.0029
▁familiar	-10.0031
▁push	-10.0035
▁edge	-10.0039
▁scale	-10.0039
▁ge	-10.0043
▁loan	-10.0047
ew	-10.0049
▁David	-10.005
▁dance	-10.005
▁kill	-10.005
▁remains	-10.0052
▁feels	-10.0053
▁shut	-10.006
▁valuable	-10.0061
▁Paul	-10.0066
▁committed	-10.0075
▁concerned	-10.0076
▁telling	-10.0077
▁actions	-10.0098
▁February	-10.0107
▁storage	-10.0109
▁Ed	-10.0109
EN	-10.0113
▁birth	-10.0114
▁smooth	-10.0122
▁adult	-10.0123
▁j	-10.0125
▁calling	-10.0129
sta	-10.013
▁harm	-10.0132
▁Note	-10.0134
▁visual	-10.0136
lt	-10.014
▁cream	-10.0141
▁format	-10.0144
▁agency	-10.0145
▁£	-10.015
▁stream	-10.0155
▁describe	-10.0157
▁combination	-10.0164
▁ver	-10.0166
cur	-10.0166
cra	-10.0167
▁afternoon	-10.0168
▁techniques	-10.0169
▁Two	-10.017
▁insight	-10.0178
▁Twitter	-10.0181
▁reached	-10.0181
▁tra	-10.0181
see	-10.0182
▁highlight	-10.0183
5%	-10.0183
▁Apple	-10.0185
16	-10.0192
▁Add	-10.0192
▁bathroom	-10.0208
IC	-10.0208
17	-10.0209
▁central	-10.0209
▁outdoor	-10.0209
:00	-10.021
▁marriage	-10.0216
▁initial	-10.022
▁presentation	-10.0222
▁Ni	-10.0223
cul	-10.0228
▁Find	-10.023
▁dating	-10.0234
▁placed	-10.0236
▁bottle	-10.0239
des	-10.0239
▁increasing	-10.0265
▁Wednesday	-10.0268
which	-10.0268
▁Plan	-10.0271
▁dollars	-10.0283
ell	-10.0287
▁prepare	-10.029
▁beauty	-10.0293
▁fa	-10.0299
▁honor	-10.0304
nes	-10.0305
▁failure	-10.0307
▁spirit	-10.0307
▁Si	-10.0307
▁Da	-10.031
jo	-10.031
▁holding	-10.031
▁reviews	-10.0318
▁Free	-10.0327
▁Red	-10.0327
▁symptoms	-10.0333
ong	-10.0335
▁slightly	-10.034
▁chat	-10.0345
▁pal	-10.0348
▁Office	-10.0348
▁laws	-10.0355
▁testing	-10.0358
▁knowing	-10.0359
▁rental	-10.036
▁Government	-10.0366
▁28	-10.0369
ole	-10.0372
▁https	-10.0372
▁throw	-10.0378
▁adults	-10.0392
▁obvious	-10.0392
▁lived	-10.0395
▁depending	-10.0399
▁horse	-10.0406
▁sources	-10.0413
▁noticed	-10.0414
▁Lu	-10.0436
▁funny	-10.0441
▁recommended	-10.0441
vis	-10.0443
ST	-10.0446
head	-10.045
▁British	-10.0462
▁confidence	-10.0462
hop	-10.0468
▁26	-10.0469
nn	-10.047
▁quote	-10.048
lk	-10.0483
▁gold	-10.0484
▁considering	-10.0485
▁Group	-10.0492
▁seriously	-10.0498
▁academic	-10.0502
▁showed	-10.0508
▁Instead	-10.0513
rain	-10.0514
▁criminal	-10.0515
▁l	-10.052
▁revenue	-10.0525
ray	-10.0525
uk	-10.0526
▁mountain	-10.0531
▁leadership	-10.0532
▁aid	-10.0532
▁Book	-10.0532
▁$3	-10.0533
ties	-10.0538
▁truck	-10.054
18	-10.0543
lock	-10.0546
▁bear	-10.0547
fo	-10.055
▁Law	-10.0559
▁appointment	-10.0566
▁mass	-10.057
▁classic	-10.0573
ON	-10.0573
▁values	-10.0575
▁panel	-10.0575
14	-10.0592
▁hoping	-10.0592
ular	-10.0593
:30	-10.0597
ette	-10.0598
That	-10.0603
▁grade	-10.0604
▁standing	-10.0608
▁thread	-10.061
▁fees	-10.0613
▁luck	-10.0617
▁Yeah	-10.0622
▁practices	-10.0628
▁express	-10.0631
▁Air	-10.0637
▁radio	-10.0648
ign	-10.0648
▁al	-10.0652
ns	-10.0655
01	-10.0655
▁bigger	-10.0659
▁becomes	-10.066
Z	-10.066
▁accurate	-10.0662
▁Web	-10.0666
▁factor	-10.0668
▁Mac	-10.0669
▁ear	-10.067
▁mode	-10.0672
hood	-10.0672
▁command	-10.0673
▁corporate	-10.0675
▁Green	-10.0676
▁fail	-10.0677
▁emergency	-10.068
ld	-10.0682
▁leg	-10.0683
▁prove	-10.069
▁names	-10.0695
uring	-10.0698
▁Time	-10.0698
▁Ru	-10.0699
▁crazy	-10.0703
lum	-10.0704
▁documents	-10.0709
ency	-10.0714
▁burn	-10.0718
▁laugh	-10.0727
spir	-10.0735
▁elements	-10.074
▁visiting	-10.0742
▁conduct	-10.0746
▁King	-10.0752
▁missed	-10.0754
▁mi	-10.0755
▁concern	-10.0756
é	-10.0758
▁arrived	-10.0758
▁meal	-10.0759
▁investigation	-10.0764
▁married	-10.0773
▁speaking	-10.0779
pre	-10.0779
▁electronic	-10.0779
▁IT	-10.0781
fully	-10.079
lor	-10.0791
▁numerous	-10.0792
▁90	-10.0797
▁forms	-10.0807
▁approximately	-10.0838
▁breath	-10.0842
▁tight	-10.0844
▁wo	-10.0844
▁operating	-10.0858
ya	-10.0866
▁sick	-10.0873
▁su	-10.0878
▁earth	-10.0883
▁sal	-10.0885
▁usual	-10.0887
ane	-10.0897
mber	-10.0899
▁experiment	-10.09
▁cook	-10.0903
▁refer	-10.0912
play	-10.0913
But	-10.093
fer	-10.0937
▁forum	-10.0939
▁civil	-10.0943
▁27	-10.0945
ced	-10.0946
▁publish	-10.0951
cess	-10.0955
▁operations	-10.0955
▁efficient	-10.0961
▁rid	-10.0973
▁decades	-10.0974
▁continues	-10.0982
▁deserve	-10.0994
▁graduate	-10.0997
▁football	-10.1
▁frame	-10.1001
gue	-10.1003
▁thus	-10.1004
▁officials	-10.1008
▁Unfortunately	-10.1009
how	-10.102
▁Under	-10.1022
ination	-10.1026
1.	-10.103
▁cloud	-10.1031
▁prison	-10.1038
▁presence	-10.1038
▁Super	-10.105
▁cleaning	-10.1053
cho	-10.1056
▁joy	-10.1063
▁Having	-10.1068
▁somewhere	-10.1074
▁talent	-10.1074
▁ring	-10.1078
▁invest	-10.1082
field	-10.1085
▁1,	-10.1086
ates	-10.1086
▁capacity	-10.1087
med	-10.1088
▁famous	-10.1091
▁maintenance	-10.1102
▁valid	-10.1104
▁models	-10.1106
▁adventure	-10.1107
▁personally	-10.1109
▁importance	-10.1112
▁TO	-10.1118
mic	-10.1119
▁ste	-10.1122
▁returned	-10.1125
▁sight	-10.1126
▁homes	-10.1127
▁suspect	-10.113
▁par	-10.113
▁dangerous	-10.1133
▁Services	-10.1135
▁strategies	-10.114
▁cities	-10.1151
▁paint	-10.1153
▁>	-10.1155
▁Church	-10.1156
▁freedom	-10.1157
▁male	-10.1161
▁vacation	-10.1162
▁opt	-10.1166
▁French	-10.1172
▁guarantee	-10.1177
▁Trans	-10.1178
rie	-10.1179
▁island	-10.1184
▁label	-10.1186
▁shoot	-10.119
▁attract	-10.1191
log	-10.1198
▁incident	-10.1201
box	-10.1203
▁fell	-10.1205
▁rep	-10.1207
▁metal	-10.1213
▁sample	-10.1216
▁cons	-10.1221
vers	-10.1222
▁twice	-10.1227
▁records	-10.1229
lies	-10.1236
▁Research	-10.1253
13	-10.1258
▁mess	-10.1261
▁faster	-10.1264
▁blow	-10.1266
▁cheese	-10.1272
▁alcohol	-10.1276
▁administration	-10.1279
▁dogs	-10.1281
▁employee	-10.1281
▁sentence	-10.1281
▁broken	-10.129
▁str	-10.1293
▁lift	-10.1295
▁internal	-10.1299
han	-10.1305
ons	-10.1311
iff	-10.1314
▁sn	-10.1318
▁violence	-10.1323
▁parking	-10.1324
▁Africa	-10.1335
▁executive	-10.1341
▁Though	-10.1344
du	-10.1352
▁net	-10.136
▁represent	-10.1362
▁speech	-10.1362
▁detailed	-10.1375
▁Big	-10.1379
▁presented	-10.138
▁Star	-10.1381
▁flu	-10.1383
▁named	-10.139
▁31	-10.1394
▁worst	-10.1395
▁70	-10.1398
▁competitive	-10.1399
▁2008	-10.14
▁adapt	-10.1401
▁n	-10.1407
▁Board	-10.141
▁circumstances	-10.1412
▁essay	-10.1413
▁consumers	-10.1422
▁starts	-10.1441
▁passion	-10.1442
▁Americans	-10.1447
▁hat	-10.1452
▁plants	-10.1457
▁connected	-10.1466
ID	-10.1466
▁hundreds	-10.1467
▁admit	-10.1469
hand	-10.147
▁impossible	-10.147
▁2009	-10.1471
▁seconds	-10.1472
▁core	-10.1479
▁80	-10.1481
And	-10.1482
▁Bank	-10.1487
▁Play	-10.1487
▁picked	-10.1489
▁produced	-10.1491
▁surgery	-10.1492
▁colors	-10.1494
▁soul	-10.1496
▁belief	-10.1502
▁Mc	-10.1503
▁conflict	-10.1505
▁whom	-10.1505
▁RE	-10.1505
80	-10.1509
▁Part	-10.1516
mar	-10.1516
yn	-10.1518
▁roof	-10.1521
▁closer	-10.1521
lly	-10.1522
▁pot	-10.1529
▁indeed	-10.1534
▁photograph	-10.1537
▁object	-10.1538
ological	-10.154
▁choices	-10.1541
▁Tom	-10.1541
▁Both	-10.1542
▁advertising	-10.1542
ject	-10.1544
▁boys	-10.1547
▁pleasure	-10.1549
▁delicious	-10.155
graph	-10.155
60	-10.1555
▁hell	-10.156
▁spin	-10.156
▁root	-10.1563
▁chicken	-10.1568
▁description	-10.1578
▁aspects	-10.1582
RA	-10.1583
LE	-10.1586
▁typically	-10.1592
▁herself	-10.1592
tru	-10.16
▁shock	-10.1601
▁housing	-10.1605
word	-10.1606
▁shouldn	-10.1609
▁meat	-10.1611
▁Call	-10.1612
▁regularly	-10.1614
east	-10.1619
su	-10.1624
▁Cu	-10.1629
▁massive	-10.163
▁incredible	-10.1633
▁entirely	-10.1634
▁spoke	-10.1634
some	-10.1635
▁processes	-10.1638
▁animal	-10.1641
▁none	-10.1642
US	-10.1643
▁ingredients	-10.1649
▁constantly	-10.1651
They	-10.1651
▁clothes	-10.1669
▁medicine	-10.1683
▁Social	-10.1687
▁lay	-10.1689
▁objective	-10.1693
>	-10.1694
▁tri	-10.1702
▁seeking	-10.1703
gy	-10.1705
▁anymore	-10.1707
▁writer	-10.1711
▁100%	-10.1718
▁sw	-10.1721
▁Ser	-10.1724
▁bringing	-10.1726
ju	-10.1728
▁debate	-10.1733
▁updated	-10.1736
▁routine	-10.1737
▁appearance	-10.1738
▁Indian	-10.1751
▁Gi	-10.1756
▁specifically	-10.1757
▁operation	-10.1761
▁contains	-10.1761
▁Where	-10.1765
▁Post	-10.1766
▁Inc	-10.1767
▁Still	-10.1776
▁agreed	-10.178
▁reserve	-10.1782
▁signed	-10.1786
▁drugs	-10.1787
▁cultural	-10.1792
▁mini	-10.1792
▁register	-10.1796
▁square	-10.1797
har	-10.1797
▁earn	-10.1797
▁ill	-10.1798
▁plastic	-10.18
▁reasonable	-10.1803
▁sport	-10.1803
▁fe	-10.1806
▁Commission	-10.1806
▁attorney	-10.181
▁forced	-10.181
mal	-10.182
▁reveal	-10.184
▁context	-10.1853
▁afraid	-10.1855
▁hole	-10.1859
▁artist	-10.1859
▁fellow	-10.1862
▁boost	-10.1864
SA	-10.1867
▁6.	-10.1867
▁odd	-10.1867
▁posting	-10.1868
▁Program	-10.187
▁wearing	-10.1875
▁websites	-10.1879
▁Ben	-10.1891
▁intended	-10.1895
wo	-10.1898
▁partners	-10.1904
pen	-10.1912
▁greatest	-10.1914
▁removed	-10.192
ators	-10.1921
▁Ab	-10.1926
▁afford	-10.1927
▁nine	-10.1929
▁detect	-10.193
▁allowing	-10.193
!!!	-10.1932
▁dad	-10.1937
▁trees	-10.1938
▁wild	-10.1939
oke	-10.1942
▁stated	-10.1945
▁affordable	-10.197
ient	-10.1971
ob	-10.1974
▁facility	-10.1977
rated	-10.1979
▁pleased	-10.1985
ony	-10.1999
▁songs	-10.2008
▁Best	-10.2009
▁license	-10.2017
▁painting	-10.2018
▁Ti	-10.2019
▁signs	-10.2021
▁volume	-10.2038
▁delay	-10.204
▁lucky	-10.2043
ox	-10.2044
ung	-10.2054
▁failed	-10.2061
cept	-10.2061
▁Los	-10.2064
▁chemical	-10.2065
▁previously	-10.2066
▁village	-10.2069
▁skill	-10.2069
▁monitor	-10.2071
▁purposes	-10.2071
▁transport	-10.2082
▁district	-10.2083
▁educational	-10.2093
▁reaction	-10.2093
ident	-10.2099
ace	-10.2102
▁dealing	-10.2102
▁wave	-10.2114
bling	-10.2121
▁perfectly	-10.2123
PS	-10.2123
▁surrounding	-10.2123
▁200	-10.2126
▁remind	-10.2127
▁occasion	-10.2128
▁liked	-10.2128
▁initiative	-10.2129
▁bra	-10.213
round	-10.2131
▁movies	-10.214
▁England	-10.2141
run	-10.2142
▁College	-10.2144
met	-10.2145
▁markets	-10.215
▁Chinese	-10.2154
▁cake	-10.2158
ched	-10.2165
▁inspiration	-10.2172
AC	-10.2175
▁Education	-10.2176
▁properties	-10.2181
▁obviously	-10.2184
▁winner	-10.2191
▁murder	-10.2193
▁finance	-10.2197
az	-10.2201
▁answers	-10.221
▁severe	-10.2218
▁advanced	-10.2226
▁pla	-10.2226
▁privacy	-10.2232
▁lock	-10.2233
▁establish	-10.2234
▁university	-10.2241
▁accounts	-10.2253
vel	-10.2255
▁cute	-10.2268
▁expertise	-10.2268
▁fairly	-10.2269
▁hi	-10.2271
▁Michael	-10.2275
sha	-10.2279
▁explained	-10.228
ches	-10.2281
▁medication	-10.2282
▁mistake	-10.2288
▁chain	-10.229
▁James	-10.2291
▁applied	-10.2291
▁grant	-10.2293
▁measures	-10.2295
▁guest	-10.2296
▁planned	-10.2299
▁walked	-10.2305
ade	-10.2305
▁carried	-10.231
▁micro	-10.231
▁Open	-10.2317
▁recognize	-10.2319
▁lifestyle	-10.2321
cut	-10.2332
▁Which	-10.2332
▁kit	-10.2334
▁winning	-10.2334
▁destination	-10.2335
▁Amazon	-10.2338
▁medium	-10.234
▁arrive	-10.2346
▁chart	-10.2346
▁consumer	-10.235
▁selected	-10.235
▁Inter	-10.2351
wer	-10.2351
▁motor	-10.2352
▁searching	-10.2352
▁treated	-10.2352
dis	-10.2354
▁magazine	-10.2357
ans	-10.2358
▁brings	-10.236
▁chapter	-10.2361
▁vehicles	-10.2363
bal	-10.237
star	-10.2373
qua	-10.2378
▁planet	-10.2386
▁milk	-10.2387
cer	-10.2389
▁agencies	-10.2391
ttle	-10.2393
▁serving	-10.2394
nny	-10.2397
cha	-10.2398
ock	-10.2403
▁monthly	-10.2403
▁stretch	-10.2403
q	-10.2405
▁salt	-10.2406
site	-10.2408
▁hasn	-10.2417
▁relax	-10.242
-1	-10.2425
▁apart	-10.2427
▁error	-10.2429
▁Congress	-10.243
▁stone	-10.2438
▁charges	-10.2444
▁$4	-10.2448
▁Perhaps	-10.2453
Co	-10.2461
▁effectively	-10.2462
▁Ste	-10.2466
▁assessment	-10.2472
▁Up	-10.2472
▁library	-10.2475
▁interests	-10.2479
▁religious	-10.2481
▁proposal	-10.2485
▁matters	-10.2488
▁artists	-10.2498
▁stores	-10.2503
with	-10.2509
▁tag	-10.2518
lon	-10.2536
▁restaurants	-10.2537
▁maximum	-10.2542
▁promotion	-10.2547
▁predict	-10.2553
▁coast	-10.2553
▁Windows	-10.2556
tive	-10.2557
▁grown	-10.2561
ied	-10.2564
▁affected	-10.2567
▁coach	-10.2568
ea	-10.2569
▁creation	-10.2569
▁29	-10.257
▁Mark	-10.2576
▁depend	-10.258
▁wealth	-10.2586
pon	-10.2588
▁turns	-10.259
are	-10.2592
▁leaves	-10.26
▁bin	-10.2607
▁Try	-10.2608
▁inform	-10.2609
▁occur	-10.2609
▁fixed	-10.2611
▁Tu	-10.2612
▁television	-10.2613
▁cycle	-10.2615
▁Earth	-10.2618
▁realized	-10.2622
▁losing	-10.2627
▁vital	-10.2631
▁min	-10.2632
▁encounter	-10.2633
uch	-10.2638
▁browser	-10.264
▁employment	-10.2648
▁resource	-10.2653
▁wondering	-10.2657
▁leads	-10.2658
▁extensive	-10.266
▁provider	-10.266
fl	-10.2661
......	-10.2663
clo	-10.2671
▁foods	-10.2672
ek	-10.2673
▁intention	-10.2679
▁Sch	-10.2682
mark	-10.2685
matic	-10.2688
law	-10.2689
▁relatively	-10.2695
▁rare	-10.2698
▁Sub	-10.2699
▁turning	-10.2702
▁$	-10.2706
ok	-10.2707
▁comprehensive	-10.2708
▁therapy	-10.2718
▁south	-10.272
▁Gr	-10.272
vid	-10.2725
▁Care	-10.2727
ford	-10.2727
lf	-10.2729
▁grand	-10.2731
▁crisis	-10.2735
▁graphic	-10.2736
▁accepted	-10.2737
▁carefully	-10.2739
▁AND	-10.274
care	-10.2743
▁cru	-10.2743
▁contain	-10.2752
aries	-10.2754
ulation	-10.2754
▁submit	-10.2757
▁Start	-10.2765
▁technologies	-10.2767
▁runs	-10.2768
related	-10.2769
▁equal	-10.2774
▁Association	-10.2777
▁trail	-10.2782
2.	-10.2782
ville	-10.2782
▁updates	-10.2788
▁neighborhood	-10.28
▁va	-10.281
▁bunch	-10.281
▁installation	-10.2812
▁trend	-10.2821
▁Back	-10.2827
▁north	-10.2832
wood	-10.2833
▁participants	-10.2838
rant	-10.2842
▁argue	-10.2846
▁favor	-10.2848
▁Director	-10.285
▁Shi	-10.2851
▁Club	-10.2853
▁35	-10.2854
▁listening	-10.2855
▁expectations	-10.2856
▁exact	-10.2864
rist	-10.2864
▁guard	-10.2864
▁witness	-10.2866
Ma	-10.2873
▁Va	-10.2874
▁hang	-10.2877
▁Florida	-10.2877
▁+	-10.2887
▁agent	-10.289
▁OF	-10.2896
.....	-10.2901
ik	-10.2903
▁layer	-10.2912
▁topics	-10.2918
▁unable	-10.2919
▁innovation	-10.292
lines	-10.2923
▁cha	-10.2928
▁situations	-10.2935
▁rev	-10.2937
▁favourite	-10.2946
▁scientific	-10.2946
▁Science	-10.2949
▁ski	-10.2957
▁foundation	-10.2968
▁delivered	-10.2969
▁spa	-10.2976
pper	-10.2984
▁awareness	-10.2985
▁upgrade	-10.2985
▁inspired	-10.2986
ened	-10.2986
▁pin	-10.2987
▁slowly	-10.2987
▁Design	-10.299
▁Remember	-10.2991
▁Men	-10.2993
▁Island	-10.2993
that	-10.2993
▁taught	-10.2995
▁Game	-10.2997
▁designer	-10.2999
▁defense	-10.3002
▁decade	-10.3003
chi	-10.3013
▁weren	-10.3019
My	-10.3025
▁crash	-10.3032
▁Dan	-10.304
▁shower	-10.3042
▁instructions	-10.3043
▁database	-10.3047
▁shoes	-10.3049
▁procedure	-10.305
▁cooking	-10.3056
▁plate	-10.3056
▁random	-10.3057
lash	-10.3058
▁gu	-10.306
▁suffer	-10.3063
▁Republican	-10.3063
just	-10.3064
▁recover	-10.3068
▁Everyone	-10.3069
▁attitude	-10.3071
ender	-10.3072
▁Texas	-10.3076
ump	-10.3076
af	-10.3078
▁sum	-10.3083
▁bond	-10.3084
ail	-10.3084
!"	-10.3086
▁household	-10.3087
▁scheme	-10.3088
▁arms	-10.309
▁registration	-10.3096
▁contribute	-10.3104
▁tail	-10.3116
▁citizens	-10.3125
▁Company	-10.3131
maker	-10.3136
▁uses	-10.3139
ese	-10.3142
▁qua	-10.3144
▁messages	-10.3145
van	-10.3148
▁specialist	-10.3152
▁fly	-10.3153
▁strange	-10.3157
ancy	-10.3158
▁Cla	-10.3161
▁causes	-10.3163
▁approved	-10.3163
▁Public	-10.3164
bel	-10.3165
▁confident	-10.3167
▁teeth	-10.3168
▁studio	-10.3169
▁infrastructure	-10.3173
▁y	-10.3174
▁recovery	-10.3176
▁Nor	-10.3179
▁belong	-10.318
ending	-10.3181
[	-10.3185
▁stuck	-10.3188
ko	-10.3194
▁Hello	-10.3194
long	-10.3197
▁everyday	-10.3201
▁basically	-10.3202
▁reliable	-10.3203
▁appeared	-10.3208
▁supporting	-10.3208
-2	-10.321
▁Next	-10.3211
▁Peter	-10.3212
▁minor	-10.3212
▁bowl	-10.3218
▁replace	-10.3219
pic	-10.3226
▁prayer	-10.3226
▁moments	-10.3227
▁tired	-10.3227
▁illness	-10.3227
▁crack	-10.3228
atic	-10.3232
table	-10.3233
▁automatically	-10.3235
▁younger	-10.3238
life	-10.324
▁bug	-10.324
night	-10.3241
ele	-10.3241
▁500	-10.3243
▁Reg	-10.3248
rri	-10.3249
▁Again	-10.3259
▁Yet	-10.326
▁engage	-10.3264
▁forever	-10.3266
sign	-10.327
▁bio	-10.3274
▁rank	-10.3274
▁survive	-10.3279
▁challenging	-10.328
▁providers	-10.3283
▁airport	-10.3287
▁border	-10.3288
ball	-10.329
▁determined	-10.3296
lam	-10.3296
▁notes	-10.3307
print	-10.3308
▁consideration	-10.3317
ris	-10.332
zz	-10.3329
▁tonight	-10.3329
19	-10.3329
▁climb	-10.333
▁units	-10.3339
▁watched	-10.334
▁hu	-10.334
▁pulled	-10.334
▁chosen	-10.3344
▁sheet	-10.3344
▁improved	-10.3344
▁sky	-10.335
▁permanent	-10.3352
▁prompt	-10.3353
▁Ac	-10.3353
▁era	-10.3356
▁provision	-10.3358
▁frequently	-10.3359
▁wheel	-10.3363
▁justice	-10.3372
▁PC	-10.3373
▁EU	-10.3377
▁Steve	-10.3378
▁IN	-10.3381
▁charged	-10.3392
AT	-10.3396
▁gear	-10.3396
▁Bur	-10.3402
▁poll	-10.3408
▁syn	-10.3409
actic	-10.3416
▁historical	-10.3416
▁vary	-10.3426
▁7.	-10.3429
▁resolution	-10.343
!”	-10.3432
▁installed	-10.3432
▁Despite	-10.3433
▁pray	-10.3437
iness	-10.3441
▁dev	-10.3443
▁grew	-10.3443
▁youth	-10.3444
rc	-10.3445
▁calm	-10.3445
SE	-10.3447
▁decor	-10.3447
path	-10.3447
▁bread	-10.3456
▁Cre	-10.3466
▁informed	-10.3466
▁suitable	-10.3466
test	-10.3468
aging	-10.3472
▁supplement	-10.3473
wing	-10.3474
▁Real	-10.3475
▁fighting	-10.3476
tom	-10.348
▁Char	-10.3484
▁script	-10.3485
▁portion	-10.3487
ivity	-10.3492
▁chocolate	-10.3496
nish	-10.3498
So	-10.3499
45	-10.3504
▁kinds	-10.3507
▁sponsor	-10.3513
apos	-10.3516
▁temp	-10.3516
▁hall	-10.3518
▁Ge	-10.3518
▁feelings	-10.3522
til	-10.3523
▁shooting	-10.3524
▁disorder	-10.3528
▁bath	-10.3532
▁officer	-10.3534
▁45	-10.3535
▁Committee	-10.3539
▁enjoying	-10.354
▁George	-10.3546
ks	-10.3547
▁shit	-10.3548
▁Mill	-10.3551
don	-10.3552
▁journal	-10.3553
▁remote	-10.3553
▁okay	-10.3563
▁locations	-10.3563
▁signal	-10.3564
▁river	-10.3569
▁Being	-10.357
CA	-10.3571
▁Sea	-10.3576
▁drivers	-10.3579
▁Management	-10.3581
▁transform	-10.3581
▁Ko	-10.3584
▁pattern	-10.3586
▁smell	-10.3588
▁cla	-10.3589
▁incredibly	-10.359
▁0.	-10.3596
▁defend	-10.3604
▁smoke	-10.3606
▁purchased	-10.3614
▁sin	-10.3623
▁strike	-10.363
▁tech	-10.3633
▁tiny	-10.3635
▁infection	-10.3637
▁gonna	-10.3638
load	-10.3646
▁receiving	-10.3646
▁partnership	-10.3653
▁storm	-10.3653
▁communicate	-10.3656
▁careful	-10.3658
▁Finally	-10.3666
▁ri	-10.3667
▁Cor	-10.3671
▁Am	-10.3672
▁commission	-10.3675
ET	-10.3676
▁den	-10.3677
▁hire	-10.3678
▁Did	-10.3681
▁introduced	-10.3681
▁indicate	-10.3686
▁Cal	-10.3689
▁joint	-10.3693
▁drawing	-10.3694
▁tickets	-10.3696
▁iron	-10.3696
▁weak	-10.371
▁consist	-10.3714
▁System	-10.3717
PA	-10.3719
▁counsel	-10.3723
▁spiritual	-10.3724
ken	-10.3728
▁deposit	-10.3728
▁2007	-10.3728
vert	-10.3728
▁improvement	-10.373
▁hum	-10.3736
▁suffering	-10.3736
ino	-10.374
arm	-10.374
▁illegal	-10.3741
▁Lake	-10.3743
▁assets	-10.3744
▁domestic	-10.3745
70	-10.3752
ses	-10.3756
▁gotten	-10.3756
▁butter	-10.3757
▁regulations	-10.3761
▁sauce	-10.3761
▁Learn	-10.3763
▁France	-10.3767
▁procedures	-10.3769
▁representative	-10.3771
▁complain	-10.3773
▁fabric	-10.3774
▁OK	-10.3775
▁pitch	-10.3775
▁Rock	-10.3776
▁tasks	-10.3779
▁committee	-10.3784
▁Sal	-10.3785
ugh	-10.3793
▁volunteer	-10.3794
▁taxes	-10.3794
▁Mor	-10.3795
▁shipping	-10.3797
▁memories	-10.3807
▁Hey	-10.3811
ime	-10.3814
▁scar	-10.3814
▁cutting	-10.3817
▁authority	-10.3817
▁convenient	-10.382
▁innovative	-10.382
▁sessions	-10.3826
▁battery	-10.3828
▁tells	-10.3829
aving	-10.3832
▁convert	-10.3836
▁courses	-10.3837
ote	-10.3838
▁Come	-10.3847
▁forces	-10.3848
▁talked	-10.3849
▁normally	-10.3849
▁combined	-10.385
▁Plus	-10.3851
▁examples	-10.3854
pot	-10.3863
▁species	-10.3872
▁facing	-10.3875
lish	-10.3879
▁tu	-10.388
▁vast	-10.3881
▁$5	-10.3882
▁z	-10.3882
-20	-10.3888
▁fur	-10.3892
▁dr	-10.3897
▁religion	-10.3897
▁suggested	-10.3902
▁Information	-10.3903
ulate	-10.3907
▁dumpster	-10.393
▁ticket	-10.3933
▁investors	-10.3946
▁possibility	-10.3947
▁electric	-10.3951
▁Sun	-10.3952
lia	-10.3953
cular	-10.3954
▁pic	-10.3956
▁instrument	-10.3957
▁doors	-10.3965
▁Exp	-10.3966
late	-10.3966
▁protest	-10.3972
▁proposed	-10.3974
▁reduced	-10.3977
▁hero	-10.3978
▁sand	-10.3979
▁rec	-10.3985
▁Human	-10.3986
▁Japan	-10.3989
▁joined	-10.399
▁audio	-10.3995
state	-10.4002
win	-10.4007
▁theory	-10.401
▁san	-10.4011
▁About	-10.4012
▁decent	-10.4017
▁Israel	-10.4018
ye	-10.4018
▁Food	-10.4019
▁ease	-10.4021
si	-10.4022
▁guidance	-10.4024
▁magic	-10.4025
▁Union	-10.4026
▁suggestions	-10.403
▁weird	-10.4034
▁Del	-10.4039
▁phase	-10.4045
▁category	-10.4049
▁rush	-10.405
▁desk	-10.4053
▁payments	-10.4057
▁apps	-10.4062
▁depends	-10.4065
▁thick	-10.4067
▁necessarily	-10.4069
▁saved	-10.4074
▁Water	-10.4075
▁windows	-10.4075
▁lip	-10.4085
▁drinking	-10.4087
▁sim	-10.409
▁filter	-10.409
▁Sorry	-10.4092
To	-10.4093
▁lie	-10.4094
▁Ver	-10.4095
▁ST	-10.4095
▁buildings	-10.4097
▁generate	-10.4099
ria	-10.4101
▁pure	-10.4102
als	-10.4106
try	-10.4111
▁Hope	-10.4113
place	-10.4118
▁UN	-10.4127
quality	-10.4128
▁lessons	-10.4128
rent	-10.4132
▁Jack	-10.4134
▁hundred	-10.4135
▁officers	-10.4136
▁remaining	-10.4137
▁proof	-10.4138
take	-10.414
▁Think	-10.4141
▁Blue	-10.4142
▁estimate	-10.4143
▁extend	-10.4151
▁dozen	-10.4153
zi	-10.4167
▁nurse	-10.4167
▁Set	-10.4172
▁Bre	-10.4173
▁injuries	-10.4175
▁furniture	-10.4176
▁significantly	-10.4183
bra	-10.4185
▁Pu	-10.4187
▁William	-10.4189
▁moral	-10.4193
▁neighbor	-10.4194
▁draft	-10.4195
▁premium	-10.4197
▁protected	-10.4198
▁launched	-10.42
▁labor	-10.4202
▁decline	-10.4203
▁tests	-10.4206
▁manual	-10.4208
EC	-10.4208
Ch	-10.4212
▁trading	-10.4219
▁Dec	-10.4219
▁candidates	-10.4225
isation	-10.4229
22	-10.4233
▁institutions	-10.4241
▁newspaper	-10.4243
▁transition	-10.4249
▁industrial	-10.426
▁(20	-10.4261
than	-10.4262
▁crew	-10.4262
▁entertainment	-10.4264
▁literally	-10.4265
▁ni	-10.4271
▁Children	-10.4271
▁Police	-10.4273
ica	-10.4274
▁Contact	-10.4275
UT	-10.4283
otic	-10.4286
▁German	-10.4286
phe	-10.4286
▁relative	-10.4288
▁authorities	-10.4288
▁writers	-10.429
▁meetings	-10.4296
",	-10.4298
▁identity	-10.4298
▁spell	-10.4299
▁slip	-10.4307
▁pace	-10.4309
ez	-10.4309
▁shoulder	-10.431
▁dropped	-10.4311
▁stupid	-10.4316
▁performed	-10.4317
▁zone	-10.4319
▁edit	-10.432
fect	-10.432
ended	-10.4324
pet	-10.4325
▁breast	-10.4326
▁Security	-10.4328
▁Second	-10.4331
▁News	-10.4332
vision	-10.4334
iti	-10.4337
▁capable	-10.4338
▁expenses	-10.4346
nel	-10.4351
▁healthcare	-10.436
▁brown	-10.4361
town	-10.4362
▁loud	-10.4363
ching	-10.4367
AS	-10.4371
▁grab	-10.4378
▁suddenly	-10.4379
▁scan	-10.4379
under	-10.4381
▁ongoing	-10.4385
▁reader	-10.4385
▁reputation	-10.4386
war	-10.4388
▁spec	-10.4391
▁somewhat	-10.4393
▁campus	-10.4395
▁recall	-10.4397
get	-10.4398
▁assess	-10.4401
nic	-10.4402
▁registered	-10.4403
▁staying	-10.4403
even	-10.4405
stitution	-10.4407
▁bother	-10.4408
arian	-10.4408
▁atmosphere	-10.4409
▁escape	-10.441
▁River	-10.4411
▁ages	-10.4415
3.	-10.4419
▁permission	-10.442
▁impressive	-10.442
nne	-10.4428
▁Ya	-10.4429
▁bodies	-10.443
▁Project	-10.4431
▁flash	-10.4433
▁supported	-10.4435
▁expand	-10.4436
▁grateful	-10.4437
▁tip	-10.4438
oid	-10.4439
▁rating	-10.4443
▁trans	-10.4445
▁fra	-10.4449
ugg	-10.4453
AM	-10.4455
▁Member	-10.4456
For	-10.4458
▁sending	-10.446
▁improving	-10.446
▁Power	-10.4465
▁tradition	-10.4465
▁drag	-10.4471
Fi	-10.4471
ential	-10.4471
▁Rob	-10.4475
▁African	-10.4476
ional	-10.448
▁lend	-10.4482
▁Show	-10.4482
▁hadn	-10.4482
▁cor	-10.4484
▁Ph	-10.4489
rum	-10.4492
▁Development	-10.4503
arch	-10.4506
▁bone	-10.451
comp	-10.4511
75	-10.4512
▁Hall	-10.4513
▁landscape	-10.4513
inal	-10.4514
▁gender	-10.4517
▁boot	-10.4528
▁researchers	-10.4534
▁immediate	-10.4537
key	-10.4542
▁expression	-10.4546
▁tank	-10.455
▁everybody	-10.4553
▁Women	-10.4556
▁everywhere	-10.4556
▁Grand	-10.4562
▁discussed	-10.4566
▁contest	-10.457
▁stood	-10.457
▁settings	-10.457
ility	-10.4571
▁Com	-10.4572
▁fault	-10.4577
▁Wa	-10.4578
▁risks	-10.4579
▁saving	-10.4582
▁harder	-10.4584
▁Ke	-10.4586
▁checking	-10.459
▁Looking	-10.4591
▁council	-10.4594
▁Hotel	-10.4595
▁definition	-10.4596
claim	-10.4597
▁sides	-10.4601
hen	-10.4604
▁Bay	-10.4611
▁noise	-10.4613
▁aspect	-10.4613
empt	-10.4615
uc	-10.462
`	-10.462
▁strip	-10.4622
Oh	-10.4622
▁alive	-10.4623
▁ju	-10.4626
DA	-10.4629
▁password	-10.4633
▁processing	-10.4635
▁Data	-10.4638
▁advise	-10.4643
▁CA	-10.4648
atory	-10.4648
vin	-10.4651
▁iPhone	-10.4652
▁entrepreneur	-10.4656
▁gap	-10.4661
▁warning	-10.4666
▁succeed	-10.4669
▁functions	-10.4672
▁flavor	-10.4675
▁Central	-10.4676
▁passing	-10.4678
▁Bri	-10.4679
ature	-10.4681
▁attacks	-10.4681
ddle	-10.4683
water	-10.4685
ux	-10.4687
▁issued	-10.4688
▁typical	-10.4689
▁protein	-10.469
▁proceed	-10.4691
▁engineering	-10.4699
▁politics	-10.4699
▁Master	-10.4703
▁believed	-10.4709
▁wash	-10.471
▁empty	-10.4711
▁Anyway	-10.4713
▁fundamental	-10.472
▁proven	-10.472
▁external	-10.4722
▁apparently	-10.4723
▁regardless	-10.4724
▁choosing	-10.4725
▁exception	-10.4728
acy	-10.4728
gin	-10.4729
▁bonus	-10.4732
▁defined	-10.4733
cri	-10.4737
▁publication	-10.4737
▁constant	-10.4738
▁Jim	-10.4742
▁engineer	-10.4743
▁aside	-10.4746
gent	-10.4747
▁reform	-10.4747
▁savings	-10.4749
▁facts	-10.4753
▁begins	-10.4754
cial	-10.4755
▁whenever	-10.4755
▁strategic	-10.4757
mph	-10.4758
▁Institute	-10.4758
▁op	-10.476
lay	-10.4761
▁pocket	-10.4761
▁Pen	-10.4762
▁conclusion	-10.4763
▁scheduled	-10.4763
▁exceed	-10.4764
▁suck	-10.4764
▁wage	-10.4767
▁donation	-10.4772
▁Pla	-10.4776
▁permit	-10.4782
▁candidate	-10.4783
24	-10.4793
▁danger	-10.4798
▁venue	-10.4798
▁disc	-10.48
person	-10.4806
▁trained	-10.4807
▁loving	-10.4808
bed	-10.4811
▁identified	-10.4823
ished	-10.483
teen	-10.4832
▁increasingly	-10.4835
▁relief	-10.4836
▁doctors	-10.4836
▁millions	-10.4841
▁closely	-10.4843
▁flowers	-10.4845
▁Pat	-10.4847
▁upcoming	-10.4851
vy	-10.4856
CE	-10.4857
▁complicated	-10.4859
▁fulfill	-10.4859
▁Wow	-10.486
dding	-10.4863
▁Give	-10.4866
When	-10.4873
▁dining	-10.4874
Mo	-10.4874
21	-10.4877
▁revealed	-10.4881
▁ban	-10.4884
▁fields	-10.4885
▁Spring	-10.4889
▁rely	-10.4891
▁Germany	-10.4894
▁ordered	-10.4895
▁crucial	-10.4895
▁port	-10.4897
ked	-10.4898
ense	-10.4899
▁Pan	-10.4907
▁height	-10.4916
▁Frank	-10.4923
▁membership	-10.4927
▁meals	-10.4928
▁engagement	-10.4931
ctu	-10.4939
▁bomb	-10.4941
source	-10.4942
▁USA	-10.4943
▁domain	-10.4944
0%	-10.4948
▁Bra	-10.4955
▁anxiety	-10.4959
▁Class	-10.4961
▁joke	-10.4964
▁examine	-10.4964
cap	-10.4964
▁interaction	-10.4967
▁sharp	-10.4967
▁accommodation	-10.497
▁Gar	-10.4975
gress	-10.498
py	-10.4981
90	-10.4983
▁Long	-10.4991
▁Fo	-10.4995
▁accessible	-10.5006
▁YOU	-10.5017
▁row	-10.5018
▁golf	-10.5023
▁cri	-10.5034
▁Chi	-10.5035
▁laptop	-10.5036
▁successfully	-10.5045
vol	-10.5047
▁Therefore	-10.505
TA	-10.5054
▁Russia	-10.5058
▁entered	-10.506
▁prize	-10.506
▁Community	-10.5064
▁scenario	-10.5072
▁repeat	-10.5077
▁banks	-10.5084
ush	-10.5092
▁Hill	-10.5093
▁wake	-10.5093
view	-10.5097
▁Min	-10.5097
▁fri	-10.511
▁Canadian	-10.5111
▁blame	-10.5111
▁knee	-10.5113
▁lesson	-10.5113
▁2000	-10.5114
▁dynamic	-10.5116
▁consistent	-10.5118
▁Robert	-10.5131
▁upload	-10.5132
▁extreme	-10.5136
▁brands	-10.514
more	-10.5144
ME	-10.5154
▁Would	-10.5161
▁recording	-10.5163
ili	-10.5164
▁Report	-10.5169
▁organisation	-10.5174
▁acid	-10.5178
▁reject	-10.5179
▁estimated	-10.518
▁construct	-10.5181
▁neck	-10.5184
▁implement	-10.5193
phone	-10.5195
▁ta	-10.5197
▁fitness	-10.5199
▁worried	-10.5203
▁hosting	-10.5205
▁sustainable	-10.5208
▁Mary	-10.5213
▁festival	-10.5214
illa	-10.5215
▁legislation	-10.5216
▁exposure	-10.5217
▁institution	-10.5219
▁Instagram	-10.522
▁dear	-10.5225
▁Family	-10.5228
▁impressed	-10.5228
▁sufficient	-10.5234
Well	-10.5234
fun	-10.5239
del	-10.5241
▁tourist	-10.5242
▁mortgage	-10.5242
▁answered	-10.5247
▁Using	-10.5249
▁resort	-10.525
▁extended	-10.5253
▁_	-10.5262
-4	-10.5262
▁evil	-10.5267
▁league	-10.5269
▁ya	-10.5274
▁enterprise	-10.5274
▁threaten	-10.528
▁degrees	-10.5284
▁organic	-10.5286
▁explanation	-10.529
rin	-10.5293
▁arrangement	-10.5294
▁Students	-10.5298
▁efficiency	-10.5304
▁diverse	-10.531
▁Sta	-10.5317
▁editor	-10.5318
ov	-10.532
▁blend	-10.5321
▁Russian	-10.5322
▁clothing	-10.5322
▁Times	-10.5324
▁Everything	-10.5324
▁Old	-10.5328
▁Special	-10.5329
▁Such	-10.5335
▁Team	-10.5336
▁victim	-10.5336
▁capture	-10.5336
▁recommendations	-10.5337
ara	-10.5348
gle	-10.5349
▁qualified	-10.5353
▁flood	-10.5354
88	-10.5355
▁tall	-10.5355
▁confirm	-10.5356
▁reporting	-10.5357
-5	-10.5362
▁flexible	-10.5363
▁300	-10.5364
▁manufacturing	-10.5366
▁Minister	-10.5369
▁lights	-10.5369
$	-10.5372
cat	-10.5373
BC	-10.5377
▁compare	-10.5377
▁worldwide	-10.5378
▁tune	-10.5381
MS	-10.5382
▁ultimately	-10.5387
▁mood	-10.5389
▁SO	-10.5391
-3	-10.5393
▁reply	-10.5396
itive	-10.5398
RI	-10.5399
▁dreams	-10.5401
▁outstanding	-10.5409
▁alter	-10.5409
leg	-10.5409
▁bridge	-10.541
▁def	-10.5411
000	-10.5418
berg	-10.5418
▁disappear	-10.5422
▁chose	-10.5425
▁booking	-10.5425
▁cells	-10.5428
▁Mad	-10.5431
▁ph	-10.5431
▁god	-10.5431
▁Party	-10.5434
▁dish	-10.5445
▁Den	-10.5446
pan	-10.5449
▁distribution	-10.5454
▁disaster	-10.5456
▁victims	-10.5458
35	-10.5458
▁nearby	-10.5458
▁cookies	-10.5458
▁element	-10.5463
▁false	-10.5472
▁priority	-10.5473
▁deals	-10.5475
▁components	-10.5475
▁solar	-10.5477
coming	-10.5477
eng	-10.548
▁depression	-10.548
▁gifts	-10.549
▁default	-10.5498
▁classroom	-10.5499
▁le	-10.5502
▁clinical	-10.5504
BA	-10.5505
▁visited	-10.5506
▁plot	-10.5512
=	-10.5525
▁formal	-10.5526
ography	-10.5535
▁plane	-10.5537
rack	-10.554
gie	-10.5546
▁figures	-10.5547
▁wise	-10.5562
▁pepper	-10.5567
▁8.	-10.5572
▁Joe	-10.5575
▁acknowledge	-10.5576
▁agents	-10.5578
▁stayed	-10.5586
▁nutrition	-10.5587
ama	-10.5589
CH	-10.5592
▁motion	-10.5592
▁gym	-10.5592
▁consultation	-10.5593
▁transportation	-10.5594
▁$10	-10.5602
LA	-10.5603
▁passenger	-10.5606
▁linked	-10.5608
▁Sur	-10.5608
▁broke	-10.5609
▁audit	-10.5621
▁gorgeous	-10.5624
lip	-10.5624
▁tap	-10.5628
▁hopefully	-10.5631
▁2006	-10.5633
▁letting	-10.5633
▁invited	-10.5634
▁nuclear	-10.5637
▁MA	-10.5638
▁managing	-10.5639
phy	-10.5645
▁lit	-10.5647
▁Beach	-10.5651
▁somehow	-10.5659
▁walls	-10.5663
▁recorded	-10.5664
▁thin	-10.5667
▁lady	-10.5667
▁DO	-10.567
▁har	-10.5687
▁fourth	-10.5692
▁chip	-10.5694
St	-10.5694
▁chief	-10.5695
▁Put	-10.57
▁retain	-10.5703
▁circle	-10.5713
rage	-10.5716
▁pounds	-10.5716
lation	-10.5717
▁input	-10.5721
OW	-10.5721
▁Foundation	-10.5726
▁CD	-10.5728
▁exam	-10.5731
▁Road	-10.5731
▁technique	-10.5736
▁pleasant	-10.5736
▁Does	-10.5738
▁Top	-10.5739
▁Chicago	-10.5741
▁forest	-10.5742
▁Sure	-10.5747
▁hidden	-10.5747
▁rose	-10.5748
▁humans	-10.5752
▁eliminate	-10.5755
▁trigger	-10.5755
yl	-10.5756
ologist	-10.5758
pers	-10.5762
sur	-10.5767
▁symbol	-10.5774
hal	-10.5776
▁opposite	-10.5776
▁attractive	-10.5779
▁cop	-10.5783
ari	-10.5784
▁gentle	-10.5786
▁terrible	-10.5788
fu	-10.5789
▁till	-10.579
▁blind	-10.5791
▁compete	-10.5793
▁causing	-10.5797
▁replacement	-10.5797
▁legs	-10.5799
▁Western	-10.5802
▁implementation	-10.5806
▁intelligence	-10.581
▁rail	-10.5811
▁peer	-10.5818
ways	-10.5823
▁keeps	-10.5825
▁obligation	-10.5827
▁streets	-10.5828
shi	-10.5831
▁twenty	-10.5832
▁invite	-10.5833
▁guidelines	-10.5833
▁supplier	-10.5833
ji	-10.5834
▁van	-10.5836
▁channel	-10.5836
▁Chris	-10.5837
vic	-10.5839
▁juice	-10.5842
▁wanting	-10.5847
though	-10.5848
oma	-10.585
▁loans	-10.5852
▁plays	-10.5853
▁weapons	-10.5854
▁Mike	-10.5854
▁Watch	-10.5854
▁brilliant	-10.5856
▁phrase	-10.5859
▁substance	-10.5866
▁Nothing	-10.5866
▁tie	-10.5867
▁League	-10.587
▁32	-10.5872
▁origin	-10.5872
▁preparation	-10.5873
ison	-10.5874
▁Bas	-10.5878
▁principles	-10.5882
▁Paris	-10.5887
IP	-10.589
▁container	-10.5892
▁knock	-10.5898
▁CO	-10.59
CC	-10.5905
▁restrict	-10.5906
▁Port	-10.5907
▁prop	-10.5909
▁yeah	-10.5915
fall	-10.5916
AY	-10.5917
mmer	-10.5917
▁prospect	-10.5922
▁approval	-10.5922
▁percentage	-10.5923
▁substantial	-10.5924
▁lawyer	-10.5924
▁checked	-10.5928
▁Main	-10.5928
▁flag	-10.5933
▁Market	-10.5936
date	-10.5937
▁potentially	-10.5938
▁cable	-10.5939
▁orders	-10.594
▁colleagues	-10.5941
▁NO	-10.5946
▁stars	-10.5953
igh	-10.596
▁Award	-10.5961
▁Cur	-10.5961
link	-10.5964
▁falling	-10.5965
08	-10.5967
▁conducted	-10.5973
▁mon	-10.5973
▁Light	-10.5982
▁positions	-10.5985
▁covers	-10.5986
school	-10.5989
post	-10.5991
▁organized	-10.5992
RO	-10.5996
▁excuse	-10.5997
▁comparison	-10.5997
▁Cri	-10.5998
▁Win	-10.5998
break	-10.6002
▁Federal	-10.6003
▁Qui	-10.6014
▁stands	-10.6017
▁regional	-10.6021
▁supplies	-10.6024
tes	-10.6029
▁originally	-10.6033
▁curious	-10.6034
▁understood	-10.6037
tail	-10.6038
astic	-10.6039
▁Japanese	-10.6051
▁mainly	-10.6056
▁satisfied	-10.6064
▁pur	-10.6066
cip	-10.6067
▁Ly	-10.6073
▁Never	-10.6076
flow	-10.6082
▁Without	-10.6083
▁Pra	-10.6085
▁museum	-10.6086
▁duty	-10.6088
▁impression	-10.609
count	-10.6097
▁Place	-10.6099
▁holidays	-10.6103
hin	-10.6105
dia	-10.6105
▁Mexico	-10.6109
worth	-10.6112
▁split	-10.6113
body	-10.6113
rating	-10.6118
▁carrying	-10.612
▁Know	-10.612
▁neither	-10.6125
▁consequences	-10.6125
▁shirt	-10.6127
▁letters	-10.6127
▁tab	-10.6129
EL	-10.6133
▁exceptional	-10.6134
▁import	-10.6135
▁lean	-10.6138
made	-10.6138
▁depth	-10.6138
born	-10.614
▁edition	-10.6141
pha	-10.6145
▁Australian	-10.615
▁organ	-10.6152
▁upper	-10.6154
▁sets	-10.6156
▁Card	-10.6156
▁union	-10.6164
▁Cra	-10.6166
▁Brown	-10.6167
burg	-10.6175
front	-10.6185
Yes	-10.6188
face	-10.6189
Do	-10.6191
▁mixed	-10.6191
▁wh	-10.6191
▁Photo	-10.6193
hor	-10.6198
ees	-10.6198
▁teen	-10.6201
▁hook	-10.6201
▁mile	-10.6206
non	-10.6208
▁muscle	-10.6215
OP	-10.6217
power	-10.6219
▁strict	-10.6221
▁demonstrate	-10.6226
▁ocean	-10.6226
▁swimming	-10.6228
▁gay	-10.6229
▁continuing	-10.6231
▁somebody	-10.6233
▁boil	-10.6234
▁Ask	-10.6234
De	-10.6236
▁calendar	-10.6238
23	-10.6239
gger	-10.6239
MA	-10.624
▁killing	-10.6245
▁Iraq	-10.6248
▁hack	-10.6253
ore	-10.6265
▁Was	-10.6266
▁formula	-10.6271
cker	-10.6272
▁reduction	-10.6275
▁workshop	-10.6281
▁coat	-10.6288
▁retirement	-10.6288
lot	-10.6296
▁outcome	-10.6296
▁earning	-10.6301
▁shops	-10.6303
▁confirmed	-10.6308
▁achieved	-10.6313
▁decrease	-10.6314
▁conf	-10.6314
▁finger	-10.6316
lement	-10.632
lie	-10.6322
name	-10.6323
▁trends	-10.6326
▁recognized	-10.6326
road	-10.6332
▁Cat	-10.6334
05	-10.6338
▁patterns	-10.634
▁interact	-10.6346
▁encouraged	-10.6348
▁2005	-10.6352
▁Op	-10.6352
hour	-10.6359
▁correctly	-10.636
▁pride	-10.6362
▁bound	-10.6365
eat	-10.6367
▁Angeles	-10.6368
posing	-10.6372
▁engaged	-10.6377
▁string	-10.6383
▁photography	-10.6383
▁films	-10.6387
▁concert	-10.6389
▁Visit	-10.6392
▁Way	-10.6397
▁loose	-10.6398
ific	-10.6399
▁introduce	-10.64
▁referred	-10.6402
▁subscribe	-10.6405
▁2019	-10.6408
▁(1	-10.6409
vor	-10.641
Li	-10.6411
▁chances	-10.642
▁critic	-10.6422
▁vegetables	-10.6425
▁rot	-10.6426
nia	-10.6428
▁extension	-10.6428
▁Fire	-10.643
dies	-10.6432
▁hide	-10.6433
▁Step	-10.6435
95	-10.6436
TS	-10.6437
▁ending	-10.6443
▁wound	-10.6443
▁giant	-10.6445
▁listing	-10.6445
TH	-10.6447
▁dates	-10.645
▁traveling	-10.6458
▁Bush	-10.6458
▁Smith	-10.6459
avi	-10.647
▁liquid	-10.6475
▁District	-10.6478
▁greatly	-10.648
xi	-10.6481
▁Bible	-10.6487
▁strengthen	-10.6489
▁Han	-10.6493
▁personality	-10.6493
▁Happy	-10.6498
stone	-10.6499
class	-10.6501
▁sweat	-10.6504
▁bur	-10.6506
▁managers	-10.6507
▁pregnant	-10.6509
▁scientists	-10.6511
▁define	-10.6511
Con	-10.6514
▁pump	-10.6515
65	-10.6518
▁Join	-10.6519
▁delete	-10.652
▁thousand	-10.6524
▁industries	-10.6528
▁Centre	-10.6529
▁wrap	-10.653
order	-10.6535
▁sizes	-10.6537
friendly	-10.654
▁steel	-10.654
▁incorporate	-10.6544
▁carbon	-10.6545
▁bat	-10.6548
▁PM	-10.6548
pay	-10.6549
▁Music	-10.655
▁clip	-10.6553
▁healing	-10.6556
▁column	-10.656
85	-10.6561
▁Journal	-10.6568
▁whilst	-10.657
zing	-10.657
▁nail	-10.6575
▁owned	-10.6577
▁sensitive	-10.6579
▁suppose	-10.6581
▁Fund	-10.6582
OL	-10.6589
02	-10.6589
IA	-10.6596
▁Bla	-10.6599
▁YouTube	-10.6601
▁Section	-10.6603
▁equipped	-10.6607
▁weekly	-10.6607
▁submitted	-10.6608
▁houses	-10.661
▁stronger	-10.661
▁Little	-10.6612
▁commit	-10.6614
▁drinks	-10.6617
▁$6	-10.6622
▁mal	-10.6622
▁respective	-10.6623
▁naturally	-10.6625
▁Camp	-10.6625
▁acting	-10.663
▁Matt	-10.6633
▁unusual	-10.6644
▁refund	-10.6645
▁pm	-10.6645
▁vendor	-10.6647
▁Wal	-10.6648
▁snack	-10.6653
▁IS	-10.6656
▁producer	-10.6658
▁restore	-10.6658
▁mistakes	-10.6658
iz	-10.666
▁developers	-10.667
SP	-10.6671
▁nobody	-10.6671
▁attached	-10.6675
▁interior	-10.6677
▁luxury	-10.668
▁Week	-10.6684
ographic	-10.6685
▁gate	-10.6692
▁bookmark	-10.6704
▁lens	-10.6706
▁Online	-10.6709
▁ads	-10.6712
▁enforcement	-10.6718
▁destroy	-10.672
▁contractor	-10.672
▁workout	-10.6729
level	-10.6732
How	-10.6734
▁Bro	-10.6735
▁reducing	-10.6735
ground	-10.6739
▁association	-10.6742
▁Auto	-10.6746
▁opinions	-10.6746
▁Middle	-10.6749
▁interface	-10.6753
▁hill	-10.676
▁ensuring	-10.6762
▁involves	-10.6763
▁eligible	-10.6766
▁shots	-10.677
▁struggling	-10.6779
▁certificate	-10.6781
UR	-10.6783
die	-10.6786
▁employer	-10.6787
09	-10.6796
▁Town	-10.6799
▁Live	-10.68
▁replaced	-10.68
▁behaviour	-10.6804
cast	-10.6809
▁demo	-10.6811
▁performing	-10.6812
▁widely	-10.6813
▁extent	-10.6813
▁Head	-10.6814
being	-10.6817
▁laid	-10.6829
▁bake	-10.6832
▁borrow	-10.6834
▁celebration	-10.6836
77	-10.6837
▁heading	-10.6838
▁urban	-10.684
roll	-10.684
itch	-10.6841
▁professor	-10.6842
▁inches	-10.6843
▁corporation	-10.6846
▁Hy	-10.6858
▁hardware	-10.6861
mission	-10.6868
▁Mal	-10.6869
▁pointed	-10.6869
She	-10.687
▁yellow	-10.687
▁export	-10.6871
▁physician	-10.6872
▁stunning	-10.6872
▁google	-10.6872
tz	-10.6873
▁fiction	-10.6874
▁dollar	-10.6876
▁Wall	-10.6878
▁networks	-10.6878
▁suggests	-10.6879
▁AC	-10.688
▁angle	-10.6881
▁blogging	-10.6881
▁deadline	-10.6882
▁hunt	-10.6883
▁£1	-10.6884
une	-10.6886
hr	-10.6889
“	-10.6889
▁Wood	-10.6892
▁telephone	-10.6897
▁tested	-10.6901
▁brush	-10.6901
▁zero	-10.6903
▁lies	-10.6904
▁ends	-10.6904
ploy	-10.691
▁AM	-10.6915
▁narrow	-10.6917
▁pregnancy	-10.6918
poli	-10.6922
▁chronic	-10.6925
▁collected	-10.6925
▁flying	-10.6927
▁exclusive	-10.6929
tors	-10.6929
pho	-10.693
▁combine	-10.6933
▁2018.	-10.6934
▁kiss	-10.6936
▁Martin	-10.6936
▁breaking	-10.6939
▁fishing	-10.6942
▁Through	-10.6944
▁authentic	-10.6945
▁Three	-10.6947
▁plain	-10.6948
▁emerge	-10.6949
style	-10.6949
▁monitoring	-10.6952
ett	-10.6953
oh	-10.6953
▁Microsoft	-10.6958
▁logo	-10.696
▁volunteers	-10.6962
▁recruit	-10.6965
▁collaboration	-10.6966
▁deeply	-10.697
▁passionate	-10.6971
▁grass	-10.6971
▁charm	-10.6977
▁assignment	-10.6977
ily	-10.6983
OT	-10.6984
▁operator	-10.6987
▁bags	-10.6991
▁Him	-10.6992
UN	-10.6994
▁Hol	-10.6994
▁county	-10.6994
04	-10.6998
▁Mom	-10.6998
▁behalf	-10.6998
▁native	-10.6998
plan	-10.6999
▁snap	-10.7001
▁refresh	-10.7004
▁Asia	-10.7004
▁distinct	-10.7005
▁Tour	-10.701
▁electricity	-10.7013
▁NA	-10.7013
IR	-10.7016
▁lake	-10.7016
▁objects	-10.7018
▁filed	-10.702
▁differences	-10.702
▁occurred	-10.7022
▁residential	-10.7026
CO	-10.7027
have	-10.7028
hold	-10.7029
▁Customer	-10.7033
03	-10.7035
▁chest	-10.7036
▁communications	-10.7043
▁guilty	-10.7045
▁explains	-10.7046
▁Tru	-10.7047
▁Land	-10.7049
▁childhood	-10.7054
28	-10.7055
▁machines	-10.7056
ita	-10.7058
ib	-10.7059
▁Manager	-10.7061
AD	-10.7067
▁boss	-10.7068
je	-10.7068
▁virtual	-10.7069
TM	-10.7075
▁(19	-10.708
▁discipline	-10.7083
▁Bob	-10.7099
▁rising	-10.71
▁portfolio	-10.7103
▁dust	-10.7104
▁pursue	-10.711
▁garage	-10.7111
ibility	-10.7113
▁lifetime	-10.712
▁comic	-10.712
making	-10.7123
▁achievement	-10.7123
▁evaluate	-10.7123
07	-10.7124
▁Policy	-10.7125
▁strongly	-10.7126
▁Vol	-10.7128
▁vitamin	-10.7129
▁alarm	-10.713
▁designs	-10.7134
cade	-10.7135
▁Society	-10.7136
▁Product	-10.7137
▁amounts	-10.7137
▁yard	-10.7144
▁consult	-10.7144
▁damn	-10.715
▁Valley	-10.7151
▁consumption	-10.7154
▁driven	-10.7157
ening	-10.7161
▁injured	-10.7163
▁Ob	-10.7165
▁Gold	-10.7165
rid	-10.7168
tel	-10.7169
▁rarely	-10.717
▁recipes	-10.7172
▁divorce	-10.7173
▁Need	-10.7179
▁beneficial	-10.7182
▁musical	-10.7185
▁Trust	-10.7185
▁Consider	-10.7185
▁Tre	-10.7187
gree	-10.7193
▁preference	-10.7193
IL	-10.7199
▁Word	-10.7214
▁utilize	-10.7215
29	-10.7217
▁react	-10.7218
▁rear	-10.7223
▁increases	-10.7226
▁BE	-10.7228
AP	-10.7229
.00	-10.7231
▁Dar	-10.7232
▁Catholic	-10.7233
▁emotions	-10.7234
Be	-10.7245
▁$7	-10.7246
▁Cy	-10.7247
▁workplace	-10.7248
gram	-10.725
ola	-10.7252
▁ancient	-10.7259
▁fuck	-10.7259
▁wire	-10.726
▁relate	-10.7264
▁requests	-10.7266
▁Kar	-10.7269
▁rice	-10.7273
▁applicant	-10.728
▁peak	-10.7281
▁CEO	-10.7282
dom	-10.7283
▁diabetes	-10.7284
▁figured	-10.7286
▁Help	-10.7286
mid	-10.7286
▁Tim	-10.729
tract	-10.7291
▁Queen	-10.7294
▁clo	-10.7296
direct	-10.73
▁chi	-10.7302
▁attended	-10.7303
▁fool	-10.7304
▁boxes	-10.7307
▁Ken	-10.7313
position	-10.7313
▁absolute	-10.7314
▁Should	-10.7321
▁replied	-10.7329
▁hip	-10.7331
▁possess	-10.7333
▁<	-10.7338
▁arrival	-10.7342
▁Phil	-10.7343
away	-10.7343
▁Code	-10.7343
vation	-10.7347
▁papers	-10.7347
▁returns	-10.7349
▁bills	-10.7351
▁arts	-10.7352
▁raising	-10.7355
▁alert	-10.7355
▁emails	-10.7355
▁apple	-10.7364
▁Nu	-10.7365
▁studying	-10.7367
▁bid	-10.7371
▁Alex	-10.7372
▁Review	-10.7375
▁slide	-10.7375
▁Too	-10.7376
▁headed	-10.7379
▁plea	-10.7382
▁Pri	-10.7386
/20	-10.7391
▁$100	-10.7392
used	-10.7392
eration	-10.7393
▁deck	-10.7405
▁nervous	-10.741
▁guitar	-10.742
89	-10.7423
▁oven	-10.7426
▁Roman	-10.743
lee	-10.7433
▁holds	-10.7435
▁tape	-10.7435
▁sleeping	-10.7437
▁adopt	-10.7438
▁disagree	-10.7439
▁scratch	-10.744
▁Spanish	-10.7442
▁existence	-10.7444
▁eggs	-10.7446
zo	-10.7447
▁authors	-10.7447
▁Cap	-10.7449
▁weigh	-10.7449
▁NY	-10.7449
▁crop	-10.7452
▁insist	-10.7452
▁Sho	-10.7458
▁exhaust	-10.7461
▁suffered	-10.7467
▁claimed	-10.7469
▁jo	-10.747
▁smartphone	-10.7474
▁buyers	-10.7475
▁concerning	-10.7479
▁casual	-10.7481
▁purchasing	-10.7482
▁ga	-10.7482
▁limits	-10.7483
▁firms	-10.7484
▁dental	-10.7494
▁platforms	-10.75
▁Sh	-10.7502
▁ignore	-10.7504
▁requirement	-10.7509
▁clinic	-10.751
duction	-10.7517
▁leak	-10.752
▁shame	-10.752
▁surely	-10.7526
▁SEO	-10.7533
▁preparing	-10.7533
▁Network	-10.7536
▁largely	-10.7541
▁earned	-10.7544
47	-10.7548
scribe	-10.755
profit	-10.755
▁template	-10.755
-8	-10.7554
ough	-10.7559
▁bird	-10.756
holder	-10.7567
agon	-10.7571
step	-10.7571
▁hanging	-10.7575
▁framework	-10.758
range	-10.7589
roid	-10.759
▁Iran	-10.7591
▁Global	-10.7593
ero	-10.7602
▁introduction	-10.7603
▁assault	-10.7607
▁mirror	-10.7608
▁diseases	-10.7614
▁blogs	-10.7619
▁advocate	-10.7626
▁birds	-10.7632
▁appreciated	-10.7634
▁exhibit	-10.7636
▁Sale	-10.7647
card	-10.7648
▁consent	-10.7649
▁athlete	-10.765
HO	-10.7657
▁satisfaction	-10.766
66	-10.7667
▁employers	-10.7675
▁Okay	-10.7675
▁unexpected	-10.7675
▁minister	-10.7678
stand	-10.7687
▁attraction	-10.7688
ital	-10.7691
ati	-10.7692
▁Cro	-10.7695
▁sustain	-10.7695
▁clock	-10.7696
▁affair	-10.7697
▁photographer	-10.7702
▁ok	-10.7708
▁Four	-10.7709
Don	-10.771
▁historic	-10.7713
▁deeper	-10.7716
cie	-10.772
▁icon	-10.7722
▁heads	-10.7726
▁hardly	-10.7726
LY	-10.7727
▁empower	-10.773
▁ja	-10.7731
▁lighting	-10.7733
▁venture	-10.7734
▁wing	-10.7735
▁categories	-10.7735
▁desired	-10.7738
27	-10.7742
▁Dad	-10.7743
▁closing	-10.7748
▁Android	-10.7749
▁Support	-10.775
▁fer	-10.7751
▁Ku	-10.7751
▁evaluation	-10.7753
▁noted	-10.7754
▁maintaining	-10.7756
▁Walk	-10.7757
▁pose	-10.776
▁pros	-10.7762
BS	-10.7762
tell	-10.7766
▁Girl	-10.7767
▁consume	-10.7768
,500	-10.7769
bell	-10.7776
▁Richard	-10.7781
▁Media	-10.7781
EA	-10.7784
▁Always	-10.7784
▁Cup	-10.7787
▁48	-10.7789
▁2004	-10.7791
gh	-10.7796
▁engaging	-10.7797
▁quit	-10.7802
▁Santa	-10.7803
▁deploy	-10.7805
▁steal	-10.781
▁compensation	-10.7812
▁pilot	-10.7817
▁outline	-10.7822
▁anniversary	-10.7823
▁Ireland	-10.7826
▁reaching	-10.7828
▁honestly	-10.783
▁fingers	-10.783
itis	-10.7831
▁prime	-10.7834
▁Invest	-10.7834
▁babies	-10.7836
▁Scott	-10.7846
▁Pay	-10.785
▁programming	-10.7853
▁intense	-10.7853
eau	-10.7854
▁exc	-10.7855
▁Lin	-10.7855
▁urge	-10.7857
bble	-10.7857
▁toilet	-10.7858
▁Luc	-10.7862
▁twist	-10.7866
▁featured	-10.7867
▁ye	-10.7875
▁Turn	-10.7876
▁Sand	-10.7876
▁happiness	-10.7878
▁accordance	-10.7883
▁drawn	-10.7885
▁announcement	-10.7886
▁raw	-10.7888
▁36	-10.7892
put	-10.7893
▁organize	-10.7896
self	-10.7902
▁Fall	-10.7902
cover	-10.7903
hou	-10.7908
32	-10.7911
▁Vo	-10.7913
▁treatments	-10.7915
weight	-10.7916
▁outfit	-10.7916
▁joining	-10.7917
▁alleged	-10.7918
▁enroll	-10.7918
▁sew	-10.7919
▁adequate	-10.7922
▁granted	-10.7931
▁accomplish	-10.7933
▁arrested	-10.7938
▁regime	-10.7939
▁merely	-10.794
▁faced	-10.794
▁Fair	-10.7944
▁elsewhere	-10.7947
▁Rose	-10.7948
▁Democrat	-10.7957
▁soil	-10.7958
▁primarily	-10.7962
26	-10.7972
▁Sign	-10.7975
▁applicable	-10.7976
▁qualify	-10.7976
ups	-10.7977
▁remark	-10.7978
▁Room	-10.7981
▁massage	-10.7983
▁lately	-10.7985
▁veteran	-10.7985
▁combat	-10.7985
▁Italian	-10.7989
▁satisfy	-10.799
ena	-10.7991
▁nose	-10.7992
▁silver	-10.8
▁compliance	-10.8006
bound	-10.8007
wide	-10.8007
▁expressed	-10.8009
▁Buy	-10.802
▁paragraph	-10.802
shot	-10.8025
▁fu	-10.8029
▁producing	-10.8029
▁Arab	-10.8032
▁rural	-10.8035
▁Provide	-10.8035
▁Friend	-10.8041
▁statements	-10.8043
▁McC	-10.8043
-6	-10.8045
▁Really	-10.8046
▁cheaper	-10.8051
▁visible	-10.8053
ural	-10.8053
▁computers	-10.8054
▁salad	-10.8056
▁organisations	-10.8057
06	-10.8059
▁strive	-10.8065
▁inspire	-10.8065
▁Sco	-10.8074
▁150	-10.8075
▁Welcome	-10.8075
▁improvements	-10.8075
▁rapidly	-10.8076
▁cater	-10.8076
▁investigate	-10.8076
▁Britain	-10.8078
▁participation	-10.8084
▁stomach	-10.8084
this	-10.8089
▁dealer	-10.8096
▁covering	-10.8104
▁bri	-10.811
TE	-10.8113
▁contribution	-10.8116
▁semi	-10.8117
OS	-10.8117
rog	-10.8117
▁plug	-10.8118
▁motivation	-10.812
▁division	-10.8122
▁journalist	-10.8122
▁mad	-10.8123
known	-10.8123
▁flour	-10.8127
▁Medical	-10.8128
▁Adam	-10.8135
▁Enjoy	-10.8137
▁Insurance	-10.8138
▁sing	-10.814
▁cheer	-10.8141
EM	-10.8141
▁farmers	-10.8144
▁virus	-10.8148
▁creature	-10.8151
▁temporary	-10.8154
▁riding	-10.8165
▁subsequent	-10.8167
ella	-10.8172
▁PR	-10.8173
▁applying	-10.8175
▁Pet	-10.8176
▁stored	-10.8178
▁exposed	-10.818
▁tutorial	-10.8181
▁barely	-10.8182
▁output	-10.8183
▁experiencing	-10.8184
▁packed	-10.8187
band	-10.8191
▁casino	-10.8194
86	-10.8195
▁picking	-10.8196
▁shade	-10.8196
▁dose	-10.82
▁settle	-10.82
▁loves	-10.8208
▁attending	-10.8208
lib	-10.8209
▁resulting	-10.8209
▁Gene	-10.8211
▁Fu	-10.8212
▁heaven	-10.8215
most	-10.822
▁confused	-10.822
▁agenda	-10.8222
▁spark	-10.8222
▁revolution	-10.823
uous	-10.8239
▁Select	-10.824
fil	-10.8244
▁Father	-10.8246
55	-10.8247
▁Jan	-10.8247
▁competitor	-10.8247
▁anybody	-10.8249
):	-10.8249
▁Things	-10.8249
▁realise	-10.825
▁resume	-10.8253
▁rip	-10.8261
▁layout	-10.8261
▁=	-10.8264
▁phones	-10.8265
▁angry	-10.8265
▁Search	-10.8266
▁desperate	-10.8266
inate	-10.827
▁Spirit	-10.8275
ifying	-10.8275
other	-10.8279
▁margin	-10.8282
▁charity	-10.8285
▁entering	-10.8288
▁stable	-10.8291
▁arch	-10.8298
▁connections	-10.83
▁focusing	-10.83
▁ultimate	-10.83
▁creativity	-10.8302
▁criteria	-10.8304
▁component	-10.8306
▁math	-10.8306
chan	-10.8309
▁LA	-10.8312
▁handling	-10.8314
standing	-10.8315
▁talks	-10.8318
▁patch	-10.8319
▁Blog	-10.832
▁Senate	-10.8322
▁difficulty	-10.8322
▁talented	-10.8325
PR	-10.8325
▁acts	-10.8327
including	-10.8327
izz	-10.8327
▁clue	-10.8328
▁availability	-10.8329
▁announce	-10.8332
▁fabulous	-10.8333
▁Technology	-10.8334
script	-10.8337
tech	-10.8338
▁rescue	-10.8345
▁Actually	-10.8346
▁involving	-10.8346
media	-10.835
▁tweet	-10.8351
As	-10.8352
▁Cook	-10.8356
▁contrast	-10.8357
wise	-10.8357
▁equally	-10.8358
▁Royal	-10.8359
▁universe	-10.836
OM	-10.8373
product	-10.8374
▁asset	-10.8375
▁unknown	-10.8375
ference	-10.8378
▁exploring	-10.8378
33	-10.8381
▁employ	-10.8382
▁Control	-10.8384
▁drain	-10.8389
▁instant	-10.839
▁embrace	-10.8392
▁Full	-10.8393
▁ought	-10.8394
foot	-10.8398
nge	-10.84
▁Tell	-10.8405
▁gathering	-10.8405
▁smoking	-10.8418
UL	-10.8426
▁(1)	-10.8428
-10	-10.843
▁barrier	-10.8435
▁habits	-10.8442
▁intervention	-10.8443
▁regret	-10.8445
▁tournament	-10.845
▁Fla	-10.8452
▁entrance	-10.8452
ata	-10.8454
▁Feel	-10.8456
hole	-10.8456
▁involve	-10.8457
rick	-10.8461
▁adds	-10.8466
IM	-10.847
▁tele	-10.8471
▁disappointed	-10.8476
▁painful	-10.8477
▁returning	-10.848
▁poverty	-10.8482
▁informative	-10.8484
ich	-10.8485
▁ham	-10.8486
▁exists	-10.8489
▁importantly	-10.8492
live	-10.8493
▁Muslim	-10.8493
connect	-10.8494
87	-10.8495
itor	-10.8496
▁Young	-10.8499
▁commonly	-10.85
▁Summer	-10.8501
what	-10.8501
▁Prince	-10.8504
▁intend	-10.8507
▁gather	-10.8518
rine	-10.852
▁Jeff	-10.852
▁Boy	-10.8522
▁FA	-10.8523
▁victory	-10.8524
▁ruin	-10.8526
▁mechanism	-10.8527
aught	-10.8532
▁meaningful	-10.8532
▁grace	-10.8534
▁transaction	-10.8537
▁condo	-10.8538
▁Francisco	-10.8541
▁gained	-10.8542
▁filling	-10.8544
▁tears	-10.8546
▁PS	-10.8546
▁rough	-10.8546
▁jail	-10.8548
▁hung	-10.855
minute	-10.8551
▁admitted	-10.8552
▁lab	-10.8556
month	-10.8556
yard	-10.8558
cen	-10.8561
▁privilege	-10.8563
angle	-10.8567
organ	-10.8567
rator	-10.857
▁printed	-10.8573
▁Order	-10.8575
▁Guide	-10.8575
▁newsletter	-10.8584
▁affiliate	-10.8587
▁Term	-10.8588
▁cancel	-10.8588
▁citizen	-10.859
▁Press	-10.8591
▁Nice	-10.8593
▁correspond	-10.8598
▁channels	-10.8598
▁pink	-10.8599
▁pie	-10.86
78	-10.8601
▁Boston	-10.8606
▁egg	-10.8607
▁usage	-10.8608
▁inner	-10.8611
▁serves	-10.8611
▁dishes	-10.8612
▁Conference	-10.8615
▁Night	-10.8616
▁Ve	-10.8618
▁Mother	-10.8619
▁Museum	-10.8622
any	-10.8623
▁versions	-10.8624
44	-10.8624
TER	-10.8631
▁suite	-10.8634
▁bloggers	-10.8635
▁oh	-10.8637
▁tackle	-10.8641
▁equivalent	-10.8646
▁personnel	-10.8647
ibly	-10.8651
▁electrical	-10.8664
▁shelter	-10.8667
68	-10.8669
cycle	-10.867
▁entitled	-10.8671
▁minimal	-10.8674
▁Run	-10.8675
▁End	-10.8677
▁variable	-10.8679
clusive	-10.8683
▁integrated	-10.8684
▁bars	-10.8693
▁Ten	-10.8694
▁reminder	-10.8696
▁fewer	-10.8697
oon	-10.8699
nnie	-10.8701
▁MS	-10.8701
▁drama	-10.8703
▁recognition	-10.8704
▁preferred	-10.8708
▁segment	-10.8709
▁statistics	-10.8712
▁hiring	-10.8714
▁MO	-10.8717
▁Talk	-10.8717
▁outcomes	-10.8719
wan	-10.8719
ku	-10.8727
▁Mer	-10.8736
▁obtained	-10.8738
▁requested	-10.8739
▁yards	-10.8742
eller	-10.8744
▁concepts	-10.8751
▁pricing	-10.8753
mus	-10.8753
▁reception	-10.8754
▁tire	-10.8755
79	-10.8757
▁Cost	-10.8758
▁Fun	-10.8759
▁tissue	-10.876
▁relations	-10.8763
▁mount	-10.8763
oph	-10.8764
▁advisor	-10.8764
▁clicking	-10.8765
▁scream	-10.8766
▁Personal	-10.877
▁array	-10.877
▁controlled	-10.8777
▁Zealand	-10.8778
▁setup	-10.8778
▁upset	-10.8778
gro	-10.8781
▁melt	-10.8783
67	-10.8784
▁Garden	-10.8785
▁Meanwhile	-10.8785
▁investing	-10.8788
▁spare	-10.8792
NS	-10.8793
▁thankful	-10.8795
fire	-10.8796
▁indoor	-10.8801
▁400	-10.8803
▁remained	-10.8806
▁shake	-10.8806
▁elected	-10.8807
▁represents	-10.8808
▁enemy	-10.8808
zy	-10.8811
screen	-10.8813
ique	-10.8814
▁ALL	-10.8818
▁mentor	-10.8824
▁overcome	-10.8825
▁pushed	-10.8826
▁broadcast	-10.8826
NY	-10.8827
▁approaches	-10.8829
▁concrete	-10.8831
unk	-10.8832
▁Rep	-10.8834
▁west	-10.8838
▁unlikely	-10.884
▁Er	-10.884
▁50%	-10.8841
▁resist	-10.8841
▁index	-10.8842
▁genetic	-10.8846
itu	-10.8847
▁resolve	-10.8847
▁exhibition	-10.8849
via	-10.8849
▁habit	-10.8854
▁seal	-10.8856
▁Thus	-10.8864
▁slot	-10.8866
▁Sky	-10.8867
▁swing	-10.8867
Not	-10.8871
▁Korea	-10.8872
▁preserve	-10.8876
▁dispute	-10.8883
31	-10.8885
NG	-10.8888
▁del	-10.889
ridge	-10.8896
▁downtown	-10.8898
▁Coast	-10.8899
▁vulnerable	-10.89
▁Travel	-10.8908
▁align	-10.8914
page	-10.8922
▁scenes	-10.8923
onic	-10.8923
▁hint	-10.8925
▁chill	-10.8928
▁gig	-10.8934
▁Pop	-10.8935
46	-10.8935
▁violation	-10.8937
▁bull	-10.8939
ease	-10.894
▁sensor	-10.8942
▁liability	-10.8943
ception	-10.8949
▁2003	-10.8953
▁FOR	-10.8955
▁convenience	-10.8955
▁stain	-10.8955
fit	-10.8961
▁Force	-10.8961
bin	-10.8963
▁recognise	-10.8971
▁crap	-10.8972
▁powder	-10.8974
▁formed	-10.8976
▁(2)	-10.8979
▁wishes	-10.8979
▁Change	-10.898
▁Key	-10.8985
▁manufacturers	-10.899
wait	-10.8992
▁Yo	-10.8994
▁translate	-10.8994
▁precious	-10.8996
Our	-10.8997
▁defeat	-10.8999
▁Mag	-10.9
▁fascinating	-10.9
▁Pass	-10.9006
▁pun	-10.901
#	-10.9015
▁Gro	-10.9017
▁Energy	-10.9018
72	-10.9018
▁essentially	-10.9018
▁architecture	-10.902
▁conservative	-10.9021
▁WordPress	-10.9026
▁king	-10.9031
case	-10.9031
All	-10.9031
▁opposed	-10.9035
while	-10.9036
▁abilities	-10.9039
▁adopted	-10.904
section	-10.904
▁arrest	-10.9043
▁demands	-10.9048
high	-10.9049
▁breed	-10.905
▁sur	-10.9055
▁heavily	-10.9057
76	-10.9058
49	-10.9059
▁observation	-10.906
▁assistant	-10.9062
▁stamp	-10.907
▁Lee	-10.907
▁Holy	-10.9073
shirt	-10.9076
▁collective	-10.9076
▁Cru	-10.908
▁overwhelming	-10.9084
quest	-10.9089
▁consultant	-10.9089
▁seats	-10.9091
▁cry	-10.9092
aff	-10.9097
▁scope	-10.9099
▁LO	-10.91
▁sy	-10.911
▁wisdom	-10.9112
▁fraud	-10.9115
▁quo	-10.9117
▁Hopefully	-10.912
▁pushing	-10.912
▁tooth	-10.9123
▁forecast	-10.9125
pu	-10.9126
▁33	-10.9129
Pro	-10.913
▁initially	-10.9133
▁inspection	-10.9133
▁productive	-10.9134
▁Bel	-10.9137
▁observe	-10.9143
200	-10.9143
▁capabilities	-10.9144
▁Carolina	-10.9145
▁Ever	-10.9149
▁Ven	-10.9149
▁unfortunately	-10.9151
▁prohibit	-10.9153
▁promised	-10.9154
▁peaceful	-10.9155
▁orange	-10.9159
▁emphasis	-10.9159
▁robot	-10.9161
▁Italy	-10.9162
▁enjoyable	-10.9164
▁Mid	-10.9165
▁User	-10.9166
▁Disney	-10.9168
▁Price	-10.9172
▁superior	-10.9172
▁refuse	-10.9174
▁intelligent	-10.9176
▁pour	-10.9177
▁implemented	-10.918
▁generous	-10.9181
▁applies	-10.9182
▁judgment	-10.9184
▁promoting	-10.9185
59	-10.9187
▁Chief	-10.9189
▁Max	-10.9192
▁sail	-10.9194
▁yoga	-10.9196
▁safely	-10.9196
39	-10.9201
▁scrap	-10.9205
where	-10.9206
▁module	-10.9208
bul	-10.9209
36	-10.9212
▁damaged	-10.9217
Go	-10.9218
▁Syria	-10.9219
▁ridiculous	-10.9222
▁Miss	-10.9227
®	-10.9228
▁lying	-10.9232
▁flexibility	-10.9232
84	-10.9233
▁Account	-10.9234
▁submission	-10.9236
Lo	-10.9237
▁physically	-10.9238
▁Drive	-10.9238
▁expecting	-10.9239
▁reservation	-10.9241
▁conversations	-10.9244
69	-10.9245
▁abroad	-10.9246
▁Financial	-10.9251
▁removal	-10.9256
▁Want	-10.926
▁occurs	-10.9262
▁span	-10.9264
berry	-10.9265
▁tale	-10.9268
▁Stay	-10.927
▁copies	-10.9275
▁disrupt	-10.9281
▁arise	-10.9284
▁expansion	-10.9285
▁flip	-10.9286
▁engines	-10.9291
▁Justice	-10.9291
48	-10.9291
▁tremendous	-10.9294
▁forgive	-10.9295
imp	-10.9297
ington	-10.9299
▁forgotten	-10.9309
▁Angel	-10.931
▁trauma	-10.9311
▁evolve	-10.9313
▁pit	-10.9313
cro	-10.9315
commerce	-10.9315
TO	-10.9316
▁trash	-10.9317
▁Harry	-10.9317
turn	-10.9318
who	-10.9321
▁tons	-10.9325
▁stir	-10.9326
Thank	-10.9326
▁productivity	-10.9329
▁awful	-10.9338
▁Army	-10.9339
▁quotes	-10.9339
▁voters	-10.934
▁marked	-10.9341
ENT	-10.9342
▁subscription	-10.9347
▁diver	-10.9349
ume	-10.935
▁intellectual	-10.9351
▁currency	-10.9352
▁opponent	-10.9354
▁encouraging	-10.9359
▁75	-10.936
▁Thomas	-10.9369
▁east	-10.9369
▁aggressive	-10.9383
ani	-10.9386
▁residence	-10.9391
▁skip	-10.9391
▁anger	-10.9392
▁AT	-10.9394
▁Hospital	-10.9398
▁Louis	-10.9399
MP	-10.9401
MO	-10.9402
▁burden	-10.9403
▁excess	-10.9403
▁handy	-10.9405
rough	-10.9406
▁execute	-10.9406
▁packages	-10.9407
▁refuge	-10.941
▁Down	-10.9414
▁Ok	-10.9415
▁coaching	-10.9418
▁pad	-10.9419
▁foster	-10.942
▁advertise	-10.9421
▁terrorist	-10.9424
▁''	-10.9424
▁Page	-10.9427
▁Val	-10.9432
▁Comm	-10.9434
▁delivering	-10.944
34	-10.9447
rov	-10.9448
▁Store	-10.9451
wl	-10.9454
▁Clean	-10.9456
PP	-10.9457
shire	-10.946
ura	-10.946
▁romantic	-10.946
▁Something	-10.9465
▁fake	-10.9467
▁colon	-10.9467
▁Doctor	-10.9469
▁10%	-10.9471
▁tracking	-10.9473
▁contemporary	-10.9476
▁baking	-10.9481
▁diversity	-10.9481
iate	-10.9485
▁gut	-10.9486
▁2001	-10.9489
▁settlement	-10.9489
called	-10.9491
▁ranking	-10.9496
▁genuine	-10.9497
▁shadow	-10.9498
▁friendship	-10.9499
▁thoroughly	-10.95
Ha	-10.9503
▁aimed	-10.9514
82	-10.9515
▁skilled	-10.9519
▁displayed	-10.9523
▁hike	-10.9525
going	-10.9531
▁seller	-10.9532
▁manufacture	-10.9537
▁twin	-10.954
logy	-10.9542
800	-10.9549
▁corn	-10.9554
▁folder	-10.9555
▁admission	-10.9556
▁relaxing	-10.9557
▁silence	-10.9558
▁Festival	-10.956
▁Farm	-10.956
▁Local	-10.9561
▁exit	-10.9565
▁instruction	-10.9568
▁Spec	-10.957
▁expense	-10.957
An	-10.9573
dra	-10.9578
▁char	-10.9579
▁Executive	-10.9583
rink	-10.9585
▁specified	-10.9585
▁bite	-10.9586
▁Hand	-10.9587
inated	-10.959
▁profession	-10.9594
▁Building	-10.9596
▁mod	-10.9599
▁hyper	-10.9606
▁soldiers	-10.9606
▁relation	-10.9607
▁complaint	-10.9608
▁Write	-10.9608
▁Whatever	-10.961
▁consistently	-10.9617
▁heating	-10.9619
▁float	-10.962
they	-10.9622
▁Zo	-10.9623
▁addressed	-10.9625
▁accommodate	-10.9628
▁errors	-10.9629
love	-10.9636
▁disturb	-10.9639
▁possibilities	-10.9641
▁Wild	-10.9642
▁resistance	-10.9646
▁Anyone	-10.9648
▁Shop	-10.965
▁participating	-10.9654
▁bacteria	-10.9655
▁tear	-10.9656
▁directed	-10.9658
▁hesitate	-10.9658
▁1990	-10.9661
▁manufacturer	-10.9662
http	-10.9667
▁rub	-10.9667
▁Clinton	-10.9668
▁Gen	-10.9672
Me	-10.9676
▁Tro	-10.9678
▁Cross	-10.968
▁1)	-10.9681
▁lawyers	-10.9687
▁relating	-10.9689
▁enormous	-10.9691
56	-10.9692
▁singing	-10.9694
▁Nov	-10.9696
▁cure	-10.9697
▁functional	-10.9702
▁SU	-10.9703
▁analyze	-10.9704
▁gaming	-10.9719
▁transactions	-10.9731
encies	-10.9733
Al	-10.9733
▁:)	-10.9735
▁Below	-10.9736
▁humor	-10.974
▁slight	-10.9741
▁Getting	-10.9742
▁Could	-10.9743
after	-10.9747
▁Ah	-10.9748
▁Test	-10.975
▁deter	-10.975
▁Van	-10.975
▁ladies	-10.9755
▁extract	-10.9764
home	-10.9765
▁2)	-10.9766
▁eager	-10.9767
▁networking	-10.9768
▁moon	-10.977
41	-10.9773
each	-10.9776
▁screw	-10.9779
▁officially	-10.978
▁printing	-10.9782
cher	-10.9783
▁alongside	-10.9783
▁tar	-10.9786
fact	-10.9786
▁Ci	-10.9788
▁dentist	-10.9792
▁conversion	-10.9794
▁TH	-10.9804
▁anticipate	-10.9808
▁dismiss	-10.9808
▁aircraft	-10.9812
▁Due	-10.9818
▁silent	-10.9818
▁maintained	-10.982
▁gal	-10.982
▁Low	-10.9821
▁et	-10.9821
▁convinced	-10.983
▁pizza	-10.983
▁PA	-10.9833
?)	-10.9834
qual	-10.9834
▁DVD	-10.9838
▁forgot	-10.9838
▁faculty	-10.9838
ami	-10.9841
▁weapon	-10.9843
vie	-10.9845
▁actively	-10.9845
▁CH	-10.9845
▁documentation	-10.9845
▁Create	-10.9846
▁mixture	-10.985
loss	-10.985
100	-10.9854
▁struck	-10.9855
▁evolution	-10.9857
▁teenager	-10.9859
▁singer	-10.986
▁interactive	-10.986
▁surprising	-10.9866
▁addresses	-10.9869
▁Marketing	-10.9871
▁principle	-10.9878
▁bump	-10.9883
▁bow	-10.9886
▁signing	-10.9886
▁Shar	-10.9886
inch	-10.989
▁Point	-10.9897
▁notification	-10.9902
▁guaranteed	-10.9902
▁Hard	-10.9903
▁boring	-10.9911
▁carpet	-10.9913
▁Simply	-10.992
▁Academy	-10.992
▁stopping	-10.9921
lp	-10.9922
▁frequent	-10.9922
38	-10.9923
▁concentrate	-10.9923
▁sought	-10.9924
▁buck	-10.9925
▁army	-10.9928
▁Kind	-10.9933
43	-10.9934
▁matches	-10.9935
▁generated	-10.9935
▁#1	-10.9936
communi	-10.9936
active	-10.9943
▁glance	-10.9944
▁desktop	-10.9944
▁shout	-10.9948
▁pile	-10.995
▁Besides	-10.9952
game	-10.9954
▁cruise	-10.9958
▁targeted	-10.9961
encing	-10.9962
▁addiction	-10.9967
▁fold	-10.9968
▁lol	-10.9969
▁interpret	-10.9969
▁Dev	-10.9969
▁speaker	-10.9969
▁trusted	-10.9974
▁freeze	-10.9975
▁facilitate	-10.9975
▁courage	-10.9978
▁Bal	-10.9981
▁soup	-10.9985
▁yield	-10.9985
▁texture	-10.9985
▁Arm	-10.9986
▁Ski	-10.9989
▁bankruptcy	-10.9989
▁(2	-10.9994
▁immigration	-10.9994
▁scholarship	-10.9996
ask	-10.9999
▁muscles	-11
▁workshops	-11.0002
gate	-11.0002
▁Small	-11.0004
▁View	-11.001
▁ceremony	-11.001
bid	-11.0014
▁spouse	-11.0016
▁slave	-11.0017
▁contributions	-11.0018
▁Mountain	-11.002
▁calories	-11.003
▁calculate	-11.003
▁trailer	-11.0031
▁compromise	-11.0032
▁realistic	-11.0034
▁publishing	-11.0038
RC	-11.0039
▁$50	-11.0041
▁latter	-11.0041
▁34	-11.0044
EE	-11.0046
▁·	-11.0047
▁Article	-11.0056
▁Dam	-11.0058
▁treasure	-11.0059
▁surrounded	-11.0059
OO	-11.0059
▁differently	-11.0061
▁Additionally	-11.0068
▁surf	-11.0074
▁backup	-11.0077
nova	-11.0079
▁emissions	-11.008
73	-11.0085
▁Jewish	-11.0088
▁suicide	-11.009
▁DC	-11.0091
▁swim	-11.0092
▁stranger	-11.0093
37	-11.0094
-7	-11.0094
▁literature	-11.0096
▁Virginia	-11.0097
▁mask	-11.0098
▁Secretary	-11.0099
▁$8	-11.0101
▁salary	-11.0102
cla	-11.0102
▁violent	-11.0104
store	-11.0104
▁nuts	-11.0105
▁complaints	-11.0106
▁pension	-11.0111
▁SA	-11.0115
▁followers	-11.0117
▁Prime	-11.0118
ounce	-11.012
▁hub	-11.0123
▁completion	-11.0123
▁examination	-11.0124
▁ownership	-11.013
HA	-11.0131
▁genre	-11.0133
▁Site	-11.0137
▁Jane	-11.0138
▁km	-11.0144
▁ordinary	-11.0144
▁debut	-11.0145
▁Much	-11.0151
▁opposition	-11.0155
▁sink	-11.0158
space	-11.0158
▁organise	-11.0159
▁65	-11.0162
▁developer	-11.0162
▁Digital	-11.0163
▁burning	-11.0165
boy	-11.017
▁lecture	-11.0177
▁liberal	-11.0177
▁losses	-11.0184
elect	-11.0184
▁Natural	-11.0184
▁banking	-11.0185
▁bro	-11.0188
▁premise	-11.0189
week	-11.0191
▁philosophy	-11.0195
▁absence	-11.0204
▁keen	-11.0205
ONE	-11.0209
▁perceive	-11.0215
world	-11.022
▁globe	-11.0221
▁praise	-11.0228
▁persist	-11.023
▁wireless	-11.023
▁drove	-11.0231
▁seeds	-11.0231
▁viewing	-11.0236
▁variation	-11.0239
▁mono	-11.0242
▁2002	-11.0248
▁Library	-11.025
▁prescription	-11.0251
▁poem	-11.0255
there	-11.0256
kind	-11.0256
open	-11.0258
▁remarkable	-11.0259
grade	-11.026
▁Tech	-11.0261
▁pipe	-11.0263
type	-11.0264
▁neighbour	-11.0264
▁ceiling	-11.0269
▁Officer	-11.0271
▁mild	-11.0272
will	-11.0272
▁Southern	-11.0274
▁voting	-11.0276
▁proved	-11.0276
▁accounting	-11.0279
▁offense	-11.028
▁delighted	-11.028
▁possession	-11.0285
▁cyber	-11.029
▁reverse	-11.0291
▁broker	-11.0292
▁Spi	-11.0293
▁thrown	-11.0296
▁carrier	-11.0299
▁steam	-11.03
▁associate	-11.0302
▁spray	-11.0303
▁absorb	-11.0307
▁Tax	-11.0311
tress	-11.0312
▁Kim	-11.0313
▁belt	-11.0316
▁greet	-11.0317
▁editing	-11.0321
▁sudden	-11.0325
▁Stra	-11.0329
▁diagnosis	-11.0336
▁endless	-11.0337
▁Ban	-11.0342
▁pest	-11.035
▁Daniel	-11.0354
▁responded	-11.0357
▁accused	-11.036
▁dimension	-11.0365
craft	-11.0372
▁speakers	-11.0374
▁annoying	-11.0375
▁1980	-11.0376
nan	-11.0377
▁restrictions	-11.0378
▁Parent	-11.0384
▁rapid	-11.0385
▁mate	-11.0389
▁inspiring	-11.0394
Pa	-11.0394
▁Olympic	-11.0396
▁ratio	-11.0397
▁Given	-11.0398
▁LOVE	-11.0399
▁universities	-11.0401
▁Trade	-11.0402
▁psychological	-11.0404
▁incentive	-11.0404
hydr	-11.0408
▁flower	-11.0412
57	-11.0413
▁rolling	-11.0413
▁render	-11.0414
▁settled	-11.0415
▁vice	-11.0417
On	-11.0418
▁scr	-11.0421
▁Several	-11.0427
▁Age	-11.0429
▁fallen	-11.0434
▁Spa	-11.0434
▁magical	-11.0439
▁($	-11.0439
ache	-11.0441
blog	-11.0442
▁Mass	-11.0445
▁stroke	-11.0449
lated	-11.045
▁Supreme	-11.045
64	-11.045
▁Working	-11.0456
▁shortly	-11.0459
▁occasionally	-11.0459
cell	-11.046
▁scary	-11.0462
▁tries	-11.0462
looking	-11.0462
▁mutual	-11.0463
▁virtually	-11.0463
▁destroyed	-11.0463
▁rob	-11.0463
▁”	-11.0463
▁plugin	-11.0464
mag	-11.0465
▁comply	-11.047
walk	-11.0476
▁dying	-11.0479
▁theater	-11.0486
▁compound	-11.0487
▁fucking	-11.0487
▁copyright	-11.049
▁lowest	-11.0491
▁protecting	-11.0491
gri	-11.0495
▁gathered	-11.0498
▁exploit	-11.0507
▁disability	-11.0509
▁Mel	-11.051
▁Donald	-11.0511
▁Jersey	-11.0513
▁grain	-11.0514
▁instructor	-11.0514
▁alien	-11.0518
▁Heart	-11.0519
▁dialogue	-11.052
▁Spain	-11.0521
bro	-11.0525
▁hazard	-11.0528
▁Heat	-11.0529
▁observed	-11.0529
▁amongst	-11.0535
▁olive	-11.0537
found	-11.0538
▁List	-11.0538
▁55	-11.0539
▁voted	-11.054
▁Space	-11.0544
▁podcast	-11.0547
▁signature	-11.0548
▁Administration	-11.055
▁diagnosed	-11.0551
fra	-11.056
▁mat	-11.0562
▁slice	-11.0564
Ex	-11.0564
▁smiled	-11.0565
74	-11.0565
▁1:	-11.0569
▁resident	-11.0571
▁Bell	-11.0572
verse	-11.0577
NA	-11.0578
▁Para	-11.0587
▁Access	-11.0592
▁pig	-11.0593
▁Charles	-11.0601
scale	-11.0603
▁contained	-11.0604
▁awarded	-11.0605
▁Fer	-11.0607
▁Temp	-11.0608
▁?	-11.061
▁certified	-11.0611
▁tension	-11.0611
▁overnight	-11.0612
▁bullet	-11.0613
▁uniform	-11.0615
▁Based	-11.0617
▁$20	-11.0617
▁roughly	-11.062
▁tent	-11.0624
mini	-11.0625
▁Northern	-11.0627
▁mum	-11.0632
▁toys	-11.0634
▁illustrate	-11.0647
▁Ze	-11.0648
design	-11.0652
▁intent	-11.0654
▁responsibilitie	-11.0656
▁OR	-11.0657
▁Jackson	-11.0658
▁featuring	-11.0658
▁Jones	-11.0659
▁duties	-11.066
▁Yu	-11.0661
▁quilt	-11.0663
▁sacrifice	-11.0664
▁20%	-11.0665
▁Job	-11.0667
▁Had	-11.0671
▁fence	-11.0672
▁emerging	-11.0676
▁deny	-11.0682
ouch	-11.0684
▁cow	-11.0684
▁immigrant	-11.0689
▁Standard	-11.069
▁Website	-11.0692
▁immune	-11.0693
▁cheat	-11.0694
▁Def	-11.0695
▁breathing	-11.0696
▁Especially	-11.0697
9%	-11.07
▁excitement	-11.0703
▁focuses	-11.0705
▁Following	-11.0706
cogni	-11.0708
▁reminded	-11.071
▁Egypt	-11.0711
▁hitting	-11.0711
▁beans	-11.0713
▁pretend	-11.0714
▁wider	-11.0714
▁proportion	-11.0716
▁refused	-11.0717
▁girlfriend	-11.0717
▁Nick	-11.0718
▁functionality	-11.0725
icide	-11.0726
ada	-11.0726
▁loop	-11.0736
▁Johnson	-11.0736
▁worship	-11.0739
▁horrible	-11.0743
▁acceptable	-11.0745
▁dirty	-11.0746
62	-11.0756
▁Tea	-11.0758
▁assigned	-11.0763
▁History	-11.0765
DE	-11.0766
▁mill	-11.0766
▁politicians	-11.0767
▁punch	-11.0768
▁transformation	-11.0768
▁locked	-11.077
▁Hollywood	-11.0771
▁Economic	-11.0775
▁Far	-11.0775
▁instantly	-11.0776
▁negotiation	-11.0777
EST	-11.0778
▁assured	-11.0779
▁baseball	-11.0779
▁horror	-11.0781
▁stem	-11.0784
63	-11.0785
▁puzzle	-11.0788
▁Unless	-11.0795
3%	-11.0809
▁Got	-11.0816
▁sooner	-11.0822
▁spam	-11.0824
NC	-11.0826
▁Asian	-11.0827
▁Brazil	-11.0827
▁Chapter	-11.0833
▁employed	-11.0835
rest	-11.0836
▁integration	-11.0837
▁accessories	-11.0837
pass	-11.0838
▁convey	-11.0838
▁Victoria	-11.0838
▁entertaining	-11.0842
piece	-11.0842
▁elect	-11.0845
▁stake	-11.0848
▁fancy	-11.0849
▁tube	-11.0849
▁Child	-11.0852
SO	-11.0854
pack	-11.0855
▁Agency	-11.0862
▁lease	-11.0863
▁Pack	-11.0865
LO	-11.0865
▁scared	-11.0869
cia	-11.087
42	-11.0871
▁spectacular	-11.0872
▁nursing	-11.0874
▁stack	-11.0876
▁differ	-11.0877
▁Qua	-11.0879
▁compassion	-11.0884
▁tied	-11.0886
▁blessed	-11.0893
▁Anti	-11.0893
▁pulling	-11.0895
▁ME	-11.0897
▁Latin	-11.0899
▁legend	-11.0909
▁Application	-11.0918
▁villa	-11.0919
▁criticism	-11.0923
▁measurement	-11.0927
▁principal	-11.0928
▁insert	-11.0931
▁addict	-11.0935
RM	-11.0938
▁passage	-11.0943
1%	-11.0944
▁difficulties	-11.0946
▁fluid	-11.0947
58	-11.0952
▁summary	-11.0953
Every	-11.0955
▁Safety	-11.0958
▁mystery	-11.0959
▁Until	-11.0961
▁integrity	-11.0962
▁Jen	-11.0963
▁drill	-11.0964
▁confront	-11.0965
▁Arch	-11.0968
▁unlike	-11.0971
▁arrange	-11.0971
depend	-11.0972
▁collapse	-11.0973
sale	-11.0973
▁grip	-11.0974
wind	-11.0979
▁Brand	-11.0981
▁monster	-11.0982
FA	-11.0984
▁relaxed	-11.0988
▁Ana	-11.0989
▁Table	-11.0989
▁cabinet	-11.0991
▁Overall	-11.0991
▁Michigan	-11.0993
▁branch	-11.0993
▁acquire	-11.0993
71	-11.0993
▁poly	-11.0996
▁blessing	-11.1
▁porn	-11.1002
▁Learning	-11.1004
▁imagination	-11.1007
▁franchise	-11.1015
▁grave	-11.1018
▁silly	-11.1019
▁establishment	-11.102
▁survival	-11.1022
▁impose	-11.1025
think	-11.1026
lessly	-11.1028
▁coupon	-11.103
ceiv	-11.1036
▁Brad	-11.1038
▁Par	-11.1038
▁startup	-11.104
-12	-11.1044
TC	-11.1044
▁lemon	-11.1049
▁Kingdom	-11.1053
▁patience	-11.1055
▁Follow	-11.1056
▁begun	-11.1058
ALL	-11.1062
icle	-11.1064
▁declared	-11.107
▁motivated	-11.1076
▁fortunate	-11.1078
▁DE	-11.1084
▁strain	-11.1085
â	-11.1085
▁max	-11.1089
▁automatic	-11.109
TION	-11.1091
▁Sarah	-11.1091
▁Andrew	-11.1092
▁neat	-11.1096
wall	-11.1096
▁thorough	-11.1097
▁uncomfortable	-11.1099
ogen	-11.1104
▁ke	-11.1106
ius	-11.1108
▁Hunt	-11.1112
about	-11.1112
▁Ali	-11.1114
▁dancing	-11.1114
▁Georgia	-11.1125
▁wander	-11.1129
▁sake	-11.1129
▁37	-11.1134
ppy	-11.1134
▁Pur	-11.1138
aire	-11.1141
▁indicated	-11.1156
▁universal	-11.1157
▁visa	-11.1157
▁Scotland	-11.1157
Ho	-11.1158
▁golden	-11.1159
2%	-11.116
▁spoken	-11.117
▁dramatic	-11.1171
izer	-11.1172
ifies	-11.1172
▁secondary	-11.1172
service	-11.1172
54	-11.1175
▁Civil	-11.1177
▁Cam	-11.1189
twitter	-11.119
lian	-11.1192
▁Living	-11.1192
▁Professional	-11.1194
▁costume	-11.1195
▁bold	-11.1197
▁Pacific	-11.1197
▁govern	-11.12
▁thumb	-11.1201
▁OS	-11.1203
▁breach	-11.1205
▁throwing	-11.1209
▁handful	-11.1211
▁Clear	-11.1213
▁conscious	-11.1217
▁anytime	-11.122
98	-11.122
gene	-11.1222
good	-11.1226
▁crush	-11.1229
▁bun	-11.1229
▁kinda	-11.1231
▁headache	-11.1236
▁laughed	-11.1236
▁nerve	-11.124
▁Someone	-11.1241
▁Area	-11.1244
▁translation	-11.1248
▁gen	-11.1251
▁Vegas	-11.1258
▁$25	-11.1259
▁dump	-11.126
▁curve	-11.1263
▁warrant	-11.1265
▁lawsuit	-11.1266
▁brave	-11.1268
	-11.1271
itude	-11.1276
▁worn	-11.1276
▁pond	-11.1283
61	-11.1289
▁representation	-11.1292
▁grill	-11.1299
FO	-11.1303
▁regulatory	-11.1305
▁undertake	-11.1306
▁38	-11.1307
▁characteristics	-11.1312
▁Fish	-11.1312
▁Za	-11.1315
▁disabled	-11.1325
▁grocery	-11.1326
▁nicely	-11.1333
‘	-11.1335
▁gallery	-11.1336
One	-11.1338
▁tan	-11.1339
▁trace	-11.1342
▁boyfriend	-11.1342
food	-11.1344
▁discussing	-11.1345
▁Chan	-11.1346
▁prevention	-11.1347
from	-11.1349
▁legitimate	-11.135
▁Direct	-11.1353
check	-11.1362
▁glasses	-11.1362
▁radical	-11.1364
▁Video	-11.1365
▁configuration	-11.1366
▁Question	-11.1368
▁Colorado	-11.1369
▁hunting	-11.1372
▁Indeed	-11.1373
▁airline	-11.1374
▁Stop	-11.1376
▁42	-11.1376
▁tin	-11.138
PC	-11.1381
▁regulation	-11.1381
▁Training	-11.1383
Some	-11.1387
▁RO	-11.139
▁fiber	-11.1392
▁administrative	-11.1392
▁assumption	-11.1392
▁Choose	-11.1393
▁pants	-11.1393
▁relieve	-11.1394
▁wherever	-11.1396
▁marijuana	-11.14
▁neuro	-11.1402
▁warranty	-11.1407
▁hungry	-11.1412
52	-11.1412
▁vessel	-11.1419
▁blast	-11.1421
▁enabled	-11.1422
▁weakness	-11.1425
pin	-11.1434
▁Singapore	-11.144
▁Season	-11.1441
▁passes	-11.1444
▁horizon	-11.1444
▁therapist	-11.1449
▁wondered	-11.1457
▁Beautiful	-11.1459
▁mg	-11.1464
rol	-11.1468
▁advised	-11.1471
▁innocent	-11.1473
KE	-11.1473
▁basketball	-11.1475
▁knowledgeable	-11.1475
▁Thanksgiving	-11.1477
▁spacious	-11.1488
▁gene	-11.1491
interest	-11.1494
8%	-11.1495
dress	-11.1499
▁travelling	-11.1511
TV	-11.1514
▁appliance	-11.1514
^	-11.1523
▁toxic	-11.1525
oriented	-11.1527
7%	-11.153
▁diploma	-11.1533
▁lung	-11.1534
▁receipt	-11.1539
▁Dave	-11.154
▁licensed	-11.154
▁beef	-11.1553
▁Furthermore	-11.1554
▁Grant	-11.1555
▁invention	-11.1562
▁1970	-11.1562
▁drunk	-11.1562
▁MP	-11.1565
▁Merc	-11.1567
▁packaging	-11.1569
aver	-11.157
▁reflection	-11.157
▁Vietnam	-11.157
hear	-11.157
▁Share	-11.1571
▁achieving	-11.1583
▁Often	-11.159
▁studied	-11.1591
▁FREE	-11.1592
▁perception	-11.1593
nate	-11.1595
▁scam	-11.1595
▁Tele	-11.1595
▁artificial	-11.1598
▁distract	-11.16
▁Ham	-11.1602
through	-11.1602
▁buyer	-11.1604
▁recreation	-11.1606
▁[...]	-11.1608
▁curriculum	-11.161
itz	-11.1611
▁finishing	-11.1613
▁extraordinary	-11.1615
▁navigate	-11.1617
▁cave	-11.1635
▁ON	-11.1637
▁cooked	-11.1639
▁Short	-11.1639
▁leather	-11.1641
▁containing	-11.1642
▁€	-11.1646
▁factory	-11.1651
▁qualification	-11.1663
▁Comment	-11.1663
▁efficiently	-11.1667
▁Ryan	-11.1669
▁ministry	-11.1669
▁tender	-11.1672
▁companion	-11.1676
▁auction	-11.168
▁Ohio	-11.168
▁hormone	-11.1681
▁panic	-11.1685
main	-11.1685
▁timing	-11.1688
▁retired	-11.169
▁equity	-11.1691
-19	-11.1692
▁workforce	-11.1693
▁mining	-11.17
▁dressed	-11.1701
hill	-11.1706
▁supporters	-11.171
▁amenities	-11.1716
▁$9	-11.1719
▁inventory	-11.1721
▁fifth	-11.173
▁permitted	-11.1733
▁racing	-11.1736
▁moderate	-11.1737
▁Obviously	-11.1741
▁Partner	-11.1752
▁continuous	-11.1756
▁cooperation	-11.1756
▁dependent	-11.1756
▁dive	-11.1757
config	-11.176
▁iPad	-11.1762
▁cock	-11.1763
51	-11.1763
gov	-11.1764
▁Rule	-11.1767
course	-11.1768
▁bias	-11.1771
▁honey	-11.1772
▁Greek	-11.1774
▁adoption	-11.1777
▁Say	-11.1777
▁sigh	-11.1779
hibit	-11.178
▁activist	-11.1785
▁patent	-11.1787
▁hug	-11.179
▁penalty	-11.1795
▁Tony	-11.1796
▁stability	-11.1797
▁suggestion	-11.1797
▁apparent	-11.1798
▁confidential	-11.1801
▁failing	-11.1803
PM	-11.1805
▁balanced	-11.1806
▁sir	-11.1809
▁precisely	-11.1813
▁operational	-11.1816
▁keyboard	-11.1821
▁tomatoes	-11.1824
▁discovery	-11.1824
BO	-11.1824
▁accomplished	-11.1825
▁Republic	-11.1827
▁makeup	-11.1827
▁entries	-11.1837
▁technological	-11.1839
▁gang	-11.1841
6%	-11.1841
▁popularity	-11.1842
▁removing	-11.1844
▁progressive	-11.1845
▁ranging	-11.1846
▁Off	-11.1851
Why	-11.1851
▁confusion	-11.1852
▁certification	-11.1854
▁garlic	-11.1856
osis	-11.1856
▁acquisition	-11.1859
▁hypo	-11.186
▁Ray	-11.1861
La	-11.1866
▁superb	-11.1867
▁handled	-11.1869
▁rap	-11.187
▁overseas	-11.1871
▁fantasy	-11.1872
▁laughing	-11.1872
▁elegant	-11.1881
▁250	-11.1881
VER	-11.1885
▁Probably	-11.1887
▁concentration	-11.1891
▁steady	-11.19
▁FIG	-11.19
▁filing	-11.1901
▁jacket	-11.1904
▁Rather	-11.1904
▁desert	-11.1911
▁dirt	-11.1912
▁stolen	-11.1916
▁financing	-11.192
▁1,000	-11.1923
▁founder	-11.1926
▁bulk	-11.1928
char	-11.1938
▁Halloween	-11.1938
▁Protection	-11.1939
▁narrative	-11.1942
▁Record	-11.1943
°	-11.1944
▁loaded	-11.1949
▁freak	-11.1953
▁bud	-11.1964
▁wipe	-11.1966
season	-11.197
udge	-11.1973
▁rational	-11.1974
▁stepped	-11.1974
▁fiscal	-11.1976
▁excessive	-11.1979
▁frustrating	-11.1982
▁1/2	-11.1983
▁Non	-11.1985
suit	-11.1987
▁sneak	-11.199
▁Among	-11.1992
▁lap	-11.1996
▁$15	-11.1998
▁throat	-11.1999
ATE	-11.2001
▁Irish	-11.2002
▁Common	-11.2004
▁completing	-11.2005
ESS	-11.2016
53	-11.2019
fur	-11.2022
▁WE	-11.2026
Le	-11.2028
▁warned	-11.2028
▁Either	-11.2032
▁printer	-11.2035
▁Brian	-11.2041
▁indicator	-11.2042
▁hired	-11.2055
▁pub	-11.2056
▁armed	-11.2057
▁obstacle	-11.2065
▁deciding	-11.2066
amine	-11.2073
▁Pakistan	-11.2073
▁Moreover	-11.2079
▁sandwich	-11.208
▁pause	-11.208
▁cousin	-11.208
effective	-11.2084
▁tile	-11.2085
▁invitation	-11.2086
▁logic	-11.2093
▁Fox	-11.2093
▁owe	-11.2098
▁jar	-11.2102
▁spoil	-11.2106
gno	-11.2109
▁referring	-11.211
▁democracy	-11.2111
stein	-11.2112
posit	-11.2115
▁champion	-11.2116
master	-11.2118
▁Save	-11.2122
Man	-11.2124
▁memorable	-11.2133
▁Ministry	-11.2136
▁western	-11.2142
▁scored	-11.2142
▁Dog	-11.2145
▁Nations	-11.215
▁divided	-11.215
▁shine	-11.2155
▁occupation	-11.2161
▁overview	-11.2164
▁Collect	-11.2164
▁junk	-11.2164
burn	-11.2169
▁harmful	-11.217
▁tub	-11.2177
▁bookmarked	-11.2178
▁represented	-11.218
▁~	-11.2182
▁Israeli	-11.2185
▁humanity	-11.2185
▁conventional	-11.2185
▁Money	-11.2186
▁involvement	-11.219
▁Develop	-11.219
▁tick	-11.219
▁practitioner	-11.2191
▁circuit	-11.2191
▁regulate	-11.2194
▁vet	-11.2198
▁Making	-11.2198
▁administrator	-11.2198
▁awake	-11.2199
▁Glad	-11.2202
▁southern	-11.2202
▁stumble	-11.2208
▁Labor	-11.2217
▁niche	-11.2218
▁Daily	-11.222
▁rolled	-11.222
▁Constitution	-11.2221
▁HD	-11.2221
ART	-11.2224
▁interrupt	-11.2229
PO	-11.2231
▁Action	-11.2233
▁satellite	-11.2239
▁800	-11.225
▁disabilities	-11.2252
▁infant	-11.2252
▁favour	-11.226
▁homework	-11.2262
▁thirty	-11.2265
▁Within	-11.2266
▁seminar	-11.2267
▁harsh	-11.2269
▁sequence	-11.2272
▁wooden	-11.2273
▁ultra	-11.2274
▁gross	-11.2277
▁disclose	-11.2278
▁dessert	-11.2284
▁Log	-11.2285
▁asleep	-11.2287
ATION	-11.2287
▁Unlike	-11.2289
▁jam	-11.2292
▁Treat	-11.2294
▁fridge	-11.2296
▁bored	-11.2301
American	-11.2302
▁considerable	-11.2303
fla	-11.2306
uzz	-11.2316
▁thrilled	-11.2316
▁confirmation	-11.2317
▁retreat	-11.232
▁mature	-11.2322
▁Bring	-11.2324
▁denied	-11.2326
▁oldest	-11.2329
▁39	-11.233
▁grasp	-11.233
▁Kids	-11.2333
▁tongue	-11.2335
SH	-11.2336
▁Democratic	-11.234
▁blanket	-11.2347
▁brew	-11.2347
▁transmission	-11.2348
▁attempting	-11.2349
▁showcase	-11.2354
▁placing	-11.2356
▁harvest	-11.2358
▁Six	-11.2368
note	-11.2368
▁Usually	-11.2371
▁expanding	-11.2376
charge	-11.2376
▁grid	-11.2378
▁interpretation	-11.2381
▁premier	-11.2383
▁Smart	-11.2387
▁vol	-11.2389
▁beaches	-11.2391
▁abortion	-11.2398
▁Name	-11.2399
▁chop	-11.2404
▁effectiveness	-11.2405
4%	-11.2405
▁gro	-11.2406
▁rack	-11.2409
▁hydro	-11.241
▁killer	-11.2413
Ro	-11.2416
▁washing	-11.242
▁nowhere	-11.2421
▁theatre	-11.2422
▁Almost	-11.2425
▁territory	-11.2426
▁Must	-11.2429
▁convince	-11.2431
▁Credit	-11.2432
▁offensive	-11.2433
▁acquired	-11.2434
Let	-11.2439
▁technician	-11.2446
▁Agreement	-11.2446
rio	-11.2452
▁neglect	-11.2453
▁Multi	-11.2454
▁Excellent	-11.2456
▁Studies	-11.2458
▁appreciation	-11.2458
▁Currently	-11.2459
▁pound	-11.246
control	-11.2464
▁1000	-11.2473
▁artwork	-11.2475
▁supportive	-11.248
stock	-11.2482
▁Sir	-11.2483
▁Rich	-11.2484
▁angel	-11.2485
▁Ye	-11.249
▁dough	-11.2493
▁Fortunately	-11.2498
▁Ram	-11.2498
▁utility	-11.2499
Mar	-11.2502
ago	-11.2505
now	-11.2507
▁Lots	-11.2508
▁Otherwise	-11.2511
▁duration	-11.2517
▁Student	-11.2517
▁Line	-11.2517
▁province	-11.2523
▁Taking	-11.2525
▁beginner	-11.253
▁appointed	-11.253
▁Along	-11.2531
▁presidential	-11.2531
▁frustration	-11.2534
▁Nigeria	-11.2535
▁knife	-11.2535
▁poison	-11.2536
▁quantity	-11.2536
lou	-11.2542
uted	-11.2542
▁recommendation	-11.2545
▁lib	-11.2548
▁mold	-11.2549
▁clever	-11.2554
▁painted	-11.2555
▁Oct	-11.256
▁recipient	-11.256
▁elderly	-11.2561
▁demon	-11.2562
▁healthier	-11.2564
▁WA	-11.2567
▁unnecessary	-11.2574
▁ethnic	-11.2575
▁Studio	-11.2583
▁Staff	-11.2583
▁captured	-11.2588
▁analyst	-11.2589
▁Dark	-11.2591
▁lobby	-11.2592
▁thrill	-11.2598
▁coordinate	-11.2601
▁Certain	-11.2602
zar	-11.2602
▁1999	-11.2602
▁beverage	-11.2602
▁Eastern	-11.2606
▁rig	-11.262
host	-11.2624
▁admire	-11.263
rou	-11.2631
▁accuracy	-11.2634
▁countless	-11.2634
▁wildlife	-11.2636
▁Five	-11.2636
writer	-11.2636
▁placement	-11.2637
▁Communication	-11.2638
▁brick	-11.2638
▁composition	-11.2641
▁Bridge	-11.2644
▁suspend	-11.2645
▁coal	-11.2645
▁Experience	-11.2647
▁easiest	-11.2649
▁expanded	-11.2654
▁Baby	-11.2654
▁drum	-11.2655
▁ruling	-11.2658
▁solely	-11.2659
▁Kong	-11.2659
▁Better	-11.266
▁threw	-11.2663
▁trim	-11.2666
__	-11.267
▁invested	-11.2673
▁trainer	-11.2673
▁mouse	-11.2674
▁logical	-11.2676
▁Square	-11.2681
▁assert	-11.2687
▁inflation	-11.2708
▁Annual	-11.2709
▁Made	-11.271
▁vaccine	-11.2713
▁Winter	-11.2716
▁potatoes	-11.272
▁destruction	-11.2723
mile	-11.2724
▁Download	-11.2725
▁stakeholders	-11.2725
▁Apparently	-11.2727
▁delight	-11.2727
plus	-11.2728
▁verse	-11.2731
party	-11.2732
▁Eric	-11.2741
▁execution	-11.2744
▁creep	-11.2744
▁epi	-11.2748
▁nonprofit	-11.2751
cru	-11.2752
▁pollution	-11.2753
▁underlying	-11.2758
operative	-11.2763
▁celebrating	-11.2764
▁labour	-11.2765
Now	-11.2765
▁entertain	-11.2765
change	-11.2769
market	-11.277
▁distributed	-11.2771
Just	-11.2773
▁ignored	-11.2776
▁welcoming	-11.2782
€	-11.2785
▁vac	-11.2787
▁mainstream	-11.2791
▁intimate	-11.2791
▁comprise	-11.2792
▁garbage	-11.2793
Un	-11.2793
▁enemies	-11.2794
▁laundry	-11.2796
▁genuinely	-11.2803
▁bubble	-11.2809
▁consulting	-11.2814
▁neutral	-11.2818
▁Lady	-11.2819
▁transmit	-11.282
▁Rome	-11.2826
LD	-11.2827
corn	-11.2827
▁welfare	-11.2832
▁cabin	-11.2833
▁archive	-11.2835
▁Series	-11.2836
▁batteries	-11.2838
▁dropping	-11.2843
▁boast	-11.2843
proof	-11.2844
▁romance	-11.2846
action	-11.2846
▁basket	-11.2847
▁vocal	-11.2852
▁repeated	-11.2853
▁defect	-11.2853
▁dedication	-11.2854
▁amazed	-11.2862
▁dumb	-11.2864
▁implementing	-11.2873
▁cafe	-11.2873
▁meditation	-11.2874
urge	-11.2875
▁Self	-11.2877
▁trap	-11.2883
▁Tan	-11.2884
▁Engine	-11.2889
heat	-11.2895
▁120	-11.2896
mpl	-11.2903
▁continent	-11.2903
rich	-11.2909
▁highway	-11.2915
▁burst	-11.2932
▁marketplace	-11.2934
▁Tip	-11.2937
▁Box	-11.2941
▁Enter	-11.2949
▁compelling	-11.295
▁Dead	-11.2952
▁Case	-11.2953
▁NFL	-11.2954
▁civilian	-11.2955
▁Dream	-11.2967
▁annually	-11.297
▁priorities	-11.297
▁coaches	-11.2974
97	-11.2981
▁Offer	-11.2985
Po	-11.2989
▁Dun	-11.2996
▁rape	-11.3
▁(3)	-11.3
▁prominent	-11.3003
▁Golden	-11.3005
▁Kevin	-11.3014
▁Kate	-11.3015
▁Stone	-11.3017
▁HR	-11.3019
▁spice	-11.302
▁£2	-11.3022
▁royal	-11.3031
▁frozen	-11.3032
▁seemingly	-11.3035
▁refine	-11.3038
▁crystal	-11.3038
▁Senior	-11.3038
lift	-11.3038
▁couch	-11.3038
▁Parliament	-11.304
temp	-11.304
▁sophisticated	-11.304
▁priest	-11.3041
▁Discover	-11.3042
GB	-11.3043
bury	-11.3045
▁Pick	-11.3046
▁jewelry	-11.305
▁cord	-11.305
IVE	-11.3051
▁Depending	-11.3052
▁independence	-11.3054
▁Wait	-11.3054
▁Airport	-11.3055
▁legacy	-11.3057
With	-11.3058
▁withdraw	-11.3061
▁specialized	-11.3062
▁wrapped	-11.3063
asse	-11.3071
▁amendment	-11.3072
▁convention	-11.3072
▁catalog	-11.3073
▁blogger	-11.3078
▁euro	-11.309
▁algorithm	-11.309
▁holder	-11.309
▁confusing	-11.3095
▁complement	-11.3099
▁sketch	-11.3113
▁resolved	-11.3117
▁indication	-11.3125
▁sexy	-11.3125
▁runner	-11.3125
▁whisper	-11.3128
solve	-11.313
▁tourism	-11.3135
ANT	-11.314
▁Organization	-11.3141
▁march	-11.3145
▁verify	-11.3145
▁console	-11.3147
▁Bull	-11.3147
▁protocol	-11.3151
▁ethical	-11.3153
▁Clark	-11.3153
mount	-11.3155
▁polish	-11.316
▁quest	-11.316
▁Easy	-11.3161
▁frequency	-11.3162
▁discrimination	-11.3165
▁acceptance	-11.3165
▁Hong	-11.3168
writing	-11.3169
▁Author	-11.3173
▁hiking	-11.3177
beat	-11.3177
▁Imagine	-11.318
▁Wind	-11.3182
▁Perfect	-11.3185
▁bitter	-11.3189
96	-11.3189
▁44	-11.3201
rock	-11.3204
▁leap	-11.3206
▁Turkey	-11.3214
▁disappoint	-11.3214
Yeah	-11.3219
▁substitute	-11.3221
▁Dear	-11.3223
▁Professor	-11.3225
▁Toronto	-11.3227
▁boom	-11.3237
▁distinguish	-11.3237
▁chef	-11.3237
▁mechanic	-11.3238
▁cocktail	-11.3238
▁Found	-11.3241
▁hop	-11.3244
▁Stephen	-11.3247
arily	-11.3248
▁Speaking	-11.3257
▁taxi	-11.3259
▁candle	-11.3261
▁centuries	-11.3262
HER	-11.3263
force	-11.3264
still	-11.3267
▁Count	-11.3267
▁shore	-11.3273
▁pillow	-11.3274
▁lawn	-11.3275
▁rival	-11.3275
▁concluded	-11.3278
paid	-11.3281
▁Email	-11.3283
▁Private	-11.3285
▁crying	-11.3286
▁Interesting	-11.3286
▁Roll	-11.3286
▁woke	-11.3289
▁irre	-11.3295
▁contributed	-11.3299
▁Jon	-11.3301
▁petition	-11.3301
▁Cover	-11.3304
▁confess	-11.3313
▁Miami	-11.3313
▁Mini	-11.3316
▁subtle	-11.3323
▁Seattle	-11.3325
▁Dean	-11.3326
▁EX	-11.333
▁finest	-11.3335
▁gently	-11.3335
▁cookie	-11.3336
▁fitting	-11.3337
TR	-11.3345
▁64	-11.3346
▁Mobile	-11.3348
▁́	-11.3349
▁HIV	-11.335
▁Update	-11.3352
▁Houston	-11.3356
▁roast	-11.3363
▁shook	-11.3363
▁MR	-11.3364
▁geo	-11.3365
▁northern	-11.3376
▁Mind	-11.3394
▁churches	-11.3398
▁lane	-11.34
onomy	-11.3403
▁manifest	-11.3407
▁modify	-11.3422
depth	-11.3428
▁straightforward	-11.3437
▁demonstrated	-11.3437
▁Total	-11.3439
▁locate	-11.3442
▁robust	-11.3442
▁comedy	-11.3444
▁600	-11.3446
dale	-11.3448
▁referral	-11.3451
▁scholar	-11.3452
▁safer	-11.3452
▁blank	-11.3453
▁Bear	-11.3453
▁nest	-11.3453
▁jet	-11.3453
▁viewers	-11.3456
300	-11.3467
▁Country	-11.3471
location	-11.3472
▁Guy	-11.3483
▁accompanied	-11.3486
▁heritage	-11.349
▁Capital	-11.3493
▁Arizona	-11.3498
▁True	-11.3502
▁Holiday	-11.3504
▁Korean	-11.3504
▁enforce	-11.3508
natural	-11.3508
▁magnet	-11.3509
▁Privacy	-11.3509
▁reasonably	-11.351
▁fatal	-11.3512
▁Diego	-11.3515
▁Number	-11.3521
▁1998	-11.3524
▁Fred	-11.3526
▁demonstration	-11.3542
▁taxpayer	-11.3551
▁Ocean	-11.3551
▁governor	-11.356
▁meantime	-11.3563
▁unlock	-11.3563
▁dial	-11.3568
▁situated	-11.3574
▁fleet	-11.3576
▁Brother	-11.3578
fight	-11.3578
▁Meeting	-11.3579
▁profound	-11.3591
▁Scr	-11.3593
▁dominate	-11.3595
▁Link	-11.3596
▁educate	-11.3596
▁defensive	-11.3605
▁urgent	-11.3607
▁constitute	-11.3609
▁1960	-11.3609
▁endorse	-11.361
code	-11.3614
▁Village	-11.3619
ICE	-11.3619
▁semester	-11.3619
▁Taylor	-11.3622
▁thoughtful	-11.3627
throp	-11.3627
▁terminal	-11.3628
▁sword	-11.363
▁idiot	-11.3634
▁spectrum	-11.3636
▁honour	-11.3647
▁Guest	-11.3647
▁Located	-11.3652
▁Ball	-11.3653
▁documentary	-11.3656
▁2020	-11.3656
▁abandoned	-11.3657
▁Hold	-11.3658
▁activate	-11.3662
▁apologize	-11.3664
▁sentiment	-11.3666
condition	-11.3669
▁nap	-11.3676
▁illustration	-11.3676
▁laser	-11.3681
▁dip	-11.3685
▁THIS	-11.3689
▁shy	-11.369
▁Connect	-11.3695
▁Challenge	-11.3696
▁awkward	-11.3698
▁Peace	-11.3704
science	-11.3706
minded	-11.3709
treat	-11.3711
▁Division	-11.3711
▁grey	-11.3713
▁beloved	-11.3714
▁responsive	-11.3715
▁49	-11.3719
▁fastest	-11.3724
▁animation	-11.373
▁attendance	-11.3734
▁requiring	-11.3735
▁tennis	-11.3735
▁compliment	-11.3735
▁artistic	-11.3743
station	-11.3745
▁Moon	-11.3749
fish	-11.3753
▁entity	-11.3762
▁evident	-11.3762
▁unemployment	-11.3764
▁happier	-11.3765
▁Euro	-11.3768
▁renewable	-11.3768
▁cigarette	-11.377
▁municipal	-11.3774
stick	-11.3779
▁batch	-11.3781
▁YOUR	-11.3783
▁cheek	-11.3784
▁corruption	-11.3788
▁mechanical	-11.3797
▁conviction	-11.3802
▁breathe	-11.3806
wick	-11.3806
▁vintage	-11.3807
▁None	-11.3818
▁Further	-11.3826
▁TR	-11.3829
▁bargain	-11.3831
▁electro	-11.3833
▁ghost	-11.3835
▁determination	-11.3837
▁implications	-11.3845
▁afterwards	-11.3846
winning	-11.3846
▁hiding	-11.3846
drop	-11.3846
▁Carol	-11.3848
▁stairs	-11.385
▁precise	-11.3853
▁PRO	-11.3858
▁ugly	-11.3861
▁Express	-11.3866
▁anxious	-11.3868
▁$500	-11.3868
▁arranged	-11.387
▁Planning	-11.3871
watch	-11.3872
▁designated	-11.3882
▁1.5	-11.3884
inating	-11.3885
▁Sydney	-11.3892
▁lounge	-11.3892
▁enthusiasm	-11.3895
▁fought	-11.3895
▁boundaries	-11.3896
▁Henry	-11.3902
▁negotiate	-11.3905
▁gradually	-11.3908
▁formation	-11.3914
▁polite	-11.3914
▁HO	-11.3915
▁coconut	-11.3917
▁squad	-11.3917
▁personalized	-11.392
▁stressful	-11.3922
▁adverse	-11.3923
▁kidney	-11.3925
▁Associate	-11.393
▁Send	-11.3931
ifier	-11.3933
▁creator	-11.3935
▁naked	-11.3937
▁basement	-11.3937
▁conservation	-11.3938
▁departure	-11.3947
▁survivor	-11.3948
▁leaf	-11.3949
▁Coach	-11.3951
▁sustainability	-11.3963
▁Quality	-11.3967
▁knit	-11.3969
member	-11.3973
▁disposal	-11.3974
▁optimize	-11.398
▁emotion	-11.3983
▁Corp	-11.3992
▁loyal	-11.3994
present	-11.3998
▁educated	-11.4
▁Regardless	-11.4001
zen	-11.4002
▁clarity	-11.4008
▁Later	-11.4011
▁punish	-11.4012
▁mattress	-11.4018
▁Simon	-11.402
▁Engineering	-11.4022
▁lazy	-11.4023
▁Palm	-11.4026
▁psycho	-11.4027
▁agricultural	-11.4031
▁PDF	-11.4039
lessness	-11.404
▁explicit	-11.4049
▁THAT	-11.4049
▁worries	-11.405
▁adorable	-11.4054
▁Early	-11.4056
▁varied	-11.4058
***	-11.4058
▁solving	-11.4058
▁DNA	-11.4062
▁thrive	-11.4063
▁Study	-11.4064
▁minimize	-11.4065
▁Quick	-11.4069
▁funeral	-11.4072
▁Motor	-11.4073
▁administer	-11.4078
▁Leave	-11.4081
▁Except	-11.4085
▁$30	-11.4087
▁Avenue	-11.409
▁bride	-11.4092
▁Writing	-11.4095
▁iOS	-11.4104
▁tomato	-11.4109
▁specialize	-11.4117
▁Consult	-11.4117
▁fortune	-11.4121
▁glow	-11.4123
▁marry	-11.4125
▁carries	-11.4127
know	-11.4129
▁promising	-11.4131
▁Unit	-11.4134
▁emphasize	-11.4138
▁transferred	-11.4139
▁deliberate	-11.4139
▁mall	-11.4141
▁Recently	-11.4145
pop	-11.4145
▁leverage	-11.4146
▁Marine	-11.4148
▁vibrant	-11.4149
▁dare	-11.4151
▁occasional	-11.4153
▁integrate	-11.4156
▁junior	-11.416
▁CON	-11.416
▁repeatedly	-11.4164
▁elite	-11.4164
▁scroll	-11.4165
▁agriculture	-11.4168
▁Jason	-11.4169
▁punishment	-11.4173
▁piano	-11.4177
▁Medicine	-11.4179
Book	-11.4185
▁ka	-11.4188
▁aesthetic	-11.4188
▁Radio	-11.4188
▁Fast	-11.4191
safe	-11.4193
▁HERE	-11.4193
▁portrait	-11.4195
400	-11.4196
friend	-11.4199
▁Josh	-11.4203
▁fate	-11.4204
New	-11.4207
ancing	-11.4207
▁surge	-11.4207
▁Station	-11.4208
▁darkness	-11.4212
▁Saint	-11.422
▁qualities	-11.4222
▁continually	-11.4225
▁URL	-11.423
▁dramatically	-11.4248
▁readily	-11.4249
▁Silver	-11.4251
▁hassle	-11.4255
▁Advance	-11.4256
▁buzz	-11.4258
changing	-11.4259
▁exclusively	-11.4262
▁Mexican	-11.4263
▁Greg	-11.4268
▁deficit	-11.427
▁frustrated	-11.4272
▁conclude	-11.428
▁excellence	-11.4287
▁browse	-11.4287
▁gratitude	-11.4289
▁smiling	-11.429
▁Stock	-11.4291
▁capability	-11.4294
▁surprisingly	-11.4297
▁tasty	-11.4301
▁Corn	-11.4303
phan	-11.4304
▁Bern	-11.4307
▁Carl	-11.431
▁anonymous	-11.4311
▁reinforce	-11.4313
▁Personally	-11.4314
▁Allow	-11.4315
▁disclosure	-11.4318
▁collaborative	-11.4327
▁closest	-11.4328
▁Third	-11.4332
▁Islam	-11.4333
▁Explore	-11.4338
▁Story	-11.4344
▁caution	-11.4344
storm	-11.4344
gmail	-11.4346
▁Opera	-11.435
▁profitable	-11.4351
▁Reserve	-11.4355
▁Film	-11.4359
▁poetry	-11.4361
▁Captain	-11.4367
▁customized	-11.4369
▁Complete	-11.4371
▁competing	-11.4372
▁biological	-11.4373
▁sunny	-11.4379
▁Computer	-11.4383
▁renovation	-11.439
▁terrace	-11.439
radi	-11.4392
Commerce	-11.4397
▁BBC	-11.4401
▁modification	-11.4402
▁nodded	-11.4406
▁expire	-11.4415
national	-11.4419
▁browsing	-11.4428
▁Joseph	-11.443
▁fond	-11.4433
▁discharge	-11.444
▁transparent	-11.4441
▁wallet	-11.4444
▁charging	-11.4451
▁championship	-11.4461
▁humble	-11.4463
▁soccer	-11.4483
▁shoe	-11.4484
▁vegan	-11.4486
▁Kelly	-11.4486
▁magnificent	-11.4488
▁cope	-11.4495
▁Seriously	-11.4496
▁Illinois	-11.4496
miss	-11.45
▁swap	-11.4502
liev	-11.451
▁Wales	-11.4511
▁automated	-11.4511
▁optimal	-11.4515
▁Prior	-11.4521
▁zip	-11.4523
▁uncover	-11.4523
▁Valentine	-11.4524
▁Field	-11.4529
▁cloth	-11.453
▁Attorney	-11.4533
▁wanna	-11.4535
▁versus	-11.4536
▁Return	-11.4537
▁jury	-11.4541
▁buried	-11.4545
▁giveaway	-11.4552
AND	-11.4557
stream	-11.4558
▁Electric	-11.456
▁identification	-11.4563
▁Anna	-11.4563
▁prospective	-11.458
▁Death	-11.4584
▁prescribed	-11.4586
▁lev	-11.4587
▁glory	-11.4589
▁footage	-11.4591
▁Environmental	-11.4599
▁Nature	-11.4602
▁insect	-11.4609
▁exploration	-11.4611
▁modified	-11.4614
▁font	-11.4615
▁transparency	-11.4621
▁Austin	-11.4623
risk	-11.4631
▁continuously	-11.4632
eptic	-11.4635
▁sensation	-11.4636
▁diamond	-11.4637
▁stroll	-11.4644
plication	-11.4645
▁Include	-11.4645
These	-11.4653
▁miracle	-11.4654
▁preach	-11.4662
▁cotton	-11.4674
color	-11.4676
▁violate	-11.4678
▁HA	-11.4679
appropriate	-11.4682
▁whip	-11.4685
▁toast	-11.4689
▁assuming	-11.4698
▁Bowl	-11.4706
▁admin	-11.4709
▁mandate	-11.4709
▁contributing	-11.4711
▁beneath	-11.4714
▁grandmother	-11.4714
▁blade	-11.4714
especially	-11.4715
▁cinema	-11.4716
▁flame	-11.4721
▁login	-11.4725
▁Tree	-11.4726
▁abstract	-11.4727
▁Afghanistan	-11.4729
▁terrific	-11.473
▁loyalty	-11.4737
▁leisure	-11.4738
▁brutal	-11.474
▁ramp	-11.4741
▁Listen	-11.4744
▁insane	-11.4746
▁Upon	-11.4746
scope	-11.4746
greg	-11.4749
▁Cancer	-11.4749
▁merge	-11.4753
▁Matthew	-11.4755
▁Nevertheless	-11.4755
▁devoted	-11.4755
▁Large	-11.4757
▁parallel	-11.4761
▁mindset	-11.4762
▁comparable	-11.4762
▁portal	-11.4764
▁steep	-11.4765
▁pickup	-11.4766
▁athletic	-11.4778
▁folk	-11.4781
▁drew	-11.4787
▁merit	-11.479
▁mag	-11.4791
▁cease	-11.4792
scape	-11.4792
▁motorcycle	-11.4795
▁distress	-11.4796
▁Oregon	-11.4799
▁Jordan	-11.48
▁suburb	-11.4802
▁jurisdiction	-11.4818
▁unlimited	-11.4821
▁Software	-11.4822
▁temple	-11.4826
▁Rick	-11.4829
▁Elizabeth	-11.4833
▁ecosystem	-11.4844
▁stereo	-11.485
▁barrel	-11.4857
▁Clinic	-11.4857
▁lamp	-11.4865
▁Type	-11.4866
▁mysterious	-11.4869
mouth	-11.4874
▁twelve	-11.4875
▁Ultimate	-11.4875
▁360	-11.4876
▁Davis	-11.4876
▁mandatory	-11.4877
▁Speak	-11.4879
▁happily	-11.488
▁immense	-11.4884
▁surgeon	-11.4884
▁Content	-11.4895
▁Consumer	-11.4897
▁Convention	-11.4901
▁discretion	-11.4901
▁1997	-11.4902
▁spill	-11.4902
▁Judge	-11.4907
▁marine	-11.4909
▁Build	-11.4909
▁nightmare	-11.4909
▁insult	-11.4912
▁Major	-11.4917
▁banned	-11.4919
public	-11.4922
▁consuming	-11.4923
▁Congratulations	-11.4923
▁stitch	-11.4924
▁Harris	-11.4931
▁accomplishment	-11.4933
▁advertisement	-11.4938
▁depict	-11.4948
▁stylish	-11.495
▁Final	-11.4951
▁deemed	-11.4953
▁playoff	-11.4953
▁Wilson	-11.4955
▁oxygen	-11.4956
▁replacing	-11.4961
▁enabling	-11.4961
▁controversial	-11.4967
▁Columbia	-11.4974
when	-11.4977
▁Teacher	-11.4983
▁eaten	-11.4983
▁widespread	-11.4984
▁Luckily	-11.4987
▁dude	-11.4989
▁complexity	-11.4995
▁Similar	-11.4998
▁Medi	-11.4999
▁architect	-11.5
▁Avoid	-11.5002
▁gluten	-11.5004
▁Modern	-11.5009
▁Secret	-11.501
▁coincide	-11.5011
▁blur	-11.5013
▁Finance	-11.5014
▁Palestinian	-11.5015
▁accompany	-11.5017
▁withdrawal	-11.5022
▁torture	-11.5022
▁portable	-11.5031
▁shelf	-11.5035
▁inevitable	-11.5042
▁phenomenon	-11.5042
▁supplied	-11.5046
▁Practice	-11.505
▁2.0	-11.5059
▁tattoo	-11.5061
▁tract	-11.5065
credit	-11.5067
▁altogether	-11.5073
▁assembly	-11.5074
ulator	-11.5075
▁unfair	-11.5077
▁Estate	-11.508
▁prediction	-11.5081
▁Level	-11.5083
▁cab	-11.5083
aunt	-11.5084
▁Custom	-11.5086
▁Together	-11.5092
▁faithful	-11.5094
▁minority	-11.5096
▁Kris	-11.5101
▁recruitment	-11.5103
▁crisp	-11.5105
▁disadvantage	-11.5106
▁Assembly	-11.5107
▁Cloud	-11.5113
▁portray	-11.5114
▁Client	-11.5116
Star	-11.5117
patient	-11.5118
▁compact	-11.512
▁swear	-11.5122
▁overwhelmed	-11.5123
▁decoration	-11.5127
▁wow	-11.5128
▁Model	-11.5132
▁initiate	-11.5144
▁curl	-11.5149
▁considerably	-11.5155
▁demographic	-11.5156
▁authorized	-11.5156
▁Notice	-11.5159
▁dairy	-11.5165
▁jack	-11.5175
▁sweep	-11.5176
base	-11.518
▁retire	-11.5184
▁syndrome	-11.5185
▁servant	-11.5186
▁freelance	-11.5188
▁Focus	-11.5189
▁determining	-11.519
▁1996	-11.5191
▁orientation	-11.5195
▁vertical	-11.52
▁Authority	-11.52
▁Effect	-11.5201
▁Future	-11.5202
cultural	-11.5204
▁Mix	-11.5205
▁bang	-11.5207
▁passport	-11.5208
▁captain	-11.5209
▁Individual	-11.5211
▁Course	-11.5212
▁crawl	-11.5215
▁Maria	-11.5218
▁Seven	-11.5222
cross	-11.5226
▁Magic	-11.5229
▁2.5	-11.523
▁rust	-11.5232
▁striking	-11.5239
▁Bitcoin	-11.5242
▁cosmetic	-11.5244
▁accent	-11.5249
▁radiation	-11.5259
▁invoice	-11.5259
▁calculation	-11.5261
▁adhere	-11.5265
▁specify	-11.5269
▁grind	-11.527
▁Alternative	-11.5271
▁chase	-11.5272
▁squeeze	-11.5273
▁Labour	-11.5273
▁bail	-11.5274
▁Companies	-11.5277
▁LED	-11.528
▁bucket	-11.528
▁grabbed	-11.528
▁cottage	-11.5281
trans	-11.5283
▁Regulation	-11.5283
▁Edward	-11.5285
Good	-11.5289
▁rubber	-11.5291
▁supervisor	-11.5291
▁Premier	-11.5292
trust	-11.5297
}	-11.5303
▁FBI	-11.5305
▁maximize	-11.5306
▁Between	-11.5308
▁Yesterday	-11.5308
▁fatigue	-11.5309
▁implant	-11.531
▁Pennsylvania	-11.531
▁Cool	-11.5316
▁rebuild	-11.5318
▁Atlanta	-11.5319
▁Sadly	-11.5323
▁entities	-11.5324
▁Buck	-11.5326
▁essence	-11.5329
▁Governor	-11.5333
story	-11.5334
▁terror	-11.5335
▁midnight	-11.5341
▁Islamic	-11.5341
▁pursuit	-11.5343
▁dread	-11.5349
▁Answer	-11.5349
▁Pretty	-11.5355
▁modest	-11.5358
▁transit	-11.5364
html	-11.5366
▁Roger	-11.5372
▁contrary	-11.5375
▁bicycle	-11.5376
▁automobile	-11.5376
▁Manchester	-11.538
▁shipped	-11.5389
▁convicted	-11.539
▁drone	-11.5391
▁recycling	-11.5393
▁cognitive	-11.5394
▁facial	-11.5398
▁Print	-11.5401
▁branches	-11.5402
▁$200	-11.5402
▁epic	-11.5408
▁defence	-11.5411
▁yo	-11.5412
▁fever	-11.5413
▁Paper	-11.5413
EAR	-11.5417
▁Feb	-11.5429
▁actress	-11.5431
▁crown	-11.5434
▁insurer	-11.5441
▁Nobody	-11.5445
▁statistical	-11.5451
▁sleeve	-11.5455
crypt	-11.5456
green	-11.5457
▁hobby	-11.5462
▁30%	-11.5469
▁Bureau	-11.547
▁brake	-11.5472
▁banner	-11.5473
▁90%	-11.5474
▁physics	-11.5489
▁practicing	-11.5493
▁boo	-11.5497
▁graduation	-11.5505
esteem	-11.5509
▁identical	-11.5509
▁ballot	-11.5511
▁generic	-11.5516
▁durable	-11.5517
develop	-11.5518
▁pledge	-11.5524
▁chunk	-11.5525
▁Kansas	-11.5527
▁bundle	-11.5534
▁navigation	-11.5541
▁Figure	-11.5544
▁nasty	-11.5544
▁vacuum	-11.5553
▁parliament	-11.5561
▁Description	-11.5579
▁Lisa	-11.558
▁earthquake	-11.559
▁instinct	-11.559
pdf	-11.5599
▁stating	-11.5602
▁Charlie	-11.5603
▁scoring	-11.5607
▁patio	-11.5608
▁rumor	-11.561
▁Register	-11.5614
speed	-11.562
▁flesh	-11.5622
▁consciousness	-11.5623
cott	-11.5627
▁complications	-11.5645
stead	-11.5647
▁Close	-11.5648
disciplinary	-11.5648
▁TIP	-11.5653
▁tunnel	-11.5653
▁fundraising	-11.5655
▁vegetable	-11.5656
▁preview	-11.5666
▁endure	-11.5667
▁Success	-11.5668
▁fade	-11.5674
▁racial	-11.5682
▁divide	-11.5682
▁inherent	-11.5682
solution	-11.5685
▁Atlantic	-11.5687
▁Foreign	-11.5688
▁terrorism	-11.5688
▁haul	-11.5692
▁momentum	-11.5696
▁libraries	-11.57
▁Hawaii	-11.5701
▁generating	-11.5705
▁homemade	-11.5707
▁landlord	-11.5709
▁strap	-11.571
▁analytics	-11.5718
▁bounce	-11.5725
▁declare	-11.5728
▁Simple	-11.5728
▁Range	-11.5729
▁antibiotic	-11.5732
▁Saudi	-11.5733
▁describing	-11.5735
generation	-11.5738
▁Championship	-11.5745
▁LOL	-11.5749
▁controller	-11.5749
▁booth	-11.575
▁Dallas	-11.577
▁guilt	-11.5779
because	-11.578
▁endeavor	-11.5787
▁simultaneously	-11.5787
▁Patrick	-11.5792
▁swallow	-11.5794
▁competent	-11.5799
▁interfere	-11.5801
▁analyse	-11.5805
human	-11.5811
▁Minnesota	-11.5816
firm	-11.5817
▁poet	-11.5819
million	-11.582
ILL	-11.5823
▁Animal	-11.5831
▁Eye	-11.5833
▁Snow	-11.5833
▁Image	-11.5834
▁Evan	-11.5834
▁jeans	-11.5838
▁backyard	-11.5841
▁nationwide	-11.5842
▁updating	-11.5842
▁cannabis	-11.5846
▁custody	-11.585
▁inexpensive	-11.5861
▁backpack	-11.5862
▁ambitious	-11.5863
▁mobility	-11.5867
▁equality	-11.5868
People	-11.5869
▁§	-11.587
OK	-11.5872
▁allegations	-11.5873
▁bush	-11.5875
held	-11.5878
▁proceedings	-11.5881
▁uncertainty	-11.5888
▁turkey	-11.5893
▁Linux	-11.5899
▁80%	-11.5899
▁RSS	-11.59
ECT	-11.59
▁defendant	-11.5902
▁Magazine	-11.591
click	-11.5917
▁cartoon	-11.5918
▁banana	-11.5922
▁computing	-11.5925
▁cruel	-11.5926
▁skirt	-11.5928
▁refrigerator	-11.5931
▁psychology	-11.5931
▁balcony	-11.5932
▁arriving	-11.5934
▁1995	-11.5936
▁chew	-11.5937
▁undoubtedly	-11.5942
▁democratic	-11.5945
▁ambition	-11.5947
▁Basically	-11.5956
▁Body	-11.5964
▁tutor	-11.5966
▁compatible	-11.5968
▁Susan	-11.597
▁Patient	-11.597
▁grief	-11.5975
▁suspension	-11.5975
▁structural	-11.5979
▁Amazing	-11.5982
▁investigator	-11.5984
▁submitting	-11.5986
▁consecutive	-11.5986
▁unfortunate	-11.5996
▁purple	-11.5996
\\	-11.6003
▁glimpse	-11.6004
▁underground	-11.601
▁dried	-11.6011
▁distraction	-11.6022
▁consistency	-11.6026
▁tragedy	-11.6028
help	-11.603
▁warehouse	-11.6037
▁enthusiastic	-11.6038
▁Industry	-11.6042
▁Greece	-11.6046
driven	-11.6059
▁24/7	-11.6062
▁significance	-11.6063
smith	-11.6075
▁Drug	-11.6075
child	-11.6079
▁licence	-11.6091
▁condemn	-11.6099
▁Orange	-11.6104
▁chore	-11.6106
▁25%	-11.6108
bank	-11.611
▁glue	-11.6114
▁Vice	-11.6115
third	-11.6121
▁explosion	-11.6121
▁harassment	-11.6122
▁stab	-11.6124
▁fitted	-11.6126
▁intensive	-11.6128
▁pursuing	-11.6128
▁vague	-11.6129
▁toddler	-11.6129
▁pupils	-11.6134
▁COM	-11.6137
▁Break	-11.6141
▁gambling	-11.6143
ELL	-11.6145
▁organizing	-11.6148
▁pumpkin	-11.6153
▁wrist	-11.6166
▁Luke	-11.6166
▁surgical	-11.6168
▁sunset	-11.6172
therapy	-11.6178
jack	-11.6179
▁replica	-11.6179
▁tropical	-11.6181
Please	-11.6183
▁Operation	-11.6188
▁analog	-11.619
▁restoration	-11.6197
▁Sweet	-11.6197
▁flavour	-11.6202
▁rhythm	-11.6202
▁medal	-11.6203
▁colorful	-11.6205
▁inviting	-11.6207
▁governance	-11.6211
▁interval	-11.6214
▁ingredient	-11.6219
▁Tower	-11.6224
▁Navy	-11.6227
fast	-11.6228
▁propose	-11.6228
▁tuition	-11.6229
▁Amendment	-11.6231
▁injection	-11.6239
▁NEW	-11.6241
▁rally	-11.6245
▁cited	-11.6246
▁attendees	-11.6247
▁descend	-11.6247
▁Philadelphia	-11.6248
▁chamber	-11.6248
▁measuring	-11.6262
▁	-11.6264
▁distant	-11.6265
▁shield	-11.6265
▁rope	-11.6267
▁iconic	-11.6273
▁attach	-11.6279
written	-11.6294
▁abandon	-11.6302
▁Chamber	-11.6305
group	-11.6313
▁2-3	-11.6318
▁disappointment	-11.632
▁gossip	-11.6321
▁Memorial	-11.6325
fusion	-11.6326
▁clarify	-11.6331
▁isolated	-11.6332
▁Restaurant	-11.6336
▁Expert	-11.6338
▁collaborate	-11.6341
▁acute	-11.6351
▁1994	-11.6354
▁Corporation	-11.6355
▁duck	-11.6358
▁supermarket	-11.6363
▁alternate	-11.6363
▁introducing	-11.6366
people	-11.6368
▁enrich	-11.6376
giving	-11.638
▁Indonesia	-11.6381
▁tragic	-11.6383
▁Creative	-11.6384
▁corrupt	-11.6384
▁Ontario	-11.6384
▁chaos	-11.6385
▁genius	-11.6387
▁erect	-11.6389
hearted	-11.6392
▁Lincoln	-11.6395
▁breakdown	-11.6399
security	-11.6406
OUR	-11.6406
▁Front	-11.6417
▁Massachusetts	-11.6421
▁complimentary	-11.6425
normal	-11.6431
▁Julie	-11.6432
▁unwanted	-11.6433
▁canvas	-11.6434
MENT	-11.6439
▁necessity	-11.6442
▁optimization	-11.6442
▁surveillance	-11.6443
▁**	-11.6445
▁gaze	-11.6445
▁gesture	-11.6452
▁expenditure	-11.6453
▁reliability	-11.6463
▁inflammation	-11.6466
▁jealous	-11.6469
▁Senator	-11.647
▁underneath	-11.6474
▁worthwhile	-11.6481
sexual	-11.6482
▁Gift	-11.6482
▁theories	-11.6484
▁valley	-11.6486
▁Excel	-11.6491
▁hilarious	-11.6496
▁webpage	-11.6498
▁Interest	-11.65
▁commence	-11.65
specific	-11.6505
frame	-11.6506
▁Exchange	-11.6506
▁queries	-11.6515
▁Absolutely	-11.6522
▁accelerate	-11.6522
▁queen	-11.6522
▁approve	-11.6525
▁pronoun	-11.6535
▁clause	-11.6542
guard	-11.6544
▁slim	-11.6544
▁Property	-11.6546
youtube	-11.6547
IGHT	-11.6559
▁integral	-11.6561
▁cycling	-11.6567
▁classified	-11.6567
▁Philip	-11.6569
▁Host	-11.6572
▁convincing	-11.6574
income	-11.6575
▁peanut	-11.6575
▁cancellation	-11.6577
▁contradict	-11.658
▁prosecutor	-11.6581
▁debris	-11.6583
shoot	-11.6584
▁Dutch	-11.6588
▁Iowa	-11.6591
▁nevertheless	-11.6593
second	-11.6602
▁Seems	-11.6611
▁poker	-11.6615
???	-11.662
▁paperwork	-11.662
▁Picture	-11.6625
▁Command	-11.6627
▁fossil	-11.6628
▁tribute	-11.664
▁legislative	-11.6643
▁intensity	-11.6643
▁spite	-11.6647
▁potato	-11.6651
▁tobacco	-11.6652
▁whisk	-11.6653
▁tendency	-11.6654
▁Blood	-11.6655
▁Lewis	-11.6658
▁bacon	-11.6659
oooo	-11.6666
▁inquiry	-11.6669
▁Throughout	-11.6673
▁Brook	-11.6674
▁haunt	-11.6677
▁stimulate	-11.6684
▁carrot	-11.6686
▁monetary	-11.6687
▁Legal	-11.6689
▁Soviet	-11.6696
▁tweak	-11.6699
▁eternal	-11.67
▁Mission	-11.6711
install	-11.6712
integr	-11.6714
▁Grace	-11.6716
▁generator	-11.6717
▁API	-11.672
▁recession	-11.672
▁moisture	-11.6724
▁trillion	-11.6726
▁believing	-11.673
▁fifty	-11.6731
▁safeguard	-11.6734
▁Payment	-11.6736
▁attachment	-11.6742
▁merchant	-11.6744
▁automation	-11.6745
▁internship	-11.6747
▁kingdom	-11.6748
▁puppy	-11.6754
′′	-11.6757
▁Process	-11.6761
▁obesity	-11.6762
▁Charlotte	-11.6767
▁devastating	-11.6773
▁cancelled	-11.6773
▁equation	-11.6774
▁cozy	-11.6776
▁Medicare	-11.6781
▁fame	-11.6789
▁penalties	-11.6791
▁Contract	-11.6802
▁{	-11.6804
▁fifteen	-11.6806
▁suspicious	-11.6809
resistant	-11.681
▁Option	-11.6814
▁versatile	-11.6818
▁Eventually	-11.6822
▁spokesman	-11.6827
▁Netflix	-11.6828
▁accumulate	-11.6831
▁socio	-11.6831
▁affirm	-11.6843
▁delicate	-11.6844
▁gallon	-11.6848
▁nomination	-11.6854
girl	-11.6856
▁Affairs	-11.6865
▁groom	-11.6876
»	-11.688
▁stadium	-11.688
▁Available	-11.6893
▁burger	-11.6895
▁socks	-11.6898
▁testimony	-11.6899
▁nowadays	-11.6899
▁whatsoever	-11.6899
▁Enterprise	-11.6901
▁milestone	-11.6905
▁investigating	-11.6913
▁patron	-11.6922
▁🙂	-11.6925
▁discomfort	-11.6926
▁greenhouse	-11.6927
▁cuisine	-11.6929
▁phenomena	-11.6931
▁laboratory	-11.6932
▁visibility	-11.6935
▁Java	-11.6937
▁Remove	-11.6945
▁uncertain	-11.6946
▁teenage	-11.695
▁fraction	-11.6954
▁Malaysia	-11.6954
▁arrow	-11.6958
▁Dragon	-11.6959
▁pioneer	-11.6963
▁contributor	-11.6965
▁Denver	-11.6969
▁metres	-11.6973
▁approx	-11.6973
author	-11.6977
▁scandal	-11.6978
▁cough	-11.6981
▁WITH	-11.6985
bird	-11.6996
▁Thailand	-11.6996
▁proactive	-11.6998
▁Target	-11.6998
▁Bruce	-11.7
▁Freedom	-11.7008
▁summit	-11.7008
▁Technical	-11.7012
▁Disease	-11.7017
▁Channel	-11.7018
▁Editor	-11.7026
▁elementary	-11.7028
white	-11.7031
▁Craig	-11.7036
oodle	-11.7038
▁exterior	-11.704
▁horn	-11.704
▁Details	-11.7041
▁undergraduate	-11.7042
keeper	-11.7047
▁Adult	-11.7048
«	-11.7305
á	-11.7569
~	-11.8398
<	-11.8442
©	-12.0308
¡	-12.0605
í	-12.0829
	-12.1392
£	-12.1502
	-12.1542
×	-12.1771
¦	-12.2053
Â	-12.2235
ó	-12.2454
ö	-12.2684
ü	-12.2782
	-12.3138
ñ	-12.345
‐	-12.3546
è	-12.3978
⠀	-12.4113
„	-12.5213
●	-12.5307
ä	-12.664
ç	-12.7765
	-12.7879
′	-12.7947
️	-12.8264
à	-12.8859
	-12.9342
⁄	-12.963
{	-12.9769
😉	-13.0291
	-13.1237
ï	-13.173
♥	-13.264
★	-13.2906
ā	-13.314
	-13.3163
―	-13.3294
¢	-13.3318
е	-13.4604
о	-13.4671
œ	-13.4951
↑	-13.4988
ô	-13.5122
а	-13.515
ú	-13.5155
❤	-13.5216
μ	-13.5344
→	-13.5536
−	-13.5683
É	-13.5943
ø	-13.6014
·	-13.6066
ã	-13.6111
и	-13.6618
▪	-13.6694
	-13.6993
ë	-13.7135
Ã	-13.7296
😀	-13.7418
■	-13.7459
т	-13.7856
ê	-13.7917
м	-13.8136
н	-13.8136
±	-13.8275
←	-13.8767
§	-13.8786
р	-13.9073
•	-13.9497
►	-13.9548
‚	-13.9948
¶	-14.0147
‍	-14.0216
ō	-14.0404
В	-14.0709
å	-14.1007
š	-14.1143
	-14.1649
・	-14.1802
「	-14.1921
в	-14.1977
æ	-14.2145
😂	-14.2354
č	-14.2489
α	-14.2548
Ø	-14.2806
¿	-14.3133
ć	-14.3175
♦	-14.3333
Ö	-14.3678
Á	-14.3711
ı	-14.3888
✓	-14.4277
й	-14.4323
ğ	-14.4323
¥	-14.4489
🙁	-14.4536
с	-14.4572
¬	-14.4657
	-14.4717
█	-14.479
β	-14.4815
✔	-14.4951
Ђ	-14.5165
‬	-14.5675
♡	-14.5782
😊	-14.5823
К	-14.6071
😍	-14.6169
ł	-14.6254
✨	-14.6498
	-14.6586
†	-14.6674
î	-14.6793
ð	-14.6808
ل	-14.6944
≥	-14.7222
🏻	-14.7556
☆	-14.7702
ا	-14.7901
›	-14.7901
ş	-14.7985
Ó	-14.8019
ß	-14.8207
ệ	-14.8434
Ü	-14.8757
к	-14.8811
。	-14.8904
Š	-14.9204
Г	-14.9281
☎	-14.9358
‭	-14.9613
л	-14.9633
ū	-14.9692
在	-14.9773
̈	-14.9874
─	-15
̃	-15.0039
Í	-15.0143
🏼	-15.0185
♀	-15.0185
Å	-15.0312
说	-15.0312
ー	-15.0419
п	-15.0659
̊	-15.0681
π	-15.0747
û	-15.0792
○	-15.0927
『	-15.1018
ο	-15.1064
‪	-15.1133
д	-15.1414
🎄	-15.1438
ў	-15.1438
😛	-15.151
💕	-15.1704
Đ	-15.1926
※	-15.1977
ʻ	-15.2002
ʼ	-15.2027
ī	-15.2052
ž	-15.2052
₹	-15.2052
б	-15.2206
ò	-15.2335
た	-15.2361
س	-15.2387
ì	-15.2387
	-15.2573
у	-15.2599
的	-15.3037
≤	-15.3093
ń	-15.315
г	-15.3263
‒	-15.3466
า	-15.3495
ε	-15.3524
ù	-15.3583
İ	-15.3613
ρ	-15.3643
ा	-15.3672
♪	-15.3672
ы	-15.3672
م	-15.3732
‟	-15.3762
⭐	-15.3822
👉	-15.3822
🙌	-15.3822
θ	-15.3944
ē	-15.3975
☺	-15.3975
【	-15.4067
】	-15.413
🔥	-15.413
λ	-15.4161
ι	-15.4287
▶	-15.4287
ь	-15.4351
🌟	-15.4362
な	-15.4511
น	-15.4544
👍	-15.4576
ý	-15.4708
С	-15.4841
я	-15.4908
、	-15.4942
Ç	-15.5078
😐	-15.5093
σ	-15.5112
ă	-15.5216
🙏	-15.5216
😁	-15.5251
ン	-15.5286
เ	-15.5392
√	-15.5427
し	-15.5498
	-15.5534
ˈ	-15.557
̄	-15.557
◆	-15.5643
🎉	-15.5789
่	-15.5826
ت	-15.5826
⇒	-15.5826
✅	-15.5826
😦	-15.59
і	-15.59
τ	-15.5937
و	-15.6012
の	-15.6088
ي	-15.6241
🏽	-15.628
з	-15.6318
一	-15.6396
پ	-15.6396
💖	-15.6475
你	-15.6594
い	-15.6674
ر	-15.6795
Т	-15.7169
‹	-15.7211
ม	-15.7339
💪	-15.734
ว	-15.7469
⦁	-15.7469
👏	-15.7469
Ä	-15.7513
♂	-15.7513
ə	-15.7601
◦	-15.7601
प	-15.7645
ę	-15.769
😭	-15.769
Õ	-15.7734
」	-15.7734
🌷	-15.779
Č	-15.7824
ř	-15.7915
言	-15.7961
☀	-15.8007
Δ	-15.8007
Ú	-15.8099
\	-15.8145
ν	-15.8145
ی	-15.8145
😃	-15.8192
ه	-15.8286
ま	-15.8286
κ	-15.8286
◊	-15.8286
¤	-15.8334
❄	-15.8334
あ	-15.8381
י	-15.8381
ค	-15.8477
À	-15.8526
🎁	-15.8526
ś	-15.8526
ス	-15.8574
Ω	-15.8623
ن	-15.8721
ท	-15.8721
Ž	-15.8721
ี	-15.8721
我	-15.8721
✦	-15.8771
□	-15.887
♠	-15.901
ė	-15.9022
ς	-15.9022
😢	-15.9022
ห	-15.9124
抯	-15.9176
्	-15.928
د	-15.9385
щ	-15.9438
õ	-15.9438
🤔	-15.9544
ạ	-15.9598
γ	-15.9652
人	-15.9652
🏾	-15.9704
ร	-15.9706
ו	-15.9816
日	-15.9816
र	-15.9927
ч	-15.9983
📷	-16.0038
📸	-16.0095
ƒ	-16.0152
は	-16.0152
ع	-16.0152
￼	-16.021
😎	-16.0325
文	-16.0441
に	-16.05
➢	-16.0559
💜	-16.0799
आ	-16.0799
♫	-16.0799
💙	-16.0799
ω	-16.086
ন	-16.0922
』	-16.0922
🤣	-16.0983
อ	-16.0983
ě	-16.0983
⃣	-16.0983
Î	-16.1046
😆	-16.1108
容	-16.1171
て	-16.1298
る	-16.1298
্	-16.1298
😘	-16.1362
鈥	-16.1362
็	-16.1426
内	-16.1427
ה	-16.1491
👌	-16.1491
🎅	-16.1623
英	-16.1689
➡	-16.1823
窶	-16.1823
	-16.189
ư	-16.189
ˇ	-16.189
̶	-16.189
🎶	-16.2026
留	-16.2027
А	-16.2027
প	-16.2027
》	-16.2027
😄	-16.2095
Ê	-16.2165
▸	-16.2235
ি	-16.2235
⁣	-16.2306
Æ	-16.2376
া	-16.2448
ṇ	-16.2448
👩	-16.2448
中	-16.252
‡	-16.252
🖤	-16.2592
🤗	-16.2665
っ	-16.2739
☐	-16.2739
❌	-16.2813
↓	-16.2813
▼	-16.2888
ő	-16.2963
🤷	-16.2963
ֲ	-16.2963
不	-16.2963
ラ	-16.3192
δ	-16.3269
Ł	-16.3347
Ş	-16.3347
来	-16.3426
と	-16.3426
ế	-16.3426
ル	-16.3505
🐣	-16.3585
บ	-16.3666
₤	-16.3666
ộ	-16.3747
ト	-16.3747
😅	-16.3747
ά	-16.3829
य	-16.3829
ơ	-16.3829
Α	-16.3912
💥	-16.3912
す	-16.3995
大	-16.3995
是	-16.4079
ș	-16.4079
φ	-16.4079
ѕ	-16.4079
▻	-16.4079
☞	-16.4079
抦	-16.4079
👑	-16.4155
র	-16.4164
О	-16.4164
❑	-16.4164
🇺	-16.4164
有	-16.4164
💯	-16.4164
イ	-16.425
ɪ	-16.425
💗	-16.4336
ッ	-16.4336
抣	-16.4336
Ò	-16.4423
آ	-16.4423
њ	-16.451
◾	-16.451
ب	-16.4599
月	-16.4599
Ō	-16.4599
η	-16.4599
	-16.4599
😋	-16.4599
➖	-16.4688
✌	-16.4688
ล	-16.4688
द	-16.4778
😱	-16.4778
ː	-16.4778
ص	-16.4869
Р	-16.4869
ר	-16.4869
Þ	-16.4869
🙄	-16.4961
ん	-16.4961
▲	-16.4961
	-16.5147
đ	-16.5147
♣	-16.5147
🇸	-16.5147
で	-16.5241
👇	-16.5241
א	-16.5241
看	-16.5337
ό	-16.5337
う	-16.5337
П	-16.5433
ि	-16.5433
お	-16.5433
😜	-16.5433
😳	-16.5433
🚨	-16.5433
	-16.553
আ	-16.553
뀐	-16.553
💫	-16.553
法	-16.5628
✈	-16.5628
💋	-16.5628
้	-16.5727
か	-16.5727
ṣ	-16.5727
÷	-16.5827
Ś	-16.5827
↵	-16.5827
例	-16.5827
신	-16.5827
国	-16.5928
を	-16.5928
ย	-16.5928
Ñ	-16.5928
👀	-16.5928
😰	-16.5928
▫	-16.5928
≈	-16.603
🗽	-16.603
多	-16.603
ї	-16.603
ц	-16.6133
∞	-16.6133
ব	-16.6133
ク	-16.6133
⚡	-16.6133
が	-16.6237
ż	-16.6237
Н	-16.6237
क	-16.6342
く	-16.6342
Ô	-16.6342
ą	-16.6342
要	-16.6449
Ι	-16.6449
ั	-16.6449
💘	-16.6449
💚	-16.6449
Ă	-16.6556
ả	-16.6556
☛	-16.6556
ニ	-16.6665
स	-16.6665
ด	-16.6665
व	-16.6775
❖	-16.6775
͡	-16.6775
年	-16.6775
🙈	-16.6775
も	-16.6886
ک	-16.6886
り	-16.6998
ί	-16.6998
이	-16.6998
े	-16.6998
ễ	-16.6998
会	-16.6998
당	-16.6998
🌈	-16.6998
本	-16.6998
И	-16.7112
ف	-16.7112
上	-16.7112
バ	-16.7227
🐾	-16.7227
😏	-16.7227
小	-16.7227
ら	-16.7343
👨	-16.7343
生	-16.7343
न	-16.7343
◼	-16.7343
ア	-16.7343
ת	-16.7461
子	-16.7461
ส	-16.77
χ	-16.77
⬅	-16.77
💛	-16.77
υ	-16.7822
ṛ	-16.7822
ก	-16.7822
ф	-16.7946
Ā	-16.7946
₱	-16.7946
◎	-16.7946
̧	-16.8071
ל	-16.8071
ậ	-16.8071
抰	-16.8071
登	-16.8197
💃	-16.8197
ш	-16.8326
М	-16.8326
🙋	-16.8326
ש	-16.8326
⚠	-16.8326
よ	-16.8455
ز	-16.8456
ド	-16.8456
사	-16.8456
👋	-16.8456
😬	-16.8456
リ	-16.8587
查	-16.8587
฿	-16.8587
ж	-16.872
⇢	-16.872
다	-16.872
🔴	-16.872
∼	-16.872
ك	-16.8856
他	-16.8856
📍	-16.8856
家	-16.8856
接	-16.8993
︎	-16.8993
ข	-16.9131
ツ	-16.9131
ד	-16.9131
行	-16.9131
ى	-16.9131
↩	-16.9131
作	-16.9131
ة	-16.9272
➤	-16.9272
コ	-16.9272
ュ	-16.9272
录	-16.9415
れ	-16.9415
事	-16.9415
ю	-16.9415
☕	-16.9415
🌿	-16.9415
ิ	-16.9415
山	-16.9415
更	-16.9415
░	-16.9418
έ	-16.956
ќ	-16.956
창	-16.956
	-16.956
😩	-16.956
х	-16.956
レ	-16.956
了	-16.9707
グ	-16.9707
🇦	-16.9707
Ѕ	-16.9707
链	-16.9856
个	-16.9856
⌘	-16.9856
✤	-16.9856
➜	-16.9856
教	-16.9857
さ	-17.0008
더	-17.0008
🔹	-17.0008
ź	-17.0008
מ	-17.0008
▷	-17.0008
🌲	-17.0008
🤦	-17.0008
新	-17.0008
💎	-17.0008
🤩	-17.0161
后	-17.0162
È	-17.0162
Е	-17.0162
ल	-17.0162
⁩	-17.0162
タ	-17.0162
🌸	-17.0162
😮	-17.0162
ɑ	-17.0162
ʊ	-17.0162
Φ	-17.0162
🌎	-17.0162
公	-17.0162
♢	-17.0317
😞	-17.0318
ج	-17.0318
こ	-17.0318
ũ	-17.0318
Π	-17.0318
∙	-17.0318
🎂	-17.0318
学	-17.0318
═	-17.032
ţ	-17.0477
	-17.0477
カ	-17.0477
👊	-17.0477
พ	-17.0638
ู	-17.0638
য	-17.0638
前	-17.0638
Σ	-17.0638
爱	-17.0638
￾	-17.0638
ィ	-17.0638
َ	-17.0638
🎥	-17.0801
天	-17.0802
≠	-17.0802
☑	-17.0802
ֳ	-17.0802
申	-17.0802
情	-17.0802
《	-17.0803
Ε	-17.0969
ị	-17.0969
好	-17.0969
章	-17.0969
这	-17.0969
	-17.0969
🌴	-17.0969
Д	-17.0969
ע	-17.0969
✿	-17.0969
匟	-17.0969
ง	-17.1138
メ	-17.1138
下	-17.1138
金	-17.1138
ं	-17.1138
ồ	-17.1138
発	-17.1138
👆	-17.1138
🔸	-17.1138
だ	-17.1311
💁	-17.1311
ב	-17.1311
‛	-17.1311
❏	-17.1311
➦	-17.1311
	-17.1311
🐶	-17.1311
シ	-17.1311
き	-17.1486
ḥ	-17.1486
⁦	-17.1486
🇬	-17.1486
🍁	-17.1486
😕	-17.1486
提	-17.1486
语	-17.1664
和	-17.1665
者	-17.1665
지	-17.1665
‖	-17.1665
🍂	-17.1665
ů	-17.1665
Λ	-17.1665
נ	-17.1665
ी	-17.1665
如	-17.1846
水	-17.1846
์	-17.1846
💞	-17.1846
💰	-17.1846
最	-17.1846
💡	-17.2031
分	-17.2032
Ÿ	-17.2032
ˆ	-17.2032
̆	-17.2032
🇧	-17.2032
Б	-17.2032
明	-17.2032
❣	-17.222
ם	-17.222
ہ	-17.222
ấ	-17.222
	-17.222
🍷	-17.222
ะ	-17.2412
キ	-17.2413
デ	-17.2413
ロ	-17.2413
😔	-17.2413
能	-17.2413
心	-17.2413
🌊	-17.2413
ق	-17.2609
用	-17.2609
்	-17.2609
노	-17.2609
ԁ	-17.2609
ह	-17.2609
는	-17.2609
🥰	-17.2609
⛄	-17.2609
😇	-17.2807
以	-17.2809
外	-17.2809
正	-17.2809
ň	-17.2809
海	-17.2809
ʹ	-17.2809
Τ	-17.2809
≡	-17.2809
フ	-17.2809
	-17.2809
高	-17.2809
🌍	-17.2809
美	-17.2809
ش	-17.3012
ح	-17.3013
ų	-17.3013
Ν	-17.3013
ต	-17.3013
Ộ	-17.3013
⁠	-17.3013
抎	-17.3013
	-17.3013
🇪	-17.3013
え	-17.3221
카	-17.3221
見	-17.3221
‰	-17.3221
₦	-17.3221
│	-17.3221
☃	-17.3221
	-17.3221
🍾	-17.3221
地	-17.3221
店	-17.3221
或	-17.3221
	-17.3434
ק	-17.3434
ち	-17.3434
ジ	-17.3434
曜	-17.3434
知	-17.3434
Ï	-17.3434
✖	-17.3434
せ	-17.3434
ウ	-17.3434
🥂	-17.3434
͜	-17.3434
合	-17.3434
到	-17.3434
ज	-17.3651
マ	-17.3651
们	-17.3651
🎈	-17.3651
そ	-17.3651
テ	-17.3651
民	-17.3651
💦	-17.3651
Ð	-17.3651
∴	-17.3651
ח	-17.3651
🌱	-17.3651
🎵	-17.3871
◄	-17.3873
ミ	-17.3873
ʖ	-17.3873
▬	-17.3873
愛	-17.3873
チ	-17.3873
都	-17.3874
โ	-17.4101
里	-17.4101
～	-17.4101
💲	-17.4101
ħ	-17.4101
Œ	-17.4101
Ј	-17.4101
त	-17.4101
ở	-17.4101
‣	-17.4101
つ	-17.4101
ズ	-17.4101
冱	-17.4101
나	-17.4101
	-17.4101
	-17.4101
🏆	-17.4101
📚	-17.4101
🌹	-17.4101
🦋	-17.4101
ื	-17.4333
🇷	-17.4333
ャ	-17.4333
þ	-17.4333
ɒ	-17.4333
➔	-17.4333
✍	-17.4333
去	-17.4333
王	-17.4333
老	-17.4333
ᄏ	-17.4571
由	-17.4571
ή	-17.4571
Л	-17.4571
🗣	-17.4571
ɔ	-17.4571
ờ	-17.4571
∗	-17.4571
⋅	-17.4571
✄	-17.4571
自	-17.4571
🎊	-17.4571
方	-17.4571
时	-17.4571
全	-17.4571
女	-17.4571
🎤	-17.4806
動	-17.4815
ŵ	-17.4815
⚽	-17.4815
❗	-17.4815
랑	-17.4815
ʺ	-17.4815
ड	-17.4815
म	-17.4815
💔	-17.4815
ক	-17.4815
💻	-17.5064
力	-17.5065
Ż	-17.5065
	-17.5065
ो	-17.5065
⬇	-17.5065
冦	-17.5065
成	-17.5065
ไ	-17.5065
🌞	-17.5065
👧	-17.5066
定	-17.5322
花	-17.5322
可	-17.5322
ʃ	-17.5322
🇮	-17.5322
🏃	-17.5322
😒	-17.5322
ʒ	-17.5322
Κ	-17.5322
け	-17.5322
니	-17.5322
ɛ	-17.5322
三	-17.5585
意	-17.5585
অ	-17.5585
安	-17.5585
通	-17.5585
🌺	-17.5585
😝	-17.5585
Ο	-17.5585
ṭ	-17.5585
☥	-17.5585
十	-17.5585
國	-17.5585
	-17.5585
🎃	-17.5585
Γ	-17.5585
Ѓ	-17.5585
入	-17.5585
手	-17.5585
ป	-17.5585
得	-17.5585
西	-17.5585
🎨	-17.5855
দ	-17.5855
🇨	-17.5855
়	-17.5855
ắ	-17.5855
☝	-17.5855
🌻	-17.5855
🍃	-17.5855
💓	-17.5855
💸	-17.5855
ブ	-17.5855
出	-17.5855
林	-17.5855
所	-17.5855
⁨	-17.6133
ば	-17.6133
之	-17.6133
物	-17.6133
二	-17.6133
陳	-17.6133
😡	-17.6133
Ć	-17.6133
ג	-17.6133
✘	-17.6133
	-17.6133
😈	-17.6133
ত	-17.6133
想	-17.6133
📲	-17.6418
🔬	-17.6418
🚀	-17.6418
李	-17.6419
気	-17.6419
ÿ	-17.6419
ț	-17.6419
Μ	-17.6419
ọ	-17.6419
☹	-17.6419
エ	-17.6419
🙃	-17.6419
ǎ	-17.6419
表	-17.6419
ハ	-17.6419
道	-17.6419
👯	-17.6419
句	-17.6713
面	-17.6713
ύ	-17.6713
ָ	-17.6713
ס	-17.6713
台	-17.6713
🇳	-17.6713
😌	-17.6713
😲	-17.6713
ụ	-17.6713
☠	-17.6713
名	-17.6713
하	-17.6713
🏡	-17.6713
理	-17.6713
示	-17.6713
部	-17.6713
ど	-17.7016
就	-17.7016
🇹	-17.7016
ム	-17.7016
为	-17.7016
么	-17.7016
Ë	-17.7016
̋	-17.7016
ِ	-17.7016
ْ	-17.7016
ग	-17.7016
ट	-17.7016
ầ	-17.7016
原	-17.7016
時	-17.7016
快	-17.7016
แ	-17.7016
南	-17.7328
פ	-17.7328
介	-17.7328
値	-17.7328
張	-17.7328
ʽ	-17.7328
⏰	-17.7328
△	-17.7328
✧	-17.7328
✩	-17.7328
ヲ	-17.7328
回	-17.7328
工	-17.7328
檚	-17.7328
間	-17.7328
题	-17.7328
🌅	-17.7328
💝	-17.7328
ա	-17.7328
平	-17.7328
网	-17.7328
Ї	-17.7328
😑	-17.7649
や	-17.7651
世	-17.7651
ں	-17.7651
∆	-17.7651
ナ	-17.7651
起	-17.7651
기	-17.7651
🍻	-17.7651
😥	-17.7651
🤘	-17.7651
🤪	-17.7651
Η	-17.7651
✪	-17.7651
👗	-17.7651
ノ	-17.7651
🦄	-17.7651
श	-17.7651
信	-17.7651
体	-17.7651
第	-17.7651
📱	-17.7983
🎭	-17.7984
め	-17.7984
۱	-17.7984
彼	-17.7984
很	-17.7984
省	-17.7984
리	-17.7984
🏳	-17.7984
💍	-17.7984
🧡	-17.7984
ξ	-17.7984
Я	-17.7984
↥	-17.7984
學	-17.7984
风	-17.7984
또	-17.7984
해	-17.7984
🍀	-17.7984
👶	-17.7984
同	-17.7984
粉	-17.7984
語	-17.7984
З	-17.7984
Ф	-17.7984
👦	-17.7985
乐	-17.8329
她	-17.8329
比	-17.8329
І	-17.8329
ु	-17.8329
⚫	-17.8329
モ	-17.8329
ɡ	-17.8329
ط	-17.8329
ღ	-17.8329
ặ	-17.8329
◇	-17.8329
果	-17.8329
아	-17.8329
	-17.8329
🍪	-17.8329
😯	-17.8329
👸	-17.867
́	-17.8672
打	-17.8686
ן	-17.8686
何	-17.8686
次	-17.8686
	-17.8686
ے	-17.8686
़	-17.8686
จ	-17.8686
ủ	-17.8686
午	-17.8686
路	-17.8686
😻	-17.8686
₩	-17.8686
四	-17.8686
會	-17.8686
保	-17.8686
市	-17.8686
🧜	-17.8686
プ	-17.9056
问	-17.9056
ј	-17.9056
当	-17.9056
💀	-17.9056
У	-17.9056
থ	-17.9056
ằ	-17.9056
ứ	-17.9056
❥	-17.9056
❧	-17.9056
然	-17.9056
	-17.9056
💩	-17.9056
📌	-17.9056
🙊	-17.9056
🤓	-17.9056
🤙	-17.9056
ল	-17.9056
发	-17.9056
点	-17.9056
🎀	-17.9056
🏿	-17.9056
👭	-17.9056
🕺	-17.9056
̳	-17.9057
ִ	-17.9057
║	-17.9057
💂	-17.9057
性	-17.9057
▭	-17.9057
于	-17.9441
化	-17.9441
🙅	-17.9441
代	-17.9441
킹	-17.9441
ζ	-17.9441
≦	-17.9441
ְ	-17.9441
ख	-17.9441
ᅠ	-17.9441
Ḥ	-17.9441
✭	-17.9441
✽	-17.9441
サ	-17.9441
九	-17.9441
略	-17.9441
電	-17.9441
스	-17.9441
의	-17.9441
	-17.9441
👻	-17.9441
😓	-17.9441
🤤	-17.9441
光	-17.9441
太	-17.9441
白	-17.9441
🤞	-17.9441
音	-17.9441
主	-17.9441
版	-17.9441
图	-17.9441
🔮	-17.983
⚖	-17.9841
目	-17.9841
ে	-17.9841
星	-17.9841
那	-17.9841
ʿ	-17.9841
ט	-17.9841
書	-17.9841
过	-17.9841
酒	-17.9841
	-17.9841
ĩ	-17.9841
һ	-17.9841
כ	-17.9841
خ	-17.9841
औ	-17.9841
⚪	-17.9841
开	-17.9841
神	-17.9841
程	-17.9841
经	-17.9841
	-17.9841
	-17.9841
ּ	-17.9841
动	-17.9841
没	-17.9841
田	-17.9841
士	-17.9841
📺	-18.0254
أ	-18.0257
場	-18.0258
🎓	-18.0258
わ	-18.0258
火	-18.0258
後	-18.0258
東	-18.0258
み	-18.0258
パ	-18.0258
記	-18.0258
Ч	-18.0258
今	-18.0258
喜	-18.0258
少	-18.0258
布	-18.0258
ब	-18.0258
⎯	-18.0258
▢	-18.0258
◯	-18.0258
❓	-18.0258
灣	-18.0258
베	-18.0258
유	-18.0258
💵	-18.0258
😵	-18.0258
🧘	-18.0258
ŋ	-18.0258
ъ	-18.0258
请	-18.0258
風	-18.0258
🔵	-18.0258
加	-18.0258
照	-18.0258
口	-18.0258
友	-18.0258
论	-18.0692
ئ	-18.0692
🏖	-18.0692
字	-18.0692
♻	-18.0693
ď	-18.0693
Ў	-18.0693
ุ	-18.0693
ẵ	-18.0693
⇧	-18.0693
じ	-18.0693
	-18.0693
🇵	-18.0693
🏠	-18.0693
ր	-18.0693
צ	-18.0693
⬆	-18.0693
而	-18.0693
ご	-18.0693
治	-18.0693
🎬	-18.1143
🎧	-18.1143
⚕	-18.1147
オ	-18.1147
木	-18.1147
相	-18.1147
க	-18.1147
车	-18.1147
Θ	-18.1147
ু	-18.1147
ช	-18.1147
界	-18.1147
Ý	-18.1147
Ρ	-18.1147
ӏ	-18.1147
ী	-18.1147
◉	-18.1147
✎	-18.1147
制	-18.1147
告	-18.1147
活	-18.1147
😣	-18.1147
😫	-18.1147
ġ	-18.1147
Ī	-18.1147
ŏ	-18.1147
ť	-18.1147
۲	-18.1147
ி	-18.1147
☁	-18.1147
八	-18.1147
華	-18.1147
😴	-18.1147
万	-18.1147
福	-18.1147
財	-18.1147
🍫	-18.1147
ね	-18.1147
ˌ	-18.1147
毛	-18.1147
丝	-18.1147
🏋	-18.1147
院	-18.1147
🎩	-18.1592
📝	-18.1621
利	-18.1623
关	-18.1623
河	-18.1623
э	-18.1623
品	-18.1623
案	-18.1623
真	-18.1623
答	-18.1623
ђ	-18.1623
ম	-18.1623
ợ	-18.1623
∑	-18.1623
❍	-18.1623
丁	-18.1623
节	-18.1623
시	-18.1623
장	-18.1623
즈	-18.1623
🌳	-18.1623
🍔	-18.1623
🍕	-18.1623
	-18.1623
ս	-18.1623
শ	-18.1623
স	-18.1623
⁃	-18.1623
⋮	-18.1623
❀	-18.1623
⬜	-18.1623
港	-18.1623
🍑	-18.1623
👈	-18.1623
📖	-18.1623
無	-18.1623
式	-18.1623
死	-18.1623
走	-18.1623
思	-18.1623
机	-18.1623
🌏	-18.1623
交	-18.1623
問	-18.1623
师	-18.1623
与	-18.1623
円	-18.2123
给	-18.2123
听	-18.2123
五	-18.2123
চ	-18.2123
ू	-18.2123
ํ	-18.2123
器	-18.2123
江	-18.2123
ȝ	-18.2123
₵	-18.2123
수	-18.2123
Ì	-18.2123
भ	-18.2123
গ	-18.2123
ণ	-18.2123
ಠ	-18.2123
ề	-18.2123
‧	-18.2123
↔	-18.2123
▽	-18.2123
☰	-18.2123
✊	-18.2123
➥	-18.2123
⦿	-18.2123
セ	-18.2123
ダ	-18.2123
书	-18.2123
飯	-18.2123
	-18.2123
💐	-18.2123
ё	-18.2123
也	-18.2123
重	-18.2123
食	-18.2123
ェ	-18.2123
源	-18.2123
等	-18.2123
野	-18.2123
👷	-18.2123
━	-18.2123
步	-18.2123
门	-18.2123
肉	-18.2123
🍳	-18.2649
🙎	-18.2649
社	-18.265
香	-18.265
ḍ	-18.265
格	-18.265
竄	-18.265
馬	-18.265
Β	-18.265
Υ	-18.265
ψ	-18.265
ַ	-18.265
ு	-18.265
ể	-18.265
⇨	-18.265
┳	-18.265
┻	-18.265
✯	-18.265
ァ	-18.265
ソ	-18.265
ベ	-18.265
什	-18.265
常	-18.265
石	-18.265
空	-18.265
简	-18.265
芒	-18.265
요	-18.265
한	-18.265
🇰	-18.265
🌠	-18.265
🌧	-18.265
🍹	-18.265
🏝	-18.265
💨	-18.265
💭	-18.265
🤭	-18.265
Х	-18.265
ビ	-18.265
考	-18.265
近	-18.265
黑	-18.265
인	-18.265
👁	-18.265
ฟ	-18.265
ょ	-18.265
ゴ	-18.265
ケ	-18.265
味	-18.265
改	-18.265
🍌	-18.265
春	-18.265
清	-18.265
片	-18.265
📹	-18.32
📦	-18.3203
取	-18.3205
先	-18.3205
及	-18.3205
토	-18.3205
华	-18.3205
ֺ	-18.3205
ׁ	-18.3205
≧	-18.3205
息	-18.3205
進	-18.3205
青	-18.3205
马	-18.3205
🇩	-18.3205
🌼	-18.3205
🍊	-18.3205
🤰	-18.3205
ʁ	-18.3205
օ	-18.3205
۴	-18.3205
ි	-18.3205
✢	-18.3205
❝	-18.3205
北	-18.3205
많	-18.3205
🇱	-18.3205
🍉	-18.3205
🧥	-18.3205
த	-18.3205
්	-18.3205
ἀ	-18.3205
永	-18.3205
라	-18.3205
서	-18.3205
영	-18.3205
包	-18.3205
呂	-18.3205
立	-18.3205
业	-18.3205
基	-18.3205
无	-18.3205
😹	-18.3205
现	-18.3205
球	-18.3205
🔊	-18.3777
ถ	-18.3793
ゃ	-18.3793
디	-18.3793
总	-18.3793
进	-18.3793
Э	-18.3793
ろ	-18.3793
再	-18.3793
校	-18.3793
트	-18.3793
ґ	-18.3793
ז	-18.3793
ٹ	-18.3793
ய	-18.3793
元	-18.3793
写	-18.3793
島	-18.3793
州	-18.3793
画	-18.3793
Ğ	-18.3793
ֶ	-18.3793
ো	-18.3793
ṅ	-18.3793
ớ	-18.3793
ữ	-18.3793
∂	-18.3793
♭	-18.3793
✏	-18.3793
〜	-18.3793
ネ	-18.3793
ョ	-18.3793
对	-18.3793
川	-18.3793
政	-18.3793
檛	-18.3793
解	-18.3793
锟	-18.3793
대	-18.3793
로	-18.3793
어	-18.3793
화	-18.3793
	-18.3793
🍽	-18.3793
🎟	-18.3793
👎	-18.3793
📧	-18.3793
📽	-18.3793
😪	-18.3793
🛍	-18.3793
	-18.3793
司	-18.3793
話	-18.3793
👟	-18.3793
话	-18.3793
百	-18.3793
约	-18.3793
服	-18.3794
魔	-18.3794
🐚	-18.3794
影	-18.3794
📣	-18.4413
✉	-18.4416
🥑	-18.4418
期	-18.4418
🌪	-18.4418
業	-18.4418
东	-18.4418
使	-18.4418
居	-18.4418
聽	-18.4418
菜	-18.4418
件	-18.4418
吃	-18.4418
土	-18.4418
	-18.4418
̇	-18.4418
↳	-18.4418
⏳	-18.4418
⭕	-18.4418
秋	-18.4418
该	-18.4418
長	-18.4418
안	-18.4418
	-18.4418
ŭ	-18.4418
ŷ	-18.4418
ո	-18.4418
ල	-18.4418
ỳ	-18.4418
☘	-18.4418
✱	-18.4418
七	-18.4418
儿	-18.4418
園	-18.4418
樂	-18.4418
고	-18.4418
국	-18.4418
	-18.4418
	-18.4418
🗺	-18.4418
😖	-18.4418
😶	-18.4418
🥁	-18.4418
🦃	-18.4418
因	-18.4418
直	-18.4418
育	-18.4418
計	-18.4418
웃	-18.4418
अ	-18.4418
米	-18.4418
选	-18.4418
ස	-18.4418
度	-18.4418
见	-18.4418
🐟	-18.4418
底	-18.4419
🍵	-18.4419
🚩	-18.4419
集	-18.4419
󠁧	-18.4419
🙂	-18.507
🎼	-18.508
🐐	-18.5082
🏫	-18.5085
،	-18.5085
感	-18.5085
🍒	-18.5085
🔧	-18.5085
创	-18.5085
ึ	-18.5085
ガ	-18.5085
🎸	-18.5085
色	-18.5085
验	-18.5085
ณ	-18.5085
首	-18.5085
🍍	-18.5085
Û	-18.5085
۵	-18.5085
च	-18.5085
非	-18.5085
👫	-18.5085
👰	-18.5085
💅	-18.5085
🔅	-18.5085
ե	-18.5085
ն	-18.5085
ُ	-18.5085
گ	-18.5085
ட	-18.5085
ố	-18.5085
ỹ	-18.5085
↠	-18.5085
⊕	-18.5085
♬	-18.5085
⛱	-18.5085
❇	-18.5085
➨	-18.5085
城	-18.5085
室	-18.5085
志	-18.5085
故	-18.5085
油	-18.5085
脫	-18.5085
興	-18.5085
術	-18.5085
读	-18.5085
除	-18.5085
雨	-18.5085
네	-18.5085
	-18.5085
🇿	-18.5085
🌮	-18.5085
🌵	-18.5085
👣	-18.5085
💄	-18.5085
🔍	-18.5085
🤖	-18.5085
ض	-18.5085
未	-18.5085
茶	-18.5085
🇫	-18.5085
🇲	-18.5085
🌙	-18.5085
🐱	-18.5085
🧐	-18.5085
ผ	-18.5085
料	-18.5085
管	-18.5085
🐰	-18.5085
務	-18.5085
夫	-18.5085
🔝	-18.5085
🐬	-18.5085
局	-18.5085
务	-18.5085
电	-18.5085
种	-18.5085
💧	-18.5086
📞	-18.5796
📈	-18.5796
🎯	-18.5797
🌾	-18.5799
過	-18.5799
放	-18.5799
指	-18.5799
👿	-18.5799
决	-18.5799
应	-18.5799
邃	-18.5799
फ	-18.5799
失	-18.5799
每	-18.5799
🇭	-18.5799
ņ	-18.5799
ւ	-18.5799
切	-18.5799
只	-18.5799
師	-18.5799
泉	-18.5799
移	-18.5799
	-18.5799
	-18.5799
ĕ	-18.5799
Ӏ	-18.5799
ṁ	-18.5799
ὐ	-18.5799
◀	-18.5799
☽	-18.5799
✥	-18.5799
❉	-18.5799
➕	-18.5799
➲	-18.5799
゚	-18.5799
京	-18.5799
克	-18.5799
况	-18.5799
卡	-18.5799
命	-18.5799
宝	-18.5799
拷	-18.5799
根	-18.5799
湯	-18.5799
草	-18.5799
藍	-18.5799
长	-18.5799
마	-18.5799
일	-18.5799
🍰	-18.5799
🐗	-18.5799
💬	-18.5799
🥇	-18.5799
🥳	-18.5799
̩	-18.5799
ώ	-18.5799
✴	-18.5799
牛	-18.5799
猫	-18.5799
細	-18.5799
误	-18.5799
원	-18.5799
🤢	-18.5799
🧖	-18.5799
⌛	-18.5799
ほ	-18.5799
🐝	-18.5799
做	-18.5799
ھ	-18.5799
任	-18.5799
才	-18.5799
必	-18.5799
号	-18.58
斤	-18.58
系	-18.58
龙	-18.58
播	-18.58
被	-18.58
张	-18.58
🚣	-18.58
📢	-18.6562
📋	-18.6565
🍇	-18.6568
雅	-18.6568
約	-18.6568
へ	-18.6568
Ɨ	-18.6569
注	-18.6569
狗	-18.6569
슈	-18.6569
◅	-18.6569
共	-18.6569
功	-18.6569
周	-18.6569
জ	-18.6569
හ	-18.6569
∀	-18.6569
☔	-18.6569
⤵	-18.6569
久	-18.6569
來	-18.6569
易	-18.6569
松	-18.6569
样	-18.6569
Ș	-18.6569
න	-18.6569
ự	-18.6569
‿	-18.6569
∧	-18.6569
⋆	-18.6569
⛰	-18.6569
✰	-18.6569
ボ	-18.6569
夜	-18.6569
寺	-18.6569
義	-18.6569
趣	-18.6569
가	-18.6569
데	-18.6569
주	-18.6569
차	-18.6569
팬	-18.6569
	-18.6569
🍴	-18.6569
🍸	-18.6569
🍺	-18.6569
👾	-18.6569
🔨	-18.6569
😟	-18.6569
🚗	-18.6569
ʌ	-18.6569
۞	-18.6569
ष	-18.6569
ப	-18.6569
ピ	-18.6569
ワ	-18.6569
君	-18.6569
将	-18.6569
朝	-18.6569
结	-18.6569
罪	-18.6569
聖	-18.6569
퍼	-18.6569
头	-18.6569
👕	-18.6569
̣	-18.6569
位	-18.6569
展	-18.6569
🙆	-18.6569
🌋	-18.6569
需	-18.6569
护	-18.6569
🕵	-18.6569
其	-18.6569
干	-18.6569
沙	-18.6569
▄	-18.6569
▀	-18.6569
📰	-18.7392
📀	-18.7394
🎹	-18.7395
🎻	-18.7396
🤨	-18.7401
施	-18.7402
客	-18.7402
〈	-18.7402
ء	-18.7402
量	-18.7402
境	-18.7402
機	-18.7402
現	-18.7402
越	-18.7402
受	-18.7402
统	-18.7402
古	-18.7402
建	-18.7402
律	-18.7402
望	-18.7402
葉	-18.7402
ɐ	-18.7402
്	-18.7402
像	-18.7402
彩	-18.7402
經	-18.7402
遊	-18.7402
🇴	-18.7402
ĭ	-18.7402
ං	-18.7402
ใ	-18.7402
₪	-18.7402
ペ	-18.7402
完	-18.7402
段	-18.7402
病	-18.7402
蔡	-18.7402
검	-18.7402
비	-18.7402
정	-18.7402
🍩	-18.7402
🛑	-18.7402
	-18.7402
Χ	-18.7402
ѓ	-18.7402
ֹ	-18.7402
ै	-18.7402
ছ	-18.7402
↗	-18.7402
↘	-18.7402
⸺	-18.7402
〉	-18.7402
值	-18.7402
報	-18.7402
夏	-18.7402
怎	-18.7402
族	-18.7402
早	-18.7402
觉	-18.7402
警	-18.7402
소	-18.7402
	-18.7402
🍓	-18.7402
🏅	-18.7402
🐈	-18.7402
🐻	-18.7402
👽	-18.7402
💌	-18.7402
💠	-18.7402
🔶	-18.7402
🚫	-18.7402
🚶	-18.7402
🥀	-18.7402
仔	-18.7402
娘	-18.7402
把	-18.7402
板	-18.7402
身	-18.7402
🐦	-18.7402
ற	-18.7402
ポ	-18.7402
보	-18.7402
ா	-18.7402
班	-18.7402
ἐ	-18.7402
🤠	-18.7402
形	-18.7402
谷	-18.7402
足	-18.7402
亚	-18.7402
男	-18.7402
报	-18.7402
ន	-18.831
🍆	-18.831
ា	-18.8311
غ	-18.8311
初	-18.8311
数	-18.8311
商	-18.8311
舞	-18.8311
已	-18.8311
站	-18.8311
🤶	-18.8311
向	-18.8311
实	-18.8311
半	-18.8311
為	-18.8311
┬	-18.8311
ォ	-18.8311
待	-18.8311
Ħ	-18.8311
✫	-18.8311
劉	-18.8311
団	-18.8311
着	-18.8311
軍	-18.8311
🍎	-18.8311
😠	-18.8311
ʏ	-18.8311
ѵ	-18.8311
ү	-18.8311
ظ	-18.8311
۰	-18.8311
۶	-18.8311
ෙ	-18.8311
ỏ	-18.8311
₽	-18.8311
⏤	-18.8311
╘	-18.8311
◈	-18.8311
☄	-18.8311
☼	-18.8311
♝	-18.8311
⚓	-18.8311
✆	-18.8311
✺	-18.8311
❒	-18.8311
ホ	-18.8311
仁	-18.8311
妈	-18.8311
座	-18.8311
忠	-18.8311
村	-18.8311
淚	-18.8311
玉	-18.8311
珍	-18.8311
車	-18.8311
選	-18.8311
開	-18.8311
餐	-18.8311
館	-18.8311
거	-18.8311
년	-18.8311
도	-18.8311
우	-18.8311
음	-18.8311
	-18.8311
	-18.8311
	-18.8311
	-18.8311
	-18.8311
🍭	-18.8311
🏈	-18.8311
🐕	-18.8311
🐺	-18.8311
👠	-18.8311
💆	-18.8311
💤	-18.8311
🖕	-18.8311
😚	-18.8311
🤯	-18.8311
ű	-18.8311
ড	-18.8311
வ	-18.8311
ῦ	-18.8311
⚈	-18.8311
军	-18.8311
奖	-18.8311
楽	-18.8311
素	-18.8311
論	-18.8311
许	-18.8311
返	-18.8311
限	-18.8311
雄	-18.8311
은	-18.8311
😨	-18.8311
🙀	-18.8311
ɜ	-18.8311
些	-18.8311
区	-18.8311
	-18.8311
👖	-18.8311
ர	-18.8311
員	-18.8311
🦀	-18.8311
持	-18.8311
处	-18.8311
質	-18.8311
队	-18.8311
🗡	-18.8311
员	-18.8311
气	-18.8311
记	-18.8311
≺	-18.8311
🤸	-18.8311
📩	-18.9306
្	-18.931
从	-18.9311
ず	-18.9311
普	-18.9311
造	-18.9311
奥	-18.9311
ট	-18.9311
导	-18.9311
尔	-18.9311
研	-18.9311
ण	-18.9311
拉	-18.9311
推	-18.9311
바	-18.9311
ץ	-18.9311
ภ	-18.9311
⟨	-18.9311
官	-18.9311
秀	-18.9311
∈	-18.9311
└	-18.9311
ぎ	-18.9311
內	-18.9311
屋	-18.9311
视	-18.9311
🤬	-18.9311
🧠	-18.9311
Ē	-18.9311
͞	-18.9311
Ԁ	-18.9311
ֵ	-18.9311
۪	-18.9311
ḷ	-18.9311
ẫ	-18.9311
ổ	-18.9311
⇓	-18.9311
∫	-18.9311
◙	-18.9311
☒	-18.9311
❃	-18.9311
⟩	-18.9311
参	-18.9311
始	-18.9311
尼	-18.9311
扁	-18.9311
欢	-18.9311
礼	-18.9311
秒	-18.9311
羊	-18.9311
豆	-18.9311
輝	-18.9311
饼	-18.9311
세	-18.9311
제	-18.9311
🌐	-18.9311
🍟	-18.9311
🏀	-18.9311
💉	-18.9311
🔎	-18.9311
🔑	-18.9311
🔔	-18.9311
🕊	-18.9311
😙	-18.9311
😤	-18.9311
🚘	-18.9311
ǐ	-18.9311
ӧ	-18.9311
մ	-18.9311
ّ	-18.9311
ા	-18.9311
☉	-18.9311
⚜	-18.9311
⭑	-18.9311
付	-18.9311
夢	-18.9311
忙	-18.9311
投	-18.9311
皮	-18.9311
與	-18.9311
象	-18.9311
販	-18.9311
그	-18.9311
란	-18.9311
상	-18.9311
전	-18.9311
🌄	-18.9311
💟	-18.9311
🦁	-18.9311
🧚	-18.9311
举	-18.9311
六	-18.9311
千	-18.9311
護	-18.9311
资	-18.9311
🐠	-18.9311
歌	-18.9311
议	-18.9311
⌓	-18.9311
己	-18.9311
母	-18.9311
远	-18.9311
收	-18.9311
激	-18.9311
观	-18.9311
让	-18.9311
技	-18.9311
🏴	-18.9312
医	-18.9312
🔐	-19.0408
👼	-19.0412
🏗	-19.042
ث	-19.0422
実	-19.0422
博	-19.0422
至	-19.0422
黄	-19.0422
洲	-19.0422
但	-19.0422
☢	-19.0422
户	-19.0422
ぶ	-19.0422
离	-19.0422
幸	-19.0422
結	-19.0422
井	-19.0422
兰	-19.0422
私	-19.0422
饭	-19.0422
	-19.0422
হ	-19.0422
ศ	-19.0422
察	-19.0422
束	-19.0422
温	-19.0422
究	-19.0422
菲	-19.0422
萬	-19.0422
郎	-19.0422
폰	-19.0422
🥞	-19.0422
	-19.0422
势	-19.0422
算	-19.0422
鸡	-19.0422
문	-19.0422
타	-19.0422
💇	-19.0422
🤟	-19.0422
🥊	-19.0422
Ù	-19.0422
Ř	-19.0422
ʾ	-19.0422
Щ	-19.0422
Ь	-19.0422
ך	-19.0422
٫	-19.0422
ڈ	-19.0422
۸	-19.0422
ই	-19.0422
ெ	-19.0422
ẩ	-19.0422
ẻ	-19.0422
℘	-19.0422
↪	-19.0422
⌚	-19.0422
◻	-19.0422
☻	-19.0422
✗	-19.0422
❅	-19.0422
ひ	-19.0422
仙	-19.0422
住	-19.0422
冤	-19.0422
冲	-19.0422
德	-19.0422
斯	-19.0422
旅	-19.0422
曾	-19.0422
条	-19.0422
湖	-19.0422
痴	-19.0422
胡	-19.0422
臥	-19.0422
舗	-19.0422
街	-19.0422
謝	-19.0422
贝	-19.0422
赤	-19.0422
공	-19.0422
구	-19.0422
드	-19.0422
래	-19.0422
면	-19.0422
뮬	-19.0422
생	-19.0422
에	-19.0422
으	-19.0422
키	-19.0422
표	-19.0422
	-19.0422
	-19.0422
	-19.0422
	-19.0422
🍗	-19.0422
🍿	-19.0422
🎮	-19.0422
🐘	-19.0422
🐥	-19.0422
👅	-19.0422
👥	-19.0422
💣	-19.0422
📆	-19.0422
🔗	-19.0422
🚂	-19.0422
🚽	-19.0422
🤫	-19.0422
🤳	-19.0422
ĺ	-19.0422
Ψ	-19.0422
ذ	-19.0422
ம	-19.0422
ல	-19.0422
ぐ	-19.0422
桃	-19.0422
洪	-19.0422
町	-19.0422
虎	-19.0422
运	-19.0422
雪	-19.0422
쿠	-19.0422
🎙	-19.0422
😧	-19.0422
̀	-19.0422
稿	-19.0422
笑	-19.0422
習	-19.0422
觀	-19.0422
詳	-19.0422
超	-19.0422
연	-19.0422
ச	-19.0422
它	-19.0422
支	-19.0422
歩	-19.0422
͟	-19.0422
կ	-19.0422
ষ	-19.0422
├	-19.0422
专	-19.0422
密	-19.0422
條	-19.0422
致	-19.0422
还	-19.0422
體	-19.0422
😷	-19.0422
假	-19.0422
此	-19.0422
發	-19.0422
单	-19.0422
声	-19.0422
红	-19.0422
朋	-19.0422
演	-19.0422
童	-19.0422
梅	-19.0423
󠁿	-19.0423
󠁢	-19.0423
并	-19.1672
消	-19.1672
券	-19.1672
飞	-19.1672
整	-19.1672
撮	-19.1672
充	-19.1672
词	-19.1672
众	-19.1672
👮	-19.1672
武	-19.1672
退	-19.1672
评	-19.1672
麻	-19.1672
포	-19.1672
個	-19.1672
往	-19.1672
锘	-19.1672
̵	-19.1672
ἰ	-19.1672
ヒ	-19.1672
典	-19.1672
助	-19.1672
晚	-19.1672
皇	-19.1672
认	-19.1672
👵	-19.1672
🙍	-19.1672
Ц	-19.1672
ի	-19.1672
ṃ	-19.1672
ⲟ	-19.1672
〡	-19.1672
び	-19.1672
团	-19.1672
型	-19.1672
委	-19.1672
尊	-19.1672
怡	-19.1672
择	-19.1672
票	-19.1672
连	-19.1672
龍	-19.1672
개	-19.1672
부	-19.1672
산	-19.1672
🍋	-19.1672
🏔	-19.1672
ɦ	-19.1672
घ	-19.1672
ை	-19.1672
᧐	-19.1672
ᴄ	-19.1672
ᴇ	-19.1672
ḏ	-19.1672
ẹ	-19.1672
ử	-19.1672
ἄ	-19.1672
ἔ	-19.1672
∠	-19.1672
⊗	-19.1672
⊙	-19.1672
⏯	-19.1672
⏱	-19.1672
☯	-19.1672
♛	-19.1672
♯	-19.1672
⚘	-19.1672
⛳	-19.1672
✚	-19.1672
✮	-19.1672
✶	-19.1672
❸	-19.1672
兴	-19.1672
凸	-19.1672
吳	-19.1672
囘	-19.1672
富	-19.1672
忘	-19.1672
敬	-19.1672
祭	-19.1672
臺	-19.1672
若	-19.1672
蛋	-19.1672
计	-19.1672
鱼	-19.1672
黃	-19.1672
강	-19.1672
글	-19.1672
미	-19.1672
색	-19.1672
애	-19.1672
재	-19.1672
합	-19.1672
	-19.1672
	-19.1672
	-19.1672
	-19.1672
	-19.1672
	-19.1672
𐤄	-19.1672
🍦	-19.1672
🎆	-19.1672
🎫	-19.1672
👬	-19.1672
🔪	-19.1672
🔰	-19.1672
🔻	-19.1672
🥃	-19.1672
ʔ	-19.1672
є	-19.1672
ई	-19.1672
ए	-19.1672
ም	-19.1672
◠	-19.1672
♔	-19.1672
〇	-19.1672
义	-19.1672
习	-19.1672
亮	-19.1672
吉	-19.1672
奶	-19.1672
宗	-19.1672
房	-19.1672
炒	-19.1672
箱	-19.1672
雷	-19.1672
경	-19.1672
진	-19.1672
	-19.1672
🇽	-19.1672
🍏	-19.1672
🛒	-19.1672
🤧	-19.1672
🥶	-19.1672
🦌	-19.1672
ன	-19.1672
严	-19.1672
便	-19.1672
御	-19.1672
睡	-19.1672
說	-19.1672
🦅	-19.1672
ざ	-19.1672
ɨ	-19.1672
ა	-19.1672
實	-19.1672
撒	-19.1672
於	-19.1672
良	-19.1672
谚	-19.1672
ৃ	-19.1672
姐	-19.1672
🦈	-19.1672
借	-19.1672
露	-19.1672
🐑	-19.1672
対	-19.1672
掲	-19.1672
角	-19.1672
╗	-19.1672
亲	-19.1672
╔	-19.1672
庭	-19.1672
議	-19.1672
梦	-19.1672
职	-19.1672
调	-19.1673
🎷	-19.3089
📬	-19.3094
📊	-19.3094
🏦	-19.3097
ម	-19.31
┴	-19.31
រ	-19.31
ង	-19.31
💼	-19.31
ជ	-19.31
聞	-19.31
似	-19.31
狼	-19.31
负	-19.31
优	-19.31
兄	-19.31
坛	-19.31
企	-19.3101
显	-19.3101
维	-19.3101
づ	-19.3101
爸	-19.3101
设	-19.3101
遠	-19.3101
🐒	-19.3101
候	-19.3101
又	-19.3101
广	-19.3101
戦	-19.3101
权	-19.3101
映	-19.3101
祖	-19.3101
🌽	-19.3101
ɚ	-19.3101
˃	-19.3101
ᆞ	-19.3101
Ṛ	-19.3101
Ṣ	-19.3101
☮	-19.3101
♤	-19.3101
ふ	-19.3101
ヴ	-19.3101
佛	-19.3101
划	-19.3101
双	-19.3101
念	-19.3101
羅	-19.3101
落	-19.3101
蔣	-19.3101
释	-19.3101
间	-19.3101
투	-19.3101
	-19.3101
ƴ	-19.3101
Ọ	-19.3101
⇛	-19.3101
∎	-19.3101
◘	-19.3101
♚	-19.3101
⛵	-19.3101
➠	-19.3101
⟵	-19.3101
々	-19.3101
宇	-19.3101
橋	-19.3101
淎	-19.3101
深	-19.3101
盛	-19.3101
船	-19.3101
観	-19.3101
跑	-19.3101
과	-19.3101
먹	-19.3101
야	-19.3101
학	-19.3101
회	-19.3101
	-19.3101
	-19.3101
🗝	-19.3101
🚧	-19.3101
Ġ	-19.3101
Ĩ	-19.3101
ļ	-19.3101
ľ	-19.3101
Ǝ	-19.3101
ɴ	-19.3101
Ш	-19.3101
џ	-19.3101
տ	-19.3101
۷	-19.3101
উ	-19.3101
៣	-19.3101
⇑	-19.3101
⇾	-19.3101
∘	-19.3101
⌋	-19.3101
⏩	-19.3101
◗	-19.3101
☏	-19.3101
☚	-19.3101
✂	-19.3101
✋	-19.3101
❦	-19.3101
❷	-19.3101
➁	-19.3101
げ	-19.3101
む	-19.3101
ゆ	-19.3101
ザ	-19.3101
冷	-19.3101
協	-19.3101
复	-19.3101
夕	-19.3101
婚	-19.3101
宿	-19.3101
找	-19.3101
景	-19.3101
楊	-19.3101
浜	-19.3101
漢	-19.3101
経	-19.3101
血	-19.3101
覧	-19.3101
詞	-19.3101
課	-19.3101
頭	-19.3101
页	-19.3101
飛	-19.3101
馆	-19.3101
驗	-19.3101
黒	-19.3101
게	-19.3101
메	-19.3101
무	-19.3101
방	-19.3101
분	-19.3101
선	-19.3101
윤	-19.3101
	-19.3101
	-19.3101
	-19.3101
	-19.3101
	-19.3101
	-19.3101
	-19.3101
	-19.3101
	-19.3101
🐢	-19.3101
🐪	-19.3101
🐼	-19.3101
👄	-19.3101
💑	-19.3101
🖥	-19.3101
🚴	-19.3101
🛠	-19.3101
🛵	-19.3101
̱	-19.3101
べ	-19.3101
ヨ	-19.3101
丸	-19.3101
妮	-19.3101
守	-19.3101
暗	-19.3101
群	-19.3101
職	-19.3101
藝	-19.3101
防	-19.3101
題	-19.3101
鬼	-19.3101
용	-19.3101
터	-19.3101
호	-19.3101
	-19.3101
🍯	-19.3101
🎒	-19.3101
🐷	-19.3101
止	-19.3101
澳	-19.3101
谢	-19.3101
関	-19.3101
具	-19.3101
叫	-19.3101
康	-19.3101
求	-19.3101
訳	-19.3101
课	-19.3101
賀	-19.3101
难	-19.3101
🔞	-19.3101
🐳	-19.3101
ৰ	-19.3101
奇	-19.3101
説	-19.3101
科	-19.3101
术	-19.3101
须	-19.3101
╣	-19.3101
标	-19.3101
流	-19.3101
战	-19.3101
⚔	-19.3101
反	-19.3101
线	-19.3101
游	-19.3101
钱	-19.3101
妹	-19.3101
╦	-19.3101
芝	-19.3101
󠁥	-19.3101
󠁮	-19.3101
⛅	-19.3102
📇	-19.4759
ក	-19.4766
確	-19.4767
ល	-19.4767
益	-19.4767
ុ	-19.4767
🍞	-19.4767
引	-19.4767
急	-19.4767
費	-19.4767
价	-19.4767
融	-19.4767
述	-19.4767
إ	-19.4767
ঙ	-19.4767
欧	-19.4767
款	-19.4767
险	-19.4767
促	-19.4767
父	-19.4767
讲	-19.4767
规	-19.4767
另	-19.4767
奈	-19.4767
唯	-19.4767
概	-19.4767
索	-19.4767
达	-19.4767
适	-19.4767
這	-19.4767
ന	-19.4767
伊	-19.4767
封	-19.4767
效	-19.4767
瑞	-19.4767
聚	-19.4767
連	-19.4767
雲	-19.4767
간	-19.4767
	-19.4767
ธ	-19.4767
າ	-19.4767
ი	-19.4767
ប	-19.4767
◕	-19.4767
俊	-19.4767
様	-19.4767
標	-19.4767
準	-19.4767
装	-19.4767
違	-19.4767
🥓	-19.4767
威	-19.4767
恩	-19.4767
環	-19.4767
精	-19.4767
親	-19.4767
豪	-19.4767
靈	-19.4767
麵	-19.4767
	-19.4767
Ū	-19.4767
ὑ	-19.4767
ῖ	-19.4767
☾	-19.4767
ヘ	-19.4767
冠	-19.4767
別	-19.4767
办	-19.4767
哥	-19.4767
坊	-19.4767
変	-19.4767
尾	-19.4767
排	-19.4767
智	-19.4767
權	-19.4767
氣	-19.4767
沒	-19.4767
泰	-19.4767
股	-19.4767
蒙	-19.4767
责	-19.4767
赢	-19.4767
跳	-19.4767
迪	-19.4767
達	-19.4767
邮	-19.4767
铁	-19.4767
관	-19.4767
	-19.4767
🎇	-19.4767
🥥	-19.4767
	-19.4767
ĉ	-19.4767
ǒ	-19.4767
Ɂ	-19.4767
͛	-19.4767
ϟ	-19.4767
Ж	-19.4767
ѐ	-19.4767
қ	-19.4767
ً	-19.4767
۹	-19.4767
်	-19.4767
ვ	-19.4767
ᅲ	-19.4767
ᅳ	-19.4767
ል	-19.4767
ᴏ	-19.4767
ỉ	-19.4767
ὸ	-19.4767
‽	-19.4767
↱	-19.4767
⌥	-19.4767
▒	-19.4767
▣	-19.4767
⚙	-19.4767
✲	-19.4767
❯	-19.4767
❱	-19.4767
❹	-19.4767
➩	-19.4767
➽	-19.4767
〰	-19.4767
ユ	-19.4767
丹	-19.4767
佳	-19.4767
场	-19.4767
曼	-19.4767
横	-19.4767
檒	-19.4767
檓	-19.4767
檙	-19.4767
甲	-19.4767
稚	-19.4767
號	-19.4767
虾	-19.4767
諾	-19.4767
迷	-19.4767
震	-19.4767
革	-19.4767
靴	-19.4767
験	-19.4767
魚	-19.4767
결	-19.4767
광	-19.4767
내	-19.4767
녀	-19.4767
실	-19.4767
없	-19.4767
위	-19.4767
을	-19.4767
중	-19.4767
	-19.4767
	-19.4767
	-19.4767
	-19.4767
	-19.4767
	-19.4767
	-19.4767
🇯	-19.4767
🇻	-19.4767
🌨	-19.4767
🌶	-19.4767
🍬	-19.4767
🎋	-19.4767
🎾	-19.4767
🏚	-19.4767
🏞	-19.4767
🐊	-19.4767
🐍	-19.4767
📕	-19.4767
🔫	-19.4767
🕷	-19.4767
😺	-19.4767
🚌	-19.4767
🚙	-19.4767
🚲	-19.4767
🤐	-19.4767
🤑	-19.4767
🤝	-19.4767
🥗	-19.4767
🦇	-19.4767
􀀁	-19.4767
۩	-19.4767
▓	-19.4767
✳	-19.4767
ゲ	-19.4767
伦	-19.4767
升	-19.4767
含	-19.4767
哪	-19.4767
圓	-19.4767
床	-19.4767
抹	-19.4767
暴	-19.4767
特	-19.4767
簡	-19.4767
訊	-19.4767
輪	-19.4767
途	-19.4767
録	-19.4767
阅	-19.4767
麗	-19.4767
성	-19.4767
	-19.4767
🌀	-19.4767
🏊	-19.4767
🗓	-19.4767
策	-19.4767
門	-19.4767
ર	-19.4767
啊	-19.4767
統	-19.4767
缺	-19.4767
設	-19.4767
週	-19.4767
프	-19.4767
👓	-19.4767
ญ	-19.4767
健	-19.4767
审	-19.4767
类	-19.4767
👱	-19.4767
ฮ	-19.4767
區	-19.4767
史	-19.4768
優	-19.4768
╚	-19.4768
营	-19.4768
强	-19.4768
番	-19.4768
极	-19.4768
瓶	-19.4768
微	-19.4768
货	-19.4768
宫	-19.4768
📡	-19.6748
📨	-19.6758
ូ	-19.6766
纸	-19.6767
壁	-19.6767
銀	-19.6767
🏙	-19.6767
売	-19.6767
减	-19.6767
猪	-19.6767
冰	-19.6767
怪	-19.6767
尽	-19.6767
准	-19.6767
吻	-19.6767
妙	-19.6767
罗	-19.6767
🙇	-19.6767
依	-19.6767
阿	-19.6767
ซ	-19.6767
互	-19.6767
紀	-19.6767
続	-19.6767
線	-19.6767
诉	-19.6767
争	-19.6767
堆	-19.6767
招	-19.6767
와	-19.6767
⎷	-19.6767
伝	-19.6767
伯	-19.6767
勞	-19.6767
吧	-19.6767
帮	-19.6767
秘	-19.6767
좋	-19.6767
🌝	-19.6767
🍈	-19.6767
🛳	-19.6767
🥔	-19.6767
址	-19.6767
珠	-19.6767
짤	-19.6767
ɣ	-19.6767
ษ	-19.6767
့	-19.6767
ṉ	-19.6767
ὅ	-19.6767
ぬ	-19.6767
修	-19.6767
卓	-19.6767
拍	-19.6767
朱	-19.6767
汽	-19.6767
确	-19.6767
董	-19.6767
藏	-19.6767
視	-19.6767
试	-19.6767
鴻	-19.6767
출	-19.6767
태	-19.6767
	-19.6767
|	-19.6767
į	-19.6767
Ţ	-19.6767
Ư	-19.6767
Һ	-19.6767
ׂ	-19.6767
ߋ	-19.6767
খ	-19.6767
২	-19.6767
០	-19.6767
ḇ	-19.6767
ẓ	-19.6767
ừ	-19.6767
∩	-19.6767
≫	-19.6767
▾	-19.6767
堅	-19.6767
姑	-19.6767
榮	-19.6767
状	-19.6767
玄	-19.6767
納	-19.6767
紹	-19.6767
組	-19.6767
縣	-19.6767
绍	-19.6767
航	-19.6767
蘇	-19.6767
补	-19.6767
談	-19.6767
證	-19.6767
购	-19.6767
転	-19.6767
送	-19.6767
금	-19.6767
김	-19.6767
께	-19.6767
녕	-19.6767
왕	-19.6767
저	-19.6767
증	-19.6767
할	-19.6767
	-19.6767
🌌	-19.6767
🎣	-19.6767
👂	-19.6767
👙	-19.6767
🕯	-19.6767
🥘	-19.6767
	-19.6767
ɹ	-19.6767
ɾ	-19.6767
ʀ	-19.6767
̸	-19.6767
՚	-19.6767
դ	-19.6767
ף	-19.6767
۳	-19.6767
ढ	-19.6767
।	-19.6767
ં	-19.6767
ொ	-19.6767
ე	-19.6767
ን	-19.6767
១	-19.6767
៨	-19.6767
ᥙ	-19.6767
ỗ	-19.6767
↹	-19.6767
⇔	-19.6767
∝	-19.6767
⊲	-19.6767
⋘	-19.6767
⋙	-19.6767
⌊	-19.6767
⌨	-19.6767
⏎	-19.6767
▍	-19.6767
▹	-19.6767
◥	-19.6767
♃	-19.6767
♆	-19.6767
⛏	-19.6767
⛷	-19.6767
⛺	-19.6767
✕	-19.6767
✣	-19.6767
ヤ	-19.6767
丽	-19.6767
仲	-19.6767
偉	-19.6767
危	-19.6767
变	-19.6767
吗	-19.6767
吹	-19.6767
咖	-19.6767
哲	-19.6767
啡	-19.6767
圣	-19.6767
堂	-19.6767
奴	-19.6767
孩	-19.6767
宮	-19.6767
寂	-19.6767
寶	-19.6767
巨	-19.6767
序	-19.6767
廳	-19.6767
徐	-19.6767
您	-19.6767
扱	-19.6767
択	-19.6767
控	-19.6767
散	-19.6767
昭	-19.6767
末	-19.6767
树	-19.6767
檝	-19.6767
沢	-19.6767
涵	-19.6767
混	-19.6767
滑	-19.6767
澤	-19.6767
灘	-19.6767
瑠	-19.6767
産	-19.6767
眼	-19.6767
突	-19.6767
篇	-19.6767
翻	-19.6767
背	-19.6767
読	-19.6767
賴	-19.6767
贵	-19.6767
鄭	-19.6767
閣	-19.6767
阳	-19.6767
陽	-19.6767
隆	-19.6767
類	-19.6767
養	-19.6767
날	-19.6767
려	-19.6767
만	-19.6767
민	-19.6767
삼	-19.6767
씨	-19.6767
예	-19.6767
오	-19.6767
자	-19.6767
질	-19.6767
짝	-19.6767
처	-19.6767
테	-19.6767
튀	-19.6767
	-19.6767
	-19.6767
	-19.6767
	-19.6767
	-19.6767
	-19.6767
	-19.6767
	-19.6767
	-19.6767
	-19.6767
	-19.6767
	-19.6767
	-19.6767
	-19.6767
	-19.6767
🌚	-19.6767
🌬	-19.6767
🍅	-19.6767
🏄	-19.6767
🏉	-19.6767
🐇	-19.6767
🐧	-19.6767
👐	-19.6767
💮	-19.6767
📶	-19.6767
🔆	-19.6767
🔒	-19.6767
🔛	-19.6767
🔺	-19.6767
🔽	-19.6767
🕶	-19.6767
🖇	-19.6767
🚅	-19.6767
🛎	-19.6767
🥤	-19.6767
🥴	-19.6767
🧤	-19.6767
	-19.6767
ǽ	-19.6767
๑	-19.6767
刊	-19.6767
园	-19.6767
带	-19.6767
恋	-19.6767
昇	-19.6767
織	-19.6767
般	-19.6767
許	-19.6767
譯	-19.6767
证	-19.6767
较	-19.6767
郷	-19.6767
麦	-19.6767
최	-19.6767
🎺	-19.6767
💿	-19.6767
յ	-19.6767
ॉ	-19.6767
善	-19.6767
忍	-19.6767
摘	-19.6767
积	-19.6767
認	-19.6767
ண	-19.6767
哀	-19.6767
戴	-19.6767
樹	-19.6767
誉	-19.6767
அ	-19.6767
啟	-19.6767
મ	-19.6767
轉	-19.6767
领	-19.6767
ভ	-19.6767
兵	-19.6767
導	-19.6767
征	-19.6767
按	-19.6767
曲	-19.6767
联	-19.6767
供	-19.6768
巴	-19.6768
🧕	-19.6768
應	-19.6768
环	-19.6768
协	-19.6768
各	-19.6768
妻	-19.6768
灵	-19.6768
谁	-19.6768
變	-19.6768
汉	-19.6768
妇	-19.6768
岛	-19.6768
瓜	-19.6768
据	-19.6768
级	-19.6768
👒	-19.9242
📅	-19.9255
ំ	-19.9266
ត	-19.9266
🍄	-19.9267
🥕	-19.9267
態	-19.9267
婷	-19.9267
🥜	-19.9267
押	-19.9267
🧓	-19.9267
ស	-19.9267
宾	-19.9267
漫	-19.9267
陈	-19.9267
低	-19.9267
短	-19.9267
乎	-19.9267
亞	-19.9267
価	-19.9267
闪	-19.9267
册	-19.9267
荐	-19.9267
Ę	-19.9267
寓	-19.9267
疑	-19.9267
杭	-19.9267
附	-19.9267
府	-19.9267
製	-19.9267
🥝	-19.9267
割	-19.9267
邪	-19.9267
ฝ	-19.9267
✹	-19.9267
培	-19.9267
帯	-19.9267
廣	-19.9267
托	-19.9267
蓮	-19.9267
藤	-19.9267
誕	-19.9267
調	-19.9267
등	-19.9267
배	-19.9267
🏌	-19.9267
̯	-19.9267
塚	-19.9267
構	-19.9267
池	-19.9267
淑	-19.9267
胜	-19.9267
荒	-19.9267
ක	-19.9267
丙	-19.9267
乱	-19.9267
予	-19.9267
単	-19.9267
坐	-19.9267
块	-19.9267
域	-19.9267
孝	-19.9267
孫	-19.9267
履	-19.9267
強	-19.9267
悠	-19.9267
搞	-19.9267
歡	-19.9267
眠	-19.9267
范	-19.9267
识	-19.9267
迎	-19.9267
速	-19.9267
鍋	-19.9267
걸	-19.9267
계	-19.9267
물	-19.9267
업	-19.9267
̂	-19.9267
̴	-19.9267
Ю	-19.9267
լ	-19.9267
ව	-19.9267
ἱ	-19.9267
╒	-19.9267
◡	-19.9267
ⲣ	-19.9267
ヌ	-19.9267
云	-19.9267
図	-19.9267
填	-19.9267
姻	-19.9267
惠	-19.9267
续	-19.9267
艹	-19.9267
茂	-19.9267
茅	-19.9267
評	-19.9267
辣	-19.9267
込	-19.9267
頑	-19.9267
남	-19.9267
덕	-19.9267
러	-19.9267
식	-19.9267
양	-19.9267
책	-19.9267
초	-19.9267
행	-19.9267
	-19.9267
💈	-19.9267
💒	-19.9267
🤜	-19.9267
🤵	-19.9267
Ď	-19.9267
ǔ	-19.9267
ѡ	-19.9267
ߝ	-19.9267
∏	-19.9267
⌈	-19.9267
✝	-19.9267
农	-19.9267
植	-19.9267
筷	-19.9267
終	-19.9267
여	-19.9267
있	-19.9267
짙	-19.9267
	-19.9267
	-19.9267
	-19.9267
🍚	-19.9267
🍲	-19.9267
🔟	-19.9267
🗳	-19.9267
Ľ	-19.9267
Ű	-19.9267
Ơ	-19.9267
Ǖ	-19.9267
Ȝ	-19.9267
ʘ	-19.9267
ʟ	-19.9267
ˉ	-19.9267
̓	-19.9267
Ξ	-19.9267
׳	-19.9267
ٌ	-19.9267
٣	-19.9267
ژ	-19.9267
ߣ	-19.9267
ौ	-19.9267
ঠ	-19.9267
ফ	-19.9267
ી	-19.9267
ழ	-19.9267
ๆ	-19.9267
៥	-19.9267
៦	-19.9267
ᴡ	-19.9267
ḿ	-19.9267
ἴ	-19.9267
ὰ	-19.9267
₾	-19.9267
⇐	-19.9267
∃	-19.9267
∅	-19.9267
∇	-19.9267
⊹	-19.9267
⋯	-19.9267
⌒	-19.9267
┘	-19.9267
▌	-19.9267
◔	-19.9267
☂	-19.9267
⚒	-19.9267
⛸	-19.9267
❆	-19.9267
❊	-19.9267
❔	-19.9267
❻	-19.9267
➀	-19.9267
➚	-19.9267
➝	-19.9267
➣	-19.9267
➾	-19.9267
⫻	-19.9267
⫽	-19.9267
〔	-19.9267
乘	-19.9267
仕	-19.9267
份	-19.9267
伙	-19.9267
倉	-19.9267
児	-19.9267
厉	-19.9267
厨	-19.9267
叶	-19.9267
吸	-19.9267
唐	-19.9267
圖	-19.9267
姫	-19.9267
娱	-19.9267
害	-19.9267
宽	-19.9267
對	-19.9267
巧	-19.9267
帽	-19.9267
幕	-19.9267
恐	-19.9267
慶	-19.9267
拜	-19.9267
拠	-19.9267
掉	-19.9267
掌	-19.9267
描	-19.9267
敏	-19.9267
敷	-19.9267
昌	-19.9267
材	-19.9267
杯	-19.9267
検	-19.9267
極	-19.9267
洞	-19.9267
测	-19.9267
滴	-19.9267
灌	-19.9267
灯	-19.9267
焼	-19.9267
琴	-19.9267
璃	-19.9267
症	-19.9267
癫	-19.9267
窗	-19.9267
糕	-19.9267
糖	-19.9267
紫	-19.9267
維	-19.9267
置	-19.9267
翁	-19.9267
脗	-19.9267
脚	-19.9267
蟹	-19.9267
裁	-19.9267
誠	-19.9267
边	-19.9267
銈	-19.9267
際	-19.9267
霊	-19.9267
項	-19.9267
魯	-19.9267
Ꞌ	-19.9267
갈	-19.9267
감	-19.9267
들	-19.9267
람	-19.9267
렌	-19.9267
법	-19.9267
션	-19.9267
쓰	-19.9267
악	-19.9267
적	-19.9267
조	-19.9267
침	-19.9267
캐	-19.9267
탕	-19.9267
팝	-19.9267
현	-19.9267
	-19.9267
	-19.9267
	-19.9267
	-19.9267
	-19.9267
	-19.9267
	-19.9267
	-19.9267
	-19.9267
	-19.9267
	-19.9267
	-19.9267
	-19.9267
	-19.9267
𐤅	-19.9267
𐤉	-19.9267
🌑	-19.9267
🌕	-19.9267
🍜	-19.9267
🍨	-19.9267
🎿	-19.9267
🏍	-19.9267
🏏	-19.9267
🐛	-19.9267
🐨	-19.9267
🐴	-19.9267
👢	-19.9267
🔋	-19.9267
🔷	-19.9267
🕸	-19.9267
🖐	-19.9267
🖖	-19.9267
🖼	-19.9267
🗂	-19.9267
😸	-19.9267
🙉	-19.9267
🚒	-19.9267
🛀	-19.9267
🛋	-19.9267
🦊	-19.9267
Ź	-19.9267
ક	-19.9267
સ	-19.9267
ள	-19.9267
ぱ	-19.9267
休	-19.9267
响	-19.9267
株	-19.9267
浓	-19.9267
淗	-19.9267
満	-19.9267
猴	-19.9267
终	-19.9267
較	-19.9267
辅	-19.9267
단	-19.9267
암	-19.9267
🌤	-19.9267
🍐	-19.9267
🛫	-19.9267
🧁	-19.9267
թ	-19.9267
જ	-19.9267
ે	-19.9267
ය	-19.9267
ေ	-19.9267
ῳ	-19.9267
令	-19.9267
佐	-19.9267
免	-19.9267
岡	-19.9267
希	-19.9267
徒	-19.9267
慰	-19.9267
捕	-19.9267
淭	-19.9267
渡	-19.9267
網	-19.9267
練	-19.9267
腿	-19.9267
逸	-19.9267
错	-19.9267
隊	-19.9267
静	-19.9267
鲜	-19.9267
	-19.9267
🅿	-19.9267
🆕	-19.9267
👛	-19.9267
🤒	-19.9267
🤮	-19.9267
ূ	-19.9267
几	-19.9267
波	-19.9267
骨	-19.9267
င	-19.9267
ぽ	-19.9267
剛	-19.9267
嚴	-19.9267
節	-19.9267
紅	-19.9267
缔	-19.9267
陪	-19.9267
👔	-19.9267
အ	-19.9267
્	-19.9267
售	-19.9267
构	-19.9267
洗	-19.9267
衆	-19.9268
🐙	-19.9268
🗻	-19.9268
損	-19.9268
災	-19.9268
际	-19.9268
🐋	-19.9268
努	-19.9268
勢	-19.9268
呼	-19.9268
鮮	-19.9268
難	-19.9268
禁	-19.9268
┌	-19.9268
倒	-19.9268
堡	-19.9268
惊	-19.9268
艺	-19.9268
🤡	-19.9268
🤴	-19.9268
🧔	-19.9268
👳	-19.9268
幻	-19.9268
崎	-19.9268
绝	-19.9268
列	-19.9268
梨	-19.9268
恶	-19.9268
卖	-19.9269
蕾	-19.9269
📯	-20.2567
✒	-20.2583
📉	-20.2583
紧	-20.2599
产	-20.2599
យ	-20.2599
措	-20.26
逃	-20.26
潮	-20.26
仍	-20.26
项	-20.26
淫	-20.26
ؤ	-20.26
ដ	-20.26
谈	-20.26
貸	-20.26
ណ	-20.26
否	-20.26
延	-20.26
換	-20.26
鏡	-20.26
囧	-20.26
备	-20.26
独	-20.26
阴	-20.26
顾	-20.26
鳥	-20.26
縖	-20.26
振	-20.2601
̥	-20.2601
ദ	-20.2601
ლ	-20.2601
两	-20.2601
俗	-20.2601
勇	-20.2601
印	-20.2601
套	-20.2601
承	-20.2601
破	-20.2601
获	-20.2601
規	-20.2601
証	-20.2601
询	-20.2601
赛	-20.2601
맨	-20.2601
🥒	-20.2601
〃	-20.2601
運	-20.2601
障	-20.2601
ˀ	-20.2601
ϊ	-20.2601
Ա	-20.2601
ര	-20.2601
临	-20.2601
劫	-20.2601
役	-20.2601
怖	-20.2601
懂	-20.2601
毕	-20.2601
痫	-20.2601
碧	-20.2601
腩	-20.2601
苦	-20.2601
薬	-20.2601
虑	-20.2601
衛	-20.2601
識	-20.2601
讨	-20.2601
貿	-20.2601
賓	-20.2601
鄉	-20.2601
酥	-20.2601
響	-20.2601
願	-20.2601
齿	-20.2601
동	-20.2601
목	-20.2601
습	-20.2601
통	-20.2601
	-20.2601
🔭	-20.2601
携	-20.2601
烏	-20.2601
Ą	-20.2601
Ě	-20.2601
ķ	-20.2601
ǧ	-20.2601
̝	-20.2601
ҫ	-20.2601
ԛ	-20.2601
״	-20.2601
১	-20.2601
ே	-20.2601
മ	-20.2601
✡	-20.2601
➧	-20.2601
➴	-20.2601
⬍	-20.2601
〞	-20.2601
买	-20.2601
仏	-20.2601
伴	-20.2601
卫	-20.2601
吞	-20.2601
咳	-20.2601
媽	-20.2601
宋	-20.2601
宙	-20.2601
宣	-20.2601
審	-20.2601
库	-20.2601
弄	-20.2601
拢	-20.2601
晴	-20.2601
曉	-20.2601
枫	-20.2601
梁	-20.2601
椒	-20.2601
欺	-20.2601
歐	-20.2601
殺	-20.2601
毁	-20.2601
烤	-20.2601
玻	-20.2601
端	-20.2601
胁	-20.2601
臣	-20.2601
蒸	-20.2601
蓝	-20.2601
豬	-20.2601
鐘	-20.2601
離	-20.2601
건	-20.2601
겠	-20.2601
놀	-20.2601
력	-20.2601
록	-20.2601
밀	-20.2601
퀴	-20.2601
평	-20.2601
	-20.2601
	-20.2601
	-20.2601
	-20.2601
	-20.2601
	-20.2601
🌛	-20.2601
🍼	-20.2601
🏨	-20.2601
🏰	-20.2601
🐔	-20.2601
🔖	-20.2601
🗲	-20.2601
🧀	-20.2601
🧗	-20.2601
Ĉ	-20.2601
ċ	-20.2601
Ķ	-20.2601
Ə	-20.2601
ǂ	-20.2601
Ț	-20.2601
ɗ	-20.2601
ɲ	-20.2601
ʂ	-20.2601
ʉ	-20.2601
̅	-20.2601
̲	-20.2601
͕	-20.2601
ΰ	-20.2601
Њ	-20.2601
Ћ	-20.2601
ԝ	-20.2601
Ե	-20.2601
ը	-20.2601
պ	-20.2601
ٍ	-20.2601
۬	-20.2601
ँ	-20.2601
इ	-20.2601
ठ	-20.2601
थ	-20.2601
ধ	-20.2601
ગ	-20.2601
ද	-20.2601
ກ	-20.2601
ມ	-20.2601
ລ	-20.2601
ວ	-20.2601
ပ	-20.2601
လ	-20.2601
ᄒ	-20.2601
ና	-20.2601
የ	-20.2601
ᐅ	-20.2601
២	-20.2601
៧	-20.2601
ᠣ	-20.2601
ᴛ	-20.2601
ḡ	-20.2601
ḻ	-20.2601
ṯ	-20.2601
ẋ	-20.2601
ỵ	-20.2601
ỷ	-20.2601
ὀ	-20.2601
ὃ	-20.2601
ὴ	-20.2601
ὶ	-20.2601
ῥ	-20.2601
↟	-20.2601
⇝	-20.2601
⇩	-20.2601
∨	-20.2601
⓵	-20.2601
┈	-20.2601
╞	-20.2601
╩	-20.2601
▧	-20.2601
◌	-20.2601
☭	-20.2601
♌	-20.2601
♍	-20.2601
♟	-20.2601
♮	-20.2601
⛔	-20.2601
⛽	-20.2601
✟	-20.2601
✠	-20.2601
✷	-20.2601
✻	-20.2601
❂	-20.2601
❈	-20.2601
❋	-20.2601
❚	-20.2601
➌	-20.2601
➞	-20.2601
➳	-20.2601
⧫	-20.2601
ⲁ	-20.2601
〓	-20.2601
ギ	-20.2601
丈	-20.2601
乃	-20.2601
佣	-20.2601
侨	-20.2601
們	-20.2601
傻	-20.2601
億	-20.2601
凱	-20.2601
剣	-20.2601
勋	-20.2601
勳	-20.2601
厅	-20.2601
历	-20.2601
參	-20.2601
嗽	-20.2601
嘴	-20.2601
團	-20.2601
埔	-20.2601
執	-20.2601
妳	-20.2601
孔	-20.2601
存	-20.2601
宅	-20.2601
宏	-20.2601
宵	-20.2601
專	-20.2601
尻	-20.2601
峰	-20.2601
崇	-20.2601
弟	-20.2601
弹	-20.2601
彰	-20.2601
患	-20.2601
悲	-20.2601
愿	-20.2601
慧	-20.2601
扌	-20.2601
扰	-20.2601
批	-20.2601
抱	-20.2601
拳	-20.2601
捷	-20.2601
探	-20.2601
撈	-20.2601
攻	-20.2601
斗	-20.2601
旗	-20.2601
札	-20.2601
杰	-20.2601
析	-20.2601
架	-20.2601
械	-20.2601
榕	-20.2601
汇	-20.2601
決	-20.2601
沈	-20.2601
津	-20.2601
派	-20.2601
济	-20.2601
淡	-20.2601
添	-20.2601
湘	-20.2601
湾	-20.2601
潭	-20.2601
灰	-20.2601
煲	-20.2601
熊	-20.2601
爬	-20.2601
牌	-20.2601
玲	-20.2601
瑜	-20.2601
盘	-20.2601
祈	-20.2601
祺	-20.2601
禮	-20.2601
签	-20.2601
築	-20.2601
級	-20.2601
絪	-20.2601
緒	-20.2601
纳	-20.2601
绿	-20.2601
聯	-20.2601
聰	-20.2601
芳	-20.2601
苹	-20.2601
莊	-20.2601
菊	-20.2601
菌	-20.2601
衣	-20.2601
袋	-20.2601
覺	-20.2601
該	-20.2601
讯	-20.2601
账	-20.2601
贸	-20.2601
跟	-20.2601
载	-20.2601
辞	-20.2601
逆	-20.2601
邱	-20.2601
鉎	-20.2601
鐵	-20.2601
鑑	-20.2601
锋	-20.2601
镇	-20.2601
阪	-20.2601
雇	-20.2601
順	-20.2601
顺	-20.2601
频	-20.2601
餃	-20.2601
鼓	-20.2601
격	-20.2601
겹	-20.2601
곡	-20.2601
교	-20.2601
너	-20.2601
널	-20.2601
누	-20.2601
된	-20.2601
럼	-20.2601
렐	-20.2601
림	-20.2601
말	-20.2601
반	-20.2601
별	-20.2601
브	-20.2601
살	-20.2601
샤	-20.2601
슬	-20.2601
역	-20.2601
울	-20.2601
육	-20.2601
작	-20.2601
집	-20.2601
짜	-20.2601
찜	-20.2601
천	-20.2601
청	-20.2601
치	-20.2601
파	-20.2601
혜	-20.2601
	-20.2601
	-20.2601
	-20.2601
	-20.2601
	-20.2601
	-20.2601
	-20.2601
	-20.2601
	-20.2601
	-20.2601
	-20.2601
	-20.2601
	-20.2601
	-20.2601
	-20.2601
	-20.2601
	-20.2601
	-20.2601
￿	-20.2601
𐌽	-20.2601
🅰	-20.2601
🆓	-20.2601
🇾	-20.2601
🍝	-20.2601
🍣	-20.2601
🏁	-20.2601
🏓	-20.2601
🏕	-20.2601
🐉	-20.2601
🐓	-20.2601
🐯	-20.2601
🐽	-20.2601
👜	-20.2601
👹	-20.2601
💷	-20.2601
📒	-20.2601
📻	-20.2601
🔌	-20.2601
🔙	-20.2601
🔜	-20.2601
🕑	-20.2601
🕛	-20.2601
🖋	-20.2601
🚑	-20.2601
🚪	-20.2601
🛣	-20.2601
🤕	-20.2601
🤛	-20.2601
🥛	-20.2601
🥧	-20.2601
🦆	-20.2601
🦸	-20.2601
🧒	-20.2601
🧣	-20.2601
🧬	-20.2601
􀂃	-20.2601
⊖	-20.2601
⬛	-20.2601
哈	-20.2601
摇	-20.2601
漏	-20.2601
硬	-20.2601
	-20.2601
👪	-20.2601
ŝ	-20.2601
Ƅ	-20.2601
բ	-20.2601
ય	-20.2601
ோ	-20.2601
ം	-20.2601
៩	-20.2601
≅	-20.2601
✞	-20.2601
ヶ	-20.2601
備	-20.2601
凤	-20.2601
勿	-20.2601
單	-20.2601
嘉	-20.2601
坏	-20.2601
悪	-20.2601
憲	-20.2601
断	-20.2601
沿	-20.2601
甘	-20.2601
腸	-20.2601
薯	-20.2601
配	-20.2601
須	-20.2601
때	-20.2601
불	-20.2601
월	-20.2601
티	-20.2601
피	-20.2601
🕰	-20.2601
Ζ	-20.2601
چ	-20.2601
က	-20.2601
ါ	-20.2601
ာ	-20.2601
თ	-20.2601
რ	-20.2601
ᴀ	-20.2601
ᴘ	-20.2601
⤴	-20.2601
ぼ	-20.2601
乏	-20.2601
则	-20.2601
宁	-20.2601
废	-20.2601
执	-20.2601
抵	-20.2601
撃	-20.2601
暮	-20.2601
楼	-20.2601
漂	-20.2601
烟	-20.2601
熟	-20.2601
租	-20.2601
繁	-20.2601
络	-20.2601
芸	-20.2601
資	-20.2601
财	-20.2601
追	-20.2601
降	-20.2601
随	-20.2601
霏	-20.2601
鞋	-20.2601
预	-20.2601
騎	-20.2601
버	-20.2601
언	-20.2601
환	-20.2601
𐌄	-20.2601
🆘	-20.2601
🎡	-20.2601
📥	-20.2601
ṟ	-20.2601
僕	-20.2601
帶	-20.2601
葡	-20.2601
醒	-20.2601
脑	-20.2601
🦉	-20.2601
ฑ	-20.2601
ს	-20.2601
ᵻ	-20.2601
ゥ	-20.2601
余	-20.2601
刺	-20.2601
励	-20.2601
啤	-20.2601
困	-20.2601
季	-20.2601
査	-20.2601
欲	-20.2601
残	-20.2601
炸	-20.2601
犯	-20.2601
畫	-20.2601
痛	-20.2601
祝	-20.2601
給	-20.2601
請	-20.2601
豐	-20.2601
辦	-20.2601
铃	-20.2601
關	-20.2601
워	-20.2601
荣	-20.2601
薇	-20.2601
劇	-20.2601
労	-20.2601
昨	-20.2601
歷	-20.2601
码	-20.2601
訓	-20.2601
🐡	-20.2601
固	-20.2601
͏	-20.2601
却	-20.2601
伸	-20.2601
๊	-20.2601
⛈	-20.2601
仅	-20.2601
脱	-20.2601
插	-20.2601
胆	-20.2601
杨	-20.2602
核	-20.2602
税	-20.2602
聊	-20.2602
腐	-20.2602
骗	-20.2602
刀	-20.2602
腹	-20.2602
乳	-20.2602
柏	-20.2602
滨	-20.2602
穴	-20.2603
📪	-20.7572
📫	-20.7572
📭	-20.7572
📃	-20.7577
📄	-20.7579
📑	-20.7583
采	-20.7598
ហ	-20.7598
ោ	-20.7598
វ	-20.7599
赌	-20.7599
ះ	-20.7599
់	-20.7599
瞳	-20.7599
诲	-20.7599
🏘	-20.7599
🏭	-20.7599
厢	-20.7599
ច	-20.7599
	-20.7599
̢	-20.76
ផ	-20.76
ឹ	-20.76
享	-20.76
传	-20.76
契	-20.76
属	-20.76
帝	-20.76
扉	-20.76
爆	-20.76
裸	-20.76
档	-20.76
ើ	-20.76
既	-20.76
乙	-20.76
̠	-20.76
̤	-20.76
̦	-20.76
̼	-20.76
ួ	-20.76
乡	-20.76
侘	-20.76
兌	-20.76
則	-20.76
厚	-20.76
喻	-20.76
崗	-20.76
扔	-20.76
氫	-20.76
稣	-20.76
竞	-20.76
耶	-20.76
薦	-20.76
討	-20.76
還	-20.76
鏈	-20.76
锛	-20.76
點	-20.76
츠	-20.76
இ	-20.76
ှ	-20.76
估	-20.76
党	-20.76
右	-20.76
圳	-20.76
恰	-20.76
敵	-20.76
旦	-20.76
権	-20.76
殿	-20.76
滩	-20.76
窑	-20.76
组	-20.76
荃	-20.76
转	-20.76
顧	-20.76
驰	-20.76
ਵ	-20.7601
ᚲ	-20.7601
宜	-20.7601
岸	-20.7601
掃	-20.7601
疲	-20.7601
🧟	-20.7601
	-20.7601
Բ	-20.7601
Թ	-20.7601
װ	-20.7601
ਰ	-20.7601
ಡ	-20.7601
ത	-20.7601
ാ	-20.7601
ා	-20.7601
ᛚ	-20.7601
ទ	-20.7601
េ	-20.7601
Ἐ	-20.7601
ⲙ	-20.7601
ぁ	-20.7601
乒	-20.7601
乓	-20.7601
俠	-20.7601
剧	-20.7601
召	-20.7601
喊	-20.7601
坑	-20.7601
悄	-20.7601
戚	-20.7601
拿	-20.7601
换	-20.7601
牙	-20.7601
盧	-20.7601
瞬	-20.7601
穿	-20.7601
箭	-20.7601
继	-20.7601
肩	-20.7601
舟	-20.7601
蕭	-20.7601
藐	-20.7601
賭	-20.7601
酉	-20.7601
酱	-20.7601
针	-20.7601
雑	-20.7601
雜	-20.7601
鹿	-20.7601
각	-20.7601
겨	-20.7601
똥	-20.7601
콜	-20.7601
🆙	-20.7601
🕹	-20.7601
🤥	-20.7601
🧞	-20.7601
霸	-20.7601
Ċ	-20.7601
ǫ	-20.7601
ˋ	-20.7601
ി	-20.7601
ከ	-20.7601
ግ	-20.7601
ᗩ	-20.7601
∣	-20.7601
▐	-20.7601
ぜ	-20.7601
ㇴ	-20.7601
亦	-20.7601
伏	-20.7601
兒	-20.7601
凌	-20.7601
压	-20.7601
墨	-20.7601
婆	-20.7601
婦	-20.7601
弦	-20.7601
惜	-20.7601
扬	-20.7601
捞	-20.7601
掳	-20.7601
曹	-20.7601
柚	-20.7601
栗	-20.7601
桐	-20.7601
毅	-20.7601
汤	-20.7601
涂	-20.7601
淨	-20.7601
滋	-20.7601
眞	-20.7601
碎	-20.7601
纪	-20.7601
芋	-20.7601
蕃	-20.7601
薑	-20.7601
講	-20.7601
输	-20.7601
辜	-20.7601
鈧	-20.7601
鍾	-20.7601
鎖	-20.7601
霞	-20.7601
馘	-20.7601
駅	-20.7601
까	-20.7601
몸	-20.7601
빵	-20.7601
앙	-20.7601
추	-20.7601
플	-20.7601
했	-20.7601
	-20.7601
	-20.7601
	-20.7601
👤	-20.7601
💶	-20.7601
📜	-20.7601
🚹	-20.7601
🥦	-20.7601
🦐	-20.7601
󾓝	-20.7601
Ņ	-20.7601
ƅ	-20.7601
ȟ	-20.7601
ɢ	-20.7601
̒	-20.7601
ϩ	-20.7601
৪	-20.7601
ṓ	-20.7601
ẁ	-20.7601
‫	-20.7601
₡	-20.7601
⊃	-20.7601
⌀	-20.7601
✛	-20.7601
❎	-20.7601
➰	-20.7601
⸢	-20.7601
启	-20.7601
歼	-20.7601
洋	-20.7601
浩	-20.7601
綿	-20.7601
萌	-20.7601
蘭	-20.7601
誤	-20.7601
软	-20.7601
閃	-20.7601
임	-20.7601
	-20.7601
	-20.7601
	-20.7601
	-20.7601
	-20.7601
🆒	-20.7601
👘	-20.7601
🚭	-20.7601
🛏	-20.7601
Ė	-20.7601
Ļ	-20.7601
Ő	-20.7601
Ť	-20.7601
Ɣ	-20.7601
ƞ	-20.7601
Ɵ	-20.7601
ǝ	-20.7601
Ǩ	-20.7601
ȋ	-20.7601
Ƀ	-20.7601
ɬ	-20.7601
ɮ	-20.7601
ɱ	-20.7601
ʤ	-20.7601
ˊ	-20.7601
˗	-20.7601
̍	-20.7601
̨	-20.7601
ͦ	-20.7601
Έ	-20.7601
Ѣ	-20.7601
ҝ	-20.7601
ұ	-20.7601
ә	-20.7601
ө	-20.7601
Ԫ	-20.7601
Կ	-20.7601
զ	-20.7601
հ	-20.7601
١	-20.7601
٧	-20.7601
۝	-20.7601
छ	-20.7601
ध	-20.7601
ॐ	-20.7601
ঁ	-20.7601
ও	-20.7601
ঞ	-20.7601
৫	-20.7601
આ	-20.7601
ણ	-20.7601
ત	-20.7601
ુ	-20.7601
ો	-20.7601
ந	-20.7601
ಗ	-20.7601
ರ	-20.7601
ಳ	-20.7601
ಾ	-20.7601
ೆ	-20.7601
್	-20.7601
ട	-20.7601
ു	-20.7601
ට	-20.7601
ර	-20.7601
ฏ	-20.7601
ฐ	-20.7601
ຍ	-20.7601
ທ	-20.7601
ນ	-20.7601
ອ	-20.7601
ະ	-20.7601
༠	-20.7601
း	-20.7601
დ	-20.7601
ზ	-20.7601
მ	-20.7601
ნ	-20.7601
ᄆ	-20.7601
ᅮ	-20.7601
ᇂ	-20.7601
ሓ	-20.7601
መ	-20.7601
ር	-20.7601
ስ	-20.7601
ባ	-20.7601
ት	-20.7601
አ	-20.7601
እ	-20.7601
ክ	-20.7601
ያ	-20.7601
ፈ	-20.7601
ᗅ	-20.7601
ᛟ	-20.7601
ី	-20.7601
៤	-20.7601
᠊	-20.7601
᠋	-20.7601
ᠠ	-20.7601
Ḩ	-20.7601
Ἀ	-20.7601
ἤ	-20.7601
ὁ	-20.7601
ὄ	-20.7601
ῃ	-20.7601
ῆ	-20.7601
ῑ	-20.7601
⁋	-20.7601
⁝	-20.7601
⁡	-20.7601
⁢	-20.7601
₫	-20.7601
₺	-20.7601
℗	-20.7601
↕	-20.7601
⇄	-20.7601
⇊	-20.7601
⇥	-20.7601
∥	-20.7601
⊿	-20.7601
⋐	-20.7601
⋑	-20.7601
⌐	-20.7601
⌠	-20.7601
⎕	-20.7601
⎚	-20.7601
⎝	-20.7601
⎱	-20.7601
⎼	-20.7601
⏪	-20.7601
␣	-20.7601
┤	-20.7601
╕	-20.7601
╠	-20.7601
╮	-20.7601
▔	-20.7601
▰	-20.7601
☤	-20.7601
☫	-20.7601
☲	-20.7601
☿	-20.7601
♇	-20.7601
♈	-20.7601
♨	-20.7601
♩	-20.7601
♿	-20.7601
⚗	-20.7601
⚾	-20.7601
✙	-20.7601
✬	-20.7601
❁	-20.7601
❐	-20.7601
❺	-20.7601
❼	-20.7601
➊	-20.7601
➋	-20.7601
➙	-20.7601
➺	-20.7601
⣀	-20.7601
⣏	-20.7601
⣹	-20.7601
⧺	-20.7601
⪘	-20.7601
ⱖ	-20.7601
ⲉ	-20.7601
ⲓ	-20.7601
ⲥ	-20.7601
ⴝ	-20.7601
ぞ	-20.7601
丑	-20.7601
丨	-20.7601
丰	-20.7601
乾	-20.7601
伍	-20.7601
佬	-20.7601
併	-20.7601
傅	-20.7601
傘	-20.7601
儲	-20.7601
兆	-20.7601
兜	-20.7601
兩	-20.7601
凛	-20.7601
凹	-20.7601
删	-20.7601
劳	-20.7601
占	-20.7601
卧	-20.7601
叉	-20.7601
叔	-20.7601
呢	-20.7601
啓	-20.7601
啦	-20.7601
嚓	-20.7601
囍	-20.7601
囲	-20.7601
围	-20.7601
坂	-20.7601
坤	-20.7601
塞	-20.7601
墓	-20.7601
増	-20.7601
妆	-20.7601
妍	-20.7601
姓	-20.7601
媒	-20.7601
孟	-20.7601
寮	-20.7601
寿	-20.7601
尖	-20.7601
屁	-20.7601
岩	-20.7601
岬	-20.7601
峻	-20.7601
左	-20.7601
帆	-20.7601
帰	-20.7601
帳	-20.7601
幼	-20.7601
庄	-20.7601
庵	-20.7601
廷	-20.7601
弃	-20.7601
弥	-20.7601
彈	-20.7601
復	-20.7601
悦	-20.7601
惯	-20.7601
愀	-20.7601
戈	-20.7601
戟	-20.7601
戰	-20.7601
戸	-20.7601
扑	-20.7601
扣	-20.7601
扩	-20.7601
抜	-20.7601
拖	-20.7601
括	-20.7601
挑	-20.7601
撤	-20.7601
朗	-20.7601
杜	-20.7601
枝	-20.7601
柯	-20.7601
柴	-20.7601
桂	-20.7601
桌	-20.7601
棋	-20.7601
森	-20.7601
槍	-20.7601
樺	-20.7601
檇	-20.7601
歴	-20.7601
氵	-20.7601
泳	-20.7601
液	-20.7601
淀	-20.7601
淋	-20.7601
淘	-20.7601
淲	-20.7601
淵	-20.7601
渝	-20.7601
測	-20.7601
溥	-20.7601
滅	-20.7601
潤	-20.7601
濯	-20.7601
炭	-20.7601
烦	-20.7601
燕	-20.7601
犬	-20.7601
狐	-20.7601
獣	-20.7601
獨	-20.7601
玫	-20.7601
琳	-20.7601
瑰	-20.7601
瓊	-20.7601
瓣	-20.7601
甜	-20.7601
甫	-20.7601
疆	-20.7601
疗	-20.7601
疾	-20.7601
瘾	-20.7601
盆	-20.7601
盗	-20.7601
県	-20.7601
砂	-20.7601
硐	-20.7601
碌	-20.7601
碩	-20.7601
禅	-20.7601
秩	-20.7601
竜	-20.7601
笔	-20.7601
筆	-20.7601
筋	-20.7601
箕	-20.7601
篮	-20.7601
純	-20.7601
紙	-20.7601
絵	-20.7601
編	-20.7601
纯	-20.7601
练	-20.7601
羞	-20.7601
翩	-20.7601
耳	-20.7601
耻	-20.7601
聘	-20.7601
聴	-20.7601
肥	-20.7601
肯	-20.7601
胖	-20.7601
膽	-20.7601
臨	-20.7601
舜	-20.7601
芬	-20.7601
芭	-20.7601
芷	-20.7601
苗	-20.7601
荘	-20.7601
药	-20.7601
荷	-20.7601
菸	-20.7601
萍	-20.7601
蔵	-20.7601
蕉	-20.7601
虧	-20.7601
虽	-20.7601
蛇	-20.7601
蛛	-20.7601
蜘	-20.7601
蜜	-20.7601
蝦	-20.7601
蝶	-20.7601
螃	-20.7601
蟄	-20.7601
衫	-20.7601
袁	-20.7601
裡	-20.7601
览	-20.7601
訪	-20.7601
註	-20.7601
詩	-20.7601
誌	-20.7601
誓	-20.7601
誰	-20.7601
諦	-20.7601
讀	-20.7601
训	-20.7601
访	-20.7601
诞	-20.7601
谅	-20.7601
負	-20.7601
賽	-20.7601
费	-20.7601
趋	-20.7601
輩	-20.7601
輸	-20.7601
辰	-20.7601
辺	-20.7601
遇	-20.7601
遮	-20.7601
邨	-20.7601
郭	-20.7601
鄧	-20.7601
酸	-20.7601
醇	-20.7601
鈩	-20.7601
鉴	-20.7601
銭	-20.7601
鋼	-20.7601
银	-20.7601
闭	-20.7601
闻	-20.7601
阁	-20.7601
阵	-20.7601
阶	-20.7601
陰	-20.7601
階	-20.7601
雞	-20.7601
靠	-20.7601
韩	-20.7601
頂	-20.7601
額	-20.7601
顏	-20.7601
顶	-20.7601
飘	-20.7601
飾	-20.7601
騏	-20.7601
魁	-20.7601
魂	-20.7601
鲁	-20.7601
鲸	-20.7601
鹅	-20.7601
鹤	-20.7601
麟	-20.7601
麥	-20.7601
鼠	-20.7601
龜	-20.7601
龟	-20.7601
ꞌ	-20.7601
갑	-20.7601
것	-20.7601
권	-20.7601
근	-20.7601
꽃	-20.7601
념	-20.7601
돈	-20.7601
돼	-20.7601
떡	-20.7601
렉	-20.7601
령	-20.7601
롱	-20.7601
료	-20.7601
르	-20.7601
를	-20.7601
린	-20.7601
머	-20.7601
모	-20.7601
박	-20.7601
발	-20.7601
백	-20.7601
번	-20.7601
봄	-20.7601
뽕	-20.7601
샵	-20.7601
설	-20.7601
섹	-20.7601
손	-20.7601
송	-20.7601
심	-20.7601
싸	-20.7601
쏙	-20.7601
않	-20.7601
알	-20.7601
앞	-20.7601
억	-20.7601
옥	-20.7601
온	-20.7601
왜	-20.7601
외	-20.7601
점	-20.7601
쥐	-20.7601
짬	-20.7601
채	-20.7601
체	-20.7601
칼	-20.7601
코	-20.7601
콘	-20.7601
크	-20.7601
풜	-20.7601
함	-20.7601
향	-20.7601
형	-20.7601
홀	-20.7601
희	-20.7601
히	-20.7601
	-20.7601
	-20.7601
	-20.7601
	-20.7601
	-20.7601
	-20.7601
	-20.7601
	-20.7601
	-20.7601
	-20.7601
	-20.7601
	-20.7601
	-20.7601
	-20.7601
	-20.7601
	-20.7601
	-20.7601
	-20.7601
	-20.7601
	-20.7601
	-20.7601
	-20.7601
	-20.7601
	-20.7601
	-20.7601
	-20.7601
	-20.7601
	-20.7601
	-20.7601
	-20.7601
	-20.7601
﴾	-20.7601
𗁅	-20.7601
🅽	-20.7601
🅾	-20.7601
🆗	-20.7601
🌃	-20.7601
🌇	-20.7601
🌘	-20.7601
🌜	-20.7601
🌫	-20.7601
🍖	-20.7601
🍙	-20.7601
🍠	-20.7601
🍮	-20.7601
🎖	-20.7601
🎞	-20.7601
🎢	-20.7601
🎱	-20.7601
🎴	-20.7601
🏂	-20.7601
🏎	-20.7601
🏛	-20.7601
🏤	-20.7601
🏹	-20.7601
🐂	-20.7601
🐆	-20.7601
🐌	-20.7601
🐞	-20.7601
🐤	-20.7601
🐫	-20.7601
🐭	-20.7601
🐲	-20.7601
🐵	-20.7601
🐿	-20.7601
👚	-20.7601
👞	-20.7601
👴	-20.7601
💊	-20.7601
💏	-20.7601
💳	-20.7601
💹	-20.7601
💽	-20.7601
📗	-20.7601
📘	-20.7601
📼	-20.7601
🔃	-20.7601
🔈	-20.7601
🕙	-20.7601
🕴	-20.7601
🖊	-20.7601
🗿	-20.7601
😗	-20.7601
😽	-20.7601
😿	-20.7601
🚄	-20.7601
🚐	-20.7601
🚓	-20.7601
🚢	-20.7601
🚥	-20.7601
🚦	-20.7601
🚸	-20.7601
🚺	-20.7601
🚿	-20.7601
🛁	-20.7601
🛢	-20.7601
🤹	-20.7601
🥋	-20.7601
🥚	-20.7601
🥣	-20.7601
🦕	-20.7601
🦳	-20.7601
🧙	-20.7601
🧛	-20.7601
🧝	-20.7601
🧩	-20.7601
🧸	-20.7601
􀁸	-20.7601
Ȼ	-20.7601
ɥ	-20.7601
Ả	-20.7601
Ɱ	-20.7601
兔	-20.7601
拼	-20.7601
揷	-20.7601
楷	-20.7601
貢	-20.7601
賈	-20.7601
贈	-20.7601
빼	-20.7601
	-20.7601
🎏	-20.7601
🐎	-20.7601
ĝ	-20.7601
Ŋ	-20.7601
Ů	-20.7601
ɵ	-20.7601
Ъ	-20.7601
խ	-20.7601
န	-20.7601
ብ	-20.7601
ጫ	-20.7601
ḵ	-20.7601
⇣	-20.7601
☳	-20.7601
⛪	-20.7601
ⲩ	-20.7601
[...]
