<unk>	0
<s>	0
</s>	0
s	-3.09102
.	-3.38967
,	-3.71027
▁the	-3.73163
▁to	-4.06697
▁a	-4.10081
▁and	-4.27044
t	-4.28771
▁of	-4.37408
▁in	-4.54954
ing	-4.58633
d	-4.62136
ed	-4.67476
▁	-4.78727
▁I	-4.8212
y	-4.99539
▁is	-5.00474
▁for	-5.07538
n	-5.0805
▁that	-5.12776
▁you	-5.12881
er	-5.24191
’	-5.27738
e	-5.28462
r	-5.29174
▁it	-5.30135
re	-5.30159
ly	-5.32757
'	-5.36718
-	-5.37433
▁be	-5.42818
m	-5.43857
p	-5.4458
▁on	-5.47722
▁with	-5.50031
or	-5.52001
al	-5.57584
a	-5.60561
▁are	-5.65891
▁s	-5.69601
c	-5.70248
g	-5.72501
▁have	-5.74117
in	-5.74731
▁re	-5.80755
▁your	-5.81266
le	-5.82609
▁was	-5.85807
▁this	-5.86208
▁as	-5.89781
▁The	-5.90157
▁or	-5.95352
▁not	-5.96593
b	-6.01621
▁can	-6.01629
ar	-6.01787
▁at	-6.03323
o	-6.03348
▁we	-6.03734
▁an	-6.07365
ll	-6.07971
l	-6.08511
▁c	-6.09116
ri	-6.10002
▁will	-6.12858
▁A	-6.14152
it	-6.16394
▁from	-6.16776
u	-6.18554
k	-6.19635
▁p	-6.19663
ur	-6.20828
ent	-6.20973
▁b	-6.22938
▁so	-6.2358
▁but	-6.23884
ve	-6.23987
es	-6.25234
i	-6.25883
th	-6.2914
▁my	-6.29412
▁he	-6.29473
ch	-6.30515
▁me	-6.3128
en	-6.33388
w	-6.33407
▁by	-6.33515
▁(	-6.33772
▁all	-6.33955
ic	-6.34492
an	-6.3464
ation	-6.36324
▁do	-6.36893
il	-6.36962
ate	-6.3848
▁f	-6.38907
▁S	-6.38965
▁“	-6.39159
h	-6.39193
ra	-6.39309
ment	-6.41317
li	-6.43281
▁de	-6.44173
▁out	-6.45972
▁they	-6.46708
▁up	-6.46915
▁has	-6.48919
▁one	-6.49042
▁about	-6.49835
ers	-6.49922
▁more	-6.50168
se	-6.50768
:	-6.52978
ck	-6.54854
▁"	-6.54976
▁t	-6.5501
▁P	-6.55151
I	-6.55757
la	-6.56623
▁C	-6.57699
▁their	-6.59354
f	-6.59525
▁like	-6.60475
on	-6.61521
▁T	-6.62863
▁time	-6.63924
1	-6.64421
▁our	-6.65765
▁It	-6.67178
et	-6.68593
0	-6.68702
▁G	-6.68718
▁B	-6.69885
ter	-6.71385
ce	-6.71777
▁con	-6.71796
te	-6.72186
lo	-6.72537
A	-6.72798
un	-6.72903
▁his	-6.74008
)	-6.74465
▁who	-6.75354
▁what	-6.76252
S	-6.76923
▁We	-6.77256
▁e	-6.77473
▁just	-6.77487
▁F	-6.77685
ion	-6.78425
▁if	-6.78859
ro	-6.79007
ir	-6.79271
el	-6.79555
at	-6.79583
▁would	-6.80402
▁some	-6.81554
ol	-6.82511
▁been	-6.83618
▁see	-6.83676
▁no	-6.84058
▁co	-6.8429
▁get	-6.85319
▁In	-6.86352
▁pro	-6.86416
ist	-6.87257
ive	-6.87293
ne	-6.88218
▁which	-6.8844
▁had	-6.88561
▁W	-6.88677
▁when	-6.88953
▁there	-6.89255
tion	-6.89327
▁than	-6.91062
▁work	-6.9109
!	-6.92278
▁st	-6.92429
de	-6.92477
T	-6.92578
able	-6.93804
ity	-6.93825
▁her	-6.94022
ad	-6.949
▁other	-6.95667
▁know	-6.95898
...	-6.96004
us	-6.96844
▁them	-6.96956
ry	-6.97016
5	-6.98291
▁people	-6.98715
▁E	-6.98914
?	-6.98934
id	-6.99043
▁This	-6.99125
vi	-6.99488
▁2	-6.99559
O	-7.00359
▁any	-7.00504
▁over	-7.02118
▁new	-7.02691
ul	-7.03241
ge	-7.04421
x	-7.05346
▁were	-7.05711
▁also	-7.05967
E	-7.06061
▁even	-7.06895
▁go	-7.07631
▁un	-7.07819
z	-7.08382
est	-7.08605
▁us	-7.08643
▁w	-7.09708
▁You	-7.09957
um	-7.11396
▁make	-7.12055
▁said	-7.1276
ho	-7.14133
ke	-7.14292
3	-7.14309
me	-7.14516
▁need	-7.14693
▁He	-7.14997
C	-7.15303
▁ex	-7.15564
▁how	-7.1642
”	-7.16434
ance	-7.16933
▁she	-7.172
as	-7.17318
▁M	-7.17749
▁O	-7.17784
is	-7.18587
2	-7.19049
▁into	-7.19326
▁way	-7.19647
"	-7.19868
ting	-7.20098
▁don	-7.205
mp	-7.20631
ma	-7.20883
ies	-7.2124
im	-7.21657
▁help	-7.21894
mo	-7.21968
▁very	-7.22037
▁ma	-7.22042
▁1	-7.22416
age	-7.23394
▁may	-7.23491
▁good	-7.24027
▁fa	-7.24054
N	-7.24112
/	-7.24626
▁If	-7.25273
4	-7.2615
ct	-7.26407
ng	-7.26735
▁use	-7.26871
▁dis	-7.27042
▁mo	-7.27506
▁think	-7.27652
▁Ma	-7.27853
ut	-7.28356
▁back	-7.29012
▁could	-7.29441
▁only	-7.29719
▁di	-7.30393
D	-7.32307
ver	-7.32824
▁Re	-7.33533
▁Co	-7.33957
▁pa	-7.34411
P	-7.35341
oo	-7.35628
▁ra	-7.35637
ant	-7.35781
▁most	-7.35827
▁i	-7.36038
▁well	-7.36378
pe	-7.36612
ru	-7.36701
▁want	-7.3671
▁much	-7.37525
ha	-7.38118
▁ca	-7.3819
op	-7.38296
▁St	-7.3847
ci	-7.3874
▁K	-7.39385
8	-7.39456
ill	-7.39514
lu	-7.39735
v	-7.40171
▁take	-7.40265
ted	-7.40558
he	-7.40582
ence	-7.40711
▁should	-7.41237
▁first	-7.4128
co	-7.41329
▁comp	-7.41394
▁now	-7.41477
mi	-7.4153
ful	-7.41571
▁po	-7.41768
▁mi	-7.41937
▁ba	-7.42033
▁-	-7.42114
ine	-7.42238
am	-7.42723
6	-7.42756
▁N	-7.42786
M	-7.43173
L	-7.43176
end	-7.43357
sion	-7.43371
ated	-7.43407
ta	-7.4342
nd	-7.43771
and	-7.44035
▁pre	-7.44067
9	-7.44179
▁bo	-7.44371
▁part	-7.44399
ight	-7.44423
▁lo	-7.44675
▁look	-7.44769
▁se	-7.44789
▁ho	-7.44953
▁20	-7.45223
sh	-7.45439
▁many	-7.4551
ction	-7.45516
▁great	-7.4563
7	-7.45851
ca	-7.45911
ty	-7.47407
▁years	-7.47718
om	-7.47856
▁sp	-7.4806
▁these	-7.48858
min	-7.49023
▁through	-7.49263
com	-7.49496
po	-7.49583
hi	-7.50116
▁really	-7.50978
▁year	-7.51401
▁here	-7.52028
▁3	-7.52067
▁because	-7.52193
R	-7.53377
▁after	-7.53628
tic	-7.53674
▁D	-7.53978
▁And	-7.54164
ee	-7.54387
pa	-7.54792
▁right	-7.54857
▁day	-7.55052
▁love	-7.55956
ick	-7.56569
▁le	-7.56989
00	-7.57175
▁read	-7.57535
▁–	-7.57538
▁two	-7.57797
ard	-7.57815
ow	-7.57858
▁him	-7.58029
▁vi	-7.58147
▁ha	-7.58223
▁But	-7.58555
▁su	-7.58917
▁find	-7.5901
▁ro	-7.59568
▁where	-7.59613
▁o	-7.60377
▁own	-7.60439
up	-7.60563
▁long	-7.60566
ther	-7.60619
no	-7.60743
na	-7.61062
▁tra	-7.61351
ot	-7.61455
▁high	-7.61607
▁H	-7.61836
▁g	-7.61912
▁L	-7.62975
to	-7.63199
▁So	-7.63735
ea	-7.63785
ally	-7.64066
▁li	-7.64244
mb	-7.64732
ti	-7.64956
▁app	-7.65124
▁Ch	-7.65331
ni	-7.65456
▁home	-7.66836
▁life	-7.66872
ap	-7.66954
▁before	-7.67417
▁those	-7.67555
lic	-7.67984
▁la	-7.6836
▁qu	-7.68404
ous	-7.68439
ual	-7.68584
fe	-7.68831
▁say	-7.69176
▁sh	-7.69286
ig	-7.69387
per	-7.69427
▁week	-7.69495
▁U	-7.69996
▁play	-7.70267
ba	-7.70667
▁am	-7.7114
ven	-7.71149
B	-7.7136
▁going	-7.7145
ure	-7.7178
di	-7.71893
ia	-7.71903
ary	-7.72263
▁4	-7.72536
;	-7.72554
ag	-7.72582
▁car	-7.727
▁off	-7.72731
be	-7.73187
fi	-7.73356
▁show	-7.73368
▁There	-7.73433
ud	-7.7353
▁plan	-7.73843
tri	-7.73898
▁being	-7.73925
▁down	-7.74093
▁place	-7.74174
ner	-7.74309
▁such	-7.7447
▁5	-7.74543
▁too	-7.75158
▁To	-7.75637
).	-7.75816
ian	-7.761
H	-7.76218
▁best	-7.76725
▁For	-7.76785
der	-7.76847
▁feel	-7.77334
mm	-7.77734
ative	-7.77783
▁every	-7.77974
▁still	-7.77976
▁post	-7.78373
ations	-7.79095
▁made	-7.79303
ving	-7.7943
nt	-7.79579
▁then	-7.79645
▁k	-7.79843
▁R	-7.80098
ph	-7.80387
▁provide	-7.81044
▁business	-7.8124
▁ga	-7.8141
▁lot	-7.81415
▁last	-7.81495
for	-7.81686
▁en	-7.81963
tain	-7.82612
cent	-7.82628
ab	-7.83413
ness	-7.84343
▁De	-7.8437
▁around	-7.84576
▁op	-7.84778
ie	-7.84821
▁information	-7.85199
▁few	-7.8574
ub	-7.86038
ical	-7.86086
▁things	-7.86586
▁world	-7.87409
▁end	-7.87488
ex	-7.87501
ound	-7.87562
▁They	-7.87748
▁set	-7.87858
tal	-7.88579
▁something	-7.8867
▁As	-7.88969
▁little	-7.89021
ating	-7.89073
ue	-7.89192
▁dr	-7.8948
bo	-7.90427
▁hand	-7.90527
▁cha	-7.90831
▁V	-7.90945
▁come	-7.91315
F	-7.91447
qu	-7.91504
art	-7.91673
ten	-7.91779
one	-7.92058
▁start	-7.92141
ition	-7.92211
▁gu	-7.92589
ip	-7.92923
port	-7.93105
▁book	-7.93129
▁per	-7.9329
ture	-7.93391
ise	-7.93629
▁real	-7.93763
▁change	-7.93862
ning	-7.94072
land	-7.94128
▁sure	-7.9441
les	-7.9491
▁same	-7.95053
▁always	-7.95153
iv	-7.95182
▁man	-7.95509
▁gra	-7.95721
▁under	-7.95986
red	-7.96128
▁experience	-7.96348
ring	-7.96445
▁Mo	-7.96752
G	-7.97033
day	-7.97061
ld	-7.97095
ish	-7.97237
▁its	-7.97674
▁care	-7.97711
▁while	-7.98165
▁Be	-7.98388
▁keep	-7.98624
▁give	-7.98688
▁did	-7.98804
U	-7.98873
ell	-7.98897
ster	-7.9896
▁never	-7.99043
▁fun	-7.99431
▁got	-7.99662
ite	-8
▁exp	-8.00142
ju	-8.00265
▁offer	-8.00274
▁J	-8.0042
▁each	-8.00429
row	-8.00746
▁point	-8.00825
low	-8.00827
,”	-8.01033
ach	-8.016
▁That	-8.01755
▁used	-8.02373
▁19	-8.02375
▁better	-8.02762
▁different	-8.02975
act	-8.03121
▁10	-8.03449
▁th	-8.03683
▁sc	-8.04178
less	-8.04361
ran	-8.04454
W	-8.04904
▁Ha	-8.05065
ries	-8.05145
ff	-8.05269
▁hi	-8.05286
rs	-8.05473
▁win	-8.05726
▁Ca	-8.05846
▁might	-8.06623
▁ri	-8.06822
▁interest	-8.06935
ities	-8.0717
▁free	-8.07326
▁found	-8.07354
▁live	-8.07984
▁Ho	-8.08021
ice	-8.08301
▁She	-8.08363
▁site	-8.08439
▁An	-8.08446
ough	-8.08458
▁put	-8.0868
▁game	-8.08771
▁Se	-8.08942
▁list	-8.09189
gra	-8.09347
▁fl	-8.09363
ward	-8.09385
che	-8.09413
ake	-8.09779
▁state	-8.10041
▁learn	-8.10042
ship	-8.10498
▁let	-8.10661
▁Le	-8.10806
bu	-8.10847
▁support	-8.11048
ling	-8.11058
ions	-8.11446
ny	-8.11831
ute	-8.11893
▁inter	-8.12036
▁both	-8.12751
man	-8.12802
▁6	-8.12832
▁na	-8.12978
▁No	-8.13222
out	-8.13224
V	-8.13256
old	-8.13503
▁system	-8.13503
▁idea	-8.13623
▁must	-8.1365
▁problem	-8.14039
side	-8.14427
▁Lo	-8.14544
king	-8.14611
▁thing	-8.1473
▁add	-8.149
em	-8.15019
wi	-8.15087
cu	-8.15494
ect	-8.15547
own	-8.15735
▁Pa	-8.1586
▁health	-8.15942
▁number	-8.16016
▁market	-8.16041
spect	-8.16286
duc	-8.16377
▁form	-8.17058
▁next	-8.17332
va	-8.17608
ctor	-8.17883
use	-8.18245
▁comm	-8.18307
▁hard	-8.18647
▁again	-8.18705
▁When	-8.1877
go	-8.18881
tra	-8.18949
os	-8.1908
▁da	-8.19257
▁Li	-8.19341
▁fi	-8.19412
ible	-8.19668
▁issue	-8.19727
▁men	-8.1986
▁ne	-8.20033
▁without	-8.20054
▁another	-8.20179
▁pay	-8.20222
▁big	-8.20237
▁trans	-8.20746
▁La	-8.20774
▁question	-8.20936
dy	-8.21257
▁Con	-8.2126
the	-8.213
▁follow	-8.21334
▁old	-8.21411
▁require	-8.22029
our	-8.22136
rr	-8.22265
▁full	-8.22326
▁va	-8.22408
▁lead	-8.22472
ook	-8.2271
ious	-8.22812
we	-8.22919
▁Da	-8.22971
▁open	-8.23019
▁family	-8.23034
▁case	-8.23066
con	-8.23148
▁since	-8.23197
▁team	-8.23316
▁On	-8.23821
▁school	-8.24039
▁design	-8.2435
hy	-8.24442
▁fact	-8.24531
ug	-8.24582
ator	-8.25343
▁Ro	-8.25514
ding	-8.25545
▁imp	-8.25627
tter	-8.25692
▁My	-8.25761
▁process	-8.25832
▁thought	-8.25918
▁important	-8.26185
▁didn	-8.26302
The	-8.2671
▁sub	-8.27105
▁does	-8.27515
▁far	-8.27605
vol	-8.28001
io	-8.28035
▁blog	-8.28192
ger	-8.2835
▁Mi	-8.28393
ial	-8.28512
▁mis	-8.28627
▁small	-8.2879
▁program	-8.28807
ft	-8.28824
▁person	-8.28914
▁area	-8.28947
▁call	-8.29167
gan	-8.29675
▁between	-8.29734
gu	-8.30153
▁custom	-8.30265
▁course	-8.30303
ber	-8.30333
▁three	-8.30509
▁turn	-8.30533
▁able	-8.30886
▁Th	-8.30981
▁happen	-8.31603
▁order	-8.31629
▁7	-8.31684
▁looking	-8.31974
▁Di	-8.32134
▁website	-8.32347
,"	-8.32357
nk	-8.32478
▁head	-8.32646
pi	-8.32885
ign	-8.32958
▁service	-8.33181
son	-8.33193
ak	-8.33264
ize	-8.33472
▁Ba	-8.33495
▁away	-8.33622
vo	-8.33668
▁job	-8.3384
▁Y	-8.3399
fa	-8.34003
▁visit	-8.34075
line	-8.34083
▁large	-8.34132
K	-8.34333
ration	-8.34341
▁days	-8.34537
▁name	-8.3465
▁Pro	-8.35049
▁Mar	-8.35237
▁wi	-8.3525
▁pass	-8.35501
gg	-8.36149
▁talk	-8.36182
▁company	-8.36366
▁during	-8.36376
▁less	-8.36435
▁...	-8.36723
serv	-8.36754
▁reason	-8.36919
▁create	-8.37089
ever	-8.37095
Y	-8.37122
▁why	-8.37155
do	-8.37289
▁grow	-8.37453
way	-8.37474
▁came	-8.37713
▁understand	-8.37787
▁using	-8.37913
▁allow	-8.37968
▁ge	-8.38102
▁result	-8.38202
▁include	-8.38261
▁report	-8.38266
▁sta	-8.38282
▁cost	-8.38422
▁consider	-8.38609
▁available	-8.38773
▁Me	-8.38823
▁move	-8.38914
▁8	-8.3897
▁money	-8.38997
ton	-8.39003
▁kind	-8.39328
▁mean	-8.39368
▁project	-8.39668
▁close	-8.40017
▁bit	-8.40162
mon	-8.40231
▁v	-8.40416
▁direct	-8.4044
press	-8.40627
▁enough	-8.41348
▁complete	-8.41453
▁water	-8.41475
▁tell	-8.41556
▁war	-8.41699
▁group	-8.4173
▁cri	-8.41741
ga	-8.41834
led	-8.42054
▁making	-8.42062
▁bi	-8.42118
▁main	-8.42302
▁product	-8.43353
▁believe	-8.43367
▁‘	-8.43898
$	-8.4397
▁getting	-8.4434
▁working	-8.44456
▁doesn	-8.44551
▁done	-8.44565
▁though	-8.44628
▁enjoy	-8.44738
cc	-8.44796
▁children	-8.44872
▁ever	-8.4495
▁hope	-8.45029
▁today	-8.45098
▁room	-8.45105
▁having	-8.45383
▁Hi	-8.45463
▁top	-8.45482
▁personal	-8.45496
▁data	-8.45557
▁meet	-8.45609
tro	-8.45644
ability	-8.4569
ron	-8.45745
▁em	-8.45758
form	-8.45821
▁Do	-8.4598
▁power	-8.46323
▁hear	-8.46343
▁New	-8.46475
tu	-8.46607
▁share	-8.46695
▁member	-8.46769
uck	-8.4689
▁What	-8.47173
▁ti	-8.47242
▁def	-8.47291
ef	-8.47368
▁house	-8.47431
olog	-8.47539
▁food	-8.47578
qui	-8.47668
▁check	-8.47707
),	-8.4778
▁public	-8.47965
gi	-8.4856
▁become	-8.48808
▁actually	-8.48925
▁hu	-8.49041
▁least	-8.49081
▁level	-8.49203
▁law	-8.49311
▁All	-8.49543
▁sha	-8.49766
▁night	-8.49888
▁invest	-8.50254
▁9	-8.50446
▁until	-8.5129
▁already	-8.51677
▁Sa	-8.51805
cul	-8.52223
▁try	-8.5225
▁doing	-8.52877
if	-8.529
ses	-8.53309
struct	-8.53329
wa	-8.53573
ep	-8.5383
ency	-8.54106
▁class	-8.54395
▁mind	-8.54489
▁Bo	-8.5465
ized	-8.54767
▁Ja	-8.54826
▁second	-8.5494
▁count	-8.55398
val	-8.55451
▁With	-8.55863
▁run	-8.55984
▁side	-8.56151
▁certain	-8.56723
▁often	-8.56769
▁low	-8.56828
▁price	-8.57
time	-8.57215
▁local	-8.57438
▁art	-8.578
str	-8.58099
▁cover	-8.58303
▁someone	-8.58513
▁page	-8.58538
▁please	-8.58629
▁expect	-8.58646
▁including	-8.58862
▁past	-8.58931
▁line	-8.59203
▁together	-8.59213
▁buy	-8.59365
▁easy	-8.59487
▁current	-8.59588
▁online	-8.59647
▁Some	-8.60164
▁sign	-8.60365
▁possible	-8.60608
ome	-8.60665
light	-8.60688
▁anything	-8.60707
,000	-8.60786
▁view	-8.6084
▁special	-8.61068
▁Ar	-8.61345
▁deal	-8.61538
cial	-8.61672
au	-8.61773
▁develop	-8.62036
%	-8.62138
▁Su	-8.6235
bi	-8.62434
▁wa	-8.62543
mark	-8.62794
▁Po	-8.62891
▁short	-8.63142
▁safe	-8.6355
▁du	-8.63706
▁At	-8.64086
▁light	-8.64108
▁says	-8.64269
▁friend	-8.64282
lar	-8.64314
▁'	-8.64742
▁clear	-8.64785
▁mu	-8.64957
▁against	-8.65125
▁services	-8.65142
▁test	-8.6522
▁left	-8.65239
▁within	-8.6596
▁employ	-8.66136
▁face	-8.66158
▁present	-8.66295
ism	-8.66395
▁rest	-8.66406
▁—	-8.66512
▁continue	-8.66691
▁receive	-8.66754
▁access	-8.66859
▁bring	-8.66945
▁&	-8.67194
▁everything	-8.67309
of	-8.6739
▁cra	-8.67566
▁drive	-8.67657
▁eye	-8.6767
▁stay	-8.68091
▁story	-8.68217
ense	-8.68322
▁once	-8.68413
▁office	-8.68528
▁One	-8.68531
▁stop	-8.68686
▁Not	-8.68687
▁type	-8.69025
▁gr	-8.69414
▁[	-8.69886
▁near	-8.70048
▁research	-8.7042
▁walk	-8.70458
▁matter	-8.70502
▁age	-8.7056
▁won	-8.70911
▁Our	-8.71021
▁video	-8.71421
▁yet	-8.71893
▁month	-8.7197
]	-8.72069
▁means	-8.72093
▁watch	-8.72093
lin	-8.72232
▁country	-8.72379
▁Al	-8.72426
▁social	-8.72429
—	-8.78793
*	-8.81034
X	-8.92193
_	-9.08026
@	-9.09291
j	-9.2711
J	-9.27477
(	-9.33576
­	-9.37051
#	-9.409
+	-9.62545
£	-9.63091
&	-9.6675
>	-9.67752
•	-9.93225
–	-9.95323
Q	-9.9686
q	-9.99553
=	-10.2212
Z	-10.3054
é	-10.3114
`	-10.5755
[	-10.583
<	-10.6091
€	-10.8578
“	-11.0107
′	-11.1027
~	-11.1713
·	-11.1754
\	-11.2097
‘	-11.2562
â	-11.2983
^	-11.3112
®	-11.3154
	-11.4225
°	-11.4955
́	-11.6314
§	-11.6394
	-11.7754
»	-11.8264
{	-11.8838
🙂	-11.939
«	-11.9397
}	-11.9431
á	-12.1066
⁄	-12.1273
¡	-12.138
¦	-12.3045
	-12.3103
í	-12.3881
	-12.3967
©	-12.4024
Â	-12.4868
×	-12.5027
ó	-12.5603
ñ	-12.5781
ö	-12.6004
ü	-12.6121
	-12.6356
è	-12.7543
‐	-12.7629
●	-12.8434
„	-12.8921
	-12.932
ä	-13.0045
ç	-13.0512
	-13.0944
à	-13.1531
️	-13.158
ï	-13.3
😉	-13.3084
	-13.3664
♥	-13.4595
е	-13.5898
―	-13.6068
о	-13.6095
а	-13.6257
ā	-13.6261
œ	-13.6269
⠀	-13.6563
★	-13.6687
¢	-13.6695
м	-13.682
	-13.6833
и	-13.7418
т	-13.7458
→	-13.8178
ú	-13.8279
	-13.8436
ã	-13.8621
❤	-13.8809
н	-13.9063
μ	-13.9147
É	-13.9201
¶	-13.9211
─	-13.9346
↑	-13.9449
ô	-13.9482
ø	-13.9603
ë	-13.985
р	-13.9879
█	-14.0092
Ã	-14.0174
😀	-14.0263
−	-14.0662
「	-14.0774
¿	-14.0855
ê	-14.0906
В	-14.126
±	-14.1579
■	-14.1627
‚	-14.2093
▪	-14.2492
►	-14.2552
¬	-14.2574
ل	-14.3334
←	-14.3342
й	-14.3637
å	-14.383
в	-14.3881
ō	-14.4114
‍	-14.4122
æ	-14.4414
	-14.4559
α	-14.4734
К	-14.5073
š	-14.517
😂	-14.5179
ć	-14.5504
Ђ	-14.5851
✓	-14.5872
・	-14.6135
Ø	-14.6504
🙁	-14.6853
	-14.6911
č	-14.7062
Ö	-14.7347
с	-14.779
¥	-14.7942
ğ	-14.8084
ı	-14.8214
‬	-14.8293
♦	-14.8453
≥	-14.8507
😊	-14.8657
î	-14.8865
✔	-14.9063
Г	-14.9562
ł	-14.9592
ا	-14.9913
β	-15.0326
😍	-15.0375
♡	-15.0473
✨	-15.0707
Á	-15.0774
†	-15.0791
ў	-15.1422
ð	-15.1513
‟	-15.1624
π	-15.1698
🏻	-15.181
『	-15.1829
п	-15.1943
›	-15.2038
ū	-15.2077
д	-15.2154
☆	-15.2252
ī	-15.2431
ß	-15.2451
ì	-15.2451
‭	-15.2471
↓	-15.2491
ệ	-15.2572
л	-15.2613
ş	-15.2633
Ü	-15.2715
ο	-15.2736
🏼	-15.2902
û	-15.2923
к	-15.3136
₹	-15.3222
。	-15.3222
ه	-15.3441
Š	-15.3711
ー	-15.3756
🎄	-15.3848
😛	-15.3871
̃	-15.3917
☺	-15.3987
💕	-15.4034
ž	-15.4034
ा	-15.4129
م	-15.42
̈	-15.4565
※	-15.4565
♀	-15.4665
🔥	-15.4665
Å	-15.469
ʼ	-15.474
Ó	-15.4893
ʻ	-15.5126
ò	-15.5178
‪	-15.5365
Đ	-15.5582
و	-15.5747
窶	-15.5776
س	-15.5888
ρ	-15.5888
	-15.5888
у	-15.6088
‒	-15.6088
น	-15.6117
̊	-15.6204
ι	-15.6234
ي	-15.6263
า	-15.6292
г	-15.6322
、	-15.6322
た	-15.6683
ń	-15.6744
ь	-15.6837
ы	-15.6868
λ	-15.6931
≤	-15.7025
☎	-15.7025
σ	-15.7057
ε	-15.7089
👍	-15.7121
ă	-15.7153
б	-15.7185
я	-15.7315
◦	-15.7347
○	-15.7413
🌟	-15.7427
♪	-15.7512
ù	-15.7579
😦	-15.768
😐	-15.7696
ý	-15.7714
С	-15.7782
і	-15.7782
🙏	-15.7782
的	-15.7851
√	-15.813
ン	-15.813
😁	-15.8166
の	-15.8309
🙌	-15.8309
ē	-15.8454
抯	-15.8454
【	-15.8491
̄	-15.8601
】	-15.8638
な	-15.8676
ع	-15.8713
ν	-15.8789
◊	-15.8789
Ä	-15.8826
İ	-15.8903
✪	-15.8941
เ	-15.8979
ς	-15.9018
」	-15.9096
τ	-15.9135
θ	-15.9174
👏	-15.9332
्	-15.9372
γ	-15.9372
Ç	-15.9453
ม	-15.9657
🏽	-15.9698
⇒	-15.974
Т	-15.9865
্	-15.9865
ч	-15.995
🎉	-15.995
⭐	-15.995
🌷	-15.9971
□	-15.9992
✅	-15.9992
你	-16.0035
◆	-16.0035
👉	-16.0035
ƒ	-16.0295
♠	-16.0304
่	-16.0384
い	-16.0384
😃	-16.0518
प	-16.0563
💪	-16.0653
ま	-16.0699
	-16.0699
ص	-16.0745
ر	-16.0884
♂	-16.0884
❄	-16.1072
ˈ	-16.112
र	-16.1216
☀	-16.1216
は	-16.1264
ว	-16.1361
ツ	-16.1361
κ	-16.141
🤔	-16.141
Æ	-16.146
Í	-16.146
‹	-16.1509
ท	-16.171
ę	-16.1863
➖	-16.1863
ี	-16.1914
י	-16.1914
ى	-16.1966
人	-16.1966
一	-16.2018
Č	-16.207
ś	-16.207
δ	-16.207
し	-16.2176
ห	-16.2229
ি	-16.2229
ə	-16.2336
з	-16.2336
抣	-16.2336
♫	-16.239
ス	-16.2445
💙	-16.2445
に	-16.2499
Î	-16.2499
ω	-16.2554
ন	-16.2554
あ	-16.261
Ž	-16.261
✦	-16.261
ค	-16.2665
¤	-16.2665
ו	-16.2721
➡	-16.2777
ن	-16.2833
প	-16.2834
À	-16.2891
Þ	-16.2891
📸	-16.2891
õ	-16.3005
￼	-16.3062
	-16.3063
ř	-16.3063
鈥	-16.3063
🎁	-16.3121
া	-16.3121
র	-16.3121
ơ	-16.318
💖	-16.318
😭	-16.3238
ě	-16.3298
Ω	-16.3417
▶	-16.3477
😘	-16.3477
ư	-16.3538
』	-16.3538
日	-16.3538
Δ	-16.3599
щ	-16.366
ạ	-16.3722
ѕ	-16.3784
आ	-16.3846
➢	-16.3846
ッ	-16.3909
‖	-16.3909
‡	-16.3909
ˇ	-16.3973
อ	-16.4036
▲	-16.41
😆	-16.41
▫	-16.4295
ト	-16.4361
ї	-16.4427
る	-16.4427
ル	-16.4427
😎	-16.4427
η	-16.4494
￾	-16.4494
👌	-16.4561
็	-16.4629
Ê	-16.4629
ی	-16.4629
÷	-16.4697
ব	-16.4697
🤣	-16.4765
य	-16.4904
	-16.4904
🏾	-16.4976
њ	-16.5044
Ñ	-16.5115
🌈	-16.5115
文	-16.5258
د	-16.533
す	-16.5331
Ō	-16.5331
ș	-16.5404
抦	-16.5404
🎶	-16.5404
Ú	-16.5477
И	-16.5477
ה	-16.5477
🖤	-16.5477
💜	-16.5478
ż	-16.5551
⁣	-16.5551
中	-16.5551
	-16.5626
О	-16.5626
้	-16.5626
😄	-16.5626
▻	-16.5701
ė	-16.5777
🇺	-16.5777
ت	-16.5853
Ş	-16.5853
大	-16.5853
ร	-16.593
창	-16.593
👇	-16.593
Õ	-16.6008
と	-16.6164
我	-16.6165
📷	-16.6165
て	-16.6244
ő	-16.6244
抰	-16.6244
ễ	-16.6324
♣	-16.6324
신	-16.6324
▼	-16.6324
υ	-16.6405
আ	-16.6486
ん	-16.6486
न	-16.6486
🎅	-16.6568
💥	-16.6568
̶	-16.6568
っ	-16.665
言	-16.6651
不	-16.6734
φ	-16.6734
金	-16.6734
👩	-16.6734
🤗	-16.6818
ク	-16.6988
	-16.6988
क	-16.6988
द	-16.7074
但	-16.7074
グ	-16.7074
🇸	-16.7074
Ѕ	-16.7074
ب	-16.7161
А	-16.7161
ќ	-16.7161
ि	-16.7161
฿	-16.7161
ό	-16.7249
ア	-16.7249
イ	-16.7249
ラ	-16.7249
당	-16.7249
⨂	-16.7337
う	-16.7517
🐣	-16.7517
😢	-16.7517
🤷	-16.7517
ế	-16.7699
⦁	-16.7699
か	-16.7699
ά	-16.7699
💯	-16.7699
Н	-16.7792
⃣	-16.7792
〜	-16.7792
ล	-16.7885
П	-16.7885
😱	-16.7885
Р	-16.798
リ	-16.798
ί	-16.798
₤	-16.798
👀	-16.798
☐	-16.8075
	-16.8171
Ł	-16.8171
🌸	-16.8268
月	-16.8268
े	-16.8366
ả	-16.8366
😅	-16.8366
を	-16.8465
も	-16.8465
り	-16.8465
ด	-16.8565
➤	-16.8565
ṇ	-16.8565
ר	-16.8666
🙄	-16.8666
💚	-16.8768
国	-16.8768
💗	-16.8871
子	-16.8871
Ò	-16.8871
χ	-16.8871
ल	-16.8871
이	-16.8871
स	-16.8871
ж	-16.8976
ɪ	-16.8976
◾	-16.8976
是	-16.8976
👑	-16.9089
🌲	-16.9187
で	-16.9187
ộ	-16.9187
ṣ	-16.9295
来	-16.9295
法	-16.9403
💰	-16.9403
͡	-16.9403
ą	-16.9404
∞	-16.9404
▢	-16.9404
❖	-16.9404
더	-16.9404
😜	-16.9404
😳	-16.9404
容	-16.9513
뀐	-16.9513
内	-16.9513
ц	-16.9625
đ	-16.9625
پ	-16.9625
留	-16.9625
☃	-16.9737
Ι	-16.9737
א	-16.9737
が	-16.985
≈	-16.9851
お	-16.9851
ら	-16.9851
	-16.9851
х	-16.9851
ั	-16.9965
̧	-16.9965
ं	-16.9965
ย	-16.9965
ֲ	-17.0082
◄	-17.0082
☞	-17.0082
💛	-17.0082
Α	-17.0082
ש	-17.0082
⚡	-17.0199
Ô	-17.0199
Ś	-17.0199
ত	-17.0199
💋	-17.0318
Ā	-17.0318
😋	-17.0318
व	-17.0439
∼	-17.0439
🍁	-17.0439
🙈	-17.0439
ง	-17.0439
》	-17.056
ิ	-17.0561
🏳	-17.0561
М	-17.0561
ת	-17.0684
ל	-17.0684
✈	-17.0684
テ	-17.0809
シ	-17.0809
사	-17.0809
ک	-17.0809
₱	-17.0809
例	-17.0809
👨	-17.0809
ك	-17.0936
ी	-17.0936
ḥ	-17.0936
フ	-17.0936
レ	-17.0936
카	-17.0936
έ	-17.0936
ج	-17.1064
🌿	-17.1064
지	-17.1064
💀	-17.1066
《	-17.1193
	-17.1194
	-17.1194
آ	-17.1194
≠	-17.1194
⬅	-17.1194
บ	-17.1194
拿	-17.1326
ド	-17.1326
😏	-17.1326
有	-17.1326
ก	-17.1459
れ	-17.1459
য	-17.1459
英	-17.1459
新	-17.1459
メ	-17.1594
ヲ	-17.1594
‣	-17.1594
く	-17.1594
🌴	-17.1594
Τ	-17.1594
会	-17.1594
ː	-17.1731
ш	-17.1731
バ	-17.1731
看	-17.1731
ị	-17.1731
☕	-17.1731
노	-17.1731
ɑ	-17.187
小	-17.187
🚨	-17.187
Ð	-17.187
天	-17.2011
ю	-17.2011
│	-17.2011
▸	-17.2011
◼	-17.2011
冱	-17.2011
👋	-17.2011
年	-17.2011
ב	-17.2154
⌘	-17.2154
다	-17.2154
👧	-17.2298
ィ	-17.2299
本	-17.2299
מ	-17.2299
โ	-17.2446
❑	-17.2446
こ	-17.2446
チ	-17.2446
冦	-17.2446
︎	-17.2446
😬	-17.2446
ز	-17.2446
ส	-17.2446
🙋	-17.2446
░	-17.2591
ज	-17.2595
き	-17.2595
ф	-17.2595
ロ	-17.2595
上	-17.2595
📍	-17.2595
正	-17.2595
💃	-17.2595
☛	-17.2746
タ	-17.2746
দ	-17.2746
接	-17.29
ԁ	-17.29
⁩	-17.29
✌	-17.29
😝	-17.29
😮	-17.29
Σ	-17.29
了	-17.29
	-17.3056
Ј	-17.3056
查	-17.3056
😔	-17.3056
Λ	-17.3056
多	-17.3056
だ	-17.3215
よ	-17.3215
₦	-17.3215
	-17.3215
🎂	-17.3215
🤦	-17.3376
↩	-17.3376
❏	-17.3376
カ	-17.3376
录	-17.3376
💫	-17.3376
下	-17.3377
⁦	-17.354
พ	-17.354
✍	-17.354
分	-17.354
म	-17.354
在	-17.354
コ	-17.354
作	-17.3707
⚠	-17.3707
➦	-17.3707
È	-17.3707
ź	-17.3707
ע	-17.3707
ブ	-17.3707
ャ	-17.3877
好	-17.3877
Ÿ	-17.3877
त	-17.3877
∆	-17.3877
生	-17.3877
ข	-17.3877
💎	-17.3877
🎥	-17.3878
登	-17.4049
ة	-17.4049
Ï	-17.4049
Œ	-17.4049
↵	-17.4049
∴	-17.4049
☝	-17.4049
学	-17.4049
🥰	-17.4049
Ε	-17.4224
つ	-17.4224
ไ	-17.4224
ジ	-17.4224
💓	-17.4403
時	-17.4403
说	-17.4403
۱	-17.4403
👊	-17.4403
匟	-17.4585
😞	-17.4585
☑	-17.4585
公	-17.4585
链	-17.477
😩	-17.477
þ	-17.477
抎	-17.477
愛	-17.477
せ	-17.4959
ţ	-17.4959
ấ	-17.4959
유	-17.4959
	-17.4959
ক	-17.4959
▬	-17.4959
🤩	-17.4959
💡	-17.4959
ق	-17.5151
์	-17.5151
さ	-17.5151
ต	-17.5151
ズ	-17.5151
布	-17.5151
👆	-17.5151
水	-17.5151
❣	-17.5151
🌊	-17.5347
最	-17.5347
❗	-17.5347
家	-17.5347
🇦	-17.5347
Φ	-17.5547
ह	-17.5547
ニ	-17.5547
入	-17.5547
出	-17.5547
З	-17.5547
‿	-17.5547
エ	-17.5547
成	-17.5547
教	-17.5547
民	-17.5547
者	-17.5547
ش	-17.5751
ň	-17.5751
▷	-17.5751
✖	-17.5751
事	-17.5751
🐶	-17.5751
力	-17.5751
웃	-17.5751
外	-17.5751
ũ	-17.5959
͜	-17.5959
ד	-17.5959
見	-17.5959
	-17.5959
	-17.5959
🌺	-17.5959
💁	-17.5959
🤓	-17.5959
语	-17.596
要	-17.596
🥂	-17.596
ÿ	-17.6172
ồ	-17.6172
‰	-17.6172
行	-17.6172
아	-17.6172
🏆	-17.6172
山	-17.6172
结	-17.6172
🔞	-17.6172
句	-17.6172
知	-17.6172
Д	-17.639
ậ	-17.639
プ	-17.639
二	-17.639
空	-17.639
기	-17.639
는	-17.639
🌍	-17.639
😕	-17.639
そ	-17.6612
ț	-17.6612
І	-17.6612
◎	-17.6612
デ	-17.6612
財	-17.6612
题	-17.6612
🔹	-17.6612
ή	-17.6612
Е	-17.6612
ṭ	-17.6612
ắ	-17.6612
冤	-17.6612
🌹	-17.6612
更	-17.6612
女	-17.6839
ʖ	-17.6839
ם	-17.6839
נ	-17.6839
ो	-17.6839
∙	-17.6839
⚽	-17.6839
マ	-17.6839
ミ	-17.6839
前	-17.6839
和	-17.6839
Κ	-17.6839
第	-17.6839
ح	-17.7071
💞	-17.7071
計	-17.7072
Ν	-17.7072
Б	-17.7072
һ	-17.7072
ट	-17.7072
ọ	-17.7072
Ộ	-17.7072
🇷	-17.7072
三	-17.7072
情	-17.7072
用	-17.7072
🇬	-17.7072
🏃	-17.7072
🍾	-17.7072
ュ	-17.731
ʊ	-17.731
̋	-17.731
Л	-17.731
ف	-17.731
َ	-17.731
⇢	-17.731
▭	-17.731
ム	-17.731
檚	-17.731
🙃	-17.731
ָ	-17.731
Ї	-17.7554
❌	-17.7554
ड	-17.7554
অ	-17.7554
ứ	-17.7554
✿	-17.7554
🌱	-17.7554
ṛ	-17.7554
∗	-17.7554
陳	-17.7554
个	-17.7554
💝	-17.7803
心	-17.7804
ֳ	-17.7804
合	-17.7804
通	-17.7804
ˆ	-17.7804
ู	-17.7804
∥	-17.7804
😡	-17.7804
ּ	-17.7804
🔸	-17.7804
或	-17.7804
😑	-17.7804
ख	-17.806
ब	-17.806
श	-17.806
்	-17.806
明	-17.806
曜	-17.806
	-17.806
Ż	-17.806
ʿ	-17.806
Π	-17.806
ύ	-17.806
ầ	-17.806
ề	-17.806
⚫	-17.806
之	-17.806
	-17.806
🔴	-17.806
示	-17.806
気	-17.806
😇	-17.8062
方	-17.8323
ď	-17.8323
ʹ	-17.8323
ψ	-17.8323
ہ	-17.8323
ग	-17.8323
◯	-17.8323
⬇	-17.8323
語	-17.8323
道	-17.8323
해	-17.8323
	-17.8323
🍕	-17.8323
🎈	-17.8323
🏡	-17.8323
😥	-17.8323
能	-17.8323
🙅	-17.8323
	-17.8323
🐾	-17.8323
⋯	-17.8593
ŋ	-17.8594
☹	-17.8594
世	-17.8594
🇪	-17.8594
	-17.8594
ů	-17.8594
Η	-17.8594
ק	-17.8594
ặ	-17.8594
➜	-17.8594
原	-17.8594
爱	-17.8594
	-17.8594
	-17.8594
🌎	-17.8594
🍂	-17.8594
🤘	-17.8594
킹	-17.8594
得	-17.8594
🇧	-17.8594
👸	-17.8602
平	-17.8871
च	-17.8871
🍫	-17.8871
ʺ	-17.8871
ึ	-17.8871
	-17.8871
💍	-17.8871
🎵	-17.8873
🌞	-17.9157
ɛ	-17.9157
え	-17.9157
ダ	-17.9157
	-17.9157
ち	-17.9157
况	-17.9157
花	-17.9157
자	-17.9157
	-17.9157
থ	-17.9157
自	-17.9157
表	-17.9157
高	-17.9157
😒	-17.9157
部	-17.9157
💻	-17.9158
̳	-17.9451
ח	-17.9451
⭕	-17.9451
モ	-17.9451
🇨	-17.9451
🗣	-17.9451
Θ	-17.9451
Ο	-17.9451
‧	-17.9451
十	-17.9451
発	-17.9451
🦋	-17.9451
到	-17.9451
定	-17.9451
美	-17.9451
意	-17.9451
🎤	-17.9458
ป	-17.9754
💐	-17.9754
ど	-17.9754
店	-17.9754
ņ	-17.9754
地	-17.9754
王	-17.9754
白	-17.9754
트	-17.9754
ở	-17.9754
❷	-17.9754
可	-17.9754
稚	-17.9754
	-17.9754
🍃	-17.9754
🍷	-17.9754
📚	-17.9754
キ	-17.9754
发	-17.9754
由	-17.9754
化	-17.9754
以	-17.9754
全	-17.9754
🔬	-17.9754
▒	-17.9754
📱	-17.9755
ἀ	-18.0067
案	-18.0067
オ	-18.0067
動	-18.0067
🧝	-18.0067
け	-18.0067
サ	-18.0067
回	-18.0067
市	-18.0067
Γ	-18.0067
۲	-18.0067
۴	-18.0067
☁	-18.0067
ケ	-18.0067
想	-18.0067
版	-18.0067
장	-18.0067
ェ	-18.0067
ম	-18.0067
海	-18.0067
安	-18.0067
	-18.0389
ば	-18.0389
他	-18.0389
値	-18.0389
め	-18.0389
田	-18.0389
ờ	-18.0389
≡	-18.0389
✏	-18.0389
ぶ	-18.0389
み	-18.0389
同	-18.0389
囘	-18.0389
또	-18.0389
🎀	-18.0389
ِ	-18.0389
手	-18.0389
西	-18.0389
彼	-18.0722
👦	-18.0722
わ	-18.0723
体	-18.0723
北	-18.0723
ħ	-18.0723
ξ	-18.0723
⎯	-18.0723
ハ	-18.0723
ヴ	-18.0723
間	-18.0723
니	-18.0723
🏿	-18.0723
😈	-18.0723
۰	-18.0723
ল	-18.0723
⋅	-18.0723
❦	-18.0723
福	-18.0723
	-18.0723
💦	-18.0723
😲	-18.0723
セ	-18.0723
物	-18.0723
🧚	-18.0723
ַ	-18.0723
📝	-18.0723
为	-18.1067
問	-18.1067
快	-18.1067
没	-18.1067
ʒ	-18.1067
Я	-18.1067
भ	-18.1067
所	-18.1067
도	-18.1067
Ì	-18.1067
Μ	-18.1067
⁠	-18.1067
⇔	-18.1067
☼	-18.1067
⬆	-18.1067
🌻	-18.1067
😯	-18.1067
🤪	-18.1067
Ρ	-18.1067
শ	-18.1067
乐	-18.1067
里	-18.1067
音	-18.1067
🎩	-18.1083
💘	-18.1424
私	-18.1425
保	-18.1425
Ý	-18.1425
Э	-18.1425
כ	-18.1425
ु	-18.1425
ḍ	-18.1425
✊	-18.1425
ウ	-18.1425
랑	-18.1425
의	-18.1425
🎊	-18.1425
👁	-18.1425
💔	-18.1425
🙊	-18.1425
🚀	-18.1425
🤙	-18.1425
ョ	-18.1425
😴	-18.1425
老	-18.1425
🚣	-18.1425
果	-18.1795
ァ	-18.1795
ソ	-18.1795
信	-18.1795
ŵ	-18.1795
ǎ	-18.1795
ս	-18.1795
়	-18.1795
❥	-18.1795
何	-18.1795
國	-18.1795
式	-18.1795
神	-18.1795
🎨	-18.1795
👈	-18.1795
💸	-18.1795
🤞	-18.1795
ɡ	-18.1795
ビ	-18.1795
于	-18.1795
台	-18.1795
👗	-18.1795
风	-18.1795
对	-18.1795
🍻	-18.1795
📺	-18.1797
أ	-18.2177
ू	-18.2179
ุ	-18.2179
Ë	-18.218
리	-18.218
	-18.218
ζ	-18.218
ס	-18.218
۳	-18.218
۸	-18.218
ủ	-18.218
⚪	-18.218
✗	-18.218
パ	-18.218
四	-18.218
스	-18.218
🇳	-18.218
💄	-18.218
🤯	-18.218
ɔ	-18.218
Β	-18.218
～	-18.218
📲	-18.2181
🎬	-18.2182
活	-18.2579
ะ	-18.2579
や	-18.2579
字	-18.2579
ɒ	-18.258
̇	-18.258
ё	-18.258
ノ	-18.258
東	-18.258
答	-18.258
🇮	-18.258
	-18.258
ų	-18.258
۹	-18.258
ღ	-18.258
∂	-18.258
◉	-18.258
♤	-18.258
⛄	-18.258
✮	-18.258
❀	-18.258
光	-18.258
한	-18.258
🎃	-18.258
😌	-18.258
🦄	-18.258
學	-18.258
院	-18.258
万	-18.258
这	-18.258
🇹	-18.258
🦌	-18.2996
場	-18.2996
林	-18.2996
就	-18.2996
香	-18.2996
ろ	-18.2996
儿	-18.2996
ώ	-18.2996
ъ	-18.2996
ן	-18.2996
۵	-18.2996
ু	-18.2996
ಠ	-18.2996
ẵ	-18.2996
ố	-18.2996
⁃	-18.2996
✴	-18.2996
冲	-18.2996
士	-18.2996
會	-18.2996
竄	-18.2996
粉	-18.2996
组	-18.2996
일	-18.2996
	-18.2996
💵	-18.2996
🔔	-18.2996
😫	-18.2996
ť	-18.2996
Ў	-18.2996
ג	-18.2996
ো	-18.2996
চ	-18.2996
们	-18.2996
👶	-18.3431
़	-18.3431
决	-18.3431
Ψ	-18.3431
ื	-18.3431
太	-18.3431
社	-18.3431
程	-18.3431
色	-18.3431
ġ	-18.3431
۷	-18.3431
ớ	-18.3431
ỳ	-18.3431
◗	-18.3431
➳	-18.3431
じ	-18.3431
口	-18.3431
期	-18.3431
안	-18.3431
전	-18.3431
하	-18.3431
	-18.3431
🌵	-18.3431
👻	-18.3431
😣	-18.3431
फ	-18.3431
〓	-18.3431
加	-18.3431
然	-18.3431
馬	-18.3431
長	-18.3431
起	-18.3431
主	-18.3431
🏊	-18.3431
业	-18.3431
🔊	-18.3439
请	-18.3885
後	-18.3885
重	-18.3885
円	-18.3885
Ѓ	-18.3885
Ф	-18.3885
จ	-18.3885
友	-18.3885
火	-18.3885
网	-18.3885
都	-18.3885
ǐ	-18.3886
ط	-18.3886
∑	-18.3886
⏰	-18.3886
✄	-18.3886
育	-18.3886
많	-18.3886
서	-18.3886
영	-18.3886
🐬	-18.3886
🤤	-18.3886
פ	-18.3886
۶	-18.3886
₩	-18.3886
◈	-18.3886
☔	-18.3886
ベ	-18.3886
京	-18.3886
点	-18.3886
가	-18.3886
요	-18.3886
	-18.3886
🍑	-18.3886
去	-18.3886
🧡	-18.4361
过	-18.4362
形	-18.4362
品	-18.4362
理	-18.4362
แ	-18.4362
ポ	-18.4362
ボ	-18.4362
南	-18.4362
性	-18.4362
ŷ	-18.4362
ִ	-18.4362
ẹ	-18.4362
書	-18.4362
木	-18.4362
青	-18.4362
🇫	-18.4362
🍀	-18.4362
📽	-18.4362
ʃ	-18.4362
Υ	-18.4362
ں	-18.4362
ে	-18.4362
ỹ	-18.4362
∧	-18.4362
◙	-18.4362
✘	-18.4362
✯	-18.4362
代	-18.4362
名	-18.4362
完	-18.4362
界	-18.4362
蔡	-18.4362
시	-18.4362
🌅	-18.4362
🎢	-18.4362
🏠	-18.4362
💩	-18.4362
🕯	-18.4362
ฟ	-18.4362
ゴ	-18.4362
立	-18.4362
格	-18.4362
🕊	-18.4362
度	-18.4362
ใ	-18.4362
ئ	-18.4861
ˌ	-18.4862
ガ	-18.4862
元	-18.4862
❓	-18.4862
ナ	-18.4862
工	-18.4862
業	-18.4862
邃	-18.4862
🍰	-18.4862
ए	-18.4862
औ	-18.4862
⁨	-18.4862
▽	-18.4862
介	-18.4862
川	-18.4862
檛	-18.4862
路	-18.4862
대	-18.4862
쿠	-18.4862
폰	-18.4862
🍌	-18.4862
😵	-18.4862
У	-18.4862
ט	-18.4862
时	-18.4862
ピ	-18.4862
今	-18.4862
丝	-18.4862
━	-18.4862
👯	-18.4862
ช	-18.5388
ض	-18.5388
ै	-18.5388
স	-18.5388
目	-18.5388
酒	-18.5388
面	-18.5388
국	-18.5388
화	-18.5388
🍭	-18.5388
ے	-18.5388
⇧	-18.5388
◇	-18.5388
☰	-18.5388
✰	-18.5388
ね	-18.5388
組	-18.5388
記	-18.5388
디	-18.5388
라	-18.5388
어	-18.5388
	-18.5388
	-18.5388
🍊	-18.5388
🍔	-18.5388
🏝	-18.5388
💬	-18.5388
😻	-18.5388
􀂙	-18.5388
	-18.5388
ُ	-18.5388
ْ	-18.5388
گ	-18.5388
無	-18.5388
結	-18.5388
🏚	-18.5388
创	-18.5388
😰	-18.5388
┌	-18.5388
应	-18.5388
李	-18.5388
😖	-18.5388
次	-18.5388
影	-18.5388
电	-18.5388
🤶	-18.5943
如	-18.5943
感	-18.5943
司	-18.5944
😹	-18.5944
当	-18.5944
政	-18.5944
ご	-18.5944
ず	-18.5944
江	-18.5944
源	-18.5944
🇩	-18.5944
Ē	-18.5944
ĥ	-18.5944
Ӏ	-18.5944
ӏ	-18.5944
՚	-18.5944
צ	-18.5944
ী	-18.5944
‛	-18.5944
星	-18.5944
進	-18.5944
限	-18.5944
마	-18.5944
바	-18.5944
수	-18.5944
주	-18.5944
	-18.5944
	-18.5944
🇵	-18.5944
💭	-18.5944
😓	-18.5944
🤖	-18.5944
🧂	-18.5944
Ă	-18.5944
Ч	-18.5944
⊕	-18.5944
藍	-18.5944
魔	-18.5944
🔵	-18.5944
写	-18.5944
各	-18.5944
很	-18.5944
	-18.5944
😨	-18.5944
🧥	-18.5944
┘	-18.5944
处	-18.5944
交	-18.5944
🎧	-18.5947
死	-18.6532
因	-18.6532
画	-18.6532
ա	-18.6532
住	-18.6532
周	-18.6532
基	-18.6532
开	-18.6532
Û	-18.6532
خ	-18.6532
अ	-18.6532
↳	-18.6532
∈	-18.6532
千	-18.6532
現	-18.6532
華	-18.6532
정	-18.6532
	-18.6532
🇭	-18.6532
🐕	-18.6532
👙	-18.6532
ĺ	-18.6532
ष	-18.6532
‽	-18.6532
⏯	-18.6532
◀	-18.6532
修	-18.6532
关	-18.6532
听	-18.6532
居	-18.6532
清	-18.6532
痴	-18.6532
票	-18.6532
車	-18.6532
電	-18.6532
즈	-18.6532
🌏	-18.6532
🐫	-18.6532
💅	-18.6532
􉤠	-18.6532
ʁ	-18.6532
取	-18.6532
🍟	-18.6532
近	-18.6532
🍪	-18.6532
ํ	-18.6532
义	-18.6532
选	-18.6532
进	-18.6532
🎓	-18.6532
🌾	-18.6532
🍹	-18.6532
律	-18.6532
🥑	-18.6532
着	-18.7157
制	-18.7157
ґ	-18.7157
九	-18.7157
动	-18.7157
此	-18.7157
	-18.7157
Ī	-18.7157
ј	-18.7157
ᅠ	-18.7157
⊙	-18.7157
園	-18.7157
长	-18.7157
題	-18.7157
인	-18.7157
	-18.7157
	-18.7157
Ć	-18.7157
ٹ	-18.7157
ھ	-18.7157
⇨	-18.7157
⋮	-18.7157
♛	-18.7157
♢	-18.7157
✤	-18.7157
五	-18.7157
利	-18.7157
灣	-18.7157
로	-18.7157
비	-18.7157
	-18.7157
	-18.7157
🍋	-18.7157
丁	-18.7157
真	-18.7157
Ğ	-18.7157
机	-18.7157
填	-18.7157
其	-18.7157
打	-18.7157
词	-18.7157
📞	-18.7159
施	-18.7823
ன	-18.7823
八	-18.7823
经	-18.7823
么	-18.7823
先	-18.7823
ひ	-18.7823
考	-18.7823
ĩ	-18.7823
ゃ	-18.7823
使	-18.7823
单	-18.7823
童	-18.7823
腕	-18.7823
謝	-18.7823
问	-18.7823
🐻	-18.7823
ʽ	-18.7823
Х	-18.7823
ট	-18.7823
ን	-18.7823
ụ	-18.7823
◘	-18.7823
❝	-18.7823
井	-18.7823
們	-18.7823
克	-18.7823
初	-18.7823
寺	-18.7823
州	-18.7823
機	-18.7823
步	-18.7823
河	-18.7823
米	-18.7823
고	-18.7823
나	-18.7823
동	-18.7823
음	-18.7823
	-18.7823
🇲	-18.7823
🌐	-18.7823
🍉	-18.7823
🍎	-18.7823
🍓	-18.7823
🍺	-18.7823
🏖	-18.7823
📧	-18.7823
🛒	-18.7823
🤑	-18.7823
🥁	-18.7823
ְ	-18.7824
任	-18.7824
型	-18.7824
师	-18.7824
ֶ	-18.7824
野	-18.7824
〈	-18.7824
根	-18.7824
🐐	-18.7825
📦	-18.7825
味	-18.8538
身	-18.8538
展	-18.8538
思	-18.8538
গ	-18.8538
義	-18.8538
ǧ	-18.8538
六	-18.8538
与	-18.8538
等	-18.8538
而	-18.8538
📌	-18.8538
|	-18.8538
Ħ	-18.8538
ѵ	-18.8538
ण	-18.8538
ণ	-18.8538
ằ	-18.8538
ợ	-18.8538
ự	-18.8538
↠	-18.8538
⌛	-18.8538
☘	-18.8538
♬	-18.8538
✋	-18.8538
✥	-18.8538
⟩	-18.8538
⦿	-18.8538
내	-18.8538
원	-18.8538
팬	-18.8538
🍳	-18.8538
👅	-18.8538
👎	-18.8538
🔝	-18.8538
🤜	-18.8538
᧐	-18.8538
ṅ	-18.8538
✧	-18.8538
館	-18.8538
상	-18.8538
소	-18.8538
七	-18.8538
区	-18.8538
🌋	-18.8538
ׁ	-18.8538
喜	-18.8538
华	-18.8538
🎯	-18.854
📩	-18.854
🎼	-18.8542
📹	-18.8542
🔮	-18.8551
后	-18.9307
ภ	-18.9307
什	-18.9307
商	-18.9307
流	-18.9307
龍	-18.9307
ถ	-18.9307
Ṣ	-18.9307
件	-18.9307
投	-18.9307
짙	-18.9307
💿	-18.9307
Ũ	-18.9307
ʾ	-18.9307
̆	-18.9307
ظ	-18.9307
ই	-18.9307
Ḥ	-18.9307
ể	-18.9307
∫	-18.9307
△	-18.9307
☠	-18.9307
♭	-18.9307
✭	-18.9307
➌	-18.9307
➟	-18.9307
➲	-18.9307
⟨	-18.9307
ょ	-18.9307
ワ	-18.9307
䡵	-18.9307
別	-18.9307
包	-18.9307
吳	-18.9307
底	-18.9307
張	-18.9307
毛	-18.9307
简	-18.9307
黑	-18.9307
龙	-18.9307
공	-18.9307
록	-18.9307
	-18.9307
🌳	-18.9307
🍩	-18.9307
🍽	-18.9307
🏀	-18.9307
💨	-18.9307
💲	-18.9307
🔁	-18.9307
🧠	-18.9307
🧼	-18.9307
ű	-18.9307
օ	-18.9307
宮	-18.9307
治	-18.9307
石	-18.9307
진	-18.9307
💤	-18.9307
😙	-18.9307
🦁	-18.9307
چ	-18.9307
再	-18.9307
土	-18.9307
失	-18.9307
数	-18.9307
開	-18.9307
雪	-18.9307
ネ	-18.9307
章	-18.9307
视	-18.9307
款	-18.9307
造	-18.9307
食	-18.9307
슈	-18.9307
那	-18.9307
及	-18.9307
据	-18.9307
球	-18.9307
确	-18.9307
🤨	-18.9307
🍒	-18.9307
🍆	-18.9308
🥃	-18.9308
💧	-19.014
貴	-19.014
无	-19.014
	-19.014
做	-19.014
变	-19.014
🧜	-19.014
̩	-19.014
支	-19.014
ّ	-19.014
為	-19.014
習	-19.014
🦈	-19.014
ॉ	-19.014
த	-19.014
₽	-19.014
⏳	-19.014
娘	-19.014
暗	-19.014
标	-19.014
條	-19.014
激	-19.014
被	-19.014
경	-19.014
🌌	-19.014
🏄	-19.014
👰	-19.014
🔶	-19.014
ŏ	-19.014
ֵ	-19.014
ذ	-19.014
ᴡ	-19.014
═	-19.014
⚜	-19.014
✟	-19.014
✽	-19.014
❋	-19.014
➔	-19.014
⤵	-19.014
び	-19.014
城	-19.014
揟	-19.014
族	-19.014
楽	-19.014
靴	-19.014
首	-19.014
黃	-19.014
년	-19.014
무	-19.014
	-19.014
🇰	-19.014
🇿	-19.014
🎭	-19.014
🐇	-19.014
💌	-19.014
📖	-19.014
🔗	-19.014
😪	-19.014
🤢	-19.014
🤫	-19.014
ɴ	-19.014
⏩	-19.014
休	-19.014
易	-19.014
特	-19.014
草	-19.014
세	-19.014
토	-19.014
👖	-19.014
э	-19.014
≦	-19.014
⚕	-19.014
必	-19.014
门	-19.014
າ	-19.014
ἐ	-19.014
相	-19.014
🏴	-19.014
直	-19.014
퍼	-19.014
少	-19.014
̵	-19.014
系	-19.014
引	-19.014
移	-19.014
共	-19.0141
择	-19.0141
📈	-19.0143
半	-19.1049
片	-19.1049
	-19.1049
康	-19.1049
梦	-19.1049
ศ	-19.1049
健	-19.1049
照	-19.1049
解	-19.1049
论	-19.1049
우	-19.1049
参	-19.1049
永	-19.1049
👿	-19.1049
↪	-19.1049
✎	-19.1049
港	-19.1049
ʏ	-19.1049
Χ	-19.1049
ү	-19.1049
٫	-19.1049
জ	-19.1049
க	-19.1049
⃞	-19.1049
↔	-19.1049
⎔	-19.1049
✆	-19.1049
✵	-19.1049
➨	-19.1049
へ	-19.1049
仁	-19.1049
島	-19.1049
漢	-19.1049
研	-19.1049
舗	-19.1049
茶	-19.1049
贈	-19.1049
達	-19.1049
래	-19.1049
산	-19.1049
제	-19.1049
	-19.1049
🇱	-19.1049
🌭	-19.1049
🌼	-19.1049
🎟	-19.1049
🏈	-19.1049
🐰	-19.1049
👠	-19.1049
💣	-19.1049
😚	-19.1049
😟	-19.1049
😶	-19.1049
🚴	-19.1049
🦃	-19.1049
ほ	-19.1049
吃	-19.1049
変	-19.1049
師	-19.1049
男	-19.1049
聽	-19.1049
雄	-19.1049
	-19.1049
	-19.1049
	-19.1049
	-19.1049
🍴	-19.1049
🐝	-19.1049
🐠	-19.1049
🐱	-19.1049
💇	-19.1049
🛍	-19.1049
古	-19.1049
󠁧	-19.1049
	-19.1049
🍦	-19.1049
話	-19.1049
ء	-19.105
💆	-19.105
比	-19.105
助	-19.105
注	-19.105
罪	-19.105
己	-19.105
优	-19.105
💼	-19.105
✉	-19.1052
📣	-19.1055
📀	-19.1055
车	-19.2049
	-19.2049
	-19.2049
👱	-19.2049
ರ	-19.2049
东	-19.2049
🔷	-19.2049
む	-19.2049
歩	-19.2049
暴	-19.2049
過	-19.2049
板	-19.2049
宿	-19.2049
富	-19.2049
發	-19.2049
選	-19.2049
❍	-19.2049
复	-19.2049
奇	-19.2049
将	-19.2049
樂	-19.2049
节	-19.2049
葉	-19.2049
號	-19.2049
論	-19.2049
🚘	-19.2049
🥊	-19.2049
ɗ	-19.2049
ἄ	-19.2049
ぎ	-19.2049
ペ	-19.2049
免	-19.2049
散	-19.2049
興	-19.2049
親	-19.2049
선	-19.2049
👂	-19.2049
	-19.2049
	-19.2049
Ș	-19.2049
ɦ	-19.2049
ʌ	-19.2049
ђ	-19.2049
қ	-19.2049
်	-19.2049
ᄏ	-19.2049
ṁ	-19.2049
ữ	-19.2049
ὐ	-19.2049
₵	-19.2049
↥	-19.2049
⇓	-19.2049
∀	-19.2049
≧	-19.2049
⌥	-19.2049
♆	-19.2049
⛰	-19.2049
❆	-19.2049
❈	-19.2049
ぐ	-19.2049
ゆ	-19.2049
宝	-19.2049
屋	-19.2049
德	-19.2049
歌	-19.2049
油	-19.2049
淚	-19.2049
牛	-19.2049
與	-19.2049
谢	-19.2049
質	-19.2049
글	-19.2049
문	-19.2049
키	-19.2049
포	-19.2049
	-19.2049
	-19.2049
🍏	-19.2049
🍸	-19.2049
🎙	-19.2049
🎾	-19.2049
👕	-19.2049
👽	-19.2049
💉	-19.2049
🙉	-19.2049
🚗	-19.2049
🚫	-19.2049
🤭	-19.2049
🥇	-19.2049
♋	-19.2049
怪	-19.2049
春	-19.2049
楊	-19.2049
肉	-19.2049
認	-19.2049
	-19.2049
	-19.2049
🎡	-19.2049
🎮	-19.2049
🏒	-19.2049
🕺	-19.2049
ֹ	-19.2049
ז	-19.2049
ம	-19.2049
ა	-19.2049
麻	-19.2049
ভ	-19.2049
图	-19.2049
夏	-19.2049
管	-19.2049
ி	-19.205
也	-19.205
刑	-19.205
客	-19.205
旅	-19.205
究	-19.205
雅	-19.205
ザ	-19.205
告	-19.205
持	-19.205
🛫	-19.205
功	-19.205
推	-19.205
樹	-19.205
专	-19.205
🎻	-19.2055
👼	-19.2056
止	-19.316
播	-19.316
ผ	-19.316
红	-19.316
场	-19.316
提	-19.316
故	-19.316
玉	-19.316
ச	-19.316
张	-19.316
眼	-19.316
兴	-19.316
君	-19.316
団	-19.316
头	-19.316
建	-19.316
把	-19.316
村	-19.316
话	-19.316
防	-19.316
	-19.316
̷	-19.3161
✂	-19.3161
ふ	-19.3161
书	-19.3161
典	-19.3161
又	-19.3161
彩	-19.3161
普	-19.3161
泉	-19.3161
護	-19.3161
运	-19.3161
锟	-19.3161
餐	-19.3161
부	-19.3161
출	-19.3161
🏋	-19.3161
ĭ	-19.3161
į	-19.3161
ɹ	-19.3161
ʀ	-19.3161
͞	-19.3161
ỏ	-19.3161
ổ	-19.3161
‫	-19.3161
▋	-19.3161
☒	-19.3161
♃	-19.3161
⚓	-19.3161
⚖	-19.3161
⚙	-19.3161
✚	-19.3161
❇	-19.3161
げ	-19.3161
供	-19.3161
価	-19.3161
切	-19.3161
博	-19.3161
察	-19.3161
憈	-19.3161
掲	-19.3161
揑	-19.3161
淭	-19.3161
猫	-19.3161
秋	-19.3161
秒	-19.3161
致	-19.3161
蛋	-19.3161
詞	-19.3161
记	-19.3161
과	-19.3161
연	-19.3161
오	-19.3161
표	-19.3161
	-19.3161
	-19.3161
	-19.3161
	-19.3161
🐈	-19.3161
🐒	-19.3161
🐷	-19.3161
👣	-19.3161
👵	-19.3161
📆	-19.3161
🔑	-19.3161
🗺	-19.3161
🚧	-19.3161
🤸	-19.3161
🥀	-19.3161
🥞	-19.3161
ɐ	-19.3161
ு	-19.3161
⟡	-19.3161
仔	-19.3161
婆	-19.3161
守	-19.3161
宗	-19.3161
报	-19.3161
灵	-19.3161
误	-19.3161
銆	-19.3161
風	-19.3161
马	-19.3161
강	-19.3161
짝	-19.3161
터	-19.3161
🔨	-19.3161
ѓ	-19.3161
值	-19.3161
念	-19.3161
科	-19.3161
검	-19.3161
服	-19.3161
素	-19.3161
細	-19.3161
戦	-19.3161
受	-19.3161
足	-19.3161
終	-19.3161
軍	-19.3161
企	-19.3161
除	-19.3161
午	-19.3161
现	-19.3161
从	-19.3161
🏗	-19.3164
📢	-19.3167
📰	-19.3171
􀀃	-19.4406
غ	-19.4408
ณ	-19.441
号	-19.441
见	-19.441
ธ	-19.441
府	-19.441
技	-19.441
短	-19.441
谷	-19.441
	-19.441
ெ	-19.441
〰	-19.441
未	-19.441
落	-19.441
巧	-19.441
气	-19.441
紅	-19.441
警	-19.441
饭	-19.441
̱	-19.441
ր	-19.441
付	-19.441
每	-19.441
洪	-19.441
走	-19.441
𐤄	-19.441
🛵	-19.441
ড	-19.4411
ῦ	-19.4411
劉	-19.4411
命	-19.4411
員	-19.4411
姑	-19.4411
微	-19.4411
志	-19.4411
森	-19.4411
超	-19.4411
返	-19.4411
은	-19.4411
󠁿	-19.4411
	-19.4411
ɜ	-19.4411
ѡ	-19.4411
ց	-19.4411
٠	-19.4411
۞	-19.4411
ߋ	-19.4411
ና	-19.4411
ẫ	-19.4411
ử	-19.4411
⁍	-19.4411
┴	-19.4411
♻	-19.4411
⛪	-19.4411
❸	-19.4411
⩚	-19.4411
ⲣ	-19.4411
報	-19.4411
幕	-19.4411
息	-19.4411
显	-19.4411
晚	-19.4411
榮	-19.4411
町	-19.4411
略	-19.4411
秀	-19.4411
線	-19.4411
証	-19.4411
读	-19.4411
趣	-19.4411
郎	-19.4411
锘	-19.4411
页	-19.4411
鸡	-19.4411
교	-19.4411
구	-19.4411
분	-19.4411
에	-19.4411
집	-19.4411
차	-19.4411
타	-19.4411
	-19.4411
🌝	-19.4411
🐟	-19.4411
🐦	-19.4411
👫	-19.4411
👬	-19.4411
💠	-19.4411
🔒	-19.4411
😧	-19.4411
🛑	-19.4411
🥴	-19.4411
🧐	-19.4411
􀂾	-19.4411
ƅ	-19.4411
⏤	-19.4411
▌	-19.4411
☉	-19.4411
♔	-19.4411
⛱	-19.4411
〇	-19.4411
ホ	-19.4411
反	-19.4411
广	-19.4411
房	-19.4411
揥	-19.4411
校	-19.4411
沙	-19.4411
演	-19.4411
灰	-19.4411
販	-19.4411
错	-19.4411
集	-19.4411
김	-19.4411
배	-19.4411
성	-19.4411
으	-19.4411
🆕	-19.4411
🇴	-19.4411
🌧	-19.4411
👐	-19.4411
🔎	-19.4411
🗽	-19.4411
😤	-19.4411
🙇	-19.4411
ர	-19.4411
實	-19.4411
干	-19.4411
景	-19.4411
梅	-19.4411
満	-19.4411
織	-19.4411
飯	-19.4411
👟	-19.4411
🧘	-19.4411
只	-19.4411
早	-19.4411
池	-19.4411
收	-19.4411
潮	-19.4411
放	-19.4411
松	-19.4411
种	-19.4411
🌄	-19.4411
󠁢	-19.4411
ぽ	-19.4411
条	-19.4411
像	-19.4411
局	-19.4411
吻	-19.4411
贝	-19.4411
它	-19.4411
还	-19.4411
证	-19.4411
才	-19.4411
∏	-19.4412
✒	-19.4414
🎹	-19.4418
级	-19.5839
争	-19.5839
∨	-19.5839
雨	-19.5839
إ	-19.5839
益	-19.5839
	-19.5839
̣	-19.5839
	-19.5839
战	-19.5839
护	-19.5839
್	-19.5839
芝	-19.5839
設	-19.5839
黒	-19.5839
招	-19.5839
望	-19.5839
湖	-19.5839
ढ	-19.5839
别	-19.5839
印	-19.5839
經	-19.5839
菜	-19.5839
藏	-19.5839
量	-19.5839
	-19.5839
ซ	-19.5839
ɨ	-19.5839
ை	-19.5839
ぬ	-19.5839
向	-19.5839
帰	-19.5839
整	-19.5839
露	-19.5839
骨	-19.5839
🐙	-19.5839
👚	-19.5839
🖌	-19.5839
	-19.5839
घ	-19.5839
❎	-19.5839
べ	-19.5839
具	-19.5839
委	-19.5839
存	-19.5839
忘	-19.5839
戰	-19.5839
稿	-19.5839
笑	-19.5839
辣	-19.5839
遇	-19.5839
🌙	-19.5839
👾	-19.5839
ŕ	-19.5839
̂	-19.5839
̯	-19.5839
͛	-19.5839
Ё	-19.5839
Ь	-19.5839
इ	-19.5839
↘	-19.5839
∇	-19.5839
卡	-19.5839
吉	-19.5839
奶	-19.5839
徐	-19.5839
恐	-19.5839
扁	-19.5839
拢	-19.5839
改	-19.5839
斤	-19.5839
父	-19.5839
約	-19.5839
職	-19.5839
觉	-19.5839
阿	-19.5839
결	-19.5839
미	-19.5839
파	-19.5839
	-19.5839
	-19.5839
	-19.5839
👄	-19.5839
🔆	-19.5839
🔺	-19.5839
🥧	-19.5839
Ġ	-19.5839
Ţ	-19.5839
ƴ	-19.5839
ǔ	-19.5839
Ξ	-19.5839
ץ	-19.5839
ছ	-19.5839
ਰ	-19.5839
ᅮ	-19.5839
ᅳ	-19.5839
ỗ	-19.5839
ἔ	-19.5839
↟	-19.5839
↬	-19.5839
∃	-19.5839
∎	-19.5839
⏱	-19.5839
⓵	-19.5839
└	-19.5839
║	-19.5839
☮	-19.5839
♰	-19.5839
⛓	-19.5839
⛸	-19.5839
⛺	-19.5839
✡	-19.5839
✬	-19.5839
❧	-19.5839
ざ	-19.5839
゚	-19.5839
ギ	-19.5839
券	-19.5839
吧	-19.5839
奖	-19.5839
她	-19.5839
威	-19.5839
峰	-19.5839
已	-19.5839
幸	-19.5839
床	-19.5839
座	-19.5839
忠	-19.5839
憇	-19.5839
拷	-19.5839
料	-19.5839
淡	-19.5839
狗	-19.5839
珠	-19.5839
篇	-19.5839
线	-19.5839
臥	-19.5839
良	-19.5839
芒	-19.5839
術	-19.5839
読	-19.5839
调	-19.5839
迪	-19.5839
迷	-19.5839
鄭	-19.5839
鈧	-19.5839
钟	-19.5839
阳	-19.5839
類	-19.5839
験	-19.5839
體	-19.5839
단	-19.5839
데	-19.5839
민	-19.5839
씨	-19.5839
야	-19.5839
조	-19.5839
천	-19.5839
팅	-19.5839
	-19.5839
	-19.5839
	-19.5839
	-19.5839
	-19.5839
🇯	-19.5839
👓	-19.5839
📶	-19.5839
🖐	-19.5839
🗑	-19.5839
🗡	-19.5839
🚩	-19.5839
🤵	-19.5839
🥗	-19.5839
ਹ	-19.5839
ா	-19.5839
ი	-19.5839
ὅ	-19.5839
∩	-19.5839
┬	-19.5839
园	-19.5839
总	-19.5839
於	-19.5839
汉	-19.5839
舞	-19.5839
议	-19.5839
遊	-19.5839
합	-19.5839
🙆	-19.5839
🤟	-19.5839
হ	-19.5839
境	-19.5839
室	-19.5839
當	-19.5839
腰	-19.5839
若	-19.5839
充	-19.5839
器	-19.5839
常	-19.5839
样	-19.5839
检	-19.5839
虎	-19.5839
曾	-19.5839
ষ	-19.5839
崎	-19.5839
祭	-19.5839
约	-19.5839
频	-19.5839
鱼	-19.5839
托	-19.5839
̢	-19.5839
尼	-19.5839
带	-19.5839
甲	-19.5839
给	-19.5839
飞	-19.5839
來	-19.5839
导	-19.5839
熟	-19.5839
营	-19.5839
权	-19.5839
轻	-19.5839
远	-19.5839
连	-19.5839
夫	-19.5839
☢	-19.5839
状	-19.5839
ৰ	-19.584
🏫	-19.584
🏦	-19.5843
📬	-19.5843
􀌁	-19.75
􀅽	-19.7505
􇴁	-19.7505
≺	-19.7505
͚	-19.7505
⛅	-19.7505
	-19.7505
促	-19.7505
	-19.7506
姐	-19.7506
	-19.7506
強	-19.7506
ո	-19.7506
ಿ	-19.7506
间	-19.7506
	-19.7506
⚗	-19.7506
跳	-19.7506
ե	-19.7506
杀	-19.7506
借	-19.7506
求	-19.7506
祝	-19.7506
类	-19.7506
経	-19.7506
试	-19.7506
非	-19.7506
좋	-19.7506
့	-19.7506
令	-19.7506
精	-19.7506
	-19.7506
🐚	-19.7506
🕎	-19.7506
朝	-19.7506
横	-19.7506
百	-19.7506
講	-19.7506
费	-19.7506
ĕ	-19.7506
ľ	-19.7506
Ř	-19.7506
ʔ	-19.7506
ւ	-19.7506
ँ	-19.7506
❕	-19.7506
ⲟ	-19.7506
務	-19.7506
氣	-19.7506
津	-19.7506
浄	-19.7506
玩	-19.7506
產	-19.7506
蕭	-19.7506
請	-19.7506
谋	-19.7506
農	-19.7506
雷	-19.7506
麗	-19.7506
계	-19.7506
료	-19.7506
반	-19.7506
백	-19.7506
콜	-19.7506
호	-19.7506
🎪	-19.7506
🐮	-19.7506
	-19.7506
Ń	-19.7506
ŝ	-19.7506
Ź	-19.7506
ˉ	-19.7506
̖	-19.7506
̠	-19.7506
̤	-19.7506
Є	-19.7506
Ц	-19.7506
Щ	-19.7506
ך	-19.7506
״	-19.7506
۪	-19.7506
ধ	-19.7506
ṃ	-19.7506
ẩ	-19.7506
ừ	-19.7506
₡	-19.7506
ↂ	-19.7506
⇑	-19.7506
⎕	-19.7506
☄	-19.7506
☯	-19.7506
☽	-19.7506
♩	-19.7506
⛈	-19.7506
✣	-19.7506
✸	-19.7506
✺	-19.7506
✾	-19.7506
⟵	-19.7506
ゲ	-19.7506
ヒ	-19.7506
佳	-19.7506
創	-19.7506
厈	-19.7506
宏	-19.7506
尾	-19.7506
批	-19.7506
揂	-19.7506
桃	-19.7506
武	-19.7506
段	-19.7506
浓	-19.7506
深	-19.7506
眠	-19.7506
訊	-19.7506
附	-19.7506
饼	-19.7506
걸	-19.7506
관	-19.7506
력	-19.7506
말	-19.7506
위	-19.7506
증	-19.7506
프	-19.7506
학	-19.7506
회	-19.7506
후	-19.7506
	-19.7506
	-19.7506
	-19.7506
🌜	-19.7506
🌬	-19.7506
🌶	-19.7506
🍝	-19.7506
🍣	-19.7506
🎠	-19.7506
🎸	-19.7506
🐢	-19.7506
🐺	-19.7506
🔄	-19.7506
🔧	-19.7506
🔪	-19.7506
🔫	-19.7506
🕷	-19.7506
🗳	-19.7506
🚅	-19.7506
🚿	-19.7506
🤐	-19.7506
🤧	-19.7506
🥳	-19.7506
🧢	-19.7506
􀂃	-19.7506
ນ	-19.7506
რ	-19.7506
ም	-19.7506
ር	-19.7506
ᴇ	-19.7506
✩	-19.7506
买	-19.7506
仲	-19.7506
刺	-19.7506
勞	-19.7506
宜	-19.7506
巴	-19.7506
帝	-19.7506
庆	-19.7506
排	-19.7506
礼	-19.7506
薬	-19.7506
融	-19.7506
說	-19.7506
许	-19.7506
貸	-19.7506
賀	-19.7506
餅	-19.7506
鬼	-19.7506
게	-19.7506
얼	-19.7506
저	-19.7506
	-19.7506
🐏	-19.7506
👭	-19.7506
🔈	-19.7506
🚲	-19.7506
🧕	-19.7506
ਵ	-19.7506
召	-19.7506
寶	-19.7506
血	-19.7506
協	-19.7506
夜	-19.7506
灯	-19.7506
ਜ	-19.7506
🤴	-19.7506
準	-19.7506
ญ	-19.7506
ォ	-19.7506
云	-19.7506
候	-19.7506
始	-19.7506
屁	-19.7506
强	-19.7506
議	-19.7506
军	-19.7506
脱	-19.7506
割	-19.7506
急	-19.7506
ঙ	-19.7506
指	-19.7506
构	-19.7506
欧	-19.7506
协	-19.7506
犯	-19.7506
假	-19.7506
曲	-19.7506
⊂	-19.7506
岛	-19.7506
🍇	-19.7506
🧞	-19.7507
🎷	-19.7516
📡	-19.7516
􀄂	-19.9501
􀈁	-19.9501
،	-19.9502
􀄞	-19.9503
􀆌	-19.9504
竞	-19.9505
̥	-19.9505
竹	-19.9505
Į	-19.9505
班	-19.9506
速	-19.9506
👳	-19.9506
մ	-19.9506
审	-19.9506
兩	-19.9506
冰	-19.9506
恶	-19.9506
慢	-19.9506
站	-19.9506
製	-19.9506
許	-19.9506
順	-19.9506
亞	-19.9506
洲	-19.9506
є	-19.9506
ն	-19.9506
ပ	-19.9506
ါ	-19.9506
依	-19.9506
实	-19.9506
慶	-19.9506
択	-19.9506
療	-19.9506
続	-19.9506
维	-19.9506
規	-19.9506
途	-19.9506
這	-19.9506
關	-19.9506
陪	-19.9506
🌮	-19.9506
˃	-19.9506
判	-19.9506
病	-19.9506
苦	-19.9506
예	-19.9506
🎖	-19.9506
ያ	-19.9506
价	-19.9506
吹	-19.9506
害	-19.9506
対	-19.9506
待	-19.9506
拓	-19.9506
朋	-19.9506
析	-19.9506
痛	-19.9506
罷	-19.9506
芳	-19.9506
贵	-19.9506
드	-19.9506
샵	-19.9506
	-19.9506
ģ	-19.9506
Ť	-19.9506
ŭ	-19.9506
Ж	-19.9506
ҫ	-19.9506
Ԁ	-19.9506
ফ	-19.9506
ት	-19.9506
ῆ	-19.9506
ヤ	-19.9506
廷	-19.9506
役	-19.9506
忍	-19.9506
株	-19.9506
鳥	-19.9506
되	-19.9506
책	-19.9506
침	-19.9506
🏔	-19.9506
🐛	-19.9506
👪	-19.9506
🛀	-19.9506
🧶	-19.9506
Ď	-19.9506
Ŝ	-19.9506
ǫ	-19.9506
͟	-19.9506
ԝ	-19.9506
ׂ	-19.9506
उ	-19.9506
ठ	-19.9506
।	-19.9506
०	-19.9506
২	-19.9506
ು	-19.9506
്	-19.9506
່	-19.9506
་	-19.9506
༺	-19.9506
ል	-19.9506
ኣ	-19.9506
ይ	-19.9506
ገ	-19.9506
ፍ	-19.9506
ῖ	-19.9506
⁕	-19.9506
⇝	-19.9506
⌖	-19.9506
⎟	-19.9506
╞	-19.9506
▐	-19.9506
▓	-19.9506
◅	-19.9506
⚔	-19.9506
✳	-19.9506
❊	-19.9506
➍	-19.9506
➩	-19.9506
ゼ	-19.9506
丸	-19.9506
俗	-19.9506
刻	-19.9506
勝	-19.9506
史	-19.9506
哥	-19.9506
啤	-19.9506
堂	-19.9506
增	-19.9506
妈	-19.9506
姨	-19.9506
岩	-19.9506
弹	-19.9506
戸	-19.9506
敷	-19.9506
极	-19.9506
概	-19.9506
榕	-19.9506
檓	-19.9506
珍	-19.9506
珞	-19.9506
皇	-19.9506
盟	-19.9506
碎	-19.9506
禅	-19.9506
禮	-19.9506
穷	-19.9506
策	-19.9506
糕	-19.9506
統	-19.9506
網	-19.9506
繁	-19.9506
翻	-19.9506
脫	-19.9506
般	-19.9506
范	-19.9506
萬	-19.9506
藝	-19.9506
談	-19.9506
譯	-19.9506
豆	-19.9506
豪	-19.9506
贸	-19.9506
送	-19.9506
違	-19.9506
郭	-19.9506
陸	-19.9506
隊	-19.9506
震	-19.9506
验	-19.9506
간	-19.9506
녀	-19.9506
려	-19.9506
령	-19.9506
버	-19.9506
보	-19.9506
악	-19.9506
여	-19.9506
와	-19.9506
을	-19.9506
임	-19.9506
치	-19.9506
캔	-19.9506
	-19.9506
	-19.9506
	-19.9506
	-19.9506
	-19.9506
	-19.9506
	-19.9506
	-19.9506
	-19.9506
	-19.9506
	-19.9506
	-19.9506
	-19.9506
	-19.9506
	-19.9506
🌇	-19.9506
🍐	-19.9506
🍗	-19.9506
🍵	-19.9506
🎆	-19.9506
🎇	-19.9506
🏂	-19.9506
🏏	-19.9506
🏥	-19.9506
🐍	-19.9506
🐘	-19.9506
🐪	-19.9506
👔	-19.9506
👜	-19.9506
👢	-19.9506
🔅	-19.9506
🕵	-19.9506
🖥	-19.9506
🗻	-19.9506
😷	-19.9506
😸	-19.9506
🙀	-19.9506
🚌	-19.9506
🚙	-19.9506
🛏	-19.9506
🛰	-19.9506
🛳	-19.9506
🥔	-19.9506
🥤	-19.9506
🦅	-19.9506
🧤	-19.9506
Ζ	-19.9506
ӧ	-19.9506
উ	-19.9506
খ	-19.9506
ੀ	-19.9506
ய	-19.9506
ல	-19.9506
ฃ	-19.9506
๑	-19.9506
ე	-19.9506
ለ	-19.9506
⛳	-19.9506
〉	-19.9506
宫	-19.9506
差	-19.9506
欢	-19.9506
申	-19.9506
菲	-19.9506
该	-19.9506
邪	-19.9506
코	-19.9506
	-19.9506
	-19.9506
󠁳	-19.9506
ਾ	-19.9506
✻	-19.9506
浜	-19.9506
续	-19.9506
賓	-19.9506
飛	-19.9506
색	-19.9506
剛	-19.9506
吸	-19.9506
并	-19.9506
满	-19.9506
统	-19.9506
袋	-19.9506
調	-19.9506
須	-19.9506
	-19.9506
🥋	-19.9506
残	-19.9506
濃	-19.9506
霏	-19.9506
ງ	-19.9506
⎷	-19.9506
惠	-19.9506
按	-19.9506
股	-19.9506
ৃ	-19.9506
怎	-19.9506
游	-19.9506
规	-19.9506
逸	-19.9506
ং	-19.9506
些	-19.9506
位	-19.9506
呂	-19.9506
黄	-19.9506
ວ	-19.9506
财	-19.9506
适	-19.9506
🛩	-19.9506
̲	-19.9506
固	-19.9506
尔	-19.9506
折	-19.9506
援	-19.9506
险	-19.9506
馆	-19.9506
缔	-19.9506
产	-19.9506
联	-19.9506
妇	-19.9506
断	-19.9506
亚	-19.9506
📋	-19.9511
􇘁	-20.2001
􀅶	-20.2001
ث	-20.2002
􀆚	-20.2004
􉨁	-20.2004
插	-20.2005
您	-20.2005
ฑ	-20.2005
番	-20.2005
鼓	-20.2005
仍	-20.2005
͈	-20.2005
伙	-20.2005
売	-20.2005
至	-20.2005
职	-20.2006
讓	-20.2006
	-20.2006
Џ	-20.2006
希	-20.2006
欲	-20.2006
疑	-20.2006
ັ	-20.2006
哪	-20.2006
徒	-20.2006
济	-20.2006
👴	-20.2006
囲	-20.2006
ಕ	-20.2006
僕	-20.2006
處	-20.2006
偶	-20.2006
列	-20.2006
扱	-20.2006
環	-20.2006
药	-20.2006
赤	-20.2006
열	-20.2006
🐋	-20.2006
๊	-20.2006
ມ	-20.2006
々	-20.2006
ユ	-20.2006
办	-20.2006
医	-20.2006
射	-20.2006
幾	-20.2006
庫	-20.2006
廣	-20.2006
弗	-20.2006
径	-20.2006
押	-20.2006
挑	-20.2006
簡	-20.2006
覧	-20.2006
運	-20.2006
钱	-20.2006
関	-20.2006
雲	-20.2006
魁	-20.2006
🍧	-20.2006
ന	-20.2006
င	-20.2006
湯	-20.2006
虫	-20.2006
🐳	-20.2006
ध	-20.2006
ದ	-20.2006
ฉ	-20.2006
久	-20.2006
份	-20.2006
傑	-20.2006
员	-20.2006
延	-20.2006
構	-20.2006
测	-20.2006
瑞	-20.2006
舉	-20.2006
轉	-20.2006
阪	-20.2006
随	-20.2006
울	-20.2006
	-20.2006
🤝	-20.2006
Ù	-20.2006
ķ	-20.2006
̀	-20.2006
छ	-20.2006
ግ	-20.2006
ἶ	-20.2006
⌋	-20.2006
刷	-20.2006
導	-20.2006
昌	-20.2006
末	-20.2006
杰	-20.2006
母	-20.2006
沒	-20.2006
爸	-20.2006
瑩	-20.2006
羽	-20.2006
蘇	-20.2006
购	-20.2006
較	-20.2006
辞	-20.2006
辿	-20.2006
남	-20.2006
두	-20.2006
박	-20.2006
별	-20.2006
용	-20.2006
	-20.2006
🎞	-20.2006
🗓	-20.2006
🧣	-20.2006
ҝ	-20.2006
ಥ	-20.2006
⛵	-20.2006
⛽	-20.2006
⤴	-20.2006
套	-20.2006
淗	-20.2006
箭	-20.2006
隆	-20.2006
생	-20.2006
	-20.2006
	-20.2006
	-20.2006
	-20.2006
	-20.2006
😺	-20.2006
🦀	-20.2006
🧀	-20.2006
ļ	-20.2006
Ū	-20.2006
ǃ	-20.2006
ǝ	-20.2006
ȝ	-20.2006
˗	-20.2006
̝	-20.2006
Ғ	-20.2006
ڈ	-20.2006
۬	-20.2006
ߣ	-20.2006
ऐ	-20.2006
ੇ	-20.2006
ந	-20.2006
ฐ	-20.2006
ሚ	-20.2006
ስ	-20.2006
ድ	-20.2006
ᴏ	-20.2006
ὁ	-20.2006
⁝	-20.2006
⇐	-20.2006
⇡	-20.2006
∅	-20.2006
∘	-20.2006
∝	-20.2006
∪	-20.2006
≅	-20.2006
⊗	-20.2006
⋆	-20.2006
⋘	-20.2006
⋙	-20.2006
⌀	-20.2006
⌊	-20.2006
⌐	-20.2006
⌚	-20.2006
⍟	-20.2006
⏎	-20.2006
╘	-20.2006
╳	-20.2006
▍	-20.2006
▣	-20.2006
☏	-20.2006
☪	-20.2006
♇	-20.2006
♚	-20.2006
♞	-20.2006
✝	-20.2006
✱	-20.2006
➝	-20.2006
➞	-20.2006
➵	-20.2006
习	-20.2006
亮	-20.2006
佛	-20.2006
個	-20.2006
势	-20.2006
吗	-20.2006
寓	-20.2006
征	-20.2006
応	-20.2006
應	-20.2006
抄	-20.2006
拜	-20.2006
授	-20.2006
斗	-20.2006
映	-20.2006
曼	-20.2006
朔	-20.2006
朗	-20.2006
様	-20.2006
歯	-20.2006
殺	-20.2006
洞	-20.2006
热	-20.2006
牌	-20.2006
牧	-20.2006
犬	-20.2006
猜	-20.2006
离	-20.2006
糖	-20.2006
紀	-20.2006
练	-20.2006
羊	-20.2006
背	-20.2006
芬	-20.2006
蝦	-20.2006
視	-20.2006
評	-20.2006
證	-20.2006
评	-20.2006
象	-20.2006
費	-20.2006
资	-20.2006
赢	-20.2006
銘	-20.2006
門	-20.2006
零	-20.2006
頭	-20.2006
顧	-20.2006
魚	-20.2006
麵	-20.2006
개	-20.2006
광	-20.2006
님	-20.2006
레	-20.2006
렌	-20.2006
를	-20.2006
맨	-20.2006
먹	-20.2006
면	-20.2006
모	-20.2006
물	-20.2006
방	-20.2006
심	-20.2006
쓰	-20.2006
애	-20.2006
양	-20.2006
언	-20.2006
재	-20.2006
질	-20.2006
초	-20.2006
투	-20.2006
티	-20.2006
	-20.2006
	-20.2006
	-20.2006
	-20.2006
	-20.2006
	-20.2006
	-20.2006
	-20.2006
	-20.2006
	-20.2006
	-20.2006
	-20.2006
𐤅	-20.2006
𐤉	-20.2006
🇻	-20.2006
🇽	-20.2006
🌀	-20.2006
🌛	-20.2006
🌤	-20.2006
🍅	-20.2006
🍍	-20.2006
🍤	-20.2006
🍯	-20.2006
🎒	-20.2006
🎺	-20.2006
🏇	-20.2006
🐑	-20.2006
🐓	-20.2006
🐜	-20.2006
🐤	-20.2006
🐧	-20.2006
🐼	-20.2006
🐽	-20.2006
👷	-20.2006
💑	-20.2006
💳	-20.2006
📻	-20.2006
🔋	-20.2006
🔭	-20.2006
🖍	-20.2006
🖖	-20.2006
🖼	-20.2006
😠	-20.2006
😼	-20.2006
🚖	-20.2006
🚢	-20.2006
🚶	-20.2006
🛎	-20.2006
🤕	-20.2006
🤠	-20.2006
🤡	-20.2006
🤮	-20.2006
🤰	-20.2006
🤳	-20.2006
🥥	-20.2006
🥦	-20.2006
🥶	-20.2006
🦇	-20.2006
􀂅	-20.2006
Ƅ	-20.2006
♯	-20.2006
❹	-20.2006
佐	-20.2006
余	-20.2006
嘉	-20.2006
圣	-20.2006
朱	-20.2006
桂	-20.2006
温	-20.2006
測	-20.2006
甜	-20.2006
畫	-20.2006
納	-20.2006
聖	-20.2006
肯	-20.2006
舎	-20.2006
船	-20.2006
艺	-20.2006
遅	-20.2006
醫	-20.2006
銀	-20.2006
陈	-20.2006
놀	-20.2006
희	-20.2006
	-20.2006
	-20.2006
	-20.2006
	-20.2006
🌪	-20.2006
🍈	-20.2006
🏞	-20.2006
Ę	-20.2006
ਇ	-20.2006
ਸ	-20.2006
இ	-20.2006
ಾ	-20.2006
ᴛ	-20.2006
ὑ	-20.2006
伝	-20.2006
岁	-20.2006
帽	-20.2006
戴	-20.2006
沖	-20.2006
湿	-20.2006
独	-20.2006
皮	-20.2006
穴	-20.2006
縣	-20.2006
胸	-20.2006
複	-20.2006
還	-20.2006
郷	-20.2006
霊	-20.2006
鹿	-20.2006
메	-20.2006
󠁴	-20.2006
ɢ	-20.2006
ங	-20.2006
ብ	-20.2006
汽	-20.2006
越	-20.2006
🛸	-20.2006
ಶ	-20.2006
两	-20.2006
憲	-20.2006
權	-20.2006
浅	-20.2006
縄	-20.2006
試	-20.2006
谚	-20.2006
週	-20.2006
配	-20.2006
🍬	-20.2006
🧖	-20.2006
帮	-20.2006
终	-20.2006
蜜	-20.2006
錢	-20.2006
ษ	-20.2006
承	-20.2006
谈	-20.2006
󠁣	-20.2006
邱	-20.2006
韮	-20.2006
啊	-20.2006
算	-20.2006
脚	-20.2006
采	-20.2006
黨	-20.2006
妻	-20.2006
楼	-20.2006
须	-20.2006
众	-20.2006
兰	-20.2006
拉	-20.2006
观	-20.2006
塞	-20.2006
柔	-20.2006
兄	-20.2006
户	-20.2006
认	-20.2006
转	-20.2006
點	-20.2006
🛬	-20.2006
􀁺	-20.2006
ດ	-20.2006
否	-20.2006
享	-20.2006
属	-20.2006
🎳	-20.2007
🍄	-20.2007
🍶	-20.2008
📊	-20.2013
📅	-20.2013
👒	-20.2023
🔐	-20.2032
􀆐	-20.5334
􀇇	-20.5335
􁸁	-20.5336
􅨁	-20.5337
􈰁	-20.5338
̛	-20.5338
含	-20.5339
幻	-20.5339
乎	-20.5339
似	-20.5339
队	-20.5339
	-20.5339
͍	-20.5339
励	-20.5339
即	-20.5339
谁	-20.5339
愿	-20.5339
̞	-20.5339
͖	-20.5339
ಸ	-20.5339
ໍ	-20.5339
ᴄ	-20.5339
ヘ	-20.5339
准	-20.5339
則	-20.5339
坛	-20.5339
嫌	-20.5339
省	-20.5339
կ	-20.5339
տ	-20.5339
ಯ	-20.5339
烈	-20.5339
率	-20.5339
絶	-20.5339
群	-20.5339
胜	-20.5339
	-20.5339
培	-20.5339
端	-20.5339
蛙	-20.5339
狂	-20.5339
ʟ	-20.5339
Ћ	-20.5339
ஸ	-20.5339
ສ	-20.5339
သ	-20.5339
串	-20.5339
乱	-20.5339
仕	-20.5339
備	-20.5339
双	-20.5339
孤	-20.5339
封	-20.5339
崇	-20.5339
幼	-20.5339
札	-20.5339
瓶	-20.5339
誠	-20.5339
誰	-20.5339
遠	-20.5339
響	-20.5339
	-20.5339
📎	-20.5339
📙	-20.5339
🙎	-20.5339
Έ	-20.5339
န	-20.5339
灌	-20.5339
秘	-20.5339
豐	-20.5339
르	-20.5339
ृ	-20.5339
ূ	-20.5339
ೀ	-20.5339
ි	-20.5339
ລ	-20.5339
ြ	-20.5339
გ	-20.5339
ሸ	-20.5339
⛔	-20.5339
ぃ	-20.5339
ヨ	-20.5339
侵	-20.5339
兒	-20.5339
兵	-20.5339
區	-20.5339
卷	-20.5339
帯	-20.5339
序	-20.5339
憂	-20.5339
撮	-20.5339
暑	-20.5339
材	-20.5339
束	-20.5339
棒	-20.5339
渡	-20.5339
璃	-20.5339
級	-20.5339
絡	-20.5339
置	-20.5339
翁	-20.5339
聞	-20.5339
衍	-20.5339
買	-20.5339
資	-20.5339
鐵	-20.5339
陽	-20.5339
際	-20.5339
隨	-20.5339
駅	-20.5339
鲜	-20.5339
거	-20.5339
판	-20.5339
🌉	-20.5339
🐀	-20.5339
🖒	-20.5339
🚽	-20.5339
稻	-20.5339
黔	-20.5339
ϋ	-20.5339
ฺ	-20.5339
အ	-20.5339
መ	-20.5339
ᠣ	-20.5339
ḇ	-20.5339
ẓ	-20.5339
Ἰ	-20.5339
ὀ	-20.5339
↗	-20.5339
乾	-20.5339
亦	-20.5339
仇	-20.5339
倉	-20.5339
倒	-20.5339
冬	-20.5339
単	-20.5339
叉	-20.5339
哲	-20.5339
單	-20.5339
圓	-20.5339
坤	-20.5339
季	-20.5339
宇	-20.5339
寨	-20.5339
弥	-20.5339
拳	-20.5339
揗	-20.5339
摸	-20.5339
旦	-20.5339
晶	-20.5339
染	-20.5339
柱	-20.5339
検	-20.5339
節	-20.5339
紫	-20.5339
紹	-20.5339
翔	-20.5339
聯	-20.5339
胡	-20.5339
茅	-20.5339
蒸	-20.5339
街	-20.5339
賛	-20.5339
较	-20.5339
辛	-20.5339
鎖	-20.5339
閃	-20.5339
鼻	-20.5339
龔	-20.5339
송	-20.5339
암	-20.5339
없	-20.5339
윤	-20.5339
	-20.5339
	-20.5339
🐎	-20.5339
🐸	-20.5339
🔌	-20.5339
🔖	-20.5339
🖕	-20.5339
ȟ	-20.5339
ɣ	-20.5339
˥	-20.5339
̅	-20.5339
̟	-20.5339
̨	-20.5339
ϳ	-20.5339
Й	-20.5339
Ш	-20.5339
Ю	-20.5339
Ґ	-20.5339
Һ	-20.5339
ԛ	-20.5339
ף	-20.5339
ٌ	-20.5339
ई	-20.5339
ॐ	-20.5339
ঠ	-20.5339
৪	-20.5339
ੈ	-20.5339
ા	-20.5339
ற	-20.5339
්	-20.5339
ဒ	-20.5339
ვ	-20.5339
ᄀ	-20.5339
ᄅ	-20.5339
ᄒ	-20.5339
ᆞ	-20.5339
ሓ	-20.5339
ቅ	-20.5339
ተ	-20.5339
ኖ	-20.5339
ው	-20.5339
ደ	-20.5339
ፈ	-20.5339
ស	-20.5339
ᴠ	-20.5339
ẻ	-20.5339
ẽ	-20.5339
ἵ	-20.5339
ὴ	-20.5339
ᾶ	-20.5339
⁭	-20.5339
℘	-20.5339
↕	-20.5339
↙	-20.5339
⌉	-20.5339
├	-20.5339
╜	-20.5339
◁	-20.5339
☂	-20.5339
☚	-20.5339
☜	-20.5339
♐	-20.5339
⚒	-20.5339
⚘	-20.5339
⚾	-20.5339
❅	-20.5339
➁	-20.5339
➣	-20.5339
➥	-20.5339
⸰	-20.5339
ぞ	-20.5339
伦	-20.5339
伴	-20.5339
侨	-20.5339
俱	-20.5339
偽	-20.5339
內	-20.5339
刚	-20.5339
勇	-20.5339
勤	-20.5339
升	-20.5339
咩	-20.5339
囗	-20.5339
塔	-20.5339
夕	-20.5339
密	-20.5339
對	-20.5339
岸	-20.5339
左	-20.5339
巽	-20.5339
忙	-20.5339
恋	-20.5339
恵	-20.5339
悔	-20.5339
憶	-20.5339
戮	-20.5339
扣	-20.5339
抳	-20.5339
挂	-20.5339
振	-20.5339
敦	-20.5339
敬	-20.5339
數	-20.5339
昇	-20.5339
杜	-20.5339
杭	-20.5339
枝	-20.5339
柯	-20.5339
査	-20.5339
梁	-20.5339
椅	-20.5339
欠	-20.5339
毅	-20.5339
波	-20.5339
洗	-20.5339
洛	-20.5339
派	-20.5339
淵	-20.5339
湾	-20.5339
災	-20.5339
狮	-20.5339
盲	-20.5339
睡	-20.5339
矇	-20.5339
碁	-20.5339
祥	-20.5339
称	-20.5339
種	-20.5339
穆	-20.5339
積	-20.5339
符	-20.5339
築	-20.5339
索	-20.5339
綱	-20.5339
緒	-20.5339
編	-20.5339
纪	-20.5339
缘	-20.5339
聘	-20.5339
胞	-20.5339
菊	-20.5339
葡	-20.5339
虹	-20.5339
蝶	-20.5339
課	-20.5339
计	-20.5339
达	-20.5339
酸	-20.5339
醒	-20.5339
锅	-20.5339
額	-20.5339
项	-20.5339
顾	-20.5339
餡	-20.5339
騎	-20.5339
驗	-20.5339
갑	-20.5339
곡	-20.5339
그	-20.5339
닌	-20.5339
덕	-20.5339
럼	-20.5339
망	-20.5339
불	-20.5339
빠	-20.5339
삼	-20.5339
식	-20.5339
실	-20.5339
업	-20.5339
온	-20.5339
외	-20.5339
적	-20.5339
째	-20.5339
찬	-20.5339
체	-20.5339
추	-20.5339
충	-20.5339
캐	-20.5339
콩	-20.5339
텐	-20.5339
텔	-20.5339
튀	-20.5339
팝	-20.5339
피	-20.5339
항	-20.5339
행	-20.5339
현	-20.5339
	-20.5339
	-20.5339
	-20.5339
	-20.5339
	-20.5339
	-20.5339
	-20.5339
	-20.5339
	-20.5339
	-20.5339
	-20.5339
	-20.5339
	-20.5339
	-20.5339
	-20.5339
	-20.5339
	-20.5339
	-20.5339
	-20.5339
	-20.5339
	-20.5339
	-20.5339
	-20.5339
	-20.5339
🇼	-20.5339
🌃	-20.5339
🌚	-20.5339
🌠	-20.5339
🌽	-20.5339
🍨	-20.5339
🏉	-20.5339
🏕	-20.5339
🏭	-20.5339
🐅	-20.5339
🐆	-20.5339
🐡	-20.5339
🐥	-20.5339
👡	-20.5339
👥	-20.5339
👮	-20.5339
👹	-20.5339
💟	-20.5339
📐	-20.5339
📒	-20.5339
📕	-20.5339
🔯	-20.5339
🕖	-20.5339
🖇	-20.5339
🖱	-20.5339
🗿	-20.5339
😽	-20.5339
🚁	-20.5339
🚂	-20.5339
🚜	-20.5339
🛣	-20.5339
🛴	-20.5339
🤛	-20.5339
🤬	-20.5339
🥘	-20.5339
🥚	-20.5339
🥛	-20.5339
🥝	-20.5339
🥨	-20.5339
🦂	-20.5339
🦐	-20.5339
🦓	-20.5339
🧸	-20.5339
󠁥	-20.5339
󠁮	-20.5339
ĉ	-20.5339
Ķ	-20.5339
գ	-20.5339
ᄂ	-20.5339
ᥙ	-20.5339
ṉ	-20.5339
⊃	-20.5339
┐	-20.5339
❉	-20.5339
便	-20.5339
凌	-20.5339
剣	-20.5339
哈	-20.5339
旁	-20.5339
淲	-20.5339
鏡	-20.5339
운	-20.5339
읽	-20.5339
🗲	-20.5339
🤚	-20.5339
🦉	-20.5339
Ľ	-20.5339
਼	-20.5339
ண	-20.5339
ᄋ	-20.5339
ᵻ	-20.5339
Ḳ	-20.5339
ῥ	-20.5339
╟	-20.5339
⛷	-20.5339
传	-20.5339
偕	-20.5339
児	-20.5339
农	-20.5339
孝	-20.5339
孫	-20.5339
復	-20.5339
扑	-20.5339
斯	-20.5339
滿	-20.5339
爆	-20.5339
爾	-20.5339
膏	-20.5339
臣	-20.5339
薄	-20.5339
訓	-20.5339
货	-20.5339
鈴	-20.5339
银	-20.5339
頂	-20.5339
顺	-20.5339
预	-20.5339
養	-20.5339
감	-20.5339
란	-20.5339
만	-20.5339
머	-20.5339
입	-20.5339
할	-20.5339
	-20.5339
🌨	-20.5339
🏰	-20.5339
💶	-20.5339
💷	-20.5339
🚪	-20.5339
🥅	-20.5339
ʎ	-20.5339
Њ	-20.5339
ਬ	-20.5339
ਮ	-20.5339
ກ	-20.5339
მ	-20.5339
უ	-20.5339
ὠ	-20.5339
ヌ	-20.5339
呼	-20.5339
夢	-20.5339
婚	-20.5339
寧	-20.5339
尚	-20.5339
怡	-20.5339
抜	-20.5339
消	-20.5339
牙	-20.5339
碧	-20.5339
總	-20.5339
藤	-20.5339
辅	-20.5339
逆	-20.5339
闻	-20.5339
魯	-20.5339
鮮	-20.5339
러	-20.5339
	-20.5339
🏅	-20.5339
🏌	-20.5339
🧗	-20.5339
ਤ	-20.5339
வ	-20.5339
唤	-20.5339
官	-20.5339
烧	-20.5339
退	-20.5339
종	-20.5339
ຂ	-20.5339
⏸	-20.5339
互	-20.5339
另	-20.5339
售	-20.5339
尘	-20.5339
搞	-20.5339
术	-20.5339
祖	-20.5339
辖	-20.5339
障	-20.5339
🛶	-20.5339
届	-20.5339
输	-20.5339
塚	-20.5339
詳	-20.5339
冒	-20.5339
藻	-20.5339
设	-20.5339
怖	-20.5339
敵	-20.5339
昨	-20.5339
环	-20.5339
绿	-20.5339
责	-20.5339
际	-20.5339
默	-20.5339
🥵	-20.5339
控	-20.5339
淑	-20.5339
悲	-20.5339
ະ	-20.5339
尽	-20.5339
泰	-20.5339
韩	-20.534
̕	-20.534
͙	-20.534
ເ	-20.534
低	-20.534
减	-20.534
执	-20.534
荐	-20.534
跟	-20.534
偏	-20.534
讲	-20.534
🍞	-20.534
述	-20.534
🏘	-20.534
🥜	-20.5341
🧓	-20.5341
📑	-20.5349
📯	-20.5362
􀄚	-21.0328
􁨀	-21.0328
􀅵	-21.0331
􇔁	-21.0331
􀄐	-21.0334
􁀁	-21.0334
􀇁	-21.0335
􀅚	-21.0336
̻	-21.0338
🦱	-21.0338
確	-21.0338
熱	-21.0338
倩	-21.0338
均	-21.0338
妹	-21.0338
孙	-21.0338
效	-21.0338
聊	-21.0338
􀆵	-21.0338
􂠁	-21.0338
某	-21.0339
煤	-21.0339
	-21.0339
禁	-21.0339
租	-21.0339
̮	-21.0339
๋	-21.0339
宅	-21.0339
态	-21.0339
泊	-21.0339
码	-21.0339
税	-21.0339
蕾	-21.0339
裡	-21.0339
閉	-21.0339
발	-21.0339
🦰	-21.0339
􀅝	-21.0339
􅴁	-21.0339
ತ	-21.0339
炭	-21.0339
皓	-21.0339
릉	-21.0339
扶	-21.0339
ʉ	-21.0339
ᴜ	-21.0339
伤	-21.0339
划	-21.0339
劃	-21.0339
咒	-21.0339
址	-21.0339
墓	-21.0339
夊	-21.0339
奸	-21.0339
惡	-21.0339
惹	-21.0339
找	-21.0339
眉	-21.0339
聚	-21.0339
註	-21.0339
説	-21.0339
諸	-21.0339
赶	-21.0339
鏈	-21.0339
鲁	-21.0339
麥	-21.0339
麼	-21.0339
	-21.0339
🚬	-21.0339
従	-21.0339
仙	-21.0339
唯	-21.0339
寝	-21.0339
抓	-21.0339
芋	-21.0339
ɲ	-21.0339
ɵ	-21.0339
ɾ	-21.0339
˧	-21.0339
љ	-21.0339
բ	-21.0339
խ	-21.0339
׳	-21.0339
थ	-21.0339
ள	-21.0339
ಂ	-21.0339
ಗ	-21.0339
ത	-21.0339
ๆ	-21.0339
ໃ	-21.0339
ိ	-21.0339
⸢	-21.0339
〖	-21.0339
侠	-21.0339
優	-21.0339
努	-21.0339
勒	-21.0339
吞	-21.0339
吾	-21.0339
團	-21.0339
弱	-21.0339
御	-21.0339
愚	-21.0339
智	-21.0339
栄	-21.0339
模	-21.0339
欽	-21.0339
洋	-21.0339
燃	-21.0339
營	-21.0339
瑠	-21.0339
籍	-21.0339
絕	-21.0339
臉	-21.0339
賭	-21.0339
赌	-21.0339
輔	-21.0339
連	-21.0339
隐	-21.0339
커	-21.0339
🖋	-21.0339
🦏	-21.0339
̫	-21.0339
Ṭ	-21.0339
伏	-21.0339
죽	-21.0339
ĝ	-21.0339
ǒ	-21.0339
ȧ	-21.0339
ി	-21.0339
ှ	-21.0339
ላ	-21.0339
ጫ	-21.0339
ἴ	-21.0339
ῑ	-21.0339
✠	-21.0339
〗	-21.0339
剑	-21.0339
労	-21.0339
勳	-21.0339
実	-21.0339
寮	-21.0339
尤	-21.0339
抱	-21.0339
揈	-21.0339
揚	-21.0339
杨	-21.0339
淀	-21.0339
炒	-21.0339
玛	-21.0339
瑜	-21.0339
異	-21.0339
皆	-21.0339
盘	-21.0339
睿	-21.0339
破	-21.0339
蝴	-21.0339
补	-21.0339
诚	-21.0339
课	-21.0339
赛	-21.0339
透	-21.0339
邦	-21.0339
錦	-21.0339
駿	-21.0339
鴻	-21.0339
겉	-21.0339
근	-21.0339
혼	-21.0339
	-21.0339
	-21.0339
	-21.0339
🐔	-21.0339
ċ	-21.0339
Ű	-21.0339
Ơ	-21.0339
Ʃ	-21.0339
ٍ	-21.0339
১	-21.0339
ᄃ	-21.0339
ኢ	-21.0339
ẋ	-21.0339
ỉ	-21.0339
⁢	-21.0339
⍻	-21.0339
◔	-21.0339
♨	-21.0339
➕	-21.0339
乀	-21.0339
予	-21.0339
卫	-21.0339
寫	-21.0339
巫	-21.0339
戒	-21.0339
矛	-21.0339
誓	-21.0339
銭	-21.0339
밀	-21.0339
번	-21.0339
않	-21.0339
잡	-21.0339
챕	-21.0339
처	-21.0339
🍖	-21.0339
🍲	-21.0339
🏹	-21.0339
􀀀	-21.0339
Ŧ	-21.0339
ǂ	-21.0339
Ǩ	-21.0339
ȅ	-21.0339
ȇ	-21.0339
Ȝ	-21.0339
ɚ	-21.0339
ɟ	-21.0339
ʇ	-21.0339
ˀ	-21.0339
˩	-21.0339
̓	-21.0339
̚	-21.0339
̰	-21.0339
̺	-21.0339
͉	-21.0339
͔	-21.0339
͕	-21.0339
͢	-21.0339
ͤ	-21.0339
ͥ	-21.0339
ϟ	-21.0339
Ѣ	-21.0339
ұ	-21.0339
ӎ	-21.0339
ә	-21.0339
ө	-21.0339
Տ	-21.0339
ի	-21.0339
լ	-21.0339
հ	-21.0339
؛	-21.0339
ً	-21.0339
٣	-21.0339
ڑ	-21.0339
ܢ	-21.0339
ߝ	-21.0339
ߤ	-21.0339
८	-21.0339
ও	-21.0339
ঘ	-21.0339
ਨ	-21.0339
ਿ	-21.0339
ੂ	-21.0339
ੱ	-21.0339
ં	-21.0339
આ	-21.0339
ક	-21.0339
્	-21.0339
எ	-21.0339
ப	-21.0339
ே	-21.0339
ವ	-21.0339
ര	-21.0339
ാ	-21.0339
ප	-21.0339
๏	-21.0339
ན	-21.0339
ུ	-21.0339
က	-21.0339
ာ	-21.0339
ု	-21.0339
ေ	-21.0339
ზ	-21.0339
ო	-21.0339
ტ	-21.0339
ᄍ	-21.0339
ᅥ	-21.0339
ሙ	-21.0339
ማ	-21.0339
ረ	-21.0339
ሬ	-21.0339
ሻ	-21.0339
ቲ	-21.0339
ታ	-21.0339
ከ	-21.0339
ክ	-21.0339
ዉ	-21.0339
የ	-21.0339
ጋ	-21.0339
ጎ	-21.0339
ጠ	-21.0339
ᗩ	-21.0339
᠊	-21.0339
᠋	-21.0339
ᠠ	-21.0339
ᴐ	-21.0339
ḗ	-21.0339
Ḩ	-21.0339
ẗ	-21.0339
Ấ	-21.0339
Ắ	-21.0339
Ị	-21.0339
ỷ	-21.0339
Ἀ	-21.0339
ἕ	-21.0339
ἰ	-21.0339
ὶ	-21.0339
ὸ	-21.0339
ῶ	-21.0339
‱	-21.0339
⁂	-21.0339
⁬	-21.0339
₪	-21.0339
₭	-21.0339
⃝	-21.0339
℟	-21.0339
℣	-21.0339
℥	-21.0339
↡	-21.0339
↣	-21.0339
↰	-21.0339
⇛	-21.0339
⇥	-21.0339
∕	-21.0339
≘	-21.0339
≫	-21.0339
⊖	-21.0339
⊞	-21.0339
⊿	-21.0339
⌠	-21.0339
⌦	-21.0339
⍽	-21.0339
⎝	-21.0339
⏲	-21.0339
␣	-21.0339
┻	-21.0339
╗	-21.0339
╬	-21.0339
▉	-21.0339
▾	-21.0339
◠	-21.0339
◡	-21.0339
◥	-21.0339
☸	-21.0339
☿	-21.0339
♒	-21.0339
♧	-21.0339
♲	-21.0339
⚞	-21.0339
⚟	-21.0339
⛑	-21.0339
✹	-21.0339
❃	-21.0339
❘	-21.0339
➋	-21.0339
➏	-21.0339
➪	-21.0339
➺	-21.0339
➼	-21.0339
⧝	-21.0339
⧼	-21.0339
⸣	-21.0339
⺣	-21.0339
〔	-21.0339
ゅ	-21.0339
ゥ	-21.0339
ヂ	-21.0339
丙	-21.0339
乃	-21.0339
亡	-21.0339
仅	-21.0339
伯	-21.0339
倫	-21.0339
側	-21.0339
傳	-21.0339
儀	-21.0339
儒	-21.0339
儲	-21.0339
几	-21.0339
凡	-21.0339
凶	-21.0339
劇	-21.0339
务	-21.0339
劫	-21.0339
危	-21.0339
厕	-21.0339
厚	-21.0339
収	-21.0339
呪	-21.0339
咔	-21.0339
唔	-21.0339
啟	-21.0339
喬	-21.0339
嘗	-21.0339
嘿	-21.0339
嚓	-21.0339
嚴	-21.0339
团	-21.0339
困	-21.0339
圏	-21.0339
圖	-21.0339
坂	-21.0339
坊	-21.0339
堅	-21.0339
堆	-21.0339
声	-21.0339
备	-21.0339
夷	-21.0339
奈	-21.0339
奥	-21.0339
妙	-21.0339
妮	-21.0339
姚	-21.0339
婊	-21.0339
婷	-21.0339
媐	-21.0339
嬧	-21.0339
宣	-21.0339
寇	-21.0339
寥	-21.0339
審	-21.0339
寿	-21.0339
尸	-21.0339
层	-21.0339
岳	-21.0339
帳	-21.0339
幽	-21.0339
廟	-21.0339
廬	-21.0339
弁	-21.0339
彥	-21.0339
徨	-21.0339
慎	-21.0339
慧	-21.0339
憆	-21.0339
憊	-21.0339
懂	-21.0339
挥	-21.0339
掌	-21.0339
探	-21.0339
掳	-21.0339
揋	-21.0339
損	-21.0339
擔	-21.0339
攻	-21.0339
敏	-21.0339
斌	-21.0339
旗	-21.0339
晖	-21.0339
暉	-21.0339
曉	-21.0339
杯	-21.0339
枕	-21.0339
架	-21.0339
柳	-21.0339
植	-21.0339
極	-21.0339
槍	-21.0339
樺	-21.0339
橙	-21.0339
檝	-21.0339
歷	-21.0339
歸	-21.0339
毒	-21.0339
毕	-21.0339
汁	-21.0339
汤	-21.0339
沈	-21.0339
泽	-21.0339
浴	-21.0339
涙	-21.0339
涯	-21.0339
淔	-21.0339
淹	-21.0339
渉	-21.0339
漂	-21.0339
漫	-21.0339
潔	-21.0339
潘	-21.0339
澳	-21.0339
瀑	-21.0339
瀬	-21.0339
灘	-21.0339
炎	-21.0339
烙	-21.0339
烤	-21.0339
煎	-21.0339
爪	-21.0339
猛	-21.0339
猩	-21.0339
猪	-21.0339
玄	-21.0339
玲	-21.0339
琴	-21.0339
瑋	-21.0339
瑶	-21.0339
瑾	-21.0339
甘	-21.0339
症	-21.0339
监	-21.0339
盒	-21.0339
督	-21.0339
矣	-21.0339
碗	-21.0339
祈	-21.0339
秩	-21.0339
稲	-21.0339
突	-21.0339
窗	-21.0339
箕	-21.0339
簿	-21.0339
糍	-21.0339
糯	-21.0339
純	-21.0339
絲	-21.0339
維	-21.0339
縁	-21.0339
繼	-21.0339
續	-21.0339
纲	-21.0339
细	-21.0339
继	-21.0339
绳	-21.0339
缩	-21.0339
缺	-21.0339
罗	-21.0339
罢	-21.0339
羅	-21.0339
翼	-21.0339
聰	-21.0339
肥	-21.0339
脑	-21.0339
舅	-21.0339
舟	-21.0339
艳	-21.0339
芽	-21.0339
苏	-21.0339
苗	-21.0339
藥	-21.0339
蚊	-21.0339
蛛	-21.0339
蜘	-21.0339
螂	-21.0339
蟑	-21.0339
装	-21.0339
裕	-21.0339
角	-21.0339
詣	-21.0339
諾	-21.0339
謀	-21.0339
识	-21.0339
豉	-21.0339
賴	-21.0339
质	-21.0339
趟	-21.0339
軌	-21.0339
軟	-21.0339
软	-21.0339
込	-21.0339
遣	-21.0339
適	-21.0339
邓	-21.0339
鄉	-21.0339
酥	-21.0339
醇	-21.0339
針	-21.0339
錯	-21.0339
鍋	-21.0339
鑊	-21.0339
鑑	-21.0339
鑫	-21.0339
铃	-21.0339
锋	-21.0339
锺	-21.0339
镜	-21.0339
阅	-21.0339
阴	-21.0339
陌	-21.0339
階	-21.0339
难	-21.0339
雀	-21.0339
霆	-21.0339
霧	-21.0339
靜	-21.0339
靠	-21.0339
韓	-21.0339
顔	-21.0339
餃	-21.0339
馮	-21.0339
鳳	-21.0339
鶴	-21.0339
麒	-21.0339
것	-21.0339
귀	-21.0339
금	-21.0339
난	-21.0339
날	-21.0339
너	-21.0339
넷	-21.0339
눈	-21.0339
된	-21.0339
둘	-21.0339
떡	-21.0339
랜	-21.0339
량	-21.0339
렐	-21.0339
루	-21.0339
름	-21.0339
림	-21.0339
명	-21.0339
목	-21.0339
뭩	-21.0339
병	-21.0339
볼	-21.0339
블	-21.0339
새	-21.0339
설	-21.0339
술	-21.0339
습	-21.0339
싱	-21.0339
액	-21.0339
약	-21.0339
엠	-21.0339
올	-21.0339
옷	-21.0339
워	-21.0339
육	-21.0339
잔	-21.0339
잼	-21.0339
직	-21.0339
쩍	-21.0339
쩔	-21.0339
채	-21.0339
츠	-21.0339
친	-21.0339
켓	-21.0339
콘	-21.0339
크	-21.0339
탄	-21.0339
탕	-21.0339
톡	-21.0339
패	-21.0339
풀	-21.0339
혁	-21.0339
	-21.0339
	-21.0339
	-21.0339
	-21.0339
	-21.0339
	-21.0339
	-21.0339
	-21.0339
	-21.0339
	-21.0339
	-21.0339
	-21.0339
	-21.0339
	-21.0339
	-21.0339
	-21.0339
	-21.0339
	-21.0339
	-21.0339
	-21.0339
	-21.0339
	-21.0339
	-21.0339
	-21.0339
	-21.0339
	-21.0339
	-21.0339
	-21.0339
	-21.0339
	-21.0339
	-21.0339
	-21.0339
	-21.0339
	-21.0339
	-21.0339
	-21.0339
	-21.0339
	-21.0339
	-21.0339
	-21.0339
	-21.0339
	-21.0339
	-21.0339
	-21.0339
	-21.0339
	-21.0339
	-21.0339
	-21.0339
	-21.0339
	-21.0339
	-21.0339
	-21.0339
	-21.0339
𗁅	-21.0339
🆓	-21.0339
🆚	-21.0339
🇾	-21.0339
🌑	-21.0339
🍮	-21.0339
🍱	-21.0339
🍿	-21.0339
🎋	-21.0339
🎎	-21.0339
🎴	-21.0339
🎿	-21.0339
🏁	-21.0339
🐉	-21.0339
🐌	-21.0339
🐭	-21.0339
🐴	-21.0339
🐹	-21.0339
🐿	-21.0339
💒	-21.0339
📘	-21.0339
📜	-21.0339
📿	-21.0339
🔍	-21.0339
🔙	-21.0339
🕉	-21.0339
🕑	-21.0339
🕒	-21.0339
🕙	-21.0339
🕶	-21.0339
🗂	-21.0339
🗝	-21.0339
🙍	-21.0339
🚄	-21.0339
🛠	-21.0339
🛡	-21.0339
🤒	-21.0339
🤲	-21.0339
🤹	-21.0339
🥄	-21.0339
🥓	-21.0339
🦆	-21.0339
🦊	-21.0339
🦒	-21.0339
🦔	-21.0339
🦕	-21.0339
🦖	-21.0339
🦗	-21.0339
🦞	-21.0339
🦠	-21.0339
🧒	-21.0339
􀄨	-21.0339
􀍟	-21.0339
Ċ	-21.0339
ͬ	-21.0339
∵	-21.0339
⏭	-21.0339
◪	-21.0339
♾	-21.0339
✙	-21.0339
✶	-21.0339
娱	-21.0339
往	-21.0339
揙	-21.0339
揝	-21.0339
摘	-21.0339
淎	-21.0339
盛	-21.0339
빼	-21.0339
살	-21.0339
	-21.0339
🏮	-21.0339
💢	-21.0339
🔜	-21.0339
🚦	-21.0339
􂭮	-21.0339
Ő	-21.0339
ৎ	-21.0339
ੁ	-21.0339
ነ	-21.0339
ጭ	-21.0339
ἱ	-21.0339
ῴ	-21.0339
┰	-21.0339
╯	-21.0339
⧽	-21.0339
づ	-21.0339
ぼ	-21.0339
咱	-21.0339
唐	-21.0339
壓	-21.0339
庁	-21.0339
彰	-21.0339
徴	-21.0339
拼	-21.0339
搖	-21.0339
昭	-21.0339
暮	-21.0339
歳	-21.0339
汇	-21.0339
液	-21.0339
畏	-21.0339
蔣	-21.0339
蘋	-21.0339
褲	-21.0339
觀	-21.0339
豊	-21.0339
險	-21.0339
雇	-21.0339
격	-21.0339
권	-21.0339
누	-21.0339
들	-21.0339
때	-21.0339
린	-21.0339
매	-21.0339
복	-21.0339
빵	-21.0339
샤	-21.0339
었	-21.0339
월	-21.0339
족	-21.0339
쩌	-21.0339
케	-21.0339
	-21.0339
	-21.0339
🔽	-21.0339
🚹	-21.0339
🛋	-21.0339
􀀫	-21.0339
Ą	-21.0339
֣	-21.0339
ਥ	-21.0339
ੋ	-21.0339
ੰ	-21.0339
ත	-21.0339
ད	-21.0339
დ	-21.0339
ნ	-21.0339
በ	-21.0339
ṟ	-21.0339
☙	-21.0339
冠	-21.0339
卋	-21.0339
図	-21.0339
圆	-21.0339
幹	-21.0339
弦	-21.0339
汝	-21.0339
沢	-21.0339
煮	-21.0339
祉	-21.0339
競	-21.0339
蕃	-21.0339
虛	-21.0339
蛇	-21.0339
讀	-21.0339
輝	-21.0339
輸	-21.0339
遙	-21.0339
雑	-21.0339
麦	-21.0339
龜	-21.0339
군	-21.0339
담	-21.0339
슬	-21.0339
작	-21.0339
􀍞	-21.0339
顽	-21.0339
降	-21.0339
ຕ	-21.0339
ບ	-21.0339
ປ	-21.0339
ຫ	-21.0339
ົ	-21.0339
လ	-21.0339
且	-21.0339
严	-21.0339
历	-21.0339
尊	-21.0339
尝	-21.0339
摆	-21.0339
疾	-21.0339
県	-21.0339
蜂	-21.0339
観	-21.0339
讨	-21.0339
踏	-21.0339
销	-21.0339
🥩	-21.0339
װ	-21.0339
雖	-21.0339
এ	-21.034
້	-21.034
停	-21.034
党	-21.034
喷	-21.034
將	-21.034
專	-21.034
屆	-21.034
异	-21.034
悩	-21.034
惨	-21.034
措	-21.034
携	-21.034
歡	-21.034
況	-21.034
済	-21.034
盤	-21.034
竟	-21.034
箱	-21.034
贴	-21.034
陶	-21.034
🚓	-21.034
追	-21.034
妖	-21.034
̙	-21.034
͓	-21.034
乙	-21.034
壁	-21.034
弟	-21.034
纸	-21.034
鬆	-21.034
珊	-21.0341
🏙	-21.0341
🥕	-21.0341
📁	-21.0355
📄	-21.0355
📇	-21.0356
📟	-21.0356
📨	-21.0356
📫	-21.0356
📮	-21.0356
伸	-22.0337
凉	-22.0337
斋	-22.0337
毯	-22.0337
熙	-22.0337
综	-22.0337
轮	-22.0337
逼	-22.0337
払	-22.0338
迂	-22.0338
ͅ	-22.0338
吐	-22.0338
挙	-22.0338
旨	-22.0338
柏	-22.0338
殻	-22.0338
泵	-22.0338
窜	-22.0338
赁	-22.0338
	-22.0338
ฎ	-22.0338
ထ	-22.0338
պ	-22.0339
ಪ	-22.0339
ᴋ	-22.0339
丐	-22.0339
両	-22.0339
剖	-22.0339
勢	-22.0339
叴	-22.0339
嗯	-22.0339
围	-22.0339
央	-22.0339
奪	-22.0339
娜	-22.0339
寄	-22.0339
廢	-22.0339
弃	-22.0339
愁	-22.0339
態	-22.0339
拡	-22.0339
括	-22.0339
拶	-22.0339
捜	-22.0339
搜	-22.0339
撞	-22.0339
敢	-22.0339
斜	-22.0339
汰	-22.0339
泣	-22.0339
淘	-22.0339
混	-22.0339
瀵	-22.0339
焦	-22.0339
熄	-22.0339
熷	-22.0339
璇	-22.0339
瓒	-22.0339
痰	-22.0339
眽	-22.0339
眾	-22.0339
瞞	-22.0339
祕	-22.0339
範	-22.0339
絞	-22.0339
緊	-22.0339
緢	-22.0339
纵	-22.0339
訣	-22.0339
诅	-22.0339
貼	-22.0339
賢	-22.0339
负	-22.0339
躾	-22.0339
鎰	-22.0339
需	-22.0339
	-22.0339
	-22.0339
	-22.0339
	-22.0339
ɕ	-22.0339
ϊ	-22.0339
Ќ	-22.0339
џ	-22.0339
Ӎ	-22.0339
դ	-22.0339
ீ	-22.0339
ூ	-22.0339
ோ	-22.0339
ನ	-22.0339
ಬ	-22.0339
ಮ	-22.0339
ಳ	-22.0339
ೂ	-22.0339
ೆ	-22.0339
හ	-22.0339
ဂ	-22.0339
္	-22.0339
Ꭺ	-22.0339
Ꮂ	-22.0339
Ꮎ	-22.0339
Ꮣ	-22.0339
Ꮩ	-22.0339
ぱ	-22.0339
伎	-22.0339
俠	-22.0339
傷	-22.0339
勉	-22.0339
叫	-22.0339
嗨	-22.0339
坚	-22.0339
奀	-22.0339
屏	-22.0339
嶺	-22.0339
愈	-22.0339
敖	-22.0339
楢	-22.0339
歉	-22.0339
洒	-22.0339
玥	-22.0339
痫	-22.0339
癫	-22.0339
癮	-22.0339
縖	-22.0339
腫	-22.0339
衷	-22.0339
訂	-22.0339
謂	-22.0339
贺	-22.0339
贼	-22.0339
載	-22.0339
辺	-22.0339
迎	-22.0339
遮	-22.0339
鋼	-22.0339
録	-22.0339
閑	-22.0339
霍	-22.0339
静	-22.0339
預	-22.0339
駝	-22.0339
齢	-22.0339
곤	-22.0339
봄	-22.0339
플	-22.0339
환	-22.0339
	-22.0339
ʄ	-22.0339
ʧ	-22.0339
ѣ	-22.0339
ொ	-22.0339
ക	-22.0339
ണ	-22.0339
პ	-22.0339
ᠪ	-22.0339
Ἑ	-22.0339
ἥ	-22.0339
☦	-22.0339
⛲	-22.0339
⫽	-22.0339
丘	-22.0339
仰	-22.0339
傘	-22.0339
冴	-22.0339
刃	-22.0339
刊	-22.0339
勿	-22.0339
卸	-22.0339
卿	-22.0339
坪	-22.0339
姻	-22.0339
姿	-22.0339
孟	-22.0339
宁	-22.0339
宋	-22.0339
宛	-22.0339
崗	-22.0339
恨	-22.0339
截	-22.0339
扰	-22.0339
掃	-22.0339
擎	-22.0339
楨	-22.0339
洁	-22.0339
渥	-22.0339
澤	-22.0339
濤	-22.0339
燮	-22.0339
琪	-22.0339
矢	-22.0339
禧	-22.0339
禿	-22.0339
篠	-22.0339
篪	-22.0339
粕	-22.0339
络	-22.0339
腸	-22.0339
腺	-22.0339
莖	-22.0339
蘭	-22.0339
診	-22.0339
豈	-22.0339
跋	-22.0339
蹩	-22.0339
軽	-22.0339
邁	-22.0339
郝	-22.0339
釗	-22.0339
霖	-22.0339
靚	-22.0339
饒	-22.0339
馳	-22.0339
궁	-22.0339
녕	-22.0339
늑	-22.0339
밟	-22.0339
앨	-22.0339
칼	-22.0339
풍	-22.0339
	-22.0339
	-22.0339
	-22.0339
	-22.0339
Ƒ	-22.0339
ƿ	-22.0339
ȋ	-22.0339
ȏ	-22.0339
Ț	-22.0339
ȼ	-22.0339
ɀ	-22.0339
ɝ	-22.0339
ʜ	-22.0339
ͧ	-22.0339
Ϻ	-22.0339
ٟ	-22.0339
ᆪ	-22.0339
Ả	-22.0339
Ẵ	-22.0339
ᾠ	-22.0339
⊥	-22.0339
⎼	-22.0339
⏏	-22.0339
◢	-22.0339
♈	-22.0339
㿄	-22.0339
匿	-22.0339
哓	-22.0339
噩	-22.0339
坐	-22.0339
宵	-22.0339
彈	-22.0339
旺	-22.0339
晩	-22.0339
灼	-22.0339
炸	-22.0339
绊	-22.0339
邵	-22.0339
醉	-22.0339
颍	-22.0339
饺	-22.0339
驛	-22.0339
꿀	-22.0339
짠	-22.0339
춥	-22.0339
	-22.0339
	-22.0339
	-22.0339
Ė	-22.0339
Ĥ	-22.0339
Ĩ	-22.0339
Ņ	-22.0339
Ň	-22.0339
Ŏ	-22.0339
Ŗ	-22.0339
Ŵ	-22.0339
Ə	-22.0339
ƕ	-22.0339
Ɨ	-22.0339
ƞ	-22.0339
ƪ	-22.0339
Ƶ	-22.0339
ǀ	-22.0339
ǟ	-22.0339
ǣ	-22.0339
Ǥ	-22.0339
ǥ	-22.0339
Ǹ	-22.0339
Ǻ	-22.0339
ȃ	-22.0339
Ȇ	-22.0339
ȗ	-22.0339
Ȩ	-22.0339
Ȼ	-22.0339
Ɍ	-22.0339
ɘ	-22.0339
ɥ	-22.0339
ɫ	-22.0339
ɰ	-22.0339
ɱ	-22.0339
ʂ	-22.0339
ʋ	-22.0339
ʍ	-22.0339
ʕ	-22.0339
ʘ	-22.0339
ʙ	-22.0339
ʤ	-22.0339
˂	-22.0339
ˊ	-22.0339
˨	-22.0339
ˮ	-22.0339
̍	-22.0339
̒	-22.0339
̭	-22.0339
̴	-22.0339
̸	-22.0339
̹	-22.0339
̽	-22.0339
̾	-22.0339
͎	-22.0339
͏	-22.0339
͒	-22.0339
͘	-22.0339
͠	-22.0339
ͦ	-22.0339
ͩ	-22.0339
ͳ	-22.0339
΁	-22.0339
Ά	-22.0339
Ή	-22.0339
ΐ	-22.0339
ΰ	-22.0339
ϛ	-22.0339
Ϝ	-22.0339
ϩ	-22.0339
ϭ	-22.0339
Ϯ	-22.0339
Ͻ	-22.0339
Љ	-22.0339
Ы	-22.0339
ѐ	-22.0339
Ѧ	-22.0339
ѧ	-22.0339
Ѫ	-22.0339
Ѭ	-22.0339
Ѳ	-22.0339
Ѹ	-22.0339
Ѻ	-22.0339
҉	-22.0339
җ	-22.0339
Ү	-22.0339
ҳ	-22.0339
Ӕ	-22.0339
ӕ	-22.0339
Ӡ	-22.0339
Ө	-22.0339
ԑ	-22.0339
Ԓ	-22.0339
Ԝ	-22.0339
Ա	-22.0339
Գ	-22.0339
Մ	-22.0339
Ն	-22.0339
Ս	-22.0339
զ	-22.0339
թ	-22.0339
յ	-22.0339
վ	-22.0339
ֆ	-22.0339
։	-22.0339
֙	-22.0339
֝	-22.0339
֞	-22.0339
֪	-22.0339
֫	-22.0339
֬	-22.0339
ֱ	-22.0339
־	-22.0339
ֿ	-22.0339
ؙ	-22.0339
؟	-22.0339
ـ	-22.0339
٘	-22.0339
ٙ	-22.0339
ٚ	-22.0339
٢	-22.0339
ٱ	-22.0339
ژ	-22.0339
ۡ	-22.0339
ܗ	-22.0339
ܝ	-22.0339
ނ	-22.0339
ދ	-22.0339
ި	-22.0339
ޯ	-22.0339
ߜ	-22.0339
ࡀ	-22.0339
ः	-22.0339
ओ	-22.0339
झ	-22.0339
ञ	-22.0339
ळ	-22.0339
ॅ	-22.0339
१	-22.0339
३	-22.0339
ঁ	-22.0339
ঝ	-22.0339
ঞ	-22.0339
৫	-22.0339
৬	-22.0339
৭	-22.0339
৮	-22.0339
৯	-22.0339
ਕ	-22.0339
ਚ	-22.0339
ਣ	-22.0339
ਦ	-22.0339
ਧ	-22.0339
જ	-22.0339
ઞ	-22.0339
ત	-22.0339
ન	-22.0339
ભ	-22.0339
મ	-22.0339
ય	-22.0339
વ	-22.0339
િ	-22.0339
ૂ	-22.0339
ૈ	-22.0339
૪	-22.0339
ଡ	-22.0339
ପ	-22.0339
଼	-22.0339
ି	-22.0339
அ	-22.0339
ஞ	-22.0339
ட	-22.0339
ಅ	-22.0339
ಟ	-22.0339
ം	-22.0339
ആ	-22.0339
ഉ	-22.0339
ച	-22.0339
ദ	-22.0339
മ	-22.0339
യ	-22.0339
റ	-22.0339
ඊ	-22.0339
ද	-22.0339
ම	-22.0339
ර	-22.0339
ල	-22.0339
ව	-22.0339
ු	-22.0339
ේ	-22.0339
฀	-22.0339
ฆ	-22.0339
ฒ	-22.0339
ฝ	-22.0339
ฮ	-22.0339
๒	-22.0339
๔	-22.0339
๕	-22.0339
ຄ	-22.0339
ຢ	-22.0339
ິ	-22.0339
ີ	-22.0339
ຶ	-22.0339
༄	-22.0339
༗	-22.0339
ཀ	-22.0339
མ	-22.0339
ས	-22.0339
ཨ	-22.0339
ོ	-22.0339
ྐ	-22.0339
ခ	-22.0339
စ	-22.0339
ည	-22.0339
ဖ	-22.0339
ယ	-22.0339
ဟ	-22.0339
ီ	-22.0339
း	-22.0339
ျ	-22.0339
ს	-22.0339
ყ	-22.0339
ც	-22.0339
ᄆ	-22.0339
ᄉ	-22.0339
ᅡ	-22.0339
ᅲ	-22.0339
ሄ	-22.0339
ሕ	-22.0339
ሲ	-22.0339
ሳ	-22.0339
ቢ	-22.0339
ባ	-22.0339
ኔ	-22.0339
ኝ	-22.0339
አ	-22.0339
ኡ	-22.0339
እ	-22.0339
ኩ	-22.0339
ኪ	-22.0339
ኰ	-22.0339
ኸ	-22.0339
ወ	-22.0339
ዕ	-22.0339
ዚ	-22.0339
ጡ	-22.0339
ጣ	-22.0339
ጤ	-22.0339
ጥ	-22.0339
ጴ	-22.0339
ጸ	-22.0339
ጽ	-22.0339
ፋ	-22.0339
Ꭲ	-22.0339
ᐈ	-22.0339
ᕋ	-22.0339
ᘮ	-22.0339
ᚦ	-22.0339
ដ	-22.0339
ម	-22.0339
ី	-22.0339
ួ	-22.0339
្	-22.0339
៛	-22.0339
០	-22.0339
១	-22.0339
២	-22.0339
៣	-22.0339
៤	-22.0339
៥	-22.0339
៦	-22.0339
៧	-22.0339
៨	-22.0339
៩	-22.0339
៯	-22.0339
᠌	-22.0339
ᠡ	-22.0339
ᠨ	-22.0339
ᠭ	-22.0339
ᠯ	-22.0339
ᠳ	-22.0339
ᴀ	-22.0339
ᴅ	-22.0339
ᴘ	-22.0339
ᵺ	-22.0339
ᶙ	-22.0339
ḡ	-22.0339
Ḱ	-22.0339
ḳ	-22.0339
ṓ	-22.0339
Ṗ	-22.0339
ṙ	-22.0339
ṯ	-22.0339
ṻ	-22.0339
Ệ	-22.0339
Ố	-22.0339
Ồ	-22.0339
Ữ	-22.0339
Ἐ	-22.0339
ἡ	-22.0339
Ἵ	-22.0339
ὃ	-22.0339
Ὀ	-22.0339
ὔ	-22.0339
ὰ	-22.0339
ὺ	-22.0339
Ῥ	-22.0339
ῳ	-22.0339
⁡	-22.0339
⁯	-22.0339
₴	-22.0339
₾	-22.0339
₿	-22.0339
⃦	-22.0339
℗	-22.0339
℮	-22.0339
↢	-22.0339
↨	-22.0339
↱	-22.0339
↹	-22.0339
⇋	-22.0339
⇌	-22.0339
⇜	-22.0339
⇶	-22.0339
⇸	-22.0339
∋	-22.0339
∐	-22.0339
∓	-22.0339
∶	-22.0339
≒	-22.0339
≝	-22.0339
≢	-22.0339
≳	-22.0339
⊑	-22.0339
⋄	-22.0339
⌂	-22.0339
⌃	-22.0339
⌈	-22.0339
⍝	-22.0339
⍳	-22.0339
⍴	-22.0339
⍺	-22.0339
⎪	-22.0339
⎽	-22.0339
⏪	-22.0339
⏬	-22.0339
⏮	-22.0339
⏹	-22.0339
⏺	-22.0339
⓷	-22.0339
┗	-22.0339
┤	-22.0339
┼	-22.0339
╠	-22.0339
╫	-22.0339
╮	-22.0339
╰	-22.0339
▧	-22.0339
▮	-22.0339
▹	-22.0339
◌	-22.0339
◞	-22.0339
◟	-22.0339
◩	-22.0339
◮	-22.0339
◽	-22.0339
☧	-22.0339
☨	-22.0339
♌	-22.0339
♎	-22.0339
♺	-22.0339
⚀	-22.0339
⚁	-22.0339
⚂	-22.0339
⚑	-22.0339
⚤	-22.0339
⚬	-22.0339
⚰	-22.0339
⚱	-22.0339
⛏	-22.0339
⛩	-22.0339
✐	-22.0339
✑	-22.0339
✕	-22.0339
✞	-22.0339
✲	-22.0339
❒	-22.0339
❞	-22.0339
❩	-22.0339
❺	-22.0339
❻	-22.0339
❽	-22.0339
➀	-22.0339
➂	-22.0339
➊	-22.0339
➎	-22.0339
➗	-22.0339
➚	-22.0339
➠	-22.0339
➰	-22.0339
➸	-22.0339
➻	-22.0339
➽	-22.0339
➾	-22.0339
⟳	-22.0339
⤜	-22.0339
⤷	-22.0339
⧖	-22.0339
⬙	-22.0339
⯈	-22.0339
⯐	-22.0339
⯑	-22.0339
Ⲏ	-22.0339
〚	-22.0339
〞	-22.0339
〮	-22.0339
ぇ	-22.0339
ぜ	-22.0339
ぢ	-22.0339
ぴ	-22.0339
ゾ	-22.0339
ヮ	-22.0339
ヶ	-22.0339
ㄥ	-22.0339
㾷	-22.0339
䃉	-22.0339
丧	-22.0339
丰	-22.0339
丹	-22.0339
丼	-22.0339
举	-22.0339
乌	-22.0339
乏	-22.0339
乔	-22.0339
乘	-22.0339
乡	-22.0339
乳	-22.0339
亜	-22.0339
亭	-22.0339
仏	-22.0339
仮	-22.0339
估	-22.0339
伺	-22.0339
佬	-22.0339
併	-22.0339
侣	-22.0339
係	-22.0339
俊	-22.0339
俳	-22.0339
俺	-22.0339
倪	-22.0339
倭	-22.0339
倾	-22.0339
偉	-22.0339
偵	-22.0339
储	-22.0339
催	-22.0339
働	-22.0339
僚	-22.0339
僧	-22.0339
僵	-22.0339
價	-22.0339
償	-22.0339
兆	-22.0339
兔	-22.0339
养	-22.0339
兼	-22.0339
兽	-22.0339
册	-22.0339
冷	-22.0339
凍	-22.0339
凤	-22.0339
処	-22.0339
凱	-22.0339
击	-22.0339
函	-22.0339
刀	-22.0339
刘	-22.0339
则	-22.0339
副	-22.0339
劍	-22.0339
勲	-22.0339
匆	-22.0339
匕	-22.0339
匠	-22.0339
卉	-22.0339
卍	-22.0339
卓	-22.0339
卖	-22.0339
卜	-22.0339
卞	-22.0339
占	-22.0339
却	-22.0339
厂	-22.0339
厄	-22.0339
厅	-22.0339
压	-22.0339
厨	-22.0339
叔	-22.0339
叡	-22.0339
叢	-22.0339
右	-22.0339
吊	-22.0339
吓	-22.0339
吕	-22.0339
吨	-22.0339
呈	-22.0339
呢	-22.0339
咯	-22.0339
哉	-22.0339
响	-22.0339
哦	-22.0339
唱	-22.0339
善	-22.0339
喋	-22.0339
営	-22.0339
嘛	-22.0339
囧	-22.0339
圧	-22.0339
圭	-22.0339
坏	-22.0339
坞	-22.0339
坡	-22.0339
坦	-22.0339
垎	-22.0339
垚	-22.0339
埋	-22.0339
埔	-22.0339
埕	-22.0339
堇	-22.0339
堰	-22.0339
塾	-22.0339
墅	-22.0339
墙	-22.0339
墨	-22.0339
壮	-22.0339
壽	-22.0339
够	-22.0339
夠	-22.0339
夾	-22.0339
奏	-22.0339
奮	-22.0339
妾	-22.0339
姉	-22.0339
姜	-22.0339
姦	-22.0339
姫	-22.0339
婦	-22.0339
婴	-22.0339
婶	-22.0339
媒	-22.0339
媽	-22.0339
嫁	-22.0339
嫩	-22.0339
宙	-22.0339
宰	-22.0339
寂	-22.0339
寬	-22.0339
寸	-22.0339
寻	-22.0339
専	-22.0339
尋	-22.0339
尖	-22.0339
尺	-22.0339
屈	-22.0339
屎	-22.0339
屠	-22.0339
屢	-22.0339
履	-22.0339
岡	-22.0339
峠	-22.0339
峴	-22.0339
峽	-22.0339
崩	-22.0339
嵐	-22.0339
嶽	-22.0339
席	-22.0339
幅	-22.0339
废	-22.0339
庭	-22.0339
庸	-22.0339
廈	-22.0339
廉	-22.0339
廊	-22.0339
廖	-22.0339
廡	-22.0339
廳	-22.0339
廸	-22.0339
弋	-22.0339
弓	-22.0339
弩	-22.0339
彦	-22.0339
彬	-22.0339
彭	-22.0339
彻	-22.0339
徃	-22.0339
徑	-22.0339
徳	-22.0339
徵	-22.0339
忏	-22.0339
忿	-22.0339
怀	-22.0339
怒	-22.0339
恩	-22.0339
恭	-22.0339
恺	-22.0339
悉	-22.0339
悟	-22.0339
悦	-22.0339
惊	-22.0339
惜	-22.0339
惣	-22.0339
愉	-22.0339
慑	-22.0339
慞	-22.0339
慨	-22.0339
慮	-22.0339
慰	-22.0339
慷	-22.0339
慿	-22.0339
憀	-22.0339
懒	-22.0339
戯	-22.0339
戲	-22.0339
戻	-22.0339
扎	-22.0339
扒	-22.0339
扫	-22.0339
抒	-22.0339
抖	-22.0339
抗	-22.0339
抢	-22.0339
抮	-22.0339
抹	-22.0339
抽	-22.0339
担	-22.0339
拆	-22.0339
拍	-22.0339
拔	-22.0339
拥	-22.0339
拾	-22.0339
挤	-22.0339
挨	-22.0339
挽	-22.0339
捉	-22.0339
捌	-22.0339
捞	-22.0339
损	-22.0339
捨	-22.0339
捷	-22.0339
掉	-22.0339
掩	-22.0339
掷	-22.0339
揃	-22.0339
揇	-22.0339
握	-22.0339
搉	-22.0339
搊	-22.0339
搏	-22.0339
搕	-22.0339
摄	-22.0339
摩	-22.0339
撃	-22.0339
擅	-22.0339
據	-22.0339
擣	-22.0339
敌	-22.0339
救	-22.0339
斑	-22.0339
昵	-22.0339
晏	-22.0339
晓	-22.0339
暁	-22.0339
暇	-22.0339
曹	-22.0339
杖	-22.0339
枪	-22.0339
柄	-22.0339
柴	-22.0339
树	-22.0339
栖	-22.0339
栗	-22.0339
核	-22.0339
桑	-22.0339
桶	-22.0339
梔	-22.0339
梨	-22.0339
梩	-22.0339
棄	-22.0339
棋	-22.0339
棠	-22.0339
棧	-22.0339
楚	-22.0339
楲	-22.0339
榜	-22.0339
樊	-22.0339
樑	-22.0339
橡	-22.0339
橲	-22.0339
檇	-22.0339
檐	-22.0339
檔	-22.0339
檖	-22.0339
檙	-22.0339
欣	-22.0339
歟	-22.0339
歧	-22.0339
殊	-22.0339
殖	-22.0339
殴	-22.0339
毋	-22.0339
毡	-22.0339
毽	-22.0339
汙	-22.0339
汚	-22.0339
汪	-22.0339
汶	-22.0339
決	-22.0339
泳	-22.0339
泻	-22.0339
浩	-22.0339
浮	-22.0339
涅	-22.0339
涵	-22.0339
淏	-22.0339
淟	-22.0339
淯	-22.0339
淳	-22.0339
添	-22.0339
渇	-22.0339
渋	-22.0339
渝	-22.0339
渢	-22.0339
湘	-22.0339
溉	-22.0339
溪	-22.0339
溺	-22.0339
滅	-22.0339
滑	-22.0339
滝	-22.0339
滬	-22.0339
滴	-22.0339
滾	-22.0339
漁	-22.0339
潭	-22.0339
濯	-22.0339
濾	-22.0339
瀧	-22.0339
瀨	-22.0339
瀹	-22.0339
灭	-22.0339
灿	-22.0339
炉	-22.0339
炊	-22.0339
炗	-22.0339
炮	-22.0339
烂	-22.0339
烏	-22.0339
烛	-22.0339
烟	-22.0339
烬	-22.0339
焰	-22.0339
煌	-22.0339
煙	-22.0339
煥	-22.0339
熊	-22.0339
熾	-22.0339
燦	-22.0339
爬	-22.0339
爭	-22.0339
牐	-22.0339
牒	-22.0339
狀	-22.0339
狐	-22.0339
狭	-22.0339
狼	-22.0339
猴	-22.0339
猿	-22.0339
獣	-22.0339
獵	-22.0339
獸	-22.0339
玊	-22.0339
玖	-22.0339
玟	-22.0339
玫	-22.0339
珂	-22.0339
琇	-22.0339
琛	-22.0339
琳	-22.0339
瑯	-22.0339
甚	-22.0339
甫	-22.0339
甯	-22.0339
疆	-22.0339
疙	-22.0339
疲	-22.0339
瘩	-22.0339
癌	-22.0339
盐	-22.0339
盗	-22.0339
監	-22.0339
盧	-22.0339
盾	-22.0339
眞	-22.0339
睹	-22.0339
瞳	-22.0339
矾	-22.0339
础	-22.0339
硫	-22.0339
碟	-22.0339
磁	-22.0339
磗	-22.0339
礦	-22.0339
祷	-22.0339
祸	-22.0339
禎	-22.0339
禱	-22.0339
秦	-22.0339
积	-22.0339
稅	-22.0339
稠	-22.0339
稱	-22.0339
穂	-22.0339
穫	-22.0339
窃	-22.0339
窟	-22.0339
笔	-22.0339
笛	-22.0339
笼	-22.0339
筒	-22.0339
筱	-22.0339
筵	-22.0339
篷	-22.0339
籬	-22.0339
籽	-22.0339
粥	-22.0339
粿	-22.0339
糞	-22.0339
糠	-22.0339
紐	-22.0339
紗	-22.0339
紙	-22.0339
累	-22.0339
絩	-22.0339
絪	-22.0339
絮	-22.0339
絵	-22.0339
綠	-22.0339
綾	-22.0339
緻	-22.0339
縮	-22.0339
繆	-22.0339
繩	-22.0339
繹	-22.0339
纯	-22.0339
纺	-22.0339
织	-22.0339
绍	-22.0339
绰	-22.0339
缝	-22.0339
罚	-22.0339
羲	-22.0339
羹	-22.0339
翟	-22.0339
翡	-22.0339
耀	-22.0339
耄	-22.0339
耆	-22.0339
耗	-22.0339
耘	-22.0339
耳	-22.0339
聪	-22.0339
聮	-22.0339
肇	-22.0339
肖	-22.0339
肚	-22.0339
肴	-22.0339
胃	-22.0339
胆	-22.0339
胖	-22.0339
脅	-22.0339
脡	-22.0339
脸	-22.0339
脿	-22.0339
腐	-22.0339
腹	-22.0339
腿	-22.0339
膠	-22.0339
膳	-22.0339
膵	-22.0339
膷	-22.0339
臓	-22.0339
臨	-22.0339
臭	-22.0339
臺	-22.0339
臻	-22.0339
舒	-22.0339
航	-22.0339
舱	-22.0339
舵	-22.0339
艱	-22.0339
艸	-22.0339
芥	-22.0339
芭	-22.0339
芸	-22.0339
苹	-22.0339
苺	-22.0339
茂	-22.0339
荔	-22.0339
莊	-22.0339
莓	-22.0339
莱	-22.0339
莲	-22.0339
获	-22.0339
菌	-22.0339
菓	-22.0339
菸	-22.0339
萄	-22.0339
萝	-22.0339
董	-22.0339
葵	-22.0339
蒙	-22.0339
蓋	-22.0339
蓮	-22.0339
蔓	-22.0339
蔔	-22.0339
蔬	-22.0339
蔵	-22.0339
蕉	-22.0339
蕸	-22.0339
薇	-22.0339
薦	-22.0339
蘿	-22.0339
虐	-22.0339
虾	-22.0339
蚀	-22.0339
蚁	-22.0339
蚂	-22.0339
蚱	-22.0339
蛾	-22.0339
蜡	-22.0339
蜢	-22.0339
蜷	-22.0339
蝙	-22.0339
蝠	-22.0339
蝵	-22.0339
螺	-22.0339
蟲	-22.0339
蟹	-22.0339
衛	-22.0339
衡	-22.0339
衫	-22.0339
衬	-22.0339
袖	-22.0339
裂	-22.0339
裤	-22.0339
覺	-22.0339
覽	-22.0339
览	-22.0339
触	-22.0339
討	-22.0339
訥	-22.0339
訳	-22.0339
訴	-22.0339
詢	-22.0339
詫	-22.0339
該	-22.0339
誌	-22.0339
謠	-22.0339
謹	-22.0339
識	-22.0339
譜	-22.0339
讃	-22.0339
让	-22.0339
访	-22.0339
诀	-22.0339
译	-22.0339
详	-22.0339
诱	-22.0339
谓	-22.0339
谭	-22.0339
貓	-22.0339
貧	-22.0339
貨	-22.0339
責	-22.0339
貿	-22.0339
賈	-22.0339
贏	-22.0339
账	-22.0339
贷	-22.0339
贾	-22.0339
赚	-22.0339
赵	-22.0339
趴	-22.0339
跃	-22.0339
跑	-22.0339
距	-22.0339
跡	-22.0339
践	-22.0339
踐	-22.0339
踪	-22.0339
蹴	-22.0339
躝	-22.0339
輪	-22.0339
轼	-22.0339
辑	-22.0339
辰	-22.0339
迁	-22.0339
迅	-22.0339
迈	-22.0339
迟	-22.0339
迴	-22.0339
迹	-22.0339
递	-22.0339
遁	-22.0339
遥	-22.0339
遭	-22.0339
邀	-22.0339
邏	-22.0339
邢	-22.0339
邮	-22.0339
郁	-22.0339
鄒	-22.0339
酌	-22.0339
酛	-22.0339
酱	-22.0339
酿	-22.0339
醪	-22.0339
醬	-22.0339
释	-22.0339
釣	-22.0339
鈩	-22.0339
鉴	-22.0339
銃	-22.0339
銅	-22.0339
鋒	-22.0339
鋪	-22.0339
錆	-22.0339
錫	-22.0339
鍵	-22.0339
鏖	-22.0339
鐘	-22.0339
鐡	-22.0339
鑾	-22.0339
针	-22.0339
铅	-22.0339
铸	-22.0339
锚	-22.0339
锡	-22.0339
閣	-22.0339
閮	-22.0339
闇	-22.0339
闲	-22.0339
闺	-22.0339
阁	-22.0339
阎	-22.0339
阵	-22.0339
陰	-22.0339
陵	-22.0339
険	-22.0339
隋	-22.0339
隔	-22.0339
隧	-22.0339
隿	-22.0339
雁	-22.0339
雞	-22.0339
雩	-22.0339
雯	-22.0339
雰	-22.0339
靈	-22.0339
靓	-22.0339
革	-22.0339
鞋	-22.0339
鞠	-22.0339
韭	-22.0339
頃	-22.0339
項	-22.0339
願	-22.0339
顯	-22.0339
顿	-22.0339
领	-22.0339
颐	-22.0339
颤	-22.0339
飩	-22.0339
飮	-22.0339
餛	-22.0339
饵	-22.0339
馏	-22.0339
馒	-22.0339
駐	-22.0339
駱	-22.0339
騒	-22.0339
髍	-22.0339
髮	-22.0339
鬍	-22.0339
鬚	-22.0339
鬥	-22.0339
魂	-22.0339
魄	-22.0339
魏	-22.0339
鯊	-22.0339
鳌	-22.0339
鳩	-22.0339
鴉	-22.0339
鵝	-22.0339
鵬	-22.0339
鶫	-22.0339
鸞	-22.0339
鸥	-22.0339
鸿	-22.0339
鹤	-22.0339
鹩	-22.0339
鹪	-22.0339
麟	-22.0339
麹	-22.0339
黛	-22.0339
鼎	-22.0339
鼠	-22.0339
齐	-22.0339
龟	-22.0339
Ꙩ	-22.0339
ꙩ	-22.0339
겨	-22.0339
곁	-22.0339
곰	-22.0339
곳	-22.0339
굴	-22.0339
규	-22.0339
급	-22.0339
까	-22.0339
깡	-22.0339
깻	-22.0339
껌	-22.0339
꽃	-22.0339
꿈	-22.0339
끄	-22.0339
끉	-22.0339
납	-22.0339
냐	-22.0339
널	-22.0339
넘	-22.0339
네	-22.0339
느	-22.0339
닥	-22.0339
닭	-22.0339
답	-22.0339
덤	-22.0339
덩	-22.0339
덮	-22.0339
돈	-22.0339
됨	-22.0339
득	-22.0339
락	-22.0339
럽	-22.0339
렁	-22.0339
렉	-22.0339
렛	-22.0339
련	-22.0339
례	-22.0339
론	-22.0339
롯	-22.0339
롱	-22.0339
뢰	-22.0339
른	-22.0339
릴	-22.0339
릿	-22.0339
링	-22.0339
막	-22.0339
맙	-22.0339
맥	-22.0339
멘	-22.0339
몬	-22.0339
뮬	-22.0339
받	-22.0339
밥	-22.0339
뱀	-22.0339
범	-22.0339
벨	-22.0339
변	-22.0339
본	-22.0339
봇	-22.0339
봉	-22.0339
봐	-22.0339
북	-22.0339
붕	-22.0339
브	-22.0339
빙	-22.0339
뻐	-22.0339
뼈	-22.0339
뽕	-22.0339
샘	-22.0339
샥	-22.0339
샷	-22.0339
셈	-22.0339
순	-22.0339
숲	-22.0339
슨	-22.0339
싫	-22.0339
싶	-22.0339
싸	-22.0339
쌈	-22.0339
쎈	-22.0339
씹	-22.0339
알	-22.0339
앙	-22.0339
앞	-22.0339
억	-22.0339
엄	-22.0339
엉	-22.0339
엔	-22.0339
옥	-22.0339
왕	-22.0339
욱	-22.0339
응	-22.0339
익	-22.0339
잎	-22.0339
절	-22.0339
점	-22.0339
젤	-22.0339
죄	-22.0339
준	-22.0339
줌	-22.0339
중	-22.0339
쥐	-22.0339
짇	-22.0339
짓	-22.0339
짜	-22.0339
짤	-22.0339
짬	-22.0339
짯	-22.0339
짱	-22.0339
쨀	-22.0339
쨩	-22.0339
찌	-22.0339
찜	-22.0339
찾	-22.0339
챦	-22.0339
첨	-22.0339
첩	-22.0339
첫	-22.0339
청	-22.0339
쳐	-22.0339
총	-22.0339
춤	-22.0339
켜	-22.0339
퀑	-22.0339
클	-22.0339
킷	-22.0339
탈	-22.0339
태	-22.0339
택	-22.0339
테	-22.0339
통	-22.0339
특	-22.0339
튼	-22.0339
팩	-22.0339
펀	-22.0339
페	-22.0339
폴	-22.0339
푼	-22.0339
풜	-22.0339
핀	-22.0339
필	-22.0339
향	-22.0339
험	-22.0339
혜	-22.0339
혹	-22.0339
홉	-22.0339
휴	-22.0339
흥	-22.0339
	-22.0339
	-22.0339
	-22.0339
	-22.0339
	-22.0339
	-22.0339
	-22.0339
	-22.0339
	-22.0339
	-22.0339
	-22.0339
	-22.0339
	-22.0339
	-22.0339
	-22.0339
	-22.0339
	-22.0339
	-22.0339
	-22.0339
	-22.0339
	-22.0339
	-22.0339
	-22.0339
	-22.0339
	-22.0339
	-22.0339
	-22.0339
	-22.0339
	-22.0339
	-22.0339
	-22.0339
	-22.0339
	-22.0339
	-22.0339
	-22.0339
	-22.0339
	-22.0339
	-22.0339
	-22.0339
	-22.0339
	-22.0339
	-22.0339
	-22.0339
	-22.0339
	-22.0339
	-22.0339
	-22.0339
	-22.0339
	-22.0339
	-22.0339
	-22.0339
	-22.0339
	-22.0339
	-22.0339
	-22.0339
	-22.0339
	-22.0339
	-22.0339
	-22.0339
	-22.0339
	-22.0339
	-22.0339
	-22.0339
	-22.0339
	-22.0339
	-22.0339
	-22.0339
	-22.0339
	-22.0339
	-22.0339
	-22.0339
	-22.0339
	-22.0339
	-22.0339
	-22.0339
	-22.0339
	-22.0339
	-22.0339
	-22.0339
	-22.0339
	-22.0339
	-22.0339
	-22.0339
	-22.0339
	-22.0339
	-22.0339
	-22.0339
	-22.0339
	-22.0339
	-22.0339
	-22.0339
	-22.0339
	-22.0339
	-22.0339
	-22.0339
	-22.0339
	-22.0339
	-22.0339
	-22.0339
	-22.0339
	-22.0339
	-22.0339
	-22.0339
	-22.0339
	-22.0339
	-22.0339
	-22.0339
	-22.0339
	-22.0339
	-22.0339
	-22.0339
	-22.0339
	-22.0339
	-22.0339
	-22.0339
	-22.0339
	-22.0339
	-22.0339
	-22.0339
	-22.0339
	-22.0339
	-22.0339
	-22.0339
	-22.0339
	-22.0339
	-22.0339
	-22.0339
Ɛ	-22.0339
Ɣ	-22.0339
ƙ	-22.0339
Ɵ	-22.0339
Ƭ	-22.0339
ǿ	-22.0339
͗	-22.0339
ғ	-22.0339
ҟ	-22.0339
ٕ	-22.0339
ۑ	-22.0339
ฅ	-22.0339
⇾	-22.0339
∠	-22.0339
∽	-22.0339
Ⲥ	-22.0339
侘	-22.0339
倚	-22.0339
哀	-22.0339
寅	-22.0339
扜	-22.0339
揅	-22.0339
揷	-22.0339
橤	-22.0339
淕	-22.0339
礻	-22.0339
蒋	-22.0339
蛀	-22.0339
짭	-22.0339
짼	-22.0339
폭	-22.0339
	-22.0339
	-22.0339
	-22.0339
Ŋ	-22.0339
ɬ	-22.0339
͝	-22.0339
ͣ	-22.0339
ͭ	-22.0339
Ҫ	-22.0339
Ե	-22.0339
ਅ	-22.0339
ੜ	-22.0339
ಇ	-22.0339
ᄇ	-22.0339
ሪ	-22.0339
ዓ	-22.0339
ዛ	-22.0339
ዝ	-22.0339
ḵ	-22.0339
ἑ	-22.0339
ῲ	-22.0339
⌣	-22.0339
⌨	-22.0339
┠	-22.0339
⛹	-22.0339
净	-22.0339
削	-22.0339
剥	-22.0339
匯	-22.0339
咲	-22.0339
嘴	-22.0339
増	-22.0339
壳	-22.0339
奋	-22.0339
峡	-22.0339
廿	-22.0339
忆	-22.0339
惧	-22.0339
惯	-22.0339
懷	-22.0339
斧	-22.0339
杷	-22.0339
枇	-22.0339
沃	-22.0339
漏	-22.0339
熔	-22.0339
狎	-22.0339
畑	-22.0339
痹	-22.0339
祁	-22.0339
禾	-22.0339
签	-22.0339
練	-22.0339
翠	-22.0339
耕	-22.0339
耿	-22.0339
肌	-22.0339
芨	-22.0339
蒼	-22.0339
蓉	-22.0339
蘆	-22.0339
虚	-22.0339
補	-22.0339
詹	-22.0339
诞	-22.0339
貝	-22.0339
転	-22.0339
违	-22.0339
釋	-22.0339
閔	-22.0339
闖	-22.0339
闘	-22.0339
阮	-22.0339
韻	-22.0339
飏	-22.0339
餘	-22.0339
饅	-22.0339
駒	-22.0339
驱	-22.0339
鲍	-22.0339
건	-22.0339
끝	-22.0339
등	-22.0339
뚝	-22.0339
롤	-22.0339
션	-22.0339
셜	-22.0339
솔	-22.0339
옵	-22.0339
읍	-22.0339
죠	-22.0339
편	-22.0339
퓪	-22.0339
퓻	-22.0339
퓽	-22.0339
홍	-22.0339
	-22.0339
	-22.0339
	-22.0339
ਪ	-22.0339
ஆ	-22.0339
ழ	-22.0339
ඔ	-22.0339
ฤ	-22.0339
ჟ	-22.0339
ᴍ	-22.0339
ἤ	-22.0339
♮	-22.0339
債	-22.0339
币	-22.0339
庄	-22.0339
愮	-22.0339
晨	-22.0339
榎	-22.0339
涓	-22.0339
溶	-22.0339
滨	-22.0339
灾	-22.0339
瓦	-22.0339
粵	-22.0339
紓	-22.0339
繍	-22.0339
缀	-22.0339
莒	-22.0339
莫	-22.0339
著	-22.0339
覚	-22.0339
谣	-22.0339
败	-22.0339
辦	-22.0339
酶	-22.0339
閱	-22.0339
飾	-22.0339
骸	-22.0339
鸭	-22.0339
께	-22.0339
늘	-22.0339
참	-22.0339
춘	-22.0339
	-22.0339
	-22.0339
	-22.0339
உ	-22.034
ಆ	-22.034
ອ	-22.034
ຽ	-22.034
ແ	-22.034
ဲ	-22.034
⪭	-22.034
屬	-22.034
岐	-22.034
巣	-22.034
擊	-22.034
斷	-22.034
旷	-22.034
衆	-22.034
誕	-22.034
谅	-22.034
輯	-22.034
轄	-22.034
键	-22.034
阜	-22.034
領	-22.034
鴨	-22.034
	-22.034
ৈ	-22.034
ທ	-22.034
ພ	-22.034
亲	-22.034
冶	-22.034
夯	-22.034
宾	-22.034
惰	-22.034
懶	-22.034
捕	-22.034
撒	-22.034
敗	-22.034
梯	-22.034
潛	-22.034
穿	-22.034
給	-22.034
衣	-22.034
袜	-22.034
谎	-22.034
豁	-22.034
贞	-22.034
趕	-22.034
边	-22.034
逮	-22.034
侦	-22.0341
̗	-22.0341
̪	-22.0341
妩	-22.0341
姆	-22.0341
娆	-22.0341
媚	-22.0341
寡	-22.0341
泥	-22.0341
洙	-22.0341
畢	-22.0341
盈	-22.0341
紧	-22.0341
萨	-22.0341
踢	-22.0341
辩	-22.0341
喧	-22.0342
嘩	-22.0342
瑚	-22.0342
芜	-22.0342
荒	-22.0342
❶	-22.0342
☻	-22.0343
换	-22.0343
曝	-22.0343
