<unk>	0
<s>	0
</s>	0
.	-3.05341
,	-3.34365
▁the	-3.37862
▁to	-3.74074
▁and	-3.88121
▁a	-3.96233
s	-3.98942
▁of	-3.99612
▁in	-4.39704
▁I	-4.53784
▁is	-4.64648
▁that	-4.75862
▁for	-4.76268
▁you	-4.76434
’	-4.90465
▁it	-4.96677
'	-5.01807
▁on	-5.1229
▁with	-5.12302
-	-5.12809
▁be	-5.22733
▁are	-5.28381
t	-5.31688
▁have	-5.39406
▁your	-5.41951
▁this	-5.49597
▁as	-5.50607
▁was	-5.56791
▁The	-5.57438
▁or	-5.62937
▁can	-5.67148
▁at	-5.67883
▁not	-5.70656
▁will	-5.7594
▁from	-5.78412
▁we	-5.83091
▁an	-5.8585
▁but	-5.90896
▁by	-5.95086
▁my	-5.95745
▁all	-5.99599
▁they	-6.01673
▁“	-6.02731
▁(	-6.08696
▁has	-6.11365
▁more	-6.11772
▁about	-6.12375
▁one	-6.14287
▁so	-6.17323
▁their	-6.19034
▁out	-6.22189
▁he	-6.23416
▁"	-6.23745
▁our	-6.25358
▁up	-6.25635
▁It	-6.26147
▁time	-6.30554
:	-6.30566
ing	-6.3078
▁like	-6.36438
m	-6.38591
d	-6.3884
▁me	-6.39673
▁if	-6.42236
▁his	-6.42544
▁do	-6.43718
▁just	-6.44318
▁been	-6.45649
▁what	-6.45764
▁who	-6.45868
▁there	-6.50398
▁which	-6.5084
▁would	-6.51803
▁when	-6.5363
▁get	-6.53993
ed	-6.54428
▁some	-6.54561
re	-6.55649
▁had	-6.55669
▁them	-6.55968
)	-6.57619
▁We	-6.59267
▁This	-6.60203
▁people	-6.61436
▁other	-6.65702
▁also	-6.66447
▁her	-6.66546
...	-6.67926
▁than	-6.7089
▁A	-6.71569
▁were	-6.71617
▁any	-6.76152
▁said	-6.7712
▁You	-6.77959
▁how	-6.78454
▁no	-6.79479
▁make	-6.79853
▁into	-6.81988
▁know	-6.8274
?	-6.83189
▁new	-6.83643
▁If	-6.84615
▁very	-6.85568
ve	-6.85618
▁over	-6.86604
!	-6.87205
▁In	-6.87529
▁only	-6.89829
▁don	-6.92025
▁us	-6.92341
▁work	-6.92731
▁good	-6.92931
▁she	-6.94089
▁way	-6.97166
▁need	-6.97837
▁may	-6.98319
▁see	-6.99207
▁well	-6.99547
▁much	-7.01093
ll	-7.02477
▁most	-7.02899
▁first	-7.02971
▁these	-7.0408
▁now	-7.05704
▁years	-7.06157
▁could	-7.06478
▁many	-7.06809
▁back	-7.08274
▁think	-7.09754
/	-7.11086
▁use	-7.11661
▁want	-7.13436
▁even	-7.13643
▁should	-7.14458
▁really	-7.14647
▁-	-7.14729
▁year	-7.15266
▁here	-7.15287
▁because	-7.15444
I	-7.16099
ly	-7.17458
▁He	-7.17498
”	-7.18576
▁–	-7.18792
▁help	-7.18965
▁then	-7.19518
▁take	-7.19639
▁two	-7.19773
▁day	-7.20473
▁go	-7.20973
▁But	-7.23154
▁through	-7.25059
"	-7.2541
▁great	-7.25434
▁after	-7.2561
▁And	-7.25713
▁him	-7.26054
▁its	-7.26064
▁where	-7.26929
▁being	-7.28615
▁right	-7.30142
▁those	-7.30548
y	-7.30671
▁before	-7.31524
er	-7.32336
▁going	-7.33613
▁too	-7.35862
▁find	-7.36069
▁best	-7.36314
▁such	-7.37139
▁There	-7.38663
▁life	-7.39698
▁still	-7.40972
▁am	-7.41147
;	-7.41681
▁made	-7.42023
▁information	-7.45979
▁down	-7.4616
▁They	-7.46457
▁around	-7.47041
▁last	-7.4735
▁home	-7.4769
▁off	-7.47823
▁things	-7.48238
▁own	-7.48258
e	-7.48446
▁love	-7.49857
).	-7.49859
▁look	-7.50463
▁long	-7.50653
▁few	-7.51946
a	-7.52237
▁little	-7.5261
▁something	-7.52711
▁	-7.53763
▁world	-7.5438
▁So	-7.5593
▁every	-7.56809
▁always	-7.57368
▁same	-7.5822
▁business	-7.58485
▁lot	-7.59521
▁used	-7.60007
▁while	-7.60377
▁say	-7.60387
▁sure	-7.60775
S	-7.60833
▁For	-7.60905
▁each	-7.61792
▁come	-7.62627
▁did	-7.62775
▁As	-7.63306
▁place	-7.64059
,”	-7.64081
▁better	-7.65138
▁That	-7.65723
▁never	-7.65845
in	-7.66734
▁part	-7.69136
▁different	-7.69778
▁got	-7.71478
▁might	-7.71491
th	-7.72911
▁2	-7.76971
▁must	-7.77586
▁next	-7.7933
▁She	-7.79364
▁high	-7.80824
▁thing	-7.81005
▁both	-7.81074
▁i	-7.81316
▁feel	-7.817
▁When	-7.82629
▁without	-7.83185
▁family	-7.83315
▁another	-7.83643
or	-7.84146
▁keep	-7.84247
▁give	-7.84283
▁3	-7.8451
▁again	-7.8473
▁experience	-7.85083
▁.	-7.8647
▁end	-7.88846
▁since	-7.89167
▁found	-7.89213
▁able	-7.89302
▁does	-7.89701
n	-7.89977
▁My	-7.90063
r	-7.90129
▁didn	-7.9022
▁days	-7.9044
▁free	-7.90618
▁week	-7.90623
▁To	-7.90685
▁between	-7.91445
▁three	-7.92342
▁looking	-7.92351
▁post	-7.92445
▁important	-7.92696
▁put	-7.92708
▁service	-7.94362
▁site	-7.94439
▁under	-7.94518
▁set	-7.94528
▁using	-7.9454
▁start	-7.9556
▁company	-7.95574
▁away	-7.9598
▁number	-7.96088
▁...	-7.96422
▁during	-7.96872
▁available	-7.97332
▁team	-7.99965
▁read	-8.00097
▁working	-8.00632
▁why	-8.00947
▁support	-8.01633
▁money	-8.01802
,"	-8.02742
▁making	-8.04068
▁system	-8.04226
▁today	-8.04241
▁1	-8.04524
▁course	-8.04917
al	-8.05065
▁enough	-8.05096
▁school	-8.05296
▁done	-8.06008
▁10	-8.06184
▁let	-8.06207
▁children	-8.06231
▁small	-8.06335
▁‘	-8.06793
▁getting	-8.06796
▁doesn	-8.07002
▁point	-8.07275
▁having	-8.07695
▁old	-8.07846
▁game	-8.07857
▁website	-8.08146
▁person	-8.0843
▁change	-8.08562
es	-8.08589
▁ever	-8.08723
▁show	-8.08778
▁provide	-8.08793
▁full	-8.09157
▁doing	-8.09163
▁though	-8.0922
▁book	-8.09455
▁water	-8.096
▁care	-8.09936
▁hard	-8.1072
▁No	-8.10942
▁least	-8.12163
▁big	-8.12686
i	-8.13289
▁actually	-8.13688
▁until	-8.13699
▁5	-8.1379
▁thought	-8.14436
▁already	-8.14749
▁try	-8.14816
o	-8.15052
▁case	-8.15076
▁order	-8.15199
▁re	-8.15391
▁often	-8.15542
▁bit	-8.16104
▁real	-8.16166
▁man	-8.16243
▁process	-8.16471
▁far	-8.16595
▁health	-8.1765
▁including	-8.17766
▁What	-8.17769
▁All	-8.17771
▁says	-8.18142
▁data	-8.18168
▁online	-8.18212
ers	-8.18298
▁job	-8.18595
▁4	-8.18842
▁area	-8.18983
▁services	-8.19944
▁easy	-8.205
▁less	-8.20553
▁together	-8.20582
▁within	-8.20846
▁top	-8.20866
▁food	-8.21029
▁'	-8.21274
),	-8.21646
▁possible	-8.217
▁someone	-8.22018
com	-8.2229
▁New	-8.23129
▁car	-8.23287
▁needs	-8.23895
▁local	-8.23949
▁times	-8.24615
▁anything	-8.25229
▁call	-8.25268
g	-8.25647
▁—	-8.26351
▁per	-8.26365
▁blog	-8.27587
▁&	-8.27649
▁Our	-8.27803
▁night	-8.27808
and	-8.27842
to	-8.2791
▁room	-8.28038
The	-8.28212
▁public	-8.2837
▁become	-8.28467
▁against	-8.28978
▁play	-8.29263
▁One	-8.29317
▁state	-8.29354
▁open	-8.29754
▁once	-8.29807
▁everything	-8.29814
▁students	-8.29849
▁problem	-8.29981
▁means	-8.30795
▁kind	-8.30969
▁fact	-8.30983
▁With	-8.3099
A	-8.31031
▁name	-8.31112
▁came	-8.31204
▁believe	-8.31696
▁left	-8.31698
▁live	-8.31727
▁offer	-8.32976
▁S	-8.33174
▁list	-8.33729
▁At	-8.33835
▁idea	-8.34284
▁house	-8.34345
▁others	-8.34407
▁These	-8.34522
▁please	-8.34545
▁months	-8.34795
▁past	-8.35128
▁yet	-8.35409
▁group	-8.35488
▁market	-8.35724
▁won	-8.35949
▁mind	-8.36034
▁makes	-8.36073
▁story	-8.36177
▁women	-8.36238
▁friends	-8.36564
▁hope	-8.36596
▁side	-8.36801
▁social	-8.3719
▁community	-8.37263
▁However	-8.37343
▁pretty	-8.37601
▁country	-8.37685
▁hours	-8.3814
▁probably	-8.38171
▁everyone	-8.38274
▁tell	-8.38779
▁understand	-8.38879
▁comes	-8.38896
▁went	-8.3897
▁started	-8.39188
▁fun	-8.39289
▁personal	-8.39323
on	-8.3976
C	-8.39944
▁body	-8.40023
▁second	-8.40162
▁future	-8.4019
▁ago	-8.40416
▁hand	-8.41021
▁run	-8.41125
▁quite	-8.41247
▁trying	-8.42243
▁quality	-8.4231
▁took	-8.42491
▁project	-8.42524
▁seen	-8.42815
▁pay	-8.42951
▁several	-8.4307
▁Your	-8.43409
▁un	-8.43467
▁large	-8.43571
▁plan	-8.43635
▁create	-8.43755
▁share	-8.43799
▁learn	-8.43875
▁God	-8.4404
▁page	-8.44355
▁check	-8.44495
▁whole	-8.45072
—	-8.45301
▁products	-8.45432
▁head	-8.45477
▁taking	-8.45969
▁After	-8.46004
the	-8.46154
▁program	-8.46222
▁On	-8.46482
▁government	-8.46678
▁across	-8.46826
▁along	-8.46927
▁power	-8.47093
▁level	-8.47138
▁isn	-8.47711
▁minutes	-8.48764
▁contact	-8.48888
▁U	-8.49291
able	-8.4947
▁million	-8.49769
▁told	-8.50974
▁short	-8.50998
▁called	-8.512
▁nothing	-8.51314
▁6	-8.51378
▁Now	-8.51586
k	-8.51678
▁research	-8.52287
▁B	-8.52575
▁yourself	-8.52969
]	-8.53069
We	-8.53136
▁cost	-8.53433
▁email	-8.5348
▁based	-8.53603
D	-8.53933
▁month	-8.54072
▁bad	-8.54337
▁later	-8.54344
▁[	-8.54479
▁questions	-8.54525
▁example	-8.54623
▁issues	-8.54646
▁wanted	-8.54686
▁matter	-8.54845
▁Please	-8.54969
▁design	-8.55221
▁else	-8.55546
▁web	-8.55644
▁almost	-8.55709
▁seems	-8.55831
c	-8.55838
▁event	-8.55977
▁given	-8.56132
▁face	-8.56326
▁20	-8.56608
▁video	-8.56944
▁whether	-8.57024
▁especially	-8.57336
▁four	-8.57379
▁visit	-8.57467
▁happy	-8.57784
▁E	-8.5779
▁child	-8.57845
▁Not	-8.57845
▁C	-8.57923
▁product	-8.58051
▁line	-8.58066
▁city	-8.58327
▁access	-8.5847
▁nice	-8.58673
up	-8.58755
▁Thanks	-8.58813
▁reason	-8.58927
▁above	-8.5897
▁early	-8.59249
▁content	-8.59367
▁writing	-8.59907
▁either	-8.60121
▁form	-8.60227
▁heart	-8.60503
▁companies	-8.6057
▁anyone	-8.60785
b	-8.60824
▁season	-8.61025
T	-8.61149
▁special	-8.6121
▁e	-8.61405
▁development	-8.61771
▁stay	-8.61849
▁price	-8.61852
▁coming	-8.61903
▁members	-8.62362
▁below	-8.62841
▁soon	-8.62983
▁young	-8.63095
▁etc	-8.63122
▁space	-8.63155
▁ask	-8.63502
▁asked	-8.6361
▁industry	-8.63664
://	-8.63705
▁simple	-8.63711
▁question	-8.63864
▁issue	-8.63883
▁media	-8.63886
▁non	-8.63978
▁close	-8.64004
▁Just	-8.64022
It	-8.64167
▁add	-8.64273
▁perfect	-8.6452
▁mean	-8.64772
▁Thank	-8.64843
▁rather	-8.6502
▁Here	-8.65107
▁likely	-8.65736
▁couple	-8.66011
▁simply	-8.66381
▁insurance	-8.66401
man	-8.66526
▁kids	-8.66567
▁bring	-8.66718
▁forward	-8.67122
▁article	-8.6723
▁needed	-8.67456
▁move	-8.67459
▁beautiful	-8.67585
▁due	-8.67681
▁buy	-8.68008
▁taken	-8.68013
▁men	-8.68099
▁building	-8.68167
▁7	-8.68288
▁problems	-8.68387
▁control	-8.68405
▁value	-8.68422
▁enjoy	-8.68633
▁While	-8.68668
▁D	-8.68749
▁8	-8.68796
▁Some	-8.69351
B	-8.6954
▁include	-8.69617
▁light	-8.69673
▁age	-8.69707
▁deal	-8.69985
▁low	-8.70334
▁reading	-8.7041
▁five	-8.70434
▁staff	-8.70535
▁weeks	-8.70596
▁leave	-8.70649
▁phone	-8.70712
▁single	-8.70737
▁talk	-8.70754
▁current	-8.70872
▁living	-8.70914
▁music	-8.71115
▁myself	-8.71192
p	-8.71349
▁following	-8.71925
▁law	-8.71949
▁Do	-8.72036
▁half	-8.72064
▁words	-8.72182
▁type	-8.72569
▁human	-8.72608
▁An	-8.72627
▁customers	-8.72985
▁training	-8.73312
▁amount	-8.73957
▁stop	-8.74268
▁however	-8.7453
▁true	-8.74711
▁self	-8.74751
▁known	-8.74787
▁office	-8.74891
▁clear	-8.74921
▁friend	-8.7691
▁T	-8.76976
▁hear	-8.76978
▁results	-8.77048
▁Well	-8.77261
▁looks	-8.77265
▁energy	-8.77769
▁meet	-8.77778
▁report	-8.77819
▁P	-8.7795
▁further	-8.78032
▁wasn	-8.78045
▁professional	-8.78339
2	-8.78349
▁ways	-8.78414
▁30	-8.78523
▁remember	-8.7858
▁range	-8.78739
▁view	-8.79036
ness	-8.79148
▁longer	-8.79334
▁turn	-8.79347
▁morning	-8.79539
▁usually	-8.79849
h	-8.79991
▁continue	-8.80077
▁complete	-8.80238
▁front	-8.80293
▁certain	-8.80454
▁opportunity	-8.80543
▁major	-8.80555
▁sense	-8.80642
G	-8.81289
▁account	-8.81454
it	-8.81522
F	-8.81646
▁Don	-8.81674
▁financial	-8.81711
year	-8.81776
▁result	-8.82227
▁history	-8.82484
▁technology	-8.82488
▁rest	-8.82596
▁study	-8.82635
▁seem	-8.82643
▁risk	-8.82876
▁18	-8.82883
▁cannot	-8.8303
.”	-8.83098
▁required	-8.83115
▁moment	-8.83154
▁12	-8.83311
▁interest	-8.83395
▁works	-8.83662
▁interesting	-8.83768
▁write	-8.83798
▁ready	-8.84205
l	-8.84427
▁air	-8.84475
▁behind	-8.85254
▁15	-8.85407
▁choose	-8.85872
▁American	-8.85875
▁amazing	-8.85912
▁stuff	-8.8604
▁outside	-8.86238
P	-8.86292
▁thinking	-8.86336
▁wrong	-8.86442
▁ensure	-8.86599
▁property	-8.87312
▁key	-8.87326
▁--	-8.87432
▁common	-8.87438
▁running	-8.87908
▁chance	-8.87987
en	-8.88165
▁difficult	-8.88197
▁added	-8.88608
▁games	-8.88877
▁areas	-8.89185
an	-8.89276
▁saw	-8.89379
▁step	-8.89597
▁percent	-8.89625
▁How	-8.89652
▁build	-8.89889
▁follow	-8.89998
▁management	-8.90026
▁details	-8.90107
▁specific	-8.90443
▁lives	-8.90493
▁date	-8.90553
▁answer	-8.90898
▁worth	-8.91063
▁class	-8.91139
M	-8.91268
▁heard	-8.91308
▁search	-8.91319
▁various	-8.91521
▁takes	-8.91523
▁learning	-8.9169
▁United	-8.91722
▁increase	-8.92287
▁main	-8.9241
▁p	-8.92787
▁definitely	-8.92817
▁F	-8.92838
▁strong	-8.92858
▁M	-8.92905
▁focus	-8.9322
▁themselves	-8.93387
▁news	-8.9343
▁cause	-8.93551
▁party	-8.93628
▁changes	-8.93685
▁Then	-8.93803
▁customer	-8.939
▁O	-8.93983
▁By	-8.94057
▁Yes	-8.94077
▁word	-8.94102
▁quickly	-8.9412
ic	-8.94259
▁9	-8.94368
ity	-8.94431
▁Re	-8.945
▁G	-8.9459
▁wish	-8.94626
▁US	-8.94697
x	-8.94758
▁K	-8.94897
▁series	-8.94973
▁events	-8.95471
▁skills	-8.9559
▁parents	-8.95795
▁goes	-8.95989
▁education	-8.96207
▁allow	-8.96207
▁security	-8.96218
W	-8.96343
▁lost	-8.96821
▁eyes	-8.96884
▁saying	-8.969
▁period	-8.9692
▁His	-8.96948
▁receive	-8.97008
▁individual	-8.97073
▁offers	-8.97085
▁present	-8.9724
▁woman	-8.97414
▁policy	-8.97534
▁marketing	-8.97535
▁general	-8.97573
▁Even	-8.9765
▁pre	-8.97701
­	-8.97785
▁Let	-8.97827
▁attention	-8.97846
▁options	-8.97934
▁card	-8.9799
▁consider	-8.98155
▁provided	-8.98164
▁R	-8.98458
▁wait	-8.98515
▁lead	-8.98539
K	-8.98563
▁action	-8.98699
▁happen	-8.98787
▁potential	-8.9902
▁decided	-8.99442
▁extra	-8.99749
▁felt	-8.99774
▁white	-8.9981
▁Mr	-8.99936
▁recent	-8.99941
▁maybe	-8.99952
▁books	-9.00082
▁knowledge	-9.00135
▁among	-9.00417
3	-9.00575
▁store	-9.00621
▁medical	-9.00702
▁clients	-9.0076
▁interested	-9.00921
▁instead	-9.01111
4	-9.01148
▁haven	-9.0127
▁entire	-9.01275
old	-9.01278
▁natural	-9.01335
▁private	-9.01524
▁late	-9.01634
▁ideas	-9.01637
▁subject	-9.01765
▁treatment	-9.01943
▁upon	-9.01948
▁return	-9.01958
time	-9.01982
▁according	-9.02102
f	-9.02109
▁test	-9.02296
▁unique	-9.023
▁review	-9.02345
▁choice	-9.02461
▁summer	-9.0249
▁similar	-9.02511
▁wonderful	-9.02558
▁decision	-9.02687
▁favorite	-9.02716
▁looked	-9.02899
▁address	-9.031
▁send	-9.0319
▁worked	-9.03208
▁credit	-9.03255
▁size	-9.03273
▁rate	-9.03273
▁addition	-9.03356
▁shall	-9.03484
▁watch	-9.03584
▁particular	-9.03602
▁de	-9.03625
▁near	-9.03745
co	-9.03827
▁situation	-9.0392
▁activities	-9.04094
You	-9.04098
▁safe	-9.04131
▁spend	-9.04362
▁success	-9.04431
▁completely	-9.04687
▁walk	-9.04743
▁environment	-9.04791
▁feeling	-9.04856
▁link	-9.04864
▁Of	-9.05011
▁field	-9.05031
▁easily	-9.05196
▁inside	-9.05206
▁points	-9.05227
▁recently	-9.05288
▁computer	-9.05288
▁third	-9.05399
▁involved	-9.05546
▁sometimes	-9.0557
▁art	-9.05693
▁meeting	-9.05774
▁position	-9.05845
▁knew	-9.05876
▁certainly	-9.0589
▁drive	-9.06007
▁huge	-9.06066
▁written	-9.06099
▁exactly	-9.06141
▁weight	-9.06248
▁role	-9.06267
▁sales	-9.06375
▁hands	-9.06512
▁black	-9.06651
▁tried	-9.06763
▁necessary	-9.06819
▁practice	-9.06895
▁Also	-9.0693
▁Be	-9.07026
▁higher	-9.07043
▁fine	-9.0729
▁Many	-9.07314
▁save	-9.07342
ation	-9.07449
▁couldn	-9.07538
▁Most	-9.07554
▁performance	-9.07815
▁giving	-9.07852
▁application	-9.08107
▁tax	-9.08275
▁shows	-9.0835
▁version	-9.08494
ist	-9.08577
▁final	-9.087
▁received	-9.08726
▁improve	-9.08763
▁hit	-9.08798
▁features	-9.08936
▁six	-9.08948
N	-9.09189
▁death	-9.09304
▁costs	-9.09399
▁co	-9.09477
▁playing	-9.09547
▁software	-9.09595
▁talking	-9.09643
▁door	-9.09698
▁ability	-9.09729
▁items	-9.09777
E	-9.09818
▁cut	-9.09823
as	-9.09904
▁cover	-9.09953
▁option	-9.1018
▁clean	-9.102
ment	-9.10264
▁currently	-9.1028
▁trip	-9.1045
▁throughout	-9.10542
▁oil	-9.10588
▁May	-9.10648
▁held	-9.10898
▁total	-9.11204
▁created	-9.11289
us	-9.11306
▁travel	-9.11341
▁http	-9.11383
▁excellent	-9.11436
▁sound	-9.11512
▁win	-9.11541
▁users	-9.1159
▁break	-9.11596
▁countries	-9.11911
rs	-9.11979
▁effective	-9.12376
▁legal	-9.12494
▁hold	-9.12511
▁States	-9.12556
▁impact	-9.12601
▁designed	-9.12602
▁paper	-9.12698
▁approach	-9.12731
▁terms	-9.12778
▁turned	-9.12825
▁additional	-9.12926
▁agree	-9.12933
▁road	-9.13254
▁pain	-9.13318
▁eat	-9.13416
▁provides	-9.1343
▁growth	-9.13552
▁hair	-9.13552
▁fast	-9.13738
▁wide	-9.13821
▁gave	-9.1397
▁projects	-9.14283
am	-9.14394
▁mother	-9.1452
▁wouldn	-9.14566
▁From	-9.14583
▁location	-9.14745
▁town	-9.14796
▁11	-9.14848
▁L	-9.15195
▁aren	-9.1527
▁goal	-9.15584
▁hour	-9.15753
le	-9.15824
▁itself	-9.15836
▁popular	-9.1602
▁fall	-9.16055
1	-9.16104
▁starting	-9.16301
▁benefits	-9.16398
▁hot	-9.16416
▁film	-9.16592
▁skin	-9.16725
▁member	-9.16838
▁record	-9.16906
▁career	-9.16945
▁Or	-9.17177
▁original	-9.17278
▁piece	-9.17397
▁student	-9.17614
▁cool	-9.17994
▁advice	-9.18116
▁brand	-9.18185
▁City	-9.18327
▁Google	-9.18575
▁University	-9.18646
▁systems	-9.18659
▁spent	-9.18769
▁picture	-9.19078
▁Once	-9.19186
▁cases	-9.19192
▁planning	-9.19343
▁sign	-9.19415
▁positive	-9.19494
▁relationship	-9.19501
▁York	-9.19524
▁term	-9.19764
▁click	-9.19863
▁girl	-9.19994
▁comment	-9.20125
▁table	-9.20128
▁resources	-9.20141
▁message	-9.20319
▁style	-9.2034
▁police	-9.20346
▁national	-9.20446
▁daily	-9.20541
▁finally	-9.20582
▁expect	-9.20593
▁eye	-9.20622
▁America	-9.20626
▁loved	-9.20858
▁thanks	-9.21097
▁pick	-9.21241
▁World	-9.21273
ton	-9.21286
▁loss	-9.21522
▁user	-9.21522
ism	-9.21538
▁s	-9.2154
▁variety	-9.21649
▁thank	-9.21685
▁1.	-9.21824
▁happened	-9.21874
▁St	-9.21919
▁internet	-9.21985
▁expected	-9.22014
▁guy	-9.22039
▁average	-9.22099
▁conditions	-9.22168
▁19	-9.22171
▁guys	-9.22437
ry	-9.22476
▁recommend	-9.2248
▁reach	-9.2264
▁Hi	-9.22696
R	-9.22753
▁weekend	-9.22811
▁related	-9.22843
▁alone	-9.23096
▁purchase	-9.23099
▁quick	-9.23126
no	-9.23418
▁Facebook	-9.23445
▁50	-9.23506
▁truly	-9.23709
▁note	-9.23717
L	-9.23719
▁paid	-9.23755
▁app	-9.23777
▁healthy	-9.23963
▁via	-9.2416
▁political	-9.24216
v	-9.24225
w	-9.24286
▁red	-9.24329
▁plans	-9.24392
▁easier	-9.24477
▁international	-9.24626
▁code	-9.24628
▁levels	-9.24632
▁difference	-9.24648
is	-9.24736
▁stand	-9.24792
▁built	-9.24986
▁blood	-9.24998
▁players	-9.25115
▁safety	-9.25228
▁sharing	-9.25258
V	-9.25326
▁photos	-9.2535
▁section	-9.25392
▁National	-9.25406
▁highly	-9.25571
▁guess	-9.25737
▁sort	-9.25776
▁fit	-9.26017
▁model	-9.2606
▁gone	-9.26078
(	-9.26131
▁businesses	-9.26226
▁himself	-9.26267
▁*	-9.26325
▁programs	-9.26421
▁solution	-9.26548
▁fire	-9.26683
www	-9.2673
▁providing	-9.2697
▁develop	-9.26988
▁H	-9.27011
▁board	-9.27033
▁individuals	-9.27149
."	-9.27176
▁patients	-9.27209
▁stories	-9.27216
▁latest	-9.27356
▁Since	-9.27385
▁ground	-9.27559
▁ones	-9.27599
▁require	-9.27631
▁Christmas	-9.27828
▁useful	-9.27838
▁State	-9.27879
▁baby	-9.27901
▁sleep	-9.27951
▁grow	-9.2797
▁N	-9.27977
de	-9.28065
▁successful	-9.28295
▁Dr	-9.28513
@	-9.28528
▁comments	-9.28562
▁organization	-9.28566
▁effect	-9.28866
▁physical	-9.28904
▁employees	-9.28944
▁track	-9.29073
▁avoid	-9.29094
▁regular	-9.29117
▁serious	-9.29178
▁2.	-9.29229
▁file	-9.29248
▁growing	-9.29321
▁movie	-9.29423
▁includes	-9.29467
▁sent	-9.29558
▁groups	-9.29629
▁war	-9.29639
&	-9.29662
▁First	-9.29686
▁land	-9.29728
▁100	-9.29876
▁benefit	-9.30047
▁voice	-9.30154
▁John	-9.30394
▁towards	-9.30436
▁families	-9.30478
▁Oh	-9.3053
▁gets	-9.30803
▁began	-9.31012
▁considered	-9.3102
▁places	-9.31109
▁production	-9.31119
▁significant	-9.31122
▁box	-9.31163
▁hotel	-9.31337
H	-9.3137
▁South	-9.31465
▁understanding	-9.31474
▁Day	-9.31526
▁moving	-9.31659
▁network	-9.3168
u	-9.31696
▁lower	-9.3179
▁tools	-9.31872
▁material	-9.31913
▁source	-9.31947
el	-9.32124
▁apply	-9.3215
▁beginning	-9.32353
▁Good	-9.32411
▁Because	-9.32618
▁UK	-9.32689
▁begin	-9.32727
less	-9.32878
▁fully	-9.32973
▁bar	-9.3313
5	-9.33188
▁dog	-9.33194
na	-9.33212
▁gives	-9.33219
▁opportunities	-9.33252
▁Great	-9.33264
▁image	-9.33299
ia	-9.33372
▁fresh	-9.33384
▁directly	-9.33405
▁W	-9.33506
▁TV	-9.33508
▁helpful	-9.33692
▁photo	-9.33736
▁lots	-9.33763
▁effort	-9.33905
▁global	-9.34099
▁response	-9.34171
▁economic	-9.34203
▁seeing	-9.34282
out	-9.34508
ion	-9.34566
▁nearly	-9.34831
▁evidence	-9.35009
▁allows	-9.35124
▁son	-9.3519
z	-9.35229
▁brought	-9.35467
at	-9.35621
▁types	-9.35688
based	-9.3573
▁nature	-9.35762
▁wife	-9.3577
▁modern	-9.35781
ling	-9.35852
▁More	-9.35861
▁located	-9.35873
▁previous	-9.35898
▁husband	-9.36011
▁college	-9.36078
▁reasons	-9.36321
of	-9.36415
ie	-9.36514
▁creating	-9.36597
▁feet	-9.36684
▁included	-9.36788
▁language	-9.37005
▁bed	-9.37058
▁changed	-9.37078
ar	-9.37299
▁Can	-9.37435
▁Friday	-9.37527
▁color	-9.37536
▁father	-9.37615
ty	-9.37728
▁release	-9.37817
▁North	-9.37849
▁became	-9.38107
▁character	-9.38154
▁mobile	-9.38158
one	-9.38311
▁particularly	-9.3848
▁wants	-9.38575
▁25	-9.38632
▁budget	-9.38774
▁standard	-9.38788
▁limited	-9.38842
▁goals	-9.38877
▁basis	-9.38963
▁Although	-9.39322
▁although	-9.39356
▁multiple	-9.39493
▁16	-9.39896
▁helps	-9.39914
▁extremely	-9.39921
▁13	-9.39965
▁equipment	-9.40085
▁glad	-9.40116
▁investment	-9.40262
te	-9.40367
▁speak	-9.40522
▁ahead	-9.40713
▁pictures	-9.40715
▁touch	-9.40728
▁screen	-9.40815
▁People	-9.40858
day	-9.40908
▁purpose	-9.40953
▁President	-9.41008
▁wrote	-9.41041
▁floor	-9.41199
▁charge	-9.41335
▁join	-9.41345
▁14	-9.41391
▁weather	-9.41546
▁beyond	-9.41606
▁digital	-9.41708
▁comfortable	-9.41728
▁text	-9.41981
▁challenge	-9.42007
▁sell	-9.42035
▁info	-9.4205
▁cold	-9.42061
▁whatever	-9.42289
▁parts	-9.42329
6	-9.42569
▁24	-9.42611
▁waiting	-9.42655
▁figure	-9.42677
ies	-9.43062
▁40	-9.43401
▁sites	-9.43498
▁prices	-9.43572
▁normal	-9.43595
▁played	-9.43678
line	-9.43721
▁helping	-9.43725
▁stage	-9.43754
▁disease	-9.43827
▁lack	-9.4383
▁Today	-9.43928
▁immediately	-9.43979
▁court	-9.44127
▁campaign	-9.44133
▁helped	-9.44187
▁notice	-9.44195
▁posts	-9.4423
▁requirements	-9.44333
▁De	-9.44433
7	-9.44436
age	-9.44468
▁green	-9.44545
▁learned	-9.44733
▁Make	-9.44765
▁cancer	-9.4528
▁deep	-9.45332
▁earlier	-9.45395
▁rules	-9.45455
▁perhaps	-9.45456
▁3.	-9.45476
▁Her	-9.45546
This	-9.4555
▁House	-9.45569
Y	-9.4561
▁leading	-9.45625
▁topic	-9.45665
▁V	-9.45881
▁damage	-9.45926
▁tips	-9.46075
▁17	-9.46138
▁rights	-9.46184
▁income	-9.46309
O	-9.46313
▁allowed	-9.46611
▁basic	-9.46945
▁Sunday	-9.46954
▁trust	-9.46978
▁reduce	-9.47042
▁Go	-9.47049
▁shop	-9.47072
▁met	-9.47102
▁absolutely	-9.4734
▁culture	-9.47467
▁J	-9.47521
son	-9.47571
▁activity	-9.47844
▁condition	-9.47869
ary	-9.48044
▁Maybe	-9.48208
▁English	-9.48276
▁released	-9.48282
▁pressure	-9.48349
▁June	-9.48401
▁sex	-9.48787
▁client	-9.48828
▁kitchen	-9.48843
▁kept	-9.48937
be	-9.49025
▁middle	-9.49078
▁vehicle	-9.49088
▁act	-9.49214
term	-9.4924
▁March	-9.49246
▁finding	-9.49293
▁cash	-9.49401
▁happens	-9.49413
▁solutions	-9.49456
▁request	-9.49569
▁truth	-9.49607
un	-9.49858
▁•	-9.49902
▁sounds	-9.49949
▁warm	-9.4998
▁guide	-9.50152
▁gift	-9.5018
U	-9.50212
▁rates	-9.50228
▁pass	-9.50325
▁respect	-9.50359
J	-9.50436
▁method	-9.50508
▁published	-9.50522
▁yes	-9.50624
nd	-9.50648
▁protect	-9.5065
▁round	-9.50667
me	-9.50782
▁aware	-9.50954
▁experienced	-9.51021
ian	-9.51026
▁Saturday	-9.5118
▁center	-9.51188
do	-9.5122
?”	-9.5125
▁Internet	-9.51332
▁@	-9.51371
".	-9.51553
▁claim	-9.51556
▁lose	-9.51581
▁effects	-9.51614
▁poor	-9.51676
▁statement	-9.51721
▁materials	-9.51828
ted	-9.51851
▁watching	-9.51873
▁collection	-9.51914
▁creative	-9.51936
▁driving	-9.52089
▁science	-9.52101
ting	-9.52142
▁appropriate	-9.5216
▁race	-9.52277
▁daughter	-9.52689
▁super	-9.52721
▁Co	-9.5273
▁welcome	-9.52815
▁setting	-9.52818
▁serve	-9.52837
ine	-9.52928
▁feature	-9.52981
▁friendly	-9.53064
ne	-9.53104
▁player	-9.5312
▁Have	-9.53142
▁forget	-9.53157
▁speed	-9.53275
▁plenty	-9.53413
▁tool	-9.53434
8	-9.53478
▁numbers	-9.53613
▁schools	-9.53645
▁jobs	-9.53718
▁billion	-9.53719
–	-9.53736
▁doctor	-9.53865
▁steps	-9.53871
▁anti	-9.5388
▁shot	-9.53883
▁images	-9.54157
▁device	-9.54166
▁enjoyed	-9.54247
▁powerful	-9.54392
▁essential	-9.54449
▁trade	-9.54667
▁moved	-9.54722
▁Every	-9.54831
▁offered	-9.54865
est	-9.54886
▁April	-9.54986
....	-9.54988
▁coffee	-9.5514
▁older	-9.55147
▁bank	-9.55345
▁reality	-9.55388
▁achieve	-9.55598
▁Take	-9.558
▁holiday	-9.55847
▁sit	-9.56032
▁heat	-9.56076
▁miles	-9.56094
▁journey	-9.5613
ro	-9.56319
▁fight	-9.56437
▁Each	-9.56468
▁keeping	-9.56471
▁Center	-9.56484
▁mentioned	-9.56573
▁responsible	-9.566
▁School	-9.56614
lo	-9.56645
▁21	-9.56763
▁Monday	-9.5677
▁According	-9.56855
▁brain	-9.56894
▁exercise	-9.56964
▁girls	-9.56978
▁prevent	-9.57151
▁dinner	-9.57262
▁song	-9.57339
▁seemed	-9.57377
▁doubt	-9.57407
▁appreciate	-9.57487
▁developed	-9.57622
▁awesome	-9.57645
▁fear	-9.57648
▁commercial	-9.57706
▁X	-9.57795
▁strategy	-9.57893
▁force	-9.57908
▁sale	-9.57993
▁society	-9.58025
▁July	-9.5811
▁Jesus	-9.58348
▁audience	-9.58417
▁traditional	-9.58457
▁former	-9.58508
▁drop	-9.58814
▁regarding	-9.5884
▁overall	-9.58862
▁t	-9.58923
▁Why	-9.58945
▁December	-9.58995
▁Al	-9.58999
for	-9.59133
▁opinion	-9.59204
▁spot	-9.59236
▁sweet	-9.59258
▁September	-9.59277
▁remain	-9.59363
▁January	-9.59602
▁China	-9.59656
▁bought	-9.59726
X	-9.59762
▁economy	-9.59817
▁realize	-9.59913
▁finished	-9.59938
▁unless	-9.59969
▁active	-9.60025
▁Get	-9.60041
▁San	-9.60062
▁payment	-9.60102
▁base	-9.60188
▁stress	-9.60207
▁c	-9.60274
▁Like	-9.603
▁worry	-9.60304
▁bottom	-9.60334
▁appear	-9.60338
▁shown	-9.60381
▁Department	-9.60396
▁excited	-9.60424
ley	-9.60436
▁ten	-9.60676
▁mine	-9.60773
▁dead	-9.60808
▁fan	-9.6087
▁sun	-9.60934
▁dark	-9.60967
▁complex	-9.60973
▁thoughts	-9.61098
▁October	-9.61099
▁decide	-9.6113
▁church	-9.61147
il	-9.61329
▁states	-9.6135
▁totally	-9.61433
▁correct	-9.61495
ul	-9.61544
▁West	-9.61563
▁copy	-9.61634
▁greater	-9.61665
▁spending	-9.61665
▁busy	-9.61734
▁Man	-9.61854
▁workers	-9.6186
▁generally	-9.61875
ful	-9.61997
▁author	-9.61999
ur	-9.62088
▁eating	-9.62123
In	-9.6215
▁posted	-9.62215
▁machine	-9.62355
▁straight	-9.62423
▁increased	-9.62447
▁gas	-9.62555
▁direct	-9.62566
▁putting	-9.62606
▁offering	-9.62684
pm	-9.62686
▁reported	-9.62821
▁degree	-9.62895
▁Trump	-9.62961
▁carry	-9.62964
▁wear	-9.63044
▁shared	-9.63084
▁stock	-9.63132
▁efforts	-9.63134
▁November	-9.63252
▁match	-9.63287
▁lovely	-9.63334
▁passed	-9.63372
▁wonder	-9.63418
ra	-9.63506
▁advantage	-9.63536
▁traffic	-9.63612
▁clearly	-9.63629
▁biggest	-9.63678
9	-9.63741
▁fair	-9.63767
▁discuss	-9.63951
▁THE	-9.64109
▁evening	-9.64227
▁patient	-9.64412
▁annual	-9.6449
go	-9.64557
▁progress	-9.64564
ate	-9.64757
_	-9.64764
▁Me	-9.64804
we	-9.65054
▁reports	-9.65092
▁2018	-9.65092
▁letter	-9.65115
”.	-9.65125
▁fantastic	-9.65132
mo	-9.65208
▁asking	-9.65209
▁expensive	-9.65475
▁actual	-9.65642
▁whose	-9.65667
▁minute	-9.65699
▁Health	-9.65722
▁camera	-9.65759
▁prior	-9.65773
▁manage	-9.65785
la	-9.65818
▁buying	-9.6584
▁military	-9.65975
ive	-9.65983
▁balance	-9.66207
▁produce	-9.66299
▁sorry	-9.66352
▁knows	-9.66358
▁construction	-9.66397
▁sea	-9.66442
ma	-9.66532
▁Act	-9.66652
▁path	-9.66708
ch	-9.66768
▁finish	-9.66889
▁platform	-9.66975
ant	-9.66993
by	-9.67012
but	-9.67083
▁download	-9.67124
▁led	-9.6717
▁enter	-9.67185
▁window	-9.67206
▁partner	-9.67286
▁4.	-9.67293
▁Q	-9.67591
▁Over	-9.67647
▁update	-9.6782
▁Park	-9.67835
▁cards	-9.6799
If	-9.68028
▁Europe	-9.68107
▁pages	-9.6816
▁communication	-9.68213
▁wedding	-9.68297
▁firm	-9.6835
▁b	-9.68367
▁Check	-9.68679
▁club	-9.68777
▁European	-9.68812
▁protection	-9.68838
▁www	-9.68946
▁walking	-9.68946
▁/	-9.68954
pe	-9.69113
▁delivery	-9.69132
▁fill	-9.69159
▁London	-9.69175
▁ideal	-9.69196
▁population	-9.693
▁becoming	-9.69423
▁winter	-9.69453
ized	-9.69525
He	-9.69549
▁drink	-9.69675
▁Love	-9.69685
ally	-9.69775
▁existing	-9.69788
▁federal	-9.69799
▁challenges	-9.69841
ish	-9.69913
▁sold	-9.69918
▁double	-9.69956
land	-9.69998
▁street	-9.70007
▁con	-9.70098
▁died	-9.70106
▁maintain	-9.70176
▁waste	-9.70257
▁title	-9.70299
▁seven	-9.70413
▁teaching	-9.70416
▁pool	-9.70429
▁August	-9.70444
▁supply	-9.70495
▁otherwise	-9.705
▁schedule	-9.70595
ter	-9.70657
▁pro	-9.70659
▁official	-9.70851
▁leaders	-9.71072
▁wall	-9.71085
▁covered	-9.71152
▁function	-9.71295
▁Click	-9.71328
▁Another	-9.71517
▁60	-9.71528
▁prepared	-9.71591
▁applications	-9.71822
▁shopping	-9.71832
▁leaving	-9.71898
▁interview	-9.71904
▁blue	-9.72061
▁California	-9.72069
▁multi	-9.72239
?"	-9.72281
▁president	-9.72325
▁relevant	-9.72419
▁worse	-9.72444
▁mental	-9.72583
▁thousands	-9.7264
▁meant	-9.72641
▁dream	-9.7282
▁studies	-9.72853
▁handle	-9.72886
▁miss	-9.72932
▁selection	-9.72934
▁tour	-9.7294
▁characters	-9.72941
▁region	-9.7306
▁opening	-9.73152
▁parties	-9.73153
▁fans	-9.73172
▁band	-9.73261
▁sitting	-9.73292
▁press	-9.73335
▁requires	-9.73386
▁completed	-9.73443
▁critical	-9.73556
if	-9.73808
▁plus	-9.74033
▁pieces	-9.74092
▁gain	-9.74113
▁Any	-9.74117
ated	-9.74141
▁experiences	-9.74168
▁lines	-9.74254
▁discussion	-9.74327
▁diet	-9.74368
▁organizations	-9.74494
▁teams	-9.7455
▁devices	-9.74562
▁explain	-9.74577
▁remove	-9.74693
▁slow	-9.74739
▁session	-9.74815
▁boy	-9.74819
▁conversation	-9.74911
▁attack	-9.74915
▁developing	-9.74962
org	-9.74978
▁analysis	-9.74979
▁followed	-9.74994
ad	-9.75027
▁accept	-9.75154
▁changing	-9.75167
▁County	-9.75293
▁adding	-9.75313
▁born	-9.75585
▁button	-9.75654
▁larger	-9.75806
et	-9.75855
▁demand	-9.75928
▁links	-9.75986
▁imagine	-9.75987
▁vote	-9.76035
mail	-9.76052
▁Whether	-9.76089
▁appears	-9.76166
▁mention	-9.76374
▁views	-9.76378
▁drug	-9.76466
ir	-9.76485
▁$1	-9.76497
▁Use	-9.76532
▁tend	-9.76533
▁park	-9.76593
▁technical	-9.76599
▁deliver	-9.76665
▁See	-9.76674
▁listen	-9.76783
▁La	-9.7694
▁exciting	-9.76941
▁trouble	-9.76978
▁peace	-9.76989
▁decisions	-9.77009
per	-9.77038
▁treat	-9.77152
▁estate	-9.77155
▁hospital	-9.77174
ta	-9.77269
▁caused	-9.77436
▁sub	-9.77449
▁Those	-9.77529
▁sector	-9.77546
▁associated	-9.7762
▁scene	-9.77686
▁toward	-9.77688
▁owner	-9.77726
▁sports	-9.77846
▁International	-9.77866
▁owners	-9.77899
▁communities	-9.77953
▁nation	-9.78045
▁Last	-9.78106
▁connection	-9.78144
▁majority	-9.78262
▁announced	-9.78343
▁direction	-9.78358
▁garden	-9.78429
▁managed	-9.78466
▁contract	-9.78468
▁cars	-9.78531
▁During	-9.78543
▁onto	-9.78561
▁capital	-9.78584
▁fish	-9.78735
▁Home	-9.78754
▁ourselves	-9.7883
ex	-9.78863
▁ended	-9.78898
▁compared	-9.78931
▁fee	-9.79004
▁dis	-9.79151
▁continued	-9.79165
▁therefore	-9.79445
00	-9.79675
op	-9.7971
▁heavy	-9.79841
he	-9.80014
▁calls	-9.8005
▁conference	-9.80055
▁bag	-9.80108
like	-9.80141
▁mid	-9.80192
▁standards	-9.80245
▁largest	-9.80335
There	-9.80399
▁hearing	-9.80417
ance	-9.80441
▁restaurant	-9.80461
▁articles	-9.80489
▁background	-9.80526
▁determine	-9.8075
ous	-9.80774
▁ride	-9.80915
▁served	-9.80919
▁showing	-9.80934
▁mostly	-9.81175
▁War	-9.81204
▁snow	-9.81206
▁suggest	-9.81216
▁competition	-9.81218
▁eight	-9.8126
▁beach	-9.81312
▁rooms	-9.81448
▁Canada	-9.81467
▁meaning	-9.81624
▁dry	-9.8166
▁anyway	-9.8169
▁highest	-9.81771
▁opened	-9.81776
▁factors	-9.81824
▁relationships	-9.81848
ce	-9.81859
+	-9.81863
▁task	-9.82024
▁classes	-9.82044
▁mission	-9.82234
▁methods	-9.82386
▁status	-9.82397
▁facilities	-9.82535
▁memory	-9.82546
▁mouth	-9.82614
▁#	-9.82627
▁target	-9.82664
▁feels	-9.82839
▁proper	-9.82858
▁unit	-9.82866
▁2017	-9.82958
▁selling	-9.83003
▁except	-9.83023
▁prefer	-9.83079
▁coverage	-9.8323
free	-9.83251
▁bill	-9.83262
▁videos	-9.83278
▁select	-9.83338
not	-9.83344
▁paying	-9.83572
▁anywhere	-9.83729
▁Sometimes	-9.83755
ize	-9.83854
▁wine	-9.83886
▁negative	-9.83981
▁visitors	-9.83984
off	-9.84013
▁Before	-9.84019
▁catch	-9.84064
▁Council	-9.84112
▁driver	-9.84152
▁display	-9.84154
▁movement	-9.84174
▁funds	-9.84222
▁taste	-9.84251
▁spring	-9.84344
▁foot	-9.84366
▁hate	-9.84377
▁animals	-9.84432
▁residents	-9.84522
▁rich	-9.84532
No	-9.84609
▁vision	-9.84775
▁yesterday	-9.84797
ent	-9.84865
▁Black	-9.85036
▁policies	-9.85082
▁ex	-9.85146
!!	-9.85231
▁Service	-9.85257
▁2016	-9.8535
▁Are	-9.85386
▁mom	-9.85453
▁despite	-9.85454
▁sugar	-9.85468
▁Keep	-9.85481
ization	-9.85556
way	-9.85559
▁cross	-9.85579
▁closed	-9.85634
▁Will	-9.85783
▁en	-9.85804
▁willing	-9.85823
▁teacher	-9.85847
▁entry	-9.85896
▁Very	-9.85929
▁experts	-9.85985
▁discovered	-9.86016
▁recipe	-9.86042
▁engine	-9.86056
▁ice	-9.86134
▁files	-9.86182
led	-9.86202
▁assistance	-9.86269
▁item	-9.86304
▁claims	-9.86392
*	-9.86487
▁Street	-9.866
▁foreign	-9.86627
▁established	-9.86661
▁concept	-9.8667
▁possibly	-9.86733
▁ball	-9.86771
▁Life	-9.86794
▁secure	-9.86835
▁g	-9.86853
▁minimum	-9.8688
▁tree	-9.86883
▁proud	-9.86979
▁lunch	-9.87054
▁attempt	-9.87059
▁feedback	-9.87096
▁glass	-9.87097
▁separate	-9.8713
▁Washington	-9.87168
▁guests	-9.87182
▁raise	-9.87215
▁listed	-9.87257
▁smile	-9.87279
▁properly	-9.87304
▁sexual	-9.87376
▁Lord	-9.87405
▁encourage	-9.8741
▁manner	-9.87467
▁professionals	-9.87555
▁killed	-9.87595
▁smart	-9.87734
▁brother	-9.87772
▁structure	-9.87782
▁Pro	-9.88001
men	-9.88042
▁homes	-9.8806
▁plant	-9.88069
▁debt	-9.88114
▁happening	-9.88166
▁train	-9.88251
▁rule	-9.88252
▁detail	-9.88288
▁filled	-9.8829
▁responsibility	-9.88451
▁Their	-9.88483
all	-9.88484
▁shape	-9.885
▁Mo	-9.88526
end	-9.88544
▁eventually	-9.88604
▁actions	-9.88736
▁White	-9.88941
ise	-9.88959
▁Tuesday	-9.88985
▁Thursday	-9.89043
▁d	-9.89097
so	-9.89116
▁tea	-9.89123
▁dedicated	-9.89165
--	-9.89177
▁surprised	-9.89181
▁East	-9.89211
▁knowing	-9.89245
▁climate	-9.8925
▁century	-9.89256
▁concerns	-9.89299
▁focused	-9.89346
▁breakfast	-9.89411
▁missing	-9.89429
▁folks	-9.89505
▁stopped	-9.89508
▁smaller	-9.89528
▁Court	-9.89537
▁telling	-9.89653
▁faith	-9.89662
▁strength	-9.89671
▁birthday	-9.89759
▁teachers	-9.89767
▁assist	-9.89854
▁readers	-9.89924
▁tomorrow	-9.89925
▁Car	-9.89928
▁alternative	-9.89961
▁described	-9.89973
my	-9.90134
▁primary	-9.90144
▁tough	-9.90185
▁raised	-9.90338
▁Con	-9.90357
▁album	-9.9043
▁expert	-9.90476
ha	-9.90664
▁perform	-9.90711
▁honest	-9.90716
▁funding	-9.90739
▁India	-9.90753
▁:	-9.90844
▁caught	-9.91079
▁22	-9.91098
,000	-9.91215
▁remains	-9.91223
▁leader	-9.9123
▁pop	-9.91266
▁fix	-9.91425
▁concerned	-9.91445
▁Only	-9.9145
▁reviews	-9.91468
▁placed	-9.91609
▁identify	-9.91641
▁explore	-9.91665
▁comfort	-9.91792
▁reached	-9.91938
▁David	-9.91989
▁laws	-9.92006
▁host	-9.92042
▁afternoon	-9.9212
▁values	-9.92124
▁https	-9.92138
▁becomes	-9.9214
ner	-9.92166
What	-9.92185
▁seek	-9.92187
▁print	-9.92229
rd	-9.92299
▁Two	-9.92358
▁discover	-9.92367
▁spread	-9.92368
▁rock	-9.92417
▁calling	-9.92432
▁distance	-9.92504
▁birth	-9.92525
▁lived	-9.92588
▁Twitter	-9.92678
ating	-9.92706
im	-9.92734
▁injury	-9.92742
▁valuable	-9.92802
▁dollars	-9.92828
mm	-9.92851
id	-9.92892
▁names	-9.92933
um	-9.92968
▁loan	-9.9312
▁marriage	-9.9312
▁kid	-9.93188
▁fat	-9.93212
▁committed	-9.93223
▁Australia	-9.93223
▁x	-9.93348
▁attend	-9.93362
which	-9.93401
▁High	-9.93467
▁holding	-9.9348
▁solid	-9.93494
▁rain	-9.93639
▁techniques	-9.93639
▁adults	-9.93684
▁cent	-9.93867
▁symptoms	-9.93989
▁February	-9.94014
▁storage	-9.94045
▁department	-9.94047
▁mix	-9.94094
10	-9.94135
▁wind	-9.94144
▁5.	-9.94171
▁block	-9.94201
▁sources	-9.94246
ca	-9.94287
▁independent	-9.94322
▁showed	-9.94365
▁agreement	-9.94411
▁noticed	-9.94435
▁Apple	-9.94487
▁advance	-9.94572
tic	-9.94576
▁respond	-9.94582
▁forms	-9.94598
▁IT	-9.94611
▁die	-9.94694
▁slightly	-9.94704
▁agency	-9.94821
▁initial	-9.94872
▁affect	-9.94944
▁beauty	-9.94964
▁standing	-9.95056
you	-9.95106
▁depending	-9.95109
▁Instead	-9.95218
▁testing	-9.95245
▁m	-9.95309
▁Yeah	-9.95396
▁supposed	-9.95411
▁quiet	-9.95471
▁Paul	-9.95486
▁Wednesday	-9.95498
▁station	-9.95509
▁surface	-9.95509
▁funny	-9.95519
0	-9.95539
▁rise	-9.95624
▁flat	-9.95635
▁director	-9.95655
▁star	-9.95659
▁recommended	-9.95699
▁increasing	-9.95708
▁Christ	-9.95734
▁prepare	-9.95771
▁auto	-9.95781
▁manager	-9.95849
▁documents	-9.95858
▁starts	-9.9598
▁Obama	-9.96152
▁seriously	-9.9617
▁meal	-9.96227
▁hoping	-9.96243
ke	-9.96254
▁practices	-9.96275
▁confidence	-9.96313
▁influence	-9.96317
▁considering	-9.96361
▁dating	-9.964
▁corner	-9.96491
▁Office	-9.96544
▁Business	-9.96547
That	-9.96572
▁fees	-9.96613
▁obvious	-9.96796
▁crazy	-9.96804
▁gold	-9.96907
▁British	-9.9702
▁accident	-9.97042
▁arrived	-9.97085
os	-9.97152
▁Other	-9.9721
▁bigger	-9.97454
di	-9.97521
▁Group	-9.97565
▁promote	-9.97588
▁Government	-9.97596
▁Mar	-9.97697
▁package	-9.97876
▁desire	-9.97959
▁Green	-9.97997
em	-9.98061
▁leadership	-9.98068
▁elements	-9.9809
▁missed	-9.98097
▁document	-9.98124
▁married	-9.98134
▁custom	-9.98201
▁continues	-9.98427
da	-9.9844
▁speaking	-9.98501
▁familiar	-9.98503
▁pull	-9.98547
con	-9.9859
▁corporate	-9.98603
▁generation	-9.9864
▁Time	-9.98673
▁Free	-9.98698
▁theme	-9.98704
▁earth	-9.98904
▁sister	-9.98905
▁visiting	-9.98957
va	-9.98995
▁behavior	-9.99475
▁abuse	-9.9948
▁surprise	-9.9951
▁emergency	-9.99601
▁uses	-9.9963
▁usual	-9.9969
▁Web	-9.99743
▁environmental	-9.9975
▁hurt	-9.99957
▁cheap	-10.0004
▁numerous	-10.0022
But	-10.003
▁Note	-10.0037
▁central	-10.0038
▁concern	-10.0042
▁2015	-10.0051
ut	-10.0063
▁perspective	-10.0067
▁approximately	-10.0069
▁Red	-10.0071
▁models	-10.0086
▁push	-10.0089
▁thus	-10.0091
▁menu	-10.0101
▁dogs	-10.0102
▁fuel	-10.0104
▁adult	-10.0105
▁decades	-10.011
▁bus	-10.0119
▁cleaning	-10.0126
ol	-10.014
▁dangerous	-10.0147
▁football	-10.0148
▁master	-10.0152
▁returned	-10.0152
▁seconds	-10.0157
▁freedom	-10.0157
▁personally	-10.0157
▁sad	-10.0161
▁Unfortunately	-10.0162
se	-10.0163
▁operations	-10.0166
▁somewhere	-10.0169
▁efficient	-10.0174
j	-10.0174
▁officials	-10.018
house	-10.0191
▁scale	-10.0192
▁kill	-10.0192
ac	-10.0196
▁Americans	-10.0215
▁connect	-10.0215
▁presence	-10.0218
▁radio	-10.0218
▁dress	-10.0219
▁soft	-10.0224
▁23	-10.0231
▁records	-10.0232
▁importance	-10.0237
▁transfer	-10.0238
▁ran	-10.024
▁Having	-10.0241
▁secret	-10.0245
ler	-10.0266
▁Who	-10.0269
▁election	-10.028
▁Read	-10.028
▁operating	-10.0289
30	-10.0295
▁Africa	-10.0298
▁fell	-10.0311
▁gun	-10.0322
▁apartment	-10.0329
▁maintenance	-10.034
▁famous	-10.0349
▁plants	-10.0353
▁broken	-10.0356
▁vacation	-10.0368
▁whom	-10.0368
▁choices	-10.0369
▁boys	-10.0378
▁liked	-10.0379
▁cities	-10.0382
▁faster	-10.0391
▁twice	-10.0392
▁French	-10.0392
▁capacity	-10.0392
▁wood	-10.0394
▁practical	-10.0395
▁teach	-10.0411
▁parking	-10.0413
ists	-10.0414
▁emotional	-10.0428
▁strategies	-10.0429
▁limit	-10.043
▁luck	-10.0441
side	-10.0442
▁net	-10.0444
▁websites	-10.0449
▁colors	-10.045
sh	-10.0454
▁cell	-10.0456
▁90	-10.0458
▁core	-10.047
▁commitment	-10.0478
▁presented	-10.0482
ak	-10.0482
▁picked	-10.0482
▁named	-10.0487
▁exchange	-10.0496
▁shouldn	-10.0499
▁ship	-10.0504
▁Services	-10.0508
ING	-10.0511
▁worst	-10.0516
▁employee	-10.0529
▁nor	-10.0532
▁flow	-10.054
And	-10.0545
▁Board	-10.0556
▁closer	-10.0566
▁circumstances	-10.0567
▁administration	-10.0567
▁female	-10.0572
▁herself	-10.0574
▁score	-10.0574
▁violence	-10.0577
▁stick	-10.0585
▁cream	-10.0591
▁posting	-10.0607
▁connected	-10.0611
▁pleasure	-10.0611
▁fashion	-10.0615
▁clothes	-10.062
▁count	-10.0622
▁impossible	-10.0624
▁detailed	-10.0625
▁senior	-10.0631
▁Big	-10.0634
▁Both	-10.0647
▁hundreds	-10.0647
▁consumers	-10.0651
▁survey	-10.0651
▁trial	-10.0653
▁produced	-10.0655
▁delicious	-10.0655
▁aspects	-10.0656
▁passion	-10.0658
They	-10.066
▁none	-10.0665
▁draw	-10.067
▁o	-10.0679
▁markets	-10.0698
▁combination	-10.0698
▁indeed	-10.0704
▁entirely	-10.0709
▁NOT	-10.0726
▁Law	-10.0734
▁bringing	-10.0739
▁anymore	-10.0746
▁incredible	-10.0758
▁80	-10.0762
▁Call	-10.0766
▁regularly	-10.0769
▁typically	-10.0769
▁ingredients	-10.0772
our	-10.0784
▁signed	-10.0785
▁surgery	-10.0793
▁advertising	-10.0796
▁aid	-10.0797
▁General	-10.0799
back	-10.08
li	-10.0804
▁signs	-10.0805
▁housing	-10.0806
▁afraid	-10.0808
▁animal	-10.0814
▁exist	-10.0818
▁wearing	-10.0829
▁dance	-10.0829
▁TO	-10.0835
▁cheese	-10.0838
▁Still	-10.0843
▁bike	-10.0844
▁seeking	-10.0855
▁constantly	-10.0856
▁answers	-10.0858
▁reasonable	-10.0859
▁suit	-10.0859
▁1,	-10.0864
▁centre	-10.0873
izing	-10.0883
▁drugs	-10.0885
▁crime	-10.0888
▁accounts	-10.0894
▁Bar	-10.0904
ge	-10.0907
▁battle	-10.0907
▁sat	-10.0907
▁El	-10.0907
▁processes	-10.0909
▁100%	-10.0909
▁purposes	-10.0913
▁forced	-10.0919
▁throw	-10.0921
▁songs	-10.0925
▁stated	-10.0926
▁cat	-10.0926
▁specifically	-10.0927
▁Un	-10.0929
▁greatest	-10.0941
▁meat	-10.0947
▁partners	-10.0949
▁agreed	-10.0952
▁pair	-10.0971
▁removed	-10.0974
ah	-10.0978
▁matters	-10.0982
▁roll	-10.0987
▁server	-10.0988
▁trees	-10.0991
▁plastic	-10.1003
▁contains	-10.1015
▁reference	-10.1017
ri	-10.1023
▁updated	-10.1027
over	-10.1035
▁writer	-10.1043
▁allowing	-10.1056
▁2014	-10.1064
▁foods	-10.1065
▁episode	-10.1077
▁square	-10.1078
net	-10.1079
▁feed	-10.108
▁pet	-10.1083
po	-10.1101
▁operation	-10.1108
▁brings	-10.1111
▁pleased	-10.1112
▁dealing	-10.1112
▁intended	-10.1115
den	-10.1115
▁repair	-10.112
▁failure	-10.1123
▁hasn	-10.1131
▁turns	-10.1133
▁movies	-10.1134
▁Best	-10.1136
ba	-10.1142
▁28	-10.1142
▁facility	-10.1145
▁lucky	-10.1147
▁academic	-10.1148
▁failed	-10.1155
▁leads	-10.116
▁artist	-10.1162
▁factor	-10.1168
▁Mac	-10.117
▁Z	-10.1181
▁f	-10.1185
▁seat	-10.1193
▁perfectly	-10.1194
▁interests	-10.1203
▁leaves	-10.1206
ga	-10.1207
▁6.	-10.1207
▁Look	-10.1214
ka	-10.1218
▁Church	-10.1219
▁sick	-10.1219
▁England	-10.1221
▁walked	-10.1249
▁previously	-10.1251
▁classic	-10.1251
bo	-10.1255
ring	-10.1255
▁instance	-10.1255
▁Michael	-10.126
▁vehicles	-10.1268
▁runs	-10.1269
▁obviously	-10.1274
▁educational	-10.1276
20	-10.1277
▁affordable	-10.1277
ster	-10.128
▁profile	-10.1283
▁Chinese	-10.1295
▁participate	-10.1296
▁rent	-10.1309
▁edge	-10.1311
▁Le	-10.1315
ial	-10.1323
▁Year	-10.1329
ities	-10.1336
▁cute	-10.1337
▁stores	-10.1338
▁Di	-10.1345
ee	-10.1352
▁competitive	-10.136
▁bathroom	-10.1361
▁treated	-10.1361
▁massive	-10.1367
▁Y	-10.1368
▁Which	-10.1377
▁Amazon	-10.1385
▁advanced	-10.1387
▁launch	-10.1389
▁fairly	-10.139
▁paint	-10.1397
▁measures	-10.1398
▁planned	-10.1398
▁explained	-10.1401
ard	-10.1402
ping	-10.1403
▁26	-10.1411
▁70	-10.1414
▁Social	-10.1415
▁fund	-10.1415
▁James	-10.1422
▁quarter	-10.1427
▁speech	-10.144
ning	-10.1442
▁university	-10.1458
▁Bill	-10.1458
▁notes	-10.1463
▁properties	-10.1465
▁Perhaps	-10.1471
▁milk	-10.1475
▁charges	-10.1475
▁College	-10.1476
▁context	-10.1483
▁Ha	-10.1484
▁rental	-10.1489
▁length	-10.149
▁spirit	-10.1492
▁lifestyle	-10.1495
▁temperature	-10.1505
▁criminal	-10.1507
▁Add	-10.1517
▁thread	-10.1525
▁applied	-10.1534
▁searching	-10.1534
use	-10.1534
▁counter	-10.1552
▁religious	-10.1557
▁monthly	-10.1561
▁winning	-10.1564
▁internal	-10.1565
▁selected	-10.1566
▁privacy	-10.1567
▁measure	-10.1569
▁agencies	-10.1569
▁King	-10.1571
25	-10.1584
▁medium	-10.1591
▁affected	-10.1591
▁obtain	-10.1601
▁library	-10.1603
▁breath	-10.1608
▁Mark	-10.1611
▁carried	-10.1614
▁flight	-10.1616
▁error	-10.1619
▁employment	-10.1628
▁v	-10.1635
▁boat	-10.1637
▁parent	-10.1637
▁expertise	-10.1638
▁turning	-10.1639
▁realized	-10.1642
▁artists	-10.1647
▁jump	-10.1656
▁serving	-10.1662
▁beat	-10.1671
▁apart	-10.1671
▁rare	-10.1683
▁grown	-10.1686
▁maximum	-10.17
▁Bo	-10.1702
▁effectively	-10.1706
▁losing	-10.1718
▁guest	-10.1722
king	-10.1723
▁consumer	-10.1724
▁joy	-10.173
ron	-10.173
▁wondering	-10.1734
ence	-10.1734
▁updates	-10.1746
▁kinds	-10.1746
▁coach	-10.1754
▁assume	-10.1758
▁fixed	-10.1759
▁$2	-10.176
▁Pre	-10.1761
▁Air	-10.1768
▁restaurants	-10.1773
▁situations	-10.1778
▁weren	-10.1798
▁alcohol	-10.1801
▁mass	-10.1801
Z	-10.1814
▁award	-10.1817
ni	-10.1817
▁relatively	-10.1833
▁map	-10.1847
▁crisis	-10.1851
▁afford	-10.1854
▁accepted	-10.1864
▁Earth	-10.1864
▁Find	-10.1867
▁Windows	-10.1868
▁Research	-10.1877
▁bunch	-10.1877
▁cultural	-10.188
▁slowly	-10.1893
▁courses	-10.1894
▁mark	-10.19
▁causes	-10.1903
▁equal	-10.1903
that	-10.191
▁dad	-10.1911
fi	-10.1921
▁fruit	-10.1921
▁male	-10.1925
▁provider	-10.1931
My	-10.1938
board	-10.1938
▁earn	-10.194
▁topics	-10.1946
!"	-10.1947
▁therapy	-10.1949
▁moments	-10.1951
▁participants	-10.1951
▁chicken	-10.1952
▁revenue	-10.196
▁television	-10.1961
▁27	-10.1967
▁Association	-10.1969
▁Right	-10.1976
▁occur	-10.198
ier	-10.1983
tro	-10.1983
▁listening	-10.1987
▁technologies	-10.1998
▁Club	-10.1999
▁comprehensive	-10.2002
▁chat	-10.2008
▁carefully	-10.2008
▁mail	-10.2014
work	-10.2024
▁investigation	-10.2025
▁instructions	-10.2027
▁Los	-10.2038
▁AND	-10.2042
▁agent	-10.2042
▁taught	-10.2043
▁arms	-10.2057
▁favourite	-10.2069
ten	-10.207
▁install	-10.2071
▁exact	-10.2074
▁unable	-10.2077
her	-10.2078
▁prove	-10.208
▁submit	-10.208
▁Post	-10.208
▁messages	-10.2086
▁Florida	-10.2088
▁nine	-10.2091
▁pan	-10.2096
▁expectations	-10.2097
▁2013	-10.2102
▁guarantee	-10.2109
▁tired	-10.2111
▁defense	-10.2117
▁Texas	-10.2134
▁200	-10.2136
▁Where	-10.2137
▁Christian	-10.2138
▁novel	-10.2139
▁salt	-10.2144
▁delivered	-10.2145
▁tells	-10.2151
see	-10.2155
▁watched	-10.2168
▁format	-10.2172
▁Everyone	-10.2179
▁contain	-10.218
▁awareness	-10.2188
▁cook	-10.2188
▁solve	-10.2189
▁celebrate	-10.2195
▁younger	-10.2196
▁cast	-10.2206
▁forever	-10.2207
▁Remember	-10.2207
tion	-10.2209
▁feelings	-10.2211
▁cooking	-10.2218
▁collect	-10.2218
▁Yet	-10.2219
▁>	-10.2224
well	-10.2225
▁inspired	-10.2228
▁supporting	-10.2234
▁decade	-10.2243
▁bright	-10.2244
▁tonight	-10.225
▁citizens	-10.2251
▁Art	-10.2253
ised	-10.2253
▁2012	-10.2255
▁shoes	-10.2261
▁presentation	-10.2279
▁Though	-10.2281
▁appeared	-10.2283
▁arm	-10.2285
▁recovery	-10.2286
▁appointment	-10.23
▁Star	-10.2302
▁En	-10.2306
▁stuck	-10.2312
min	-10.2312
▁honor	-10.2314
▁approved	-10.2317
▁replace	-10.2324
▁quote	-10.2325
▁bedroom	-10.2343
▁fellow	-10.2352
▁basically	-10.2353
▁soul	-10.2362
▁registration	-10.2381
au	-10.2384
▁engage	-10.2384
▁Next	-10.2388
▁determined	-10.2389
dy	-10.2404
▁teeth	-10.2409
▁units	-10.2413
▁civil	-10.2415
▁Hello	-10.2423
▁examples	-10.2425
ite	-10.2433
▁procedure	-10.2434
▁Being	-10.2441
Re	-10.2443
▁accurate	-10.2446
ig	-10.2447
▁infrastructure	-10.2452
▁providers	-10.2454
▁Public	-10.2458
▁everyday	-10.2462
▁okay	-10.247
▁cup	-10.2471
▁skill	-10.2477
▁justice	-10.2487
▁farm	-10.2488
▁pulled	-10.2494
▁resource	-10.2495
▁hang	-10.2498
▁automatically	-10.25
▁grew	-10.2503
▁drivers	-10.2503
▁gonna	-10.2505
▁frequently	-10.2507
▁vital	-10.2511
ti	-10.2513
▁improved	-10.2513
▁fighting	-10.2515
50	-10.2516
▁chocolate	-10.252
▁register	-10.2526
▁Vi	-10.2532
▁reliable	-10.2533
▁chosen	-10.2538
▁wild	-10.2541
▁enjoying	-10.2541
▁camp	-10.2555
ship	-10.2561
▁informed	-10.2563
!”	-10.2565
▁charged	-10.2571
▁mode	-10.2572
▁installed	-10.2577
▁locations	-10.2582
site	-10.2599
▁visual	-10.26
▁island	-10.2607
▁Open	-10.2621
▁Despite	-10.2624
▁recognize	-10.2627
▁PC	-10.2631
▁truck	-10.2634
▁apps	-10.2637
▁planet	-10.2639
▁Lo	-10.264
▁crowd	-10.2641
▁brief	-10.2644
▁aim	-10.2644
▁Company	-10.2646
▁shooting	-10.265
▁tiny	-10.2652
▁pattern	-10.2661
▁7.	-10.2666
▁challenging	-10.2668
▁Hey	-10.2671
▁purchased	-10.2672
▁Israel	-10.2692
▁promise	-10.2693
▁metal	-10.2707
▁tasks	-10.271
▁Na	-10.2711
ft	-10.2711
▁incredibly	-10.2731
▁motor	-10.2731
▁Congress	-10.2735
▁gotten	-10.2741
▁Education	-10.2741
▁transport	-10.2748
▁buildings	-10.2749
▁grade	-10.2753
▁Back	-10.2756
▁talked	-10.2758
▁Finally	-10.2759
red	-10.2762
▁receiving	-10.2764
▁appearance	-10.2768
▁talent	-10.2771
▁doors	-10.2779
▁youth	-10.2787
▁hell	-10.2789
ber	-10.2793
▁enable	-10.2795
80	-10.2797
▁tests	-10.2802
▁suitable	-10.2802
▁object	-10.2808
▁suffering	-10.2811
▁taxes	-10.2813
▁Committee	-10.2814
▁officer	-10.2814
▁license	-10.2821
▁sessions	-10.2821
▁admit	-10.2826
mp	-10.2827
▁species	-10.2828
der	-10.283
▁introduced	-10.2836
▁debate	-10.284
▁theory	-10.2844
▁hire	-10.2848
▁outdoor	-10.2848
▁35	-10.2849
▁careful	-10.2856
▁OK	-10.2857
▁facts	-10.2874
▁argument	-10.2875
▁spoke	-10.2881
ology	-10.2881
▁domestic	-10.2896
ative	-10.2897
▁authority	-10.2897
▁tickets	-10.2901
▁sides	-10.2932
▁suggested	-10.2936
▁Plus	-10.2937
▁scientific	-10.2955
▁improvement	-10.296
▁normally	-10.2966
▁shipping	-10.2974
▁sight	-10.2976
▁Management	-10.2978
▁Bank	-10.2978
▁meetings	-10.2978
▁45	-10.298
field	-10.2985
▁George	-10.299
▁memories	-10.2994
▁procedures	-10.2997
▁strange	-10.3002
▁harm	-10.3004
▁forces	-10.3012
▁regulations	-10.3015
▁windows	-10.3016
▁judge	-10.3017
▁load	-10.3018
▁depends	-10.3021
▁possibility	-10.3026
▁cutting	-10.3029
▁desk	-10.303
▁boost	-10.3038
▁Li	-10.3042
▁ages	-10.3044
▁combined	-10.3054
▁remaining	-10.3059
▁France	-10.3061
▁joined	-10.3064
▁description	-10.3069
▁payments	-10.3073
▁Tom	-10.3079
>	-10.3081
▁fail	-10.3085
▁Information	-10.3087
▁weird	-10.309
lin	-10.3093
▁Learn	-10.3104
▁inspiration	-10.3105
So	-10.3106
▁proposed	-10.3107
▁facing	-10.3127
▁assets	-10.3128
▁+	-10.3128
▁Up	-10.3128
mer	-10.3129
ED	-10.313
▁innovative	-10.3142
▁dumpster	-10.3147
▁drinking	-10.3157
▁describe	-10.3171
▁aside	-10.3173
▁medicine	-10.3174
▁Sorry	-10.3189
▁route	-10.3194
▁saved	-10.3196
▁necessarily	-10.3205
apos	-10.3205
▁creation	-10.3208
▁cake	-10.3211
▁reduced	-10.3211
▁hadn	-10.3212
▁Lake	-10.3213
▁panel	-10.3215
▁investors	-10.3224
▁supported	-10.3228
▁Hope	-10.3235
▁ease	-10.3235
▁lay	-10.3236
▁institutions	-10.3238
▁pack	-10.3238
▁lessons	-10.3245
▁millions	-10.3249
▁$3	-10.3256
▁battery	-10.3259
▁Out	-10.326
▁Union	-10.3262
▁protected	-10.3266
▁Try	-10.3267
▁guidance	-10.327
▁ticket	-10.3276
▁Sam	-10.3277
▁About	-10.3279
▁officers	-10.328
▁chair	-10.3281
▁suggestions	-10.3287
▁risks	-10.3294
▁forum	-10.3295
▁retail	-10.3299
▁al	-10.3304
▁candidates	-10.3308
▁confident	-10.3309
▁category	-10.3312
▁Super	-10.3313
▁EU	-10.3314
▁Japan	-10.3319
▁Work	-10.332
▁essay	-10.3341
▁500	-10.3342
▁staying	-10.3353
▁shoot	-10.3353
▁incident	-10.3354
▁significantly	-10.3355
▁injuries	-10.3358
▁Part	-10.3365
▁severe	-10.3366
▁hundred	-10.3381
▁dropped	-10.3381
ward	-10.3383
▁literally	-10.3383
▁struggle	-10.3387
▁shit	-10.3391
uk	-10.3392
▁writers	-10.3408
Oh	-10.3408
▁Commission	-10.341
▁Come	-10.3413
▁capable	-10.3418
▁conduct	-10.3419
▁checking	-10.3422
▁roof	-10.3425
▁electronic	-10.3427
down	-10.3427
▁enhance	-10.3428
▁sending	-10.343
▁Ben	-10.3436
▁threat	-10.3438
▁German	-10.344
▁identity	-10.3443
▁n	-10.3446
▁shower	-10.3449
▁stood	-10.3452
▁launched	-10.3455
▁somewhat	-10.3457
▁crew	-10.3459
▁ongoing	-10.3465
▁prison	-10.3465
▁Blue	-10.3471
▁Children	-10.3475
▁profit	-10.3476
ci	-10.348
▁adventure	-10.3481
▁processing	-10.3482
▁trend	-10.3484
▁suddenly	-10.3486
▁bodies	-10.3487
▁authorities	-10.3488
▁volume	-10.3493
▁bowl	-10.3498
▁settings	-10.3505
▁expenses	-10.3509
▁Ra	-10.3518
les	-10.3518
▁executive	-10.3519
ck	-10.3523
lu	-10.3524
▁registered	-10.3532
For	-10.3538
▁everywhere	-10.3539
▁extensive	-10.3539
▁aspect	-10.3539
%	-10.3543
▁attacks	-10.3547
▁laugh	-10.3549
▁grateful	-10.3552
▁Looking	-10.3552
port	-10.3555
▁31	-10.3556
▁African	-10.3562
▁performed	-10.3566
▁r	-10.3567
▁industrial	-10.3569
▁tech	-10.3576
▁alive	-10.3582
▁frame	-10.3584
▁keeps	-10.3588
▁Hall	-10.3589
▁entertainment	-10.3597
▁minor	-10.3605
▁programme	-10.3608
▁Police	-10.3613
ger	-10.3616
▁believed	-10.3618
▁trading	-10.362
▁furniture	-10.3628
▁Ho	-10.3628
▁permission	-10.3632
▁Security	-10.3636
▁impressive	-10.3637
▁fly	-10.364
▁cycle	-10.3647
▁harder	-10.3647
▁atmosphere	-10.3655
▁Anyway	-10.3661
related	-10.3661
▁Human	-10.3666
▁improving	-10.3669
▁sport	-10.367
▁Project	-10.3671
▁installation	-10.3671
▁assessment	-10.3672
▁south	-10.3676
▁reputation	-10.3679
▁discussed	-10.3681
▁functions	-10.3682
pa	-10.3683
▁lights	-10.3685
▁decent	-10.3685
▁browser	-10.369
▁Peter	-10.3694
▁audio	-10.3698
▁doctors	-10.3699
▁passing	-10.3703
▁noted	-10.3709
▁Contact	-10.371
▁bread	-10.3715
▁deals	-10.3715
▁switch	-10.3717
▁Wow	-10.3719
▁iPhone	-10.3724
▁fields	-10.3725
▁begins	-10.3733
▁meals	-10.3733
▁mistake	-10.3743
▁sauce	-10.3748
▁mini	-10.375
▁expand	-10.3751
▁Ar	-10.3754
▁2010	-10.3755
▁savings	-10.3757
▁empty	-10.3759
ably	-10.3767
▁ordered	-10.3772
▁Show	-10.3773
▁noise	-10.3787
▁healthcare	-10.3788
▁issued	-10.379
▁everybody	-10.3794
▁regardless	-10.3799
!)	-10.3802
",	-10.3804
▁Development	-10.3807
.....	-10.3812
▁rid	-10.3814
▁whenever	-10.3814
▁constant	-10.3816
▁immediate	-10.3819
▁la	-10.3821
▁apparently	-10.3824
▁Bay	-10.3824
▁researchers	-10.3824
▁district	-10.3825
▁saving	-10.3827
▁cloud	-10.3827
▁flowers	-10.3829
▁sets	-10.383
▁chain	-10.3833
▁Under	-10.3842
▁Women	-10.3844
▁Again	-10.3847
▁contribute	-10.3851
▁plays	-10.3856
▁operate	-10.3865
▁relief	-10.3869
▁OF	-10.3872
room	-10.3874
▁external	-10.3877
▁politics	-10.3881
▁studio	-10.3888
▁Book	-10.389
▁orders	-10.3893
▁trained	-10.3895
▁2011	-10.3898
▁chapter	-10.3898
▁membership	-10.3899
▁routine	-10.3903
▁command	-10.3904
▁brands	-10.3906
▁engineering	-10.3908
▁Central	-10.3919
▁Water	-10.3925
To	-10.3925
When	-10.3929
ey	-10.393
40	-10.3932
que	-10.3933
▁defined	-10.3934
▁gender	-10.3936
▁typical	-10.3942
ina	-10.3947
▁choosing	-10.3948
▁north	-10.3951
▁bottle	-10.3954
▁discount	-10.3956
▁foundation	-10.3957
▁arrive	-10.3959
▁Institute	-10.3964
▁invest	-10.397
▁scheduled	-10.3978
▁shut	-10.3979
▁w	-10.398
▁closely	-10.3982
▁communicate	-10.3985
▁conflict	-10.3987
vo	-10.399
▁YOU	-10.3992
▁express	-10.3993
▁Mary	-10.3993
▁proven	-10.3994
▁ring	-10.3995
▁inter	-10.3997
▁29	-10.4003
▁0	-10.4007
▁answered	-10.4011
▁revealed	-10.4013
As	-10.4014
▁labor	-10.4019
io	-10.402
▁proof	-10.4021
▁Germany	-10.4023
▁candidate	-10.4024
▁wake	-10.4026
▁anxiety	-10.4027
▁appeal	-10.4039
pro	-10.4049
▁News	-10.4051
▁Give	-10.4051
▁innovation	-10.4051
▁crucial	-10.4059
▁loving	-10.4065
▁increasingly	-10.4067
▁shift	-10.4069
book	-10.409
▁entered	-10.4091
wood	-10.4097
with	-10.4102
ap	-10.4103
ide	-10.4104
let	-10.4106
▁airport	-10.4107
▁banks	-10.4109
▁village	-10.4112
70	-10.4113
▁transition	-10.4114
▁dreams	-10.4118
▁neck	-10.4119
▁complicated	-10.4126
▁$5	-10.4127
-1	-10.4127
▁degrees	-10.4133
▁Science	-10.4134
▁kick	-10.4137
▁Long	-10.4138
▁wanting	-10.414
▁Wi	-10.414
▁humans	-10.4155
▁ends	-10.4159
▁2000	-10.416
▁hosting	-10.4163
▁database	-10.4166
▁stupid	-10.4172
▁identified	-10.4174
Well	-10.4177
▁upcoming	-10.4177
▁magic	-10.4179
▁Island	-10.4179
▁murder	-10.4183
▁attorney	-10.4184
che	-10.4185
▁gear	-10.4189
▁brown	-10.4193
▁exposure	-10.4198
▁Therefore	-10.4201
▁Ne	-10.4206
▁Ta	-10.4207
▁surrounding	-10.421
▁successfully	-10.4221
▁colour	-10.4231
▁cells	-10.4232
▁pace	-10.4234
light	-10.424
▁neighborhood	-10.424
▁illegal	-10.4243
▁golf	-10.4248
▁accessible	-10.425
▁smooth	-10.4251
▁Am	-10.4257
▁bear	-10.4268
▁reader	-10.4268
▁represent	-10.4274
▁wealth	-10.4275
!!!	-10.4276
▁Hotel	-10.428
▁engagement	-10.4289
▁Po	-10.4291
▁dining	-10.4293
▁Jack	-10.4294
▁lesson	-10.4296
▁extreme	-10.4315
▁Sea	-10.4316
▁USA	-10.4317
▁consistent	-10.4318
▁stayed	-10.4325
▁fitness	-10.4329
▁smoke	-10.4334
▁electric	-10.4346
vi	-10.4373
▁finance	-10.4374
▁mis	-10.4377
hi	-10.4378
▁worried	-10.4378
▁stone	-10.4379
▁estimated	-10.438
▁sustainable	-10.4384
▁impressed	-10.4385
▁suffer	-10.4393
▁Food	-10.4393
▁gifts	-10.4394
▁legs	-10.4395
ham	-10.4397
▁vast	-10.4403
▁Times	-10.4407
▁legislation	-10.4411
▁extended	-10.4411
▁leg	-10.4413
nt	-10.4415
▁solar	-10.4415
▁Family	-10.4422
▁Everything	-10.4425
▁victims	-10.4427
▁tight	-10.4427
ep	-10.4428
▁chose	-10.4431
▁Community	-10.4436
▁mountain	-10.4438
▁historical	-10.4439
▁Using	-10.4442
▁stars	-10.4443
▁implement	-10.4453
▁clothing	-10.4454
▁league	-10.4454
▁sky	-10.4455
▁evil	-10.446
▁Care	-10.4462
▁Party	-10.4464
▁reply	-10.4466
ho	-10.4468
▁Ko	-10.4471
▁River	-10.4472
▁favor	-10.4472
ions	-10.4479
ker	-10.4484
▁efficiency	-10.4487
ab	-10.4487
▁victim	-10.4493
▁capture	-10.4498
▁reflect	-10.4506
▁motion	-10.4511
▁council	-10.4514
▁Power	-10.4514
▁Such	-10.4519
▁walls	-10.4523
▁figures	-10.4525
▁sample	-10.4527
▁Instagram	-10.4529
▁somehow	-10.4531
▁Students	-10.4533
▁compare	-10.4534
▁Ka	-10.4535
▁reporting	-10.4544
▁diverse	-10.4546
ible	-10.455
▁Ma	-10.4551
▁Russia	-10.4552
▁visited	-10.4564
▁portion	-10.4566
▁pounds	-10.457
▁ultimately	-10.4575
▁components	-10.4583
▁lady	-10.4585
ER	-10.4587
▁agents	-10.4587
▁nearby	-10.4589
ding	-10.4594
▁mood	-10.4595
▁Data	-10.4598
▁relax	-10.4599
oo	-10.4604
▁grab	-10.4605
▁Pi	-10.4607
ator	-10.4611
▁outstanding	-10.4617
▁horse	-10.4625
ana	-10.4627
▁Team	-10.4627
▁committee	-10.4633
12	-10.4634
▁consideration	-10.4644
▁false	-10.4644
▁letting	-10.4645
▁Top	-10.4646
▁linked	-10.4648
▁manufacturing	-10.4651
▁recommendations	-10.4658
▁resolution	-10.4664
▁flexible	-10.4666
▁religion	-10.4666
▁calm	-10.4668
Q	-10.4675
▁hopefully	-10.4678
▁positions	-10.4679
ability	-10.4685
▁cookies	-10.4687
90	-10.4688
▁butter	-10.4694
▁checked	-10.4697
car	-10.4702
can	-10.4703
▁invited	-10.4704
▁worldwide	-10.4707
▁storm	-10.4707
▁covers	-10.4707
▁Russian	-10.4708
▁valid	-10.4709
▁stands	-10.4712
▁terrible	-10.4712
▁Real	-10.4715
▁Director	-10.4719
▁yeah	-10.4721
ang	-10.4721
▁0.	-10.4721
▁Ex	-10.4725
▁qualified	-10.4726
▁log	-10.4726
▁default	-10.4729
▁priority	-10.4731
▁opposite	-10.4738
▁nuclear	-10.4738
▁painting	-10.474
60	-10.4744
ped	-10.4746
▁broke	-10.4746
▁reaction	-10.4758
▁suspect	-10.476
▁generate	-10.476
▁clinical	-10.4768
▁loans	-10.4768
▁attitude	-10.4771
▁beer	-10.4772
▁campus	-10.4778
▁UN	-10.4781
▁houses	-10.4787
▁Did	-10.4787
▁streets	-10.4788
▁element	-10.4803
▁lie	-10.4805
▁gorgeous	-10.4808
▁Minister	-10.4812
▁fourth	-10.4819
don	-10.4821
▁Program	-10.4824
▁Ro	-10.4827
▁distribution	-10.4827
ium	-10.4829
▁destination	-10.483
▁pot	-10.4831
19	-10.4831
▁managing	-10.4834
▁Jo	-10.4839
art	-10.4847
rate	-10.4858
▁depression	-10.4858
▁Western	-10.4861
▁principles	-10.4864
▁illness	-10.4869
▁trail	-10.487
▁tip	-10.4875
▁falling	-10.4879
▁loves	-10.488
▁Robert	-10.488
▁IN	-10.4887
▁input	-10.4891
ons	-10.4892
▁Nothing	-10.4897
▁fault	-10.4898
▁till	-10.49
▁Steve	-10.4908
mar	-10.4911
▁chances	-10.4912
▁river	-10.4915
▁causing	-10.4915
▁random	-10.4917
▁Chicago	-10.4921
▁organic	-10.4922
▁brilliant	-10.4923
ps	-10.4923
▁Mike	-10.4931
▁recorded	-10.4943
▁attractive	-10.4948
▁Foundation	-10.495
▁contest	-10.4952
act	-10.4953
▁phase	-10.4954
▁transportation	-10.4957
▁hidden	-10.4964
▁magazine	-10.4966
▁intelligence	-10.497
▁holidays	-10.4972
▁chief	-10.4973
▁replacement	-10.4981
▁films	-10.4982
▁Mc	-10.4983
▁potentially	-10.4994
Yes	-10.5
▁im	-10.5006
▁monitor	-10.5013
▁twenty	-10.5013
▁Beach	-10.5019
▁convenient	-10.5019
▁percentage	-10.5024
▁technique	-10.5031
▁consultation	-10.5035
bit	-10.504
▁dates	-10.5046
tra	-10.5064
▁weapons	-10.5071
▁supplies	-10.5076
▁Brown	-10.5079
▁guidelines	-10.508
▁channel	-10.5082
▁implementation	-10.5083
▁duty	-10.5086
▁spiritual	-10.5086
▁organized	-10.5086
▁understood	-10.5087
▁dear	-10.509
▁approval	-10.5096
even	-10.5097
▁satisfied	-10.5098
▁comparison	-10.5107
▁Road	-10.512
▁conducted	-10.5126
▁household	-10.5131
▁broad	-10.5133
▁Without	-10.5134
▁letters	-10.5135
ging	-10.5137
▁ending	-10.5139
▁curious	-10.514
ins	-10.5141
▁regard	-10.5145
ble	-10.5148
▁permanent	-10.5148
▁carrying	-10.5152
mb	-10.5153
▁Chris	-10.5161
▁League	-10.5163
▁scheme	-10.5165
▁lawyer	-10.5166
▁drawing	-10.5167
life	-10.5172
▁neither	-10.5177
bi	-10.5182
▁originally	-10.5185
▁mess	-10.52
▁Place	-10.5204
▁patterns	-10.5204
▁sizes	-10.5212
▁designs	-10.5215
▁owned	-10.5215
▁colleagues	-10.5219
▁Sun	-10.522
▁upper	-10.522
▁Ad	-10.5231
▁mainly	-10.5235
ery	-10.5236
ue	-10.5237
▁sand	-10.5237
▁Indian	-10.5247
▁depth	-10.5247
▁Never	-10.525
▁Federal	-10.5274
▁Think	-10.5277
▁consequences	-10.5279
▁Design	-10.5289
▁retirement	-10.5289
▁greatly	-10.529
▁Mexico	-10.5291
▁killing	-10.5302
▁muscle	-10.531
▁strategic	-10.5312
▁Step	-10.5321
11	-10.5323
▁mixed	-10.5324
▁shops	-10.5325
▁vary	-10.533
▁regional	-10.5332
point	-10.5334
▁bath	-10.5335
▁32	-10.5344
ney	-10.5346
▁Would	-10.5347
ming	-10.5358
▁traveling	-10.5358
▁Dan	-10.5368
▁_	-10.5369
▁photography	-10.5371
gu	-10.5373
▁ocean	-10.5374
▁Japanese	-10.5388
▁ill	-10.5392
▁recognized	-10.5392
ong	-10.54
▁cap	-10.5402
▁landscape	-10.5404
▁managers	-10.5407
▁blogs	-10.5409
ow	-10.541
▁somebody	-10.5415
▁shots	-10.5415
▁refer	-10.5416
▁border	-10.5417
▁Australian	-10.5422
é	-10.5427
▁swimming	-10.5428
IN	-10.5431
▁grand	-10.5432
▁plot	-10.5433
▁trends	-10.5434
▁confirmed	-10.5445
▁engaged	-10.5448
▁amounts	-10.5449
▁sentence	-10.5452
ng	-10.5463
▁vegetables	-10.5465
▁achieved	-10.5466
▁establish	-10.5474
▁Happy	-10.5481
▁continuing	-10.5497
▁encouraged	-10.5498
▁SO	-10.5501
▁App	-10.5502
▁suppose	-10.5506
▁fundamental	-10.5508
▁Angeles	-10.5511
▁Journal	-10.5511
▁mistakes	-10.5516
▁edition	-10.5517
▁Su	-10.5519
▁calendar	-10.5521
▁acting	-10.5522
hour	-10.5523
▁craft	-10.5528
▁Plan	-10.5535
▁correctly	-10.5542
▁di	-10.5549
ko	-10.5549
[	-10.5551
▁pointed	-10.5552
▁breast	-10.5556
15	-10.5557
more	-10.5557
▁Sa	-10.5561
mon	-10.5563
▁Old	-10.5564
▁organisation	-10.5569
▁ads	-10.5569
▁smell	-10.5573
how	-10.5584
▁opinions	-10.5589
▁Per	-10.5597
class	-10.5597
▁inform	-10.5599
▁introduce	-10.5603
▁suggests	-10.5607
▁scientists	-10.5607
▁personality	-10.5608
▁weekly	-10.5611
▁remote	-10.5613
▁Men	-10.5618
▁fabric	-10.5619
▁referred	-10.5621
▁ear	-10.5626
▁bags	-10.5628
▁giant	-10.5629
▁winner	-10.5633
▁escape	-10.5636
▁drinks	-10.5638
▁gay	-10.5638
▁emails	-10.5652
▁Bible	-10.5661
▁pregnant	-10.5664
▁carbon	-10.5678
▁8.	-10.5684
ure	-10.5684
▁pride	-10.5688
▁naturally	-10.5688
ze	-10.5691
▁reduction	-10.5692
▁era	-10.5693
▁networks	-10.5698
q	-10.57
▁pm	-10.5706
▁differences	-10.5707
▁YouTube	-10.5709
▁outcome	-10.5712
▁domain	-10.5714
ki	-10.5716
▁District	-10.574
▁nobody	-10.5741
ice	-10.5748
▁definition	-10.5753
▁stronger	-10.5753
▁blind	-10.576
▁arts	-10.576
▁Rock	-10.5774
hand	-10.5779
▁lies	-10.5785
▁heading	-10.5789
▁sensitive	-10.5789
▁micro	-10.579
▁mortgage	-10.5791
▁workshop	-10.5794
▁protein	-10.5794
▁hole	-10.5796
▁warning	-10.5799
▁steel	-10.58
▁increases	-10.5803
▁draft	-10.5803
▁whilst	-10.5803
friendly	-10.5811
24	-10.5812
▁Three	-10.5823
▁Fire	-10.5823
▁inches	-10.5825
▁$4	-10.5828
▁Little	-10.583
▁Live	-10.5831
▁blame	-10.5832
level	-10.5837
▁2008	-10.5839
▁<	-10.5841
▁interface	-10.5844
▁survive	-10.5845
▁Middle	-10.5846
Do	-10.5854
ware	-10.5855
▁ma	-10.5862
▁machines	-10.5863
▁submitted	-10.5867
▁300	-10.587
▁industries	-10.5874
▁healing	-10.5876
istic	-10.5879
▁luxury	-10.588
ical	-10.5882
▁laid	-10.5884
▁Inc	-10.5886
▁enforcement	-10.5888
▁zero	-10.5889
IT	-10.5889
▁tested	-10.589
▁developers	-10.589
▁confirm	-10.5894
ned	-10.5894
▁Lu	-10.5895
▁blogging	-10.59
▁PM	-10.59
ual	-10.5916
▁attached	-10.5916
▁extent	-10.5918
RE	-10.592
▁thin	-10.5921
▁authors	-10.5923
▁rely	-10.5923
▁employer	-10.5937
▁replaced	-10.5941
▁explains	-10.5947
bar	-10.5949
▁bills	-10.595
▁communications	-10.5952
▁breaking	-10.5955
▁chest	-10.5962
▁thousand	-10.5963
▁Ca	-10.5965
▁returns	-10.5968
▁papers	-10.5971
▁succeed	-10.5974
▁Centre	-10.5975
▁expression	-10.5978
▁involves	-10.5979
ns	-10.5982
▁eligible	-10.5983
▁reducing	-10.5984
▁performing	-10.5985
▁recipes	-10.5991
▁holds	-10.5992
▁firms	-10.5996
SA	-10.5996
▁widely	-10.5996
▁publish	-10.6
.00	-10.6003
▁struggling	-10.6009
▁telephone	-10.6009
▁equipped	-10.6015
▁interior	-10.6019
▁deeply	-10.6021
▁proposal	-10.6031
she	-10.6033
▁flying	-10.6033
sis	-10.6034
▁ensuring	-10.6037
▁gym	-10.6037
▁dish	-10.6048
▁plate	-10.6048
▁2018.	-10.6056
kin	-10.6061
CA	-10.6066
oc	-10.6071
▁mu	-10.6071
13	-10.6071
▁k	-10.6073
▁row	-10.6075
isation	-10.6081
▁pregnancy	-10.6082
▁google	-10.6082
▁objects	-10.6086
▁Bush	-10.6089
▁Section	-10.6089
▁odd	-10.609
▁Second	-10.6093
▁county	-10.6096
▁dollar	-10.6096
She	-10.6097
▁9.	-10.6098
ray	-10.6098
▁volunteers	-10.6104
▁Market	-10.6108
▁Jim	-10.6108
▁collected	-10.6108
dis	-10.6111
head	-10.6111
▁(19	-10.6113
▁occurred	-10.6115
▁trick	-10.6116
ville	-10.6121
▁formal	-10.6122
▁Play	-10.6125
▁Online	-10.6128
▁emotions	-10.6128
form	-10.6128
▁yellow	-10.6133
▁requests	-10.6135
▁pure	-10.6142
quality	-10.6143
▁layer	-10.6149
▁electricity	-10.6151
▁limits	-10.6153
▁Smith	-10.6154
▁childhood	-10.6157
▁lift	-10.6158
▁hide	-10.6162
▁Se	-10.6162
▁passionate	-10.6166
▁stunning	-10.6168
▁headed	-10.6169
IC	-10.6169
▁belief	-10.617
▁behalf	-10.6171
▁Bi	-10.6172
▁collaboration	-10.6172
making	-10.6174
▁insight	-10.618
▁ha	-10.6182
▁bio	-10.6183
▁native	-10.6189
▁zone	-10.619
▁urban	-10.6191
▁label	-10.6205
▁strongly	-10.6212
▁persons	-10.6213
▁premium	-10.6213
Fi	-10.622
▁depend	-10.622
▁2009	-10.6225
▁yard	-10.6228
▁heads	-10.623
ot	-10.6231
▁shoulder	-10.6236
▁surely	-10.624
▁figured	-10.6244
▁Through	-10.6245
long	-10.6253
▁hardware	-10.6256
▁sleeping	-10.6269
▁lifetime	-10.627
▁filed	-10.6271
▁logo	-10.6272
▁mo	-10.6273
▁deserve	-10.6273
▁iron	-10.6277
▁diabetes	-10.6282
▁Hu	-10.6293
▁exclusive	-10.6296
▁arrival	-10.6298
▁joint	-10.6299
16	-10.63
▁booking	-10.6301
▁chemical	-10.6304
▁Asia	-10.6305
▁password	-10.6306
▁fishing	-10.6309
▁port	-10.6311
▁driven	-10.6313
fa	-10.6314
ever	-10.6314
▁rarely	-10.6316
▁garage	-10.6325
▁loud	-10.6326
▁guilty	-10.633
▁monitoring	-10.6336
▁nervous	-10.6339
▁Gu	-10.6345
▁Catholic	-10.6349
▁pen	-10.635
▁Light	-10.6352
▁tape	-10.6353
ja	-10.6355
▁signal	-10.6362
▁boxes	-10.6365
▁portfolio	-10.637
▁sufficient	-10.6371
▁residential	-10.6378
SE	-10.6383
▁studying	-10.6392
▁Dis	-10.6392
▁rice	-10.6394
▁injured	-10.6395
▁beneficial	-10.6395
▁Manager	-10.6399
▁rising	-10.6401
▁partnership	-10.6402
▁Microsoft	-10.6409
▁CD	-10.641
▁pleasant	-10.6414
▁consumption	-10.6415
▁Canadian	-10.6418
pt	-10.642
▁deposit	-10.642
▁workplace	-10.642
▁musical	-10.6424
▁attended	-10.6426
▁laptop	-10.6427
ai	-10.6429
▁absolute	-10.643
ford	-10.6433
▁Start	-10.6437
▁Policy	-10.6439
▁graduate	-10.6441
▁Paris	-10.6443
▁forth	-10.6444
za	-10.6446
▁deck	-10.6449
▁oven	-10.6456
21	-10.6465
▁recording	-10.6465
▁sheet	-10.647
▁platforms	-10.6475
▁ignore	-10.6478
▁bonus	-10.6479
▁diseases	-10.6483
▁virtual	-10.6484
▁occasion	-10.6485
▁objective	-10.6495
▁believes	-10.6498
▁Okay	-10.6499
▁Society	-10.6509
▁Should	-10.6512
▁grant	-10.6513
box	-10.6514
▁flu	-10.6516
▁Special	-10.6517
▁Master	-10.6518
▁adds	-10.6518
▁peak	-10.6519
▁juice	-10.6524
▁repeat	-10.6525
ip	-10.6535
▁plane	-10.6538
▁existence	-10.6538
▁Du	-10.6539
▁suffered	-10.654
ud	-10.6541
▁fingers	-10.6542
▁hanging	-10.6544
▁Valley	-10.6547
▁split	-10.6552
▁tall	-10.6555
▁NO	-10.6556
75	-10.6558
▁raising	-10.6561
▁resort	-10.6561
pre	-10.6565
▁replied	-10.6569
▁root	-10.6571
▁ancient	-10.6572
▁largely	-10.6572
▁claimed	-10.6579
▁CEO	-10.6593
▁computers	-10.6594
LE	-10.6595
▁treatments	-10.6599
▁stream	-10.6602
▁appreciated	-10.6607
▁Head	-10.6612
▁Review	-10.6612
▁classroom	-10.6615
ph	-10.6618
ile	-10.662
▁consent	-10.6624
=	-10.6634
▁ok	-10.6639
▁hardly	-10.6642
▁script	-10.6646
▁explanation	-10.6646
▁buyers	-10.6655
med	-10.6657
▁Set	-10.6657
▁Code	-10.6658
▁dynamic	-10.6661
45	-10.6664
▁medication	-10.6668
▁preparing	-10.667
▁dental	-10.6671
▁concerning	-10.6683
▁bird	-10.6687
▁Music	-10.6688
▁Martin	-10.669
▁Watch	-10.669
▁earned	-10.6695
▁eggs	-10.67
▁Media	-10.6707
▁acts	-10.6711
▁tone	-10.6715
$	-10.6719
▁employers	-10.672
▁birds	-10.6726
▁danger	-10.6726
▁Joe	-10.6728
▁honestly	-10.6728
▁Network	-10.6731
▁$	-10.6732
just	-10.6737
ball	-10.6744
▁Grand	-10.6749
▁phones	-10.6752
nes	-10.6762
▁happiness	-10.6768
▁Cup	-10.6769
▁talks	-10.6771
▁purchasing	-10.6778
▁Fa	-10.678
▁DO	-10.6781
▁preparation	-10.6783
▁introduction	-10.6783
gen	-10.6793
▁closing	-10.68
▁compensation	-10.6801
▁statements	-10.6804
▁lighting	-10.6808
▁Santa	-10.6812
▁volunteer	-10.6814
▁liquid	-10.6818
date	-10.6818
▁spaces	-10.683
▁System	-10.6831
▁wheel	-10.6832
law	-10.6834
22	-10.684
ino	-10.6841
right	-10.6843
▁deeper	-10.6844
▁Spanish	-10.6844
profit	-10.6846
▁satisfaction	-10.6851
▁Global	-10.6853
▁upgrade	-10.6856
AL	-10.6856
▁behaviour	-10.6858
ations	-10.6868
▁accommodation	-10.687
▁Sure	-10.6878
▁framework	-10.6878
▁ban	-10.688
▁height	-10.6883
▁blow	-10.6885
▁faces	-10.6892
▁babies	-10.6892
▁chronic	-10.6898
ny	-10.6901
▁coast	-10.6902
▁reaching	-10.6904
▁nights	-10.6908
ven	-10.6913
▁bridge	-10.6915
▁organisations	-10.6919
▁CA	-10.6929
▁lately	-10.6929
cy	-10.6938
▁accordance	-10.6939
▁venture	-10.6941
▁Always	-10.6942
▁silver	-10.6946
▁CO	-10.6949
▁drawn	-10.6954
▁maintaining	-10.6959
▁Wa	-10.696
▁Ke	-10.6962
▁merely	-10.6962
▁refund	-10.6963
▁faced	-10.6965
ising	-10.6968
▁manual	-10.697
AM	-10.6971
▁gap	-10.6975
▁reform	-10.6978
▁desired	-10.6979
▁moral	-10.698
▁nose	-10.6982
▁anniversary	-10.6984
▁categories	-10.6986
▁clock	-10.6987
ification	-10.6987
▁attract	-10.6994
▁granted	-10.6997
▁requirement	-10.6999
▁Mom	-10.7
▁Pa	-10.7001
▁soil	-10.7003
▁bars	-10.7006
▁Android	-10.7008
ver	-10.7013
▁burn	-10.7015
▁hopes	-10.7016
▁cable	-10.7021
▁Italian	-10.7021
▁Really	-10.7024
▁Dec	-10.7024
▁joining	-10.7025
▁Ask	-10.7027
▁pray	-10.7027
▁goods	-10.7028
▁festival	-10.7031
▁rear	-10.7033
▁thick	-10.7033
▁dust	-10.7042
▁ski	-10.7044
▁Har	-10.705
new	-10.7052
▁arrested	-10.7054
▁improvements	-10.7056
▁advise	-10.7058
▁shares	-10.7059
▁cheaper	-10.7061
▁edit	-10.7061
▁primarily	-10.7061
▁guard	-10.7067
▁historic	-10.7068
▁programming	-10.7069
▁riding	-10.7074
▁bound	-10.7075
▁resulting	-10.708
▁packed	-10.7085
▁engaging	-10.7085
▁versions	-10.7089
▁elsewhere	-10.7089
▁raw	-10.709
▁Wall	-10.709
▁Ireland	-10.7095
▁Jan	-10.7095
▁Tri	-10.7097
▁expressed	-10.7108
Don	-10.7109
▁featured	-10.7112
▁tank	-10.7115
▁stomach	-10.7129
▁rural	-10.713
▁Support	-10.7134
▁wash	-10.7136
▁Fair	-10.7137
▁Land	-10.714
▁applying	-10.7145
▁connections	-10.7156
ran	-10.7158
▁Father	-10.7159
▁unusual	-10.716
▁tap	-10.7162
▁Things	-10.7164
lan	-10.7164
ups	-10.7165
▁exposed	-10.7165
▁Hill	-10.7165
▁weak	-10.7165
▁spa	-10.7169
ens	-10.7172
▁Town	-10.7174
▁sharp	-10.7175
▁SEO	-10.7175
▁barely	-10.7176
▁impression	-10.7181
▁narrow	-10.7185
▁stored	-10.7187
▁covering	-10.7188
▁poll	-10.7194
▁kit	-10.7197
▁temporary	-10.7199
▁48	-10.72
ple	-10.7204
▁participation	-10.7204
ris	-10.7205
▁focusing	-10.7206
chi	-10.7213
▁applicable	-10.7226
▁acid	-10.7231
▁conclusion	-10.7232
tter	-10.7239
▁evaluation	-10.724
01	-10.7242
▁delay	-10.7243
▁visible	-10.7249
▁pocket	-10.7254
▁joke	-10.7263
35	-10.7264
ya	-10.7265
▁Scott	-10.7267
▁Gold	-10.7268
ung	-10.7274
▁plain	-10.7279
▁confused	-10.7281
▁picking	-10.7282
▁disaster	-10.7282
▁encounter	-10.7285
▁inner	-10.7293
28	-10.7294
▁Harry	-10.73
▁rapidly	-10.7302
▁angry	-10.731
▁rose	-10.7318
▁bond	-10.732
▁anybody	-10.7333
bu	-10.7333
▁stretch	-10.7335
▁specialist	-10.7338
▁Actually	-10.7338
water	-10.734
wa	-10.7342
▁lo	-10.7343
-3	-10.7346
▁compliance	-10.735
▁wise	-10.7353
▁shame	-10.7354
▁exists	-10.7357
▁se	-10.736
▁fabulous	-10.736
26	-10.7367
▁attending	-10.7369
▁designer	-10.7372
▁combat	-10.7374
▁experiencing	-10.7374
▁experiment	-10.7376
▁contrast	-10.7381
▁stable	-10.7382
iv	-10.7383
▁handling	-10.7386
▁exception	-10.7387
ries	-10.7388
▁Trust	-10.7393
▁strike	-10.7395
▁recall	-10.74
23	-10.74
RA	-10.7407
▁producing	-10.7407
▁entering	-10.7409
this	-10.7413
▁invite	-10.7413
▁habits	-10.7416
-2	-10.7419
▁initiative	-10.7423
▁returning	-10.7423
▁trips	-10.7425
▁resume	-10.7425
▁layout	-10.7427
▁Enjoy	-10.7435
▁agenda	-10.7436
▁grass	-10.7437
▁ultimate	-10.7441
row	-10.7442
▁infection	-10.7443
▁poverty	-10.7444
27	-10.7445
▁Insurance	-10.7446
▁output	-10.7448
▁contribution	-10.7453
▁Britain	-10.7463
▁involving	-10.7464
▁=	-10.7465
▁Technology	-10.7465
▁announce	-10.7466
▁informative	-10.7468
made	-10.7469
▁yards	-10.7471
▁argue	-10.7473
▁bi	-10.7474
▁Does	-10.7474
▁serves	-10.7478
▁concepts	-10.7479
▁prayer	-10.7481
▁Medical	-10.7481
▁difficulty	-10.7483
▁ought	-10.7493
▁gathering	-10.7505
▁cuts	-10.7505
▁farmers	-10.7515
▁importantly	-10.7516
tu	-10.7516
▁equally	-10.7523
▁unknown	-10.7529
uck	-10.7529
▁Chi	-10.7535
▁wave	-10.7541
▁tears	-10.7542
fully	-10.7542
▁criteria	-10.7546
▁moves	-10.7548
▁u	-10.7549
▁Too	-10.755
▁tag	-10.7552
▁decline	-10.7554
including	-10.7554
▁channels	-10.7555
▁Him	-10.7559
▁charity	-10.7559
▁oh	-10.756
▁tradition	-10.7562
▁Welcome	-10.7562
▁talented	-10.7569
▁(1	-10.757
▁creativity	-10.7572
▁Visit	-10.7576
▁universe	-10.7578
▁Tell	-10.7578
▁compete	-10.758
▁fewer	-10.7582
▁editor	-10.7584
▁bloggers	-10.7587
▁strive	-10.7595
▁hat	-10.7598
▁newspaper	-10.76
▁$10	-10.76
▁subjects	-10.7606
▁bug	-10.7614
ick	-10.7616
▁rating	-10.7618
▁Senate	-10.7628
▁meaningful	-10.763
▁exploring	-10.7641
cal	-10.7644
▁asset	-10.7646
05	-10.7648
▁disappointed	-10.7648
▁filling	-10.7649
04	-10.765
▁gather	-10.7651
▁roads	-10.7652
▁crash	-10.7652
▁rough	-10.7656
▁gained	-10.7664
▁pink	-10.7664
▁extend	-10.7671
▁chart	-10.7673
▁AM	-10.7678
▁(1)	-10.7682
▁commonly	-10.7688
▁victory	-10.7688
▁offices	-10.7705
▁massage	-10.7705
rk	-10.7705
▁scenes	-10.7706
▁Fund	-10.7717
▁hall	-10.7719
▁component	-10.7719
▁Royal	-10.772
17	-10.7722
▁requested	-10.7728
▁Game	-10.7729
▁dishes	-10.774
▁Che	-10.7741
▁entrance	-10.7741
▁outcomes	-10.7741
▁Search	-10.7742
▁involve	-10.7745
▁Report	-10.7746
fe	-10.775
sp	-10.7753
ec	-10.7755
▁printed	-10.7755
▁Nice	-10.7755
▁entitled	-10.7756
▁Mother	-10.7756
▁electrical	-10.7758
▁excuse	-10.7762
▁math	-10.7762
How	-10.7764
▁jail	-10.7765
▁formed	-10.7766
▁Richard	-10.7768
▁king	-10.7772
▁mile	-10.7773
▁PS	-10.7774
▁Queen	-10.7776
▁obtained	-10.7789
ight	-10.779
▁formula	-10.779
▁Miss	-10.779
▁Ga	-10.7792
▁adjust	-10.7799
▁shock	-10.78
▁eliminate	-10.7814
▁Boston	-10.7814
▁equivalent	-10.7815
minute	-10.7816
uring	-10.7818
▁remained	-10.7818
▁demands	-10.7821
▁enemy	-10.7821
▁Help	-10.7821
▁usage	-10.7824
month	-10.7825
▁availability	-10.7836
▁semi	-10.7838
▁preferred	-10.7839
▁hiring	-10.784
▁pushed	-10.7841
star	-10.7841
▁finger	-10.7841
▁journal	-10.7843
▁enterprise	-10.7848
▁powder	-10.7853
ade	-10.7865
▁boss	-10.7867
▁Museum	-10.7871
▁IS	-10.7871
▁recognition	-10.7878
▁Republican	-10.7878
ians	-10.788
▁Order	-10.7881
▁Conference	-10.7882
All	-10.7884
▁End	-10.7885
▁ALL	-10.7886
▁2017.	-10.7887
▁disorder	-10.789
▁Summer	-10.7892
▁represents	-10.7898
▁flavor	-10.7901
▁tons	-10.7904
▁roles	-10.7907
▁vs	-10.7908
▁investing	-10.7912
▁relative	-10.7923
PS	-10.7924
▁seats	-10.7924
▁venue	-10.7925
▁relations	-10.793
town	-10.7931
▁personnel	-10.7933
▁transaction	-10.7936
▁spare	-10.7937
MA	-10.794
▁50%	-10.7942
▁resolve	-10.7949
▁west	-10.7951
top	-10.7951
▁blocks	-10.7953
ious	-10.7955
▁Young	-10.7956
▁smoking	-10.796
▁downtown	-10.7961
▁controlled	-10.7964
▁clicking	-10.7966
▁forest	-10.7969
▁flash	-10.7972
▁Thus	-10.7988
▁Zealand	-10.7991
▁interact	-10.8008
▁Francisco	-10.8017
ay	-10.8021
gi	-10.8022
▁Sha	-10.8025
▁overcome	-10.8029
▁elected	-10.803
▁Iraq	-10.8031
some	-10.8032
▁Tim	-10.8032
5%	-10.8034
▁36	-10.8035
▁integrated	-10.8037
▁define	-10.8038
nic	-10.8043
Be	-10.8044
▁Holy	-10.8045
▁wishes	-10.8046
▁setup	-10.8046
▁Spring	-10.8051
▁judgment	-10.8054
▁Personal	-10.8055
▁statistics	-10.8056
▁pursue	-10.8057
▁indicate	-10.8057
▁Hopefully	-10.8062
▁tackle	-10.8063
▁Pat	-10.8065
▁loose	-10.8073
▁damn	-10.8079
▁occurs	-10.8079
▁Cor	-10.8079
▁liability	-10.808
▁approaches	-10.8085
▁Meanwhile	-10.8085
▁fiction	-10.8089
known	-10.8091
▁essentially	-10.8091
▁prime	-10.8092
▁exceptional	-10.8095
▁intense	-10.81
▁l	-10.8103
▁Change	-10.8105
bs	-10.8111
▁pricing	-10.8112
▁pushing	-10.8114
▁Travel	-10.8117
IS	-10.8117
ged	-10.812
▁Was	-10.8121
▁spots	-10.8124
▁Bob	-10.8127
▁vulnerable	-10.8131
▁drama	-10.8133
OR	-10.8136
ff	-10.8138
▁precious	-10.8138
▁conversations	-10.8141
ren	-10.8149
▁Join	-10.8149
▁unlikely	-10.815
▁lab	-10.8152
▁adopted	-10.8152
▁recover	-10.8159
99	-10.816
▁opposed	-10.8161
wing	-10.8162
▁responses	-10.8166
▁Energy	-10.8167
▁Ten	-10.817
sion	-10.8176
▁promised	-10.8177
▁quotes	-10.8178
▁Coast	-10.8181
bb	-10.8184
▁Army	-10.8184
▁cry	-10.8185
▁lying	-10.8185
▁settle	-10.8185
▁concrete	-10.8186
▁FOR	-10.8187
▁extension	-10.8189
▁sing	-10.819
▁Mrs	-10.8191
lic	-10.8192
low	-10.8196
▁150	-10.8197
▁shirt	-10.8199
▁lock	-10.8202
ments	-10.8204
ants	-10.8205
▁investments	-10.8209
▁array	-10.8209
▁du	-10.821
▁spin	-10.8211
▁index	-10.8211
▁Pay	-10.8212
▁fascinating	-10.8212
▁hotels	-10.8214
mi	-10.822
▁unfortunately	-10.8235
▁physically	-10.8238
18	-10.8239
▁expecting	-10.8243
▁protest	-10.8251
▁safely	-10.8252
▁heavily	-10.8253
Our	-10.8254
▁cats	-10.8254
war	-10.8256
▁wisdom	-10.8258
▁creates	-10.8269
95	-10.8273
▁assistant	-10.8273
®	-10.8277
14	-10.8279
▁abroad	-10.8282
▁enjoyable	-10.8282
▁orange	-10.8285
▁Italy	-10.8288
uff	-10.8289
▁2007	-10.8291
▁removal	-10.8293
▁fraud	-10.8295
▁scenario	-10.8298
▁assault	-10.8301
▁promoting	-10.8301
TA	-10.8303
▁Night	-10.8305
▁guitar	-10.8307
▁architecture	-10.8308
▁reveal	-10.8308
▁WordPress	-10.831
▁arrest	-10.8311
▁(2)	-10.8314
who	-10.8318
▁LA	-10.8318
▁Chief	-10.8318
▁institution	-10.8322
▁abilities	-10.8322
▁initially	-10.8323
▁sorts	-10.8323
▁god	-10.8324
ek	-10.8325
▁Mi	-10.8327
▁regret	-10.8327
▁supplement	-10.8328
55	-10.8329
▁engines	-10.8331
▁convenience	-10.8333
ties	-10.8337
▁commission	-10.8339
▁prize	-10.8343
▁damaged	-10.8344
▁professor	-10.8344
▁concert	-10.8346
▁productive	-10.8346
fer	-10.8347
▁tracking	-10.8352
▁capabilities	-10.8355
▁intelligent	-10.8357
▁expansion	-10.8361
ified	-10.8363
▁commit	-10.8365
▁motivation	-10.8367
stone	-10.837
▁fits	-10.8375
500	-10.8377
van	-10.8378
▁yoga	-10.8379
31	-10.8381
▁emphasis	-10.8382
▁#1	-10.8388
▁forgotten	-10.8389
▁lists	-10.8401
▁implemented	-10.8405
▁handy	-10.8408
▁styles	-10.8415
▁tracks	-10.8415
▁promotion	-10.8416
▁Way	-10.842
32	-10.8428
▁instant	-10.8428
▁excess	-10.8434
▁applies	-10.8437
▁alarm	-10.8438
▁examine	-10.844
▁marked	-10.8442
▁thoroughly	-10.8443
▁Justice	-10.8446
ub	-10.8448
▁copies	-10.8452
▁Matt	-10.8453
▁fuck	-10.8456
▁divorce	-10.8457
foot	-10.8457
ru	-10.8459
▁settlement	-10.8461
ST	-10.8462
▁Need	-10.8463
they	-10.8467
▁manufacturers	-10.8471
▁Korea	-10.8473
▁provision	-10.8479
▁union	-10.8482
▁accomplish	-10.8483
▁productivity	-10.8484
-5	-10.8485
▁demonstrate	-10.8485
▁Lee	-10.8492
▁publication	-10.8495
▁newly	-10.8496
▁10%	-10.8497
▁anger	-10.8498
▁packages	-10.8498
03	-10.8509
▁exam	-10.8509
▁Something	-10.8509
▁marks	-10.8509
▁Want	-10.8511
▁Col	-10.8511
▁lol	-10.8512
▁caring	-10.8522
▁forecast	-10.8525
▁discussions	-10.8526
zi	-10.853
▁falls	-10.8531
ign	-10.8533
▁intellectual	-10.8536
▁silence	-10.8539
▁par	-10.8542
▁remind	-10.8542
▁Gi	-10.8542
▁encouraging	-10.8546
▁:)	-10.8558
▁Financial	-10.8558
):	-10.8559
▁Ever	-10.8562
▁quit	-10.8566
▁errors	-10.8571
▁substantial	-10.8572
▁burden	-10.8572
▁scope	-10.8577
▁destroy	-10.8579
▁sc	-10.8584
ological	-10.859
▁33	-10.8593
▁Carolina	-10.8595
tz	-10.8596
▁bone	-10.8599
▁ID	-10.86
▁east	-10.86
▁nations	-10.8602
▁Control	-10.8603
▁addressed	-10.8603
▁bother	-10.8604
style	-10.8606
▁lawyers	-10.8606
▁Thomas	-10.8626
▁stages	-10.8631
▁upset	-10.8634
▁Word	-10.8641
▁lake	-10.8642
state	-10.8644
▁representative	-10.8652
▁minds	-10.8653
▁periods	-10.8658
▁decrease	-10.866
▁heaven	-10.8661
▁RE	-10.8672
▁''	-10.8677
▁1)	-10.8681
▁displayed	-10.8681
29	-10.8681
jo	-10.8683
▁consistently	-10.8685
▁delivering	-10.8685
▁flexibility	-10.8689
▁Store	-10.8689
AR	-10.8692
▁lets	-10.8695
▁museum	-10.8697
▁fake	-10.8697
▁aimed	-10.8699
▁romantic	-10.8699
▁directed	-10.87
▁singing	-10.8702
▁coaching	-10.8702
▁residence	-10.8703
▁hike	-10.8704
▁h	-10.8705
▁dozen	-10.8705
vin	-10.871
what	-10.8712
▁Page	-10.8717
▁Hospital	-10.8721
▁MS	-10.8721
▁complaint	-10.8726
▁moon	-10.8731
▁sp	-10.8734
▁painful	-10.8736
▁baking	-10.8739
▁voters	-10.8745
▁trash	-10.8747
ric	-10.8747
▁diversity	-10.8748
cent	-10.8751
▁Press	-10.8753
▁highlight	-10.8754
pi	-10.8757
▁enormous	-10.876
▁contemporary	-10.8768
▁specified	-10.8768
▁differently	-10.877
▁resistance	-10.8771
▁genuine	-10.8772
▁egg	-10.8774
▁disagree	-10.8777
▁nutrition	-10.8781
▁wrap	-10.8783
▁immigration	-10.8785
▁assess	-10.8786
▁exit	-10.8788
▁2)	-10.8789
▁£1	-10.8791
▁heating	-10.8791
▁Wood	-10.8791
▁workout	-10.8794
▁cameras	-10.8794
▁sum	-10.8798
▁Gra	-10.8801
▁currency	-10.8803
▁resist	-10.8808
34	-10.8809
▁bo	-10.8811
▁hook	-10.8814
▁ladies	-10.8815
lar	-10.8818
▁skilled	-10.8825
▁Academy	-10.8826
▁functional	-10.8829
▁findings	-10.8833
ID	-10.8835
▁bid	-10.8835
▁”	-10.8844
▁mad	-10.8848
▁mixture	-10.8849
▁Whatever	-10.8851
▁toys	-10.8851
▁Anyone	-10.8854
▁Ms	-10.8854
▁1990	-10.8861
▁Spirit	-10.8862
▁Ni	-10.8867
run	-10.8868
▁corn	-10.8871
▁Building	-10.8875
▁relating	-10.8877
▁actively	-10.8879
▁printing	-10.8879
▁participating	-10.8879
▁contributions	-10.8881
▁Da	-10.8881
▁celebration	-10.8883
▁Create	-10.8883
▁unexpected	-10.8885
▁po	-10.8888
▁subscription	-10.889
▁expense	-10.8892
mark	-10.8894
▁singer	-10.8895
▁admitted	-10.8896
▁follows	-10.8896
▁possibilities	-10.8897
▁bankruptcy	-10.89
▁relation	-10.89
▁signing	-10.8901
▁networking	-10.8907
▁na	-10.891
▁Getting	-10.8915
▁maintained	-10.8917
▁?	-10.8918
▁mirror	-10.8919
▁suicide	-10.8923
▁governments	-10.8923
▁relaxing	-10.8925
app	-10.8925
ory	-10.8926
▁hits	-10.8928
▁contracts	-10.8929
▁alert	-10.8929
tech	-10.8932
tain	-10.8933
▁Local	-10.8934
▁profession	-10.8937
▁circle	-10.8937
▁attempts	-10.8939
▁Due	-10.8941
▁phrase	-10.8942
?)	-10.8943
▁forgot	-10.8943
▁ro	-10.8945
Con	-10.8946
▁faculty	-10.8948
▁accommodate	-10.8949
part	-10.8949
▁languages	-10.895
▁trusted	-10.8951
33	-10.8953
▁stopping	-10.8955
#	-10.8956
called	-10.8959
▁officially	-10.8961
▁Ok	-10.8961
▁targeted	-10.8963
▁muscles	-10.8963
▁Executive	-10.8965
▁convinced	-10.8966
▁carpet	-10.8971
▁pepper	-10.8977
▁Full	-10.8979
▁Festival	-10.898
▁Dad	-10.8983
-4	-10.8986
▁photographs	-10.8993
▁scan	-10.8994
▁documentation	-10.8997
▁knee	-10.8997
▁transactions	-10.8998
▁2016.	-10.9
▁Besides	-10.9
▁Had	-10.9001
▁surprising	-10.9004
▁addresses	-10.9007
▁Frank	-10.9008
list	-10.9009
▁aged	-10.9009
▁awards	-10.9018
AT	-10.902
▁PR	-10.9021
▁pizza	-10.9022
▁Jewish	-10.9022
har	-10.9029
▁II	-10.903
▁habit	-10.9041
▁Ti	-10.9045
▁generated	-10.9047
▁upload	-10.9048
▁speaker	-10.9048
▁Alex	-10.905
▁interviews	-10.9052
▁certificate	-10.9056
▁Below	-10.906
44	-10.9065
▁alongside	-10.9065
▁shake	-10.9067
sen	-10.9068
▁aims	-10.9068
▁boring	-10.907
▁frequent	-10.9071
▁permit	-10.9076
▁Simply	-10.9077
US	-10.9089
▁addiction	-10.909
▁soup	-10.9094
▁tables	-10.9095
▁Marketing	-10.9102
▁minimal	-10.9103
gar	-10.9103
▁sought	-10.9103
▁Article	-10.9104
ES	-10.9106
▁violent	-10.9106
▁publishing	-10.9107
▁Site	-10.9107
od	-10.9108
▁Has	-10.9116
▁calories	-10.912
ane	-10.9122
▁principle	-10.9125
▁breaks	-10.9129
▁Cat	-10.9134
▁DVD	-10.9136
iness	-10.9139
▁rush	-10.9141
08	-10.9141
▁trans	-10.9141
▁beliefs	-10.9145
▁Sign	-10.9149
▁generations	-10.915
ose	-10.9151
▁gaming	-10.9154
▁complaints	-10.9156
ound	-10.9157
▁Small	-10.9157
▁da	-10.9162
▁weapon	-10.9163
▁latter	-10.9167
▁hesitate	-10.9167
▁burning	-10.9167
▁manufacturer	-10.9172
▁army	-10.9174
▁Ri	-10.9175
▁400	-10.9175
▁spouse	-10.9176
▁guaranteed	-10.9176
▁Put	-10.9177
▁Class	-10.9178
▁ownership	-10.9178
▁DC	-10.9184
▁Clinton	-10.9184
▁superior	-10.9186
▁interactive	-10.919
hu	-10.9191
▁losses	-10.9194
▁filter	-10.9194
being	-10.9195
▁backup	-10.9197
▁struck	-10.9198
▁puts	-10.9199
▁soldiers	-10.9199
▁opt	-10.9201
home	-10.9201
▁matches	-10.9204
`	-10.9205
▁grace	-10.9206
▁estimate	-10.9207
▁reception	-10.9209
▁substance	-10.9211
▁accounting	-10.9212
▁interaction	-10.9218
▁literature	-10.9219
▁rolling	-10.9224
▁philosophy	-10.9224
▁ordinary	-10.9225
▁editing	-10.9227
post	-10.9234
▁campaigns	-10.9239
▁objectives	-10.924
qui	-10.9242
▁Kim	-10.9242
▁pension	-10.9248
Pro	-10.925
▁absence	-10.925
▁Additionally	-10.9254
▁elections	-10.9257
▁visits	-10.9259
▁thrown	-10.926
▁workshops	-10.9263
▁salary	-10.9264
▁salad	-10.9266
▁surrounded	-10.9266
▁retain	-10.9274
▁desktop	-10.9274
press	-10.9275
▁ME	-10.9276
▁Point	-10.9277
▁(2	-10.9278
▁st	-10.9279
▁dig	-10.9285
▁Room	-10.9289
▁fucking	-10.9289
CH	-10.929
week	-10.9295
▁minister	-10.9296
▁completion	-10.9296
TM	-10.9299
▁Four	-10.9299
▁Rose	-10.9301
▁blend	-10.9301
▁$100	-10.9301
▁association	-10.9302
▁liberal	-10.9303
▁drove	-10.9312
▁1980	-10.9313
▁Gar	-10.9313
▁banking	-10.9317
lly	-10.9318
ji	-10.9318
care	-10.9319
ada	-10.9321
eg	-10.9324
▁transform	-10.9325
▁steam	-10.9326
han	-10.9329
▁Much	-10.9333
▁conversion	-10.9333
▁Key	-10.9337
▁trailer	-10.934
▁opposition	-10.9342
▁Digital	-10.9347
▁pets	-10.9348
▁ceiling	-10.9349
Me	-10.9353
▁34	-10.9354
▁presents	-10.9358
▁viewing	-10.9358
▁examination	-10.936
▁hearts	-10.9362
▁voted	-10.9363
▁combine	-10.9363
ient	-10.9363
▁temperatures	-10.9364
▁sudden	-10.9367
▁pitch	-10.9368
▁prescription	-10.9369
▁proved	-10.9373
▁keen	-10.9374
▁Virginia	-10.9377
si	-10.9379
gg	-10.938
▁comply	-10.9382
game	-10.9387
▁hi	-10.9388
▁reward	-10.9391
▁Guide	-10.9393
▁Tax	-10.9393
▁belt	-10.9397
▁annoying	-10.9399
▁voting	-10.94
ach	-10.9404
▁insights	-10.9405
▁structures	-10.9406
▁directions	-10.9407
▁debut	-10.941
▁75	-10.9411
▁developer	-10.9411
▁globe	-10.9412
om	-10.9413
▁settled	-10.9414
▁vi	-10.9414
ette	-10.9415
▁ca	-10.9416
are	-10.9416
▁boot	-10.9417
▁Southern	-10.9423
▁clubs	-10.9427
▁scary	-10.943
sized	-10.9431
▁stroke	-10.9433
▁ceremony	-10.9433
▁universities	-10.9435
▁diagnosis	-10.9439
▁LOVE	-10.9442
▁founded	-10.9444
▁BE	-10.9446
ency	-10.9449
▁fallen	-10.9453
ture	-10.9453
▁2017,	-10.9457
▁van	-10.9459
▁View	-10.9459
▁climb	-10.9462
▁remarkable	-10.9467
▁$6	-10.9471
▁Week	-10.9473
▁Ba	-10.9481
▁shortly	-10.9484
▁Customer	-10.9485
▁tries	-10.9489
read	-10.949
nch	-10.9492
▁Given	-10.9497
▁listing	-10.9498
100	-10.9503
▁adopt	-10.9504
▁Working	-10.9506
▁initiatives	-10.9507
▁inspire	-10.9508
▁swing	-10.9509
▁Iran	-10.951
▁tab	-10.9512
▁speakers	-10.9513
▁delighted	-10.9515
▁destroyed	-10.9519
▁List	-10.9523
▁2019	-10.9531
▁wireless	-10.9534
▁vice	-10.9534
▁inspiring	-10.9534
▁3-	-10.9536
▁accused	-10.9539
▁followers	-10.9539
▁Prime	-10.9541
36	-10.9541
▁olive	-10.9541
▁Ver	-10.9544
▁profits	-10.9547
▁endless	-10.9547
▁division	-10.9547
ok	-10.9547
▁reminded	-10.9553
pp	-10.9553
▁intention	-10.9554
▁Spain	-10.9555
▁awful	-10.9557
▁protecting	-10.9557
▁Auto	-10.9562
▁deadline	-10.9567
▁Secretary	-10.9572
▁responded	-10.9572
▁spray	-10.9574
▁dying	-10.9575
▁km	-10.9577
▁cruise	-10.9577
▁Nick	-10.9578
▁scared	-10.9581
▁exercises	-10.9587
▁Cross	-10.9588
▁lease	-10.9592
▁occasionally	-10.9598
▁smiled	-10.96
▁emissions	-10.9601
▁psychological	-10.9606
▁pic	-10.9606
▁span	-10.9606
▁reserve	-10.9606
▁aircraft	-10.9608
▁restrictions	-10.9609
▁sections	-10.9609
▁mountains	-10.9611
▁flower	-10.9611
▁defend	-10.9615
▁seeds	-10.9619
gue	-10.962
▁twist	-10.9625
▁lips	-10.9627
▁asks	-10.9627
▁gathered	-10.9635
▁Cha	-10.9635
▁Ah	-10.9636
▁clinic	-10.9644
▁Ja	-10.9653
▁Tu	-10.9655
get	-10.9658
▁offense	-10.9658
▁stations	-10.9658
▁lowest	-10.9661
▁announcement	-10.9663
▁dose	-10.9664
▁Stay	-10.9665
▁2016,	-10.9666
PA	-10.9669
▁Heart	-10.9672
▁hunt	-10.9673
▁copyright	-10.9674
▁Em	-10.9675
▁MA	-10.9676
▁pilot	-10.9676
▁column	-10.9677
▁overwhelming	-10.9678
▁Supreme	-10.9686
▁William	-10.969
▁AT	-10.9692
▁sin	-10.9694
▁overnight	-10.9694
▁girlfriend	-10.9696
▁dialogue	-10.9698
▁Mon	-10.9698
▁refused	-10.9703
air	-10.9708
▁crimes	-10.9709
▁cancel	-10.9711
▁Hard	-10.9711
▁pie	-10.9711
▁horrible	-10.9715
▁evaluate	-10.9716
▁Space	-10.9725
gy	-10.9726
▁Consider	-10.9729
▁graphic	-10.9732
▁comic	-10.9735
▁2004	-10.9735
▁supports	-10.9737
▁worship	-10.9737
▁possess	-10.9739
win	-10.974
world	-10.9745
school	-10.9747
▁enables	-10.9749
▁predict	-10.975
▁Jersey	-10.9751
▁genetic	-10.9752
▁virtually	-10.9754
▁OR	-10.9754
tal	-10.9754
▁Especially	-10.9754
▁20%	-10.9756
wi	-10.9757
ola	-10.9757
▁sooner	-10.9757
▁fancy	-10.9758
▁Library	-10.9761
▁threats	-10.9764
▁rapid	-10.9764
▁seasons	-10.9766
▁diagnosed	-10.9766
▁signature	-10.9767
▁designers	-10.9768
▁Cal	-10.9776
▁powers	-10.9778
▁Several	-10.9779
▁sacrifice	-10.9781
▁graphics	-10.9785
▁disability	-10.9786
▁lit	-10.9789
▁Ed	-10.979
scale	-10.979
De	-10.9794
▁consult	-10.9794
▁dirty	-10.9797
▁horror	-10.9797
▁Jones	-10.9801
▁rescue	-10.9803
gle	-10.9808
▁generous	-10.9808
▁centers	-10.981
▁breathing	-10.981
▁Donald	-10.9811
▁y	-10.9812
▁Following	-10.9813
▁immune	-10.9814
▁tie	-10.9815
▁tension	-10.982
▁walks	-10.9822
▁chemicals	-10.9822
EN	-10.9824
▁excitement	-10.983
▁j	-10.9832
▁flood	-10.9834
▁branch	-10.9836
▁amongst	-10.984
▁regions	-10.9846
▁contained	-10.9848
▁flag	-10.985
▁History	-10.9853
▁container	-10.9853
▁worker	-10.9854
▁fence	-10.9857
▁hitting	-10.9858
▁tournament	-10.986
▁crap	-10.986
▁wider	-10.9864
▁tied	-10.9864
▁acknowledge	-10.9866
▁Administration	-10.9871
▁intent	-10.9872
cha	-10.9877
▁shelter	-10.9878
▁Rights	-10.988
▁emerging	-10.9884
▁string	-10.9889
▁resident	-10.989
▁wa	-10.9892
▁peaceful	-10.9894
▁Northern	-10.9895
▁featuring	-10.9897
▁Unless	-10.99
▁functionality	-10.9908
▁convey	-10.9908
▁roughly	-10.9912
▁politicians	-10.9916
▁Until	-10.9921
▁fruits	-10.9923
▁ratio	-10.9924
▁awarded	-10.9924
▁duties	-10.9925
▁unlike	-10.9927
▁transformation	-10.9928
▁·	-10.993
▁observed	-10.993
▁employed	-10.9931
▁hip	-10.9937
▁paragraph	-10.9938
▁Website	-10.9941
▁Access	-10.9941
▁pulling	-10.9943
▁gentle	-10.9945
▁adequate	-10.9947
▁op	-10.9949
▁dive	-10.9958
play	-10.996
▁responsibilitie	-10.9961
▁criticism	-10.9962
▁65	-10.9966
▁ears	-10.997
▁patience	-10.997
▁focuses	-10.9973
▁principal	-10.9973
▁locked	-10.9975
oh	-10.9977
▁certified	-10.9979
▁reminder	-10.9986
ama	-10.9989
▁accessories	-10.9991
ara	-10.9992
ets	-10.9992
▁audit	-10.9994
▁instantly	-10.9997
ky	-10.9998
▁relaxed	-11.0001
▁angle	-11.0003
▁Based	-11.0006
▁adapt	-11.001
zz	-11.001
mate	-11.0012
Not	-11.0021
▁Overall	-11.0022
▁Sarah	-11.0023
▁acceptable	-11.0025
▁IP	-11.0026
▁neighbors	-11.0027
▁Port	-11.0029
▁Arts	-11.0032
▁silly	-11.0032
▁baseball	-11.0032
▁passage	-11.0033
▁relate	-11.0034
▁strip	-11.0034
▁titles	-11.0036
▁thankful	-11.0036
av	-11.0036
▁donation	-11.0044
▁difficulties	-11.0044
▁sake	-11.0055
ew	-11.0055
▁entertaining	-11.0059
▁assigned	-11.0059
▁2015,	-11.006
▁Scotland	-11.0063
▁slip	-11.0067
CC	-11.0067
▁nurse	-11.007
aw	-11.0071
des	-11.0074
▁beans	-11.0074
▁lens	-11.0075
▁Asian	-11.0079
▁Roman	-11.008
▁complain	-11.0081
AN	-11.0083
key	-11.0083
log	-11.0084
▁nursing	-11.0092
▁processed	-11.0095
▁medications	-11.0101
▁trigger	-11.0103
ks	-11.0104
▁uncomfortable	-11.0105
▁motivated	-11.011
▁indicated	-11.011
▁Johnson	-11.0114
▁mystery	-11.0114
▁Chapter	-11.0126
▁declared	-11.0128
▁Fall	-11.013
▁spectacular	-11.0138
▁Disney	-11.0142
37	-11.0143
▁plug	-11.0144
▁icon	-11.0145
▁2015.	-11.0145
▁mum	-11.0146
▁franchise	-11.0149
▁Hollywood	-11.0149
▁summary	-11.0152
LY	-11.0157
▁colours	-11.0157
where	-11.0159
tle	-11.0164
▁Feel	-11.017
ass	-11.0171
ob	-11.0172
ala	-11.0173
▁integrity	-11.0178
inch	-11.0179
02	-11.0182
▁blessed	-11.0182
▁react	-11.0184
▁Michigan	-11.0185
▁Living	-11.0188
▁Someone	-11.0192
▁kinda	-11.0193
▁disabled	-11.0194
▁assured	-11.0194
▁laughed	-11.0195
rie	-11.0199
▁grounds	-11.0207
▁pants	-11.0209
▁Learning	-11.0212
set	-11.0212
▁repairs	-11.0216
▁secondary	-11.0218
▁acquire	-11.022
▁hunting	-11.0221
▁qualify	-11.0221
▁Civil	-11.0223
▁Adam	-11.0226
▁throwing	-11.0226
▁imagination	-11.0232
▁)	-11.0236
▁Andrew	-11.0237
sha	-11.0238
▁automatic	-11.0238
▁provisions	-11.0238
▁export	-11.0242
▁establishment	-11.0244
▁Thanksgiving	-11.0249
▁targets	-11.025
▁shell	-11.0252
▁Van	-11.0254
One	-11.0256
▁imp	-11.0258
▁dancing	-11.0259
CO	-11.0265
▁dramatic	-11.0266
-10	-11.0276
▁MO	-11.0282
▁spoken	-11.0283
▁arrangements	-11.0289
▁advantages	-11.0289
▁viewed	-11.0293
▁Safety	-11.0296
▁affects	-11.0298
ify	-11.0302
▁Ru	-11.0302
there	-11.0306
▁Kingdom	-11.0307
▁Agency	-11.0308
▁thorough	-11.0309
ition	-11.0312
▁outfit	-11.0318
▁nicely	-11.0322
1.	-11.0325
▁PA	-11.0325
▁restore	-11.0328
▁discussing	-11.0331
ken	-11.0332
good	-11.0335
▁suppliers	-11.0339
▁survival	-11.0343
▁wherever	-11.0345
▁55	-11.035
▁utilize	-11.035
▁Age	-11.0355
▁embrace	-11.0355
▁bold	-11.0357
▁tin	-11.0362
▁handful	-11.0362
▁2006	-11.0363
▁Force	-11.0364
▁visa	-11.0365
▁actor	-11.0372
▁arrange	-11.0373
▁passes	-11.0377
▁glasses	-11.0377
▁consists	-11.0379
▁Talk	-11.0382
▁landing	-11.0389
▁guns	-11.039
▁representation	-11.0391
▁boyfriend	-11.0393
▁foster	-11.0394
ther	-11.0395
▁worn	-11.0398
▁strengthen	-11.0398
▁hungry	-11.0399
▁golden	-11.04
▁Area	-11.04
▁Pe	-11.0401
▁incorporate	-11.0407
▁strain	-11.041
vers	-11.0415
▁cooked	-11.0416
take	-11.042
07	-11.042
▁strict	-11.0427
▁competitors	-11.0428
▁Follow	-11.0428
▁authentic	-11.0429
lock	-11.043
▁dont	-11.0435
▁deaths	-11.0438
▁begun	-11.044
▁meets	-11.0441
py	-11.045
nny	-11.045
▁integration	-11.0452
▁casino	-11.0453
▁grocery	-11.0455
Co	-11.0457
▁apple	-11.0459
▁couples	-11.0467
from	-11.0468
▁enabled	-11.0469
▁anytime	-11.047
par	-11.0471
▁Professional	-11.0471
▁Could	-11.0472
▁Democrats	-11.0473
▁characteristics	-11.0476
▁ridiculous	-11.0484
table	-11.0485
▁distinct	-11.049
ura	-11.0491
service	-11.0493
bble	-11.0493
▁2018,	-11.0493
09	-11.0494
▁SA	-11.0494
▁wondered	-11.0494
▁administrative	-11.0497
▁horses	-11.0498
▁demo	-11.0499
▁Pacific	-11.0506
▁innocent	-11.0507
77	-11.0508
▁conservative	-11.0509
▁thinks	-11.0511
▁pile	-11.0511
view	-11.0513
▁mg	-11.0514
▁exhibition	-11.0515
▁holes	-11.0515
▁configuration	-11.0521
page	-11.0522
▁sectors	-11.0522
St	-11.0523
▁fiber	-11.0525
▁witness	-11.0526
▁investigate	-11.0529
▁Camp	-11.0529
▁occasions	-11.0538
uch	-11.0545
-7	-11.0545
▁advised	-11.0546
▁affiliate	-11.0546
▁Video	-11.0553
▁Off	-11.0557
▁prevention	-11.0561
ix	-11.0563
▁studied	-11.0566
▁basketball	-11.0568
▁Ryan	-11.0572
▁Tony	-11.0574
ov	-11.0578
▁beef	-11.0578
▁realistic	-11.0582
▁et	-11.0584
ese	-11.0584
▁artificial	-11.0585
▁Mor	-11.0585
65	-11.059
▁Hand	-11.0591
▁newsletter	-11.0593
▁regulation	-11.0594
‘	-11.0595
▁rail	-11.0597
▁finishing	-11.0598
▁wage	-11.0603
TS	-11.0607
▁Colorado	-11.061
▁OS	-11.0611
▁prompt	-11.0617
▁permitted	-11.0618
▁facilitate	-11.062
06	-11.062
-12	-11.0627
▁coat	-11.0628
▁cure	-11.0628
▁reviewed	-11.0629
▁Training	-11.063
▁buyer	-11.063
▁virus	-11.0632
yn	-11.0635
▁donations	-11.0637
▁regards	-11.064
▁MP	-11.064
▁factory	-11.0641
▁hero	-11.0642
OS	-11.0643
▁bite	-11.0645
high	-11.0646
bra	-11.0647
val	-11.0647
▁tomatoes	-11.0649
▁legitimate	-11.0649
▁Ab	-11.0651
▁navigate	-11.0655
▁arguments	-11.0658
3.	-11.0661
▁inch	-11.0662
▁nuts	-11.0663
▁Often	-11.0663
▁blast	-11.0664
▁import	-11.0671
▁tender	-11.0671
▁smartphone	-11.0673
▁fired	-11.0675
NA	-11.0678
▁Georgia	-11.0681
▁knowledgeable	-11.0681
▁Vegas	-11.0682
▁jacket	-11.0686
▁dressed	-11.069
▁Award	-11.0693
▁Williams	-11.0696
▁Select	-11.0696
▁accidents	-11.0696
▁tear	-11.0699
ving	-11.07
▁reflection	-11.0701
ern	-11.0704
▁Nov	-11.0705
dia	-11.0705
▁Tra	-11.0706
▁containing	-11.0706
-8	-11.0709
▁aggressive	-11.0709
▁Stop	-11.0712
▁gallery	-11.0712
zo	-11.0713
MS	-11.0714
CE	-11.0715
▁photographer	-11.0715
▁37	-11.0716
▁regime	-11.0717
▁retired	-11.0717
▁warranty	-11.0725
▁tutorial	-11.0725
▁handled	-11.0726
▁1970	-11.0729
▁loads	-11.073
▁translation	-11.0733
▁Pet	-11.0736
▁bra	-11.0737
▁timely	-11.0741
▁controls	-11.0743
▁hospitals	-11.0743
▁Beautiful	-11.0744
IL	-11.0744
ash	-11.0745
▁Dave	-11.0747
▁courts	-11.0747
▁pics	-11.0749
▁episodes	-11.0749
▁42	-11.075
▁mat	-11.0754
▁SE	-11.0755
▁Tour	-11.0757
▁physician	-11.076
cast	-11.076
▁Indeed	-11.076
▁2003	-11.076
pri	-11.0761
Ro	-11.0761
▁flour	-11.0762
▁fifth	-11.0766
▁ba	-11.0767
▁passengers	-11.0769
▁promises	-11.0772
▁keyboard	-11.0775
▁curriculum	-11.0777
▁tremendous	-11.0778
▁crack	-11.0779
▁dependent	-11.078
▁Bra	-11.078
▁Cu	-11.0782
200	-11.0782
48	-11.0787
▁fiscal	-11.0788
▁pit	-11.0788
▁Bur	-11.0788
▁licensed	-11.0791
real	-11.0796
▁ministry	-11.0798
47	-11.0799
▁Gen	-11.0804
▁tail	-11.0809
▁Obviously	-11.0811
▁apparent	-11.0811
▁remembered	-11.0815
▁iPad	-11.0816
▁Sch	-11.0818
▁toilet	-11.0819
▁travelling	-11.082
▁Ohio	-11.0822
▁bacteria	-11.0823
Why	-11.0824
▁tourist	-11.0828
▁garlic	-11.0832
▁Choose	-11.0832
▁brothers	-11.0833
nk	-11.0835
!).	-11.0837
je	-11.0837
▁laughing	-11.0842
step	-11.0842
▁discovery	-11.0847
▁equity	-11.0848
round	-11.0848
▁Probably	-11.0849
▁Sub	-11.085
▁Vol	-11.0852
3%	-11.0857
▁wire	-11.0857
▁makeup	-11.0858
▁invention	-11.0859
▁achieving	-11.086
▁Garden	-11.0864
-19	-11.0865
▁Mad	-11.0866
▁Inter	-11.0867
49	-11.0867
▁delete	-11.0868
▁peer	-11.087
▁supporters	-11.0871
▁Nor	-11.0872
http	-11.0874
▁workforce	-11.0874
▁extraordinary	-11.0874
▁Furthermore	-11.0876
▁regulatory	-11.0876
▁dentist	-11.0877
°	-11.088
▁representatives	-11.088
▁Greek	-11.0886
▁Boy	-11.0888
▁clip	-11.089
▁Form	-11.0891
ld	-11.0891
▁spacious	-11.0893
▁FIG	-11.0897
▁failing	-11.0897
▁racing	-11.0899
-6	-11.0902
vis	-11.0903
▁silent	-11.0907
▁1/2	-11.0908
▁fantasy	-11.0908
▁Season	-11.0912
gov	-11.0912
▁FREE	-11.0913
▁describes	-11.0918
▁packaging	-11.0919
▁entrepreneurs	-11.092
ough	-11.0922
▁beds	-11.0923
▁ra	-11.0923
▁gut	-11.0923
away	-11.0924
▁stability	-11.093
▁Daniel	-11.093
▁excessive	-11.0932
zy	-11.0935
▁overseas	-11.0936
▁leather	-11.0937
▁brush	-11.0941
▁accomplished	-11.0945
▁scam	-11.0947
▁technological	-11.0947
▁continuous	-11.0948
berg	-11.095
▁penalty	-11.0957
▁operational	-11.096
▁Rather	-11.0961
Ma	-11.0961
▁Comp	-11.0964
▁Bu	-11.0966
▁marijuana	-11.0967
TH	-11.0969
ani	-11.0969
▁balanced	-11.0969
▁hoped	-11.097
▁mining	-11.0971
▁patch	-11.0971
▁Far	-11.0975
▁vendors	-11.0978
▁frustrating	-11.0978
▁magical	-11.098
▁athletes	-11.098
▁38	-11.0984
000	-11.0984
▁inventory	-11.0987
▁entries	-11.0988
su	-11.0993
▁refuse	-11.0996
▁evolution	-11.0996
▁scored	-11.0999
▁courage	-11.1002
▁oral	-11.1004
▁throat	-11.1005
▁inspection	-11.1006
az	-11.1006
oid	-11.1007
AP	-11.1008
▁Ch	-11.101
38	-11.101
▁precisely	-11.1012
▁reminds	-11.1014
▁suggestion	-11.1018
▁condo	-11.102
▁Card	-11.1022
▁hill	-11.1022
▁timing	-11.1024
▁screening	-11.1024
▁gang	-11.1025
▁instruction	-11.1025
▁efficiently	-11.1027
▁loaded	-11.1029
▁desert	-11.1036
lip	-11.1036
▁publicly	-11.1038
ita	-11.1041
▁Republicans	-11.1042
▁Israeli	-11.1044
▁Games	-11.1047
▁Non	-11.1049
	-11.1049
ET	-11.1053
▁Halloween	-11.1053
cho	-11.1057
mal	-11.1061
dom	-11.1061
▁locally	-11.1061
▁quilt	-11.1062
▁Hot	-11.1062
▁$7	-11.1067
▁Protection	-11.1072
▁steady	-11.1073
▁Sir	-11.1073
▁themes	-11.1073
cu	-11.1074
▁adoption	-11.1075
▁Pan	-11.1075
matic	-11.1076
name	-11.1078
▁[...]	-11.1078
▁cooperation	-11.108
▁respective	-11.1082
▁humor	-11.1084
▁honey	-11.1084
ib	-11.1084
▁ya	-11.1086
ag	-11.1089
▁armed	-11.109
▁Farm	-11.1094
▁purchases	-11.1095
▁Singapore	-11.1097
▁auction	-11.1097
▁Sky	-11.1099
▁Trade	-11.1102
▁removing	-11.1103
▁Clean	-11.1104
▁dirt	-11.1105
AD	-11.1105
▁casual	-11.1106
▁sh	-11.1107
▁lasting	-11.1107
▁sink	-11.1109
▁scratch	-11.1109
85	-11.1113
▁confusion	-11.1115
▁para	-11.1116
▁Anti	-11.112
▁drives	-11.1121
▁filing	-11.1121
▁Blog	-11.1121
▁deciding	-11.1122
▁Sp	-11.1129
▁Know	-11.1129
▁certification	-11.1131
▁stepped	-11.1132
▁rank	-11.1132
▁superb	-11.1134
▁Brian	-11.1137
▁resulted	-11.1137
ev	-11.1138
▁subsequent	-11.1142
ez	-11.1142
▁Irish	-11.1144
▁humanity	-11.1145
▁gate	-11.1148
▁Among	-11.115
▁disorders	-11.1153
fire	-11.1156
▁jam	-11.1156
▁keys	-11.1157
▁narrative	-11.116
2.	-11.1161
▁tongue	-11.1164
▁urge	-11.1165
ari	-11.1166
▁Main	-11.1168
▁Action	-11.1168
▁concentration	-11.1169
▁maps	-11.1174
oon	-11.1178
▁em	-11.118
▁popularity	-11.1181
ella	-11.1183
▁patent	-11.1185
▁tablet	-11.1185
▁badly	-11.1193
▁tent	-11.1193
▁niche	-11.1194
rick	-11.1195
rated	-11.1196
66	-11.1196
▁hosted	-11.1198
▁ranging	-11.1198
ily	-11.1202
▁handed	-11.1202
▁mild	-11.1202
▁AS	-11.1204
▁Either	-11.1205
Pa	-11.1207
▁scores	-11.1208
▁boards	-11.1209
▁grip	-11.121
▁Nations	-11.1211
▁hired	-11.1211
▁bump	-11.1214
ct	-11.1216
bound	-11.1217
▁parks	-11.1223
▁eager	-11.1224
▁asleep	-11.1225
▁achievement	-11.1228
▁wooden	-11.1231
▁bomb	-11.1233
▁acquisition	-11.1235
▁rolled	-11.1237
▁Republic	-11.1238
▁completing	-11.1243
▁loop	-11.1243
ica	-11.1245
▁solo	-11.1245
▁collective	-11.125
▁le	-11.1251
▁logic	-11.1252
▁represented	-11.1252
▁homework	-11.1252
▁Sounds	-11.1253
▁Ford	-11.1254
▁symbol	-11.1255
▁nail	-11.1255
▁Jackson	-11.1256
▁actors	-11.1256
▁Christians	-11.1256
▁stolen	-11.1263
▁convert	-11.1263
▁attempting	-11.1263
▁origin	-11.1265
▁bookmarked	-11.1265
▁democracy	-11.1266
▁treating	-11.1266
▁Rob	-11.127
AS	-11.1273
▁harmful	-11.1274
7%	-11.1278
▁Fox	-11.1278
▁1,000	-11.128
▁harsh	-11.1281
▁Down	-11.1282
▁thirty	-11.1282
▁Val	-11.1283
▁Moreover	-11.1287
▁stops	-11.1288
8%	-11.1288
▁conventional	-11.1294
dic	-11.1295
▁killer	-11.1298
▁financing	-11.13
American	-11.1303
▁referring	-11.1304
▁circuit	-11.1306
▁2005	-11.1306
▁prayers	-11.1313
▁Share	-11.1313
▁memorable	-11.1316
▁warned	-11.1319
nu	-11.132
▁Within	-11.1321
ik	-11.1322
▁confirmation	-11.1325
▁Glad	-11.1331
▁tune	-11.1331
▁proportion	-11.1334
▁Charles	-11.1334
▁intervention	-11.1335
▁tissue	-11.1335
▁offensive	-11.1336
▁Pen	-11.134
▁preserve	-11.1342
sta	-11.1343
▁discipline	-11.1343
▁assignment	-11.1348
▁grasp	-11.1348
yl	-11.1354
▁cyber	-11.1356
▁interpretation	-11.1356
▁western	-11.1357
▁Six	-11.1358
▁Save	-11.1369
▁southern	-11.137
▁segment	-11.1372
▁lemon	-11.1375
▁involvement	-11.1375
Let	-11.1377
▁elegant	-11.1381
▁explaining	-11.1384
▁gross	-11.1385
▁$50	-11.1386
▁Test	-11.1387
rant	-11.1392
ole	-11.1393
▁satellite	-11.1396
aries	-11.1399
▁skip	-11.1399
person	-11.14
▁samples	-11.14
▁slight	-11.1401
ied	-11.1402
▁$20	-11.1403
▁servers	-11.1404
MP	-11.1406
▁Cap	-11.1407
▁broadcast	-11.1408
▁flights	-11.1409
▁overview	-11.141
▁invitation	-11.1411
wide	-11.1413
▁NY	-11.1414
▁Child	-11.1415
▁defeat	-11.1415
link	-11.1417
▁Mal	-11.1418
pan	-11.1418
▁detect	-11.142
▁Making	-11.1421
▁Unlike	-11.1421
▁Looks	-11.1422
▁2014,	-11.1425
iest	-11.1425
▁min	-11.1425
▁Got	-11.1426
▁washing	-11.1428
▁nowhere	-11.1434
mit	-11.1435
itis	-11.1435
af	-11.1435
▁fridge	-11.1438
▁template	-11.1439
gate	-11.144
▁divided	-11.1442
▁Ken	-11.1443
screen	-11.1443
mat	-11.1444
▁Lots	-11.1444
▁Excellent	-11.1445
▁mature	-11.1447
ou	-11.1451
▁Sal	-11.1452
▁Money	-11.1454
▁oldest	-11.1454
illa	-11.1457
▁Ministry	-11.1463
▁Bring	-11.1467
▁fool	-11.1472
▁11.	-11.1473
▁estimates	-11.1475
▁engineers	-11.1476
▁touched	-11.148
▁advocate	-11.148
▁warming	-11.1488
▁abortion	-11.1494
ches	-11.1496
ans	-11.1496
lit	-11.1507
▁corporations	-11.1508
▁Line	-11.1508
▁SP	-11.1509
▁denied	-11.1512
▁placing	-11.1515
▁1000	-11.1518
▁Shop	-11.152
▁Almost	-11.1525
▁intend	-11.1526
power	-11.153
39	-11.1531
▁transmission	-11.1531
▁Eric	-11.1532
▁Cons	-11.1532
cat	-11.1532
▁expanding	-11.1534
▁Daily	-11.1535
▁Usually	-11.1537
▁alike	-11.1539
only	-11.154
place	-11.1543
▁pin	-11.1544
hy	-11.1545
▁bands	-11.1553
▁revolution	-11.1554
▁cons	-11.1554
▁sir	-11.1559
▁duration	-11.1561
▁proceed	-11.1561
▁Otherwise	-11.1566
▁rec	-11.1566
pen	-11.1567
▁wins	-11.1569
▁mod	-11.1572
▁2014.	-11.1574
▁obligation	-11.1576
▁convince	-11.1576
▁scrap	-11.1577
▁sequence	-11.158
▁Shi	-11.1583
▁thrilled	-11.1585
cra	-11.1586
about	-11.1588
such	-11.1591
▁potatoes	-11.1592
vy	-11.1595
▁frustration	-11.1595
▁amenities	-11.1597
▁vitamin	-11.1602
▁appreciation	-11.1602
▁admission	-11.1603
▁waited	-11.1606
lon	-11.1606
▁knife	-11.1608
▁effectiveness	-11.1608
▁def	-11.161
▁ignored	-11.1614
▁showcase	-11.1615
▁considerable	-11.1615
gan	-11.1618
▁shine	-11.1621
▁panic	-11.1624
▁sa	-11.1626
▁cabin	-11.1626
▁folder	-11.1628
▁knock	-11.1628
▁unnecessary	-11.1629
▁supportive	-11.1634
LA	-11.1634
▁Char	-11.1637
▁arise	-11.1639
ea	-11.1641
▁1:	-11.1643
▁Jeff	-11.1644
ENT	-11.1645
hr	-11.1646
▁mold	-11.1646
▁Taking	-11.1649
▁references	-11.165
▁contents	-11.1652
▁2001	-11.1655
▁WE	-11.1658
face	-11.1661
▁Par	-11.1663
night	-11.1664
pped	-11.1666
under	-11.1668
▁Five	-11.1669
▁indoor	-11.1673
▁Lady	-11.1673
▁Agreement	-11.1675
▁Studies	-11.1676
▁beaches	-11.1676
▁brave	-11.1678
▁nonprofit	-11.1678
▁easiest	-11.1682
▁mask	-11.1689
▁composition	-11.1689
▁mainstream	-11.1694
▁pump	-11.1695
▁painted	-11.1696
▁discounts	-11.1698
iz	-11.1698
▁captured	-11.1703
▁specialists	-11.1705
▁Currently	-11.1708
▁Name	-11.1709
▁Ge	-11.171
▁theatre	-11.1711
▁waves	-11.1714
Just	-11.1715
▁Kids	-11.1716
load	-11.1721
▁disabilities	-11.1721
▁citizen	-11.1722
▁Annual	-11.1722
▁repeated	-11.1725
▁lean	-11.1726
▁shoulders	-11.1726
yes	-11.1728
▁realise	-11.1729
▁destruction	-11.1729
▁chips	-11.173
▁reverse	-11.1731
ically	-11.1735
▁appointed	-11.1736
hood	-11.1738
▁Kevin	-11.1739
▁romance	-11.1739
▁organize	-11.174
▁territory	-11.1741
PM	-11.1742
▁seal	-11.1744
▁utility	-11.1746
▁shade	-11.1748
▁intimate	-11.1749
▁boots	-11.1751
▁writes	-11.1754
▁logical	-11.1759
▁Fortunately	-11.176
▁Along	-11.1763
▁Mill	-11.1764
▁Doctor	-11.1764
▁ruling	-11.1767
▁clever	-11.1768
▁highlights	-11.1772
tail	-11.1773
▁retreat	-11.1774
▁brick	-11.1774
▁Ph	-11.1775
▁wildlife	-11.1779
▁prospect	-11.1782
ened	-11.1784
▁meditation	-11.1785
▁bottles	-11.1785
▁(3	-11.1787
▁instrument	-11.179
del	-11.179
Now	-11.1793
▁pollution	-11.1794
▁Dar	-11.1801
▁presidential	-11.1801
▁artwork	-11.1801
▁forums	-11.1802
▁threw	-11.1802
▁welfare	-11.1802
▁elderly	-11.1803
▁departments	-11.1806
▁quantity	-11.1806
▁expanded	-11.1809
▁Credit	-11.181
▁Las	-11.181
▁invested	-11.1813
▁bat	-11.1817
▁Experience	-11.1821
▁́	-11.1823
▁1999	-11.1833
▁Democratic	-11.1834
▁Mel	-11.1838
ju	-11.1838
▁mouse	-11.1839
▁Eastern	-11.1839
].	-11.184
▁recommendation	-11.1843
▁worthy	-11.1843
▁Ku	-11.1846
▁proposals	-11.1848
▁Apparently	-11.185
4%	-11.185
▁execution	-11.1854
tel	-11.1856
▁cart	-11.1861
▁extract	-11.1862
rich	-11.1862
▁acquired	-11.1863
▁pointing	-11.1864
▁Bad	-11.1867
▁Members	-11.187
▁tub	-11.187
▁Dean	-11.1873
▁roots	-11.1879
▁earnings	-11.188
▁enemies	-11.1882
▁donate	-11.1885
cul	-11.1885
▁winners	-11.1889
▁breed	-11.1891
▁drag	-11.1895
▁placement	-11.1897
▁steal	-11.1898
▁coal	-11.1898
▁Ac	-11.1902
▁Oct	-11.1902
ination	-11.1903
▁inflation	-11.1906
cus	-11.1907
▁sole	-11.1908
▁healthier	-11.191
▁jewelry	-11.1911
▁~	-11.1913
▁movements	-11.1914
test	-11.1919
▁grid	-11.192
▁genuinely	-11.1921
▁designing	-11.1923
▁dumb	-11.1928
▁Price	-11.193
▁swim	-11.1932
▁DE	-11.1932
▁fed	-11.1933
▁dispute	-11.1933
▁Winter	-11.1936
▁tours	-11.1938
▁countless	-11.1941
▁garbage	-11.1942
bed	-11.1943
ators	-11.1943
▁Bridge	-11.1944
▁notion	-11.1946
▁crossed	-11.1946
▁province	-11.1947
▁Better	-11.1948
▁distributed	-11.1948
▁Han	-11.1949
9%	-11.195
cut	-11.195
▁collecting	-11.195
▁amazed	-11.1951
▁delight	-11.1953
▁implementing	-11.1955
▁onions	-11.1957
▁votes	-11.1959
▁alternatives	-11.1959
▁prominent	-11.1959
▁Mu	-11.1961
▁feeding	-11.1967
▁Ve	-11.1972
▁celebrating	-11.1975
lea	-11.1976
▁laundry	-11.1977
▁Kong	-11.1978
▁Self	-11.198
▁Square	-11.1984
▁spell	-11.1987
▁lap	-11.1994
▁toxic	-11.1995
▁Phil	-11.1996
▁Sports	-11.1997
▁Son	-11.1997
▁Max	-11.2002
▁labour	-11.2004
▁opens	-11.2008
▁treasure	-11.201
“	-11.2011
▁friendship	-11.2013
▁NFL	-11.2014
▁consulting	-11.2017
▁underlying	-11.2017
NS	-11.2025
tes	-11.2025
▁indicates	-11.2025
▁guides	-11.2027
▁obligations	-11.2029
▁frozen	-11.2032
AC	-11.2034
▁seed	-11.2035
▁chip	-11.2037
▁stakeholders	-11.2037
non	-11.2039
▁spam	-11.2041
▁Louis	-11.2042
gra	-11.2048
▁HIV	-11.205
IA	-11.2051
Le	-11.2051
EC	-11.2052
▁basket	-11.2053
▁Golden	-11.2056
▁heal	-11.2059
▁Dream	-11.206
▁odds	-11.2062
▁shorter	-11.2064
card	-11.2066
▁Girl	-11.2066
▁troops	-11.2069
▁dozens	-11.207
▁limitations	-11.2071
▁sexy	-11.2071
6%	-11.2072
▁attempted	-11.2075
ett	-11.2075
▁ON	-11.2075
▁Reading	-11.2078
41	-11.2079
▁deserves	-11.2085
▁teen	-11.2088
▁10-	-11.2092
▁highway	-11.2093
▁couch	-11.2097
▁ni	-11.2098
qu	-11.2099
▁observe	-11.2103
▁Stone	-11.2105
▁welcoming	-11.2106
HA	-11.2107
▁Tech	-11.2109
▁beautifully	-11.2109
▁curve	-11.211
stop	-11.2112
▁newest	-11.2113
▁solely	-11.2113
▁ethical	-11.2117
▁liver	-11.2118
party	-11.2118
▁Fe	-11.2121
▁crying	-11.2122
▁suite	-11.2122
aging	-11.2123
▁conditioning	-11.213
1%	-11.2131
▁Te	-11.2134
▁tricks	-11.214
▁recruit	-11.2141
▁Depending	-11.2141
▁HR	-11.2143
▁yield	-11.2143
▁prospects	-11.2144
len	-11.2145
▁priorities	-11.2146
▁annually	-11.215
▁twin	-11.2151
▁theater	-11.2152
▁glance	-11.2152
▁compelling	-11.2156
UR	-11.2159
▁wrapped	-11.2168
▁Rome	-11.2169
▁blogger	-11.2171
▁contacted	-11.2172
▁flip	-11.2177
▁800	-11.2177
▁dropping	-11.2181
▁bow	-11.2181
▁alleged	-11.2183
▁analyze	-11.2185
ack	-11.2187
ched	-11.2187
▁checks	-11.2187
▁charm	-11.2188
▁woke	-11.2189
▁independence	-11.2189
▁leap	-11.219
▁consume	-11.219
▁praise	-11.2191
lie	-11.2193
▁marketplace	-11.2193
▁differ	-11.2195
46	-11.2195
▁texture	-11.2196
▁Airport	-11.2197
▁tourism	-11.2198
boy	-11.2199
▁HD	-11.2201
▁belong	-11.2203
▁bedrooms	-11.221
ini	-11.2211
▁uniform	-11.2211
▁batteries	-11.2212
▁retailers	-11.2215
▁2002	-11.2217
▁photograph	-11.2219
▁seemingly	-11.2219
▁Mass	-11.222
▁soap	-11.2221
At	-11.2221
▁fortunate	-11.2222
▁finds	-11.2223
▁booked	-11.2223
▁(3)	-11.2225
▁Speaking	-11.2226
▁Box	-11.2235
ony	-11.2237
range	-11.2238
2%	-11.2239
▁Toronto	-11.2243
Yeah	-11.2244
uc	-11.2245
▁applicants	-11.2248
▁250	-11.225
▁possession	-11.2251
▁accuracy	-11.2251
▁crystal	-11.2252
▁jumped	-11.2256
nce	-11.2257
▁str	-11.2263
-9	-11.2263
▁environments	-11.2264
▁dedication	-11.2264
▁instruments	-11.2265
▁snack	-11.2265
▁$8	-11.2272
▁Kate	-11.2274
▁pa	-11.2274
▁confusing	-11.2274
▁Pick	-11.2277
▁[...	-11.2277
▁tooth	-11.2277
▁trap	-11.2283
▁Enter	-11.2287
store	-11.2288
▁acceptance	-11.2288
▁concluded	-11.2288
▁specialized	-11.2293
▁Bear	-11.2294
▁Easy	-11.2295
▁arrangement	-11.2295
▁Mountain	-11.2297
▁Bull	-11.2302
rn	-11.2303
▁Series	-11.2306
64	-11.231
▁intake	-11.2312
▁podcast	-11.2315
Ho	-11.2315
til	-11.2317
▁operators	-11.2319
▁supplements	-11.2323
▁candy	-11.2323
▁Student	-11.2331
sive	-11.2331
ON	-11.2343
▁frequency	-11.2346
▁Mind	-11.2347
▁stack	-11.235
▁Wild	-11.235
▁legacy	-11.235
▁discrimination	-11.2352
▁suits	-11.2354
▁fer	-11.2355
▁Vo	-11.2355
▁Stephen	-11.2356
craft	-11.2356
▁speaks	-11.2356
fall	-11.2359
▁verify	-11.2363
▁Officer	-11.2364
IP	-11.2365
▁Ball	-11.2365
▁exhibit	-11.2367
▁dressing	-11.2368
▁resolved	-11.2368
▁funded	-11.2369
pers	-11.237
▁Buy	-11.237
▁Mobile	-11.2371
▁39	-11.2372
▁petition	-11.2372
▁desperate	-11.2374
▁gently	-11.2376
5,000	-11.2382
▁shed	-11.2387
▁Ann	-11.239
€	-11.2391
▁Seattle	-11.2395
▁churches	-11.2396
▁Bro	-11.2397
▁subtle	-11.24
▁warrant	-11.2402
▁universal	-11.2403
▁damages	-11.2406
▁connecting	-11.2406
▁indication	-11.2408
size	-11.2408
▁teens	-11.2414
42	-11.2414
▁Hong	-11.2414
▁coaches	-11.2415
ski	-11.2417
▁Imagine	-11.2419
▁contractor	-11.242
▁Say	-11.2421
▁substitute	-11.2424
”)	-11.2427
▁peers	-11.2427
Bo	-11.2427
▁Min	-11.2431
▁Organization	-11.2437
▁Cost	-11.2437
▁Download	-11.2441
▁Houston	-11.2445
-20	-11.2446
▁mutual	-11.2449
▁clue	-11.245
▁secrets	-11.2459
▁Perfect	-11.246
▁porn	-11.2461
ics	-11.2463
▁contributed	-11.2464
sur	-11.2464
▁hiking	-11.2466
▁Parliament	-11.2467
▁cur	-11.2467
▁drunk	-11.247
▁cultures	-11.2472
▁Email	-11.2475
▁Miami	-11.2475
▁sophisticated	-11.2476
▁refers	-11.2478
▁centuries	-11.2482
▁meters	-11.2483
▁balls	-11.2485
▁shocked	-11.2486
▁2013,	-11.2488
▁rep	-11.2493
▁Je	-11.2494
Mo	-11.2495
▁Dear	-11.2499
▁governor	-11.2501
▁44	-11.2503
lies	-11.2503
▁priced	-11.2504
▁AI	-11.2505
tch	-11.2506
▁safer	-11.2507
▁developments	-11.2509
▁moderate	-11.2509
▁trauma	-11.2519
▁Account	-11.2519
▁taxi	-11.252
▁dealt	-11.2525
▁producers	-11.2527
▁Update	-11.2527
▁meantime	-11.2529
▁Si	-11.2534
▁engineer	-11.2534
▁shook	-11.2541
▁Turkey	-11.2544
▁2012,	-11.2547
▁Senior	-11.2548
▁fitting	-11.2551
▁junk	-11.2552
▁chairs	-11.2555
▁trials	-11.2556
put	-11.2558
▁Jews	-11.256
▁modify	-11.2561
▁Arizona	-11.2561
UN	-11.2561
▁outdoors	-11.2562
▁happier	-11.2562
front	-11.2564
▁alter	-11.2567
▁reasonably	-11.2568
ters	-11.2568
lia	-11.2569
▁identifying	-11.2573
▁measured	-11.2573
▁Taylor	-11.2575
▁gardens	-11.2577
▁Ki	-11.2579
▁True	-11.2583
▁legally	-11.2584
▁accepting	-11.2584
▁Number	-11.2585
▁demonstrated	-11.2585
▁codes	-11.2589
▁breathe	-11.2592
▁locate	-11.2594
▁slide	-11.2595
▁demanding	-11.2595
▁addressing	-11.2597
▁Ya	-11.2598
▁exceed	-11.2598
▁Run	-11.2599
▁Link	-11.2599
▁genre	-11.26
▁slot	-11.26
▁Challenge	-11.26
▁ho	-11.2609
▁Ram	-11.261
NC	-11.2611
lee	-11.2612
▁tale	-11.2615
tri	-11.2618
▁bookmarks	-11.2628
▁tourists	-11.2629
▁corruption	-11.2633
▁Capital	-11.2634
▁defensive	-11.2634
▁snap	-11.2636
▁fears	-11.2637
▁crop	-11.2641
▁goodness	-11.2641
▁quest	-11.2643
▁awkward	-11.2644
▁120	-11.2645
▁fleet	-11.2646
br	-11.2647
▁conscious	-11.2652
yard	-11.2658
▁radical	-11.2659
cing	-11.266
▁unemployment	-11.2662
EL	-11.2665
▁apologize	-11.2667
fu	-11.267
GB	-11.2671
▁mi	-11.2675
▁pub	-11.2676
ering	-11.2676
▁blank	-11.2678
ME	-11.2683
▁instances	-11.2685
▁accompanied	-11.2686
VE	-11.2686
ular	-11.2686
▁finest	-11.2688
▁trace	-11.2688
▁Cook	-11.2689
▁Made	-11.2689
▁progressive	-11.2694
▁sail	-11.2694
▁hiding	-11.27
rin	-11.2701
RC	-11.2702
▁Except	-11.2703
ump	-11.2703
Lo	-11.2705
▁console	-11.2706
▁layers	-11.2711
▁Peace	-11.2713
▁Drive	-11.2721
▁kiss	-11.2722
▁shadow	-11.2722
▁founder	-11.2723
▁600	-11.2724
▁Ocean	-11.2727
▁Privacy	-11.2732
▁terminal	-11.2734
tan	-11.2737
▁Country	-11.2743
▁semester	-11.2746
▁Smart	-11.2746
▁visitor	-11.2749
▁Terms	-11.275
▁panels	-11.2751
▁vet	-11.2752
lf	-11.2754
▁affairs	-11.2754
▁northern	-11.2755
▁Professor	-11.2756
▁Mag	-11.2762
▁voices	-11.2762
▁educate	-11.2766
bin	-11.2768
▁Division	-11.2769
▁cater	-11.277
▁cave	-11.2771
und	-11.2773
▁YOUR	-11.2773
▁careers	-11.2774
▁stressed	-11.2774
▁1960	-11.2774
depth	-11.2775
▁stressful	-11.2776
▁rack	-11.2776
▁Ray	-11.278
▁shy	-11.278
▁Staff	-11.278
▁THIS	-11.278
▁ch	-11.278
▁sometime	-11.2783
cap	-11.2785
▁Latin	-11.2785
▁ghost	-11.2786
pin	-11.2789
▁Private	-11.279
▁Sales	-11.279
▁anxious	-11.279
▁artistic	-11.2791
▁Prince	-11.2791
▁bull	-11.2791
▁ne	-11.2793
▁Holiday	-11.2799
Go	-11.2804
▁heritage	-11.2804
▁bugs	-11.2805
▁64	-11.2806
▁producer	-11.2808
-0	-11.2808
▁mechanism	-11.2812
▁Za	-11.2812
▁lawn	-11.2813
▁cookie	-11.2816
▁determination	-11.2816
▁2020	-11.282
ston	-11.2824
▁3)	-11.2826
An	-11.2826
▁operated	-11.2828
?!	-11.2828
▁2013.	-11.2831
BA	-11.2832
SP	-11.2832
▁claiming	-11.2833
▁Member	-11.2833
▁Table	-11.2837
ear	-11.2838
ria	-11.284
▁buttons	-11.2841
▁comedy	-11.2846
▁celebrated	-11.2848
▁None	-11.285
▁performances	-11.285
▁viewers	-11.2853
▁2012.	-11.2854
▁preferences	-11.2855
▁bones	-11.2855
grade	-11.2856
▁pal	-11.2861
▁representing	-11.2863
▁robust	-11.2864
▁earning	-11.2865
▁THAT	-11.2866
lay	-11.2866
ses	-11.2871
▁1998	-11.2877
▁Euro	-11.2877
▁reserves	-11.2882
▁Village	-11.2882
era	-11.2884
▁spectrum	-11.2885
▁cleaned	-11.2886
space	-11.2886
▁listened	-11.289
pper	-11.289
▁grey	-11.2891
▁straightforward	-11.2892
▁closet	-11.2893
▁tactics	-11.2901
▁Meeting	-11.2901
▁Sen	-11.2906
▁stairs	-11.2908
verse	-11.2908
▁Muslim	-11.2909
▁5-	-11.2911
▁requiring	-11.2914
watch	-11.2918
▁rejected	-11.2924
▁grants	-11.2926
fish	-11.2926
▁rewarding	-11.293
▁Henry	-11.2932
▁jet	-11.2936
▁naked	-11.2936
▁tower	-11.2937
43	-11.2938
▁wheels	-11.2938
▁renewable	-11.2939
▁AC	-11.294
▁Natural	-11.294
▁Cam	-11.2941
▁stocks	-11.2943
▁Jane	-11.2943
▁disappear	-11.2943
▁responsive	-11.2943
▁homeless	-11.2944
▁beside	-11.2947
▁compromise	-11.2948
▁floors	-11.2955
▁formation	-11.2957
du	-11.2959
▁Diego	-11.296
▁fought	-11.2962
case	-11.2963
▁giveaway	-11.2964
▁favour	-11.2965
ele	-11.2973
▁reactions	-11.2974
▁designated	-11.2974
▁documentary	-11.2974
ration	-11.2974
▁ugly	-11.2975
▁concentrate	-11.2976
▁assumed	-11.298
▁McC	-11.2981
word	-11.2981
▁attendance	-11.2982
▁€	-11.2986
▁Korean	-11.2987
▁besides	-11.299
▁lazy	-11.2991
▁Dark	-11.2991
▁coconut	-11.2992
▁camping	-11.2996
▁costly	-11.2997
▁personalized	-11.2997
▁1.5	-11.3002
▁tennis	-11.3002
▁tends	-11.3004
▁Express	-11.3005
Thank	-11.3006
▁fails	-11.3014
▁sword	-11.3014
▁th	-11.3019
▁abandoned	-11.302
▁Tor	-11.302
▁bulk	-11.3021
▁animation	-11.3023
▁hint	-11.3024
ena	-11.3025
▁submission	-11.3026
using	-11.3029
▁ships	-11.3029
▁sheets	-11.3032
▁sneak	-11.3033
▁quietly	-11.3034
▁rewards	-11.3037
▁reveals	-11.304
▁shapes	-11.3041
▁screw	-11.3041
▁sustainability	-11.3042
▁implications	-11.3042
▁dough	-11.3042
▁gradually	-11.3043
▁departure	-11.3046
▁Economic	-11.3047
▁cock	-11.305
▁afterwards	-11.305
▁breach	-11.305
▁beloved	-11.3051
▁boundaries	-11.3053
ius	-11.3054
▁races	-11.3054
▁entity	-11.3056
order	-11.3059
▁Further	-11.3061
▁pretend	-11.3062
▁vintage	-11.3062
▁fastest	-11.3063
▁hub	-11.3064
▁Jason	-11.3064
▁alien	-11.3066
imp	-11.3066
▁cr	-11.3068
▁sweat	-11.3071
▁Going	-11.3072
98	-11.3075
▁conservation	-11.308
fit	-11.3082
▁displays	-11.3082
▁hence	-11.3084
▁Later	-11.3085
▁creatures	-11.3089
▁12.	-11.3091
▁adorable	-11.3091
▁repeatedly	-11.3092
▁basement	-11.3094
▁worries	-11.3095
▁Write	-11.3097
▁Fi	-11.3099
▁rape	-11.3101
▁enthusiasm	-11.3103
▁2-	-11.3107
▁apartments	-11.3107
OT	-11.3108
▁PDF	-11.311
minded	-11.311
▁precise	-11.311
roll	-11.3113
▁disposal	-11.3113
winning	-11.3114
▁squad	-11.3115
▁mechanical	-11.3117
▁gaining	-11.3118
▁agreements	-11.3121
ancy	-11.3122
▁Moon	-11.3124
▁arranged	-11.3124
▁pp	-11.3127
▁ate	-11.313
▁employ	-11.3131
▁attorneys	-11.3146
▁impacts	-11.315
▁Syria	-11.3152
▁Leave	-11.3154
▁nu	-11.3155
▁Jon	-11.3156
▁Personally	-11.3157
▁favorites	-11.3159
▁Fast	-11.316
▁ta	-11.3161
▁absorb	-11.3166
▁FA	-11.3167
▁neighbor	-11.3172
aid	-11.3173
▁contractors	-11.3175
▁41	-11.3178
▁fluid	-11.3179
▁agricultural	-11.318
▁passenger	-11.3182
▁hung	-11.3184
DS	-11.3185
▁Easter	-11.3186
▁Quality	-11.3187
▁cope	-11.3189
▁01	-11.319
▁disc	-11.3191
▁situated	-11.3192
68	-11.3193
▁Early	-11.3194
▁SC	-11.3195
▁wages	-11.3196
▁Third	-11.3197
▁releases	-11.3197
▁bookmark	-11.3197
▁processor	-11.32
▁tomato	-11.3201
▁punch	-11.3206
▁Must	-11.3207
▁elite	-11.3209
▁loyal	-11.3212
▁drops	-11.3214
▁transferred	-11.3221
▁educated	-11.3223
▁minimize	-11.3223
▁gains	-11.3224
▁module	-11.3226
▁mothers	-11.3227
▁emotion	-11.3227
▁cheer	-11.3228
▁thoughtful	-11.3229
▁immigrants	-11.323
▁Located	-11.3231
▁Writing	-11.3232
▁drain	-11.3232
ral	-11.3236
▁Bas	-11.3237
Man	-11.3241
▁Sydney	-11.3242
▁deficit	-11.3243
▁varied	-11.3243
▁satisfy	-11.3245
▁bored	-11.3245
▁darkness	-11.3246
▁preventing	-11.3246
▁agriculture	-11.3252
any	-11.3256
▁Regardless	-11.3265
▁funeral	-11.3265
▁counts	-11.327
▁neutral	-11.3271
▁Station	-11.3275
▁wing	-11.3275
▁Study	-11.3275
▁threatened	-11.3276
▁smiling	-11.3276
▁Silver	-11.3277
▁downloaded	-11.3277
▁thrive	-11.3278
▁User	-11.3278
86	-11.3279
rt	-11.3281
flow	-11.3282
▁occasional	-11.3284
▁Brazil	-11.3284
very	-11.3285
76	-11.3288
▁backed	-11.3288
▁jo	-11.3289
▁Avenue	-11.3293
▁appealing	-11.3294
▁neat	-11.3295
▁z	-11.3296
▁clarity	-11.3296
▁basics	-11.3296
▁selecting	-11.3296
▁Jay	-11.3298
▁lounge	-11.3301
▁solving	-11.3305
▁junior	-11.3305
▁49	-11.3306
▁tri	-11.3307
▁caution	-11.3307
▁Planning	-11.3308
▁lip	-11.3309
▁disclosure	-11.3311
▁Mexican	-11.3315
▁30-	-11.3319
after	-11.332
▁fate	-11.3323
worth	-11.3324
▁rational	-11.3326
▁laser	-11.3326
▁surprisingly	-11.333
▁infections	-11.3335
▁Brand	-11.3337
▁2:	-11.3338
▁Friends	-11.334
▁shoe	-11.3341
▁Baby	-11.3343
ox	-11.3344
ATION	-11.3345
▁kidney	-11.3346
ug	-11.3346
▁reserved	-11.3347
▁Recently	-11.3349
▁jumping	-11.3351
OL	-11.3355
sky	-11.3356
▁leverage	-11.3357
▁mall	-11.3358
▁attractions	-11.3363
aka	-11.3366
▁lawsuit	-11.337
▁poster	-11.3372
▁frustrated	-11.3375
▁Wal	-11.3377
▁fortune	-11.3377
▁promising	-11.338
ending	-11.3382
▁clo	-11.3384
▁theft	-11.3386
▁Elizabeth	-11.3387
▁URL	-11.3387
▁DNA	-11.3389
▁continually	-11.339
▁assure	-11.3393
▁	-11.3393
▁toast	-11.3398
ison	-11.34
▁paintings	-11.3401
Ha	-11.3404
▁climbing	-11.3406
▁grave	-11.3412
▁snacks	-11.3413
▁Attorney	-11.3414
▁sits	-11.3416
▁interactions	-11.3417
fo	-11.3418
▁closest	-11.3418
▁HERE	-11.3418
▁gotta	-11.3418
▁gratitude	-11.3419
ato	-11.3419
▁presentations	-11.342
▁tricky	-11.342
▁carries	-11.3423
gal	-11.3423
▁Seriously	-11.3423
▁readily	-11.3424
▁privilege	-11.3425
▁BBC	-11.3429
▁nutrients	-11.343
▁bench	-11.3431
▁Vietnam	-11.3433
▁fond	-11.3439
▁dramatically	-11.3441
ami	-11.3441
▁piano	-11.3442
MO	-11.3443
▁24-	-11.3445
▁Story	-11.3445
gram	-11.3447
▁Yo	-11.3449
▁MI	-11.3452
source	-11.3452
DA	-11.3453
▁violation	-11.3456
▁iOS	-11.3458
▁Oil	-11.3459
rest	-11.3459
▁vibrant	-11.3461
▁loading	-11.3462
▁relatives	-11.3466
▁hyper	-11.3467
▁biological	-11.3469
dent	-11.3469
dies	-11.3469
oma	-11.3469
▁capability	-11.3471
▁Va	-11.3472
▁exclusively	-11.3477
▁Reserve	-11.3481
▁fulfill	-11.3481
51	-11.3482
▁Joseph	-11.3485
▁deny	-11.3485
▁plugin	-11.3488
▁receipt	-11.3489
▁sunny	-11.3491
▁Constitution	-11.3493
ake	-11.3494
▁drill	-11.3497
ect	-11.3498
▁disk	-11.3501
▁Mid	-11.3501
▁qualities	-11.3504
▁Simon	-11.3505
▁Radio	-11.3507
▁pound	-11.3508
▁4-	-11.3509
▁Allow	-11.351
▁subscribe	-11.3511
▁Win	-11.3516
▁punishment	-11.3519
▁charging	-11.3519
▁Short	-11.3519
▁nodded	-11.3522
59	-11.3532
▁grandmother	-11.3535
hole	-11.3537
tics	-11.3537
outs	-11.3538
▁Pu	-11.3539
teen	-11.354
▁terrorist	-11.3542
▁suited	-11.3544
▁Field	-11.3547
▁consultant	-11.3547
▁tele	-11.3548
▁associate	-11.355
......	-11.355
▁Medicine	-11.3562
▁Jordan	-11.3564
▁practically	-11.3567
▁Spa	-11.3568
▁Cro	-11.3569
most	-11.357
▁Engineering	-11.3572
▁championship	-11.3572
▁musicians	-11.3574
▁integrate	-11.3581
TE	-11.3584
▁Turn	-11.3585
now	-11.3587
ction	-11.3592
qua	-11.3594
▁vegan	-11.3596
▁browsing	-11.3598
▁transparent	-11.36
▁li	-11.3603
Your	-11.3606
lines	-11.3607
▁anonymous	-11.3608
▁hassle	-11.3608
▁preference	-11.3609
onic	-11.3609
▁fl	-11.3609
▁pose	-11.3609
▁cord	-11.3609
▁jury	-11.3611
▁adventures	-11.3621
▁answering	-11.3621
▁Tea	-11.3621
▁Rick	-11.3624
▁towns	-11.3625
▁humble	-11.3625
▁Marine	-11.3625
▁automated	-11.3625
▁gig	-11.3627
▁collaborative	-11.3627
▁Grant	-11.3628
▁approaching	-11.3631
▁glory	-11.3631
▁tasty	-11.3631
▁journalists	-11.3639
88	-11.3641
These	-11.3642
▁wanna	-11.3642
▁43	-11.3643
▁aging	-11.3643
PO	-11.3644
▁Kar	-11.3646
▁Captain	-11.3649
▁avoiding	-11.3649
▁Nature	-11.365
▁wore	-11.3654
▁seller	-11.3655
SC	-11.3655
active	-11.3656
▁audiences	-11.3657
▁poetry	-11.3658
▁mentally	-11.366
SS	-11.3661
▁46	-11.3663
▁perception	-11.3664
▁cried	-11.3667
▁directory	-11.3667
pl	-11.3669
▁sisters	-11.367
▁tailored	-11.3675
▁Awards	-11.3677
lor	-11.3677
▁prospective	-11.3678
gmail	-11.3679
▁Bell	-11.3681
tive	-11.3682
▁shore	-11.369
▁knees	-11.3691
ata	-11.3693
▁keywords	-11.3695
hal	-11.3699
mission	-11.3699
â	-11.37
▁profitable	-11.3701
▁optimal	-11.3703
▁catching	-11.3705
On	-11.3709
▁Dead	-11.3712
▁Stra	-11.3713
▁browse	-11.3714
▁barriers	-11.3721
▁happily	-11.3725
▁wallet	-11.3728
▁Nevertheless	-11.3728
ame	-11.3729
din	-11.373
▁excellence	-11.3731
▁tube	-11.3731
▁Provide	-11.3732
FA	-11.3732
▁Pakistan	-11.3734
78	-11.3735
▁pipe	-11.3738
▁(4	-11.3738
other	-11.3738
▁poly	-11.374
▁contacts	-11.3741
▁buried	-11.3743
▁Pass	-11.3744
▁competing	-11.3745
especially	-11.3746
▁beneath	-11.3747
have	-11.3747
▁ju	-11.3749
▁parallel	-11.3752
▁magazines	-11.3756
With	-11.3756
▁ordering	-11.3756
▁Ste	-11.3757
lk	-11.3758
▁versus	-11.3762
ku	-11.3763
▁assuming	-11.3764
")	-11.3764
▁Environmental	-11.3764
▁spelling	-11.3766
▁mindset	-11.3767
▁prescribed	-11.3767
▁observation	-11.3767
born	-11.3769
▁identification	-11.3773
▁judges	-11.3774
▁poem	-11.3775
too	-11.3776
shirt	-11.3781
▁approached	-11.3782
km	-11.3783
▁Computer	-11.3787
▁arch	-11.3788
6.	-11.3791
▁trucks	-11.3795
▁magnificent	-11.3796
▁customized	-11.3798
▁stir	-11.3798
300	-11.38
▁$25	-11.38
▁2011,	-11.3801
▁BA	-11.3802
▁eaten	-11.3803
▁Tre	-11.3804
▁Low	-11.3804
▁stamp	-11.3805
▁portal	-11.3811
▁contributing	-11.3811
▁gal	-11.3826
▁Film	-11.3826
pon	-11.3827
▁credits	-11.3828
▁continuously	-11.3828
FC	-11.383
▁rocks	-11.383
▁Wales	-11.3833
▁exploration	-11.3834
▁valued	-11.3839
▁steep	-11.3841
▁Ty	-11.3845
▁Kelly	-11.3848
87	-11.385
▁Content	-11.385
▁footage	-11.3852
shire	-11.3855
▁$15	-11.3858
▁negotiations	-11.3859
▁Oregon	-11.3861
▁tattoo	-11.3863
▁Valentine	-11.3865
▁terrace	-11.3869
▁affecting	-11.3871
▁separated	-11.3872
▁10,000	-11.3874
▁Us	-11.3874
▁encountered	-11.3875
▁transparency	-11.3875
▁cloth	-11.3875
▁shortage	-11.3881
▁instructor	-11.3881
cer	-11.3883
▁insert	-11.3885
▁chill	-11.3887
▁temple	-11.3888
▁soccer	-11.3888
▁programmes	-11.3891
▁swear	-11.3891
▁Yu	-11.3891
▁Hell	-11.3893
▁Angel	-11.3894
▁jurisdiction	-11.3897
position	-11.3903
▁makers	-11.3905
▁incidents	-11.3908
▁nightmare	-11.3908
▁Del	-11.3909
▁Return	-11.3909
▁wound	-11.3911
▁ranking	-11.3914
BS	-11.3916
▁Upon	-11.3919
▁hosts	-11.392
▁seasonal	-11.3921
ctor	-11.3924
tting	-11.3924
▁Net	-11.3924
▁su	-11.3924
▁Standard	-11.3926
▁NA	-11.3926
400	-11.3928
▁terrific	-11.393
type	-11.3931
▁Eve	-11.3931
▁nap	-11.3936
vert	-11.3939
▁comparable	-11.3943
tru	-11.3944
56	-11.3948
▁spoil	-11.3948
lum	-11.395
▁gluten	-11.3952
TV	-11.3959
▁loyalty	-11.3961
▁52	-11.3961
▁drew	-11.3961
▁Forest	-11.3962
▁dude	-11.3962
▁bay	-11.3965
▁Luckily	-11.3967
▁radiation	-11.397
▁ecosystem	-11.3971
▁twelve	-11.3974
▁Others	-11.3976
▁fur	-11.398
als	-11.3985
▁coin	-11.3986
▁supplier	-11.399
▁spark	-11.3991
▁declined	-11.3991
▁tablets	-11.3992
67	-11.3994
burg	-11.3994
▁acres	-11.3995
▁cotton	-11.3996
▁miracle	-11.3998
▁Final	-11.3998
▁needing	-11.3999
when	-11.4001
ace	-11.4003
▁Major	-11.4004
▁attracted	-11.4014
▁Finance	-11.4016
▁treats	-11.4018
TC	-11.4018
61	-11.4024
▁collapse	-11.4025
▁devoted	-11.4027
▁Type	-11.4027
east	-11.4027
54	-11.4029
▁compound	-11.4029
▁admin	-11.4032
▁weekends	-11.4033
▁graduated	-11.4034
▁kindness	-11.4035
▁operator	-11.4037
gent	-11.4038
mel	-11.404
▁Illinois	-11.4041
▁tan	-11.4042
7.	-11.4042
atory	-11.4042
▁abstract	-11.4044
▁woods	-11.4044
▁suggesting	-11.4045
▁Kansas	-11.4048
▁tastes	-11.4049
▁inevitable	-11.4049
▁modified	-11.4052
▁wings	-11.4054
▁Bowl	-11.4054
late	-11.4055
▁replacing	-11.4056
▁mono	-11.4058
▁Death	-11.4058
▁2010,	-11.406
▁complexity	-11.4064
▁discretion	-11.4064
ero	-11.4067
▁banned	-11.4067
▁fo	-11.407
▁veterans	-11.4072
▁cabinet	-11.4072
▁dairy	-11.4073
▁burst	-11.4073
▁pickup	-11.4074
97	-11.4075
▁fatigue	-11.4076
▁deemed	-11.4077
▁financially	-11.4081
▁mandatory	-11.4085
▁athletic	-11.4085
▁freely	-11.4085
▁neuro	-11.4093
▁Tree	-11.4095
▁oils	-11.4096
▁carrier	-11.4098
▁meta	-11.4099
▁Yesterday	-11.41
▁enabling	-11.4101
▁useless	-11.4103
▁charming	-11.4104
looking	-11.4106
▁stays	-11.4109
▁Nu	-11.411
▁behave	-11.411
▁emotionally	-11.4111
▁assembly	-11.4112
▁unlimited	-11.4115
ros	-11.4116
▁Afghanistan	-11.4118
wise	-11.4118
▁passport	-11.4119
▁bonds	-11.412
▁login	-11.4122
▁ruin	-11.4122
▁lobby	-11.4123
▁max	-11.4127
▁Charlie	-11.4127
▁phenomenon	-11.4129
▁consuming	-11.413
▁altogether	-11.413
▁Cancer	-11.413
▁Governor	-11.4131
▁scholarship	-11.4132
▁streaming	-11.4135
▁grain	-11.4137
die	-11.4145
kind	-11.4146
▁widespread	-11.4147
hn	-11.4148
▁marine	-11.4148
▁!	-11.4149
9.	-11.4152
▁installing	-11.4153
▁Er	-11.416
▁ranked	-11.4161
▁awhile	-11.4163
▁fever	-11.4163
▁champion	-11.4163
▁variable	-11.4165
▁1997	-11.4167
▁Qua	-11.4168
▁overwhelmed	-11.4168
▁applicant	-11.4168
ening	-11.4172
▁Years	-11.4173
▁mysterious	-11.4175
▁wow	-11.4175
57	-11.4176
▁newspapers	-11.4176
▁freak	-11.4177
▁sounded	-11.4178
▁unfair	-11.4178
▁guided	-11.4183
▁controversial	-11.4184
▁Cri	-11.4185
▁nest	-11.4188
▁GM	-11.4188
▁Ju	-11.4188
▁stylish	-11.419
▁desires	-11.4191
▁bang	-11.4191
▁ratings	-11.4198
▁kicked	-11.4198
▁Fort	-11.4199
▁accent	-11.4199
▁Matthew	-11.4201
▁minority	-11.4201
▁Egypt	-11.4202
▁Product	-11.4205
▁pe	-11.4205
▁mate	-11.4208
▁directors	-11.4208
▁restricted	-11.4213
▁grabbed	-11.4214
code	-11.4215
self	-11.4217
▁survived	-11.4219
▁Austin	-11.4223
season	-11.4232
pping	-11.4232
▁motorcycle	-11.4234
▁(5	-11.4237
▁therapist	-11.4239
▁Pop	-11.4239
▁cousin	-11.424
▁Arab	-11.424
▁portable	-11.4241
▁Consumer	-11.4241
▁supplied	-11.4243
▁cooling	-11.4243
▁Large	-11.4246
▁Practice	-11.4247
ography	-11.4247
▁Forum	-11.4248
▁Custom	-11.4251
▁shelf	-11.4252
Good	-11.4258
▁gum	-11.4259
▁Columbia	-11.4261
▁veteran	-11.4262
▁boil	-11.4262
▁considerably	-11.4263
▁Victoria	-11.4263
▁reservation	-11.4264
dale	-11.4265
▁Carl	-11.4266
▁argued	-11.4266
▁owe	-11.4267
its	-11.4267
▁attacked	-11.4273
▁Sadly	-11.4275
▁smoothly	-11.4276
▁printer	-11.4276
hard	-11.4277
▁avoided	-11.4279
▁Quick	-11.428
Ba	-11.4281
▁Op	-11.4281
▁$9	-11.4282
▁sustain	-11.4282
▁syndrome	-11.4283
▁Congratulations	-11.4283
96	-11.4284
▁Future	-11.4285
DE	-11.4285
▁mar	-11.4285
▁burned	-11.4286
▁justify	-11.4286
effective	-11.4288
action	-11.4288
nal	-11.429
72	-11.4291
▁appliances	-11.4292
ked	-11.4295
▁99	-11.4295
▁accordingly	-11.4296
hold	-11.4297
▁oxygen	-11.4299
▁Authority	-11.43
▁supervisor	-11.4301
▁functioning	-11.4304
▁hey	-11.4304
▁Judge	-11.4305
▁hack	-11.4307
▁authorized	-11.4308
▁reflects	-11.431
▁Avoid	-11.4311
▁ethnic	-11.4311
▁solved	-11.4315
try	-11.4317
TO	-11.4318
▁Pretty	-11.4319
▁enhanced	-11.4321
▁terror	-11.4322
▁CS	-11.4325
▁Atlanta	-11.4326
▁Notice	-11.4328
ache	-11.4328
▁Anna	-11.4329
▁ties	-11.433
▁premises	-11.4331
▁palm	-11.4333
your	-11.4333
▁surgeon	-11.4335
▁notification	-11.4335
dog	-11.4336
sc	-11.4341
89	-11.4343
mg	-11.4344
▁Bio	-11.4348
▁worrying	-11.4348
▁secured	-11.4349
▁£2	-11.4349
▁stall	-11.4349
ici	-11.435
▁Fun	-11.4354
▁bin	-11.4356
▁Level	-11.4358
▁matching	-11.4361
▁Together	-11.4362
▁360	-11.4364
▁individually	-11.4371
▁publications	-11.4371
▁perceived	-11.4375
phone	-11.4379
▁Mix	-11.438
▁gray	-11.438
▁Susan	-11.438
eo	-11.4383
▁Software	-11.4385
▁recognise	-11.4388
62	-11.4389
eth	-11.439
▁blessing	-11.4396
▁bucket	-11.4396
▁respected	-11.4399
▁homeowners	-11.4403
▁struggled	-11.4403
▁Nobody	-11.4404
▁ensures	-11.4404
▁vertical	-11.4406
▁FBI	-11.4407
▁Labour	-11.4408
ill	-11.4412
▁crossing	-11.4413
▁entities	-11.4414
Star	-11.4415
▁scent	-11.4416
▁spreading	-11.4417
▁suck	-11.4417
▁pursuit	-11.4418
▁Band	-11.4418
▁emerge	-11.442
ites	-11.4423
market	-11.4425
html	-11.4426
start	-11.4426
▁Estate	-11.4433
▁specify	-11.4435
writing	-11.4436
▁staring	-11.4436
▁startup	-11.4436
▁Miller	-11.4438
▁essence	-11.4438
▁invoice	-11.4438
▁regarded	-11.4439
RO	-11.444
▁recruitment	-11.4442
burn	-11.4446
▁Focus	-11.4447
▁determining	-11.4448
▁withdrawal	-11.445
▁Trans	-11.4451
▁midnight	-11.4452
nia	-11.4454
▁72	-11.4455
▁Wait	-11.4455
▁Course	-11.4461
▁establishing	-11.4461
LO	-11.4463
ATE	-11.4465
▁gra	-11.4467
▁1996	-11.4469
ried	-11.4469
▁packing	-11.447
73	-11.447
▁Cut	-11.4471
cm	-11.4475
▁containers	-11.4476
ye	-11.4477
▁daughters	-11.4478
IM	-11.4479
▁Convention	-11.448
will	-11.448
▁hobby	-11.448
▁($	-11.4481
▁wellness	-11.4481
eb	-11.4481
▁orientation	-11.4486
▁enjoys	-11.4487
▁refreshing	-11.4487
▁bicycle	-11.4488
▁reject	-11.4488
fin	-11.4491
▁modest	-11.4492
shop	-11.4492
▁flesh	-11.4495
ult	-11.4496
▁grows	-11.4499
▁cleared	-11.4499
84	-11.45
▁faithful	-11.4502
Some	-11.4503
▁strengths	-11.4505
▁branches	-11.4507
▁Cloud	-11.4512
▁existed	-11.4513
▁Modern	-11.4514
▁produces	-11.4517
cker	-11.4518
▁Sept	-11.4518
used	-11.4519
▁(“	-11.4521
▁maximize	-11.4522
▁2.5	-11.4522
▁beating	-11.4523
▁rubber	-11.4524
▁grill	-11.4526
▁Between	-11.4527
▁Companies	-11.4528
▁grades	-11.4528
▁compact	-11.4528
▁anticipated	-11.4528
▁2.0	-11.4529
▁Premier	-11.4531
▁Seven	-11.4532
▁executives	-11.4533
▁optional	-11.4534
71	-11.4536
RI	-11.4539
▁facial	-11.4539
▁Bal	-11.454
▁Magic	-11.4543
aver	-11.4549
▁Manchester	-11.4551
▁Unit	-11.4553
▁emerged	-11.4554
▁practicing	-11.4555
▁stumbled	-11.4556
▁recycling	-11.4556
Ex	-11.4557
vent	-11.4557
door	-11.456
▁Eye	-11.4562
▁colleges	-11.4565
▁cognitive	-11.4566
▁counting	-11.4567
▁Model	-11.4572
▁Fed	-11.4573
▁Assembly	-11.4573
▁Labor	-11.4574
▁firmly	-11.4577
▁90%	-11.4579
xi	-11.458
than	-11.4581
▁contrary	-11.4581
ail	-11.4583
▁graduation	-11.4584
▁vent	-11.4585
cess	-11.4585
▁Pennsylvania	-11.4587
▁cosmetic	-11.4589
Un	-11.4594
▁labels	-11.4596
52	-11.4596
ula	-11.4596
Qu	-11.4597
▁automobile	-11.4597
▁bits	-11.46
▁2011.	-11.4602
green	-11.4603
ivity	-11.4605
chan	-11.4605
▁Application	-11.4609
band	-11.4609
▁conducting	-11.4611
▁scoring	-11.4613
▁Amy	-11.4614
▁Pri	-11.4615
bling	-11.4617
79	-11.4619
▁Send	-11.462
▁30%	-11.4623
▁paste	-11.4625
▁LED	-11.4625
▁winds	-11.4625
▁Bureau	-11.4626
▁Systems	-11.4628
maker	-11.4629
CK	-11.4629
TER	-11.463
▁Ob	-11.4636
▁disappeared	-11.4638
63	-11.464
▁responding	-11.4642
▁nurses	-11.4643
GE	-11.4646
▁pumpkin	-11.4646
lt	-11.4646
walk	-11.4647
ND	-11.4648
▁graph	-11.4648
▁chi	-11.4648
▁AD	-11.4649
▁consciousness	-11.4649
91	-11.4651
▁corporation	-11.4652
▁fa	-11.4654
▁Close	-11.4654
▁booth	-11.4656
EA	-11.4659
▁Fo	-11.4659
▁stem	-11.4663
...”	-11.4664
▁Com	-11.4664
▁constructed	-11.4666
▁mere	-11.4668
▁Figure	-11.4668
▁rated	-11.467
▁Wilson	-11.4674
▁Davis	-11.4677
▁freeze	-11.4678
ifying	-11.4678
▁striking	-11.4679
▁crown	-11.4684
82	-11.4687
lift	-11.4689
58	-11.4689
ister	-11.469
▁fi	-11.4691
▁defence	-11.4692
▁backpack	-11.4693
▁vacuum	-11.4694
▁onion	-11.4696
▁pressing	-11.4696
▁accurately	-11.4697
▁nasty	-11.4698
▁Side	-11.47
▁commented	-11.47
▁guilt	-11.4705
▁ARE	-11.4705
▁racial	-11.4707
▁tunnel	-11.4713
berry	-11.4714
▁nearest	-11.4716
53	-11.4717
▁attain	-11.4718
▁homemade	-11.472
EE	-11.4721
▁actress	-11.4721
▁Ron	-11.4722
▁mill	-11.4723
▁generic	-11.4723
▁welcomed	-11.4724
▁vitamins	-11.4733
▁Job	-11.4734
mus	-11.4737
▁hop	-11.4739
▁reaches	-11.4739
▁challenged	-11.4741
rc	-11.4745
▁investor	-11.4746
▁influenced	-11.4747
▁complications	-11.4747
▁fe	-11.4747
▁durable	-11.475
▁farming	-11.4752
▁routes	-11.4753
▁bundle	-11.4754
▁47	-11.4755
▁deleted	-11.4758
Hey	-11.4759
▁skirt	-11.4771
▁ballot	-11.4774
▁physics	-11.4777
ell	-11.4778
▁imagined	-11.478
▁lighter	-11.4781
▁transit	-11.4781
▁jeans	-11.4782
cro	-11.4782
▁fundraising	-11.4783
69	-11.4784
▁Cre	-11.4784
▁shipped	-11.4785
▁convicted	-11.4787
owned	-11.4789
▁Whenever	-11.479
▁Anne	-11.4792
IVE	-11.4793
▁strictly	-11.4793
▁Dick	-11.4794
▁earthquake	-11.4796
▁Answer	-11.4796
▁signals	-11.4797
mes	-11.48
▁wipe	-11.4801
▁identical	-11.4801
▁Championship	-11.4804
ano	-11.4805
mic	-11.4805
▁turkey	-11.4805
▁Motor	-11.4806
▁mobility	-11.4807
▁navigation	-11.4808
▁divide	-11.481
▁bare	-11.4812
▁quoted	-11.4813
▁lover	-11.4815
▁TIP	-11.4815
▁captain	-11.4818
▁Sound	-11.4818
▁journalist	-11.4822
▁admire	-11.4822
▁compassion	-11.4825
▁Cool	-11.4825
▁briefly	-11.4827
▁backyard	-11.4829
▁Atlantic	-11.4829
▁LOL	-11.4835
▁continent	-11.4835
▁1950	-11.484
▁ye	-11.484
▁sw	-11.4846
▁ft	-11.4848
▁boom	-11.4848
▁describing	-11.4851
74	-11.4853
▁lyrics	-11.4858
▁struggles	-11.4862
▁dried	-11.4863
fl	-11.4864
▁sized	-11.4865
because	-11.4871
▁epic	-11.4873
pot	-11.4877
▁evolved	-11.4879
LD	-11.4879
▁preview	-11.4879
▁DA	-11.488
▁bitter	-11.4881
▁broader	-11.4882
▁Common	-11.4882
▁rings	-11.4882
▁Simple	-11.4882
▁finances	-11.4883
▁Print	-11.4886
▁attraction	-11.4887
▁Paper	-11.4889
▁trails	-11.4889
roid	-11.4889
ene	-11.4892
▁libraries	-11.4892
▁Patrick	-11.4892
▁banner	-11.4897
▁cottage	-11.4899
▁gambling	-11.4899
▁pause	-11.4899
▁Cur	-11.4899
▁Feb	-11.4901
▁simultaneously	-11.4904
▁dessert	-11.4908
▁affair	-11.4909
ional	-11.4909
▁rub	-11.491
▁Rich	-11.491
▁RA	-11.491
▁teaches	-11.4912
▁tags	-11.4916
▁Islamic	-11.4916
▁Magazine	-11.4919
▁13.	-11.4919
live	-11.4921
▁Lisa	-11.4921
▁dealer	-11.4921
▁custody	-11.4923
▁spec	-11.4927
▁§	-11.4928
▁dip	-11.4928
▁vegetable	-11.4929
▁touching	-11.4931
▁inclusive	-11.4934
▁equality	-11.4935
▁pasta	-11.4937
pat	-11.4939
▁explosion	-11.4939
ii	-11.494
▁Animal	-11.4942
▁obtaining	-11.4944
▁cannabis	-11.4945
lier	-11.4946
▁tick	-11.495
▁declare	-11.4951
La	-11.4951
▁vendor	-11.4952
though	-11.4952
▁controller	-11.4953
els	-11.496
▁enthusiastic	-11.496
▁bride	-11.4961
▁Cover	-11.4961
▁purple	-11.4964
rid	-11.4966
building	-11.4967
▁Fan	-11.4968
▁eco	-11.4975
▁bake	-11.4975
▁momentum	-11.4976
▁urgent	-11.4981
▁PO	-11.4983
▁viable	-11.4984
▁monster	-11.4985
▁dr	-11.4986
▁promotional	-11.4986
ulate	-11.4986
▁blocked	-11.4988
▁patio	-11.4989
▁puzzle	-11.499
NO	-11.4992
▁stating	-11.4993
▁generating	-11.5
▁analytics	-11.5
▁duck	-11.5001
speed	-11.5001
las	-11.5004
▁inexpensive	-11.5008
ls	-11.5011
92	-11.5012
▁Dallas	-11.5013
▁2010.	-11.5014
edge	-11.5016
▁costume	-11.502
▁sentiment	-11.502
bri	-11.5022
bel	-11.5023
▁Description	-11.5024
sey	-11.5027
▁glimpse	-11.5028
road	-11.5028
▁undoubtedly	-11.5028
▁appointments	-11.5029
▁competent	-11.5029
▁Generally	-11.5031
Can	-11.5031
▁confidential	-11.5031
▁soda	-11.5032
▁haul	-11.5033
▁timeline	-11.5034
click	-11.5034
▁Ash	-11.5036
▁Hol	-11.5036
▁Body	-11.5037
▁destinations	-11.5037
mile	-11.5038
▁mailing	-11.504
bot	-11.504
▁stranger	-11.5041
▁stake	-11.5041
▁Amazing	-11.5042
People	-11.5043
▁fatal	-11.5044
▁cre	-11.5045
▁bullet	-11.5045
▁boats	-11.5046
Of	-11.5049
▁complaining	-11.5051
▁parameters	-11.5051
▁aesthetic	-11.5052
▁partnerships	-11.5052
▁opponent	-11.5052
▁scare	-11.5053
ulation	-11.5055
▁terrorism	-11.5056
▁sketch	-11.506
▁Len	-11.5065
▁80%	-11.5066
bal	-11.5072
▁bikes	-11.5073
▁rounds	-11.5073
▁participated	-11.5078
▁protective	-11.5078
▁Wil	-11.5079
▁chamber	-11.508
▁submitting	-11.5081
▁democratic	-11.5083
▁sentences	-11.5088
▁wrist	-11.509
▁suspension	-11.509
iff	-11.509
▁beta	-11.5091
▁Cape	-11.5092
▁warehouse	-11.5093
▁counsel	-11.5093
▁uncertainty	-11.5094
cc	-11.5095
▁OP	-11.5096
▁Roll	-11.5098
▁encouragement	-11.5099
▁Alan	-11.5099
rac	-11.51
▁tu	-11.5102
blog	-11.5103
commerce	-11.5104
▁cups	-11.5109
▁Saudi	-11.5112
▁sheep	-11.5113
94	-11.5115
▁structural	-11.5116
▁ruled	-11.5116
▁batch	-11.5116
▁sons	-11.5118
▁Mer	-11.5118
▁nationwide	-11.512
▁poorly	-11.5121
▁operates	-11.5127
▁novels	-11.5128
▁occupation	-11.5129
million	-11.513
▁sadly	-11.513
gin	-11.5139
ase	-11.5139
▁dec	-11.5143
▁strikes	-11.5144
▁Foreign	-11.5145
human	-11.5145
▁ver	-11.5146
▁presenting	-11.5147
▁Linux	-11.5148
▁ob	-11.5152
▁cor	-11.5153
▁threatening	-11.5154
▁dare	-11.5157
▁Minnesota	-11.5157
▁rope	-11.5158
▁allegations	-11.5159
▁Ly	-11.516
▁profiles	-11.5161
▁updating	-11.5162
▁marry	-11.5163
body	-11.5164
▁grief	-11.5169
▁counseling	-11.517
▁refugees	-11.5171
▁respectively	-11.5171
▁arriving	-11.5172
▁talents	-11.5177
zer	-11.5187
▁landed	-11.5188
tom	-11.5192
▁pole	-11.5193
▁profound	-11.5194
▁honour	-11.5198
▁consecutive	-11.5199
NE	-11.5199
▁hardest	-11.5199
▁consistency	-11.5203
ique	-11.5206
▁ranks	-11.5207
makers	-11.5208
▁fold	-11.521
▁lovers	-11.5211
▁refrigerator	-11.5212
▁Olympic	-11.5213
Mi	-11.5214
▁psychology	-11.5214
▁Amendment	-11.5218
BC	-11.5218
▁relieve	-11.522
▁HE	-11.5221
▁balcony	-11.5223
▁24/7	-11.5225
▁unfortunate	-11.5228
▁distant	-11.5228
ock	-11.5229
▁Mail	-11.523
nate	-11.5231
▁cartoon	-11.5233
▁castle	-11.5236
▁Resources	-11.5236
▁chaos	-11.5238
▁gaze	-11.5239
▁genius	-11.5241
▁traditions	-11.5241
▁evident	-11.5241
▁harassment	-11.5241
▁$500	-11.5244
▁tuned	-11.5245
▁dual	-11.5246
▁tragedy	-11.5246
check	-11.5249
▁Basically	-11.525
▁complement	-11.5252
▁nerve	-11.5254
▁Steven	-11.5254
▁convention	-11.5255
▁reflected	-11.5255
▁correction	-11.5255
▁toddler	-11.5256
inter	-11.5256
▁Luke	-11.5256
▁seniors	-11.5256
▁deadly	-11.5258
▁sewing	-11.526
▁satisfying	-11.5262
▁rhythm	-11.5264
▁holy	-11.5264
▁pros	-11.5265
EP	-11.5265
▁blanket	-11.5266
▁1995	-11.5266
▁scenarios	-11.5268
▁inclusion	-11.5269
▁Pack	-11.5269
▁Case	-11.5271
▁FI	-11.5273
▁measuring	-11.5273
▁com	-11.5274
▁essays	-11.5282
▁cents	-11.5282
▁Rep	-11.5282
▁suspected	-11.5287
▁plates	-11.5289
acy	-11.5294
▁ambitious	-11.5296
working	-11.5298
ati	-11.5301
▁12-	-11.5301
▁manifest	-11.5302
pet	-11.5302
tur	-11.5303
▁conferences	-11.5303
hol	-11.5304
ered	-11.5306
▁sore	-11.5306
▁realised	-11.5309
▁25%	-11.531
FF	-11.5311
▁5%	-11.5311
▁underground	-11.5313
▁computing	-11.5313
▁manufacture	-11.5317
▁liable	-11.5317
▁maker	-11.532
▁#2	-11.5323
▁proceedings	-11.5323
▁sustained	-11.5325
▁circles	-11.5326
▁comp	-11.5326
▁Dog	-11.5327
▁Soon	-11.533
▁graduates	-11.533
▁rally	-11.5331
oriented	-11.5331
▁gossip	-11.5335
▁delayed	-11.5335
▁seating	-11.5336
▁2009,	-11.5336
group	-11.534
▁surf	-11.534
▁Maria	-11.534
▁revenues	-11.5342
bus	-11.5345
▁alternate	-11.5345
▁highlighted	-11.5346
▁Navy	-11.5348
▁companion	-11.5349
▁Secret	-11.535
▁inviting	-11.5351
▁tuition	-11.5352
media	-11.5353
▁Greg	-11.5353
▁withdraw	-11.5355
although	-11.5356
▁significance	-11.5356
▁Greece	-11.5356
bank	-11.5357
▁encourages	-11.5357
▁bubble	-11.5359
▁wished	-11.536
600	-11.5362
▁reportedly	-11.5367
▁longest	-11.537
See	-11.5372
ded	-11.5373
▁tragic	-11.5374
▁colorful	-11.5374
sch	-11.5375
▁gr	-11.5375
▁adverse	-11.5376
▁Orange	-11.5378
written	-11.5385
▁Islam	-11.5386
Please	-11.5387
▁Arm	-11.5389
▁Vice	-11.539
ute	-11.5392
▁reset	-11.5393
driven	-11.5394
▁tire	-11.5395
▁Drug	-11.5399
▁85	-11.5402
▁intensive	-11.5402
▁cancellation	-11.5405
▁cooler	-11.5408
▁verse	-11.5408
▁pressed	-11.541
▁Comment	-11.5411
▁surroundings	-11.5412
arch	-11.5412
▁villa	-11.5414
▁attach	-11.5415
▁executed	-11.5416
▁sticking	-11.5417
▁pur	-11.5417
cost	-11.5418
▁Jean	-11.5419
▁Author	-11.5419
▁cleaner	-11.5419
▁suspended	-11.542
▁51	-11.542
▁screens	-11.5422
▁Ze	-11.5422
▁honored	-11.5423
▁compatible	-11.5424
▁outlets	-11.5424
web	-11.5425
▁airline	-11.5427
▁substances	-11.5427
▁pursuing	-11.5428
lot	-11.5429
▁Rev	-11.543
▁Philadelphia	-11.5431
▁ga	-11.5431
▁col	-11.5432
nn	-11.5435
cept	-11.5435
▁entrepreneur	-11.5436
amp	-11.544
▁fitted	-11.5443
city	-11.5446
▁hydro	-11.5447
▁(8	-11.5454
▁Bitcoin	-11.5455
▁Jr	-11.5455
▁Wars	-11.5458
▁stones	-11.5458
pu	-11.546
}	-11.5461
▁venues	-11.5462
▁medal	-11.5462
▁pi	-11.5466
▁31,	-11.5467
▁bass	-11.5469
▁optimization	-11.5469
▁legend	-11.5469
▁propose	-11.547
▁Fish	-11.5471
▁underneath	-11.5473
▁introducing	-11.5474
▁Mayor	-11.5475
▁2008,	-11.5476
▁zip	-11.5476
▁Industry	-11.5478
open	-11.5478
▁Blood	-11.5479
▁launching	-11.5482
▁hilarious	-11.5484
▁offerings	-11.5485
▁forgive	-11.5485
▁herbs	-11.5487
▁folk	-11.5488
stock	-11.5489
▁Andy	-11.5489
▁unto	-11.549
▁Prior	-11.5494
▁barrier	-11.5494
▁albums	-11.5495
▁cycling	-11.5495
master	-11.5496
▁dial	-11.5496
▁lacking	-11.5497
▁collaborate	-11.5499
▁ONE	-11.5499
▁approve	-11.55
▁sponsored	-11.5504
▁uncle	-11.5505
▁Tower	-11.5506
▁tropical	-11.5508
▁injection	-11.551
▁Gre	-11.551
▁Coach	-11.5518
mas	-11.552
▁supermarket	-11.5522
▁gesture	-11.5523
▁ST	-11.5523
▁NEW	-11.5523
aged	-11.5524
▁clarify	-11.5524
▁governance	-11.5526
▁donated	-11.5527
▁licence	-11.5527
▁Photo	-11.5527
▁notified	-11.5527
▁RSS	-11.5528
▁paths	-11.5529
▁notify	-11.5531
shed	-11.5531
▁pun	-11.5533
-11	-11.5534
▁isolated	-11.5535
▁ingredient	-11.5541
▁Parents	-11.5543
▁pays	-11.5544
▁peanut	-11.5544
▁converted	-11.5545
▁organizing	-11.5546
▁Iowa	-11.5547
cular	-11.5548
▁AR	-11.5548
▁electronics	-11.5548
stream	-11.555
▁convincing	-11.5551
81	-11.5553
five	-11.5558
▁behaviors	-11.556
▁scar	-11.5563
▁clause	-11.5564
▁organised	-11.5565
lation	-11.5565
▁potato	-11.5565
▁bargain	-11.5571
▁sofa	-11.5572
▁USB	-11.5573
▁Sweet	-11.5573
▁physicians	-11.5574
▁obstacles	-11.5574
ask	-11.5577
▁ja	-11.5577
fect	-11.5578
▁restoration	-11.5579
▁nevertheless	-11.5582
▁floating	-11.5585
▁manually	-11.5585
GA	-11.5585
OM	-11.5587
▁Corporation	-11.5588
▁Lewis	-11.5589
▁variables	-11.5589
▁pond	-11.559
▁AP	-11.5592
▁titled	-11.5592
▁sunset	-11.5592
▁Ce	-11.5594
▁decor	-11.5596
▁ultra	-11.5596
▁reporters	-11.5596
▁Mini	-11.5596
▁pupils	-11.5597
edu	-11.5601
▁flavour	-11.5601
▁baked	-11.5602
▁reliability	-11.5602
through	-11.5603
▁warn	-11.5605
▁cited	-11.5606
vel	-11.5606
▁mm	-11.5607
cher	-11.5607
stead	-11.5608
▁webpage	-11.5609
▁2-3	-11.561
▁incorporated	-11.5611
▁reviewing	-11.5625
▁mentor	-11.5625
mmer	-11.5629
▁disappointment	-11.563
▁coupon	-11.563
▁NC	-11.5631
▁breakdown	-11.5632
ush	-11.5632
▁believing	-11.5632
▁Absolutely	-11.5633
▁quicker	-11.5636
▁inflammation	-11.5636
▁spite	-11.5639
▁partly	-11.5641
▁accountable	-11.5646
▁horizon	-11.5646
ore	-11.5647
▁edges	-11.5648
▁achievements	-11.5651
▁charts	-11.5651
▁slim	-11.5653
elle	-11.5654
▁Dutch	-11.5654
▁outlined	-11.5658
▁attendees	-11.5659
story	-11.5661
tim	-11.5663
HS	-11.5664
▁Finding	-11.5665
▁Gal	-11.5666
ali	-11.5667
▁Ol	-11.5668
▁collections	-11.5673
people	-11.5677
een	-11.5678
▁Complete	-11.5678
▁adjusted	-11.5681
▁assignments	-11.5684
▁Para	-11.5687
▁Fu	-11.569
▁technically	-11.5693
▁Nigeria	-11.5695
▁Walk	-11.5695
rum	-11.5695
▁Sale	-11.5696
say	-11.5697
▁Senator	-11.5697
RP	-11.5699
▁outline	-11.5699
▁Truth	-11.5699
▁promptly	-11.5701
▁rolls	-11.5701
▁kingdom	-11.5703
itude	-11.5705
▁polite	-11.5707
▁fifteen	-11.5708
▁legislative	-11.571
▁speeds	-11.5711
▁fame	-11.5712
▁dated	-11.5713
′′	-11.5714
▁Aug	-11.5717
▁execute	-11.5718
▁calculated	-11.5719
▁travelers	-11.572
▁Den	-11.5721
▁exploit	-11.5723
▁organizational	-11.5724
▁lung	-11.5724
ges	-11.5724
▁predicted	-11.5726
▁documented	-11.5728
▁Seems	-11.5728
▁Same	-11.5729
income	-11.573
each	-11.573
▁shaped	-11.573
iti	-11.573
▁surgical	-11.5731
▁professionally	-11.5739
▁cinema	-11.574
specific	-11.574
▁Memorial	-11.5742
cur	-11.5742
▁evolve	-11.5748
▁Massachusetts	-11.575
▁del	-11.5755
▁pills	-11.5755
▁intentions	-11.576
▁iconic	-11.5761
leg	-11.5762
▁wealthy	-11.5762
▁Burn	-11.5765
▁Gift	-11.5766
▁Lincoln	-11.5767
83	-11.5767
▁paperwork	-11.5771
▁necessity	-11.5772
▁float	-11.5779
▁recession	-11.5779
▁cancelled	-11.578
▁pad	-11.5781
2)	-11.5789
▁intensity	-11.5792
▁1994	-11.5792
▁trillion	-11.5795
▁queries	-11.5795
▁simpler	-11.5803
ates	-11.5803
▁teenagers	-11.5804
▁CC	-11.5804
▁Payment	-11.5804
▁socks	-11.5808
▁commenting	-11.5808
▁obesity	-11.5808
▁prizes	-11.5808
lam	-11.5809
ees	-11.581
▁debris	-11.5811
cen	-11.5811
▁Property	-11.5817
▁integral	-11.5818
▁monetary	-11.5819
▁transformed	-11.5822
▁pat	-11.5823
▁rocket	-11.5824
▁fifty	-11.5826
▁wasted	-11.5827
▁Hold	-11.5828
▁stimulate	-11.5829
▁blown	-11.5831
▁nutritional	-11.5832
▁theories	-11.5832
▁whereas	-11.5833
▁Clark	-11.5835
▁activists	-11.5835
▁witnessed	-11.5839
▁GO	-11.5841
▁acute	-11.5841
▁surveillance	-11.5843
▁Bus	-11.5844
▁Ham	-11.5847
thing	-11.5848
8.	-11.585
▁bacon	-11.585
▁unwanted	-11.5851
▁insane	-11.5852
eu	-11.5853
tric	-11.5854
▁margin	-11.5854
▁recognised	-11.5856
▁Chamber	-11.5857
▁Grace	-11.5859
▁lu	-11.5863
▁Soviet	-11.5864
▁classified	-11.5865
▁canvas	-11.5866
▁Bel	-11.5866
Or	-11.5866
▁tendency	-11.5868
▁idiot	-11.5871
▁Enterprise	-11.5871
▁valley	-11.5873
▁cha	-11.5873
▁broker	-11.5876
▁minerals	-11.5876
▁reduces	-11.5876
▁internationally	-11.5877
▁Legal	-11.5878
▁restored	-11.5879
▁searched	-11.5879
ude	-11.5883
▁cab	-11.5884
93	-11.5884
▁Throughout	-11.5887
▁Multi	-11.5887
bell	-11.5888
:00	-11.5889
▁Direct	-11.589
ona	-11.5892
▁bearing	-11.5892
▁WA	-11.5893
▁teenager	-11.5896
MB	-11.5897
▁Exchange	-11.5899
▁vaccine	-11.59
▁complimentary	-11.5906
dal	-11.5907
▁Hay	-11.5908
▁DJ	-11.5909
bury	-11.5911
▁searches	-11.5912
▁separately	-11.5912
▁qualifications	-11.5916
▁moisture	-11.5918
▁Creative	-11.5918
proof	-11.5918
▁Studio	-11.592
▁whatsoever	-11.592
▁bleeding	-11.5922
Ra	-11.5924
▁crafts	-11.5925
▁buzz	-11.5927
turn	-11.5932
▁dump	-11.5934
ef	-11.5935
▁shield	-11.594
▁Thailand	-11.594
▁Julie	-11.5941
mber	-11.5944
going	-11.5947
▁clouds	-11.5949
▁cheapest	-11.5949
▁queen	-11.5956
▁consumed	-11.5956
▁pencil	-11.5959
pic	-11.5961
▁Freedom	-11.5962
▁recovered	-11.5966
▁delicate	-11.5966
▁API	-11.5968
hen	-11.5969
▁Total	-11.5973
▁Remove	-11.5973
▁chemistry	-11.5975
pack	-11.5976
▁hunger	-11.5977
..."	-11.5981
▁Eventually	-11.5981
phe	-11.5985
▁arrow	-11.5986
▁dislike	-11.599
▁worthwhile	-11.5991
▁scroll	-11.5993
▁laying	-11.5994
mod	-11.5994
zing	-11.5998
cil	-11.5999
▁Starting	-11.6
▁waters	-11.6001
▁nomination	-11.6002
▁Denver	-11.6002
▁traveled	-11.6003
▁targeting	-11.6004
friend	-11.6005
▁safeguard	-11.6005
▁Wolf	-11.6006
▁devastating	-11.6007
▁priest	-11.601
▁testimony	-11.6011
yo	-11.6012
▁sn	-11.6012
▁Editor	-11.6013
▁Ontario	-11.6013
▁versatile	-11.6013
▁creature	-11.6018
▁eternal	-11.6022
▁lifted	-11.6024
▁3:	-11.6024
▁attachment	-11.6025
▁midst	-11.6027
▁🙂	-11.6027
▁Ser	-11.6028
▁Stock	-11.6028
▁bloom	-11.6028
lands	-11.603
▁inquiry	-11.6031
▁teenage	-11.6032
▁households	-11.6033
ich	-11.6033
▁coordinate	-11.6036
tors	-11.6037
........	-11.6038
▁critics	-11.6039
▁offence	-11.6039
gro	-11.6039
▁weakness	-11.6041
eries	-11.6042
▁fossil	-11.6043
▁delivers	-11.6043
▁curiosity	-11.6047
▁penalties	-11.605
▁tribute	-11.6051
ICE	-11.6054
▁seeks	-11.6055
▁belly	-11.6055
▁facebook	-11.6056
▁stadium	-11.6057
▁Offer	-11.6057
▁sixth	-11.6058
▁Disease	-11.6059
▁corners	-11.6061
▁Sand	-11.6061
▁Available	-11.6062
ax	-11.6062
▁MY	-11.6069
show	-11.6074
▁greenhouse	-11.6074
▁40%	-11.6075
▁mock	-11.6079
▁trainer	-11.608
▁peppers	-11.6081
▁Face	-11.6084
▁54	-11.6084
▁scandal	-11.6087
▁tobacco	-11.6088
▁heated	-11.6089
▁crops	-11.609
▁suspicious	-11.6094
▁TH	-11.6095
▁marathon	-11.6095
▁Mission	-11.6097
▁construct	-11.6102
▁accountability	-11.6104
▁nowadays	-11.6105
▁thumb	-11.6107
▁stove	-11.6108
▁independently	-11.6113
▁poker	-11.6114
Com	-11.6115
sex	-11.6116
▁Gas	-11.6116
▁20-	-11.6117
▁dimensions	-11.6119
▁Scottish	-11.612
▁Sy	-11.6123
▁mattress	-11.6124
▁sexually	-11.6125
▁Wisconsin	-11.6128
▁leak	-11.6132
▁Commissioner	-11.6133
▁cozy	-11.6133
▁mud	-11.6135
▁thereby	-11.6136
▁secretary	-11.6138
▁cop	-11.614
▁Girls	-11.6141
▁discomfort	-11.6143
▁query	-11.6143
ttle	-11.6145
eal	-11.6146
nne	-11.6149
▁structured	-11.6151
▁lifting	-11.6152
nie	-11.6152
via	-11.6153
▁switching	-11.6154
cip	-11.6155
▁restrict	-11.6155
,''	-11.6156
▁pour	-11.6157
▁BO	-11.616
SU	-11.6161
▁mixing	-11.6162
▁heroes	-11.6164
▁charter	-11.6169
▁generator	-11.6171
▁wishing	-11.6172
▁Discover	-11.6173
▁pipeline	-11.6173
▁controlling	-11.6174
▁shout	-11.6176
▁Details	-11.6176
▁variations	-11.6181
▁waist	-11.6182
▁occupied	-11.6183
▁Ci	-11.6186
▁Youth	-11.6188
▁distinction	-11.6189
▁spokesman	-11.619
▁perfection	-11.6191
▁institutional	-11.6193
▁jar	-11.6193
nom	-11.6193
▁newer	-11.6195
▁acknowledged	-11.6197
eri	-11.6199
▁Netflix	-11.6199
▁rides	-11.6201
▁tires	-11.6201
▁ego	-11.6202
ways	-11.6204
▁angel	-11.6204
▁dresses	-11.6208
gging	-11.6208
▁unlock	-11.6209
▁hybrid	-11.6212
▁ANY	-11.6212
▁puppy	-11.6213
▁frames	-11.6213
sign	-11.6216
▁NOTE	-11.6217
▁Heaven	-11.6222
▁sensation	-11.6223
▁automation	-11.6223
▁honesty	-11.6228
▁milestone	-11.6229
▁exhausted	-11.6229
▁visibility	-11.6229
▁slower	-11.6233
▁permits	-11.6234
▁fried	-11.6236
▁cluster	-11.6237
▁Portland	-11.6239
▁crowded	-11.6239
keeper	-11.624
logy	-11.6241
▁awake	-11.6241
▁internship	-11.6245
▁balloon	-11.6246
▁borders	-11.6246
▁edited	-11.6248
▁Bruce	-11.625
▁phrases	-11.6251
▁fraction	-11.6255
▁ethics	-11.6256
IR	-11.6256
▁appetite	-11.6257
▁BUT	-11.6258
▁Earlier	-11.6259
▁flavors	-11.6263
mun	-11.6265
▁NYC	-11.6265
weight	-11.6266
ux	-11.6268
▁BC	-11.6268
▁arena	-11.6269
▁adjustments	-11.6271
▁noon	-11.6272
▁publisher	-11.6272
▁11,	-11.6273
cket	-11.6273
▁listings	-11.6274
▁relaxation	-11.6274
▁lightly	-11.6275
▁screaming	-11.6278
▁advocates	-11.6279
▁scientist	-11.6279
▁equation	-11.6281
▁exterior	-11.6281
▁cholesterol	-11.6281
▁districts	-11.6283
▁allegedly	-11.6284
▁14.	-11.6285
▁backgrounds	-11.6285
▁triple	-11.6286
▁ritual	-11.6287
▁laboratory	-11.6287
▁Listen	-11.6289
▁outlook	-11.6289
▁Affairs	-11.6291
cial	-11.6293
itive	-11.6294
▁empower	-11.6296
▁psycho	-11.6297
▁hello	-11.6298
▁translate	-11.6298
▁elementary	-11.63
▁Wonder	-11.6301
▁Charlotte	-11.6302
▁Around	-11.6305
▁investigating	-11.6312
▁schemes	-11.6313
▁wardrobe	-11.6313
▁weigh	-11.6314
▁drift	-11.6314
OP	-11.6314
▁hospitality	-11.6316
▁pockets	-11.6319
MENT	-11.6321
▁sandwich	-11.6323
▁constitutional	-11.6324
▁Yep	-11.6324
pass	-11.6328
changing	-11.6329
▁slice	-11.633
▁Rachel	-11.6332
▁opponents	-11.6333
▁Defense	-11.6335
white	-11.6335
race	-11.6336
▁flew	-11.6337
▁guessing	-11.6338
▁purely	-11.6339
▁Heat	-11.6339
▁Definitely	-11.6344
▁bless	-11.6345
▁reservations	-11.6346
▁sponsor	-11.635
▁bot	-11.6351
gel	-11.6354
sure	-11.6355
▁snake	-11.6356
▁habitat	-11.6357
▁cuisine	-11.6359
▁intuitive	-11.6359
▁Question	-11.636
▁vol	-11.636
▁praying	-11.6361
▁Hillary	-11.6362
hl	-11.6363
▁tailor	-11.6368
▁envelope	-11.6369
▁Channel	-11.637
▁disclose	-11.6373
▁Adult	-11.6377
▁pharmaceutical	-11.6378
▁Interesting	-11.6379
▁spill	-11.638
▁Hence	-11.6382
▁fare	-11.6385
▁Guy	-11.6385
▁inappropriate	-11.6385
▁Sleep	-11.6385
▁Sh	-11.6388
▁manufactured	-11.639
coming	-11.639
▁Apart	-11.6392
food	-11.6393
▁Detroit	-11.6393
▁Source	-11.6399
▁Official	-11.64
mount	-11.6401
▁Beyond	-11.6402
▁1-	-11.6404
▁Deep	-11.6404
nger	-11.6404
▁advisor	-11.6405
▁beam	-11.6409
▁AL	-11.6412
taking	-11.6413
▁diagram	-11.6413
▁touches	-11.6414
▁Safe	-11.6416
▁VA	-11.6417
▁globally	-11.6419
▁temp	-11.642
▁Restaurant	-11.642
▁hurry	-11.6421
help	-11.6422
▁lettuce	-11.6424
▁sporting	-11.6426
▁Books	-11.6428
▁variation	-11.6428
▁feeds	-11.6428
▁bucks	-11.643
▁leisure	-11.643
Who	-11.6431
▁**	-11.6431
▁CL	-11.6431
▁Half	-11.6432
▁Dragon	-11.6433
▁chairman	-11.6433
▁jazz	-11.6436
ibility	-11.6437
▁wi	-11.6439
▁dragon	-11.6442
▁entertain	-11.6443
▁//	-11.6446
50,000	-11.6449
▁informal	-11.6449
▁polish	-11.6449
▁pastor	-11.645
ui	-11.645
▁decides	-11.6452
▁incentives	-11.6452
▁desperately	-11.6453
▁suspicion	-11.6454
ima	-11.6454
▁distress	-11.6455
arian	-11.6455
▁prohibited	-11.6455
▁appearing	-11.6458
itch	-11.6459
▁filters	-11.646
▁Cho	-11.6462
▁Orleans	-11.6465
ERS	-11.6468
▁realm	-11.6468
▁bias	-11.6469
ora	-11.6471
▁Phone	-11.6471
);	-11.6472
▁Ban	-11.6474
▁stepping	-11.6475
▁Bird	-11.6475
▁metres	-11.6475
▁bothered	-11.6477
▁MR	-11.6477
▁decorated	-11.648
▁Battle	-11.6481
▁separation	-11.6482
AA	-11.6484
▁unsure	-11.6486
▁je	-11.6491
▁specially	-11.6492
▁Classic	-11.6494
▁summit	-11.6495
▁forcing	-11.6495
▁populations	-11.6496
▁chapters	-11.6496
-18	-11.6497
wear	-11.6499
▁Maryland	-11.6499
atic	-11.6501
▁towel	-11.6501
▁microwave	-11.6502
▁enforce	-11.6503
two	-11.6504
▁Palm	-11.6504
▁permanently	-11.6506
▁harvest	-11.6507
bol	-11.6515
▁hills	-11.6518
▁Laura	-11.6518
▁HTML	-11.652
▁partial	-11.652
▁distribute	-11.652
▁180	-11.6523
▁autism	-11.6523
▁headache	-11.6524
??	-11.6524
▁prints	-11.6524
fla	-11.6526
▁Gary	-11.6526
▁gel	-11.6528
standing	-11.6529
▁spirits	-11.6531
▁plea	-11.6535
▁stats	-11.6535
ject	-11.6536
▁incentive	-11.6536
▁lecture	-11.6538
▁chef	-11.6538
▁undergraduate	-11.6539
▁dietary	-11.654
▁researching	-11.654
▁descriptions	-11.654
lat	-11.6541
▁beast	-11.6543
▁tray	-11.6544
▁partially	-11.6545
▁closure	-11.6548
▁positively	-11.6548
▁scream	-11.6549
▁Cash	-11.6549
▁anchor	-11.6551
▁bathrooms	-11.6552
▁picnic	-11.6553
▁consensus	-11.6554
▁Allen	-11.6554
▁spotted	-11.6555
▁conflicts	-11.6556
▁conclusions	-11.6556
osis	-11.6558
▁expose	-11.6558
tta	-11.6558
▁marketers	-11.6558
▁practitioners	-11.6559
▁youngest	-11.656
▁chase	-11.656
▁laughter	-11.6563
▁wheat	-11.6563
giving	-11.6564
▁conjunction	-11.6564
▁rude	-11.6565
▁strap	-11.6569
▁hockey	-11.6572
▁disrupt	-11.6573
▁heels	-11.6574
▁imposed	-11.6576
▁robot	-11.6582
▁cm	-11.6583
▁Vancouver	-11.6583
nz	-11.6585
▁breeze	-11.6587
piece	-11.6587
▁Ger	-11.6589
▁Fill	-11.6589
▁accessed	-11.6593
▁vegetarian	-11.6594
▁Moore	-11.6595
▁sheer	-11.6597
▁measurement	-11.66
Po	-11.66
▁lenses	-11.66
▁releasing	-11.6602
hou	-11.6603
▁Connect	-11.6605
▁grandfather	-11.6606
▁pri	-11.6607
▁planted	-11.6607
plus	-11.6609
▁Fresh	-11.6609
▁15%	-11.6611
▁insult	-11.6611
▁negotiate	-11.6612
▁Users	-11.6615
▁observations	-11.6616
▁economics	-11.6616
stra	-11.6617
▁Indiana	-11.662
shot	-11.6624
Look	-11.6625
core	-11.6626
▁revision	-11.6627
rent	-11.6627
▁retire	-11.6628
och	-11.6628
▁cease	-11.6632
iling	-11.6634
love	-11.6634
▁schedules	-11.6636
▁chains	-11.6636
▁53	-11.6637
3)	-11.6638
uri	-11.6639
▁Ensure	-11.664
▁delays	-11.6641
▁vibe	-11.6642
▁(6	-11.6644
▁sellers	-11.6644
▁foam	-11.6647
▁beaten	-11.6648
▁experiments	-11.6651
stick	-11.6651
▁sunshine	-11.6652
▁pillow	-11.6654
wall	-11.6654
▁supervision	-11.6656
lessly	-11.6657
▁islands	-11.6658
writer	-11.666
▁rushed	-11.6661
▁remedy	-11.6661
▁Fre	-11.6662
▁Fla	-11.6666
▁Snow	-11.6667
▁DIY	-11.6668
▁editorial	-11.6668
etic	-11.6671
▁mac	-11.6672
▁peel	-11.6672
ean	-11.6673
▁Golf	-11.6674
▁Ren	-11.6676
far	-11.6677
▁Ross	-11.6677
▁Theatre	-11.6679
En	-11.668
▁Additional	-11.668
▁Tickets	-11.668
▁advocacy	-11.6681
around	-11.6683
▁$30	-11.6686
trust	-11.6688
Up	-11.6688
UD	-11.6691
▁Target	-11.6692
▁economies	-11.6692
▁gaps	-11.6692
▁56	-11.6693
▁Gulf	-11.6695
▁mayor	-11.6696
▁Mount	-11.6697
▁consequence	-11.6699
▁2009.	-11.6699
▁Gr	-11.67
▁helmet	-11.6701
▁literary	-11.6703
▁threads	-11.6703
ime	-11.6704
▁Eat	-11.6704
▁VI	-11.6707
cia	-11.6708
▁arguing	-11.6709
▁undertake	-11.6709
▁surveys	-11.671
▁occurring	-11.6711
print	-11.6715
▁haha	-11.6717
▁Medicare	-11.6717
▁mandate	-11.6719
▁sensible	-11.672
cycle	-11.672
gh	-11.672
▁strangers	-11.672
▁WILL	-11.6721
▁investigations	-11.6724
▁texts	-11.6725
▁Metro	-11.6727
kill	-11.6727
▁neglect	-11.6729
▁tasting	-11.673
▁betting	-11.6731
vor	-11.6734
got	-11.6734
▁wh	-11.6735
▁fixing	-11.6735
Hi	-11.6735
▁temporarily	-11.6736
▁archive	-11.6736
▁scenery	-11.6738
▁Bre	-11.6741
▁utilizing	-11.6742
▁conviction	-11.6745
▁spy	-11.6746
▁£	-11.6746
▁exceptions	-11.6748
▁steak	-11.675
▁$200	-11.6752
▁twitter	-11.6753
▁optimistic	-11.6755
IE	-11.6755
▁elaborate	-11.6755
▁varying	-11.6757
▁adhere	-11.6758
▁overly	-11.676
▁Manhattan	-11.676
bad	-11.6762
▁Guard	-11.6763
.99	-11.6764
▁insured	-11.6767
▁mechanisms	-11.6768
▁seminar	-11.6769
track	-11.6769
▁donors	-11.6771
rit	-11.6772
▁Century	-11.6772
▁Mis	-11.6773
▁mount	-11.6773
▁varies	-11.6775
▁Empire	-11.6775
nut	-11.6776
EST	-11.6777
▁Pla	-11.6777
▁incorrect	-11.6778
▁migration	-11.6778
▁delightful	-11.678
▁Color	-11.6783
▁diving	-11.6783
aki	-11.6784
first	-11.6785
▁specialty	-11.6786
▁jaw	-11.6787
mph	-11.6788
▁Phoenix	-11.679
▁specifications	-11.679
▁Knowing	-11.679
▁Anything	-11.6791
▁threaten	-11.6792
▁Honestly	-11.6793
▁medicines	-11.6794
▁customize	-11.6794
mont	-11.6795
▁calculate	-11.6796
▁Lab	-11.6797
▁undertaking	-11.6798
▁arrives	-11.6799
▁outlet	-11.6799
meter	-11.68
▁Flash	-11.6801
▁bro	-11.6802
DC	-11.6803
▁tweet	-11.6804
▁Meet	-11.6804
▁Castle	-11.6809
▁cow	-11.6809
aire	-11.6811
▁peek	-11.6812
▁buses	-11.6813
▁CV	-11.6813
▁Morgan	-11.6813
miss	-11.6813
was	-11.6814
▁95	-11.6815
▁6-	-11.6816
cons	-11.682
▁attributes	-11.682
BO	-11.6821
▁BR	-11.6822
▁ham	-11.6824
▁Mine	-11.6824
▁infected	-11.6825
1)	-11.6827
▁powered	-11.6827
oy	-11.6828
▁mal	-11.683
▁racist	-11.6833
▁Alliance	-11.6833
▁switched	-11.6835
▁composed	-11.6836
▁recruiting	-11.6837
▁counselor	-11.6842
▁WiFi	-11.6843
▁ramp	-11.6845
▁templates	-11.6846
▁sq	-11.6847
▁colored	-11.685
Then	-11.685
▁Sex	-11.6851
▁shocking	-11.6853
▁Bat	-11.6854
▁unfold	-11.6854
UT	-11.6855
▁receives	-11.6858
▁autumn	-11.6858
▁(20	-11.686
▁unclear	-11.686
▁trapped	-11.6861
VI	-11.6862
▁swap	-11.6863
▁hated	-11.6863
▁merchandise	-11.6863
hem	-11.6864
▁Trail	-11.6864
▁Steel	-11.6864
▁Language	-11.6866
▁soldier	-11.6868
▁allergies	-11.687
▁Fred	-11.6872
▁borrow	-11.6873
▁Solutions	-11.6873
▁centres	-11.6876
▁camps	-11.6877
▁CH	-11.6877
ural	-11.6882
▁des	-11.6882
▁enterprises	-11.6885
▁parenting	-11.6886
▁lane	-11.6888
▁collision	-11.6891
▁dock	-11.6892
ELL	-11.6892
▁interfere	-11.6895
▁Kitchen	-11.6895
▁File	-11.6897
OW	-11.6899
▁prone	-11.6899
▁Jacob	-11.69
avi	-11.6901
▁colon	-11.6902
cie	-11.6902
▁gro	-11.6903
▁Left	-11.6904
▁1993	-11.6905
vit	-11.6905
▁offline	-11.6907
▁consultants	-11.6907
▁trains	-11.6907
▁Dy	-11.691
▁Inn	-11.691
▁rentals	-11.6913
Fa	-11.6919
▁linking	-11.692
▁attitudes	-11.692
▁discovering	-11.692
▁exams	-11.6921
▁reside	-11.6921
:15	-11.6921
▁advances	-11.6922
▁clips	-11.6924
▁Apply	-11.6925
▁interviewed	-11.6926
▁{	-11.6928
▁fireplace	-11.693
▁sensor	-11.6931
▁Kennedy	-11.6931
sie	-11.6931
▁Iron	-11.6934
▁abundance	-11.6937
▁witnesses	-11.6937
▁1992	-11.6938
▁jokes	-11.694
▁distinctive	-11.6941
▁celebrity	-11.6942
▁Harvard	-11.6943
gie	-11.6944
▁classical	-11.6948
text	-11.6948
▁bail	-11.695
▁promoted	-11.6951
▁rifle	-11.6951
▁Registration	-11.6952
▁2008.	-11.6952
erate	-11.6957
OO	-11.6958
▁assign	-11.6958
clock	-11.6958
value	-11.6958
▁Ana	-11.696
▁Value	-11.6961
char	-11.6964
▁messaging	-11.6964
bag	-11.6967
▁rot	-11.6968
▁porch	-11.697
▁700	-11.6972
▁knocked	-11.6976
▁cares	-11.6977
▁Lin	-11.698
▁adore	-11.6982
▁colleague	-11.6982
▁luxurious	-11.6983
▁PRO	-11.6984
▁understands	-11.6986
▁organ	-11.6988
▁serial	-11.6989
▁sticks	-11.699
Al	-11.699
▁motivate	-11.699
▁Muslims	-11.699
▁Assistant	-11.6991
▁align	-11.6991
▁varieties	-11.6994
▁picks	-11.6997
▁examined	-11.6998
▁sunlight	-11.7005
▁expressing	-11.7005
▁invaluable	-11.7005
▁parade	-11.7006
▁weblog	-11.7008
host	-11.7009
PC	-11.701
▁premiums	-11.701
▁unions	-11.7013
ika	-11.7013
ale	-11.7016
▁Sweden	-11.7016
▁pill	-11.7018
▁march	-11.7018
▁Survey	-11.7019
▁hurricane	-11.7021
▁ankle	-11.7025
guard	-11.7036
NG	-11.7038
ggy	-11.7039
▁stroll	-11.7041
oe	-11.7043
▁trademark	-11.7044
bird	-11.7044
▁wonders	-11.7045
▁recreational	-11.7047
▁Rent	-11.7048
▁credibility	-11.7048
▁lid	-11.7049
▁plumbing	-11.7049
▁renting	-11.7052
▁Sony	-11.7055
▁2019.	-11.7058
had	-11.706
▁slept	-11.7061
OC	-11.7063
▁Investment	-11.7063
▁prop	-11.7063
pad	-11.7065
▁Berlin	-11.7065
ida	-11.7066
EM	-11.7066
▁washed	-11.7067
▁advancement	-11.7067
mann	-11.7067
▁lenders	-11.7068
▁Buck	-11.7068
▁respondents	-11.7076
▁vessel	-11.7076
PP	-11.7076
▁apples	-11.7077
By	-11.7077
▁Construction	-11.708
▁cautious	-11.708
▁technicians	-11.7082
▁Kenya	-11.7083
▁figuring	-11.7083
▁Kind	-11.7087
▁Wind	-11.7088
▁wines	-11.7089
▁Resort	-11.7089
▁angles	-11.709
▁corresponding	-11.709
tern	-11.7091
▁nails	-11.7092
▁66	-11.7093
▁Awesome	-11.7094
▁Less	-11.7094
▁vocal	-11.7096
▁royal	-11.7097
▁Ali	-11.7097
▁lend	-11.7097
▁MD	-11.7098
▁stuffed	-11.7101
plan	-11.7101
selling	-11.7102
▁hormone	-11.7102
▁communicating	-11.7102
▁hug	-11.7103
ished	-11.7106
▁remarks	-11.7107
▁lengthy	-11.7108
▁photographers	-11.7108
▁Single	-11.7109
ured	-11.7114
▁Machine	-11.7114
interest	-11.7115
▁dull	-11.7116
▁jack	-11.7116
▁vessels	-11.7118
▁earliest	-11.7118
▁survivors	-11.712
risk	-11.712
▁revealing	-11.712
▁shelves	-11.7124
▁Micro	-11.7124
▁ur	-11.7126
▁Villa	-11.7126
▁torture	-11.7126
▁violations	-11.7131
▁goodbye	-11.7131
ference	-11.7132
▁2,000	-11.7132
▁Anderson	-11.7134
▁width	-11.7138
duc	-11.7139
▁comparing	-11.7139
▁GPS	-11.714
▁embodiment	-11.714
▁Knight	-11.7141
ule	-11.7142
▁voluntary	-11.7143
anna	-11.7144
▁Howard	-11.7145
▁accidentally	-11.7146
▁trim	-11.7148
▁disappointing	-11.7148
▁Francis	-11.7149
▁compliment	-11.7149
comp	-11.7149
ching	-11.715
▁subscribers	-11.7153
▁Letter	-11.7154
MC	-11.7155
▁Lock	-11.7155
books	-11.7155
▁spine	-11.7157
▁protocol	-11.7158
▁LinkedIn	-11.716
▁reporter	-11.7161
▁detection	-11.7167
▁collar	-11.7169
▁athlete	-11.717
▁Alaska	-11.717
▁warmth	-11.7171
▁belongs	-11.7171
▁indulge	-11.7172
▁Doing	-11.7175
▁Pope	-11.7176
▁Cold	-11.7177
▁lonely	-11.7179
▁Brooklyn	-11.718
▁reluctant	-11.7181
▁Alice	-11.7186
▁350	-11.7186
▁melt	-11.7186
▁Deal	-11.719
force	-11.719
efficient	-11.7191
▁receiver	-11.7191
▁freezer	-11.7191
▁%	-11.7191
CP	-11.7191
▁recipient	-11.7192
▁distinguish	-11.7198
▁acted	-11.7198
▁Karen	-11.7199
▁(10	-11.7199
bul	-11.72
▁ink	-11.7202
▁Track	-11.7203
oz	-11.7204
▁perspectives	-11.7207
fix	-11.721
ense	-11.7211
▁Liz	-11.7211
▁£3	-11.7212
▁therapeutic	-11.7213
PR	-11.7213
lim	-11.7214
▁contacting	-11.7216
Li	-11.7217
ram	-11.7217
▁Served	-11.7219
▁lined	-11.722
▁obsessed	-11.7222
mu	-11.7223
bert	-11.7223
gress	-11.7225
▁willingness	-11.7225
logist	-11.7225
ground	-11.7227
▁flush	-11.723
▁asthma	-11.7234
New	-11.7238
▁adapted	-11.7239
▁III	-11.7242
▁pork	-11.7243
▁Aid	-11.7244
▁shaking	-11.7245
▁^	-11.7248
▁headquarters	-11.725
▁commentary	-11.7252
▁Thor	-11.7254
▁57	-11.7256
▁boo	-11.7258
▁Barack	-11.7259
▁Plant	-11.726
▁Met	-11.7265
▁Cra	-11.7268
filled	-11.7268
▁aunt	-11.7269
▁Brad	-11.7269
ico	-11.7269
spir	-11.727
▁wherein	-11.7271
▁judgement	-11.7277
▁protests	-11.7277
▁upside	-11.7278
DI	-11.7281
▁Clearly	-11.7281
tical	-11.7282
▁buddy	-11.7282
▁travels	-11.7282
▁draws	-11.7285
nova	-11.7286
▁Michelle	-11.7288
▁emphasize	-11.7292
-15	-11.7292
▁disturbing	-11.7293
▁bust	-11.7293
▁amendment	-11.7294
▁Billy	-11.7295
▁sucks	-11.7295
ages	-11.7296
▁sigh	-11.7297
eh	-11.7302
▁frankly	-11.7302
▁whoever	-11.7303
▁devil	-11.7303
▁lasted	-11.7306
After	-11.7308
▁Record	-11.731
▁EM	-11.7312
▁wreck	-11.7316
▁$12	-11.7316
▁evolving	-11.7317
▁dignity	-11.7317
▁lodge	-11.7318
▁kindly	-11.7321
wan	-11.7321
iki	-11.7322
▁openly	-11.7323
mis	-11.7327
▁spoon	-11.7329
▁retention	-11.733
▁enjoyment	-11.733
▁Sco	-11.733
▁likelihood	-11.7331
▁Regional	-11.7331
RS	-11.7335
▁Bla	-11.7335
▁tens	-11.7336
▁Believe	-11.7339
▁Ice	-11.734
social	-11.7343
stage	-11.7344
rous	-11.7345
▁appropriately	-11.7347
▁Days	-11.7348
▁renew	-11.7348
▁gloves	-11.7349
▁Voice	-11.7351
section	-11.7357
▁debts	-11.7359
▁Products	-11.7359
▁halt	-11.736
▁renewed	-11.7362
ado	-11.7365
▁LI	-11.7368
▁adjustment	-11.7369
▁threshold	-11.7369
gon	-11.7369
▁Birthday	-11.7372
▁damaging	-11.7373
▁educators	-11.7374
dle	-11.7375
▁2007,	-11.7377
God	-11.7377
▁checkout	-11.738
▁catalog	-11.7381
come	-11.7385
▁respectful	-11.7387
▁rap	-11.739
▁transplant	-11.739
▁participant	-11.7392
▁Caribbean	-11.7394
▁nut	-11.7394
▁euro	-11.7395
rating	-11.7396
▁drum	-11.7396
▁cheat	-11.7396
▁tolerance	-11.7401
▁Philippines	-11.7402
▁smartphones	-11.7404
LS	-11.7406
▁cheek	-11.7406
▁holder	-11.7407
▁someday	-11.7408
CS	-11.7414
▁cared	-11.7416
own	-11.7416
▁tempted	-11.7416
ifies	-11.7417
▁shipment	-11.742
▁constitute	-11.7421
▁playground	-11.7422
▁(4)	-11.7423
▁Eli	-11.7423
▁Thankfully	-11.7427
▁utter	-11.7428
▁Mars	-11.7428
ulating	-11.7429
▁HA	-11.7429
▁copper	-11.7434
▁Inside	-11.7435
▁advertise	-11.744
▁learners	-11.7441
▁hurts	-11.7441
▁modules	-11.7442
UM	-11.7443
▁nonsense	-11.7444
▁Blu	-11.7444
▁lending	-11.7444
▁Tiger	-11.7445
▁SD	-11.7445
▁Netherlands	-11.7445
▁Tar	-11.7446
▁flooring	-11.7446
trans	-11.7447
▁Double	-11.7447
▁musician	-11.7447
▁divine	-11.7448
tus	-11.7448
▁enrolled	-11.7451
▁rat	-11.7452
▁raises	-11.7455
▁elevator	-11.7455
▁realizing	-11.7455
▁NE	-11.7456
700	-11.7457
urg	-11.7457
▁wax	-11.7458
▁illnesses	-11.7459
▁wallpaper	-11.746
▁pedestrian	-11.7463
▁Shu	-11.7463
▁tenants	-11.7465
pha	-11.7468
▁Wo	-11.7468
▁Breakfast	-11.7468
ien	-11.747
▁renewal	-11.747
▁Date	-11.7471
▁Melbourne	-11.7471
▁eastern	-11.7472
▁drawings	-11.7473
ender	-11.7474
▁Jennifer	-11.7474
▁Saint	-11.7475
bla	-11.7475
▁diploma	-11.7477
cious	-11.7479
tile	-11.7479
▁forming	-11.7479
▁7,	-11.7482
best	-11.7483
▁coins	-11.7489
ploy	-11.7489
▁vinegar	-11.749
▁Fine	-11.7492
▁digging	-11.7492
▁roast	-11.7492
▁farms	-11.7494
▁NHS	-11.7494
▁coalition	-11.7494
tar	-11.7496
aff	-11.7497
▁Neither	-11.75
▁bell	-11.75
▁branding	-11.75
▁riders	-11.7502
▁Quite	-11.7503
▁Oscar	-11.7503
ander	-11.7504
▁viral	-11.7505
rus	-11.7505
▁assurance	-11.7508
▁bounce	-11.7509
▁62	-11.751
▁thesis	-11.7514
▁Hills	-11.7515
▁dash	-11.7525
sale	-11.7526
▁analysts	-11.7526
base	-11.7527
ira	-11.7528
▁stared	-11.7531
▁den	-11.7533
▁Keeping	-11.7533
▁measurements	-11.7534
▁CAN	-11.7535
▁statue	-11.7535
▁deployment	-11.7539
▁proceeds	-11.754
▁Mat	-11.754
og	-11.7541
▁1991	-11.7542
▁Agent	-11.7542
▁meter	-11.7543
has	-11.7544
▁Rule	-11.7545
▁passive	-11.7545
▁WITH	-11.7546
rr	-11.7546
▁mistaken	-11.7548
▁sincere	-11.7548
▁princess	-11.755
FT	-11.755
▁rage	-11.7551
cor	-11.7551
▁rig	-11.7553
▁assumptions	-11.7554
▁Justin	-11.7558
▁raid	-11.7559
▁mug	-11.756
▁bears	-11.7564
▁await	-11.7565
▁4)	-11.7565
▁tv	-11.7568
▁cocktail	-11.7568
▁Tip	-11.7568
▁Creek	-11.7569
▁daunting	-11.7569
▁gene	-11.7573
▁Woman	-11.7574
▁rip	-11.7578
▁Sin	-11.7578
▁sour	-11.7579
▁Philip	-11.7579
▁Thai	-11.7579
fold	-11.7581
▁helicopter	-11.7582
▁rankings	-11.7584
▁Clear	-11.7587
▁flowing	-11.7588
▁VERY	-11.7589
▁promotions	-11.7589
wer	-11.759
▁assumption	-11.7592
dding	-11.7593
▁insisted	-11.7594
▁institute	-11.7597
pdf	-11.7597
▁nonetheless	-11.7598
▁Wonderful	-11.7598
tine	-11.76
▁crisp	-11.7602
oli	-11.7602
▁derived	-11.7604
▁Whilst	-11.7606
▁assert	-11.7606
▁discharge	-11.7606
▁referral	-11.7607
ality	-11.7608
▁Anthony	-11.7608
▁tumor	-11.7611
▁amateur	-11.7613
▁farmer	-11.7613
▁prisoners	-11.7613
current	-11.7613
▁prohibit	-11.7616
▁tile	-11.7617
▁interpret	-11.7618
kes	-11.7619
▁Reg	-11.7619
▁Brit	-11.7621
▁logistics	-11.7622
▁hints	-11.7622
bro	-11.7623
rio	-11.7625
▁Math	-11.7626
▁rehabilitation	-11.7626
▁remotely	-11.7627
▁glorious	-11.7627
▁Mil	-11.763
▁mega	-11.763
▁Hawk	-11.7631
▁distracted	-11.7633
business	-11.7637
▁formats	-11.7638
▁litigation	-11.7639
girl	-11.764
wn	-11.7641
▁desirable	-11.7642
▁demon	-11.7642
▁pools	-11.7644
▁automotive	-11.7646
▁lbs	-11.7648
▁sculpture	-11.7648
tte	-11.7648
▁Dia	-11.7649
▁zombie	-11.7651
▁Helen	-11.7652
▁scheduling	-11.7653
▁mushrooms	-11.7656
▁FDA	-11.7656
lash	-11.7657
eye	-11.7657
▁unhappy	-11.7657
Vi	-11.7658
▁Josh	-11.7658
▁publishers	-11.7658
ington	-11.7665
▁luggage	-11.7665
▁insist	-11.7667
▁catering	-11.7668
▁Chrome	-11.7669
▁Title	-11.7671
▁shifts	-11.7672
▁rug	-11.7673
▁101	-11.7675
▁surge	-11.7675
yr	-11.7679
▁Ltd	-11.7679
vid	-11.768
family	-11.7681
his	-11.7681
▁Event	-11.7681
▁outer	-11.7682
▁Kid	-11.7686
▁norm	-11.7687
▁towels	-11.7689
▁Dumpster	-11.769
▁Bond	-11.769
hoe	-11.769
▁premier	-11.769
▁Gallery	-11.7693
▁traits	-11.7694
RM	-11.7694
▁Budget	-11.7695
▁Kit	-11.7696
▁renovation	-11.7698
eur	-11.7702
▁boiler	-11.7703
▁heater	-11.7703
▁Climate	-11.7706
▁ABC	-11.7709
▁Urban	-11.7709
▁poison	-11.7709
▁headline	-11.771
ello	-11.771
something	-11.771
▁va	-11.7711
bid	-11.7711
▁LLC	-11.7711
▁lands	-11.7712
call	-11.7713
▁EC	-11.7714
hop	-11.7715
▁demanded	-11.7717
▁Certainly	-11.7718
▁warmer	-11.7718
▁dismissed	-11.7719
▁Bachelor	-11.7722
LI	-11.7726
▁hooked	-11.7726
sum	-11.7728
▁binding	-11.7728
▁refresh	-11.7729
▁crawl	-11.7729
▁Chairman	-11.7731
▁CT	-11.7733
▁chick	-11.7734
▁influential	-11.7737
▁bolt	-11.7738
▁slope	-11.7738
▁pr	-11.7742
phan	-11.7743
ffer	-11.7743
▁gen	-11.7744
▁chin	-11.7744
▁journalism	-11.7745
▁sal	-11.7745
big	-11.7745
/10	-11.7745
▁abandon	-11.7747
▁conclude	-11.7748
▁posters	-11.775
iel	-11.7751
▁Bon	-11.7752
ced	-11.7755
▁demonstration	-11.7755
tress	-11.7756
▁Month	-11.7756
▁Invest	-11.7762
▁Robin	-11.7765
▁optimize	-11.7766
▁statistical	-11.7767
▁failures	-11.7769
▁6,	-11.7772
▁Hawaii	-11.7772
▁mercy	-11.7773
▁router	-11.7773
▁glow	-11.7774
HO	-11.7776
▁15,	-11.7777
.......	-11.7777
▁expectation	-11.7778
▁bachelor	-11.7781
▁wars	-11.7782
▁bri	-11.7782
▁wasting	-11.7785
▁Advanced	-11.7785
▁Move	-11.7785
▁coastal	-11.7787
nder	-11.7788
▁wounded	-11.7788
▁blink	-11.7791
▁tee	-11.7793
▁Faith	-11.7793
rose	-11.7794
▁dev	-11.7794
mine	-11.7795
▁halfway	-11.7795
cover	-11.7796
▁tanks	-11.7797
▁reforms	-11.7798
▁pest	-11.7798
▁Prize	-11.7799
une	-11.78
▁Rain	-11.7801
cca	-11.7801
▁Aside	-11.7802
▁Song	-11.7803
▁clearing	-11.7804
▁depressed	-11.7806
cel	-11.7806
▁guards	-11.7808
▁Wine	-11.7811
bn	-11.7812
cate	-11.7818
▁dismiss	-11.7819
▁insulin	-11.782
nor	-11.7821
▁ed	-11.7821
▁typing	-11.7822
▁purse	-11.7822
▁fires	-11.7824
▁epi	-11.7825
▁projected	-11.7826
▁impose	-11.7827
▁Register	-11.7827
▁dangers	-11.7828
▁portrait	-11.7829
look	-11.783
mond	-11.7833
▁Samsung	-11.7833
▁Alzheimer	-11.7837
▁freezing	-11.7837
zen	-11.7837
▁Potter	-11.7841
▁hopeful	-11.7841
▁shades	-11.7842
▁assessed	-11.7845
▁Works	-11.7845
▁inclined	-11.7846
▁pale	-11.7846
▁Emily	-11.7846
▁Sim	-11.7848
▁corrupt	-11.7853
▁dawn	-11.7853
▁Limited	-11.7853
▁Build	-11.7856
▁prep	-11.7857
▁criminals	-11.7858
▁Linda	-11.7867
generation	-11.7868
Even	-11.787
▁embedded	-11.7871
▁Volunteer	-11.7872
▁58	-11.7874
▁quantities	-11.7876
▁planting	-11.7877
▁bloody	-11.7879
▁Sara	-11.7881
▁Guardian	-11.7882
organ	-11.7882
▁lesser	-11.7883
▁conspiracy	-11.7884
▁neighborhoods	-11.7888
ban	-11.7888
▁utterly	-11.789
rock	-11.7892
▁Continue	-11.7894
▁waking	-11.7894
eller	-11.7895
▁hammer	-11.7895
▁headlines	-11.7895
▁excel	-11.7897
▁museums	-11.7898
▁comics	-11.79
▁pla	-11.79
▁infant	-11.7901
four	-11.7902
▁volumes	-11.7903
▁Extra	-11.7904
▁(7	-11.7904
▁Football	-11.7905
▁topped	-11.7905
▁100,000	-11.7907
▁Hunter	-11.7909
▁implies	-11.7912
cin	-11.7915
▁craving	-11.7915
▁sells	-11.7916
PD	-11.7918
▁Dance	-11.7918
▁substantially	-11.7919
▁hormones	-11.792
▁circulation	-11.7921
▁intriguing	-11.7923
▁Fat	-11.7924
▁utilized	-11.7924
▁streak	-11.7926
▁Arch	-11.7927
▁billing	-11.7931
▁Edit	-11.7932
▁prompted	-11.7932
▁anticipate	-11.7933
▁relates	-11.7936
▁Person	-11.7938
boo	-11.7939
▁algorithm	-11.7943
▁sights	-11.7944
▁voucher	-11.7945
▁keyword	-11.7945
▁souls	-11.7947
▁Arabia	-11.7949
▁HAVE	-11.7949
▁persistent	-11.7949
▁deer	-11.795
▁CON	-11.795
▁stance	-11.7953
▁severely	-11.7954
▁acids	-11.7959
▁font	-11.7961
▁Collection	-11.7961
▁renowned	-11.7962
▁$40	-11.7966
▁ladder	-11.7966
▁Nowadays	-11.7968
▁Cy	-11.7968
▁headaches	-11.7969
Because	-11.797
▁lightweight	-11.7973
▁creep	-11.7973
▁occurrence	-11.7974
workers	-11.7974
▁deploy	-11.7978
▁elect	-11.7978
▁veggies	-11.7981
▁roller	-11.7983
ingly	-11.7984
▁budgets	-11.7985
▁Problem	-11.7988
▁damp	-11.7988
IV	-11.7988
▁jerk	-11.799
▁drawer	-11.799
actic	-11.7996
▁lump	-11.7997
▁Jet	-11.7997
pop	-11.8
ila	-11.8
Read	-11.8001
▁Tur	-11.8004
ori	-11.8007
▁Sean	-11.8007
fra	-11.8008
▁squeeze	-11.8009
▁rabbit	-11.801
▁tro	-11.801
▁experimental	-11.8012
▁zones	-11.8013
SH	-11.8015
except	-11.8017
hit	-11.8019
▁JavaScript	-11.8019
▁persist	-11.802
▁Risk	-11.8021
▁Nazi	-11.8023
▁flooding	-11.8024
know	-11.8028
▁Housing	-11.8029
▁radar	-11.8031
rise	-11.8032
hor	-11.8033
gers	-11.8033
▁70%	-11.8033
▁13,	-11.8034
tie	-11.8036
col	-11.8036
▁elephant	-11.8038
▁societies	-11.804
▁forty	-11.804
▁surround	-11.8041
▁ge	-11.8043
▁sensitivity	-11.8044
▁Sol	-11.8046
user	-11.8046
cell	-11.8047
▁Jimmy	-11.8048
▁GA	-11.8049
▁USD	-11.805
▁surfing	-11.805
▁sighed	-11.8052
▁compiled	-11.8053
▁sins	-11.8056
▁Fee	-11.8056
▁faint	-11.8056
▁surprises	-11.8057
rel	-11.8057
ARD	-11.8057
▁Pinterest	-11.8058
▁invisible	-11.8059
▁IRS	-11.8059
▁Sciences	-11.806
▁EP	-11.8062
▁dies	-11.8063
▁siblings	-11.8065
▁racism	-11.8066
▁impress	-11.8066
ECT	-11.8068
/2	-11.8068
▁Independent	-11.8068
half	-11.8069
▁strongest	-11.8072
Thanks	-11.8073
▁footprint	-11.8074
▁macro	-11.8074
▁regulate	-11.8076
▁Round	-11.8077
▁editors	-11.8077
▁decreased	-11.8079
▁lion	-11.8079
▁pending	-11.8079
▁urged	-11.8081
▁guardian	-11.8081
▁Ukraine	-11.8081
▁goat	-11.8082
kh	-11.8082
▁leaf	-11.8083
▁poet	-11.8083
path	-11.8084
block	-11.8085
▁RO	-11.8086
enter	-11.8087
▁kidding	-11.8088
izer	-11.8089
▁Des	-11.8089
▁defending	-11.8091
▁Edward	-11.8092
▁tra	-11.8092
member	-11.8093
▁Bun	-11.8094
▁Sec	-11.8095
▁allowance	-11.8097
▁Native	-11.8097
▁Bri	-11.8098
LL	-11.8098
▁controversy	-11.8098
▁consist	-11.8098
▁Oak	-11.8099
▁wellbeing	-11.8099
▁curse	-11.8102
▁licensing	-11.8103
▁associations	-11.8103
▁indicator	-11.8105
ome	-11.8105
▁overlooked	-11.8106
▁Kra	-11.8107
OD	-11.8109
▁administrator	-11.811
▁crush	-11.8111
Are	-11.8111
▁Schools	-11.8111
▁logged	-11.8112
yan	-11.8112
▁questioned	-11.8113
▁machinery	-11.8114
pr	-11.8115
▁packet	-11.8116
▁prevented	-11.8116
▁ample	-11.8117
▁rust	-11.8118
▁«	-11.8119
dress	-11.8119
▁translated	-11.812
▁15-	-11.812
▁Diet	-11.8122
▁coding	-11.8123
▁brains	-11.8124
fat	-11.8128
author	-11.8128
▁charities	-11.8129
ert	-11.813
▁learnt	-11.813
eng	-11.8132
ease	-11.8133
ITY	-11.8133
▁quo	-11.8134
▁assisted	-11.8134
inated	-11.8135
▁comfortably	-11.8141
igh	-11.8142
▁exotic	-11.8149
▁kicking	-11.8149
▁confront	-11.8149
ancing	-11.8151
▁Dun	-11.8151
▁Morning	-11.8152
rine	-11.8153
▁AN	-11.8154
TT	-11.8155
▁memorial	-11.8156
▁bitch	-11.8157
▁demographic	-11.8158
▁silk	-11.8159
quire	-11.8159
▁Carol	-11.8159
▁professionalism	-11.8161
▁smiles	-11.8162
▁Document	-11.8162
▁charitable	-11.8162
▁disruption	-11.8164
▁sync	-11.8164
kg	-11.8165
---	-11.8166
oil	-11.8166
▁Wish	-11.8166
▁Pra	-11.8167
▁multitude	-11.817
▁sponsors	-11.817
ae	-11.8171
▁3.5	-11.8172
▁allies	-11.8173
▁Performance	-11.8174
break	-11.8176
▁reasoning	-11.8177
▁14,	-11.8178
▁abused	-11.8179
▁watches	-11.8179
AND	-11.8181
▁Text	-11.8181
▁Rio	-11.8183
▁geo	-11.8183
▁Nearly	-11.8183
CU	-11.8184
▁badge	-11.8187
▁assessments	-11.819
▁GP	-11.8191
pool	-11.8191
▁regain	-11.8193
▁backing	-11.8193
▁revelation	-11.8195
▁liking	-11.8197
▁barn	-11.8197
▁grammar	-11.8197
▁simplicity	-11.8197
▁organs	-11.8198
▁surfaces	-11.8199
▁ignoring	-11.8199
ars	-11.8199
rim	-11.8204
▁Gene	-11.8205
▁commands	-11.8206
▁Olympics	-11.8209
ille	-11.821
▁notable	-11.8213
Get	-11.8213
▁notebook	-11.8214
itz	-11.8216
▁tweak	-11.8216
ounce	-11.8217
▁unprecedented	-11.8218
bil	-11.822
▁uncertain	-11.8221
▁Utah	-11.8225
rain	-11.8228
▁slave	-11.8228
▁ri	-11.8229
▁salmon	-11.8232
▁villages	-11.8234
▁absurd	-11.8234
▁Artist	-11.8236
▁NBA	-11.8237
▁stiff	-11.8237
▁virtue	-11.8237
▁sensors	-11.8238
▁quarters	-11.8238
▁knit	-11.8239
▁allergic	-11.8239
▁cliff	-11.8242
▁taxpayers	-11.8242
twitter	-11.8242
▁speculation	-11.8248
▁smallest	-11.825
▁notifications	-11.8251
▁shirts	-11.8253
SM	-11.8254
▁diameter	-11.8256
▁Costa	-11.8257
▁Yahoo	-11.8258
▁Qui	-11.8258
ssa	-11.8258
▁shifting	-11.8259
▁wholesale	-11.8261
▁blowing	-11.8264
▁dense	-11.8266
▁debit	-11.8268
▁heck	-11.8271
▁4:	-11.8274
▁landmark	-11.8274
▁civilization	-11.8275
▁manuscript	-11.8276
▁Schedule	-11.8276
▁FL	-11.8277
version	-11.8277
▁cargo	-11.8281
▁packs	-11.8281
▁gardening	-11.8281
▁Springs	-11.8282
SD	-11.8284
▁politically	-11.8284
▁bend	-11.8285
▁Innovation	-11.8286
▁counted	-11.8286
▁imperative	-11.8287
▁curb	-11.8292
angle	-11.8293
▁59	-11.8296
▁dementia	-11.8298
▁limiting	-11.8298
chy	-11.8299
▁nominated	-11.8299
▁pairs	-11.83
gri	-11.8302
▁traders	-11.8303
nnie	-11.8305
▁bru	-11.8306
ago	-11.8307
▁coordination	-11.831
aba	-11.831
▁thru	-11.8311
▁Hunt	-11.8311
▁overhead	-11.8312
▁tam	-11.8314
nan	-11.8314
▁static	-11.8315
CI	-11.8316
▁dominant	-11.8317
nel	-11.8318
gas	-11.8319
▁offset	-11.8321
▁architectural	-11.8323
▁Different	-11.8324
▁warrior	-11.8327
▁Baker	-11.8328
rian	-11.833
▁Harris	-11.833
hill	-11.8331
▁stare	-11.8332
otic	-11.8334
▁Scout	-11.8335
▁reputable	-11.8336
vol	-11.8336
▁fu	-11.8336
▁16.	-11.8338
▁litter	-11.8338
▁density	-11.8339
▁retrieve	-11.834
▁aiming	-11.834
▁flows	-11.8341
▁Environment	-11.8343
wed	-11.8344
▁perceive	-11.8344
▁revised	-11.8344
▁escort	-11.8344
ith	-11.8345
▁render	-11.8345
▁diamond	-11.8346
▁jealous	-11.8346
ogen	-11.8347
PE	-11.835
▁dick	-11.8355
▁deter	-11.8355
▁dimension	-11.8357
normal	-11.8359
▁troll	-11.836
▁diagnostic	-11.8361
fact	-11.8367
ook	-11.8369
▁GR	-11.837
▁Ultimately	-11.8372
▁Crime	-11.8374
▁barrel	-11.8375
▁airplane	-11.8376
▁Haven	-11.8382
▁parish	-11.8382
▁SI	-11.8383
▁merit	-11.8384
▁Emergency	-11.8385
RY	-11.8386
▁wheelchair	-11.8387
▁gospel	-11.8387
▁cage	-11.8388
▁brutal	-11.8388
▁Syn	-11.8388
▁Palestinian	-11.8389
▁explosive	-11.8391
▁sm	-11.8391
▁Ring	-11.8391
▁fulfilling	-11.8394
▁exercising	-11.8394
▁Speed	-11.8395
▁adaptation	-11.84
▁hype	-11.84
tis	-11.8403
▁hu	-11.8405
▁sequel	-11.8405
rupt	-11.8406
serv	-11.8409
▁Customers	-11.8412
▁uploaded	-11.8414
Every	-11.8414
▁Missouri	-11.8416
▁mineral	-11.8417
▁terrorists	-11.842
▁bush	-11.8421
▁token	-11.8422
▁tar	-11.8422
DER	-11.8423
▁sanctions	-11.8423
▁stainless	-11.8424
▁Break	-11.8424
▁glue	-11.8425
▁splash	-11.8425
▁sentenced	-11.8428
▁socially	-11.8428
▁indicating	-11.8432
▁gauge	-11.8433
▁prosecution	-11.8434
ben	-11.8434
▁Highway	-11.8436
▁MC	-11.8436
▁Gordon	-11.8437
▁lender	-11.8438
▁Corporate	-11.8438
▁PayPal	-11.8438
▁appearances	-11.8442
~	-11.8443
▁aluminum	-11.8444
▁Log	-11.8448
▁gods	-11.8449
▁liberty	-11.8449
bur	-11.845
▁spice	-11.845
▁Salt	-11.8451
▁Issue	-11.8452
▁saves	-11.8454
▁sacred	-11.8454
▁Core	-11.8455
▁Race	-11.8456
▁1989	-11.8456
ologist	-11.8456
▁manages	-11.8458
▁Movie	-11.8458
▁surrender	-11.846
▁LOT	-11.8464
▁Commercial	-11.8465
▁Conservative	-11.8467
▁explored	-11.8468
CL	-11.8468
▁Uni	-11.8468
▁handsome	-11.8469
▁starter	-11.8472
held	-11.8472
▁webinar	-11.8473
▁proving	-11.8475
lessness	-11.8476
OK	-11.8476
▁roster	-11.8477
▁reign	-11.8477
▁courtesy	-11.8478
▁Larry	-11.8479
▁beginners	-11.8484
▁energetic	-11.8486
pal	-11.8487
▁Soul	-11.8488
▁Count	-11.849
0)	-11.8492
▁Walker	-11.8493
▁staple	-11.8493
▁complained	-11.8496
▁Conditions	-11.8498
▁mounted	-11.8499
▁IV	-11.8499
rri	-11.8501
here	-11.8501
▁Vitamin	-11.8504
eration	-11.8505
hel	-11.8505
▁dealers	-11.8507
▁Million	-11.8511
▁30,	-11.8513
dio	-11.8514
▁dictate	-11.8514
▁eliminated	-11.8516
▁Tan	-11.8519
▁61	-11.8519
▁sec	-11.8519
▁shiny	-11.852
▁vanilla	-11.852
▁blocking	-11.8521
graph	-11.8522
▁bent	-11.8524
▁Might	-11.8528
▁candle	-11.8528
num	-11.8529
▁prestigious	-11.8529
lasting	-11.8529
▁holistic	-11.8529
▁16,	-11.8531
▁kits	-11.8532
▁Jerusalem	-11.8533
▁behavioral	-11.8534
▁Rules	-11.8535
▁steering	-11.8536
▁Tro	-11.8537
▁bullying	-11.8538
▁blade	-11.8539
▁antique	-11.8542
▁mechanics	-11.8544
▁EX	-11.8545
▁Cleveland	-11.8545
▁enhancement	-11.8546
▁uncover	-11.8547
▁hood	-11.8548
▁Tomorrow	-11.8549
▁ED	-11.855
▁recovering	-11.855
duction	-11.8553
▁biology	-11.8556
▁Sri	-11.8558
▁calcium	-11.8562
▁impacted	-11.8563
▁absent	-11.8564
cla	-11.8564
▁syrup	-11.8564
▁particles	-11.8565
▁administrators	-11.8565
▁grandparents	-11.8566
▁vague	-11.8568
century	-11.857
▁selfish	-11.857
▁bizarre	-11.8571
▁Gun	-11.8572
▁Poor	-11.8573
▁denial	-11.8576
▁Spec	-11.8576
:45	-11.8576
▁Alabama	-11.8578
▁Jonathan	-11.8578
▁Protect	-11.8578
▁demonstrates	-11.8579
▁expire	-11.8583
▁rein	-11.8586
▁transfers	-11.8588
▁Hor	-11.8589
iate	-11.8591
▁Dor	-11.8595
▁Summit	-11.8596
▁Mont	-11.8597
▁Syrian	-11.8599
▁boasts	-11.8599
vision	-11.8602
▁Kat	-11.8602
▁Sta	-11.8603
▁lamp	-11.8604
▁illusion	-11.8605
▁civilian	-11.8607
done	-11.8607
▁Oklahoma	-11.8609
▁comprehend	-11.861
▁proves	-11.861
▁forests	-11.8611
RT	-11.8611
▁traditionally	-11.8612
▁outreach	-11.8613
▁NOW	-11.8616
▁rotation	-11.8619
▁Duration	-11.8619
str	-11.8619
▁shuttle	-11.8625
▁undertaken	-11.8625
▁2006,	-11.8627
▁(9	-11.8629
▁punish	-11.863
▁SM	-11.8634
8)	-11.8636
nar	-11.8637
▁progression	-11.8638
▁animated	-11.8639
▁Maine	-11.864
▁workouts	-11.864
▁grind	-11.864
change	-11.8641
RR	-11.8641
ifier	-11.8643
▁deserved	-11.8643
▁subsequently	-11.8645
Car	-11.8649
▁builds	-11.865
▁tide	-11.8652
▁LE	-11.8653
▁freelance	-11.8655
▁questioning	-11.8655
▁additionally	-11.8658
ennial	-11.8659
▁embarrassing	-11.866
▁critic	-11.8662
▁remembering	-11.8662
▁exceptionally	-11.8663
▁wander	-11.8663
▁Coffee	-11.8666
▁invented	-11.8666
▁imply	-11.8669
▁Craig	-11.867
▁GDP	-11.867
▁attacking	-11.8671
LC	-11.8671
ann	-11.8672
▁TA	-11.8672
▁Barbara	-11.8673
Come	-11.8673
▁risky	-11.8674
spect	-11.8675
▁symbols	-11.8676
▁Leadership	-11.8676
▁matched	-11.8676
▁Jose	-11.8678
var	-11.8678
▁Charter	-11.8683
▁ranch	-11.8684
▁retailer	-11.8686
▁hy	-11.8689
shirts	-11.869
▁marking	-11.8691
▁underway	-11.8692
quest	-11.8693
▁rebel	-11.8693
▁Fer	-11.8695
▁22,	-11.8695
▁Revolution	-11.8696
▁deployed	-11.8697
▁harness	-11.8697
▁Lou	-11.8697
▁knot	-11.8699
▁hygiene	-11.87
▁Electronic	-11.87
▁Edition	-11.8701
▁simplest	-11.8703
▁Sk	-11.8703
▁Glass	-11.8704
▁males	-11.8707
.50	-11.8708
▁buffet	-11.8708
▁countryside	-11.871
▁Sport	-11.8711
▁gentleman	-11.8712
▁Liberal	-11.8712
▁beginner	-11.8714
▁fierce	-11.8714
▁messy	-11.8714
▁thereof	-11.8718
eck	-11.872
▁Emma	-11.8721
▁Communications	-11.8721
cum	-11.8722
▁Engineer	-11.8723
▁valve	-11.8723
▁enroll	-11.8727
▁disciplines	-11.873
cid	-11.873
phy	-11.873
▁customs	-11.8733
vic	-11.8733
▁replies	-11.8734
▁Front	-11.8736
▁Rate	-11.8736
▁Tokyo	-11.8738
▁monkey	-11.8738
▁missions	-11.8739
ddle	-11.874
▁Sho	-11.8742
▁Alternatively	-11.8742
▁parked	-11.8742
▁hol	-11.8745
▁evaluated	-11.8745
▁arthritis	-11.8746
▁prototype	-11.8748
▁witch	-11.8749
▁deadlines	-11.875
▁undergo	-11.8751
▁shareholders	-11.8751
▁ponder	-11.8752
▁Host	-11.8752
NT	-11.8753
▁18-	-11.8754
▁terribly	-11.8754
▁Junior	-11.8756
arily	-11.8756
▁benchmark	-11.8756
▁Tennessee	-11.8758
▁declaration	-11.8758
▁smarter	-11.8761
ature	-11.8763
▁horn	-11.8763
▁united	-11.8764
▁Thought	-11.8766
▁Rs	-11.8767
-14	-11.8768
▁1%	-11.8769
think	-11.8769
▁isolation	-11.8771
▁Chair	-11.8772
▁downloading	-11.8772
buy	-11.8774
1,	-11.8774
then	-11.8775
▁polls	-11.8775
▁Choice	-11.8776
NI	-11.8777
▁drought	-11.8778
titu	-11.8778
prop	-11.8778
▁premise	-11.8779
▁guarantees	-11.878
osa	-11.8781
▁creator	-11.8782
▁Clo	-11.8782
▁supposedly	-11.8787
▁slots	-11.8789
▁Culture	-11.879
▁runners	-11.8792
itor	-11.8793
▁IF	-11.8793
▁cakes	-11.8795
CR	-11.8795
▁Communication	-11.8795
cl	-11.8796
▁ignorance	-11.8797
aught	-11.8798
▁backwards	-11.8798
▁Switzerland	-11.88
pur	-11.8801
▁robots	-11.8802
▁cruel	-11.8802
▁environmentally	-11.8803
▁Federation	-11.8804
▁driveway	-11.8804
▁lining	-11.8807
▁60%	-11.8808
▁Nancy	-11.8808
▁uncommon	-11.8812
▁Pin	-11.8812
▁inevitably	-11.8815
▁expects	-11.8817
▁Rest	-11.8818
ess	-11.8818
ended	-11.8818
▁pig	-11.8818
▁Server	-11.8819
▁buck	-11.8822
▁Carter	-11.8829
suit	-11.8829
▁needle	-11.883
▁remedies	-11.8832
▁Past	-11.8834
▁deliberately	-11.8836
▁resemble	-11.8837
▁17,	-11.8838
-17	-11.884
▁suppress	-11.8841
▁zoom	-11.8841
▁submissions	-11.8841
▁alliance	-11.8841
▁Hal	-11.8844
▁indicators	-11.8847
dam	-11.8848
▁NASA	-11.8849
▁turnover	-11.885
▁Commerce	-11.8851
▁beverages	-11.8852
▁Hurricane	-11.8853
wheel	-11.8853
▁Virtual	-11.8854
▁HP	-11.8855
▁cardiovascular	-11.8855
▁unconscious	-11.8856
kins	-11.8859
▁Casino	-11.8861
▁metrics	-11.8862
▁parliament	-11.8862
▁holders	-11.8862
oke	-11.8863
▁festive	-11.8864
second	-11.8864
▁upgraded	-11.8865
▁streams	-11.8865
▁lively	-11.8865
brand	-11.8866
▁tutor	-11.8871
mir	-11.8872
▁Def	-11.8872
▁dryer	-11.8873
▁Moving	-11.8877
▁Process	-11.8877
▁dominated	-11.888
▁orchestra	-11.888
▁firing	-11.8882
▁21,	-11.8884
▁Prevention	-11.8884
▁unpleasant	-11.8885
bat	-11.8885
▁Client	-11.8888
▁Ag	-11.8888
▁Technical	-11.8893
▁shooter	-11.8894
▁billions	-11.8895
▁Yoga	-11.8895
▁upstairs	-11.8896
talk	-11.8897
▁fatty	-11.8897
▁altered	-11.8897
▁eBay	-11.8898
▁chew	-11.8898
▁violate	-11.8898
▁eligibility	-11.8899
▁Jessica	-11.8899
▁opera	-11.8899
▁Lesson	-11.89
▁dam	-11.89
pea	-11.89
▁runner	-11.8902
▁Considering	-11.8902
▁brew	-11.8902
▁Corps	-11.8902
PL	-11.8904
▁diagnose	-11.8904
▁mph	-11.8905
▁Analysis	-11.8906
▁ph	-11.8908
rah	-11.8908
▁Ber	-11.8909
▁statute	-11.8911
▁Palace	-11.8912
▁combining	-11.8914
▁Cambridge	-11.8916
▁whale	-11.8916
▁Adventure	-11.8918
▁Wedding	-11.8919
heat	-11.8919
▁Malaysia	-11.8919
▁Cooper	-11.892
ili	-11.8921
▁Christianity	-11.8921
paid	-11.8921
6)	-11.8921
▁preliminary	-11.8922
Any	-11.8922
habit	-11.8923
▁Rh	-11.8924
▁umbrella	-11.8924
lib	-11.8925
▁ward	-11.8926
▁Coming	-11.8927
▁Chicken	-11.8927
▁ji	-11.8929
▁restart	-11.8934
tag	-11.8937
▁sweater	-11.8938
▁Dubai	-11.894
▁miserable	-11.8941
▁Everybody	-11.8942
▁legendary	-11.8942
▁Reader	-11.8943
▁cult	-11.8944
loss	-11.8944
▁63	-11.8945
▁precision	-11.8945
▁diesel	-11.8946
▁wounds	-11.8948
▁Door	-11.8948
Where	-11.895
keeping	-11.8951
▁Didn	-11.8954
▁Whole	-11.8955
▁Swiss	-11.8956
gr	-11.8959
▁resistant	-11.896
▁boutique	-11.8961
ckle	-11.8962
▁chunk	-11.8963
▁fascinated	-11.8963
▁outbreak	-11.8964
firm	-11.8966
▁clutter	-11.8969
emia	-11.897
▁activate	-11.897
!!!!	-11.8974
▁joints	-11.8977
def	-11.8978
▁problematic	-11.8983
▁generosity	-11.8983
▁Mum	-11.8986
owner	-11.8987
▁eliminating	-11.8988
▁verification	-11.8989
Time	-11.899
▁alot	-11.8993
rge	-11.8993
▁railway	-11.8993
▁cough	-11.8993
▁regulated	-11.8997
▁singles	-11.8999
▁iTunes	-11.9002
hhh	-11.9007
!),	-11.9007
therapy	-11.9008
▁rented	-11.9009
▁humanitarian	-11.9009
-16	-11.901
▁Liverpool	-11.901
▁bun	-11.9011
▁Nar	-11.9011
▁proposition	-11.9012
▁battles	-11.9012
lid	-11.9015
▁downside	-11.9017
▁SS	-11.9022
igan	-11.9024
▁defining	-11.9027
▁scholarships	-11.9029
▁grams	-11.9029
final	-11.9029
▁elbow	-11.9029
▁rebuild	-11.903
SO	-11.9031
▁slipped	-11.9031
▁grin	-11.9033
wl	-11.9033
▁Walking	-11.9034
▁Request	-11.9034
▁sailing	-11.9035
▁vinyl	-11.9036
▁screenshot	-11.9038
▁clearance	-11.9041
▁digest	-11.9046
maybe	-11.9046
▁chop	-11.9046
sea	-11.9047
▁pl	-11.9048
▁murdered	-11.9049
▁Been	-11.905
▁PhD	-11.9051
▁Jerry	-11.9051
▁whisper	-11.9051
▁spider	-11.9052
▁Twin	-11.9054
▁gi	-11.9056
▁proactive	-11.9059
▁constraints	-11.906
sid	-11.9062
▁McG	-11.9063
▁antibiotics	-11.9064
nis	-11.9064
▁psychologist	-11.9066
▁abundant	-11.9067
▁sew	-11.9068
▁Islands	-11.9068
▁Heritage	-11.907
▁blew	-11.9071
▁CR	-11.9071
▁tiles	-11.9072
▁carriers	-11.9073
cri	-11.9075
▁constitution	-11.9075
▁considerations	-11.9083
▁batter	-11.9083
▁swallow	-11.9084
▁flame	-11.9085
▁pledge	-11.9085
▁finishes	-11.9086
▁Beth	-11.9087
▁cattle	-11.9088
▁sealed	-11.9088
▁rival	-11.9088
▁beverage	-11.9089
▁fog	-11.909
▁upgrades	-11.9092
rey	-11.9092
▁Loan	-11.9092
arm	-11.9092
▁Records	-11.9096
Ca	-11.9097
▁installment	-11.9097
▁assisting	-11.9099
▁140	-11.9099
▁Excel	-11.91
▁SW	-11.9101
▁Questions	-11.9104
▁Physical	-11.9104
▁methodology	-11.9106
▁squ	-11.9106
▁Current	-11.9107
▁cycles	-11.911
lb	-11.9111
▁Nation	-11.9112
▁disputes	-11.9112
shoot	-11.9112
▁influences	-11.9114
▁Intelligence	-11.9115
▁NI	-11.9117
▁ribbon	-11.9118
▁Hy	-11.912
▁Develop	-11.912
▁conquer	-11.912
▁Programme	-11.9121
uation	-11.9125
WA	-11.9125
▁Eco	-11.9125
▁Treatment	-11.9127
stein	-11.9133
▁rejection	-11.9136
▁Regulation	-11.9137
▁acne	-11.9138
▁TE	-11.9138
▁110	-11.9139
▁cafe	-11.9141
▁rum	-11.9141
▁furnished	-11.9142
▁armor	-11.9144
▁5,000	-11.9144
▁invasion	-11.9145
▁Duke	-11.9146
▁crowds	-11.9148
▁verbal	-11.9149
control	-11.9149
▁unaware	-11.9149
▁lime	-11.915
▁Pink	-11.915
▁salon	-11.915
▁weaknesses	-11.9152
RN	-11.9152
▁9,	-11.9154
▁seafood	-11.9154
▁Driver	-11.9156
▁sausage	-11.9156
▁inquiries	-11.9156
▁mathematics	-11.9157
▁spotlight	-11.9158
▁disasters	-11.916
▁Basic	-11.916
▁penny	-11.9164
▁Beijing	-11.9164
▁irrelevant	-11.9164
▁crust	-11.9167
▁commitments	-11.9169
▁Bit	-11.917
▁Suite	-11.9171
▁Lane	-11.9172
hon	-11.9175
thro	-11.9177
zu	-11.9178
▁municipal	-11.9179
▁67	-11.918
▁Industrial	-11.9181
▁Jake	-11.9181
▁Java	-11.9183
▁fuss	-11.9184
▁yogurt	-11.9184
▁relying	-11.9185
▁probability	-11.9186
▁spike	-11.9188
tone	-11.9189
▁bonuses	-11.919
▁duplicate	-11.919
▁pursuant	-11.919
▁Scripture	-11.919
▁zoo	-11.9193
▁spices	-11.9193
▁terrain	-11.9194
▁accommodations	-11.9196
▁void	-11.9197
natural	-11.9198
▁shallow	-11.9201
▁insects	-11.9202
inate	-11.9202
▁68	-11.9205
▁username	-11.9207
▁celebrities	-11.9208
▁whispered	-11.9208
▁fade	-11.9209
▁Hamilton	-11.921
▁literacy	-11.9212
▁inability	-11.9212
▁polar	-11.9212
FI	-11.9214
ote	-11.9215
▁cops	-11.9216
▁enrollment	-11.9217
▁dim	-11.922
emi	-11.922
inating	-11.922
▁Certificate	-11.9221
▁>>	-11.9222
▁nationally	-11.9223
▁28,	-11.9226
▁Normally	-11.9228
▁rigorous	-11.9229
make	-11.923
▁Oxford	-11.9232
▁assists	-11.9233
▁capsule	-11.9233
▁lad	-11.9234
▁.....	-11.9236
dling	-11.9237
▁grains	-11.9237
▁Solar	-11.9238
7)	-11.9239
Here	-11.924
▁tutorials	-11.924
▁recreation	-11.9241
▁sci	-11.9241
▁Owner	-11.9243
kar	-11.9244
▁tenant	-11.9244
▁lungs	-11.9245
▁foremost	-11.9246
ific	-11.9247
▁embarrassed	-11.9248
▁Creating	-11.9248
▁2007.	-11.925
▁scholars	-11.925
▁sack	-11.9253
lated	-11.9254
▁Contract	-11.9256
EX	-11.9258
▁Craft	-11.9259
public	-11.9259
mind	-11.9265
▁recycled	-11.9265
▁Mental	-11.9266
▁ginger	-11.9267
ONE	-11.9267
▁Johnny	-11.9267
▁horizontal	-11.9269
▁sadness	-11.9269
▁Graham	-11.9271
▁intern	-11.9273
met	-11.9276
▁Bee	-11.9276
▁Mall	-11.9276
▁5:	-11.9276
▁23,	-11.928
▁Stan	-11.928
▁queue	-11.9282
VA	-11.9284
▁icons	-11.9287
▁tweets	-11.9287
▁hurting	-11.9288
▁Zi	-11.9289
▁trunk	-11.9289
founder	-11.929
▁("	-11.929
▁interventions	-11.9291
▁12,	-11.9291
▁UP	-11.9292
▁Pur	-11.9292
security	-11.9294
▁ES	-11.9297
▁swelling	-11.9297
▁congregation	-11.9297
trip	-11.9298
▁gravity	-11.9299
▁festivals	-11.9299
▁Kentucky	-11.9302
fest	-11.9303
▁utilities	-11.9303
design	-11.9306
▁Temple	-11.9307
wind	-11.931
▁lesbian	-11.9311
▁harmony	-11.9311
▁triggered	-11.9312
nell	-11.9314
▁immense	-11.9315
▁detective	-11.9316
▁Poland	-11.9317
▁villain	-11.9319
▁Pete	-11.932
share	-11.9322
saving	-11.9323
▁nausea	-11.9324
▁justified	-11.9324
▁1-2	-11.9325
▁Zone	-11.9326
▁viruses	-11.9326
▁intersection	-11.9329
drive	-11.933
system	-11.933
dra	-11.9332
▁trades	-11.9334
▁casting	-11.9335
▁innovations	-11.9335
▁sidewalk	-11.9336
í	-11.9337
▁Gospel	-11.9337
▁promotes	-11.9338
did	-11.934
▁Princess	-11.9341
▁almond	-11.9345
▁Beck	-11.9347
▁torn	-11.9347
▁Danny	-11.9349
▁concerts	-11.935
▁undermine	-11.9352
▁alright	-11.9354
▁recalled	-11.9358
▁governing	-11.9358
▁stretching	-11.9363
▁fairy	-11.9363
▁hallway	-11.9364
▁neo	-11.9365
▁sorted	-11.9366
▁myth	-11.9368
▁securities	-11.9368
▁shadows	-11.937
▁Bor	-11.9373
▁Th	-11.9374
▁grandchildren	-11.9374
▁yarn	-11.9375
▁metabolism	-11.9375
▁enhancing	-11.9376
▁dwelling	-11.9376
▁weddings	-11.9384
▁wool	-11.9387
▁endeavor	-11.9387
▁consisting	-11.9387
▁Arthur	-11.9388
▁Alexander	-11.9388
▁demons	-11.9389
▁Horse	-11.9389
▁echo	-11.939
▁credentials	-11.9391
unk	-11.9392
▁coupled	-11.9392
inc	-11.9394
mid	-11.9396
▁annoyed	-11.9396
▁detected	-11.9398
▁popped	-11.9399
mouth	-11.9399
▁Typically	-11.9399
▁flourish	-11.9399
▁proximity	-11.94
▁Electric	-11.9404
▁Bru	-11.9404
▁exceeded	-11.9404
SL	-11.9405
also	-11.9405
▁fulfilled	-11.9405
uous	-11.9407
▁popping	-11.941
▁Row	-11.9412
▁mon	-11.9413
▁martial	-11.9414
▁fabrics	-11.9415
▁Marc	-11.9415
quin	-11.9415
▁Sister	-11.9416
???	-11.9416
▁Roger	-11.9417
▁McDonald	-11.9418
dor	-11.9418
▁appeals	-11.9418
cas	-11.9419
▁exemption	-11.9424
▁Fin	-11.9424
▁pipes	-11.9426
▁Present	-11.9427
▁risen	-11.9428
▁chasing	-11.9428
▁civilians	-11.9428
handed	-11.943
health	-11.943
▁unhealthy	-11.9431
▁certificates	-11.9431
▁remainder	-11.9431
▁leaning	-11.9432
note	-11.9434
▁Cab	-11.9437
pit	-11.9441
▁segments	-11.9444
vie	-11.9445
▁endure	-11.9445
▁Strong	-11.9449
▁judicial	-11.945
▁Russell	-11.9453
▁Wayne	-11.9454
▁cushion	-11.9454
▁redeem	-11.9454
▁parcel	-11.9454
▁personalities	-11.9454
mma	-11.9457
▁forthcoming	-11.9458
▁Outside	-11.946
▁bur	-11.9461
▁pharmacy	-11.9463
▁hedge	-11.9464
▁positioning	-11.9465
soft	-11.9467
FS	-11.9468
▁clay	-11.9469
child	-11.9471
▁positioned	-11.9471
▁publicity	-11.9472
▁arc	-11.9473
▁ONLY	-11.9475
▁textbook	-11.9476
▁Orlando	-11.9477
▁foolish	-11.9477
▁dye	-11.9478
▁blockchain	-11.9479
Sha	-11.9481
awa	-11.9481
▁hats	-11.9482
tax	-11.9484
▁8-	-11.9484
script	-11.9488
▁sends	-11.9488
▁checklist	-11.9489
▁resonate	-11.9491
▁Train	-11.9491
▁Bed	-11.9492
▁rod	-11.9494
▁judging	-11.9496
strict	-11.9497
▁shoppers	-11.9498
▁Similarly	-11.9498
▁rainy	-11.9498
▁shifted	-11.95
▁yo	-11.9503
▁Block	-11.9503
▁Mediterranean	-11.9503
▁RV	-11.9503
▁Bake	-11.9506
▁flies	-11.9506
▁Sar	-11.9506
Ch	-11.9508
▁Visa	-11.9509
▁Indonesia	-11.951
▁constructive	-11.9511
▁accessing	-11.9511
corn	-11.9513
▁vampire	-11.9516
▁Location	-11.9516
▁fax	-11.9519
▁adjacent	-11.952
tered	-11.9523
▁Flu	-11.9524
▁salaries	-11.9525
▁rushing	-11.9526
▁worm	-11.9528
agon	-11.9528
▁combines	-11.9528
php	-11.9528
eau	-11.9529
TR	-11.9531
Okay	-11.9532
▁doc	-11.9532
▁fats	-11.9533
▁Cow	-11.9536
▁Few	-11.9538
▁pinch	-11.9539
powered	-11.9544
▁ka	-11.9544
▁doubled	-11.9545
▁Guests	-11.9546
▁hail	-11.955
▁Election	-11.9551
▁Aaron	-11.9552
Mr	-11.9553
▁broadband	-11.9555
Ad	-11.9557
offs	-11.9557
iva	-11.9558
▁Kay	-11.9559
▁magnetic	-11.9559
▁Nonetheless	-11.956
▁confess	-11.9561
▁kilo	-11.9562
▁moms	-11.9562
-13	-11.9562
ei	-11.9562
▁1988	-11.9564
▁Zoo	-11.9565
▁orbit	-11.9566
▁poems	-11.9567
▁cigarette	-11.9568
▁Image	-11.9569
▁boast	-11.9569
▁brochure	-11.9571
▁reap	-11.9573
▁landlord	-11.9575
▁Directors	-11.9576
▁Hair	-11.9576
▁illustrate	-11.9577
rist	-11.9578
▁Events	-11.9579
▁Patients	-11.9582
▁Cru	-11.9583
▁Med	-11.9584
▁posture	-11.9585
lect	-11.9586
▁Explorer	-11.9587
▁yearly	-11.9589
▁lick	-11.959
▁arising	-11.9592
▁trustworthy	-11.9593
▁visually	-11.9593
▁Thr	-11.9594
▁troubles	-11.9595
▁magnet	-11.9596
▁defendant	-11.9596
▁smells	-11.9597
▁UC	-11.9597
▁masses	-11.9597
degree	-11.9598
▁deposits	-11.9599
▁Galaxy	-11.96
▁Skin	-11.96
▁inspirational	-11.9601
▁Nelson	-11.9602
▁necklace	-11.9605
uting	-11.9606
parent	-11.9606
▁Hmm	-11.9608
▁Honor	-11.9609
bon	-11.9609
▁refined	-11.961
▁9/11	-11.9612
▁Reason	-11.9612
▁1930	-11.9614
▁Ven	-11.9614
▁Brexit	-11.9615
stan	-11.9616
▁privately	-11.9616
sters	-11.9619
▁Seeing	-11.9621
▁Newcastle	-11.9622
▁rubbish	-11.9622
sol	-11.9627
▁pirate	-11.9631
▁payroll	-11.9632
▁doubts	-11.9633
job	-11.9633
▁Doesn	-11.9634
rat	-11.9638
▁monitored	-11.9638
▁prejudice	-11.9639
▁whisk	-11.964
▁temper	-11.9641
▁3,000	-11.9642
ugh	-11.9642
▁SU	-11.9644
tier	-11.9645
both	-11.9645
▁feast	-11.9647
▁carrots	-11.9647
dict	-11.9649
product	-11.965
▁randomly	-11.965
▁understandable	-11.9651
▁mag	-11.9656
▁salvation	-11.9657
▁Thinking	-11.966
▁Barcelona	-11.9662
backs	-11.9667
▁promo	-11.9668
▁pioneer	-11.9669
▁instructors	-11.9671
▁leaned	-11.9672
▁compounds	-11.9672
▁Lan	-11.9673
▁plunge	-11.9675
▁accelerate	-11.9676
itation	-11.9676
▁Metal	-11.9677
▁Chan	-11.9677
uni	-11.9678
▁oppose	-11.968
▁Kill	-11.9681
▁Yellow	-11.9681
pay	-11.9683
pel	-11.9683
▁Tam	-11.9686
▁reads	-11.9686
▁strings	-11.9687
▁2005,	-11.9688
▁acquiring	-11.9689
▁26,	-11.969
▁connectivity	-11.969
▁Eight	-11.9691
▁triumph	-11.9693
▁storms	-11.9693
▁traded	-11.9693
▁77	-11.9693
Sh	-11.9695
▁Regular	-11.9698
▁Style	-11.9698
▁garment	-11.97
esteem	-11.9702
▁noticeable	-11.9703
▁Fact	-11.9703
▁volunteering	-11.9705
▁reckon	-11.9705
▁investigators	-11.9707
▁Success	-11.9709
▁patrol	-11.9709
▁exempt	-11.971
lig	-11.9711
▁builder	-11.9711
▁Kel	-11.9711
▁yummy	-11.9711
▁showers	-11.9713
fr	-11.9713
▁doctrine	-11.9714
▁flaws	-11.9715
Note	-11.9715
▁humidity	-11.9716
▁DS	-11.9717
▁steadily	-11.9722
▁researcher	-11.9724
▁00	-11.9724
▁fracture	-11.9724
▁seventh	-11.9729
Day	-11.973
stin	-11.9731
▁prosperity	-11.9731
▁Counsel	-11.9731
▁Hiya	-11.9732
▁epidemic	-11.9734
▁coupons	-11.9734
▁premiere	-11.9734
Mar	-11.9735
▁mortality	-11.9737
flu	-11.9739
▁coordinator	-11.9739
▁genes	-11.9741
▁Expect	-11.9743
ement	-11.9743
IGHT	-11.9743
news	-11.9743
cup	-11.9744
▁eleven	-11.9744
▁Lauren	-11.9745
▁Nine	-11.9745
▁rewarded	-11.9747
▁workflow	-11.9749
▁fist	-11.975
▁handles	-11.9751
▁Mas	-11.9752
▁decorations	-11.9752
last	-11.9753
▁Certain	-11.9754
▁noble	-11.9755
▁outdated	-11.9755
▁CB	-11.9758
bridge	-11.9762
▁hazardous	-11.9763
mitt	-11.9764
▁Born	-11.9766
AGE	-11.9768
▁shining	-11.9769
▁homeowner	-11.977
▁accessibility	-11.9771
▁Response	-11.9773
▁inherent	-11.9774
▁foundations	-11.9776
▁addict	-11.9778
▁counties	-11.9778
▁obey	-11.9779
iation	-11.978
uit	-11.9781
▁attracting	-11.9783
▁Cast	-11.9783
▁straw	-11.9783
iver	-11.9784
▁Beauty	-11.9786
▁citizenship	-11.9786
mother	-11.9787
▁Sheriff	-11.9788
▁clinics	-11.9788
▁scattered	-11.9788
▁relies	-11.9788
▁cheating	-11.9789
economic	-11.979
▁accountant	-11.9794
▁Knowledge	-11.9795
KE	-11.9796
▁deduction	-11.9797
▁27,	-11.9801
▁quarterback	-11.9801
END	-11.9802
▁newborn	-11.9803
▁empathy	-11.9804
▁tales	-11.9804
▁lifelong	-11.9806
▁Gil	-11.9807
▁Rod	-11.9807
▁banana	-11.981
umble	-11.9814
▁sleeve	-11.9814
▁dashboard	-11.9815
▁Transfer	-11.9815
▁stealing	-11.9816
▁Drop	-11.9816
▁tangible	-11.9817
▁skiing	-11.9817
ppy	-11.9819
▁centered	-11.9819
ema	-11.9822
▁lightning	-11.9822
▁donor	-11.9822
▁securing	-11.9823
▁marina	-11.9825
▁Transportation	-11.9826
▁amended	-11.9827
▁decorating	-11.9827
watt	-11.9828
▁architect	-11.9831
▁compassionate	-11.9832
trained	-11.9832
▁EN	-11.9832
▁Sue	-11.9834
▁Marvel	-11.9835
▁blonde	-11.9838
▁ashamed	-11.9838
▁excuses	-11.9839
▁resting	-11.9841
▁Glen	-11.9841
__	-11.9842
▁locals	-11.9842
▁Vision	-11.9843
▁trafficking	-11.9843
astic	-11.9844
▁Connecticut	-11.9847
▁affection	-11.9848
▁Hop	-11.9849
▁76	-11.9849
bbing	-11.985
▁Tele	-11.985
Maybe	-11.985
▁chatting	-11.9851
zone	-11.9851
course	-11.9852
▁Lead	-11.9852
▁Sla	-11.9853
▁tidy	-11.9853
▁gem	-11.9854
▁steer	-11.9855
▁Oliver	-11.9856
IF	-11.9857
▁Doug	-11.9858
▁quiz	-11.986
▁Diamond	-11.9862
▁simulation	-11.9863
▁penis	-11.9865
▁gameplay	-11.9866
▁reinforce	-11.9868
▁Tap	-11.9869
▁columns	-11.9871
▁3-4	-11.9872
▁creepy	-11.9875
▁regimen	-11.9875
▁performers	-11.9875
Work	-11.9878
▁Engine	-11.9878
IST	-11.9879
▁DM	-11.9881
▁ornament	-11.9883
▁costumes	-11.9883
▁si	-11.9893
▁illustrations	-11.9893
▁Statement	-11.9895
▁prophet	-11.9895
▁Universal	-11.9896
▁stamps	-11.9897
dol	-11.9902
phi	-11.9903
▁drone	-11.9903
▁Combine	-11.9907
▁greeting	-11.9908
▁fries	-11.991
▁hottest	-11.991
▁29,	-11.9911
nda	-11.9912
▁greeted	-11.9912
▁excluded	-11.9914
▁sticky	-11.9915
▁transcript	-11.9915
▁Trying	-11.9915
mini	-11.9917
▁expressions	-11.9921
gno	-11.9922
▁Guess	-11.9922
▁Whi	-11.9923
DR	-11.9925
▁soften	-11.9925
mers	-11.9927
lap	-11.9928
▁Jobs	-11.9929
▁Purchase	-11.9929
▁Shr	-11.993
▁females	-11.993
▁mentioning	-11.9931
▁alignment	-11.9932
▁synthetic	-11.9933
sville	-11.9937
▁digestive	-11.9938
▁Visual	-11.9938
▁overlook	-11.9942
pression	-11.9943
cru	-11.9943
camp	-11.9944
9)	-11.9945
▁theoretical	-11.9946
▁Ak	-11.9947
▁rash	-11.9949
▁aggregate	-11.995
▁Neil	-11.9951
▁$300	-11.9951
▁Chat	-11.9952
DP	-11.9952
▁lineup	-11.9953
▁Katie	-11.9955
▁cabinets	-11.9956
▁nerves	-11.996
▁defender	-11.9964
▁Understanding	-11.9966
bre	-11.9967
UL	-11.9969
▁slavery	-11.9969
▁lawmakers	-11.9969
▁Grey	-11.9974
▁administer	-11.9974
poli	-11.9974
▁Gray	-11.9976
▁Base	-11.9976
ua	-11.9977
▁BY	-11.998
▁sympathy	-11.9982
cott	-11.9982
[...]
