<unk>	0
<s>	0
</s>	0
、	-2.81138
。	-2.97893
▁	-3.30698
の	-3.7642
が	-4.32535
は	-4.32798
を	-4.5664
に	-4.64356
で	-4.75736
と	-4.90013
」	-5.11677
も	-5.22365
「	-5.32496
や	-5.43111
!	-5.64206
)	-5.66015
から	-5.66266
です	-5.68786
(	-5.73106
・	-5.75398
し	-6.00846
?	-6.04836
1	-6.06224
日	-6.25688
する	-6.29433
して	-6.31504
ので	-6.32457
月	-6.33277
年	-6.3727
な	-6.3807
2	-6.38778
という	-6.39749
には	-6.41776
した	-6.43306
か	-6.48389
では	-6.52836
など	-6.53376
3	-6.5754
る	-6.61373
その	-6.64766
▁「	-6.6873
て	-6.7548
た	-6.75563
として	-6.75567
この	-6.78172
▁また	-6.86708
.	-6.91496
ます	-6.93337
人	-6.98938
って	-7.00395
でも	-7.00885
している	-7.01502
まで	-7.06466
します	-7.1028
...	-7.10578
4	-7.11224
▁この	-7.11945
』	-7.1244
ました	-7.14029
、「	-7.14856
5	-7.16845
である	-7.20626
お	-7.21082
にも	-7.22364
10	-7.23509
より	-7.26103
り	-7.27524
こと	-7.28378
ね	-7.29422
しています	-7.31115
ら	-7.33423
,	-7.33627
『	-7.33855
だ	-7.37991
ですが	-7.38346
い	-7.39532
について	-7.4023
ない	-7.44108
:	-7.44575
しました	-7.44961
大	-7.4728
でした	-7.48467
時間	-7.50582
▁しかし	-7.51147
なら	-7.52226
された	-7.52583
時	-7.54651
本	-7.55037
6	-7.55046
ため	-7.57276
できる	-7.58062
よ	-7.58604
へ	-7.58714
中	-7.60089
7	-7.60134
のは	-7.61156
がある	-7.6226
だった	-7.62781
▁※	-7.63675
いる	-7.65169
ように	-7.65512
される	-7.65691
ている	-7.66645
ス	-7.66682
への	-7.66833
/	-7.67154
8	-7.68393
-	-7.6865
もの	-7.68661
ある	-7.69008
分	-7.70176
などの	-7.70362
”	-7.71448
になる	-7.71812
回	-7.72275
9	-7.72291
自分の	-7.73042
▁そして	-7.74595
と思います	-7.75601
30	-7.77979
があります	-7.78282
また	-7.78558
いた	-7.79145
事	-7.80013
います	-7.80082
なので	-7.80332
一	-7.80844
情報	-7.80881
のですが	-7.81229
く	-7.82865
つ	-7.82914
方	-7.8306
のか	-7.84448
とは	-7.84971
す	-7.84972
円	-7.8553
さ	-7.86491
20	-7.87904
さん	-7.8792
ー	-7.88204
水	-7.88213
ような	-7.89276
サービス	-7.89444
▁!	-7.8958
とか	-7.89725
によって	-7.90132
のです	-7.91081
▁その	-7.91183
み	-7.92121
等	-7.92197
き	-7.93762
になります	-7.93994
的な	-7.95454
でしょう	-7.95458
ですね	-7.95482
日本	-7.95959
されている	-7.96455
ご	-7.96771
ください	-7.97179
った	-7.97565
12	-7.98015
名	-7.9864
ています	-7.98984
話	-7.99264
ことを	-7.99275
性	-7.99488
による	-7.99554
けど	-7.99861
いて	-8.00049
後	-8.00823
だけ	-8.02076
見	-8.0209
とても	-8.02199
上	-8.03133
力	-8.03376
者	-8.03528
ア	-8.03664
手	-8.04417
市	-8.05559
第	-8.05714
ト	-8.05921
物	-8.06446
良い	-8.07159
11	-8.0776
山	-8.07833
場合は	-8.08435
～	-8.09142
により	-8.09299
サイト	-8.09421
商品	-8.10758
▁でも	-8.11057
リ	-8.11155
ながら	-8.11375
金	-8.1182
s	-8.12242
ほど	-8.12601
今	-8.12837
場合	-8.13363
約	-8.14756
時に	-8.15046
され	-8.15322
人は	-8.15705
だと	-8.1639
にて	-8.16844
ク	-8.169
化	-8.17493
▁」	-8.17863
C	-8.18551
にある	-8.19184
利用	-8.19533
よう	-8.1982
人の	-8.20422
様々な	-8.20893
う	-8.2118
いい	-8.21485
人が	-8.21755
】	-8.21947
があり	-8.22873
問題	-8.22985
前	-8.23117
何	-8.23215
活動	-8.23722
私は	-8.23918
法	-8.23986
数	-8.24215
出	-8.24869
前に	-8.24996
環境	-8.25139
目	-8.25365
他の	-8.25545
たい	-8.25955
ことは	-8.26766
それ	-8.26973
ことが	-8.27078
会	-8.27494
▁(	-8.2762
生	-8.28096
国	-8.28254
わ	-8.28267
よく	-8.28297
仕事	-8.29033
していた	-8.29128
日に	-8.29333
女性	-8.29429
会社	-8.29965
ル	-8.30062
ことで	-8.3024
そう	-8.30553
点	-8.3077
新	-8.31043
的	-8.31108
大きな	-8.31123
については	-8.31302
と思う	-8.31944
いました	-8.32441
本当に	-8.32539
ラ	-8.32625
というのは	-8.32669
ズ	-8.32797
A	-8.33021
▁私は	-8.33454
先	-8.33598
機能	-8.33763
方法	-8.33766
したい	-8.33845
気	-8.3412
ド	-8.34224
下	-8.34663
多くの	-8.3505
ところ	-8.35116
・・・	-8.35212
そうです	-8.3545
15	-8.35499
よりも	-8.36545
色	-8.36605
子	-8.36867
んだ	-8.37289
すると	-8.37319
ず	-8.37858
であり	-8.37928
イベント	-8.37966
となる	-8.38179
新しい	-8.382
できます	-8.38206
生活	-8.38382
所	-8.38689
S	-8.38781
ちょっと	-8.38886
私の	-8.39261
心	-8.39737
なんて	-8.3976
▁これは	-8.39884
となります	-8.39928
▁ただ	-8.39981
高	-8.40055
コ	-8.40754
ために	-8.40784
▁1	-8.41289
m	-8.41424
タ	-8.41524
に関する	-8.41822
対応	-8.41868
できない	-8.42076
少し	-8.42115
マ	-8.42246
いたします	-8.42318
だけで	-8.42708
年に	-8.42835
もう	-8.4331
ナ	-8.4338
になった	-8.4344
場所	-8.4354
なかった	-8.44039
〜	-8.4417
管理	-8.44485
町	-8.44503
内容	-8.44587
店	-8.45053
用	-8.45254
企業	-8.45702
登録	-8.45953
内	-8.45987
のある	-8.4662
代	-8.46739
作品	-8.4697
ゲーム	-8.47028
木	-8.47363
の中で	-8.47368
ま	-8.4745
を使って	-8.4745
長	-8.47534
ではなく	-8.47614
的に	-8.4781
ようです	-8.48029
道	-8.48286
方は	-8.48296
販売	-8.48532
」「	-8.4871
されています	-8.48714
すぐに	-8.4878
何か	-8.48804
車	-8.49334
したり	-8.49464
使用	-8.49927
だけでなく	-8.49993
かもしれません	-8.5015
各	-8.50465
D	-8.50475
しか	-8.50512
こ	-8.50765
家	-8.50891
ん	-8.50966
下さい	-8.51023
田	-8.51093
技術	-8.51492
経験	-8.51503
しております	-8.51525
ことができます	-8.52081
度	-8.52083
土	-8.52117
になって	-8.52175
バ	-8.5219
治療	-8.52217
そんな	-8.52326
▁今回は	-8.5255
歳	-8.52634
相談	-8.52986
まだ	-8.53297
ポイント	-8.5351
に対して	-8.53777
において	-8.53889
100	-8.54014
すること	-8.54276
体	-8.54449
システム	-8.54664
んです	-8.54935
同じ	-8.55101
▁そんな	-8.55125
メール	-8.55272
万	-8.55307
設定	-8.55455
状態	-8.55647
なく	-8.55702
のような	-8.55759
かな	-8.55939
ぜひ	-8.56349
れば	-8.56423
さんの	-8.56528
駅	-8.56566
自分	-8.56669
シ	-8.56736
地域	-8.56843
状況	-8.56984
実際に	-8.57099
関係	-8.5725
写真	-8.57422
デザイン	-8.57474
のために	-8.57554
M	-8.57759
方が	-8.57786
または	-8.57912
あまり	-8.5793
B	-8.58068
だろう	-8.58102
カ	-8.58305
のように	-8.58336
ロ	-8.58522
確認	-8.58543
万円	-8.58618
ものです	-8.58654
地	-8.58871
そして	-8.59236
T	-8.59352
小	-8.59362
参加	-8.59679
東京	-8.59818
映画	-8.60438
無料	-8.60882
大学	-8.60987
してください	-8.61038
イ	-8.61098
め	-8.61703
でしょうか	-8.62322
をして	-8.62325
になり	-8.62375
線	-8.62527
“	-8.62803
三	-8.62902
つの	-8.63001
思い	-8.63153
購入	-8.63215
世界	-8.6329
19	-8.63327
18	-8.63564
カード	-8.63759
これ	-8.63888
F	-8.63967
になりました	-8.64013
を見て	-8.64239
があった	-8.6424
ミ	-8.64401
特に	-8.64464
作業	-8.64486
をする	-8.6451
部	-8.64604
外	-8.64631
ば	-8.64672
日本の	-8.64682
すれば	-8.65075
様	-8.65363
だと思います	-8.65426
感	-8.66031
む	-8.66204
不	-8.6623
レ	-8.66283
オ	-8.6642
といった	-8.66715
変更	-8.67105
であれば	-8.67476
キ	-8.67495
▁...	-8.67564
▁【	-8.67636
簡単に	-8.67675
t	-8.67739
事業	-8.67846
教育	-8.67898
口	-8.67974
品	-8.68258
調査	-8.68325
ません	-8.68492
面	-8.6866
体験	-8.68717
50	-8.69077
になっている	-8.69087
かなり	-8.69227
毎日	-8.69231
社会	-8.69309
▁2	-8.69496
私	-8.696
サ	-8.69617
書	-8.69845
ム	-8.69848
たり	-8.7009
予約	-8.70268
さらに	-8.70414
ジ	-8.70687
されます	-8.70778
元	-8.70859
川	-8.7086
などで	-8.71031
の方が	-8.71406
料理	-8.71447
ということ	-8.71507
考え	-8.71628
データ	-8.71691
説明	-8.71695
行	-8.7173
24	-8.71746
自分が	-8.71806
とき	-8.71891
どんな	-8.71944
ノ	-8.72223
着	-8.72246
25	-8.72895
たら	-8.72904
必ず	-8.72974
を行う	-8.73147
型	-8.73166
店舗	-8.73272
あり	-8.73326
アプリ	-8.73869
アップ	-8.74042
ましょう	-8.74282
することができます	-8.74565
見て	-8.74579
▁『	-8.74863
施設	-8.75
K	-8.75157
することで	-8.75222
からの	-8.75355
島	-8.75463
契約	-8.75501
条件	-8.75527
食	-8.75641
人に	-8.75731
ブ	-8.7584
のでしょうか	-8.76233
ではない	-8.76353
のみ	-8.76353
それを	-8.7673
無	-8.76848
それは	-8.76931
あなたの	-8.77063
愛	-8.77591
位	-8.78144
非常に	-8.78253
戦	-8.78352
音楽	-8.7844
しない	-8.78503
いない	-8.78558
&	-8.78656
行動	-8.78711
台	-8.78926
G	-8.79103
海	-8.79113
結果	-8.79246
及び	-8.79524
紹介	-8.79731
でしたが	-8.79895
これは	-8.80247
ネット	-8.80385
16	-8.80503
バー	-8.80557
社	-8.80575
研究	-8.80822
光	-8.80916
勉強	-8.81005
もっと	-8.81139
旅行	-8.81246
されて	-8.81372
としては	-8.81639
ると	-8.81705
メニュー	-8.81965
初めて	-8.82263
しましょう	-8.82364
効果	-8.8247
っている	-8.82474
男性	-8.82658
ツ	-8.82789
同	-8.82799
などを	-8.82799
私が	-8.82881
られる	-8.82897
製品	-8.829
高い	-8.82937
笑	-8.83127
月に	-8.83267
ページ	-8.83284
▁もちろん	-8.83406
14	-8.83476
二	-8.83493
対策	-8.8359
一番	-8.83712
ていた	-8.83789
ッ	-8.83833
しながら	-8.83893
評価	-8.83898
公開	-8.83973
ですよね	-8.84037
モ	-8.84095
等の	-8.84109
きた	-8.84141
原	-8.84161
予定	-8.84226
平成	-8.84302
くらい	-8.84332
なかなか	-8.84344
されました	-8.8438
P	-8.84618
さんが	-8.84911
感じ	-8.84917
以上	-8.85123
年の	-8.85201
石	-8.85248
ときに	-8.85257
ことができる	-8.85375
ウ	-8.85455
っ	-8.85455
人気	-8.85722
取り	-8.85799
▁なお	-8.85804
中の	-8.86091
e	-8.86114
よね	-8.86369
▁特に	-8.86602
なる	-8.86684
やすい	-8.86759
17	-8.86999
け	-8.8704
40	-8.87149
ブログ	-8.87186
としても	-8.87237
検索	-8.8724
発	-8.87328
なのか	-8.874
場	-8.87614
現在	-8.87629
フ	-8.8763
支援	-8.87676
版	-8.87783
開発	-8.88032
業務	-8.88205
年間	-8.88247
いく	-8.88328
▁それは	-8.88417
ケース	-8.88457
不安	-8.88489
]	-8.88531
曲	-8.88614
人間	-8.88758
全	-8.88834
医療	-8.88887
あ	-8.88966
コース	-8.89047
13	-8.89093
に対する	-8.891
まず	-8.89128
電話	-8.8915
させる	-8.89302
時は	-8.89315
ニ	-8.89645
記事	-8.89708
もあります	-8.90041
リー	-8.90059
通り	-8.90105
神	-8.90158
白	-8.90373
号	-8.90446
イメージ	-8.90595
学	-8.90607
▁そこで	-8.90677
センター	-8.90821
の場合	-8.90847
更新	-8.90877
一緒に	-8.90983
業者	-8.91079
ち	-8.91159
上で	-8.91227
会員	-8.91235
健康	-8.91441
理解	-8.91534
ダ	-8.91546
お店	-8.91715
の場合は	-8.91833
必要	-8.92132
していく	-8.92143
イン	-8.92152
▁さらに	-8.92213
しても	-8.92265
ビジネス	-8.92278
是非	-8.92287
と言う	-8.92371
自分で	-8.92417
モデル	-8.92496
▁今日は	-8.92507
火	-8.92611
量	-8.92614
足	-8.92635
ビ	-8.92639
おり	-8.9265
こんな	-8.92655
ことに	-8.92737
のため	-8.9274
だから	-8.92798
価格	-8.9294
いつも	-8.92991
制度	-8.93042
動画	-8.9318
大変	-8.93273
やって	-8.93399
ホテル	-8.93443
薬	-8.93479
あります	-8.93706
プラン	-8.939
撮影	-8.93955
風	-8.94039
となっています	-8.94059
え	-8.94061
しており	-8.94068
形	-8.94084
▁・	-8.94313
夢	-8.94317
れ	-8.94441
エ	-8.946
営業	-8.94894
E	-8.94914
がない	-8.95166
W	-8.95184
野	-8.95198
チェック	-8.95281
頭	-8.95293
画像	-8.95302
一度	-8.95456
してくれる	-8.95478
学校	-8.95732
さんは	-8.95922
間	-8.96035
および	-8.9615
▁ただし	-8.96166
夜	-8.96185
文	-8.96321
ファン	-8.96694
改善	-8.96791
結婚	-8.96843
せ	-8.9723
したら	-8.97261
▁3	-8.97359
系	-8.9738
ずっと	-8.97477
21	-8.97595
にとって	-8.97936
となった	-8.98054
部分	-8.98084
ということで	-8.98356
味	-8.98385
気持ち	-8.98485
があれば	-8.98591
における	-8.98689
サイズ	-8.9889
▁今	-8.98949
朝	-8.9899
屋	-8.99033
"	-8.99039
美	-8.99218
ときは	-8.99265
花	-8.99293
チ	-8.99329
中に	-8.99369
直	-8.99392
通	-8.99392
以下	-8.99564
文化	-8.99571
それが	-8.99627
グ	-8.99649
グループ	-8.99722
意識	-8.99826
和	-8.99979
心配	-9.00059
H	-9.00308
表示	-9.00341
://	-9.00375
計画	-9.00397
次の	-9.00613
機会	-9.00704
じ	-9.0091
女	-9.01108
てしまう	-9.0112
料金	-9.01173
質問	-9.01379
成長	-9.01481
やはり	-9.01516
ですので	-9.01618
セット	-9.01668
々	-9.01918
以下の	-9.01923
のではないでしょうか	-9.02003
サポート	-9.0215
▁そのため	-9.02283
かもしれない	-9.02308
存在	-9.02571
西	-9.02592
に行く	-9.02653
ヶ月	-9.02695
表現	-9.02751
顔	-9.02963
東	-9.03233
ハ	-9.03319
空	-9.03417
ン	-9.03468
んで	-9.03538
食事	-9.03558
テレビ	-9.03748
機	-9.03758
ガ	-9.03799
もある	-9.03918
経営	-9.03934
パ	-9.04046
を持つ	-9.0415
後に	-9.04166
になっています	-9.04228
ための	-9.04257
検査	-9.04519
けれど	-9.04851
23	-9.04955
チーム	-9.04969
からです	-9.04996
出会い	-9.05014
プログラム	-9.05052
目的	-9.05089
N	-9.0509
テ	-9.05095
安心して	-9.05287
広告	-9.05295
28	-9.05375
室	-9.05548
別	-9.05548
メ	-9.0563
ことも	-9.05766
i	-9.05864
ファイル	-9.0591
準備	-9.05999
期待	-9.06153
直接	-9.06183
どう	-9.06395
と一緒に	-9.06396
楽しい	-9.06401
多	-9.0642
られた	-9.06536
▁もし	-9.06623
南	-9.06636
大会	-9.06697
作り	-9.07161
交換	-9.07182
理由	-9.07295
R	-9.073
音	-9.07364
・・・。	-9.07484
工事	-9.07522
と思った	-9.07589
になると	-9.07643
時代	-9.0772
練習	-9.07742
画面	-9.07758
を持って	-9.07765
家族	-9.07833
村	-9.07938
熱	-9.07943
番	-9.07966
だったので	-9.08232
【	-9.08237
行く	-9.08251
情報を	-9.08308
枚	-9.08515
御	-9.08658
さまざまな	-9.08718
開催	-9.08761
式	-9.08827
運動	-9.08931
が多い	-9.0903
男	-9.09064
なのです	-9.09222
を見	-9.09305
今回は	-9.09313
どのような	-9.09341
となりました	-9.09386
ものを	-9.09394
たくさんの	-9.09412
表	-9.09427
があって	-9.09529
ネ	-9.09937
らしい	-9.10007
▁さて	-9.10051
をしている	-9.10135
当	-9.10206
違う	-9.1022
22	-9.10281
作	-9.10382
なり	-9.10497
入	-9.10534
の中に	-9.10844
病気	-9.1086
29	-9.10871
北	-9.10902
タイプ	-9.1103
カメラ	-9.11341
主	-9.1142
個人	-9.11538
言葉	-9.11595
とも	-9.11719
病院	-9.11761
素材	-9.11963
ダイエット	-9.12058
割	-9.12065
くる	-9.12185
発表	-9.12228
城	-9.1225
プ	-9.12304
時の	-9.12405
入力	-9.12602
例	-9.12707
ばかり	-9.12718
場合には	-9.12791
ありがとうございました	-9.12822
していない	-9.12857
しまう	-9.13051
運営	-9.13181
中国	-9.13221
インターネット	-9.133
郡	-9.13351
意味	-9.13398
すぐ	-9.13699
試験	-9.13791
日の	-9.13866
能力	-9.13879
デ	-9.13909
開始	-9.14004
ことがあります	-9.14124
毛	-9.14137
▁それ	-9.14171
▁これ	-9.14188
保存	-9.14225
スタッフ	-9.14237
前の	-9.1431
年齢	-9.14368
ずに	-9.14741
素晴らしい	-9.14774
査定	-9.14779
席	-9.14791
投稿	-9.14793
となり	-9.14951
区	-9.15018
希望	-9.15099
きました	-9.15122
投資	-9.15193
にして	-9.15263
お客様	-9.15329
人生	-9.15357
セ	-9.15421
天	-9.15421
放送	-9.15461
以上の	-9.15554
プロ	-9.1574
文字	-9.1577
コン	-9.16062
U	-9.16109
早く	-9.16152
お金	-9.16179
するために	-9.16307
ユーザー	-9.16326
お客様の	-9.16397
はありません	-9.16407
配信	-9.16475
期間	-9.16506
肌	-9.16508
まずは	-9.1663
原因	-9.1669
y	-9.16699
J	-9.16731
リンク	-9.16744
必要な	-9.16999
バス	-9.17038
27	-9.17182
ること	-9.17304
時期	-9.17589
住宅	-9.17596
がありました	-9.17601
処理	-9.17645
そうな	-9.17776
かどうか	-9.17897
▁現在	-9.17907
平	-9.17959
ヤ	-9.18195
させていただきます	-9.18203
▁2018	-9.18243
ソフト	-9.1827
学習	-9.18289
判断	-9.18389
どの	-9.18485
ましたが	-9.18492
と思って	-9.1854
させて	-9.18574
p	-9.18679
ができる	-9.18684
26	-9.18703
g	-9.18706
新たな	-9.18707
おすすめ	-9.18762
実は	-9.18828
もあり	-9.18961
語	-9.19057
英語	-9.1906
...。	-9.19123
▁ちなみに	-9.19234
保険	-9.19287
産	-9.19329
ザ	-9.19377
致します	-9.19383
を中心に	-9.19583
市場	-9.19649
してしまう	-9.19767
全く	-9.20057
以外の	-9.20188
脱毛	-9.20257
スポーツ	-9.20268
び	-9.20376
▁お	-9.20389
採用	-9.20436
▁例えば	-9.20576
好きな	-9.20661
安心	-9.20672
街	-9.20802
子供	-9.20844
ケア	-9.20847
オープン	-9.21013
ぎ	-9.21196
60	-9.21204
0	-9.21215
)」	-9.2126
物件	-9.21325
事故	-9.21421
ゴ	-9.21471
種類	-9.21474
相手	-9.21482
アクセス	-9.21518
残	-9.21563
別の	-9.21621
パン	-9.21627
とともに	-9.21679
の方	-9.21682
o	-9.21802
審査	-9.21808
であった	-9.21841
来	-9.21985
流	-9.21994
国際	-9.22044
と思っています	-9.22193
んですが	-9.22205
そういう	-9.22451
マン	-9.22528
のだ	-9.22575
ということです	-9.22812
選択	-9.22889
しっかり	-9.22897
ており	-9.232
はずです	-9.23274
親	-9.23275
するのは	-9.23295
▁>	-9.23305
ますが	-9.23484
が多く	-9.23498
していました	-9.23518
に合わせて	-9.23571
事を	-9.23717
今まで	-9.23784
重	-9.23957
カー	-9.23962
欲しい	-9.23991
d	-9.24064
再	-9.24165
er	-9.24197
キャンペーン	-9.24309
上の	-9.24331
市の	-9.24359
立	-9.24411
c	-9.24475
期	-9.24528
はない	-9.24585
スタイル	-9.24585
ことです	-9.24684
事件	-9.24721
作成	-9.24755
なければ	-9.24806
取引	-9.24848
初	-9.24975
学生	-9.24982
ホームページ	-9.25016
食べ	-9.2505
雨	-9.25052
......	-9.25093
あった	-9.25146
楽	-9.25263
すべての	-9.25272
何も	-9.25293
目標	-9.25294
報告	-9.25393
メッセージ	-9.25398
かもしれませんが	-9.25437
課題	-9.25485
次	-9.25488
▁つまり	-9.25568
メーカー	-9.25617
費用	-9.25688
実	-9.25743
掲載	-9.25856
と同じ	-9.26433
経済	-9.26471
じゃない	-9.26479
いただき	-9.26587
最も	-9.2684
海外	-9.26935
ストレス	-9.27045
こう	-9.27166
連絡	-9.27223
歌	-9.2733
スト	-9.27344
このような	-9.27366
L	-9.27522
自然	-9.27528
cm	-9.2765
今回の	-9.27795
Y	-9.27824
自	-9.27841
のこと	-9.27897
ろ	-9.27908
ティ	-9.27987
X	-9.27999
用の	-9.28014
シリーズ	-9.2803
身	-9.28045
日から	-9.28066
変化	-9.28244
出来る	-9.28296
ぐ	-9.28327
ぐらい	-9.28467
しっかりと	-9.28494
n	-9.28587
小さな	-9.2859
いただいた	-9.29128
となっている	-9.29134
雰囲気	-9.29293
そのまま	-9.29306
プロジェクト	-9.29322
中で	-9.29344
大阪	-9.29354
人と	-9.29432
▁A	-9.29438
印象	-9.29451
日々	-9.29471
素敵な	-9.2952
銀行	-9.29596
黒	-9.29632
アイテム	-9.29692
役	-9.29827
ぞ	-9.29929
業	-9.29974
他	-9.29982
ではありません	-9.30012
付け	-9.3017
ディ	-9.30179
症状	-9.30312
ブランド	-9.30341
してる	-9.30391
安	-9.30473
を受け	-9.30569
してきた	-9.30576
教室	-9.30584
団体	-9.30618
考えて	-9.30682
率	-9.30717
週間	-9.3079
▁だから	-9.31037
が高い	-9.31056
PC	-9.31099
設計	-9.31158
使う	-9.31278
終了	-9.31288
はもちろん	-9.31304
2018	-9.31334
知識	-9.31404
を作る	-9.31453
ター	-9.31487
リスト	-9.31489
ポ	-9.31543
好き	-9.31546
展開	-9.31652
れる	-9.31661
ツアー	-9.31737
ライブ	-9.31774
のための	-9.31876
寝	-9.31876
くれる	-9.31892
ありがとうございます	-9.31914
事前に	-9.31935
強い	-9.31963
分の	-9.32051
ちゃんと	-9.32055
と思い	-9.32197
移動	-9.3221
楽しく	-9.32243
引き	-9.32271
ニュース	-9.32346
有	-9.32367
アニメ	-9.32391
そ	-9.3241
株式会社	-9.32503
組織	-9.32504
年度	-9.32512
使って	-9.32573
▁本	-9.3262
安い	-9.32624
▁日本	-9.32733
に関しては	-9.32896
受付	-9.32909
プレイ	-9.32913
入り	-9.33069
漫画	-9.33168
これから	-9.33228
企画	-9.3341
空間	-9.33422
多く	-9.33494
値	-9.33551
関連	-9.3367
解決	-9.33687
遊び	-9.33745
ということは	-9.33845
書いて	-9.33855
はず	-9.33886
それぞれ	-9.34061
募集	-9.34099
よい	-9.34133
ケ	-9.34186
安全	-9.34229
しまった	-9.34398
していきます	-9.34446
▁今回の	-9.34498
すべて	-9.34504
テーマ	-9.34509
個	-9.34573
全国	-9.34686
制作	-9.34706
発売	-9.34722
図	-9.34838
面白い	-9.34862
件	-9.34894
出す	-9.34904
動き	-9.34975
カラー	-9.35002
時には	-9.35014
紙	-9.3505
病	-9.35057
ひ	-9.35087
a	-9.35106
絵	-9.35113
に向けて	-9.35207
▁10	-9.35283
立ち	-9.35291
部屋	-9.35366
を使った	-9.35375
真	-9.35397
成分	-9.35421
提供	-9.35456
ても	-9.3554
ヒ	-9.35553
注文	-9.35569
ドラマ	-9.35641
アン	-9.35746
最近	-9.35763
先に	-9.35824
いろいろな	-9.35871
注意	-9.35876
パソコン	-9.35893
通信	-9.36014
ちゃん	-9.36061
春	-9.36144
試合	-9.36152
何を	-9.36169
行為	-9.36195
事務所	-9.36202
すごく	-9.36339
w	-9.36468
r	-9.36518
言う	-9.36529
決定	-9.3654
ショップ	-9.36626
種	-9.36648
観光	-9.3667
があるので	-9.36722
馬	-9.36843
行って	-9.36916
31	-9.36946
映像	-9.36955
アメリカ	-9.37064
▁-	-9.37082
V	-9.37094
l	-9.37114
対象	-9.3719
ようで	-9.37235
最大	-9.37334
手術	-9.37338
ワ	-9.37388
読んで	-9.37395
犬	-9.3741
たくさん	-9.37434
レベル	-9.37436
あと	-9.37444
公	-9.3745
悪	-9.37704
込み	-9.37802
を使う	-9.37971
メディア	-9.38068
ボ	-9.38146
ここ	-9.38146
指定	-9.38194
コメント	-9.38201
▁いつも	-9.3821
美味しい	-9.38229
それぞれの	-9.38298
が必要です	-9.38392
根	-9.38397
できません	-9.38552
一人	-9.38557
長く	-9.38567
を作って	-9.38624
努力	-9.38665
障害	-9.38689
というのが	-9.38749
会社の	-9.38749
横	-9.38774
業界	-9.3884
負担	-9.38844
金額	-9.38883
エリア	-9.39021
ピ	-9.39024
価値	-9.39035
持ち	-9.39056
ほとんど	-9.39067
が必要	-9.39212
▁最近	-9.39239
色々な	-9.39282
時間が	-9.39296
建物	-9.39332
ライン	-9.39336
ですよ	-9.3935
ホ	-9.39468
リング	-9.39586
いたしました	-9.39645
500	-9.39665
ていく	-9.39711
ごとに	-9.39713
k	-9.39745
スペース	-9.39858
傷	-9.39939
のであれば	-9.3995
フリー	-9.39971
後の	-9.39997
ですか	-9.40019
特別	-9.40052
によっては	-9.401
を利用して	-9.40103
母	-9.40106
ありません	-9.40189
見る	-9.40253
クラス	-9.40371
私も	-9.40433
トラブル	-9.4045
頑張って	-9.4046
宮	-9.40469
ご利用	-9.40642
介護	-9.40645
らない	-9.40678
命	-9.40772
と思いました	-9.40894
基本	-9.40899
▁先日	-9.41028
認識	-9.41051
OK	-9.41062
番組	-9.41079
ソ	-9.41108
▁S	-9.4111
公園	-9.41147
大人	-9.41184
コンテンツ	-9.4129
選手	-9.41307
超	-9.41354
メンバー	-9.41452
活用	-9.41499
んだけど	-9.41574
f	-9.41578
転職	-9.41672
なども	-9.41682
大切な	-9.41744
なんか	-9.41806
だけではなく	-9.41853
_	-9.41883
夏	-9.41888
いきます	-9.41974
仕事を	-9.42026
スマホ	-9.42104
何度も	-9.42306
施術	-9.42313
使える	-9.42321
+	-9.42395
ど	-9.42437
などに	-9.42448
程度	-9.42574
あの	-9.42761
のない	-9.42843
やっぱり	-9.42875
駐車場	-9.42891
ならば	-9.42916
していて	-9.42947
自由	-9.42984
てきた	-9.4308
てしまった	-9.43151
正	-9.43172
合	-9.43174
全て	-9.43193
▁4	-9.43391
たち	-9.43392
常に	-9.43406
いただく	-9.43443
カフェ	-9.43496
指導	-9.43537
目に	-9.43557
なぁ	-9.43647
限定	-9.43701
されていた	-9.43734
ことから	-9.43741
してから	-9.43854
一部	-9.43987
日間	-9.4407
計算	-9.44109
米	-9.44269
今日は	-9.443
船	-9.44303
ロー	-9.44332
悪い	-9.44382
魚	-9.44432
なくても	-9.44532
ツール	-9.44566
美しい	-9.44578
ほしい	-9.4467
時間を	-9.44707
土地	-9.44813
プレゼント	-9.44879
▁私の	-9.44904
当社	-9.45018
読み	-9.45073
法人	-9.45111
今後	-9.45133
セミナー	-9.45171
みんな	-9.45215
雪	-9.454
気になる	-9.45434
みたいな	-9.4545
一日	-9.45483
成功	-9.45566
検討	-9.4563
暮らし	-9.45633
操作	-9.45639
Web	-9.45716
一般	-9.45748
丸	-9.45794
売却	-9.45881
80	-9.45957
なくて	-9.45974
O	-9.46059
恋愛	-9.46208
▁私も	-9.46367
内の	-9.4637
コーヒー	-9.464
倍	-9.4641
悩み	-9.4645
と言って	-9.46537
人で	-9.46581
制	-9.46656
無料で	-9.46661
大きく	-9.46683
服	-9.46705
王	-9.46709
▁第	-9.46782
秋	-9.46865
ふ	-9.46876
歴史	-9.4693
▁自分の	-9.46962
研修	-9.47163
階	-9.47165
書き	-9.4719
ものは	-9.47215
追加	-9.47278
♪	-9.47291
サロン	-9.47307
今日	-9.47352
を行います	-9.47392
ここで	-9.47423
リスク	-9.47429
まして	-9.4747
の上	-9.47473
館	-9.47477
などが	-9.47506
ためには	-9.47536
へと	-9.47549
校	-9.47623
いただきました	-9.47699
▁まずは	-9.47731
ご注文	-9.47757
これまで	-9.47859
死	-9.47878
食品	-9.47903
ていました	-9.4794
重要な	-9.48009
保護	-9.48015
士	-9.48179
女子	-9.48204
ベ	-9.4821
クラブ	-9.4825
家庭	-9.48395
料	-9.48423
野菜	-9.48502
気軽に	-9.48504
タイ	-9.48507
要素	-9.48555
エネルギー	-9.48618
知らない	-9.48631
手続き	-9.48673
テスト	-9.48693
の方は	-9.4874
▁●	-9.48748
を受けて	-9.48776
ダウンロード	-9.48821
レッスン	-9.48906
良く	-9.48955
実施	-9.49004
ようになりました	-9.49007
あなた	-9.49039
記憶	-9.49068
切り	-9.49117
シー	-9.49143
記録	-9.49282
講座	-9.49357
などは	-9.49391
お客様に	-9.49434
▁まだ	-9.49444
正しい	-9.49478
長い	-9.4953
応援	-9.49531
弊社	-9.49666
流れ	-9.49733
利益	-9.49783
発送	-9.49878
すでに	-9.4992
痛み	-9.49955
難しい	-9.49964
スタート	-9.50027
論	-9.50037
行った	-9.5005
組	-9.50072
申請	-9.50094
肉	-9.50209
▁まず	-9.50209
込んで	-9.50222
スター	-9.50235
を選ぶ	-9.50277
ック	-9.50374
トレーニング	-9.50376
比較	-9.50395
今回	-9.50404
かも	-9.50511
どうしても	-9.50544
弁護士	-9.5057
温泉	-9.50584
を見る	-9.5059
幸せ	-9.50595
によると	-9.50657
全ての	-9.50669
コード	-9.50727
氏	-9.50783
行う	-9.5093
ほぼ	-9.50944
興味	-9.50986
することが	-9.51096
座	-9.51121
なのですが	-9.51156
事が	-9.51162
松	-9.51165
わけです	-9.51191
太	-9.51287
だが	-9.51331
依頼	-9.51337
タイム	-9.51373
質	-9.51394
なった	-9.51483
に行って	-9.51495
寺	-9.51566
▁その後	-9.5161
可能	-9.51622
差	-9.51719
▁今回	-9.5172
先生	-9.51724
為	-9.51782
せず	-9.51784
と言われています	-9.51814
歯	-9.5183
ファッション	-9.51892
名前	-9.51899
今の	-9.51917
もしくは	-9.52097
器	-9.52217
授業	-9.52229
言って	-9.52279
re	-9.52303
修理	-9.52338
買取	-9.52364
友達	-9.52373
収入	-9.52522
権	-9.52524
回答	-9.5254
できた	-9.52546
旅	-9.52635
返済	-9.52638
想像	-9.52642
出し	-9.52664
200	-9.52816
ット	-9.52868
なぜ	-9.52886
キー	-9.53005
▁5	-9.53067
を通して	-9.53185
コミュニケーション	-9.5324
時から	-9.53241
▁私が	-9.53306
送信	-9.53362
マンション	-9.5348
良かった	-9.53505
者の	-9.53582
人も	-9.53676
を行い	-9.53734
未来	-9.53763
きちんと	-9.53839
結構	-9.53859
を持っている	-9.53979
いれば	-9.54022
今は	-9.54036
客	-9.54233
かつ	-9.54275
多い	-9.54316
下記	-9.54417
反応	-9.5445
みたい	-9.54478
までに	-9.54489
ランキング	-9.54525
きっと	-9.54562
項目	-9.54596
=	-9.54684
仲間	-9.54685
みて	-9.54699
ものが	-9.54723
気が	-9.5479
までの	-9.54965
分析	-9.54981
入れ	-9.55006
モノ	-9.55044
不動産	-9.5508
都市	-9.55116
一つ	-9.55172
素	-9.55198
のではないか	-9.55249
の中から	-9.55261
満足	-9.55271
修正	-9.55276
賞	-9.55293
番号	-9.55327
調整	-9.55336
からは	-9.55477
in	-9.55495
生産	-9.5554
思い出	-9.55541
はとても	-9.55553
自己	-9.55555
▁■	-9.55556
ネットワーク	-9.55581
桜	-9.5561
の中	-9.55617
基準	-9.55729
ことがある	-9.55803
酒	-9.55873
おります	-9.559
どんどん	-9.55932
とのこと	-9.55952
ギ	-9.55986
わからない	-9.5599
ハイ	-9.56036
んですよ	-9.56045
事実	-9.56176
脳	-9.56247
設備	-9.56321
資格	-9.56406
必要があります	-9.56407
場合があります	-9.56473
もので	-9.56499
医師	-9.56502
ローン	-9.56529
様に	-9.56537
リン	-9.56548
とした	-9.56552
彼女	-9.56554
飲み	-9.56646
ただ	-9.56674
をご紹介します	-9.56679
類	-9.56704
参加者	-9.56725
声	-9.56736
こともあります	-9.56812
b	-9.56816
よかった	-9.56874
買って	-9.56902
身体	-9.56943
しているので	-9.56961
県	-9.56963
気分	-9.56992
資料	-9.57006
頃	-9.57021
を通じて	-9.57122
冬	-9.57126
井	-9.5714
聞いて	-9.57316
社員	-9.57343
千	-9.57355
猫	-9.57381
各種	-9.5746
キャラクター	-9.57533
みると	-9.57568
皆さん	-9.57603
するのが	-9.57623
指	-9.57632
トイレ	-9.57711
ラン	-9.5774
げ	-9.57832
▁もう	-9.57837
するための	-9.57868
祭	-9.57969
IT	-9.57998
観	-9.58005
ところで	-9.58052
渡	-9.58114
お気軽に	-9.5813
こちらの	-9.58136
I	-9.58176
付き	-9.58208
もなく	-9.5821
趣味	-9.58283
シーン	-9.58288
再生	-9.58293
[	-9.58341
費	-9.58345
することができる	-9.58349
来て	-9.58357
でき	-9.5838
骨	-9.58418
▁平成	-9.58429
最後の	-9.58469
アルバム	-9.5851
担当	-9.58529
家の	-9.5854
早い	-9.58571
女の子	-9.58574
▁2017	-9.58659
ませ	-9.58671
額	-9.58684
来た	-9.58696
しましたが	-9.58711
もらう	-9.58772
展示	-9.58803
方に	-9.58858
なくなる	-9.58928
食べる	-9.58987
スーパー	-9.59051
定	-9.59055
を受ける	-9.59056
×	-9.59058
▁実は	-9.5906
しよう	-9.59064
妻	-9.59073
を持ち	-9.59124
Z	-9.59129
左	-9.5918
持って	-9.59184
コスト	-9.59222
レストラン	-9.59266
季節	-9.59343
co	-9.59447
っと	-9.59482
あって	-9.595
近く	-9.59521
マー	-9.59536
こそ	-9.59546
毎年	-9.59598
トップ	-9.59734
低	-9.59743
ないように	-9.59767
、『	-9.59804
行き	-9.59832
請求	-9.59898
アカウント	-9.60046
右	-9.6005
ものの	-9.60055
訪問	-9.60132
チケット	-9.60143
」(	-9.60156
達	-9.602
記	-9.6021
失敗	-9.60247
iPhone	-9.60264
信頼	-9.60317
いろんな	-9.60334
明	-9.60409
スキル	-9.6044
現在の	-9.60453
地方	-9.60489
巻	-9.60676
オリジナル	-9.60677
上に	-9.60733
かと思います	-9.60794
であっても	-9.60812
姿勢	-9.60815
どうぞ	-9.60855
赤	-9.60917
運転	-9.60972
あなたが	-9.61019
を受けた	-9.61099
園	-9.61121
波	-9.61218
運用	-9.61226
保証	-9.61248
成	-9.61282
可能性があります	-9.61299
いても	-9.61313
古	-9.61405
やり	-9.61409
自動車	-9.61409
と思いますが	-9.6146
第一	-9.61528
魅力	-9.6153
子ども	-9.61548
皆様	-9.61588
解説	-9.6166
閲覧	-9.61672
文章	-9.61699
日本人	-9.61703
きて	-9.6184
com	-9.6184
箱	-9.61889
お問い合わせ	-9.61915
さんに	-9.61935
んですけど	-9.6199
複数の	-9.62074
攻撃	-9.62088
サン	-9.62159
くれた	-9.62176
橋	-9.62311
▁[	-9.62434
向け	-9.62441
せる	-9.6247
強く	-9.62559
会場	-9.62634
将来	-9.62645
のだが	-9.62669
さま	-9.62703
もし	-9.62704
してみました	-9.6272
の高い	-9.62734
ご連絡	-9.62761
だと思う	-9.62879
違い	-9.6289
▁そう	-9.62951
小さい	-9.62974
フル	-9.63075
制限	-9.63085
女性の	-9.63124
疲れ	-9.63286
ていない	-9.63309
色々	-9.63334
▁このような	-9.63361
裏	-9.63403
をはじめ	-9.63426
際に	-9.63435
ませんでした	-9.63441
とっても	-9.63447
の話	-9.63462
不足	-9.63472
一人で	-9.63501
あるいは	-9.63524
少しずつ	-9.63647
大きい	-9.63671
集	-9.63672
昭和	-9.63722
300	-9.63879
されており	-9.63922
人気の	-9.63927
四	-9.64022
機器	-9.64024
簡単な	-9.64045
使い	-9.64069
剤	-9.64076
までは	-9.64101
大丈夫	-9.64291
総	-9.64306
産業	-9.64334
気に	-9.64383
70	-9.64396
メールアドレス	-9.64449
当然	-9.64461
星	-9.64462
こういう	-9.64482
ったり	-9.64498
u	-9.64537
構造	-9.64537
のうち	-9.64641
CD	-9.64647
職	-9.64651
方も	-9.64828
@	-9.64873
感覚	-9.65018
▁*	-9.65047
実績	-9.6506
最高	-9.65177
になってしまう	-9.65232
会議	-9.65295
後は	-9.653
させていただきました	-9.65459
損	-9.65581
たくない	-9.65636
んですよね	-9.65657
合い	-9.65705
させ	-9.65947
良	-9.66056
いたら	-9.66075
下記の	-9.66088
便利な	-9.66136
新聞	-9.66234
戦争	-9.66254
門	-9.66283
ホーム	-9.66314
会話	-9.66316
▁実際に	-9.66348
利用者	-9.66362
いろいろ	-9.66391
全部	-9.66417
してくれます	-9.66465
チャンス	-9.66507
すごい	-9.66513
条	-9.66523
▁それが	-9.6655
印刷	-9.66615
確実に	-9.66781
谷	-9.66811
つき	-9.66858
可能です	-9.66894
をした	-9.66906
のお	-9.66968
いつでも	-9.66991
探し	-9.67003
もない	-9.67011
電気	-9.67121
地域の	-9.67153
内で	-9.67202
することは	-9.67317
州	-9.67327
員	-9.67328
これが	-9.6734
メリット	-9.6737
答え	-9.67391
削除	-9.67438
出演	-9.67468
にくい	-9.67469
中央	-9.67548
求人	-9.67583
感謝	-9.67587
限り	-9.67626
応募	-9.67626
少しでも	-9.67683
2017	-9.67737
作って	-9.67755
弱	-9.67777
局	-9.67844
ようだ	-9.67895
する事	-9.67937
とする	-9.67948
接続	-9.67982
ワン	-9.68003
血	-9.68076
いません	-9.68081
嬉しい	-9.68082
しやすい	-9.68095
ワイン	-9.68151
方の	-9.682
話題	-9.68224
に関して	-9.683
状態で	-9.68349
▁しかも	-9.68409
のかな	-9.68425
しまいます	-9.68451
られている	-9.68484
体の	-9.68501
自分に	-9.68532
思う	-9.68536
の問題	-9.6857
られて	-9.68582
監督	-9.6859
製造	-9.68605
も多く	-9.68652
日本語	-9.68691
なくなった	-9.68695
してきました	-9.68734
丁寧に	-9.68742
責任	-9.68751
シーズン	-9.68762
られ	-9.68778
に対し	-9.68853
せずに	-9.68893
編集	-9.6897
マッサージ	-9.69125
ゆっくり	-9.69143
ドル	-9.69158
ほ	-9.69184
午後	-9.69186
予想	-9.69237
ママ	-9.69372
距離	-9.69401
てしまいます	-9.69456
というもの	-9.6948
栄養	-9.69516
彼の	-9.69599
と呼ばれる	-9.69655
ペ	-9.69662
新規	-9.69681
言い	-9.69684
だけの	-9.69718
離婚	-9.69771
落ち	-9.69789
その後	-9.69799
又は	-9.6994
させて頂きます	-9.69942
程	-9.70026
べ	-9.70117
雑誌	-9.70134
いましたが	-9.70138
まま	-9.70197
働き	-9.70206
ことができました	-9.70233
ております	-9.70245
べき	-9.70273
笑顔	-9.70273
電	-9.70335
クリニック	-9.7037
についても	-9.70436
DVD	-9.70445
種類の	-9.70467
or	-9.70512
サー	-9.70659
を取り	-9.70669
されていない	-9.7075
導入	-9.70774
人たち	-9.7088
v	-9.71065
発生	-9.71097
1000	-9.71125
演奏	-9.7113
ご予約	-9.71147
だって	-9.71159
相場	-9.71168
セックス	-9.71182
最初の	-9.71192
mm	-9.71268
年生	-9.71336
首	-9.7139
に入って	-9.71398
キャッシング	-9.7141
加工	-9.71427
h	-9.71501
なって	-9.71506
筋肉	-9.7154
認定	-9.71659
構成	-9.71688
ですから	-9.71759
半	-9.71789
そうだ	-9.71849
適切な	-9.71867
時間は	-9.71964
委員会	-9.72001
字	-9.72004
▁M	-9.72012
可能な	-9.72016
掲示板	-9.7202
極	-9.72039
屋さん	-9.72052
▁こんにちは	-9.72139
現実	-9.72211
できれば	-9.723
が可能です	-9.72323
したいと思います	-9.72363
協力	-9.72488
便	-9.72515
と思っている	-9.72538
ぶ	-9.72579
厳しい	-9.72608
なければならない	-9.7263
物語	-9.72633
弾	-9.72655
利	-9.72674
対	-9.72694
見た	-9.72699
安く	-9.72718
勝	-9.7272
きます	-9.72808
総合	-9.72819
特徴	-9.72853
ご相談	-9.72892
ラー	-9.72892
尾	-9.7291
専門	-9.7292
高校	-9.73142
京都	-9.73165
被害	-9.73327
強	-9.73445
娘	-9.73454
と共に	-9.73499
するには	-9.73512
北海道	-9.73593
ぼ	-9.73692
現場	-9.73694
機関	-9.73717
ログイン	-9.73921
クリスマス	-9.73925
教	-9.73936
うまく	-9.73983
だけど	-9.7402
al	-9.74085
食べて	-9.74191
軍	-9.74279
古い	-9.74308
してしまった	-9.74314
てくれる	-9.74402
建築	-9.74413
スマートフォン	-9.74508
受け	-9.74521
市民	-9.74551
株	-9.74566
回復	-9.74574
んですね	-9.74599
韓国	-9.74601
かかる	-9.74679
ゆ	-9.74697
両	-9.74721
しません	-9.74727
国の	-9.74736
書類	-9.74746
書いた	-9.74751
ですし	-9.74763
取得	-9.7477
無理	-9.74798
絶対に	-9.74844
▁6	-9.74853
実行	-9.74867
ここに	-9.7488
草	-9.74952
女性が	-9.74974
講師	-9.74978
タイトル	-9.75107
相	-9.75126
ないと	-9.75136
クレジットカード	-9.75188
を感じる	-9.7519
動作	-9.75196
これを	-9.75198
事情	-9.75237
インストール	-9.75274
▁C	-9.75281
知	-9.75304
住所	-9.7542
これらの	-9.75428
居	-9.75434
トン	-9.75541
地震	-9.75905
商品を	-9.76073
動物	-9.76073
ていて	-9.76076
公式	-9.76126
いか	-9.76229
僕	-9.76257
間に	-9.76275
疑問	-9.76288
しまい	-9.763
付	-9.76318
鳥	-9.76333
葉	-9.76363
よろしくお願いします	-9.7637
断	-9.7637
生徒	-9.76463
角	-9.76471
者が	-9.76541
もらえる	-9.76561
が無い	-9.76631
90	-9.76807
を利用する	-9.76859
予防	-9.7695
過ぎ	-9.76971
際	-9.76976
実践	-9.76984
友人	-9.77003
買い	-9.77047
層	-9.77061
非	-9.77246
だったら	-9.77262
逆	-9.77289
しかない	-9.77299
内に	-9.77339
楽しみ	-9.77368
未	-9.77379
案内	-9.77401
アイ	-9.77403
記念	-9.77415
影響	-9.77421
といえば	-9.77439
だけでも	-9.77463
るのは	-9.77504
全然	-9.77514
相手の	-9.77541
変	-9.77554
プラス	-9.77609
その他	-9.77615
逆に	-9.77696
十分	-9.77711
焼き	-9.77713
時点で	-9.77733
▁7	-9.77737
オン	-9.778
有名な	-9.7784
法律	-9.77901
彼	-9.77986
お願い	-9.77987
数字	-9.781
の違い	-9.7811
国民	-9.78151
前から	-9.78172
若い	-9.78185
が出る	-9.78187
満	-9.7819
方法を	-9.78221
週	-9.78228
ご紹介	-9.78231
携帯	-9.78244
完成	-9.78263
増	-9.78282
秒	-9.78354
開	-9.78355
▁他の	-9.78387
られない	-9.7847
いただけます	-9.78514
ビル	-9.78541
お話	-9.78576
されること	-9.78584
油	-9.7859
刺激	-9.78619
里	-9.78631
つく	-9.78763
なりました	-9.78781
壁	-9.78806
としての	-9.7885
深い	-9.78862
ないので	-9.78864
カット	-9.78892
ほか	-9.78986
板	-9.79003
ボタン	-9.79004
いますが	-9.7901
始めた	-9.79032
ようになった	-9.79054
出来ない	-9.79076
きっかけ	-9.79087
八	-9.79132
現状	-9.79145
顧客	-9.7915
婚活	-9.79202
団	-9.79212
ルーム	-9.79225
そこに	-9.79258
の情報	-9.79356
を入れて	-9.795
町の	-9.79513
系の	-9.79516
事は	-9.79542
ロック	-9.79552
向上	-9.79558
資金	-9.79661
側	-9.79676
どのように	-9.79705
要	-9.79716
深く	-9.79767
民	-9.79822
お願いします	-9.79839
いま	-9.79954
治	-9.79986
☆	-9.80005
僕は	-9.80013
お届け	-9.80061
jp	-9.80065
汚れ	-9.80101
できるように	-9.80157
終わり	-9.80172
広く	-9.80231
性格	-9.80244
ルール	-9.80322
アル	-9.80346
複数	-9.80352
かった	-9.80398
茶	-9.804
製作	-9.80421
みました	-9.80435
ステージ	-9.80459
HP	-9.80481
サッカー	-9.80523
an	-9.80587
しまいました	-9.80615
夫婦	-9.80649
ひと	-9.8068
美容	-9.80704
▁これから	-9.80713
ことになります	-9.80728
ランチ	-9.80757
みる	-9.80831
その他の	-9.80852
うちに	-9.80894
ペット	-9.80989
院	-9.81012
に必要な	-9.8103
科	-9.81048
はまだ	-9.81051
バージョン	-9.81082
となっております	-9.81127
売り	-9.81321
テーブル	-9.8133
の中には	-9.81336
設置	-9.81366
レンタル	-9.81416
積極的に	-9.8154
元気	-9.81544
計	-9.81598
危険	-9.8166
霊	-9.81716
家に	-9.81719
定期的に	-9.81798
市で	-9.81849
クリーム	-9.81896
当店	-9.81911
かけ	-9.81942
まとめ	-9.81944
できるだけ	-9.81963
筋	-9.81988
続けて	-9.8201
を含む	-9.82062
できて	-9.82082
奥	-9.82091
腕	-9.82119
自転車	-9.82144
込む	-9.82179
年以上	-9.82188
える	-9.82222
官	-9.82225
異	-9.82261
▁このように	-9.82267
自宅	-9.82286
五	-9.82332
予算	-9.82377
づくり	-9.82404
キャンセル	-9.82425
▁8	-9.82429
買い物	-9.82505
すべき	-9.82515
訳	-9.82538
外国人	-9.82547
歳の	-9.82583
協会	-9.82633
ストーリー	-9.82638
画	-9.82682
神社	-9.82706
青	-9.82734
en	-9.82744
診断	-9.82765
じゃ	-9.82771
あらゆる	-9.82788
まったく	-9.82816
がとても	-9.8283
発行	-9.82834
展	-9.82859
みてください	-9.82901
納得	-9.83016
建設	-9.83028
湯	-9.83029
するため	-9.83049
仕様	-9.83054
メイン	-9.83057
と言われる	-9.831
km	-9.83105
選び	-9.8322
についての	-9.83281
意見	-9.83287
話を	-9.83316
必要がある	-9.83332
通知	-9.83348
始め	-9.83366
に行った	-9.8337
普通に	-9.8342
スピード	-9.83431
こちら	-9.83474
過去	-9.83478
姿	-9.83511
オンライン	-9.83566
森	-9.83624
特別な	-9.83649
ますので	-9.83661
可能性	-9.83679
バイク	-9.83715
URL	-9.83788
ニー	-9.83801
分からない	-9.83819
診療	-9.83836
分野	-9.83866
ひとつ	-9.83878
なん	-9.83895
敵	-9.83919
ことでしょう	-9.83944
したこと	-9.83972
運	-9.83986
玉	-9.83991
日まで	-9.84034
工場	-9.84112
師	-9.84131
サーバー	-9.84183
を紹介	-9.84199
あたり	-9.84199
取	-9.84227
は何	-9.84232
したもの	-9.84233
申し込み	-9.84249
タイプの	-9.84261
体制	-9.84328
宿泊	-9.84441
専用	-9.84461
を見ると	-9.84487
体重	-9.84501
来る	-9.84512
▁“	-9.84544
一覧	-9.84544
高く	-9.84673
なし	-9.84708
場所に	-9.84745
お知らせ	-9.84758
感情	-9.84786
▁_	-9.84803
処分	-9.84815
脱	-9.84863
と思われる	-9.8491
省	-9.84915
通常	-9.84935
完全に	-9.84974
ご購入	-9.85105
してくれた	-9.85109
女性は	-9.85112
考える	-9.85124
絶対	-9.85131
られます	-9.85158
フォーム	-9.85323
落	-9.85373
今年	-9.85384
の利用	-9.85397
普通	-9.85441
お問い合わせください	-9.85444
▁ここで	-9.85459
塩	-9.85466
▁ここでは	-9.85635
合う	-9.8568
▁ぜひ	-9.85696
しい	-9.8571
ファ	-9.85718
x	-9.85724
堂	-9.85734
続ける	-9.85758
天気	-9.85765
券	-9.85795
いるので	-9.85797
すぎて	-9.85812
ミニ	-9.85824
羽	-9.85845
既に	-9.85868
形で	-9.8591
提案	-9.85913
ビタミン	-9.85928
まだまだ	-9.85934
早	-9.8595
の原因	-9.85959
場合がございます	-9.85979
割引	-9.85999
▁2016	-9.8601
感動	-9.86021
発見	-9.8607
材料	-9.86081
ing	-9.86109
を行っています	-9.8612
労働	-9.86199
症	-9.86236
可愛い	-9.86252
手数料	-9.86306
幅	-9.8636
▁今まで	-9.86375
シャ	-9.86377
人を	-9.86427
ることができます	-9.86436
社長	-9.86447
固定	-9.86469
今後の	-9.86494
改めて	-9.86573
もちろん	-9.86582
担当者	-9.86624
パートナー	-9.86667
宿	-9.86692
生まれ	-9.86698
関係者	-9.86737
最高の	-9.86747
広	-9.86791
2000	-9.86837
言	-9.86873
普通の	-9.86892
▁ちょっと	-9.86903
そのような	-9.86912
キャリア	-9.86924
▁こんな	-9.86933
目の	-9.86944
がありません	-9.86976
機械	-9.86984
を探す	-9.86994
用意	-9.87133
を使用して	-9.87212
急	-9.87219
働く	-9.8722
やる	-9.87235
回目	-9.87329
つけ	-9.87395
ジャ	-9.87403
無い	-9.87443
の方に	-9.87548
胸	-9.87551
具体的な	-9.87562
パターン	-9.87578
難	-9.87608
っています	-9.87644
に応じて	-9.87664
旦那	-9.87687
柄	-9.87702
on	-9.87705
そこまで	-9.87719
現	-9.87747
が悪い	-9.87768
35	-9.8777
いたので	-9.87817
ホール	-9.87896
報道	-9.87921
わかる	-9.87936
共有	-9.8795
平均	-9.87988
高齢者	-9.88001
特	-9.88001
人物	-9.88032
▁なので	-9.88034
とにかく	-9.88069
ベスト	-9.88083
継続	-9.88105
みましょう	-9.88107
得	-9.88142
公演	-9.88163
転	-9.88252
言語	-9.88274
代表	-9.88352
に入る	-9.88362
▁9	-9.88404
▁本当に	-9.88409
新たに	-9.88443
完了	-9.88633
になること	-9.88633
アート	-9.88646
ミス	-9.88675
レース	-9.88731
にとっては	-9.88736
をもって	-9.88744
打ち	-9.88808
Google	-9.88824
事例	-9.88937
作る	-9.88951
しなければならない	-9.88953
更に	-9.88986
喜んで	-9.8899
調	-9.8905
はあまり	-9.89063
億円	-9.89137
さんと	-9.89154
端	-9.89156
髪	-9.89167
自動	-9.89172
に来て	-9.89172
万人	-9.89172
レス	-9.89227
なんだ	-9.89247
君	-9.89272
して下さい	-9.89301
方法は	-9.89323
▁それでも	-9.89337
信	-9.89416
発展	-9.89431
ぬ	-9.89434
SNS	-9.89483
深	-9.89489
植物	-9.89527
記載	-9.89542
級	-9.89551
だし	-9.89582
Q	-9.89642
ハウス	-9.89644
みたいです	-9.89658
車の	-9.89665
んだよ	-9.89704
アジア	-9.89711
▁P	-9.89739
周辺	-9.89772
スポット	-9.89783
食材	-9.89826
口コミ	-9.89827
通販	-9.89833
なります	-9.89868
セフレ	-9.89954
WEB	-9.89973
LINE	-9.89985
le	-9.90007
肩	-9.90014
借金	-9.9003
セキュリティ	-9.90037
出来	-9.90069
生き	-9.90073
不倫	-9.90092
シート	-9.90121
仕組み	-9.90141
勤務	-9.90159
出張	-9.90236
可能性がある	-9.90239
バック	-9.90241
放	-9.90249
証	-9.90262
お酒	-9.90277
証拠	-9.90285
戸	-9.90297
乗り	-9.90329
▁B	-9.90396
考え方	-9.90429
卒業	-9.90432
ある程度	-9.90447
がん	-9.90452
バッグ	-9.90461
輪	-9.90467
▁あと	-9.90469
手段	-9.90506
許可	-9.90539
人材	-9.90638
当日	-9.90644
品質	-9.90647
ガス	-9.9071
精神	-9.90749
以前	-9.90768
越	-9.90792
オプション	-9.90849
妊娠	-9.9086
の際に	-9.90861
道路	-9.90872
バイ	-9.90971
自ら	-9.90982
空気	-9.91024
融資	-9.91041
ボール	-9.91068
ことが多い	-9.9108
電子	-9.91097
現代	-9.91115
の状態	-9.91122
バランス	-9.91165
それでも	-9.91171
金利	-9.91187
オフィス	-9.91205
であること	-9.91226
バイト	-9.91245
する必要があります	-9.91247
ようになります	-9.91249
国内	-9.91255
理	-9.91288
製	-9.91316
ビデオ	-9.91346
デジタル	-9.91392
の一部	-9.91405
お仕事	-9.91416
過	-9.91449
の流れ	-9.91467
編	-9.91469
www	-9.91481
端末	-9.91492
食べ物	-9.91518
意	-9.91529
を紹介します	-9.91535
ライフ	-9.91585
レビュー	-9.91705
データを	-9.91769
ショー	-9.91783
決済	-9.91797
就職	-9.91812
耳	-9.9183
チャ	-9.91838
自由に	-9.91842
フランス	-9.91847
細胞	-9.91857
緊張	-9.91874
がありますが	-9.91886
ar	-9.919
名の	-9.91986
忘れ	-9.9204
詳しく	-9.92056
いっぱい	-9.92101
いくら	-9.92164
▁まあ	-9.92172
習慣	-9.92197
自分を	-9.92218
入って	-9.9222
ガン	-9.92251
45	-9.92272
に参加	-9.92272
楽しんで	-9.92273
気がします	-9.92289
が良い	-9.92292
につきましては	-9.92312
ケーキ	-9.92331
苦労	-9.92346
なのに	-9.92367
袋	-9.9238
汗	-9.92391
戦略	-9.92394
禁止	-9.92406
以来	-9.92427
待ち	-9.92503
の一つ	-9.92528
乾燥	-9.92553
であろう	-9.92585
鉄	-9.92611
徐々に	-9.92621
パパ	-9.92671
の結果	-9.9269
余	-9.92733
するか	-9.92746
なんと	-9.92802
ご参加	-9.92856
▁何	-9.92896
ch	-9.92923
カル	-9.92933
▁これらの	-9.92952
沢	-9.92953
するという	-9.92989
バンド	-9.93006
日は	-9.93028
にならない	-9.93054
▁当	-9.93057
▁これまで	-9.93132
人間の	-9.93167
連	-9.93246
返	-9.93266
を超える	-9.9328
在庫	-9.93314
リフォーム	-9.93449
に行ってきました	-9.93455
異なる	-9.93495
ご家族	-9.93522
整備	-9.93524
誰でも	-9.93563
パー	-9.93567
▁確かに	-9.93656
出して	-9.93658
ここまで	-9.93688
場所で	-9.93743
ようになる	-9.93746
さえ	-9.93846
把握	-9.93855
わけ	-9.93864
資産	-9.93883
旧	-9.93919
キロ	-9.93932
の内容	-9.93935
頂く	-9.93936
心の	-9.9402
ライト	-9.9402
恋	-9.94042
ことができ	-9.9409
科学	-9.94103
お風呂	-9.94117
できなかった	-9.94119
もあるので	-9.94133
布	-9.94184
のだろうか	-9.94207
は非常に	-9.94218
企業の	-9.94249
世界の	-9.94264
をご覧ください	-9.94268
フィ	-9.94302
▁本日	-9.94355
見学	-9.94427
スクール	-9.94436
お得な	-9.94463
相手に	-9.94466
をしています	-9.9451
ありました	-9.94512
見える	-9.94561
シュ	-9.94586
かけて	-9.94598
化粧品	-9.946
メンテナンス	-9.94609
遠	-9.94609
人には	-9.94616
のなら	-9.94644
事項	-9.94646
情報が	-9.94662
先の	-9.94667
息子	-9.94688
個人情報	-9.94713
いつ	-9.94747
範囲	-9.94756
した場合	-9.94817
結局	-9.94893
なんとか	-9.94901
れた	-9.94933
スケジュール	-9.94933
の中でも	-9.94942
近	-9.94956
そんなに	-9.94974
空港	-9.94976
日本で	-9.95027
なんです	-9.95105
普段	-9.95113
男女	-9.95124
タン	-9.95136
節	-9.95148
2016	-9.95175
赤ちゃん	-9.95207
ベッド	-9.95239
パーティー	-9.95241
の写真	-9.95258
つつ	-9.9528
実際の	-9.95292
▁12	-9.95319
のだろう	-9.95423
反対	-9.95454
モン	-9.95455
方法で	-9.9547
有名	-9.95479
岩	-9.95587
腰	-9.95681
▁東京	-9.95738
交流	-9.95758
なるべく	-9.95784
吉	-9.95786
からも	-9.95796
宇宙	-9.95803
の間	-9.95811
知って	-9.95847
アドレス	-9.95985
st	-9.96022
▁F	-9.96056
ハン	-9.9606
となって	-9.96063
▁これが	-9.96081
縁	-9.96101
拡大	-9.96136
注	-9.96143
世代	-9.96144
職員	-9.96167
動	-9.96169
休み	-9.96179
月から	-9.96192
売	-9.96205
自信	-9.96207
向けの	-9.96255
があると	-9.96257
キャラ	-9.96286
坂	-9.96293
もう少し	-9.96305
当時	-9.96308
レポート	-9.96318
してみてください	-9.96403
ができます	-9.96439
のかもしれません	-9.96472
近くの	-9.96543
消費者金融	-9.96546
みた	-9.96573
ダメ	-9.96581
最後に	-9.96581
自身の	-9.96585
交渉	-9.96594
方々	-9.96615
米国	-9.96617
年から	-9.96626
いう	-9.96675
面接	-9.96798
私たち	-9.96841
京	-9.96923
の世界	-9.96955
のではなく	-9.96957
を持った	-9.96974
地図	-9.97002
私たちの	-9.97019
お金を	-9.97068
保管	-9.97084
お母さん	-9.97085
アドバイス	-9.97102
だな	-9.97105
もらった	-9.97114
接	-9.97116
んだろう	-9.97172
オフ	-9.97263
留学	-9.97263
特典	-9.97267
が一番	-9.97275
のでしょう	-9.97296
こともある	-9.97318
▁11	-9.97338
地区	-9.97407
ります	-9.97466
合わせ	-9.9757
マーク	-9.97584
▁大	-9.97593
到着	-9.97655
体調	-9.97692
出会い系	-9.9772
議論	-9.9773
やっと	-9.97789
リリース	-9.97794
切	-9.978
らず	-9.97856
ビール	-9.97891
買う	-9.97898
お客さん	-9.97961
ところに	-9.97974
派	-9.97981
テキスト	-9.98008
理由は	-9.9817
ころ	-9.98171
舞台	-9.9819
おいしい	-9.98226
返信	-9.98234
ドレス	-9.98242
重要	-9.98253
るように	-9.98254
雇用	-9.98305
大手	-9.9832
といっても	-9.98386
ことが出来ます	-9.98386
下の	-9.98436
ずつ	-9.98439
▁私	-9.98521
看護師	-9.98543
というか	-9.98545
ブラ	-9.98567
比較的	-9.98574
くん	-9.98622
傾向	-9.98634
浮気	-9.98709
ブル	-9.98709
公式サイト	-9.9872
進	-9.98759
職場	-9.98826
あれ	-9.9888
増加	-9.98891
貴重な	-9.98907
おすすめの	-9.98927
グッズ	-9.98927
車で	-9.99011
いった	-9.99024
知っている	-9.9905
当たり	-9.99058
材	-9.99066
方には	-9.99143
を行いました	-9.99201
利用する	-9.99202
氏は	-9.99237
ようにしましょう	-9.99238
てる	-9.99274
歩いて	-9.99277
もいい	-9.9931
事業者	-9.99313
造	-9.99323
具体的に	-9.99327
上記	-9.99374
ざ	-9.99425
リア	-9.99453
ネットで	-9.99457
ID	-9.99475
インド	-9.99485
デート	-9.99489
路	-9.99505
残り	-9.99547
工	-9.99556
庭	-9.99603
住	-9.99654
億	-9.99674
十	-9.9971
状	-9.99761
優しい	-9.99804
林	-9.99816
カバー	-9.99826
みなさん	-9.99856
いって	-9.99982
メールで	-10.0006
いると	-10.0006
隠	-10.0015
▁以前	-10.0021
結婚式	-10.0021
枠	-10.0028
はかなり	-10.0028
様子	-10.0029
ならない	-10.0037
してもらう	-10.0039
ほどの	-10.004
挑戦	-10.0042
床	-10.0045
感染	-10.0048
立場	-10.0053
手間	-10.0053
▁昨日	-10.0054
評判	-10.0058
あなたは	-10.0059
すぎ	-10.0061
ワーク	-10.0064
瞬間	-10.0066
いなかった	-10.0071
明日	-10.0075
説	-10.0076
上げ	-10.0077
誰	-10.0078
してます	-10.0079
長期	-10.008
カン	-10.0082
失	-10.0082
便利です	-10.0083
振り	-10.0083
間違い	-10.0084
掛け	-10.009
箇所	-10.009
最初に	-10.0092
を大切に	-10.0094
携帯電話	-10.0096
便利	-10.01
全体の	-10.01
場合もあります	-10.0106
申込	-10.0106
をお	-10.0108
いただける	-10.0113
モバイル	-10.0115
目を	-10.0117
工夫	-10.0121
人口	-10.0122
表情	-10.013
東京都	-10.0133
好	-10.0134
以降	-10.0134
税	-10.0145
においては	-10.0146
▁T	-10.0147
消費	-10.0153
聖	-10.0153
地元	-10.0156
がありますので	-10.0158
案	-10.0158
人もいる	-10.016
ックス	-10.0162
▁各	-10.0163
頂き	-10.0169
政治	-10.0169
勝手に	-10.017
どこ	-10.0171
痛	-10.0174
にあった	-10.0175
シャツ	-10.0178
少ない	-10.0178
とりあえず	-10.0178
小学校	-10.0179
か月	-10.0187
内部	-10.0189
待って	-10.0191
できました	-10.0195
源	-10.0197
を見た	-10.0198
時まで	-10.02
簡単	-10.0201
ご協力	-10.0201
実験	-10.0214
月の	-10.0219
にあります	-10.022
スタッフが	-10.0221
志	-10.0223
方針	-10.0224
▁私たちは	-10.0224
いくつか	-10.0232
内容を	-10.0235
昔	-10.0238
のことを	-10.0241
しばらく	-10.0243
福祉	-10.0243
患者	-10.025
お勧め	-10.0251
経	-10.0258
医	-10.026
ということを	-10.0265
以外にも	-10.0265
者は	-10.0272
パワー	-10.0273
を楽しむ	-10.0274
本日	-10.0274
z	-10.0274
twitter	-10.0279
払い	-10.028
だろうか	-10.0281
に近い	-10.0282
たちが	-10.0283
回数	-10.0284
を探して	-10.0286
OS	-10.0287
替え	-10.0288
わかって	-10.029
アプリケーション	-10.0292
電子書籍	-10.0292
退	-10.0293
一般的な	-10.0294
取り組み	-10.0299
これからも	-10.0303
ときには	-10.0309
ご来店	-10.0312
どういう	-10.0321
ウェブサイト	-10.0327
を出す	-10.0329
のもの	-10.0331
過ごす	-10.0331
鍵	-10.0332
保	-10.0334
読	-10.0334
されない	-10.0345
スキンケア	-10.0347
お茶	-10.0349
作った	-10.0351
▁詳しくは	-10.0354
予定です	-10.0354
アー	-10.0355
にもかかわらず	-10.0357
▁今年は	-10.0365
バン	-10.0371
昨年	-10.0376
好み	-10.0376
津	-10.0376
カードローン	-10.0378
コピー	-10.038
夫	-10.0381
▁あなたの	-10.0382
っていた	-10.0383
災害	-10.0385
シングル	-10.0386
百	-10.0387
出産	-10.0389
整理	-10.0391
ネタ	-10.0395
先輩	-10.0397
どれだけ	-10.0398
段階	-10.0398
・・	-10.0398
小説	-10.0398
流行	-10.0413
よろしくお願いいたします	-10.0415
電車	-10.0416
安定	-10.0416
効果がある	-10.0417
解	-10.0418
を選んで	-10.0422
キャ	-10.0425
されていました	-10.0426
日目	-10.0431
選挙	-10.0436
ピアノ	-10.0438
パス	-10.0438
登場	-10.044
チャレンジ	-10.0442
はある	-10.0447
を目指す	-10.0447
喜び	-10.0453
車両	-10.0455
誰か	-10.0458
という事	-10.0462
お部屋	-10.0463
肌の	-10.0467
が出て	-10.0468
豊かな	-10.0474
を行っている	-10.0477
鉄道	-10.0478
的には	-10.0478
できるよう	-10.048
終	-10.048
に合った	-10.048
何が	-10.048
しようと	-10.0481
が必要な	-10.0482
が少ない	-10.0486
送料	-10.0487
の良い	-10.0489
出発	-10.0489
塾	-10.0492
背景	-10.0494
破	-10.0501
有料	-10.0505
していますが	-10.0509
専門家	-10.051
400	-10.0511
を知る	-10.0512
しておく	-10.0517
マイ	-10.0517
ブラック	-10.0519
早めに	-10.0529
聞き	-10.053
年代	-10.0532
神経	-10.0533
政策	-10.0534
近い	-10.0537
お申し込み	-10.0547
香	-10.0548
ジェ	-10.0556
確かに	-10.0558
ようやく	-10.0559
問い合わせ	-10.0562
商品の	-10.0565
反	-10.0565
武	-10.0573
要因	-10.0576
ことが出来る	-10.0578
持っている	-10.0579
してみましょう	-10.058
の間に	-10.058
れない	-10.0582
を買う	-10.0582
これで	-10.0584
てきました	-10.0585
▁これからも	-10.0587
みんなで	-10.0587
香り	-10.0589
2015	-10.0592
たいと思います	-10.0593
警察	-10.0594
思った	-10.0597
別途	-10.0597
タイミング	-10.0603
共同	-10.0603
関心	-10.0604
だよ	-10.0609
レン	-10.061
の皆様	-10.0611
といいます	-10.0612
そこで	-10.0614
をつけて	-10.0615
ゼ	-10.0616
ではないでしょうか	-10.0621
初心者	-10.0621
特定の	-10.0622
の方々	-10.0622
都	-10.0627
'	-10.0627
滞在	-10.0627
の記事	-10.0628
がよく	-10.0632
大事な	-10.0636
政府	-10.0637
まさに	-10.0643
を使用する	-10.0651
ライ	-10.0653
オススメ	-10.0654
取材	-10.0656
CM	-10.0657
色の	-10.066
子育て	-10.0665
電話番号	-10.0668
▁今年も	-10.0668
試	-10.0669
を考える	-10.067
受験	-10.067
規制	-10.0671
感想	-10.0673
コーナー	-10.0675
フェ	-10.068
クリック	-10.068
パスワード	-10.0681
ロン	-10.0682
休日	-10.0686
そうで	-10.0688
色々と	-10.0698
っていう	-10.07
彼は	-10.0702
急に	-10.0703
加	-10.0703
ジュ	-10.0703
途中で	-10.0704
配	-10.0704
規模	-10.0706
ところです	-10.0708
ソフトウェア	-10.071
に入れて	-10.0711
ビー	-10.0712
午前	-10.072
使っている	-10.0725
時計	-10.0726
像	-10.0726
サイトの	-10.0728
平和	-10.073
の設定	-10.073
込んだ	-10.0733
キーワード	-10.0733
配送	-10.0734
ボランティア	-10.0738
向	-10.0738
異常	-10.0741
従業員	-10.0744
TV	-10.0747
特定	-10.0749
起こ	-10.0751
義	-10.0754
言えば	-10.0755
窓	-10.0756
卵	-10.0757
値段	-10.076
再び	-10.0761
すぎる	-10.0763
分かる	-10.0764
の仕事	-10.0764
認証	-10.0773
しないと	-10.0773
父	-10.0774
人数	-10.0777
円で	-10.0779
らしく	-10.0781
デビュー	-10.0785
久	-10.0791
オイル	-10.0794
ボックス	-10.0795
つい	-10.0799
段	-10.0803
にする	-10.081
こうした	-10.0812
を考えて	-10.0813
と言えます	-10.0817
ガラス	-10.0818
ッと	-10.082
一つの	-10.082
地球	-10.0823
荷物	-10.0823
多少	-10.0828
独自の	-10.0832
夕方	-10.0833
分かって	-10.0835
教えて	-10.0835
パッケージ	-10.0838
職業	-10.0839
お休み	-10.0843
地元の	-10.0855
決して	-10.0856
どこに	-10.0857
活動を	-10.0859
軽く	-10.0859
睡眠	-10.0859
為に	-10.0861
を使い	-10.0864
を取る	-10.0869
突然	-10.0872
即	-10.0877
こともあり	-10.0879
していると	-10.088
豊	-10.0881
に出	-10.0881
の高さ	-10.0881
コンサート	-10.0881
と言えば	-10.0883
手法	-10.0884
▁とても	-10.0885
成果	-10.0886
▁これで	-10.0889
政	-10.0889
皆	-10.0891
見た目	-10.0892
報酬	-10.0893
▁今日	-10.0896
だけでは	-10.0899
サイ	-10.0901
ゲ	-10.0902
章	-10.0904
と考える	-10.0908
イラスト	-10.0913
アンケート	-10.0917
どうやって	-10.0924
アレルギー	-10.0925
出会い系サイト	-10.0925
もありますが	-10.0934
嫌	-10.0938
クラ	-10.094
お電話	-10.0944
楽しめる	-10.0946
▁今は	-10.0946
最終	-10.0948
なあ	-10.095
言った	-10.0952
発言	-10.0953
ロシア	-10.0959
豊富な	-10.0964
やすく	-10.0964
わけではない	-10.0966
れて	-10.0967
ることで	-10.0969
不要	-10.0974
有効	-10.0981
最大の	-10.0981
注目	-10.0982
訓練	-10.0982
48	-10.0983
をお願いします	-10.0985
▁そういう	-10.0991
キッチン	-10.0995
沖縄	-10.0995
手順	-10.1001
100%	-10.1008
コントロール	-10.1011
末	-10.1012
書籍	-10.1013
実際	-10.1016
患者さん	-10.1017
自分は	-10.1018
が高く	-10.102
が可能	-10.1021
ていきます	-10.1024
Windows	-10.1039
ことはない	-10.104
ナー	-10.1043
▁ということで	-10.1044
▁2015	-10.1046
▁こちらの	-10.1049
半分	-10.105
ご案内	-10.1054
ドイツ	-10.1058
頂いた	-10.1058
ダンス	-10.1061
近くに	-10.1063
信用	-10.1064
▁日本の	-10.1065
派遣	-10.1071
する場合	-10.1072
別に	-10.1079
二人	-10.1081
▁最近は	-10.1082
世	-10.1088
現地	-10.1088
エル	-10.109
が出	-10.1096
顔を	-10.1097
ヌ	-10.1103
▁https	-10.1104
it	-10.111
00	-10.1111
ソン	-10.1113
なっている	-10.112
それほど	-10.112
める	-10.1121
ヘ	-10.1123
始める	-10.1124
くれました	-10.1126
の種類	-10.1127
再度	-10.1128
乗	-10.1134
だそうです	-10.1135
ぶり	-10.1138
打	-10.1141
▁新	-10.1144
実現	-10.1145
選	-10.1146
同時に	-10.1148
ちょっとした	-10.1149
恋人	-10.1149
効果が	-10.1156
私たちは	-10.1157
撃	-10.1164
をよく	-10.1166
施工	-10.1171
パック	-10.1175
清	-10.1176
情報は	-10.1179
▁http	-10.1183
そこ	-10.1183
がいる	-10.1186
メイク	-10.1186
事で	-10.1187
誰も	-10.1188
消費者	-10.1189
気持ちが	-10.1191
投票	-10.1194
扱い	-10.1194
と思っていた	-10.1197
の販売	-10.1198
列	-10.1198
一年	-10.1199
皮	-10.12
しまって	-10.1204
冊	-10.1205
辛い	-10.1207
ヨ	-10.1208
権利	-10.1211
アーティスト	-10.1212
▁なぜ	-10.1214
手を	-10.1219
そういった	-10.123
怖い	-10.1233
配布	-10.1234
相当	-10.1237
術	-10.1237
現金	-10.1246
▁一方	-10.1246
ブラウザ	-10.1247
モード	-10.1249
▁ありがとうございました	-10.1249
防止	-10.1251
▁毎日	-10.1253
入院	-10.1253
事態	-10.1253
向き	-10.1256
になってしまいます	-10.1261
私達	-10.1265
収集	-10.1265
大型	-10.1265
広い	-10.1269
教え	-10.1277
アルバイト	-10.1277
見られる	-10.128
建	-10.1285
靴	-10.1289
サイトで	-10.1292
標準	-10.1295
最新の	-10.1296
学び	-10.1298
ようと	-10.1298
等で	-10.13
▁それに	-10.13
部門	-10.1304
出て	-10.1308
駅から	-10.1311
日本に	-10.1324
飛び	-10.1325
変わり	-10.1329
アップデート	-10.133
腹	-10.1333
完全	-10.1334
てしまいました	-10.1336
ものだ	-10.134
の変化	-10.1343
交通	-10.1343
調べて	-10.1345
中です	-10.1345
受	-10.1347
ことはありません	-10.1348
の大きさ	-10.1349
▁僕は	-10.1351
記事を	-10.1354
になってしまった	-10.1355
を行って	-10.1356
側の	-10.1358
放置	-10.1358
等を	-10.1362
になりたい	-10.1362
引越し	-10.1363
進化	-10.1365
緑	-10.1365
>	-10.1366
オー	-10.137
聞く	-10.1373
ヴィ	-10.1373
まり	-10.1377
批判	-10.1378
俺	-10.1379
ことにより	-10.1379
繰り返し	-10.138
いくつかの	-10.1383
チン	-10.1385
押し	-10.1387
底	-10.1389
回り	-10.1391
連携	-10.1393
もあった	-10.1396
ろう	-10.1396
なければなりません	-10.1397
彼氏	-10.1402
ベル	-10.1402
ブルー	-10.1408
選択肢	-10.1409
家具	-10.141
Twitter	-10.1416
結	-10.1416
肌に	-10.1421
体に	-10.1421
日常	-10.1421
日記	-10.1423
ゲスト	-10.1427
国家	-10.1428
切れ	-10.143
母親	-10.1436
ることができる	-10.1442
生きる	-10.1443
彼女の	-10.1443
走	-10.1447
そこから	-10.145
鼻	-10.1451
若	-10.1451
報	-10.1453
を買って	-10.1455
降	-10.1457
先生の	-10.1458
ものに	-10.1465
いただいて	-10.1466
こんなに	-10.1466
忙しい	-10.1466
に合わせた	-10.1468
デメリット	-10.1471
新しく	-10.1473
泊	-10.1475
マーケティング	-10.1478
屋根	-10.148
台湾	-10.1488
しますので	-10.1497
と思ったら	-10.1498
とさせていただきます	-10.1501
なお	-10.1504
るのが	-10.1505
活躍	-10.1506
シェア	-10.1511
あらかじめ	-10.1512
良かったです	-10.1513
人が多い	-10.1514
本当の	-10.1515
友	-10.1519
方向	-10.152
にかけて	-10.1521
いき	-10.1521
片	-10.1523
罪	-10.1523
となると	-10.1528
頂きました	-10.1528
最後まで	-10.1529
いたり	-10.1531
写真を	-10.1542
出した	-10.1542
幅広い	-10.1543
関	-10.1543
今年は	-10.1543
続く	-10.1545
嬉しいです	-10.1545
当該	-10.1545
エン	-10.1547
思考	-10.1548
止め	-10.155
余裕	-10.1551
てくる	-10.1553
日より	-10.1561
だという	-10.1563
するように	-10.1569
つか	-10.157
Facebook	-10.157
世紀	-10.1577
一体	-10.1578
雲	-10.1585
やら	-10.1587
調べ	-10.1588
来ました	-10.1589
スタ	-10.1591
速度	-10.1593
るような	-10.1593
会社に	-10.1595
金融	-10.1596
▁ご	-10.1597
天然	-10.1612
おいて	-10.1613
リーダー	-10.1615
th	-10.1617
クリア	-10.1617
歩き	-10.162
優れた	-10.1622
ガイド	-10.1623
温	-10.1623
軽	-10.1627
がたくさん	-10.163
少年	-10.1631
約束	-10.1637
引	-10.1641
力を	-10.1641
想定	-10.1646
釣り	-10.1648
▁19	-10.1649
両親	-10.165
支払い	-10.1651
僕の	-10.1657
サプリメント	-10.1662
芸術	-10.1662
示	-10.1663
だけです	-10.1666
かわいい	-10.1667
したのは	-10.1669
なのだ	-10.167
せて	-10.167
をしっかり	-10.1672
ニキビ	-10.1673
ければ	-10.1674
土曜日	-10.1675
他にも	-10.1678
シン	-10.168
ちゃ	-10.1681
を確認	-10.1681
アイドル	-10.1682
スタジオ	-10.1683
そば	-10.1687
発信	-10.1695
可	-10.17
する方法	-10.1705
一部の	-10.1705
に比べて	-10.1706
児童	-10.1709
物を	-10.1711
飲む	-10.1711
ルー	-10.1711
ユ	-10.1719
くらいの	-10.1721
前後	-10.1726
療法	-10.173
そもそも	-10.1736
分け	-10.1737
こともできます	-10.1738
優勝	-10.1739
虫	-10.1739
視	-10.174
無事	-10.1741
時間に	-10.1745
カレー	-10.1745
着物	-10.1748
が違う	-10.1751
合格	-10.1751
休	-10.1751
ような気がします	-10.1754
証明	-10.1754
受信	-10.1755
脂肪	-10.176
読む	-10.1763
七	-10.1764
子供の	-10.1767
」、「	-10.1771
ご飯	-10.1773
炎	-10.178
今でも	-10.1784
新宿	-10.1788
たかった	-10.1789
も良い	-10.1792
生活を	-10.1792
上手く	-10.1795
ほうが	-10.1796
やり方	-10.1797
→	-10.1798
高級	-10.1802
がなく	-10.1803
ザー	-10.1806
当時の	-10.181
にしても	-10.181
▁ですから	-10.181
入学	-10.1813
綺麗な	-10.1821
▁みなさん	-10.1823
と思われます	-10.1825
ダイ	-10.1826
積	-10.183
主に	-10.183
てください	-10.1838
お友達	-10.1843
明らかに	-10.1843
管	-10.1846
の時間	-10.1847
当たり前	-10.1848
コンビニ	-10.1849
浜	-10.1852
薄	-10.1855
おく	-10.1856
ないといけない	-10.1859
検証	-10.1861
最新	-10.1865
▁ところが	-10.1866
がいい	-10.187
ご希望	-10.187
願い	-10.1872
に入った	-10.1875
▁やはり	-10.1883
だったり	-10.1884
毎月	-10.1885
の向上	-10.1885
収納	-10.1886
▁他にも	-10.189
仮	-10.1891
ゴルフ	-10.1893
と考えています	-10.1897
様の	-10.1897
ラーメン	-10.1898
を求める	-10.1898
岡	-10.1899
パフォーマンス	-10.19
まる	-10.1901
中には	-10.1901
ピン	-10.1905
置	-10.191
の上に	-10.1912
今後も	-10.1913
の皆さん	-10.1915
▁ここ	-10.1916
に向かって	-10.1922
会計	-10.1922
過去の	-10.1925
最適な	-10.1926
口座	-10.1934
仕事が	-10.1938
周り	-10.1939
英	-10.1939
at	-10.1942
意外と	-10.1944
若者	-10.1946
ゼロ	-10.1949
河	-10.195
フード	-10.1953
効率	-10.1957
サービスを	-10.1958
本体	-10.1959
作用	-10.196
に変更	-10.196
道具	-10.1966
借り	-10.1973
アプローチ	-10.1976
技	-10.1977
▁それから	-10.198
野球	-10.1982
何とか	-10.1982
思いを	-10.1982
創	-10.1984
逃げ	-10.1984
相続	-10.199
うち	-10.1991
時間帯	-10.1991
十分に	-10.1992
のひとつ	-10.1992
アイデア	-10.1995
義務	-10.2001
生地	-10.2002
ご相談ください	-10.2009
を目指して	-10.2009
サンプル	-10.2013
美術館	-10.2017
名古屋	-10.2022
サイン	-10.2022
わずか	-10.2032
経営者	-10.2032
念	-10.2032
をご紹介	-10.2034
副業	-10.2041
プール	-10.2042
台風	-10.2045
内容は	-10.2045
気がする	-10.2049
トリ	-10.205
さない	-10.2052
出る	-10.2054
通常の	-10.2063
トラ	-10.2065
伝え	-10.2065
風邪	-10.2068
日常生活	-10.2068
つまり	-10.2069
防	-10.207
してほしい	-10.2071
るので	-10.2074
大切に	-10.2078
交	-10.2078
▁そもそも	-10.2078
若干	-10.2079
そちら	-10.208
ではありますが	-10.2081
を行った	-10.2083
外部	-10.2094
ご質問	-10.2094
場面	-10.2103
ブロック	-10.2107
生まれた	-10.2109
を知って	-10.2112
パーツ	-10.2113
▁たとえば	-10.2114
事務	-10.2116
心を	-10.2118
不満	-10.2128
生きて	-10.2133
日程	-10.2136
▁同	-10.2145
してしまいました	-10.2145
眼	-10.2146
お手伝い	-10.2147
はどう	-10.2149
作品を	-10.215
江	-10.215
わけではありません	-10.2159
変わって	-10.216
▁★	-10.216
型の	-10.2161
高さ	-10.2164
たちは	-10.2166
指摘	-10.2167
▁実際	-10.2168
の声	-10.2172
るべき	-10.2172
とはいえ	-10.2173
店内	-10.2176
▁こちらは	-10.2182
クライアント	-10.2183
商	-10.2185
お話し	-10.2191
走り	-10.2191
誰もが	-10.2192
年前	-10.2193
▁最後に	-10.2193
皆様の	-10.2194
徒歩	-10.2195
ペン	-10.2195
時間の	-10.2195
現象	-10.2197
カウンセリング	-10.2201
殺	-10.2201
ランド	-10.2203
ごと	-10.2208
沢山の	-10.2209
をかけて	-10.2209
至	-10.2213
それに	-10.2214
プラ	-10.2218
場合に	-10.2218
お伝え	-10.2219
返品	-10.222
始めて	-10.222
相手が	-10.2226
窓口	-10.2228
何でも	-10.2228
基礎	-10.2228
例えば	-10.223
もありません	-10.2231
住民	-10.2236
致しました	-10.2237
穴	-10.2237
女性に	-10.2239
を探し	-10.2245
無事に	-10.2245
ありがとう	-10.2248
もう一度	-10.2248
変わる	-10.2249
もらって	-10.2252
▁当社は	-10.2252
それら	-10.2253
くなる	-10.2256
推進	-10.2256
ティー	-10.2257
横浜	-10.2258
経過	-10.226
ショッピング	-10.2261
ラジオ	-10.2264
リーグ	-10.2265
上昇	-10.2268
子供が	-10.227
家で	-10.2273
回目の	-10.2276
最近は	-10.2277
と言っても	-10.2282
あなたに	-10.2284
解消	-10.2286
昼	-10.2288
くれ	-10.2289
福岡	-10.229
タクシー	-10.2292
ノート	-10.2296
だけに	-10.2298
できるので	-10.2299
なかったので	-10.23
張り	-10.23
財産	-10.2304
上司	-10.2305
に対応	-10.2312
レンズ	-10.2317
不思議な	-10.2317
際には	-10.2319
細かい	-10.232
意味で	-10.2325
エステ	-10.2327
ようですが	-10.233
ベース	-10.233
できること	-10.233
の意味	-10.2331
においても	-10.2332
▁いや	-10.2333
JR	-10.2333
もらい	-10.2335
崎	-10.2336
の際は	-10.2338
こういった	-10.2338
充実	-10.2341
しますが	-10.2342
お腹	-10.2347
十分な	-10.2349
関西	-10.2366
が出てくる	-10.2367
町で	-10.2367
お菓子	-10.2367
ri	-10.2371
につき	-10.2371
諸	-10.2373
想い	-10.2374
エンジン	-10.2376
昨日	-10.2379
が強い	-10.238
細	-10.2381
▁その他	-10.2382
飲んで	-10.2384
伝	-10.2384
の為	-10.2385
私に	-10.2386
も可能です	-10.2388
セール	-10.239
ニュー	-10.2391
体を	-10.2394
っこ	-10.2395
は約	-10.2399
そのもの	-10.2399
問	-10.2401
樹	-10.2401
と感じる	-10.2403
基本的に	-10.2416
してみると	-10.2417
探	-10.2417
読者	-10.2417
のほうが	-10.2419
詰め	-10.2422
在	-10.2424
視聴	-10.2428
ダー	-10.2432
▁ですが	-10.2438
皮膚	-10.2441
をしていた	-10.2442
翻訳	-10.2444
レシピ	-10.2447
自動的に	-10.2455
次第	-10.2455
詳細	-10.2456
装置	-10.2457
図書館	-10.2457
スムーズに	-10.246
を購入する	-10.2463
PS	-10.2464
無く	-10.2464
短	-10.2466
役割	-10.2476
を食べ	-10.2476
1.	-10.2478
600	-10.2481
停止	-10.2482
湖	-10.2483
朝食	-10.2484
エントリー	-10.2486
ことだ	-10.2487
バッテリー	-10.2491
があったので	-10.2493
▁自分が	-10.2495
という点	-10.2496
仮想通貨	-10.2505
車を	-10.2506
面倒	-10.251
ヨガ	-10.2511
の良さ	-10.2514
なんとなく	-10.2514
竹	-10.2515
年には	-10.2516
の特徴	-10.2521
の様子	-10.2523
NHK	-10.2523
帯	-10.2525
ってしまう	-10.2526
ものである	-10.2529
はこちら	-10.2529
ひとり	-10.253
何度か	-10.2531
にも関わらず	-10.2532
低い	-10.2534
個性	-10.2535
わけで	-10.2536
証明書	-10.2536
頻繁に	-10.2536
が出来る	-10.2538
振	-10.254
をもとに	-10.254
方を	-10.254
▁これを	-10.2544
マスター	-10.2544
▁どんな	-10.2555
不思議	-10.2559
困難	-10.2559
永	-10.2563
守	-10.2565
利用できる	-10.2567
にお	-10.2567
クロ	-10.2567
入手	-10.2569
仕事の	-10.2569
いかに	-10.2571
子どもの	-10.2571
たった	-10.2574
▁こうした	-10.2574
▁皆さん	-10.2575
みます	-10.2575
掃除	-10.258
デバイス	-10.258
開示	-10.2581
ご連絡ください	-10.2582
他に	-10.2584
ニーズ	-10.2586
.1	-10.2586
ヨーロッパ	-10.2588
減少	-10.2591
大変な	-10.2591
苦	-10.2592
見積もり	-10.2592
支払	-10.2595
はじめ	-10.2596
明るく	-10.2596
メートル	-10.2603
速	-10.2604
心に	-10.2606
話す	-10.2609
たく	-10.2611
も多い	-10.2613
絶	-10.2618
をしたり	-10.2622
定期	-10.2627
のホームページ	-10.2628
タグ	-10.263
期限	-10.2634
やっている	-10.2635
平日	-10.2636
位置	-10.2637
de	-10.2641
やりたい	-10.2646
ガー	-10.2647
▁仕事	-10.2647
することを	-10.2648
格	-10.2648
初の	-10.2649
▁それを	-10.2649
と同じように	-10.265
続き	-10.2654
置き	-10.2658
シミ	-10.2659
程度の	-10.2665
の魅力	-10.2668
一気に	-10.2674
現在は	-10.2675
仲	-10.2675
エラー	-10.2677
安全性	-10.2678
洋	-10.2681
』(	-10.2681
ワークショップ	-10.2684
▁H	-10.2685
IP	-10.269
いること	-10.2691
金融機関	-10.2694
el	-10.2696
記述	-10.2698
色んな	-10.2703
大学の	-10.2705
▁少し	-10.271
チェ	-10.2715
に伴い	-10.2717
が大きく	-10.2719
蔵	-10.272
犯罪	-10.2724
保護者	-10.2725
ご要望	-10.2727
ご利用いただけます	-10.2728
秘密	-10.273
話し	-10.2733
いただきます	-10.2734
収録	-10.2736
するためには	-10.2745
摂取	-10.2747
ご覧	-10.2752
▁G	-10.2755
させて頂きました	-10.2756
時代の	-10.2757
プロフィール	-10.276
たちの	-10.2763
盤	-10.2764
とのことです	-10.2764
開業	-10.2769
最	-10.2771
写	-10.2774
サーバ	-10.2774
になりますが	-10.2775
すら	-10.2776
確率	-10.2777
はじめて	-10.2777
充電	-10.2781
みよう	-10.2783
を出して	-10.2785
でもある	-10.2786
数値	-10.2786
▁D	-10.2788
ができない	-10.2792
寒い	-10.2796
の存在	-10.2796
2.	-10.2796
させた	-10.2797
の影響	-10.2798
界	-10.2798
挨拶	-10.2799
大きさ	-10.2802
中止	-10.2802
やった	-10.2808
全員	-10.2809
の歴史	-10.281
ール	-10.2812
は全く	-10.2812
からね	-10.2817
周りの	-10.2818
農業	-10.2819
感じる	-10.2819
被害者	-10.2821
初期	-10.2821
改正	-10.2822
時々	-10.2826
サイトを	-10.283
お子様	-10.283
常	-10.2835
プロセス	-10.2836
部品	-10.2839
お待ちしております	-10.284
ついて	-10.284
日曜日	-10.2842
の名前	-10.2842
買った	-10.2845
誌	-10.2845
するような	-10.2848
ドア	-10.2848
用途	-10.2848
しておりますので	-10.2851
先日	-10.2857
少女	-10.2859
史	-10.2864
連続	-10.2866
くださいね	-10.288
使い方	-10.2881
心が	-10.2881
行政	-10.2882
港	-10.2885
私には	-10.2889
いわゆる	-10.2893
てしまい	-10.2897
被	-10.2902
なぜか	-10.2906
ノウハウ	-10.2907
専用の	-10.2908
独立	-10.291
▁1.	-10.2911
Android	-10.2912
測定	-10.2914
かもしれませんね	-10.2914
なのでしょうか	-10.2915
AI	-10.2915
カップ	-10.2916
福	-10.2917
に行きました	-10.2918
まるで	-10.2923
ているので	-10.2926
調子	-10.2926
ことが大切です	-10.2929
引っ越し	-10.293
マップ	-10.293
思って	-10.293
六	-10.2932
くて	-10.2932
議員	-10.2934
本人	-10.2937
進行	-10.2938
使用する	-10.2939
していること	-10.2948
課	-10.295
際は	-10.2952
本社	-10.2953
出力	-10.2958
アピール	-10.2959
ゴミ	-10.2959
風景	-10.2961
減	-10.2962
Wi	-10.2963
設立	-10.2963
アクション	-10.2963
の使用	-10.2964
景色	-10.2964
こだわり	-10.2967
たので	-10.2969
した後	-10.2969
自宅で	-10.2971
生命	-10.2971
のお店	-10.2972
基本的な	-10.2977
行きたい	-10.2977
イギリス	-10.2981
込め	-10.2984
太陽	-10.2985
願	-10.2987
主な	-10.2988
性能	-10.2997
数は	-10.3
くれます	-10.3002
シャンプー	-10.3007
庁	-10.3007
▁All	-10.3008
どうして	-10.3013
ダウン	-10.3014
社会人	-10.3016
以外に	-10.3017
調理	-10.3019
中心	-10.3019
からだ	-10.3019
2014	-10.3021
音声	-10.3023
ということが	-10.3026
男性は	-10.3031
と言われている	-10.3046
給	-10.3049
してくれました	-10.3053
初めての	-10.3056
第二	-10.3057
ことになる	-10.3058
引き続き	-10.306
とされています	-10.306
いきなり	-10.306
▁だが	-10.3064
父親	-10.3065
通勤	-10.3067
動画を	-10.3068
の変更	-10.307
帰り	-10.3072
46	-10.3073
手軽に	-10.3073
乱	-10.3077
るか	-10.3077
道を	-10.3078
これだけ	-10.3079
▁とはいえ	-10.3079
は一切	-10.3079
ルート	-10.308
対処	-10.308
気温	-10.3081
......。	-10.3081
九州	-10.3081
立て	-10.3083
たびに	-10.3086
も同じ	-10.3087
嘘	-10.3087
今年も	-10.3088
高額	-10.3091
女優	-10.3094
出版	-10.3095
散歩	-10.3096
レイ	-10.31
プライベート	-10.3102
規定	-10.3105
オーダー	-10.3107
適	-10.3108
参考	-10.3109
ゆっくりと	-10.311
▁是非	-10.3111
▁まぁ	-10.3111
藤	-10.3113
するだけで	-10.3117
いいのか	-10.312
人間関係	-10.3126
クーポン	-10.3131
疾患	-10.3136
呼吸	-10.3137
講演	-10.3138
固	-10.3139
ことが可能です	-10.3141
陰	-10.3144
ドライブ	-10.3146
回収	-10.3146
使った	-10.315
残念ながら	-10.315
営	-10.3152
格安	-10.3154
が大きい	-10.3154
要望	-10.3154
児	-10.3155
仕	-10.3162
加入	-10.3166
お支払い	-10.3166
策	-10.3172
配置	-10.3178
Fi	-10.3179
いずれ	-10.3181
ことによって	-10.3188
養	-10.3188
はこの	-10.3189
32	-10.3195
変わらない	-10.32
場合でも	-10.3201
のようなもの	-10.3204
の活動	-10.3207
歩	-10.3209
があっても	-10.3212
▁Copyright	-10.3213
事に	-10.3216
伝統	-10.3218
球	-10.3219
▁ア	-10.322
お子さん	-10.3222
群	-10.3226
詳しい	-10.3232
違った	-10.3233
酸	-10.3233
印	-10.3238
ためにも	-10.3238
水分	-10.3242
サプリ	-10.3242
後半	-10.3242
ボード	-10.3244
文書	-10.3245
つもり	-10.3248
ってこと	-10.325
模様	-10.3252
ic	-10.3253
自然と	-10.3253
になるので	-10.3256
帰って	-10.3257
方や	-10.3258
知り合い	-10.326
主義	-10.3265
▁Q	-10.3266
畑	-10.3272
メン	-10.3273
されていて	-10.3274
使われている	-10.3277
労働者	-10.3278
賃貸	-10.3281
予測	-10.3281
したところ	-10.3282
の前に	-10.3286
がございます	-10.3288
形式	-10.3289
当院	-10.3293
体力	-10.3295
でもあります	-10.3298
裁判	-10.3298
覚え	-10.3304
パネル	-10.3307
結論	-10.3307
しなかった	-10.331
外国	-10.3313
世間	-10.3314
精	-10.3315
▁最初は	-10.3317
一回	-10.3317
まって	-10.332
を始める	-10.3321
自分自身	-10.3323
ご意見	-10.3325
ジャパン	-10.3326
ないこと	-10.3327
▁朝	-10.333
中古車	-10.3332
おそらく	-10.3332
銀	-10.3339
どうか	-10.334
跡	-10.3343
神戸	-10.3345
いたのですが	-10.3346
毎週	-10.3348
どちら	-10.3349
ちょうど	-10.3349
仏	-10.3351
市内	-10.3354
仕上げ	-10.3354
毎回	-10.3355
▁E	-10.3358
を利用した	-10.336
主張	-10.3362
関東	-10.3366
以上に	-10.3367
観光客	-10.3375
人達	-10.3378
受講	-10.3382
電源	-10.3383
降り	-10.3383
kg	-10.3386
激	-10.3387
お客様が	-10.3388
ステ	-10.3389
バラ	-10.339
訴え	-10.3391
▁Reserved	-10.3395
ロード	-10.3395
お試し	-10.3399
人がいる	-10.3401
作家	-10.3409
▁同じ	-10.3412
を読んで	-10.3416
アパート	-10.3416
コミュニティ	-10.3417
追い	-10.3418
会員登録	-10.343
レー	-10.3433
上位	-10.3434
年収	-10.3436
覚えて	-10.3437
ON	-10.3439
となりますので	-10.3442
食べた	-10.3442
男性が	-10.3442
はほとんど	-10.3443
後ろ	-10.3445
売買	-10.3449
▁#	-10.3451
を作り	-10.3452
わざわざ	-10.3455
するので	-10.3455
選ぶ	-10.3458
カ月	-10.3458
FX	-10.3463
乳	-10.3464
を聞いて	-10.3466
を取って	-10.3466
体が	-10.3467
もあって	-10.3467
創業	-10.3469
次回	-10.3472
副作用	-10.3474
決め	-10.3476
カロリー	-10.3477
出来事	-10.3478
個人の	-10.3479
変え	-10.348
マイナス	-10.3484
IN	-10.3488
と言われ	-10.3489
筆	-10.349
リズム	-10.3494
集中	-10.3494
成績	-10.3499
プレイヤー	-10.3499
という言葉	-10.3502
目が	-10.3503
ファイルを	-10.3505
していましたが	-10.3507
行事	-10.3508
ra	-10.3509
我慢	-10.3511
を感じ	-10.3514
快適に	-10.3515
ヘア	-10.3516
の確認	-10.3516
メモ	-10.3517
でございます	-10.3518
勇気	-10.3521
快適な	-10.3523
都合	-10.3524
なもの	-10.3525
してしまいます	-10.3526
今すぐ	-10.3526
と言います	-10.3528
のかもしれない	-10.3528
事も	-10.3535
あまりにも	-10.3537
要求	-10.3538
従	-10.354
ドリンク	-10.3543
楽しむ	-10.3545
幼稚園	-10.3546
適用	-10.3546
かなりの	-10.355
脚	-10.3554
優	-10.3555
ta	-10.3555
菌	-10.3557
マル	-10.3557
年前に	-10.3557
物質	-10.3558
時間も	-10.3558
わない	-10.3558
他人	-10.3559
▁Rights	-10.3559
代の	-10.356
▁20	-10.3561
と言われた	-10.3561
ごろ	-10.3562
遊んで	-10.3565
る事	-10.3567
どこか	-10.3571
皆様に	-10.3572
を提供	-10.3573
るために	-10.3573
くれて	-10.3577
まとめて	-10.3579
行っている	-10.3579
立って	-10.3579
お申込み	-10.358
回の	-10.3581
菜	-10.3585
用に	-10.3586
は本当に	-10.3589
抜き	-10.3589
▁今後	-10.3594
▁多くの	-10.3594
していますので	-10.3597
なくなって	-10.3597
牛	-10.3597
▁2.	-10.3598
することも	-10.3599
死亡	-10.36
ぁ	-10.3601
抜け	-10.3605
入荷	-10.3606
ではないか	-10.3608
大統領	-10.3609
途中	-10.3609
置いて	-10.3611
それまで	-10.3612
今では	-10.3616
態度	-10.3619
おすすめです	-10.362
なんだか	-10.362
ブック	-10.3627
楽天	-10.3628
ける	-10.363
を楽しんで	-10.363
高校生	-10.363
ad	-10.3636
どれ	-10.3638
もらいたい	-10.3638
頂けます	-10.3638
噂	-10.3639
一定の	-10.3639
たこと	-10.364
興	-10.3643
提示	-10.3651
保湿	-10.3653
翌日	-10.3656
▁こういう	-10.366
遠く	-10.3666
書く	-10.3667
支持	-10.3675
価値観	-10.3676
5%	-10.3684
時代に	-10.3685
最初は	-10.3686
自分も	-10.3691
▁一	-10.3692
パート	-10.3694
人々	-10.3697
していきたい	-10.3697
であって	-10.3698
動か	-10.3699
何らかの	-10.37
折	-10.3705
側に	-10.3706
トラック	-10.3708
僕が	-10.3708
SA	-10.3709
背	-10.3709
▁́	-10.371
を見つける	-10.3712
順	-10.3712
白い	-10.3717
手に	-10.3721
驚き	-10.3722
プレー	-10.3722
面で	-10.3723
方がいい	-10.3723
ソース	-10.3733
お互い	-10.3735
年末	-10.3737
佐	-10.374
te	-10.374
の花	-10.3741
▁自分	-10.3741
の仕方	-10.3742
なくなります	-10.3743
と言った	-10.3743
お土産	-10.3746
知りたい	-10.3752
クラウド	-10.3752
陣	-10.3753
静	-10.3754
を入れ	-10.3755
を変更	-10.3756
しまうと	-10.3756
外出	-10.3756
しなければ	-10.376
領域	-10.3764
の為に	-10.3767
お気軽にお問い合わせください	-10.3768
いや	-10.377
ノー	-10.377
大人の	-10.3771
を見つけて	-10.3775
記入	-10.3776
世界に	-10.3778
出てくる	-10.378
息	-10.3784
明治	-10.3785
ことなく	-10.3786
頂ける	-10.3787
というような	-10.3788
の治療	-10.3788
第三者	-10.3789
▁そのような	-10.3789
出身	-10.3789
実感	-10.3789
を対象に	-10.379
明け	-10.3792
合って	-10.3793
▁ブログ	-10.3793
負け	-10.3795
続け	-10.3796
本当	-10.3797
室内	-10.3799
すっかり	-10.3799
上記の	-10.38
られています	-10.3805
は無い	-10.3806
短い	-10.3809
みてはいかがでしょうか	-10.381
エアコン	-10.3814
PDF	-10.3814
違います	-10.3823
ならではの	-10.3824
債務整理	-10.3829
ついに	-10.3832
望	-10.3832
チャー	-10.3837
しく	-10.3838
今年の	-10.384
魅力的な	-10.3841
▁ありがとうございます	-10.3841
ができ	-10.3842
提出	-10.3846
りました	-10.3849
項	-10.3853
今日の	-10.386
問題は	-10.3861
糸	-10.3863
同意	-10.3866
任	-10.3867
期間は	-10.3871
高速	-10.3872
800	-10.3874
動く	-10.3875
の説明	-10.3876
男性の	-10.3878
を経て	-10.388
入社	-10.388
思います	-10.3881
過ぎて	-10.3883
杯	-10.3884
ro	-10.3886
パリ	-10.389
に挑戦	-10.3895
大好きな	-10.3896
いらっしゃる	-10.3896
かというと	-10.3898
▁それでは	-10.3898
と同時に	-10.3899
の大	-10.39
▁pic	-10.3901
陽	-10.3903
してみて	-10.3904
副	-10.3908
池	-10.391
自社	-10.3914
http	-10.3917
分ほど	-10.3917
個人情報を	-10.3919
明るい	-10.3919
容量	-10.3921
収	-10.3923
進んで	-10.3928
するなど	-10.3935
氏の	-10.3937
Amazon	-10.3938
▁今年	-10.394
しなくても	-10.394
▁2014	-10.394
ジョ	-10.3941
お付き合い	-10.3944
を変える	-10.3944
緊急	-10.3946
歩く	-10.3947
教会	-10.3949
欠	-10.3951
お祝い	-10.3952
ユーザ	-10.3953
輸入	-10.3954
税金	-10.3954
に加え	-10.3956
はいけない	-10.3957
配慮	-10.3958
を入れる	-10.3961
重要です	-10.3963
してくる	-10.3966
もらいました	-10.3966
などと	-10.3967
ブース	-10.3969
承認	-10.397
ますね	-10.3971
安全な	-10.3973
の開発	-10.3973
楽器	-10.398
0.	-10.398
学会	-10.398
優しく	-10.3984
売上	-10.3986
はその	-10.3986
と考えている	-10.3988
変わった	-10.3992
温度	-10.3993
泉	-10.3995
の紹介	-10.3995
が欲しい	-10.3996
瀬	-10.3999
の関係	-10.4
周年	-10.4007
核	-10.4009
以外	-10.4011
アレンジ	-10.4012
▁あなたが	-10.4014
ッチ	-10.4014
一歩	-10.4014
公表	-10.4017
no	-10.4019
広島	-10.402
飽き	-10.4029
▁逆に	-10.403
書き込み	-10.4031
宗教	-10.4032
していきたいと思います	-10.4032
中古	-10.4035
になれば	-10.4035
梅	-10.4037
日々の	-10.4039
いただければ	-10.4043
宣伝	-10.4043
飛行機	-10.4045
ma	-10.4049
切って	-10.4052
おりました	-10.4052
口に	-10.4053
お願いいたします	-10.4054
▁◆	-10.4054
最初から	-10.4058
ゴール	-10.4059
害	-10.4059
コンピュータ	-10.4059
伸び	-10.4061
ウイルス	-10.4064
グリーン	-10.4064
それだけ	-10.4067
ことにしました	-10.4068
アメリカの	-10.4071
帰宅	-10.4073
力が	-10.4079
入会	-10.4082
-1	-10.4085
シンプルな	-10.4087
誕生	-10.4088
が必要になります	-10.4093
元気に	-10.4096
その場で	-10.4103
綺麗に	-10.4103
店の	-10.4104
いつか	-10.4109
ギフト	-10.4111
これも	-10.4114
フォロー	-10.4116
サイド	-10.4121
イタリア	-10.4124
となっており	-10.4125
IC	-10.4126
社内	-10.4135
テン	-10.4136
削減	-10.4137
を見ながら	-10.4138
150	-10.4143
消	-10.4143
採	-10.4145
のまま	-10.4146
が気になる	-10.4148
ステップ	-10.4149
いろいろと	-10.415
男子	-10.4152
を書いて	-10.4153
が非常に	-10.4153
になってしまいました	-10.4154
辺	-10.4154
に基づき	-10.4158
教授	-10.4162
痩せ	-10.4162
アリ	-10.4163
すこと	-10.4165
を始め	-10.4166
▁前	-10.4168
機種	-10.417
▁あなたは	-10.4173
▁何か	-10.4175
実家	-10.4175
一生懸命	-10.4176
奴	-10.4177
ありますが	-10.4184
▁毎年	-10.4186
に関わる	-10.419
抵抗	-10.4191
する場合は	-10.4195
ロボット	-10.4196
ケーブル	-10.4199
にあたり	-10.4201
事務局	-10.4201
夏の	-10.4202
賀	-10.4202
につながる	-10.4207
背中	-10.4213
▁あ	-10.4214
ようになり	-10.4217
に乗って	-10.4217
ハワイ	-10.4225
飲食店	-10.4229
時半	-10.423
もありますので	-10.4231
ぷ	-10.4231
が発生する	-10.4232
正しく	-10.4236
と思っております	-10.4237
これまでの	-10.424
のご	-10.424
俳優	-10.4243
全体	-10.4244
ジム	-10.4245
維持	-10.4251
んじゃないか	-10.4251
ドメイン	-10.4257
臭い	-10.4257
to	-10.4257
効果的な	-10.4258
獲得	-10.4258
参考に	-10.4259
サイトに	-10.4259
達成	-10.4266
正直	-10.4267
競技	-10.4268
価格で	-10.4273
オーナー	-10.4274
帰	-10.4274
だったのですが	-10.4275
宝	-10.4275
Apple	-10.4276
に出演	-10.4276
ご覧ください	-10.4277
ウェブ	-10.4278
表面	-10.4282
▁とりあえず	-10.4283
学部	-10.4283
日本では	-10.4285
が入って	-10.4285
しかも	-10.429
起動	-10.429
言うと	-10.429
案件	-10.4292
ながらも	-10.4297
気持ちを	-10.4302
送	-10.4306
いつまでも	-10.4307
借入	-10.4308
充実した	-10.4309
をしました	-10.431
をし	-10.4312
、2018	-10.4313
▁とにかく	-10.4314
が出た	-10.4323
ませんか	-10.4325
装	-10.4325
のほう	-10.4326
▁株式会社	-10.4328
指示	-10.4333
mo	-10.4334
からこそ	-10.4336
出場	-10.4336
的で	-10.4337
を見つけ	-10.4337
圧	-10.4338
と比べて	-10.4338
を実現	-10.4339
するのか	-10.4341
常識	-10.4342
幸せな	-10.4342
拠点	-10.4344
違反	-10.4345
あるので	-10.4347
コー	-10.4348
していません	-10.4349
糖尿病	-10.4349
移転	-10.4349
会社が	-10.4351
年金	-10.4353
行います	-10.4355
給与	-10.4356
多数の	-10.4357
巻き	-10.4359
心から	-10.4359
言葉を	-10.436
だからこそ	-10.4362
リニューアル	-10.4365
様な	-10.4367
させていただいております	-10.4368
祭り	-10.4371
誕生日	-10.4374
新作	-10.4374
コート	-10.4389
ものではありません	-10.4389
使え	-10.4389
してた	-10.4391
備え	-10.4394
ver	-10.4396
あれば	-10.4399
子どもたち	-10.4402
確定	-10.4406
あい	-10.4406
旨	-10.4408
渋谷	-10.4409
インタビュー	-10.4412
まった	-10.4414
ところは	-10.4414
▁新しい	-10.4417
お前	-10.4417
ニア	-10.4419
離	-10.442
をつけ	-10.4422
修	-10.4425
知る	-10.4428
に入り	-10.4429
助	-10.443
大学生	-10.4431
購入した	-10.4431
集団	-10.4432
をお願いいたします	-10.4444
築	-10.4446
どちらか	-10.4448
延長	-10.4448
を食べる	-10.4449
薄毛	-10.4451
を考え	-10.4451
情報の	-10.4453
ように思います	-10.4454
をいただきました	-10.4455
しつつ	-10.4457
育児	-10.4459
ご提供	-10.446
単に	-10.4461
除	-10.4464
コマンド	-10.4468
の下	-10.4471
所得	-10.4472
▁初めて	-10.4473
するもの	-10.4476
地域で	-10.4481
ますます	-10.4482
見え	-10.4483
主人公	-10.4484
子さん	-10.4485
になっても	-10.4486
いませんか	-10.4487
ジー	-10.4488
世の中	-10.4495
お客さま	-10.4496
むしろ	-10.45
を使っている	-10.4501
別れ	-10.4502
事前	-10.4503
お気に入りの	-10.4506
を検討	-10.4507
全国の	-10.4507
が増え	-10.451
の間で	-10.451
節約	-10.4512
看護	-10.4516
復活	-10.4516
ことが多いです	-10.4519
隊	-10.4519
中学生	-10.452
を体験	-10.4521
という話	-10.4522
カップル	-10.4523
留	-10.4529
数が	-10.4531
普及	-10.4532
表記	-10.4533
迎え	-10.4534
滅	-10.4535
*	-10.4538
診察	-10.4542
撮り	-10.4547
36	-10.4548
上がる	-10.4548
聞いた	-10.4549
▁それで	-10.455
散	-10.4551
組み合わせ	-10.4551
ことになりました	-10.4554
ませんが	-10.4558
するのも	-10.456
だいたい	-10.4565
酵素	-10.4567
アウト	-10.4568
ともに	-10.4568
彼女が	-10.4572
バレ	-10.4573
中小企業	-10.4574
知り	-10.4576
これら	-10.4576
マーケット	-10.458
する前に	-10.4584
ときの	-10.4585
世界で	-10.4585
のようです	-10.4587
ボディ	-10.4588
ジン	-10.4592
博物館	-10.4593
起	-10.4593
吸収	-10.4594
今度は	-10.4596
仕上がり	-10.4596
▁というわけで	-10.4597
の位置	-10.4598
周りに	-10.4598
自然に	-10.4598
たのは	-10.46
具	-10.4605
ご理解	-10.4605
という方は	-10.4609
サービスの	-10.4609
を用意	-10.461
パーク	-10.4611
共に	-10.4614
デザイナー	-10.4619
見ている	-10.4619
の効果	-10.462
沢山	-10.4623
華	-10.4625
に加えて	-10.4625
なんで	-10.4626
キャンプ	-10.4626
ることが	-10.4631
できている	-10.4634
玄関	-10.4635
お越し	-10.4637
週末	-10.4638
を参考に	-10.4642
を与え	-10.4644
天皇	-10.4647
が多かった	-10.4649
分から	-10.4649
～。	-10.465
観察	-10.4651
歯科	-10.4651
▁次に	-10.4651
セン	-10.4652
エンジニア	-10.4656
定義	-10.4657
ご紹介します	-10.4658
ご使用	-10.466
半年	-10.4661
医療機関	-10.4662
ジャンル	-10.4663
アフィリエイト	-10.4663
になっていた	-10.4663
ホワイト	-10.4664
5000	-10.467
トロ	-10.4672
自治体	-10.4672
こちらから	-10.4673
タッチ	-10.4673
無駄	-10.4674
スキー	-10.4676
の数	-10.4676
人妻	-10.4681
に来た	-10.4682
保育園	-10.4687
ご来場	-10.4691
仕事で	-10.4693
2013	-10.4697
兄	-10.4697
塗装	-10.4699
1,000	-10.4705
こっち	-10.4707
フェア	-10.4711
周	-10.4712
素人	-10.4714
勝利	-10.4716
退職	-10.4724
収益	-10.4727
語り	-10.4727
るのか	-10.4727
今も	-10.4728
コイン	-10.4731
工業	-10.4731
思っている	-10.4734
帰る	-10.4734
以内	-10.4737
YouTube	-10.4739
きれいな	-10.4741
2010	-10.4742
原則	-10.4744
ラブ	-10.4745
自体は	-10.4745
Mac	-10.4749
一括	-10.4752
日付	-10.4753
富	-10.4754
グル	-10.4756
人々の	-10.4756
しておきましょう	-10.4758
遅れ	-10.476
務	-10.476
決	-10.4761
と思うので	-10.4765
駅の	-10.4766
血液	-10.4768
リアル	-10.4769
粉	-10.477
に興味	-10.477
することができました	-10.4771
なんですが	-10.4775
セッション	-10.4776
身体の	-10.4779
を用いて	-10.478
いける	-10.478
盛り	-10.4782
彼らの	-10.4784
妹	-10.4785
方法です	-10.4794
初回	-10.4796
供給	-10.4796
したので	-10.4796
自身	-10.4797
ブログで	-10.4799
▁"	-10.4802
することが可能です	-10.4803
限界	-10.4805
部分を	-10.4805
送り	-10.4806
を送って	-10.4807
特集	-10.4807
長年	-10.4813
夜の	-10.4813
▁@	-10.4814
占い	-10.4814
便秘	-10.4816
バカ	-10.4816
ay	-10.4819
無視	-10.482
合計	-10.4822
と考えて	-10.4823
ることは	-10.4824
としたら	-10.4826
しなければなりません	-10.4826
なのは	-10.4828
クス	-10.4834
RE	-10.4835
クリ	-10.4835
中学校	-10.4836
善	-10.4838
暑さ	-10.4838
資源	-10.484
かた	-10.4844
取って	-10.4847
解釈	-10.4848
変動	-10.4849
入場	-10.4849
彼が	-10.4855
バル	-10.4856
祝	-10.4857
ことができない	-10.4858
上がって	-10.486
化学	-10.4861
ダン	-10.4863
人生を	-10.4865
単位	-10.4871
書かれている	-10.4872
ポート	-10.4875
商品が	-10.4876
ことができた	-10.4877
っぽい	-10.4878
多くの人が	-10.4879
本の	-10.488
が良く	-10.4881
アルコール	-10.4881
昔の	-10.4882
ご確認ください	-10.4882
になれる	-10.4884
気になった	-10.4888
であることを	-10.4889
脇	-10.4891
モニター	-10.4892
障害者	-10.4898
一時	-10.4898
先生が	-10.4899
話が	-10.4901
という方	-10.4902
に基づいて	-10.4903
un	-10.4903
ピー	-10.4904
随時	-10.4905
のみで	-10.4909
▁昨年	-10.4913
神様	-10.4915
USB	-10.4917
だけは	-10.492
方面	-10.4921
劇場	-10.4922
生きている	-10.4925
ミー	-10.4925
キング	-10.4926
かり	-10.4928
悪化	-10.4929
を得る	-10.4931
▁しかしながら	-10.4933
ファイ	-10.4937
の多い	-10.4941
やる気	-10.4943
不具合	-10.4943
▁あの	-10.4945
涙	-10.4945
ビットコイン	-10.4948
になりますので	-10.4948
思わず	-10.4949
間の	-10.4951
出会	-10.4953
のイメージ	-10.4957
用品	-10.496
理論	-10.4967
左右	-10.4968
お得	-10.497
ング	-10.4971
出来ます	-10.4971
珍しい	-10.4972
▁なぜなら	-10.4973
仕事に	-10.4973
ねぇ	-10.4973
を実施	-10.4979
従来の	-10.4982
を変えて	-10.4983
法令	-10.4983
が入っている	-10.4985
No	-10.4987
▁J	-10.4988
原作	-10.4991
人たちが	-10.4998
本格的な	-10.5003
をすると	-10.5006
教えてください	-10.5009
はありますが	-10.501
所属	-10.501
があること	-10.5015
ることなく	-10.5016
にいる	-10.5016
覚悟	-10.5017
彩	-10.5021
が来る	-10.5021
▁上記	-10.5021
廃	-10.5022
進む	-10.5022
一生	-10.5022
はございません	-10.5024
を選択	-10.5025
商品は	-10.5025
状況を	-10.5026
中学	-10.5028
裁判所	-10.5031
お気軽にご相談ください	-10.5032
と言える	-10.5033
不明	-10.5035
ER	-10.5035
▁皆様	-10.5039
栽培	-10.504
ログ	-10.5041
だけが	-10.5042
を開始	-10.5043
昔から	-10.5044
麻	-10.5044
社会的	-10.5045
ご注意ください	-10.5048
のことです	-10.5053
嫌な	-10.5053
▁彼は	-10.5053
があったり	-10.5053
トーク	-10.5057
それなりに	-10.5058
遊	-10.5058
と言い	-10.5063
過去に	-10.5065
解約	-10.5066
心理	-10.5066
龍	-10.5067
ent	-10.507
を迎える	-10.5071
▁自分で	-10.5071
彼女は	-10.5072
服用	-10.5077
久しぶりに	-10.5078
かどうかは	-10.5081
雑	-10.5083
受賞	-10.5087
も含めて	-10.5091
MA	-10.5092
もありました	-10.5094
初め	-10.5096
フロント	-10.5097
戻	-10.51
豆	-10.5101
日本人の	-10.5104
にあり	-10.5105
演出	-10.5107
が増える	-10.5107
が変わる	-10.511
▁女性	-10.5111
いいな	-10.5116
~	-10.5116
めて	-10.5121
ブログに	-10.5122
を決める	-10.5126
強化	-10.5127
監視	-10.5128
をご利用	-10.5128
走って	-10.5132
本気で	-10.5133
を高め	-10.5135
やめ	-10.5136
他社	-10.5137
65	-10.5137
バックアップ	-10.5139
を追加	-10.5139
割り	-10.5141
をとる	-10.5142
一方	-10.5145
収穫	-10.5148
だいぶ	-10.5148
に向けた	-10.5154
電力	-10.5155
一枚	-10.5155
li	-10.5156
勝ち	-10.5156
しておきます	-10.5158
長時間	-10.5163
ワールド	-10.5164
みたら	-10.5166
のではないかと	-10.5167
38	-10.5167
お話を	-10.5168
じゃなくて	-10.517
▁明日	-10.5171
入れて	-10.5173
地下	-10.5177
にアクセス	-10.5177
郵送	-10.5178
基本的には	-10.5178
子が	-10.5185
小学生	-10.5187
それで	-10.5187
よかったです	-10.5188
札幌	-10.5188
同じような	-10.5189
お悩み	-10.5197
ことはできません	-10.5198
ようですね	-10.5199
タブレット	-10.5206
説明会	-10.5207
の中の	-10.5207
方式	-10.5208
の雰囲気	-10.5209
まあ	-10.5211
頃から	-10.5212
ココ	-10.5213
はできません	-10.5213
本来の	-10.5214
軸	-10.5217
迫	-10.5217
悪く	-10.5219
体質	-10.522
さんも	-10.5221
なければいけない	-10.5222
単語	-10.5222
が発生し	-10.5223
政権	-10.5226
の方も	-10.5227
電話で	-10.5227
出荷	-10.5229
詐欺	-10.5231
眠	-10.5231
年目	-10.5232
ッド	-10.5233
でしょ	-10.5234
先生に	-10.5235
を維持	-10.5236
等は	-10.5236
個人情報の	-10.5238
オーストラリア	-10.5239
国立	-10.5241
ができて	-10.5241
購入する	-10.5244
構築	-10.5245
▁今年の	-10.5248
最初	-10.5248
助け	-10.5248
税込	-10.525
電池	-10.5251
を出	-10.5251
読んだ	-10.5255
何より	-10.526
セル	-10.5261
候補	-10.5261
画像を	-10.5261
した上で	-10.5262
今から	-10.5262
▁現在は	-10.5264
こちらで	-10.5264
肌が	-10.5264
プリント	-10.5265
ご用意	-10.5265
人でも	-10.5269
本当にありがとうございました	-10.5273
研究所	-10.5276
連絡先	-10.5277
作業を	-10.5279
安全に	-10.5281
否定	-10.5282
隣	-10.5286
人から	-10.5287
教師	-10.5288
オリンピック	-10.5291
ED	-10.5291
年も	-10.5291
管理者	-10.5293
売る	-10.5296
があるのか	-10.5299
コンセプト	-10.53
駅から徒歩	-10.5301
見せ	-10.5301
洗	-10.5302
スイッチ	-10.5304
▁W	-10.5304
リラックス	-10.5306
ニューヨーク	-10.5308
リゾート	-10.5312
代金	-10.5313
はありませんが	-10.5318
お料理	-10.5322
に限らず	-10.5324
インテリア	-10.5325
゚	-10.5325
一方で	-10.5327
休憩	-10.5328
ワクワク	-10.5334
ッシュ	-10.5338
仕方ない	-10.5339
麺	-10.534
浦	-10.5341
免許	-10.5341
触れ	-10.5342
晴れ	-10.5345
をとって	-10.5345
を購入	-10.5349
認知症	-10.5352
が必要となります	-10.5352
舞	-10.5353
避難	-10.5356
具合	-10.5361
作られた	-10.5361
後悔	-10.5362
病院で	-10.5363
損害	-10.5368
場所は	-10.5369
はもう	-10.5369
していくこと	-10.537
の対象	-10.5373
少なくとも	-10.5375
人もいます	-10.5376
ればいい	-10.5379
少々	-10.5379
ジョン	-10.5382
サークル	-10.5383
られました	-10.5383
ほかの	-10.5388
おかげで	-10.5388
▁一度	-10.539
ぜ	-10.5392
合わせて	-10.5396
着用	-10.5399
▁R	-10.54
需要	-10.54
テクニック	-10.5402
といって	-10.5402
出店	-10.5406
のでご了承ください	-10.5407
大体	-10.5411
を示す	-10.5412
髪の毛	-10.5413
近年	-10.5413
離れた	-10.5415
もよく	-10.5417
GB	-10.5419
煮	-10.542
うえで	-10.5421
頻度	-10.5422
それも	-10.5423
とその	-10.5424
老	-10.5424
マシン	-10.5425
いませんでした	-10.5426
出会った	-10.5428
ようになって	-10.5428
住宅ローン	-10.543
胃	-10.543
確保	-10.5432
は必ず	-10.5434
プレ	-10.5436
エッチ	-10.5437
を使用した	-10.544
鏡	-10.5441
極めて	-10.5442
の購入	-10.5443
見えない	-10.5446
人も多い	-10.5446
美しく	-10.545
が少なく	-10.5452
わかりやすく	-10.5454
砂	-10.5455
▁今日の	-10.5456
という気持ち	-10.546
深夜	-10.5464
実に	-10.5467
’	-10.5469
慣れ	-10.5471
本来	-10.5471
凄い	-10.5473
▁結局	-10.5475
コツ	-10.5476
▁今後も	-10.5477
最後	-10.5477
するのに	-10.5478
のもと	-10.548
混雑	-10.5481
ああ	-10.5481
突	-10.5481
会社で	-10.5482
▁きっと	-10.5483
を超えて	-10.549
とう	-10.5491
をやって	-10.5491
あげる	-10.5491
農	-10.5492
丁目	-10.5493
かかります	-10.5494
含まれ	-10.5495
つながり	-10.5496
全身	-10.5496
比	-10.5496
知らなかった	-10.5497
来年	-10.5498
ST	-10.5498
ビーチ	-10.55
なかったり	-10.5501
マンガ	-10.5504
次に	-10.5504
55	-10.5504
をご用意	-10.5506
ご了承ください	-10.5507
お客様から	-10.5507
おき	-10.5509
インフルエンザ	-10.5509
司	-10.5511
交際	-10.5512
に行き	-10.5516
をご覧	-10.5517
なくなりました	-10.5518
視点	-10.5518
カラ	-10.552
推奨	-10.5523
誰が	-10.5527
CO	-10.553
回転	-10.5532
下に	-10.5532
書いてある	-10.5533
ページに	-10.5538
考えている	-10.5538
灯	-10.554
2019	-10.554
向けに	-10.5541
目で	-10.5541
が原因	-10.5542
ドライバー	-10.5543
措置	-10.555
を迎え	-10.5551
の改善	-10.5552
コレクション	-10.5554
フォト	-10.5556
切り替え	-10.5556
社の	-10.5557
くださった	-10.5561
をご利用ください	-10.5562
する必要がある	-10.5565
グラ	-10.5565
するまで	-10.5565
スペシャル	-10.5566
せば	-10.5566
勤め	-10.5567
おきたい	-10.5568
たま	-10.5568
競争	-10.5569
身近な	-10.557
をご	-10.557
航空	-10.557
を高める	-10.5571
といわれています	-10.5578
子どもが	-10.5578
恐怖	-10.5581
済み	-10.5582
寄	-10.5584
暑い	-10.5585
の事	-10.5586
およそ	-10.5587
しさ	-10.5588
▁インターネット	-10.5589
鍋	-10.5591
らせて	-10.5592
お越しください	-10.5592
マナー	-10.5596
連休	-10.5603
▁すると	-10.5604
素敵	-10.5611
は少し	-10.5611
危機	-10.5612
のではないかと思います	-10.5615
笑顔で	-10.5616
の開催	-10.5617
家事	-10.5618
理想	-10.5622
んでいる	-10.5623
フォルダ	-10.5623
お店で	-10.5626
のほか	-10.5626
任せ	-10.5627
▁もっと	-10.5628
近所の	-10.5633
撮って	-10.5634
現場で	-10.5637
音が	-10.564
日時	-10.564
SIM	-10.5642
を担当	-10.5643
取る	-10.5647
データベース	-10.5658
ティング	-10.5658
味わい	-10.566
▁ここまで	-10.5661
営業時間	-10.5663
柱	-10.5664
回線	-10.5664
差し	-10.5667
をしっかりと	-10.5668
お弁当	-10.567
テレビで	-10.567
お買い物	-10.567
お昼	-10.5671
会長	-10.5672
の商品	-10.5672
とは違う	-10.5673
ったら	-10.5674
▁次の	-10.5679
臨	-10.5679
時期に	-10.568
密	-10.568
▁詳細は	-10.5681
ついた	-10.5682
中国の	-10.5684
能	-10.5684
▁昨日は	-10.5687
棚	-10.569
が行われ	-10.5692
重い	-10.5696
必須	-10.57
落ち着いて	-10.5701
縦	-10.5705
可能性が高い	-10.5705
ふと	-10.5706
魂	-10.5707
ないよう	-10.5708
▁普段	-10.5709
管理人	-10.5711
いただきたい	-10.5714
をたくさん	-10.5714
家族の	-10.5715
彼ら	-10.5715
ものと	-10.5716
年前の	-10.5721
する際に	-10.5724
―	-10.5726
部屋に	-10.5727
んですか	-10.5729
ジャー	-10.5731
おけば	-10.5731
ことや	-10.5735
つけて	-10.5737
変な	-10.5738
片付け	-10.5741
いるのか	-10.5741
当社の	-10.5742
代わりに	-10.5746
lo	-10.5746
学ぶ	-10.5747
ッツ	-10.5751
▁よく	-10.5753
ご依頼	-10.5755
寄付	-10.5758
読書	-10.5759
太郎	-10.5759
を行っております	-10.5759
をチェック	-10.5762
ヒット	-10.5763
を持っています	-10.5764
..	-10.5765
内容が	-10.5765
働いて	-10.5768
ーン	-10.5776
姿を	-10.5777
綺麗	-10.5778
人間が	-10.578
になったり	-10.5783
us	-10.5784
域	-10.5784
写真は	-10.5784
中は	-10.5785
絵本	-10.5787
統計	-10.5788
ますか	-10.5791
は特に	-10.5792
の練習	-10.5795
としている	-10.5795
経験を	-10.5796
者に	-10.5797
#	-10.58
しかありません	-10.58
プレミアム	-10.58
これからの	-10.5801
アダルト	-10.5806
たまたま	-10.5806
を選択する	-10.5806
進め	-10.5807
もともと	-10.5808
われ	-10.5809
部分が	-10.581
33	-10.5811
単	-10.5814
そろそろ	-10.5817
誰にも	-10.5818
かせ	-10.5818
の人が	-10.5822
の作品	-10.5826
手が	-10.5828
お金が	-10.5828
許	-10.5829
を導入	-10.5831
間違いなく	-10.5833
まれ	-10.5837
通りに	-10.5838
給料	-10.5839
が強く	-10.584
料金は	-10.584
言われた	-10.5841
始めました	-10.5842
売れ	-10.5844
▁写真	-10.5846
軽減	-10.5846
空き	-10.585
所に	-10.5851
札	-10.5853
天候	-10.5853
んだよね	-10.5854
タイミングで	-10.5856
方が良い	-10.5857
もっとも	-10.5857
化粧水	-10.5857
3000	-10.5858
の第	-10.586
ご自身の	-10.5861
子供達	-10.5862
紅葉	-10.5863
一般的に	-10.5864
メント	-10.5865
目的で	-10.5866
一切	-10.5867
▁小	-10.5869
に掲載	-10.5871
まい	-10.5871
自体が	-10.5871
▁N	-10.5873
を作成	-10.5874
氷	-10.5879
あげ	-10.5879
ていること	-10.588
することにより	-10.5887
してみる	-10.5888
人生の	-10.5888
押	-10.5891
きれい	-10.5892
でない	-10.5892
を提供する	-10.5892
の色	-10.5894
▁L	-10.5894
こちらも	-10.5896
当サイト	-10.5902
良いと思います	-10.5907
論文	-10.5907
習	-10.5908
劇	-10.5909
復帰	-10.591
貸	-10.591
▁最近では	-10.591
夏休み	-10.5912
FAX	-10.5912
倒	-10.5914
せっかく	-10.5915
公共	-10.5916
を紹介しています	-10.5917
個人的には	-10.592
集合	-10.5922
匹	-10.5924
いきたい	-10.5927
著作権	-10.5927
OFF	-10.5928
使われる	-10.5929
ダメージ	-10.593
の可能性	-10.593
フォ	-10.593
圏	-10.5935
装備	-10.5935
オーバー	-10.5937
のおかげで	-10.5938
エコ	-10.5938
そうですが	-10.5938
中身	-10.594
下げ	-10.5943
反省	-10.5944
カレンダー	-10.5944
プリ	-10.5945
が多いので	-10.5945
▁通常	-10.5946
▁まだまだ	-10.5947
不可能	-10.595
を確認する	-10.5951
一本	-10.5956
的にも	-10.5957
焼	-10.5957
してしまい	-10.5958
▁2013	-10.5962
奈	-10.5962
脱毛サロン	-10.5963
厚	-10.5965
▁本日は	-10.5971
欲	-10.5971
PR	-10.5973
あくまで	-10.5974
かと	-10.5976
必ずしも	-10.5986
んだな	-10.5988
影	-10.599
笑い	-10.5992
促進	-10.5992
クリーニング	-10.5992
宣言	-10.5993
の部分	-10.5997
の対応	-10.5999
九	-10.5999
付いて	-10.6
かも知れません	-10.6001
の量	-10.6003
になったら	-10.6003
をしながら	-10.6004
会う	-10.6004
返金	-10.601
送って	-10.6012
フォー	-10.6013
段階で	-10.6014
カウンター	-10.6018
iPad	-10.6018
激しい	-10.6019
機構	-10.6021
決まり	-10.6022
を提案	-10.6022
ほとんどの	-10.6025
名様	-10.6025
手作り	-10.6026
冷蔵庫	-10.6029
お問合せ	-10.603
実装	-10.6032
支給	-10.6033
ウェイ	-10.6036
結果的に	-10.6038
実際には	-10.6039
票	-10.6045
尿	-10.6045
考えた	-10.6047
武器	-10.6048
お早めに	-10.6051
稼ぐ	-10.6053
講義	-10.6053
を上げる	-10.6054
前提	-10.6055
のイベント	-10.6059
医学	-10.6062
感じた	-10.6063
最低	-10.6065
メールを	-10.6067
参	-10.6068
患者様	-10.6069
評	-10.6071
しているのか	-10.6074
理想の	-10.6077
タップ	-10.6078
膝	-10.608
保険料	-10.6081
することができ	-10.6081
抱え	-10.6081
困る	-10.6085
共通	-10.6087
と考え	-10.6091
▁あとは	-10.6092
チャンネル	-10.6092
お店の	-10.6094
の準備	-10.6095
なー	-10.6096
えて	-10.6096
おかしい	-10.6097
できず	-10.6097
部分は	-10.6101
専門店	-10.6101
連載	-10.6102
張	-10.6105
UP	-10.6107
興奮	-10.6109
先行	-10.611
探偵	-10.6112
才	-10.6113
37	-10.6113
なにか	-10.6114
の作成	-10.6122
の動き	-10.6124
数多くの	-10.6127
;	-10.6128
そうですね	-10.613
提携	-10.6131
の基本	-10.6132
ボリューム	-10.6132
ゾ	-10.6133
EC	-10.6134
小さく	-10.6136
以下のような	-10.6138
いきました	-10.6138
招	-10.6141
ポケット	-10.6141
というのも	-10.6141
氏が	-10.6142
を求めて	-10.6143
パラ	-10.6145
グローバル	-10.6147
ゆく	-10.6152
みたいに	-10.6153
申し	-10.6154
分で	-10.6155
フレーム	-10.616
の中では	-10.616
終わって	-10.616
あとは	-10.616
学校の	-10.6162
マニュアル	-10.6163
冷え	-10.6165
ご利用ください	-10.6169
異なります	-10.617
気をつけ	-10.6171
身長	-10.6173
～!	-10.6175
本を	-10.6176
▁3.	-10.6178
リクエスト	-10.6178
じっくり	-10.6179
思いました	-10.6182
、2017	-10.6184
主婦	-10.6186
郷	-10.6187
スマート	-10.6188
通貨	-10.6189
の差	-10.6189
内容の	-10.6191
どれも	-10.6193
履歴	-10.6193
負	-10.6195
理由で	-10.6199
タオル	-10.6199
を確保	-10.62
報告書	-10.62
▁ところで	-10.6201
ようになっています	-10.6203
朝から	-10.6206
▁やっぱり	-10.621
会って	-10.6211
を行うこと	-10.6211
演	-10.6211
っていました	-10.6212
をつける	-10.6212
シティ	-10.6213
秋の	-10.6213
企業が	-10.6215
このように	-10.6215
食生活	-10.6219
生理	-10.6222
貢献	-10.6222
載って	-10.6225
鑑定	-10.6228
のバランス	-10.623
がなければ	-10.6233
が表示されます	-10.6235
と思うのですが	-10.6239
しかし	-10.624
風俗	-10.624
※	-10.624
はなく	-10.6241
が低い	-10.6243
終わった	-10.6243
▁海外	-10.6245
のみならず	-10.6245
という意味	-10.6246
兄弟	-10.6249
の姿	-10.6251
新鮮な	-10.6252
冷	-10.6255
であると	-10.6258
自己破産	-10.6259
成立	-10.6261
新築	-10.6261
株式	-10.6262
があるため	-10.6263
頭痛	-10.6265
2～3	-10.6265
ものではない	-10.6266
書かれた	-10.6266
眺め	-10.6268
弁	-10.627
歓迎	-10.627
700	-10.6272
々と	-10.6276
▁K	-10.6277
ナン	-10.6278
といえます	-10.6278
可能性もあります	-10.6281
なりません	-10.6283
と考えております	-10.6285
▁今の	-10.6285
...」	-10.6286
制御	-10.6288
人類	-10.6288
おきます	-10.6289
に役立つ	-10.6289
頭皮	-10.6289
東北	-10.629
訪れる	-10.6293
耳に	-10.6296
ライフスタイル	-10.6296
共感	-10.6297
のお知らせ	-10.6298
お名前	-10.6301
かかって	-10.6304
寝る	-10.6306
主演	-10.6307
周辺の	-10.6308
規則	-10.6314
ベトナム	-10.6315
状態に	-10.6315
の多くは	-10.6316
いよいよ	-10.632
冬の	-10.632
が可能な	-10.6321
無線	-10.6322
わかった	-10.6323
んじゃないかな	-10.6323
のご利用	-10.6323
癖	-10.6326
を元に	-10.633
教材	-10.633
ワー	-10.6336
幸	-10.6336
ますよ	-10.6337
りする	-10.6337
富士	-10.6337
アイコン	-10.6338
なきゃ	-10.6339
りと	-10.634
毛穴	-10.6345
スマホで	-10.6345
フィールド	-10.6346
迷惑	-10.6348
改革	-10.6349
分かりやすく	-10.6351
ピンク	-10.6351
どこで	-10.6352
を取得	-10.6353
カスタマイズ	-10.6353
列車	-10.6353
同僚	-10.6353
人や	-10.6359
づ	-10.636
相手を	-10.6362
せない	-10.6362
ではありませんが	-10.6363
ご希望の	-10.6364
いいと思います	-10.6366
我々	-10.6367
二人の	-10.6368
2012	-10.6368
解除	-10.6371
ビュー	-10.6373
の形	-10.6373
率は	-10.6373
ポイントを	-10.6374
▁近年	-10.6374
年末年始	-10.6375
のが一番	-10.6375
活	-10.638
専門の	-10.638
ギター	-10.6382
護	-10.6383
兵	-10.6385
だと思って	-10.6386
飯	-10.6387
ヘッド	-10.6387
SE	-10.6392
無料の	-10.6393
ne	-10.6393
吹き	-10.6393
あくまでも	-10.6395
の使い方	-10.6396
ter	-10.6396
追	-10.6396
3.	-10.6397
▁以下	-10.6398
を伝える	-10.6398
ノン	-10.6399
子の	-10.64
を守る	-10.64
んだから	-10.64
入る	-10.6401
があったら	-10.6401
頭に	-10.6402
を与える	-10.6403
の言葉	-10.6404
ション	-10.6404
is	-10.6404
所で	-10.6405
と思える	-10.6405
みれば	-10.6406
微	-10.6408
見ると	-10.6408
手の	-10.6416
江戸時代	-10.6419
カードを	-10.642
してもらえる	-10.642
34	-10.6421
▁基本的に	-10.6422
登山	-10.6424
そうした	-10.6424
海外の	-10.6424
して欲しい	-10.6425
されているので	-10.6425
を防ぐ	-10.6426
してくれて	-10.6426
面積	-10.6429
を展開	-10.643
結婚相談所	-10.6431
液	-10.6431
楽曲	-10.6434
を読む	-10.6434
エロ	-10.6434
を感じて	-10.6437
周囲	-10.644
na	-10.6442
することによって	-10.6444
踏み	-10.6444
休業	-10.6446
襲	-10.6451
復興	-10.6452
うちの	-10.6453
健	-10.6453
が好き	-10.6456
▁せっかく	-10.6458
複雑な	-10.6459
伊	-10.6461
福島	-10.6462
住まい	-10.6464
難しく	-10.6464
金属	-10.6464
がほとんど	-10.6467
夕食	-10.6467
栄養素	-10.6468
のだから	-10.6471
わかりやすい	-10.6471
狂	-10.6472
万円の	-10.6474
ものがあります	-10.6477
部屋の	-10.6478
議	-10.648
射	-10.648
▁こういった	-10.6482
決断	-10.6484
得意	-10.6485
なんでも	-10.6487
メモリ	-10.6491
真実	-10.6496
分かります	-10.6496
魔	-10.6502
わかり	-10.6502
を開催	-10.6503
一定	-10.6505
はっきり	-10.6514
共	-10.6516
やつ	-10.6517
世界中の	-10.6518
なこと	-10.6519
高め	-10.652
あっという間に	-10.6524
▁中国	-10.6526
▁その結果	-10.6526
仲良く	-10.6527
ありがたい	-10.6527
癒し	-10.6527
39	-10.6534
諦め	-10.6535
わたし	-10.6535
マス	-10.6536
銀座	-10.6538
ことが多く	-10.6538
を希望	-10.6539
衛生	-10.654
をしたい	-10.654
とおり	-10.6543
いている	-10.6543
衝撃	-10.6544
チラシ	-10.6548
の時に	-10.6549
最終的に	-10.6549
荒	-10.6553
は全て	-10.6555
を読み	-10.6555
かん	-10.6557
全体的に	-10.6558
の知識	-10.6559
していただく	-10.6561
自身が	-10.6564
形態	-10.6567
いいですね	-10.6567
お父さん	-10.6568
手紙	-10.657
怒り	-10.6573
▁これも	-10.6573
入浴	-10.6576
考えると	-10.6577
に基づく	-10.6578
がいっぱい	-10.6579
と呼ばれ	-10.6581
▁どの	-10.6582
爪	-10.6583
マラソン	-10.6586
良くない	-10.659
環境で	-10.659
いきましょう	-10.6594
ではなかった	-10.6598
ご存知	-10.6601
▁みんな	-10.6601
タイヤ	-10.6609
根拠	-10.6613
党	-10.6614
を抑える	-10.6614
10%	-10.6614
エピソード	-10.6616
関節	-10.6618
泣き	-10.662
不正	-10.6622
ブログを	-10.6624
ディスプレイ	-10.6625
出品	-10.6626
俺は	-10.6626
注意が必要です	-10.6626
矢	-10.6627
レベルの	-10.6627
のページ	-10.6627
形状	-10.6628
をクリックすると	-10.6632
言われて	-10.6632
きり	-10.6633
孫	-10.6634
問題ない	-10.6636
▁あまり	-10.6636
嫌い	-10.6637
を図る	-10.6637
いきたいと思います	-10.6641
お待ち	-10.6642
ご提案	-10.6642
が好きな	-10.6642
ゴールド	-10.6643
訪れ	-10.6645
その分	-10.6647
ミン	-10.6647
姫	-10.6647
の質	-10.6649
ということになります	-10.6649
たっぷり	-10.665
の時	-10.665
付属	-10.665
スタッフの	-10.6651
なしで	-10.6652
(1	-10.6652
危険な	-10.6653
を食べて	-10.6653
ハー	-10.6654
カリ	-10.6654
をクリックして	-10.6654
に記載	-10.6656
でもない	-10.6658
期間中	-10.666
させていただく	-10.666
機能を	-10.6661
単純に	-10.6663
ことがない	-10.6665
こない	-10.6666
意見を	-10.6669
ブーム	-10.6669
住んでいる	-10.6669
に貢献	-10.667
実力	-10.6672
マッチ	-10.6674
をすること	-10.6674
コール	-10.6674
et	-10.6678
美味しく	-10.668
りして	-10.668
の際には	-10.668
していただき	-10.6682
上から	-10.6683
話を聞いて	-10.6684
没	-10.6685
甲	-10.6687
頼	-10.6692
選んで	-10.6694
しておくと	-10.6696
月額	-10.6697
寝て	-10.6697
お出かけ	-10.6699
早速	-10.6701
広場	-10.6703
部分に	-10.6706
症状が	-10.6712
コミック	-10.6712
さんから	-10.6714
かれ	-10.6717
令	-10.6718
ロゴ	-10.6719
かす	-10.6719
捨て	-10.6722
たくなる	-10.6722
補	-10.6725
後日	-10.6726
であります	-10.6726
家を	-10.6734
立地	-10.6738
最近の	-10.674
との出会い	-10.674
役員	-10.6742
帳	-10.6742
部の	-10.6742
著者	-10.6743
って感じ	-10.6743
年生の	-10.6744
を利用	-10.6745
発想	-10.6746
腸	-10.6747
あえて	-10.6749
申込み	-10.6749
を変え	-10.675
弟	-10.675
田舎	-10.6751
フレ	-10.6751
なか	-10.6754
クロス	-10.6759
ない限り	-10.6762
異性	-10.6762
走行	-10.6764
将来の	-10.6764
はコメントを受け付けていません	-10.6765
真剣に	-10.6765
以前の	-10.6766
を書く	-10.6767
代行	-10.6771
故障	-10.6772
出た	-10.6773
多様な	-10.6774
しゃ	-10.6777
雄	-10.678
保育	-10.6785
を中心とした	-10.6788
知人	-10.679
ご登録	-10.6791
じゃないか	-10.6791
オール	-10.6791
自立	-10.6792
遠い	-10.6792
当て	-10.6792
していただきました	-10.6793
たまに	-10.6794
駅前	-10.6795
浸透	-10.6796
°	-10.6797
チョコレート	-10.6798
載せ	-10.6798
によれば	-10.6798
たりする	-10.6799
～」	-10.6801
トレード	-10.6805
不動産会社	-10.6808
研究者	-10.6817
押さえ	-10.6819
医薬品	-10.6821
センチ	-10.6821
連れ	-10.6822
を始めた	-10.6822
東日本大震災	-10.6822
▁無料	-10.6822
多数	-10.6823
ちゃう	-10.6823
参照	-10.6823
j	-10.6824
自覚	-10.6827
でしたら	-10.6828
デー	-10.6829
を飲む	-10.683
呼び	-10.6831
勢	-10.6834
話は	-10.6834
が続く	-10.6835
奥さん	-10.6835
キュ	-10.6836
歴	-10.6836
美術	-10.6839
純	-10.684
のご案内	-10.684
のである	-10.6841
ブリ	-10.6841
海外で	-10.6842
トレンド	-10.6844
正解	-10.6846
姉	-10.6848
危険性	-10.6849
どこの	-10.6852
食事を	-10.6852
パーティ	-10.6853
お肌	-10.6853
痛い	-10.6854
走る	-10.6858
統一	-10.6858
鬼	-10.6861
の元	-10.6862
補助	-10.6862
me	-10.6863
がついて	-10.6865
新幹線	-10.6865
るもの	-10.6866
委託	-10.6867
しておきたい	-10.687
試し読み	-10.6872
位の	-10.6873
ME	-10.6873
宗	-10.6875
緩和	-10.6878
事業所	-10.6878
暇	-10.6879
との関係	-10.6884
言っている	-10.6885
を考えると	-10.6888
子は	-10.6889
というと	-10.6893
意図	-10.6896
日本でも	-10.6901
がある場合は	-10.6903
ギャラリー	-10.6903
敗	-10.6904
の距離	-10.6905
スープ	-10.6909
違和感	-10.691
▁映画	-10.6911
嫁	-10.6913
駆け	-10.6915
価格は	-10.6917
プロの	-10.6919
落ち着いた	-10.692
貴	-10.6921
起こる	-10.6928
のなかで	-10.693
お互いに	-10.6931
なさい	-10.6934
問題を	-10.6934
に相談	-10.6935
と言われて	-10.6936
とし	-10.6938
▁前回	-10.6939
円の	-10.6941
まち	-10.6941
原発	-10.6942
ユーザーの	-10.6944
いざ	-10.6944
邪魔	-10.6945
していれば	-10.6946
貴方	-10.6948
頂いて	-10.6949
をします	-10.6953
枝	-10.6953
処方	-10.6955
本作	-10.6957
より良い	-10.6958
カテゴリ	-10.6959
方法が	-10.696
軽い	-10.696
利用できます	-10.696
受け取り	-10.6961
ほうがいい	-10.6963
どれくらい	-10.6963
どうすれば	-10.6964
2009	-10.6965
愛情	-10.6966
の生活	-10.6966
行われ	-10.6967
お得に	-10.6967
ed	-10.6967
搭載	-10.6968
をまとめて	-10.6969
US	-10.6975
勉強会	-10.6976
称	-10.6977
服装	-10.6977
禁	-10.6977
エイ	-10.6978
限	-10.6983
言われ	-10.6985
良いです	-10.6986
見直し	-10.6987
頃に	-10.6987
お食事	-10.6987
続けている	-10.6989
▁いま	-10.699
関数	-10.6993
スク	-10.6995
残念	-10.6995
宜しくお願い致します	-10.6996
皆さま	-10.6996
突き	-10.6996
の人気	-10.6996
の家	-10.6997
続	-10.6997
アクセサリー	-10.7005
同一	-10.7005
交通事故	-10.7008
全員が	-10.701
▁お客様の	-10.7012
したくない	-10.7014
紹介した	-10.7017
みませんか	-10.7017
▁スマホ	-10.702
求め	-10.7024
しておりました	-10.7024
議会	-10.7026
もん	-10.7026
しま	-10.7029
消費税	-10.7029
じゃないですか	-10.703
お断り	-10.7031
されてしまう	-10.7032
前回	-10.7032
民間	-10.7034
送付	-10.7037
進学	-10.7041
ウィ	-10.7046
業者に	-10.7048
魔法	-10.7049
滝	-10.705
ひどい	-10.705
決意	-10.7051
間違え	-10.7051
組合	-10.7054
とされる	-10.7054
6.	-10.7054
出席	-10.7055
が増えて	-10.7055
▁ネット	-10.7056
化する	-10.7058
、“	-10.7058
後で	-10.7058
うれしい	-10.706
長さ	-10.7064
食べられる	-10.7066
の人	-10.7066
否	-10.7068
幕	-10.7068
塗り	-10.7073
誠にありがとうございます	-10.7075
郎	-10.7077
記事に	-10.7077
インターネットで	-10.7079
をご確認ください	-10.7081
英語で	-10.7084
ておく	-10.7084
確認できます	-10.7084
殿	-10.7085
礼	-10.7085
おか	-10.7086
行こう	-10.7087
殆ど	-10.7095
見えます	-10.7095
拡張	-10.7099
キン	-10.7099
接客	-10.7101
持	-10.7102
みなさま	-10.7102
まつり	-10.7104
衣	-10.7105
之	-10.7111
離れて	-10.7113
ナイト	-10.7113
できたら	-10.7115
オブ	-10.7118
負荷	-10.7119
正確に	-10.712
信じ	-10.7123
てしまって	-10.7123
自らの	-10.7126
モチベーション	-10.7127
わり	-10.7129
防災	-10.7133
告知	-10.7134
プログラミング	-10.7138
ごく	-10.7138
好評	-10.714
あんまり	-10.714
理念	-10.714
添付	-10.7142
親子	-10.7145
直す	-10.7146
気持ちで	-10.7148
月末	-10.7149
★	-10.7154
介	-10.7156
ur	-10.716
人工	-10.7163
金曜日	-10.7164
をかけ	-10.7165
されていません	-10.7165
気になって	-10.7167
など様々な	-10.7167
チーズ	-10.7168
飲み物	-10.7168
注意点	-10.7169
の授業	-10.717
職人	-10.7171
▁尚	-10.7171
の価値	-10.7171
けれども	-10.7172
毒	-10.7173
細かく	-10.7174
の前で	-10.7175
ほう	-10.7178
点検	-10.718
自然な	-10.7181
離れ	-10.7181
と言えるでしょう	-10.7182
衣装	-10.7183
照	-10.7184
▁ホテル	-10.7184
マウス	-10.7184
くださいませ	-10.7185
カナダ	-10.7185
手で	-10.7186
HO	-10.7187
倉	-10.7187
になっていました	-10.7188
時も	-10.7191
陸	-10.7192
を見せて	-10.7192
メッセージを	-10.7194
に応じた	-10.7194
向かい	-10.7194
▁個人的には	-10.7198
とお	-10.7199
心より	-10.72
聴	-10.7201
使わない	-10.7202
はすべて	-10.7205
しているため	-10.7205
用紙	-10.7206
疑い	-10.7207
本格的に	-10.7207
の女性	-10.7207
イー	-10.7208
曲が	-10.7209
ひとつの	-10.7209
最近では	-10.721
ちゃんの	-10.7211
のお客様	-10.7211
がありましたら	-10.7214
ございます	-10.7214
運命	-10.7214
偶然	-10.7216
売って	-10.7217
看板	-10.7217
遺産	-10.7219
そんなこと	-10.7219
なくなり	-10.722
鳴	-10.722
の状況	-10.7221
が行われました	-10.7221
になってから	-10.7222
取り付け	-10.7222
誤	-10.7222
行ける	-10.7224
学園	-10.7226
オート	-10.7226
近くで	-10.7226
▁ですので	-10.7228
正確な	-10.7229
並んで	-10.7232
多分	-10.7233
を目指し	-10.7233
破壊	-10.7234
私たちが	-10.7236
さすがに	-10.724
起き	-10.7244
昨今	-10.7245
食べたい	-10.7249
照明	-10.7249
分割	-10.725
尽く	-10.7252
を学ぶ	-10.7254
お花	-10.7255
上手に	-10.7256
にした	-10.7256
腰痛	-10.7256
送料無料	-10.7257
何故	-10.7258
ですけど	-10.726
路線	-10.7261
伝えて	-10.7261
はずだ	-10.7261
価格が	-10.7262
アップロード	-10.7263
上がり	-10.7267
アナ	-10.7267
を大きく	-10.7267
目の前に	-10.7267
の価格	-10.7269
お過ごし	-10.7269
mi	-10.7271
を発表	-10.7273
がかかる	-10.7273
を得	-10.7274
関連の	-10.7276
の経験	-10.7277
使いやすい	-10.7278
軒	-10.7281
かかった	-10.7285
を使用し	-10.7286
やってる	-10.7286
▁そういった	-10.7287
杉	-10.7288
開設	-10.7289
が起こる	-10.729
ばかりで	-10.729
ポイントは	-10.7296
したのですが	-10.7298
がございましたら	-10.7298
上映	-10.7298
わかりません	-10.7302
が登場	-10.7302
しないように	-10.7305
科目	-10.7305
消化	-10.7307
これ以上	-10.7316
役に立つ	-10.7316
金銭	-10.732
巣	-10.7321
を活用して	-10.7321
てくれた	-10.7321
分野で	-10.7322
se	-10.7323
女性と	-10.7323
の際	-10.7325
▁今日も	-10.7326
プライバシー	-10.7327
最適	-10.7328
を開催します	-10.7328
2005	-10.7329
気をつけて	-10.7331
行われる	-10.7334
施行	-10.7335
山の	-10.7336
する人	-10.7336
日中	-10.7338
食い	-10.7338
職種	-10.7339
の提供	-10.734
に到着	-10.7341
戦い	-10.7342
スパ	-10.7343
テニス	-10.7343
シア	-10.7344
鑑賞	-10.7346
明らか	-10.7347
悩んで	-10.7348
一見	-10.7351
を減らす	-10.7351
▁一方で	-10.7351
美白	-10.7352
可能性は	-10.7355
創造	-10.7355
ではないので	-10.7358
水を	-10.736
気づき	-10.7361
形成	-10.7362
磨	-10.7366
がないので	-10.7368
主人	-10.7369
文句	-10.7369
SP	-10.7371
に関する情報	-10.7371
住み	-10.7373
ワード	-10.7373
120	-10.7374
問題が	-10.7375
ストア	-10.7379
ブレ	-10.7379
に影響	-10.7382
楽しみです	-10.7383
お願い致します	-10.7385
声を	-10.7386
いいね	-10.7386
度に	-10.7388
を探している	-10.7394
機能が	-10.7394
甘	-10.7395
都道府県	-10.7396
ができた	-10.7397
▁不倫	-10.7399
分かりません	-10.7399
意欲	-10.7401
発達	-10.7402
どこまで	-10.7402
田市	-10.7404
際の	-10.7404
遅く	-10.7407
場合も	-10.741
ユニット	-10.7411
の手	-10.7411
本番	-10.7412
打ち合わせ	-10.7413
低下	-10.7415
浮	-10.7415
どっち	-10.7416
していきましょう	-10.7416
こんにちは	-10.7417
してくれ	-10.7418
蓄積	-10.742
控除	-10.7421
つぶ	-10.7422
狭い	-10.7423
の中心	-10.7423
起業	-10.7428
返す	-10.7429
等に	-10.7429
の情報を	-10.743
会の	-10.743
いますので	-10.7431
喜	-10.7431
探す	-10.7432
のでご注意ください	-10.7433
製品の	-10.7434
▁北海道	-10.7434
判	-10.7435
に位置する	-10.7435
タウン	-10.7437
強制	-10.7439
にかかる	-10.744
個別	-10.744
▁おそらく	-10.744
おくと	-10.7442
▁2012	-10.7444
解析	-10.7445
日で	-10.745
人形	-10.7452
もしかしたら	-10.7452
応用	-10.7452
の研究	-10.7454
進出	-10.7457
カタログ	-10.746
を獲得	-10.7462
亡くなった	-10.7464
サイトです	-10.7464
▁I	-10.7465
してみてはいかがでしょうか	-10.7466
ないか	-10.7467
以外は	-10.7477
ご自宅	-10.7477
ホテルの	-10.7478
引用	-10.7479
効果は	-10.7482
サブ	-10.7483
の方法	-10.7485
漏れ	-10.7487
▁Web	-10.7488
英会話	-10.7489
みな	-10.7492
奈良	-10.7493
ような気がする	-10.7493
に来る	-10.7494
といい	-10.7495
洗濯	-10.7496
を手に	-10.7496
99	-10.7496
驚きました	-10.7496
晩	-10.7497
特許	-10.7499
才能	-10.7499
葬儀	-10.75
このまま	-10.7502
の意見	-10.7503
ライセンス	-10.7504
水準	-10.7505
再開	-10.7507
のだと思います	-10.751
どこかで	-10.7511
返事	-10.7513
に集中	-10.7523
がち	-10.7524
▁すでに	-10.7527
継続して	-10.7527
配達	-10.7529
ドン	-10.753
キス	-10.7534
移行	-10.7535
を送る	-10.7536
は大変	-10.7536
変換	-10.7537
かつて	-10.7541
ご支援	-10.7542
デザインの	-10.7544
が完了	-10.7544
がかかります	-10.7546
マルチ	-10.7549
万円以上	-10.755
寒さ	-10.7551
北朝鮮	-10.7551
なんだろう	-10.7552
個室	-10.7554
2008	-10.7555
さが	-10.7556
洋服	-10.7556
車が	-10.7557
タワー	-10.7559
したとき	-10.756
相性	-10.756
通話	-10.7561
過程	-10.7561
レーザー	-10.7562
スレ	-10.7563
一緒	-10.7564
歳で	-10.7564
してまいります	-10.7568
iOS	-10.7569
しておりません	-10.7571
造り	-10.7572
ユーザーが	-10.7572
エア	-10.7574
やろう	-10.7575
ファミリー	-10.7577
心地	-10.7577
TA	-10.7577
▁大阪	-10.7578
2011	-10.7578
もたくさん	-10.7579
入金	-10.758
見たい	-10.758
応え	-10.7582
会った	-10.7588
ダム	-10.7589
族	-10.7589
を考えている	-10.7589
複雑	-10.7589
なってきました	-10.759
実際は	-10.7591
を問わず	-10.7591
▁先週	-10.7593
ポスター	-10.7596
いただいております	-10.7599
はあります	-10.76
くれている	-10.7601
の力	-10.7602
商店街	-10.7602
することもできます	-10.7604
元の	-10.7605
起きた	-10.7607
店で	-10.7609
上限	-10.761
やめて	-10.761
はどこ	-10.761
どういった	-10.7612
○○	-10.7614
を引き	-10.7614
をつくる	-10.7615
酷	-10.7616
短期	-10.7617
されると	-10.7623
ランク	-10.7623
詩	-10.7626
ほんの	-10.7627
自分たちの	-10.7628
AR	-10.7629
がなかった	-10.7629
何の	-10.763
不可	-10.7631
ご本人	-10.7633
よろしくお願い致します	-10.7635
にとっても	-10.7636
ヴァ	-10.7636
かは	-10.7639
るという	-10.7641
財	-10.7642
なっています	-10.7643
司法書士	-10.7644
感じで	-10.7646
の評価	-10.7646
を得て	-10.7648
を発見	-10.7648
ーズ	-10.7649
GO	-10.7649
▁それぞれの	-10.7652
スーツ	-10.7653
向こう	-10.7654
てきて	-10.7654
・・・・	-10.7655
RO	-10.7656
年間の	-10.7656
点は	-10.7658
休暇	-10.766
いただくこと	-10.7661
郵便	-10.7662
キャスト	-10.7663
しているのは	-10.7663
してしまうと	-10.7663
▁たくさんの	-10.7664
死ぬ	-10.7667
熱い	-10.7668
んでしょうか	-10.767
と感じた	-10.7671
飾り	-10.7671
従来	-10.7677
手続きを	-10.7677
栄	-10.7678
を使えば	-10.7679
見られ	-10.7679
たもの	-10.7685
伝える	-10.7688
もはや	-10.7688
人間は	-10.7689
風に	-10.7691
育毛剤	-10.7691
と感じました	-10.7691
震災	-10.7696
地上	-10.7696
が原因で	-10.7697
フィリピン	-10.7698
思え	-10.7698
LAN	-10.77
が異なる	-10.7702
▁三	-10.7703
の後	-10.7704
まぁ	-10.7705
していなかった	-10.7705
似	-10.7707
部位	-10.7708
グリ	-10.7709
清掃	-10.7711
同時	-10.7714
寒	-10.7714
爆	-10.7715
優先	-10.7715
苦手	-10.7715
けっこう	-10.7718
江戸	-10.7719
られません	-10.7721
の方から	-10.7722
静岡県	-10.7723
範囲で	-10.7724
対策を	-10.7724
リード	-10.7725
一週間	-10.7725
幸いです	-10.7729
決めた	-10.773
そうでない	-10.7731
飛んで	-10.7736
氏名	-10.7737
りします	-10.7739
昼間	-10.774
分解	-10.7742
有効な	-10.7743
デイ	-10.7743
すみません	-10.7744
ショ	-10.7746
気を付け	-10.7748
地下鉄	-10.7748
手続	-10.7749
革	-10.7749
紀	-10.7749
代表的な	-10.775
感じられる	-10.7751
皆さんの	-10.7754
いけない	-10.7754
メールにて	-10.7754
匂い	-10.7756
生物	-10.7757
由来	-10.7759
フルーツ	-10.776
そうに	-10.7761
通りの	-10.7765
てくれます	-10.7768
らなかった	-10.7771
ヶ	-10.7771
きている	-10.7772
のうえ	-10.7776
一言	-10.7779
補償	-10.7779
信号	-10.7779
▁18	-10.778
ツイート	-10.7782
爆発	-10.7783
分かった	-10.7783
欄	-10.7783
展示会	-10.7783
ナンバー	-10.7787
を決めて	-10.7788
▁もともと	-10.7788
、2016	-10.7791
結果は	-10.7791
育	-10.7791
使	-10.7792
TO	-10.7793
レッド	-10.7794
配合	-10.7795
and	-10.7797
してみませんか	-10.7799
境	-10.7801
▁テレビ	-10.7801
のデザイン	-10.7801
ことが出来ました	-10.7802
ソリューション	-10.7803
リビング	-10.7804
<	-10.7804
お住まい	-10.7807
おもちゃ	-10.781
ポリ	-10.7811
期間が	-10.7811
子供たち	-10.7811
を実行	-10.7812
みんなが	-10.7814
届く	-10.7815
の成長	-10.7818
コレ	-10.7818
最終的には	-10.7819
ry	-10.7821
ろうと	-10.7822
クルマ	-10.7822
テル	-10.7825
映	-10.7826
ho	-10.7826
祝日	-10.7828
はい	-10.783
であったり	-10.7831
のサポート	-10.7831
健康に	-10.7832
はなかなか	-10.7832
してみた	-10.7835
が難しい	-10.7837
基	-10.7837
沈	-10.7838
にわたって	-10.7838
きれいに	-10.7838
既存の	-10.7839
抗	-10.7839
お気に入り	-10.784
生活習慣	-10.7841
▁東京都	-10.7842
▁この度	-10.7842
持続	-10.7843
カテゴリー	-10.7843
談	-10.7844
サイクル	-10.7846
上がった	-10.7846
いただいている	-10.7847
がんばって	-10.7847
ート	-10.7848
演技	-10.7849
生成	-10.785
することなく	-10.7855
この記事	-10.7856
をプレゼント	-10.7856
聞か	-10.7858
心臓	-10.7858
のメンバー	-10.7859
伝説	-10.7864
方向に	-10.7865
大阪市	-10.7866
悲しい	-10.7866
本書	-10.7867
パパ活	-10.7869
問題ありません	-10.7871
ものでした	-10.7871
○	-10.7871
▁商品	-10.7872
ミッション	-10.7873
EN	-10.7874
付き合って	-10.7876
のサイト	-10.7876
▁日本では	-10.7878
からといって	-10.7879
の通り	-10.788
/1	-10.788
いるようです	-10.7882
テンプレート	-10.7883
製の	-10.7883
困っている	-10.7889
適切に	-10.789
けて	-10.789
生涯	-10.7893
サイズの	-10.7894
を含め	-10.7896
登記	-10.7898
MI	-10.7899
言葉で	-10.7902
亀	-10.7903
ネイル	-10.7903
憲法	-10.7904
基盤	-10.7904
足の	-10.7904
ていますが	-10.7904
教員	-10.7905
隣の	-10.7905
グルメ	-10.7905
チュ	-10.7906
AN	-10.7907
投	-10.7907
投資家	-10.7909
塚	-10.7911
わけですが	-10.7911
ってしまった	-10.7911
▁ここは	-10.7912
以前に	-10.7914
ハマ	-10.7915
海外旅行	-10.7915
開き	-10.7916
洗顔	-10.7917
その後の	-10.7925
ことができません	-10.7925
と同様に	-10.7928
名が	-10.7929
受診	-10.793
をご用意しております	-10.7931
存在する	-10.7932
はありませんでした	-10.7933
つつある	-10.7935
援助	-10.7937
になっていて	-10.7937
が出来	-10.7942
来店	-10.7942
ところが	-10.7942
5,000	-10.7944
直後	-10.7946
だろ	-10.7947
先生は	-10.7948
千葉県	-10.7948
かない	-10.7948
やりたいこと	-10.7949
お楽しみ	-10.7951
われた	-10.7952
アドバイスを	-10.7954
量が	-10.7955
盛	-10.7956
忠	-10.7957
ここから	-10.7957
っけ	-10.7957
いえ	-10.7957
ハード	-10.7958
どのくらい	-10.7961
対戦	-10.7962
がちな	-10.7963
ことをおすすめします	-10.7965
の一	-10.7968
検	-10.797
レジ	-10.7972
MO	-10.7973
年後	-10.7974
税理士	-10.7975
肝	-10.7975
かい	-10.7977
ムダ毛	-10.798
デモ	-10.7981
料金が	-10.7983
でしょうね	-10.7983
らしいです	-10.7984
お受け	-10.7987
がないと	-10.7987
恐れ	-10.7988
外で	-10.7988
してもらった	-10.799
ところを	-10.7992
データの	-10.7992
大量の	-10.7997
の画像	-10.7999
センス	-10.8
ショック	-10.8
立った	-10.8002
感じです	-10.8003
ポケモン	-10.8003
のメリット	-10.8004
まわり	-10.8005
47	-10.8006
ありますので	-10.8007
人々が	-10.8008
ぼく	-10.8012
博	-10.8014
たん	-10.8014
とのことで	-10.8015
▁弊社	-10.8015
控え	-10.8016
▁V	-10.8017
算	-10.8017
行きました	-10.8018
少しだけ	-10.8019
徳	-10.8019
に移	-10.802
▁世界	-10.802
会社は	-10.802
素直に	-10.8021
くれない	-10.8021
なかったのですが	-10.8024
入れる	-10.8027
工程	-10.8027
ップ	-10.8027
ここでは	-10.8027
Yahoo	-10.8033
浅	-10.8037
ことのない	-10.8038
方が多い	-10.8039
普段から	-10.804
スッキリ	-10.8042
チャット	-10.8042
俺の	-10.8042
即日	-10.8044
が生じ	-10.8046
欧米	-10.8047
ation	-10.8049
臨床	-10.805
年度の	-10.8052
布団	-10.8052
独特の	-10.8053
考えられる	-10.8053
性質	-10.8055
出勤	-10.8055
スの	-10.8058
仙台	-10.8058
専門学校	-10.8058
訪れた	-10.8062
香港	-10.8063
タバコ	-10.8064
赤い	-10.8064
使えます	-10.8065
率が	-10.8066
ダブル	-10.8066
終了後	-10.8067
言えない	-10.8067
塔	-10.8068
復旧	-10.8068
外れ	-10.8068
今のところ	-10.8069
ツイッター	-10.8071
振込	-10.8077
体験談	-10.8078
もあれば	-10.8078
している人	-10.8078
いませんが	-10.808
どうも	-10.8081
に感謝	-10.8081
後から	-10.8081
ビア	-10.8081
快	-10.8082
でしたので	-10.8086
の痛み	-10.8086
いくと	-10.8087
運行	-10.8092
ゅ	-10.8093
ko	-10.8096
家賃	-10.8099
動いて	-10.8099
とり	-10.8103
テロ	-10.8106
土日	-10.8106
主要	-10.8111
を作成する	-10.8113
▁これら	-10.8116
いただくと	-10.8119
ロンドン	-10.812
つける	-10.8121
フィー	-10.8122
する機会	-10.8123
作れる	-10.8123
支え	-10.8124
そこは	-10.8124
の詳細	-10.8124
の有無	-10.8124
一杯	-10.8125
ますよね	-10.8127
大切	-10.8129
植え	-10.8129
マイル	-10.813
個人的な	-10.8132
と違って	-10.8133
借り入れ	-10.8133
財布	-10.8135
op	-10.8135
次のような	-10.8136
話し合い	-10.8136
ate	-10.8137
だれ	-10.8138
を増やす	-10.8141
してました	-10.8142
雑貨	-10.8144
を教えて	-10.8145
プラグイン	-10.8145
帰国	-10.8153
ード	-10.8154
NA	-10.8155
アド	-10.8156
違法	-10.8159
するなら	-10.8161
線の	-10.8163
もち	-10.8166
楽しかった	-10.8166
ではなくて	-10.8171
貸し	-10.8172
レコード	-10.8173
ポジション	-10.8176
は少ない	-10.8177
web	-10.8177
福島県	-10.8178
出てきた	-10.8179
▁」「	-10.8179
の支払い	-10.8179
定番	-10.818
のサービス	-10.818
スペイン	-10.818
経費	-10.818
残って	-10.818
甘い	-10.8182
ヒント	-10.8183
美肌	-10.8184
お伺い	-10.8187
慎重に	-10.8188
のデータ	-10.8189
でしか	-10.819
廃止	-10.8191
正規	-10.8191
何よりも	-10.8193
ないでしょう	-10.8195
ナイ	-10.8196
ベルト	-10.8197
則	-10.8197
75	-10.8197
プラットフォーム	-10.8198
なくなってしまう	-10.8199
流通	-10.8199
思っていた	-10.82
を切り	-10.82
をかける	-10.8202
を起こす	-10.8203
▁浮気	-10.8205
決めて	-10.8205
情	-10.8208
グラフ	-10.8209
遺	-10.8209
話題の	-10.8209
7.	-10.8211
デン	-10.8214
学科	-10.8214
かと思いますが	-10.8215
銃	-10.8218
智	-10.8218
旅館	-10.8222
それらの	-10.8225
お値段	-10.8225
ようとする	-10.8225
こちらに	-10.8226
反映	-10.8227
を超えた	-10.8229
を共有	-10.8229
タブ	-10.8237
汁	-10.8238
というものは	-10.8238
家電	-10.824
へ行く	-10.8241
日以内に	-10.8242
統合	-10.8245
っぽ	-10.8245
インチ	-10.8246
くなった	-10.8247
こんな感じ	-10.825
サービスは	-10.8252
唯一の	-10.8252
をお願い	-10.8253
かも知れない	-10.8254
付き合い	-10.8256
に住む	-10.8257
net	-10.8257
ないのですが	-10.826
イライラ	-10.826
販売店	-10.8261
一人の	-10.8267
The	-10.8269
イヤ	-10.8269
アレ	-10.827
を手に入れる	-10.8271
に関連する	-10.8274
破損	-10.8274
医者	-10.8274
しないで	-10.8275
度の	-10.8278
お知らせいたします	-10.8283
時刻	-10.8284
▁以下の	-10.8284
分泌	-10.8284
キット	-10.8285
足を	-10.8285
▁男性	-10.8287
紫外線	-10.8289
利便性	-10.8289
▁したがって	-10.829
我	-10.829
月曜日	-10.829
させること	-10.8291
キーボード	-10.8292
過ごして	-10.8296
階段	-10.8296
方で	-10.8299
言われる	-10.8299
どちらも	-10.8302
間違って	-10.8306
合わ	-10.8307
商標	-10.831
安心感	-10.8312
狭	-10.8313
他人の	-10.8314
人事	-10.8314
男の子	-10.8315
だと思いますが	-10.8315
大丈夫です	-10.8317
生え	-10.8317
出展	-10.8318
モンスター	-10.8318
主催	-10.8319
てきます	-10.8319
してみたい	-10.8321
失礼	-10.8323
▁そういえば	-10.8325
てから	-10.8327
疲労	-10.8327
数々の	-10.8329
達が	-10.8331
暮らす	-10.8331
いけ	-10.8332
朝の	-10.8332
に出て	-10.8333
の症状	-10.8333
都内	-10.8334
らい	-10.8334
すっきり	-10.8337
as	-10.8337
それ以外の	-10.8338
今までの	-10.8338
を上げ	-10.834
コンテスト	-10.8343
ことができるので	-10.8343
行きます	-10.8344
の上で	-10.8345
が無く	-10.8347
天井	-10.8348
をより	-10.8348
が多数	-10.835
ロール	-10.835
自宅に	-10.8352
ないけど	-10.8352
得る	-10.8353
委員	-10.8354
あげて	-10.8355
薬剤師	-10.8357
を設置	-10.836
ストレッチ	-10.8364
日には	-10.8365
困った	-10.8366
幸い	-10.8366
千葉	-10.8367
場合によっては	-10.8369
混乱	-10.8369
育成	-10.8369
丘	-10.8371
テレ	-10.8371
で働く	-10.8373
相互	-10.8376
を選んだ	-10.8377
経緯	-10.8377
繋がり	-10.8378
お使い	-10.8378
することがあります	-10.8378
の管理	-10.8378
ユー	-10.8379
ことになった	-10.8382
ターゲット	-10.8385
誘導	-10.8385
ないという	-10.8387
らしさ	-10.8387
納	-10.8392
合意	-10.8392
勝負	-10.8394
努力を	-10.8396
回って	-10.8397
出来た	-10.8398
ファー	-10.8398
個人的に	-10.8398
料理を	-10.8399
問題なく	-10.8399
取り扱い	-10.84
同士の	-10.84
お湯	-10.84
フラ	-10.8402
を買い	-10.8404
を知り	-10.8404
びっくり	-10.8406
で開催される	-10.841
された方	-10.8411
ここは	-10.8412
を公開	-10.8414
調べてみました	-10.8414
とします	-10.8415
es	-10.8418
▁様々な	-10.8419
などから	-10.8424
▁私たち	-10.8425
たけど	-10.8425
ウス	-10.8426
沼	-10.8426
SS	-10.8427
風呂	-10.8427
一応	-10.8427
かぶ	-10.8428
CA	-10.8432
基地	-10.8433
申し訳ない	-10.8436
不安な	-10.8438
裁	-10.8439
づけ	-10.844
原則として	-10.8442
ものとします	-10.8442
に従って	-10.8444
短く	-10.8445
作品は	-10.8445
に住んでいる	-10.8446
しまえば	-10.8446
遊ぶ	-10.845
ω	-10.845
場所を	-10.8451
歌詞	-10.8454
摂	-10.8457
乗り換え	-10.8458
夕	-10.8458
のですか	-10.8461
よし	-10.8463
優秀な	-10.8464
だけを	-10.8464
既	-10.8465
ばかりの	-10.8466
大事に	-10.8468
分かり	-10.847
区の	-10.847
訪れて	-10.8473
マネジメント	-10.8473
事ができます	-10.8476
ようなので	-10.848
彼に	-10.848
岸	-10.848
わけではなく	-10.8482
会える	-10.8483
巡り	-10.8483
業種	-10.8484
同じように	-10.8485
▁X	-10.8485
AL	-10.8487
にしか	-10.849
徹底	-10.8491
直し	-10.8492
倒れ	-10.8494
信頼できる	-10.8494
はどんな	-10.8496
芸	-10.8498
テクノロジー	-10.8498
うん	-10.8499
されております	-10.85
ことなど	-10.8501
暗	-10.8501
友達と	-10.8501
周年記念	-10.8503
支配	-10.8504
近所	-10.8505
お時間	-10.8508
特殊な	-10.8508
認知	-10.8508
ゆう	-10.8509
網	-10.851
の割合	-10.851
潮	-10.851
毎に	-10.8511
ページの	-10.8512
ないし	-10.8512
神奈川県	-10.8516
でしょうが	-10.8516
▁30	-10.8516
保健	-10.8516
構	-10.8517
ようにしています	-10.8517
病院に	-10.8521
結果を	-10.8521
の時代	-10.8523
の森	-10.8524
は絶対に	-10.8525
閉	-10.8529
がおすすめです	-10.8529
au	-10.8529
今月	-10.853
ケン	-10.8531
本サービス	-10.8532
茨城県	-10.8534
いたしますので	-10.8534
用語	-10.8535
このブログ	-10.8537
を多く	-10.8538
続いて	-10.8538
英語の	-10.8538
完備	-10.8539
仕入れ	-10.854
に立ち	-10.8542
埼玉県	-10.8543
んじゃない	-10.8544
場合もございます	-10.8544
登	-10.8547
の時期	-10.8548
▁だからこそ	-10.8548
客室	-10.855
本部	-10.8552
済	-10.8553
を掲載	-10.8553
二人で	-10.8556
訂正	-10.8556
ラスト	-10.8557
オススメです	-10.8557
あきらめ	-10.8557
何かを	-10.856
ご確認	-10.856
はなかった	-10.8562
気味	-10.8563
合成	-10.8564
の営業	-10.8565
の長さ	-10.8567
死んで	-10.8568
のんびり	-10.8569
▁一般的に	-10.857
うつ	-10.857
一時的に	-10.8571
手配	-10.8573
使用している	-10.8575
それだけで	-10.8575
されたり	-10.8576
日本は	-10.8579
切手	-10.8581
アイス	-10.8582
自殺	-10.8582
いけば	-10.8583
厳しく	-10.8584
受け入れ	-10.8584
捜査	-10.8584
組み	-10.8584
るため	-10.8586
を改善	-10.8586
ごとの	-10.8588
NO	-10.8589
を置いて	-10.8591
受ける	-10.8595
ハンド	-10.8595
の機能	-10.8596
いらっしゃいます	-10.8599
生き方	-10.8602
行い	-10.8603
苦しい	-10.8605
稼働	-10.8606
方も多い	-10.8606
トー	-10.8607
の撮影	-10.8608
以前から	-10.8608
2020	-10.8608
▁その際	-10.8611
大阪府	-10.8611
数年	-10.8614
時間がかかる	-10.8615
製品を	-10.8615
講演会	-10.8615
ーん	-10.8615
お店に	-10.8616
に直接	-10.8616
化粧	-10.8616
していたら	-10.8617
をみて	-10.8619
イオン	-10.862
の味	-10.8621
誤解	-10.8621
稲	-10.8625
費用は	-10.8625
▁2011	-10.863
粒	-10.8631
側面	-10.8632
64	-10.8633
ショート	-10.8636
申告	-10.8636
をテーマに	-10.8638
なさ	-10.864
大いに	-10.8642
使えない	-10.8644
しまっている	-10.8644
を始めて	-10.8644
大量に	-10.8647
−	-10.8649
もかなり	-10.8649
その場	-10.8651
生徒さん	-10.8655
関係の	-10.8656
um	-10.8657
ホルモン	-10.8657
シャワー	-10.8657
寿命	-10.8657
クッキー	-10.8658
乗って	-10.8659
発表した	-10.8661
の木	-10.8661
臭	-10.8661
行かない	-10.8662
を減ら	-10.8664
しておけば	-10.8665
乾	-10.8666
子ども達	-10.8667
弱い	-10.8668
幅広く	-10.8669
夫の	-10.8669
頂きます	-10.867
ソー	-10.8672
回避	-10.8672
ないもの	-10.8674
宅	-10.8675
縮	-10.8678
59	-10.8679
外に	-10.868
椅子	-10.868
ボー	-10.8681
分程度	-10.8682
FC	-10.8684
行け	-10.8687
になっており	-10.8687
敷	-10.8688
紹介します	-10.8688
▁昔	-10.8691
凄く	-10.8692
のご予約	-10.8693
の無い	-10.8693
膜	-10.8694
伴	-10.8695
在宅	-10.8698
刺	-10.8699
英国	-10.87
洗浄	-10.8701
題	-10.8702
ゴー	-10.8703
お手数ですが	-10.8703
みても	-10.8704
光景	-10.8707
らせ	-10.8707
方法について	-10.8707
折り	-10.8708
に合う	-10.8709
洗い	-10.8712
世界観	-10.8714
オス	-10.8714
建物の	-10.8714
露	-10.8719
お店です	-10.8719
ゆる	-10.872
はよく	-10.8721
が必要になる	-10.8723
恥ずかしい	-10.8724
と考えられます	-10.8726
ていません	-10.8726
せいか	-10.8727
やすくなります	-10.8729
▁気になる	-10.873
恵	-10.873
を確認し	-10.8731
フィルム	-10.8731
かわ	-10.8731
参考にしてください	-10.8733
コラボ	-10.8735
上げる	-10.8735
知ら	-10.8736
治療法	-10.8736
テープ	-10.8738
SD	-10.8739
に該当する	-10.8739
▁«	-10.874
残っている	-10.8741
20%	-10.8741
NG	-10.8742
ばかりです	-10.8743
をお願い致します	-10.8743
黄	-10.8746
飛ば	-10.8747
方へ	-10.8747
ウェア	-10.8747
万が一	-10.875
は基本的に	-10.8751
文学	-10.8752
なくてはならない	-10.8753
順番	-10.8753
システムの	-10.8754
バリ	-10.8755
プル	-10.8756
ロング	-10.8756
がかなり	-10.8757
選手が	-10.8758
単なる	-10.8758
▁こちら	-10.8759
方でも	-10.8761
に注目	-10.8762
だったが	-10.8764
囲	-10.8765
のブログ	-10.8765
そのうち	-10.8765
は日本	-10.8768
で行われた	-10.8769
のですから	-10.8769
差別	-10.8771
二重	-10.8772
その人	-10.8776
お好きな	-10.8778
であるため	-10.8783
した方が	-10.8784
の新	-10.8784
の役割	-10.8784
芽	-10.8785
録音	-10.8785
丁寧な	-10.8788
畳	-10.8789
無効	-10.8791
▁JR	-10.8791
集まって	-10.8792
堀	-10.8794
が決定	-10.8799
濃い	-10.8801
次は	-10.8802
建て	-10.8804
なに	-10.8806
残業	-10.881
させて頂いております	-10.8811
実習	-10.8811
民族	-10.8813
もまた	-10.8813
はちょっと	-10.8814
夜は	-10.8814
サービスです	-10.8815
という思い	-10.8816
|	-10.8817
になると思います	-10.8817
保有	-10.8818
ある程度の	-10.8818
ジャケット	-10.8819
▁夏	-10.882
しようとする	-10.882
れます	-10.8821
ポイントが	-10.8823
略	-10.8823
重さ	-10.8823
振興	-10.8824
id	-10.8824
血管	-10.8826
外観	-10.8826
が出ている	-10.8827
は別	-10.8828
怠	-10.8828
42	-10.883
当初	-10.8831
順に	-10.8834
を飲んで	-10.8835
▁上記の	-10.8836
温かい	-10.8836
選考	-10.8837
観光地	-10.8837
奇	-10.884
一般の	-10.8843
買える	-10.8845
しろ	-10.8846
しかった	-10.8847
できるようになる	-10.8848
読める	-10.8849
ものですが	-10.885
にもなる	-10.885
現役	-10.885
などにも	-10.885
たくて	-10.8851
一瞬	-10.8852
2007	-10.8853
被災地	-10.8855
名刺	-10.8855
全身脱毛	-10.8856
を使用している	-10.8857
ボン	-10.8858
大学院	-10.886
ATM	-10.8861
以降の	-10.8862
高度な	-10.8863
生活に	-10.8864
世の中に	-10.8864
後も	-10.8864
頭が	-10.8865
されたもの	-10.8865
住む	-10.8867
お二人	-10.8867
この時期	-10.8868
聞こえ	-10.8869
われる	-10.8871
にも対応	-10.8872
転送	-10.8872
全般	-10.8873
当選	-10.8874
▁全	-10.8875
と思うと	-10.8875
を進める	-10.8875
初日	-10.8876
AT	-10.8879
ある意味	-10.888
表示される	-10.888
RA	-10.8882
政治家	-10.8882
8.	-10.8883
できるか	-10.8883
の動画	-10.8884
広報	-10.8884
交付	-10.8886
購入しました	-10.8886
壊	-10.8886
机	-10.8887
敏感肌	-10.8888
の予約	-10.8889
▁O	-10.8893
オレ	-10.8894
決算	-10.8895
▁以上	-10.8896
薬局	-10.8897
で一番	-10.8898
二つ	-10.8899
に登録	-10.8899
梅雨	-10.8901
当初は	-10.8904
をとり	-10.8904
上げて	-10.8909
泡	-10.8913
滑	-10.8915
作成した	-10.8916
に沿って	-10.8919
にもなります	-10.892
重視	-10.8924
開催された	-10.8925
回る	-10.8925
したりする	-10.8926
厳	-10.8927
ディスク	-10.8927
在籍	-10.893
えない	-10.8934
うどん	-10.8935
講	-10.8935
マスク	-10.8935
精度	-10.8935
よいでしょう	-10.8937
が始まる	-10.894
居る	-10.894
エンド	-10.894
筋トレ	-10.8942
投げ	-10.8946
が存在する	-10.8947
自分自身の	-10.8947
紹介しています	-10.8947
ディズニー	-10.8947
を検索	-10.8949
の場	-10.8951
持つ	-10.8951
ビン	-10.8952
行える	-10.8954
元々	-10.8955
お互いの	-10.8956
50%	-10.8957
と比較して	-10.8957
レンタ	-10.8958
知られ	-10.8959
物が	-10.8959
44	-10.8961
不便	-10.8961
発売された	-10.8962
京都府	-10.8962
埋め	-10.8968
どこから	-10.8969
見えて	-10.897
知った	-10.8971
急な	-10.8971
不調	-10.8972
スイーツ	-10.8973
気づいて	-10.8974
BA	-10.8976
モー	-10.8981
魅力的	-10.8982
織	-10.8982
49	-10.8983
ご応募	-10.8987
一面	-10.8987
はもちろんのこと	-10.8991
馬鹿	-10.8994
宅配	-10.8994
だんだん	-10.8995
の方の	-10.8995
メル	-10.8998
ことができれば	-10.9001
を続ける	-10.9003
づらい	-10.9004
矯正	-10.9006
聴いて	-10.9007
どころ	-10.9008
似たような	-10.9008
ものであり	-10.9008
を受けている	-10.9009
る人	-10.9009
階の	-10.9009
過ご	-10.901
いこう	-10.9011
の国	-10.9012
▁中には	-10.9013
▁その中で	-10.9014
ことが重要です	-10.9016
よくある	-10.9017
▁現在の	-10.9017
を置く	-10.9018
並	-10.9018
棟	-10.9018
気に入った	-10.9019
を出し	-10.9021
必要はありません	-10.9021
だと言えます	-10.9026
代理店	-10.9029
▁iPhone	-10.9031
いくこと	-10.9031
と思ってます	-10.9032
秀	-10.9034
発生する	-10.9035
』『	-10.9035
コスメ	-10.9037
というわけです	-10.9037
一つ一つ	-10.9037
ペース	-10.904
入った	-10.9042
感じて	-10.9045
OL	-10.9047
方から	-10.9049
溢れ	-10.9053
たとえ	-10.9053
ヵ月	-10.9054
こども	-10.9054
踏	-10.9056
包	-10.9061
容易に	-10.9061
けどね	-10.9062
を付けて	-10.9065
リンク先	-10.9068
短縮	-10.9068
消防	-10.9068
▁アメリカ	-10.9068
求人情報	-10.907
写真の	-10.9074
をおすすめします	-10.9075
勘違い	-10.9078
さら	-10.9079
を見ていると	-10.9079
揃え	-10.908
業績	-10.908
どこでも	-10.9081
役立つ	-10.9081
経って	-10.9081
沿い	-10.9082
に行か	-10.9082
ゴム	-10.9082
サクラ	-10.9083
ことはできない	-10.9083
漢字	-10.9084
に行こう	-10.9085
くださる	-10.9086
驚いた	-10.9086
たぶん	-10.9087
という人	-10.9088
DS	-10.9088
日曜	-10.9088
利用者の	-10.9089
次元	-10.9089
各社	-10.9089
発電	-10.909
時間をかけて	-10.909
やってきた	-10.9093
花火	-10.9094
世帯	-10.9095
寄せ	-10.9097
チョ	-10.9097
が行われる	-10.9097
変わります	-10.9098
んですけどね	-10.9098
可能性が	-10.9099
だと思っています	-10.9101
といわれ	-10.9102
の口コミ	-10.9104
いただければと思います	-10.9104
メンズ	-10.9104
同様の	-10.9104
IS	-10.9105
器具	-10.9106
を買った	-10.9107
終了しました	-10.9111
SEO	-10.9112
が多いです	-10.9113
揚げ	-10.9114
ペア	-10.9116
英語を	-10.9118
ものがある	-10.912
オレンジ	-10.9123
と思いますので	-10.9124
当日の	-10.9124
こな	-10.9124
整	-10.9124
債務	-10.9127
いで	-10.9133
新人	-10.9134
LED	-10.9135
小型	-10.9136
分くらい	-10.9139
お肉	-10.9139
発表会	-10.914
攻略	-10.9141
誰かが	-10.9141
を使用しています	-10.9142
ガーデン	-10.9145
ジュース	-10.9146
一度は	-10.9147
他の人	-10.9148
学校で	-10.9149
すればいい	-10.915
覆	-10.9154
慶	-10.9154
をはじめとする	-10.9154
同社	-10.9155
切った	-10.9156
誰かに	-10.9156
男性に	-10.9157
間で	-10.9158
にぴったりの	-10.916
古代	-10.9161
に乗り	-10.9162
もう一つ	-10.9162
をしても	-10.9163
と思っていました	-10.9166
できるようになりました	-10.917
ドキドキ	-10.9171
大切なこと	-10.9172
予め	-10.9173
嬉しく	-10.9173
してみよう	-10.9174
▁ここに	-10.9174
落とし	-10.9175
決める	-10.9176
を続けて	-10.9176
求められる	-10.9178
BI	-10.9179
ビジョン	-10.9179
言葉に	-10.9181
定める	-10.9182
刊	-10.9185
保障	-10.9186
薄い	-10.9187
サラリーマン	-10.9187
を設け	-10.9187
順次	-10.9188
書きましたが	-10.9189
という人は	-10.919
飲み会	-10.919
炎症	-10.9192
があるから	-10.9193
ポイントです	-10.9193
900	-10.9195
損失	-10.9196
感が	-10.9197
に含まれる	-10.9198
のサイズ	-10.9199
アフリカ	-10.9199
難易度	-10.9201
をお持ち	-10.9201
暖かい	-10.9202
曲を	-10.9202
ということもあり	-10.9202
することに	-10.9202
より多くの	-10.9203
かわからない	-10.9205
ハリ	-10.9205
宮城県	-10.9205
的なもの	-10.9206
保育士	-10.9208
思っています	-10.9209
わけだ	-10.9209
とは思いますが	-10.9209
講習	-10.921
面倒な	-10.921
アス	-10.9212
はっきりと	-10.9213
排出	-10.9215
▁これにより	-10.9215
こちらは	-10.9217
してもらって	-10.922
告	-10.9222
独	-10.9224
お客様は	-10.9227
木の	-10.9228
を落と	-10.9228
戦後	-10.9229
男性と	-10.9233
出会える	-10.9236
性の	-10.9238
ミルク	-10.9239
事です	-10.9241
使い勝手	-10.9241
譲渡	-10.9242
なのかもしれません	-10.9242
に見える	-10.9244
いいか	-10.9244
のお仕事	-10.9248
がわからない	-10.9249
海岸	-10.925
近代	-10.925
▁Google	-10.9251
チャート	-10.9251
解放	-10.9252
確定申告	-10.9253
オークション	-10.9256
ナビ	-10.926
そうなので	-10.9263
幸福	-10.9263
▁この場合	-10.9264
年間で	-10.9266
▁その時	-10.9267
首相	-10.9267
にわたり	-10.9267
信仰	-10.9272
って思って	-10.9272
由	-10.9273
獣	-10.9274
を進め	-10.9274
合っている	-10.9275
一旦	-10.9281
もったいない	-10.9281
していたので	-10.9282
▁むしろ	-10.9287
導	-10.9288
age	-10.929
独身	-10.9291
▁京都	-10.9291
言わない	-10.9291
ってる	-10.9293
ボーナス	-10.9297
期間限定	-10.9297
歯の	-10.9299
始	-10.9299
身体に	-10.93
をきっかけに	-10.93
適正	-10.93
恥ずかし	-10.9301
キャッシュ	-10.9303
出会え	-10.9303
im	-10.9304
きています	-10.9305
良いのか	-10.9305
をもつ	-10.9305
正社員	-10.9306
入試	-10.9307
%	-10.9309
ことも可能です	-10.931
が上がる	-10.9313
の子	-10.9314
れている	-10.9314
方向性	-10.9314
ボク	-10.9316
出ている	-10.9317
自分でも	-10.9318
レイアウト	-10.9318
コーディネート	-10.9319
にあたって	-10.9319
パンツ	-10.932
与え	-10.9321
出来るだけ	-10.9322
食欲	-10.9322
豪	-10.9323
クール	-10.9323
遅い	-10.9325
概念	-10.9325
怪我	-10.9328
オリジナルの	-10.9329
敬	-10.9331
があるのです	-10.9332
に設定	-10.9332
を見せ	-10.9333
留め	-10.9334
働き方	-10.9334
とこ	-10.9335
ピッタリ	-10.9336
健康な	-10.9338
レット	-10.9341
総会	-10.9341
AM	-10.9344
捉え	-10.9346
LE	-10.9346
2004	-10.9347
担保	-10.935
時点	-10.9351
例外	-10.9352
学生時代	-10.9353
なれば	-10.9353
の様子を	-10.9354
お答え	-10.9354
可能性もある	-10.9356
ホット	-10.9356
調節	-10.9359
思想	-10.9359
行動を	-10.936
――	-10.9363
夜に	-10.9363
するよう	-10.9364
周囲の	-10.9364
AC	-10.9364
返し	-10.9365
果たして	-10.9366
得た	-10.9366
注射	-10.9369
▁Windows	-10.9371
見たこと	-10.9371
に住んで	-10.9371
利点	-10.9372
会い	-10.9373
どうなる	-10.9375
扉	-10.9376
赤ちゃんの	-10.9376
活性化	-10.9379
を感じた	-10.938
いだ	-10.9381
声が	-10.9382
求める	-10.9384
名称	-10.9384
聴き	-10.9384
ソロ	-10.9385
高等学校	-10.9386
告白	-10.9387
手帳	-10.9387
働いている	-10.9387
Co	-10.9388
▁なんと	-10.9388
時間で	-10.9388
の前	-10.9391
原因は	-10.9391
べく	-10.9392
VR	-10.9393
希望の	-10.9394
執行	-10.9394
ない場合は	-10.9396
をご提供	-10.9396
艦	-10.9397
厚生労働省	-10.9397
まん	-10.9398
妊娠中	-10.9399
があまり	-10.9402
▁残念ながら	-10.9402
all	-10.9404
物の	-10.9408
然	-10.9412
クル	-10.9413
改良	-10.9414
家庭教師	-10.9421
の導入	-10.9421
ファースト	-10.9423
愛知県	-10.9423
do	-10.9423
コンサルタント	-10.9429
愛用	-10.9434
要件	-10.9435
あて	-10.944
(*	-10.944
早朝	-10.9441
クト	-10.9443
めの	-10.9443
みたいと思います	-10.9446
進み	-10.9446
を除く	-10.9446
状態です	-10.9447
合わない	-10.9447
んでしょうね	-10.9448
戦闘	-10.9448
かなぁ	-10.945
をやっている	-10.945
ディング	-10.945
月号	-10.9451
余計な	-10.9452
デフォルト	-10.9456
集客	-10.9457
寄り	-10.9458
わかります	-10.9459
の更新	-10.9459
あわせて	-10.9459
イル	-10.946
ドライ	-10.9461
いないので	-10.9463
成人	-10.9465
何卒	-10.9465
分かりやすい	-10.9466
を依頼	-10.9467
ないから	-10.9467
訴訟	-10.9467
行ってきました	-10.9468
をインストール	-10.9469
との事	-10.947
パッ	-10.947
もうすぐ	-10.9473
▁西	-10.9474
に入れ	-10.9476
の人は	-10.9476
▁あなた	-10.9476
OR	-10.9476
ow	-10.9477
しておくこと	-10.9478
稼げる	-10.9479
を一緒に	-10.9481
販売している	-10.9481
まわ	-10.9484
効	-10.9486
国民の	-10.9487
下さいね	-10.9488
スタンプ	-10.9489
できませんでした	-10.949
併せて	-10.9492
所有	-10.9492
▁高	-10.9492
作者	-10.9493
言わ	-10.9493
ネコ	-10.9494
形に	-10.9495
▁☆	-10.9495
菓子	-10.9496
引退	-10.9499
拒否	-10.9499
できていない	-10.9499
描き	-10.95
ということも	-10.9503
傘	-10.9503
と言われました	-10.9505
店頭	-10.9506
掲載しています	-10.9507
をしてくれる	-10.9507
くなって	-10.9509
お電話で	-10.951
になっております	-10.9513
彼と	-10.9513
仁	-10.9514
ことのできる	-10.9515
改	-10.9515
シール	-10.952
▁今月	-10.952
ベイ	-10.9523
ご報告	-10.9523
▁だけど	-10.9523
を提示	-10.9524
尊	-10.9524
の下に	-10.9525
まし	-10.9528
▁正直	-10.9529
おお	-10.9529
が少し	-10.9529
だらけ	-10.9532
インター	-10.9533
のポイント	-10.9533
感染症	-10.9533
ないのに	-10.9535
レア	-10.954
するべき	-10.954
ることも	-10.954
姿が	-10.954
国道	-10.9543
欧州	-10.9543
の重要性	-10.9544
ずいぶん	-10.9544
んだろうな	-10.9545
博士	-10.9545
犬の	-10.9545
踊り	-10.9545
トマト	-10.9546
を調整	-10.955
分類	-10.955
移住	-10.9551
ご連絡下さい	-10.9552
と聞いて	-10.9552
レッ	-10.9553
益	-10.9553
UN	-10.9553
好きな人	-10.9554
続けた	-10.9555
ベン	-10.9555
豚	-10.9557
気に入って	-10.956
吹	-10.9561
保険会社	-10.9562
招待	-10.9564
をご紹介しています	-10.9565
環境に	-10.9565
特殊	-10.9567
正面	-10.9568
皆さんに	-10.9569
するのではなく	-10.9571
のある方	-10.9571
ビザ	-10.9571
海の	-10.9572
あら	-10.9573
意思	-10.9573
フェスティバル	-10.9574
をすれば	-10.9574
▁一番	-10.9574
美人	-10.9574
見つけた	-10.9578
おしゃれ	-10.9579
ES	-10.958
凝	-10.958
職場の	-10.9581
が見え	-10.9581
どんなに	-10.9583
というところ	-10.9586
と思いますよ	-10.9586
さくら	-10.9587
ほかにも	-10.9589
取扱	-10.9591
を強く	-10.9592
とある	-10.9592
nd	-10.9594
と同様	-10.9595
ion	-10.9597
ステーション	-10.9601
トル	-10.9601
が出てきた	-10.9602
稀	-10.9604
子供に	-10.9605
▁子供	-10.9605
テラス	-10.9605
レーション	-10.9608
次第で	-10.961
銘柄	-10.9611
先生方	-10.9611
の技術	-10.9613
・・・」	-10.9614
今日も	-10.9616
を参照	-10.9617
パル	-10.9617
中間	-10.9617
色が	-10.9618
近隣	-10.962
数日	-10.9622
勢い	-10.9622
その人の	-10.9622
が含まれている	-10.9623
もしっかり	-10.9627
la	-10.9629
安定した	-10.963
一人一人	-10.9633
千円	-10.9636
台の	-10.9637
いいです	-10.9638
に戻って	-10.9638
を作った	-10.9638
取り上げられ	-10.9639
AS	-10.9641
つま	-10.9643
本物の	-10.9643
ところから	-10.9645
不良	-10.9646
重量	-10.9646
すり	-10.9646
犯	-10.9647
夜間	-10.9647
株価	-10.9647
教科書	-10.9647
貯金	-10.9649
トレ	-10.9649
時頃	-10.9649
付きの	-10.9649
チップ	-10.9652
修復	-10.9652
《	-10.9653
作品の	-10.9655
長崎	-10.9655
自然の	-10.9655
大規模な	-10.9656
入居	-10.9657
因	-10.9657
先で	-10.9658
針	-10.9659
書店	-10.9661
頭の	-10.9661
通院	-10.9662
ローマ	-10.9663
人たちは	-10.9664
オブジェクト	-10.9666
四季	-10.9667
の先生	-10.9667
闘	-10.9668
桃	-10.9669
その時	-10.9669
カードの	-10.9671
の相場	-10.9671
に入っている	-10.9672
駅で	-10.9672
寂しい	-10.9672
刀	-10.9674
ことになり	-10.9674
貼って	-10.9674
創作	-10.9681
参加して	-10.9682
たちに	-10.9682
我が家	-10.9683
代謝	-10.9683
嬉しかったです	-10.9683
それなりの	-10.9683
クオリティ	-10.9683
美しさ	-10.9683
学んで	-10.9689
を抑え	-10.9689
▁こちらも	-10.969
少なく	-10.9693
嵐	-10.9693
歌手	-10.9694
効率的に	-10.9696
に係る	-10.9696
効果的	-10.9697
の健康	-10.9697
最短	-10.9698
下り	-10.9698
を求め	-10.9698
なかで	-10.9699
リス	-10.97
申し訳ございません	-10.9701
に入れる	-10.9702
シンプル	-10.9706
で購入	-10.9707
合った	-10.9708
これに	-10.9708
を決め	-10.9709
ちゃんが	-10.971
舌	-10.9711
ポン	-10.9712
硬	-10.9713
をお伝え	-10.9713
充	-10.9714
知られている	-10.9716
顔の	-10.9718
承ります	-10.972
▁夜	-10.9721
56	-10.9724
ほとんどが	-10.9727
風が	-10.9729
少	-10.9729
おらず	-10.9729
コーチ	-10.9729
II	-10.9729
メソッド	-10.9729
を実現する	-10.9731
▁約	-10.9731
されてる	-10.9732
ようなもの	-10.9733
大半	-10.9734
ヒト	-10.9734
再現	-10.9735
影響を与え	-10.9736
するときに	-10.9736
▁当サイト	-10.9737
農家	-10.9737
悩んでいる	-10.9739
▁私たちの	-10.974
を込めて	-10.9741
業者が	-10.9742
高度	-10.9744
に比べると	-10.9744
も良く	-10.9745
を掲載しています	-10.9745
見かけ	-10.9746
お会い	-10.9747
にくく	-10.9748
バイオ	-10.9749
を覚え	-10.9749
観測	-10.9749
レート	-10.975
ni	-10.9752
を構築	-10.9755
きましたが	-10.9757
なしに	-10.9757
来ている	-10.9757
ことと	-10.9757
いますか	-10.9759
ロス	-10.976
金額が	-10.976
昼食	-10.9762
切る	-10.9762
ないのです	-10.9762
おりません	-10.9762
言いたい	-10.9764
シェ	-10.9765
月には	-10.9766
式の	-10.9771
彼らは	-10.9772
に出る	-10.9774
の発展	-10.9775
足りない	-10.9775
コンサルティング	-10.9776
並び	-10.9777
の悩み	-10.9778
58	-10.9778
だね	-10.9779
分間	-10.9781
だったのか	-10.9781
婚	-10.9781
だめ	-10.9784
に触れ	-10.9787
技術を	-10.9787
頂いております	-10.9787
ずれ	-10.9789
冒頭	-10.979
に掲載されている	-10.979
に使う	-10.9791
全額	-10.9793
故	-10.9793
侵入	-10.9795
提供する	-10.9796
が出てきます	-10.9796
がわかる	-10.9797
トータル	-10.9798
たる	-10.9799
メジャー	-10.9801
お手入れ	-10.9804
怪	-10.9804
件の	-10.9804
かえ	-10.9805
イエス	-10.9805
ようにして	-10.9805
^^	-10.9806
ハート	-10.9809
に触れる	-10.9809
ものではなく	-10.981
外の	-10.9811
HTML	-10.9812
刻	-10.9816
写真が	-10.9818
43	-10.9818
せた	-10.9819
を踏まえ	-10.982
選んだ	-10.982
技術者	-10.982
▁この日は	-10.9821
吸	-10.9822
▁但し	-10.9823
に向かう	-10.9823
知事	-10.9823
ポスト	-10.9824
クラシック	-10.9825
おしゃれな	-10.9826
行か	-10.9827
おい	-10.9828
身に	-10.983
に入ると	-10.9831
▁ダイエット	-10.9831
を開発	-10.9832
これまでに	-10.9832
年で	-10.9832
大事	-10.9833
リオ	-10.9834
申し上げます	-10.9834
でありながら	-10.9834
詳細な	-10.9835
割合	-10.9835
した結果	-10.9836
を開く	-10.9837
現代の	-10.9838
▁そうした	-10.9839
該当	-10.9841
できますので	-10.9843
▁結婚	-10.9844
に関連した	-10.9846
する必要	-10.9847
単位で	-10.9847
数学	-10.9847
▁次回	-10.9848
惜し	-10.9852
処	-10.9852
PA	-10.9852
観客	-10.9853
09	-10.9854
頑張ります	-10.9855
意志	-10.9856
取れ	-10.9856
いったい	-10.9856
▁更に	-10.9857
ことができて	-10.9858
飛	-10.9858
ふたり	-10.9861
と比べると	-10.9862
が好きで	-10.9863
お勧めです	-10.9866
気を	-10.9866
録画	-10.9869
▁ある	-10.9871
墓	-10.9871
都会	-10.9873
と考えます	-10.9874
直前	-10.9876
グランド	-10.9877
カート	-10.9878
植	-10.9878
させて頂く	-10.988
お客様と	-10.988
されません	-10.9881
スタッフ一同	-10.9882
るようになりました	-10.9882
両方	-10.9882
(?	-10.9883
ローカル	-10.9884
のみなさん	-10.9885
グループの	-10.9886
果	-10.9887
私自身	-10.9887
がなくても	-10.9889
紛失	-10.9889
▁水	-10.9889
をしない	-10.9891
チームの	-10.9891
会社を	-10.9892
ラク	-10.9892
個人情報保護	-10.9893
がつく	-10.9893
た場合	-10.9893
エス	-10.9894
公開された	-10.9894
確実	-10.9896
▁かなり	-10.9896
濡れ	-10.9896
発症	-10.9897
スカ	-10.9898
アロマ	-10.9901
方のために	-10.9902
とは思えない	-10.9904
am	-10.9904
結婚して	-10.9905
方にも	-10.9905
忘れて	-10.9905
前は	-10.9905
事が出来る	-10.9906
誇り	-10.9906
をもたら	-10.9907
世界的に	-10.9908
市に	-10.9908
をクリックします	-10.9911
兼	-10.9911
アマゾン	-10.9913
をクリック	-10.9914
汚染	-10.9914
澤	-10.9914
併用	-10.9915
キレイ	-10.9916
それから	-10.9919
が表示され	-10.992
同期	-10.9925
が必要だ	-10.9925
容疑者	-10.9926
続けること	-10.9927
筆者	-10.9928
ないような	-10.993
することが出来ます	-10.9934
を伝え	-10.9936
を実感	-10.9936
暴力	-10.9938
鶴	-10.994
お問い合わせ下さい	-10.994
ことが大切	-10.9941
▁最初に	-10.9942
原料	-10.9943
▁パソコン	-10.9943
お金の	-10.9943
に参加する	-10.9943
グレー	-10.9943
量は	-10.9945
アニメーション	-10.9946
の一つです	-10.9946
としています	-10.9946
を優先	-10.9947
しませんか	-10.9948
水道	-10.9949
▁車	-10.9949
おきましょう	-10.9949
チョコ	-10.995
を無料で	-10.9953
みて下さい	-10.9953
に行くと	-10.9954
せい	-10.9954
くらいに	-10.9955
さを	-10.9956
ぽ	-10.9956
▁来年	-10.9958
県内	-10.9958
の判断	-10.9958
知恵	-10.9962
をしていました	-10.9962
途	-10.9964
試み	-10.9964
を意識して	-10.9965
1.5	-10.9965
される方	-10.9967
のだそうです	-10.9968
なと思います	-10.9969
見えた	-10.9969
がありましたが	-10.997
NPO	-10.9971
コミ	-10.9973
メールが	-10.9975
治療を	-10.9978
が生じる	-10.998
4.	-10.9983
湾	-10.9983
やり取り	-10.9984
除去	-10.9984
点を	-10.9985
冷や	-10.9989
効果があります	-10.9989
ができました	-10.999
シンガポール	-10.999
金を	-10.999
問題点	-10.9992
書いている	-10.9992
開放	-10.9993
目立つ	-10.9994
定員	-10.9997
考えています	-10.9997
補助金	-10.9998
おめでとうございます	-10.9998
参考になる	-10.9998
規格	-11
イヤー	-11.0001
富士山	-11.0003
1～2	-11.0004
つらい	-11.0005
タレント	-11.0006
ご説明	-11.0006
市にある	-11.0007
執筆	-11.0007
春の	-11.0008
の試合	-11.0009
もとても	-11.0009
を繰り返し	-11.001
翌	-11.001
になっているので	-11.001
一度も	-11.0012
を満喫	-11.0013
は難しい	-11.0014
▁なかなか	-11.0017
考慮	-11.0018
自分にとって	-11.0018
偽	-11.002
▁→	-11.002
元気な	-11.0021
▁自分は	-11.0022
ページを	-11.0023
施策	-11.0024
サウンド	-11.0024
付与	-11.0025
を再	-11.0025
興味深い	-11.0029
してもらい	-11.003
全力で	-11.003
▁メール	-11.003
を表示しています	-11.003
▁○	-11.0031
を利用し	-11.0032
も一緒に	-11.0033
ないと思います	-11.0036
ビックリ	-11.0037
くり	-11.0037
になるでしょう	-11.0039
言える	-11.0039
真ん中	-11.004
調べる	-11.0042
正常に	-11.0044
プチ	-11.0044
今週	-11.0045
、2015	-11.0046
していただいた	-11.0046
革命	-11.0046
▁以前は	-11.0046
ぱ	-11.0048
▁はい	-11.0049
ミリ	-11.0049
容易	-11.0053
ドラ	-11.0053
円以上	-11.0054
が増えた	-11.0056
を呼び	-11.006
見つかり	-11.006
遅	-11.006
という感じ	-11.0061
沖縄県	-11.0061
が入った	-11.0062
応	-11.0064
になるのか	-11.0064
DA	-11.0065
ことをお勧めします	-11.0066
ai	-11.0066
を知っている	-11.0066
無駄な	-11.0067
を送り	-11.0067
に至るまで	-11.0069
とされている	-11.0073
を上げて	-11.0073
ka	-11.0075
▁最初の	-11.0075
ただの	-11.0076
分かれ	-11.0077
優良	-11.0077
同士	-11.0077
のお話	-11.0078
同様	-11.0079
なのかな	-11.0079
の目的	-11.0082
アラ	-11.0084
してくださいね	-11.0084
上下	-11.0085
をきちんと	-11.0086
の普及	-11.0087
▁これだけ	-11.0088
をすることで	-11.0089
奇跡	-11.0092
地に	-11.0094
外科	-11.0095
しやすく	-11.0095
個々の	-11.0097
の内容を	-11.0098
触	-11.01
▁おはようございます	-11.0102
サラダ	-11.0106
歯科医院	-11.0107
小規模	-11.0108
にまで	-11.0108
を明確に	-11.011
達は	-11.011
売り上げ	-11.011
社会の	-11.011
処置	-11.0111
身近に	-11.0112
集め	-11.0112
よくわからない	-11.0113
▁最近の	-11.0113
なってしまう	-11.0113
できる限り	-11.0114
発生した	-11.0116
sh	-11.0117
以外で	-11.0119
は決して	-11.012
見積	-11.012
虫歯	-11.012
クレジット	-11.0121
アニメ動画	-11.0122
利用している	-11.0123
続けています	-11.0123
読め	-11.0123
に限り	-11.0124
の相談	-11.0125
も可能	-11.0125
概要	-11.0126
きれない	-11.0127
▁あれ	-11.0128
お知らせします	-11.0128
ごはん	-11.0128
方法があります	-11.0128
をそのまま	-11.0129
お送り	-11.0129
スリー	-11.0129
選手の	-11.0129
自分に合った	-11.013
剣	-11.013
が開催されました	-11.013
していただける	-11.0131
男は	-11.0134
っていて	-11.0136
サイトは	-11.0137
を集めて	-11.0137
ホスト	-11.0138
ようでした	-11.0141
とのことでした	-11.0142
させていただいた	-11.0143
1%	-11.0145
命令	-11.0146
いかない	-11.0146
▁4.	-11.0146
判定	-11.0147
仕方がない	-11.015
の奥	-11.0154
を超え	-11.0154
のだけど	-11.0155
が入る	-11.0157
がある場合	-11.0157
狙い	-11.0157
2006	-11.0157
最後は	-11.0158
劣化	-11.0158
が付いて	-11.0159
ある日	-11.0159
ランニング	-11.016
を積極的に	-11.0162
忙しく	-11.0163
出身の	-11.0166
に置いて	-11.0167
一番の	-11.0167
のリスク	-11.017
の働き	-11.0171
を紹介する	-11.0172
おられる	-11.0172
不倫証拠	-11.0172
することが可能	-11.0174
はすでに	-11.0174
家族で	-11.0174
想	-11.0177
と判断	-11.0177
熟女	-11.0178
フロア	-11.0178
金沢	-11.0179
んじゃ	-11.018
楽しかったです	-11.018
さらなる	-11.0181
▁この記事	-11.0183
ないため	-11.0184
することはできません	-11.0184
金額を	-11.0184
指導者	-11.0185
を立ち上げ	-11.0185
をサポート	-11.0186
の影響で	-11.0187
砂糖	-11.0187
癒	-11.0189
の感想	-11.0191
当社が	-11.0191
たか	-11.0192
ボトル	-11.0192
-2	-11.0193
監査	-11.0194
当事者	-11.0196
▁ホームページ	-11.0196
シフト	-11.0197
年々	-11.0197
かのように	-11.0197
起きて	-11.0198
感じました	-11.0198
を有する	-11.0203
情報や	-11.0204
子供を	-11.0204
立派な	-11.0206
ネット上で	-11.0207
を達成	-11.021
伝統的な	-11.0212
冷たい	-11.0215
いずれも	-11.0215
を目指しています	-11.0216
荷	-11.0217
情熱	-11.0217
化した	-11.022
が変わって	-11.022
弊社の	-11.022
貼り付け	-11.0221
残った	-11.0221
っても	-11.0221
添え	-11.0222
▁家族	-11.0222
を記録	-11.0224
係	-11.0226
ついつい	-11.0227
ラム	-11.0229
▁2010	-11.0229
証券	-11.0231
週に	-11.0233
房	-11.0233
合同	-11.0235
よりは	-11.0238
タンパク質	-11.024
ままに	-11.024
講習会	-11.0246
ビット	-11.0248
生き物	-11.0248
有り	-11.025
を頂きました	-11.0251
ワイ	-11.0251
領	-11.0253
が最も	-11.0254
本人の	-11.0257
壊れ	-11.0258
若手	-11.026
メルマガ	-11.0263
簡単で	-11.0264
らせる	-11.0265
伝わる	-11.0267
某	-11.0267
とは思って	-11.0268
お米	-11.0268
チェーン	-11.0269
を確認して	-11.0273
のみの	-11.0276
まさか	-11.0277
されていますが	-11.0279
が足りない	-11.0279
をご提案	-11.0281
わず	-11.0284
▁どうぞ	-11.0284
たて	-11.0285
ドリ	-11.0285
減り	-11.0287
～1	-11.0288
と言う事	-11.029
急いで	-11.029
250	-11.0291
365	-11.0291
古くから	-11.0291
詳細は	-11.0291
した時	-11.0292
強力な	-11.0292
の求人	-11.0292
容	-11.0293
取り組んで	-11.0293
入口	-11.0294
謝	-11.0295
2,000	-11.0299
利息	-11.03
があると思います	-11.03
のやり取り	-11.0301
になりそうです	-11.0303
できるようになります	-11.0303
にはならない	-11.0304
解体	-11.0305
分に	-11.0306
っていく	-11.0306
希	-11.0307
下手	-11.0307
が開催されます	-11.0308
明記	-11.0309
かを	-11.031
もございます	-11.031
得られる	-11.0313
めた	-11.0314
黒い	-11.0314
新年	-11.0314
関わり	-11.0317
倉庫	-11.0318
劣	-11.0318
田さん	-11.0319
▁下記	-11.0321
美容室	-11.0324
をクリア	-11.0326
コードを	-11.0327
撮影した	-11.0328
を連れて	-11.0328
したのが	-11.033
量を	-11.0332
世界を	-11.0334
終わる	-11.0334
かみ	-11.0335
青年	-11.0335
静かな	-11.0335
は高い	-11.0335
最終日	-11.0336
がたくさんあります	-11.0337
クラスの	-11.0338
並ぶ	-11.0339
ha	-11.0339
免疫	-11.0339
結び	-11.0341
キャンパス	-11.0344
を支える	-11.0344
書かれて	-11.0346
さい	-11.0349
バトル	-11.0351
01	-11.0353
に取り組む	-11.0353
したものです	-11.0354
の香り	-11.0356
味が	-11.0357
名義	-11.0358
空いて	-11.0359
止まって	-11.0359
ようになっている	-11.036
はほぼ	-11.0361
出来て	-11.0361
グラス	-11.0362
ますし	-11.0363
オリ	-11.0363
パンフレット	-11.0363
記者	-11.0363
いただけるよう	-11.0363
という事で	-11.0363
時間と	-11.0364
いる人	-11.0364
どうやら	-11.0366
何回も	-11.0368
子どもたちの	-11.0372
・・。	-11.0372
さず	-11.0373
格好	-11.0374
ヴ	-11.0374
てしまうと	-11.0374
68	-11.0376
開いて	-11.0377
3,000	-11.0377
接触	-11.0378
糖	-11.0379
▁お客様	-11.0381
有利	-11.0381
多くの人	-11.0381
そうと	-11.0381
》	-11.0383
感覚で	-11.0383
課金	-11.0383
キッズ	-11.0384
感謝の気持ち	-11.0384
を含めて	-11.0387
分かりませんが	-11.0387
数多く	-11.0388
スタンド	-11.0393
結果として	-11.0396
花粉症	-11.0396
主体	-11.0397
このページ	-11.0398
ot	-11.0399
届かない	-11.0399
文字列	-11.04
稽古	-11.04
順位	-11.04
駐車	-11.04
ご希望の方は	-11.04
わけですから	-11.0401
の予防	-11.0401
冒険	-11.0401
▁今回も	-11.0402
現れ	-11.0402
こんなこと	-11.0405
輸出	-11.0406
言葉が	-11.0407
の顔	-11.0407
なってきた	-11.0412
盗	-11.0412
日までに	-11.0414
毎日の	-11.0416
みたいですね	-11.0419
双方	-11.0419
逃	-11.0419
一致	-11.042
なのが	-11.042
耐久性	-11.0422
っていない	-11.0422
悩む	-11.0424
解決する	-11.0424
為の	-11.0424
役立て	-11.0424
人にとっては	-11.0427
▁それと	-11.0428
就職活動	-11.0428
ピーク	-11.0429
シリーズの	-11.0431
を聞く	-11.0432
していても	-11.0436
▁参加	-11.0436
納期	-11.0437
▁東	-11.0437
を実践	-11.044
やすくなる	-11.0444
竜	-11.0445
通学	-11.0445
紹介している	-11.0446
熟	-11.0446
に比べ	-11.0447
メーカーの	-11.0447
することになりました	-11.0448
貿易	-11.0448
と言うこと	-11.0451
この日	-11.0456
くら	-11.0457
次々と	-11.0459
現在では	-11.046
を選択し	-11.0461
男が	-11.0462
WordPress	-11.0462
外壁塗装	-11.0463
市内の	-11.0466
定着	-11.0467
▁彼女は	-11.0467
おう	-11.0467
通過	-11.0467
絞	-11.047
心理学	-11.0472
宜しくお願いします	-11.0472
した際に	-11.0472
時より	-11.0474
を書き	-11.0474
かれる	-11.0477
が来て	-11.048
見ても	-11.0481
疑	-11.0481
のライブ	-11.0482
楽しめ	-11.0482
会場で	-11.0484
崩壊	-11.0484
をお届け	-11.0486
をいただき	-11.0486
気づく	-11.0487
述	-11.0487
専	-11.0487
ィ	-11.0487
が取れ	-11.0487
屋外	-11.0489
自分から	-11.049
してない	-11.049
自由な	-11.0491
散策	-11.0494
記念日	-11.0495
体温	-11.0496
5.	-11.0497
っきり	-11.0498
困って	-11.0498
新潟県	-11.0499
ギャ	-11.05
好きです	-11.05
静かに	-11.0505
名を	-11.0505
を発表した	-11.0506
事ができる	-11.0507
良いでしょう	-11.0508
似ている	-11.0511
挙げ	-11.0511
コア	-11.0512
警戒	-11.0512
お問い合わせは	-11.0513
福岡県	-11.0515
▁in	-11.0515
は現在	-11.0515
数十	-11.0515
べきです	-11.0516
風の	-11.0516
仰	-11.052
確認して	-11.052
体感	-11.0521
人たちの	-11.0521
現地の	-11.0522
確か	-11.0522
選定	-11.0522
禁煙	-11.0525
なんてこと	-11.0526
程度で	-11.053
ご主人	-11.0532
崩	-11.0533
仕事をしている	-11.0533
大切です	-11.0537
早期	-11.0541
(^	-11.0544
配偶者	-11.0544
の場所	-11.0545
燃料	-11.0547
歳以上	-11.0547
をお届けします	-11.0548
の街	-11.0548
遠方	-11.0552
受け止め	-11.0552
込	-11.0553
自動で	-11.0553
下さいませ	-11.0553
を下	-11.0553
作品が	-11.0554
寿司	-11.0554
が豊富	-11.0554
のかを	-11.0555
フォーラム	-11.0556
こうして	-11.0557
抽出	-11.056
競馬	-11.056
PV	-11.0561
祈り	-11.0561
しているか	-11.0561
年半	-11.0561
▁もしかしたら	-11.0563
酸素	-11.0563
フラワー	-11.0565
確かな	-11.0565
まない	-11.0565
循環	-11.0567
声をかけて	-11.0568
速やかに	-11.0569
言います	-11.0569
ge	-11.057
お天気	-11.057
濃	-11.0571
笑って	-11.0571
をどう	-11.0571
クター	-11.0572
しょう	-11.0572
ディーラー	-11.0573
ことができるのです	-11.0574
学んだ	-11.0575
この機会に	-11.0578
横に	-11.0578
集まり	-11.0578
旗	-11.058
府	-11.0581
媒体	-11.0581
徹底的に	-11.0581
▁大人	-11.0581
限度額	-11.0582
AV	-11.0583
研究会	-11.0583
条例	-11.0583
180	-11.0584
形式で	-11.0584
査定額	-11.0585
展覧会	-11.0585
ディナー	-11.0586
るんだ	-11.0586
ラインナップ	-11.0587
スコア	-11.0587
たとき	-11.059
に行きたい	-11.059
出来れば	-11.059
真似	-11.0591
とは違い	-11.0591
のトラブル	-11.0591
リサーチ	-11.0592
うる	-11.0593
購入して	-11.0593
知ってる	-11.0594
意義	-11.0595
表示されます	-11.0595
の一環として	-11.0596
乾燥肌	-11.0596
▁俺	-11.0596
をやめ	-11.0596
してもらいました	-11.0597
させていただき	-11.0598
を解消	-11.06
下がり	-11.06
手に入る	-11.0601
あっ	-11.0602
人権	-11.0605
彦	-11.0605
ベビー	-11.0606
謎	-11.0607
冷凍	-11.0608
不幸	-11.0609
を発行	-11.0611
やがて	-11.0612
権限	-11.0612
託	-11.0613
内装	-11.0613
満足度	-11.0615
の専門家	-11.0615
生きていく	-11.0616
第三	-11.0617
側から	-11.0617
▁彼の	-11.0619
慰謝料	-11.0619
▁そこで今回は	-11.062
▁全国	-11.062
お買い上げ	-11.0621
中国語	-11.0626
隠れ	-11.0626
ものもあります	-11.0626
男の	-11.0626
をお待ちしております	-11.0629
を施	-11.0629
中々	-11.063
将	-11.0631
容器	-11.0632
場で	-11.0636
に設置	-11.0637
頃には	-11.064
2003	-11.0641
だと思いました	-11.0641
ませんでしたが	-11.0642
を描いた	-11.0644
頂きたい	-11.0645
点が	-11.0645
皇	-11.0645
労	-11.0646
サービスが	-11.0646
サービスを提供	-11.0647
スピーカー	-11.0647
財政	-11.0649
は同じ	-11.0649
可能な限り	-11.065
組み立て	-11.0653
マスコミ	-11.0654
MB	-11.0654
熊本	-11.0655
明確な	-11.0655
審	-11.0656
猫の	-11.0658
に伴う	-11.066
業務を	-11.066
みたり	-11.0661
ポー	-11.0661
▁当社	-11.0662
覚	-11.0662
タスク	-11.0664
いなければ	-11.0666
とさせて頂きます	-11.0666
▁春	-11.0667
▁U	-11.0667
中でも	-11.0667
というより	-11.0668
練	-11.0669
西洋	-11.0669
前半	-11.0672
みたいで	-11.0673
03	-11.0677
ないです	-11.0677
を購入して	-11.0679
わかりました	-11.0679
お祭り	-11.068
総額	-11.0681
つもりで	-11.0681
無し	-11.0681
気候	-11.0681
日本酒	-11.0685
長男	-11.0686
センサー	-11.0686
ジャンプ	-11.0687
フェス	-11.0689
の手続き	-11.0691
といわれる	-11.0692
体型	-11.0693
転換	-11.0693
市町村	-11.0696
il	-11.0697
生産性	-11.0698
業界の	-11.0699
▁当時	-11.0699
の組み合わせ	-11.0699
するとともに	-11.0699
送迎	-11.0702
▁このページでは	-11.0702
月より	-11.0703
納品	-11.0703
見込み	-11.0705
涼	-11.0706
くださり	-11.0707
の他に	-11.0707
簡易	-11.0708
up	-11.0709
などでも	-11.0709
表紙	-11.071
おばあちゃん	-11.0711
届	-11.0711
ct	-11.0711
コンピューター	-11.0712
預け	-11.0713
ライター	-11.0714
煙	-11.0716
岐阜県	-11.0716
出てきて	-11.0716
だけだ	-11.0717
ことが可能	-11.0717
体験を	-11.0718
逮捕	-11.0719
存在します	-11.0719
ント	-11.0719
で開催された	-11.0719
を得た	-11.072
懐かしい	-11.0722
▁去年	-11.0724
と思っていましたが	-11.0724
ことについて	-11.0724
るようになった	-11.0724
を読んだ	-11.0727
島の	-11.0727
唱	-11.0727
店に	-11.0729
の旅	-11.073
このサイト	-11.073
トライ	-11.0731
の音	-11.0732
広がり	-11.0732
ゲー	-11.0733
必要に応じて	-11.0734
セー	-11.0734
余り	-11.0734
フロー	-11.0736
地位	-11.0736
輸送	-11.0737
使われ	-11.0738
ラップ	-11.0739
は常に	-11.0741
カイ	-11.0742
恐らく	-11.0742
黄色	-11.0742
に適した	-11.0742
描いた	-11.0742
ゲート	-11.0748
夫が	-11.0748
に戻る	-11.0749
訳で	-11.0749
というイメージ	-11.075
自分と	-11.075
予	-11.0751
決まった	-11.0751
うつ病	-11.0752
インフラ	-11.0753
暖	-11.0754
を見つけた	-11.0754
▁よろしくお願いします	-11.0755
ニック	-11.0757
地域に	-11.0758
親の	-11.0759
要請	-11.0759
もありましたが	-11.0759
▁なんか	-11.0759
フリ	-11.076
目安	-11.0761
年ぶりに	-11.0762
カジノ	-11.0762
お願い申し上げます	-11.0762
保守	-11.0763
棒	-11.0764
自体	-11.0764
に対しては	-11.0764
毎	-11.0766
寄って	-11.0766
面白く	-11.0767
リサイクル	-11.0767
区別	-11.0768
を求めている	-11.077
だとか	-11.0771
茂	-11.0772
飼い主	-11.0773
の予定	-11.0775
染	-11.0776
当時は	-11.0779
てみませんか	-11.0779
時給	-11.0779
巡	-11.078
▁個人	-11.0781
車検	-11.0781
はいかがでしょうか	-11.0781
に参加して	-11.0783
ハロウィン	-11.0784
効率よく	-11.0784
▁昭和	-11.0785
飾	-11.0786
気配	-11.0786
そういうこと	-11.0786
りません	-11.0786
暗い	-11.0787
▁それにしても	-11.0788
どころか	-11.0789
なかったら	-11.0789
どおり	-11.079
いつの間にか	-11.079
は何も	-11.079
▁出会い	-11.079
それぞれに	-11.079
事があります	-11.0793
抜け毛	-11.0794
尻	-11.0796
しているようです	-11.0798
フォン	-11.08
使用される	-11.0801
を見ている	-11.0803
この本	-11.0804
07	-11.0804
引っ	-11.0805
ブラジル	-11.0807
効果を	-11.0808
娘が	-11.081
遺伝子	-11.081
芸能人	-11.0814
ページで	-11.0815
も多数	-11.0815
認められる	-11.0816
懸念	-11.0816
願います	-11.0817
に連絡	-11.0819
生活が	-11.0819
偏	-11.082
存在感	-11.082
▁of	-11.082
の資格	-11.0821
フォント	-11.0821
小物	-11.0822
巨大な	-11.0826
ていましたが	-11.0826
稼ぎ	-11.0829
57	-11.083
絵画	-11.0831
兵庫県	-11.0833
熱中症	-11.0835
で行う	-11.0836
Re	-11.0837
上手	-11.0838
多くの方に	-11.0838
使いたい	-11.0838
居酒屋	-11.0838
下さった	-11.0839
一般的には	-11.0839
にチャレンジ	-11.0841
に通う	-11.0842
かもしれないけど	-11.0844
積み	-11.0847
緩	-11.0847
いかなる	-11.085
仏教	-11.0851
チャン	-11.0851
のご注文	-11.0853
相続人	-11.0853
大学で	-11.0854
割れ	-11.0855
クレ	-11.0855
牛乳	-11.0856
カスタム	-11.0857
大勢	-11.0857
De	-11.0858
だったと思います	-11.0861
08	-11.0862
したいという	-11.0862
こそが	-11.0863
吐	-11.0865
ていると	-11.0866
せん	-11.0867
メガネ	-11.0867
鹿	-11.0868
▁イベント	-11.0868
気になる方は	-11.0868
本人が	-11.0868
うちは	-11.0871
を身につけ	-11.0872
二つの	-11.0872
Renta	-11.0872
例年	-11.0872
適応	-11.0873
怒	-11.0874
と指摘	-11.0874
階に	-11.0875
をお勧めします	-11.0876
マネージャー	-11.0877
に特化した	-11.0878
おもてなし	-11.0879
侵害	-11.0879
気づいた	-11.088
迷	-11.088
隙間	-11.0881
行列	-11.0882
今後は	-11.0882
)～	-11.0882
Mo	-11.0883
ut	-11.0884
語る	-11.0884
付けて	-11.0884
オススメの	-11.0887
等が	-11.0889
閉鎖	-11.0889
することも可能です	-11.0891
性別	-11.0892
犯人	-11.0892
が現れ	-11.0892
アプリの	-11.0893
次のように	-11.0894
訪ね	-11.0895
を表示	-11.0895
作り上げ	-11.0896
書かれています	-11.0899
仕掛け	-11.09
受け付け	-11.09
痛みが	-11.09
▁そんな中	-11.09
を活用する	-11.09
をお楽しみください	-11.0901
ダイレクト	-11.0904
開催されます	-11.0904
ニング	-11.0905
ンダー	-11.0907
何年も	-11.0908
を知らない	-11.0909
費用を	-11.0911
年代の	-11.0912
紹介する	-11.0913
簡単です	-11.0913
が異なります	-11.0913
ウィンドウ	-11.0914
方々に	-11.0916
あるもの	-11.0917
部分の	-11.0918
目的地	-11.0919
顔が	-11.0921
いながら	-11.0921
お金を借りる	-11.0924
継続的に	-11.0924
内科	-11.0925
暴	-11.0925
▁/	-11.0926
紫	-11.0926
情報収集	-11.0927
のは難しい	-11.0927
に大きな	-11.0927
目指	-11.0927
店員さん	-11.0928
使命	-11.0928
飛行	-11.0929
キャッチ	-11.093
しっかりとした	-11.0931
プレート	-11.0931
かもしれないが	-11.0931
藩	-11.0932
京都市	-11.0933
無料漫画	-11.0933
大好き	-11.0935
を重ねて	-11.0935
ものすごく	-11.0936
人にとって	-11.0938
に最適な	-11.0938
ちゃった	-11.0939
チェックイン	-11.0941
わけじゃない	-11.0941
生まれて	-11.0941
の条件	-11.0942
¥	-11.0942
したいです	-11.0942
磨き	-11.0943
無駄に	-11.0946
好みの	-11.0947
いるのは	-11.095
している方	-11.0951
という意味で	-11.0952
特性	-11.0952
視野	-11.0953
な感じ	-11.0954
が増えている	-11.0955
伝わって	-11.0957
種の	-11.0957
ご記入	-11.0957
▁――	-11.0959
穂	-11.0959
を図り	-11.096
ために必要な	-11.096
代後半	-11.096
スクリーン	-11.096
薄く	-11.0961
を使うと	-11.0961
関わって	-11.0962
んだり	-11.0962
go	-11.0963
手元に	-11.0964
親が	-11.0964
協議会	-11.0964
傾	-11.0965
判決	-11.0965
が出てきて	-11.0968
達の	-11.0968
快適	-11.0969
あふれる	-11.0974
しようか	-11.0974
わか	-11.0975
にしました	-11.0976
名前を	-11.0977
国会	-11.0978
に所属	-11.0978
午前中	-11.0978
EX	-11.0979
るだけで	-11.098
ドー	-11.098
随分	-11.0981
形の	-11.0982
高齢	-11.0984
律	-11.0985
BS	-11.0985
支払う	-11.0985
場合や	-11.0985
ようにしてください	-11.0987
二次	-11.0987
その日の	-11.0988
と考えた	-11.099
わたしの	-11.0991
なくなってしまった	-11.0992
を調べる	-11.0995
依存	-11.0997
らずに	-11.0998
当事務所	-11.0998
が全く	-11.0998
を用いた	-11.1
インパクト	-11.1
場面で	-11.1001
っぱ	-11.1001
という声	-11.1003
を開催しました	-11.1004
になるか	-11.1004
どうする	-11.1006
プロモーション	-11.1006
探して	-11.1007
姉妹	-11.1007
増えて	-11.1007
隠し	-11.1008
ite	-11.1008
ミネラル	-11.1008
した場合は	-11.1009
いれ	-11.101
に応じ	-11.101
になるのは	-11.1013
ard	-11.1014
奏	-11.1015
ハッピー	-11.1015
▁韓国	-11.1016
成分が	-11.1016
缶	-11.1016
バナー	-11.1017
送る	-11.1017
を進めて	-11.1018
▁人間	-11.1019
家族が	-11.1019
いつもの	-11.1021
いらない	-11.1022
伝えられ	-11.1023
といえる	-11.1023
つかない	-11.1023
入っている	-11.1024
しているところ	-11.1024
景気	-11.1025
とは言え	-11.1026
装着	-11.103
ちょ	-11.1032
抽選	-11.1032
防衛	-11.1033
ためです	-11.1033
スライド	-11.1034
場所が	-11.1034
てい	-11.1034
が分かる	-11.1035
を開いて	-11.1035
部下	-11.1037
の話を	-11.1038
マッチング	-11.1039
の基礎	-11.1041
多少の	-11.1042
くなり	-11.1043
宇	-11.1044
体操	-11.1044
しないといけない	-11.1044
hi	-11.1046
拝	-11.1046
ap	-11.1047
St	-11.1047
ないでください	-11.1048
もらえない	-11.1048
と言っている	-11.1049
うれしいです	-11.105
検診	-11.1051
田中	-11.1053
技能	-11.1053
ンズ	-11.1054
美容液	-11.1054
さっそく	-11.1055
見つけ	-11.1056
のいずれか	-11.1057
楽しめます	-11.1058
始まり	-11.106
ほんと	-11.1061
任意整理	-11.1061
発揮	-11.1063
署名	-11.1064
かず	-11.1066
他人に	-11.1067
通じ	-11.1068
ボス	-11.1069
を理解し	-11.1072
ack	-11.1073
▁エ	-11.1073
比べ	-11.1074
明日から	-11.1075
の中にある	-11.1076
はしない	-11.1076
開く	-11.1078
▁そこに	-11.1078
情報提供	-11.1079
グラフィック	-11.108
▁この度は	-11.1081
しまうこと	-11.1081
前日	-11.1082
立つ	-11.1083
しているという	-11.1087
▁具体的には	-11.1087
リフレッシュ	-11.1087
設定を	-11.1088
検定	-11.1088
運動を	-11.1089
声優	-11.1089
くると	-11.1091
を理解する	-11.1092
をもたらす	-11.1092
私にとって	-11.1092
効果的に	-11.1093
学年	-11.1094
予定の	-11.1094
呼んで	-11.1094
あるのか	-11.1095
に関しましては	-11.1095
順調に	-11.1096
などについて	-11.1097
借	-11.1098
たいという	-11.1099
必要なもの	-11.11
し続ける	-11.1102
は大きく	-11.1102
を教えてください	-11.1103
も含め	-11.1103
連れて	-11.1103
任意	-11.1104
可能性も	-11.1105
映画館	-11.1106
▁学校	-11.1106
髪の	-11.1108
することです	-11.111
を控え	-11.1111
の登録	-11.1113
計測	-11.1114
以下のように	-11.1114
部署	-11.1116
のかもしれませんね	-11.1119
暦	-11.1119
まいります	-11.1119
先ほど	-11.1121
たりして	-11.1121
と同	-11.1121
ジャン	-11.1121
の戦い	-11.1122
体育	-11.1124
RI	-11.1124
今度	-11.1124
の食事	-11.1125
を簡単に	-11.1128
▁一緒に	-11.1128
▁二	-11.1129
.2	-11.1129
手当	-11.113
▁どうも	-11.113
取扱い	-11.1131
待っている	-11.1132
買取業者	-11.1133
お申し込みください	-11.1133
▁よって	-11.1134
あふれ	-11.1135
▁子ども	-11.1137
あまりに	-11.1138
▁今では	-11.1142
54	-11.1142
老化	-11.1142
が何	-11.1144
もいる	-11.1144
旦那さん	-11.1149
▁ゲーム	-11.1149
が見える	-11.115
いるのですが	-11.115
工房	-11.1151
▁そのために	-11.1152
街の	-11.1153
はならない	-11.1153
モーター	-11.1158
8%	-11.1158
があるか	-11.1159
いたしません	-11.1159
で行われる	-11.116
の考え方	-11.1162
▁こうして	-11.1162
自主	-11.1162
テク	-11.1164
コラム	-11.1165
いっても	-11.1165
商売	-11.1166
激しく	-11.1166
をまとめました	-11.1167
季	-11.1168
流れる	-11.1168
居住	-11.1169
05	-11.117
肌荒れ	-11.117
ハム	-11.1171
簡	-11.1171
聞いたこと	-11.1171
ウォーキング	-11.1172
結果が	-11.1172
面談	-11.1173
業者の	-11.1174
を比較	-11.1175
はいつも	-11.1175
を提出	-11.1176
が起き	-11.1177
ムー	-11.1177
法律事務所	-11.1177
妻が	-11.1178
デスクトップ	-11.1179
食物繊維	-11.1179
で最も	-11.1181
庭園	-11.1181
られなかった	-11.1181
ことですが	-11.1183
▁当日	-11.1185
▁基本的には	-11.1186
た時	-11.1186
圧倒的に	-11.1187
軍事	-11.1187
が増えています	-11.119
職場で	-11.1191
助かりました	-11.1192
方も多いのではないでしょうか	-11.1193
▁ご注文	-11.1194
銀行の	-11.1194
が見られる	-11.1196
が続いて	-11.1197
航空券	-11.1197
会場に	-11.1198
作られている	-11.1198
友人が	-11.1198
お客さまの	-11.1199
削	-11.1201
効果的です	-11.1202
スペック	-11.1202
安心です	-11.1204
言ってる	-11.1204
できるのは	-11.1206
でしたね	-11.1207
新潟	-11.1207
理解して	-11.1209
に戻	-11.1209
知られています	-11.1209
量の	-11.121
定め	-11.1211
実物	-11.1211
を重ね	-11.1212
映画の	-11.1213
▁食事	-11.1213
大規模	-11.1214
仲介	-11.1215
トゥ	-11.1215
足り	-11.1215
長い間	-11.1215
妻の	-11.1217
対話	-11.1217
を誇る	-11.1218
▁当然	-11.1218
▁他	-11.1219
受注	-11.1219
薬を	-11.122
▁当日は	-11.1221
だということ	-11.1221
おやつ	-11.1225
を知りたい	-11.1225
句	-11.1226
選べる	-11.1226
ページです	-11.1227
掘り	-11.1228
指標	-11.123
当社は	-11.123
湿	-11.1231
所有者	-11.1231
マット	-11.1232
増えている	-11.1234
bo	-11.1235
パイ	-11.1235
▁白	-11.1236
コンパクト	-11.1237
どなたでも	-11.1238
也	-11.1238
伝えたい	-11.1238
詳しくは	-11.1239
有機	-11.124
何となく	-11.124
66	-11.1241
を開き	-11.1241
初心者の方	-11.1241
をお探しの方	-11.1242
をダウンロード	-11.1242
は今	-11.1244
敷地	-11.1246
発注	-11.1247
へのアクセス	-11.1248
お電話にて	-11.1248
が発売	-11.125
を記載	-11.1251
場所です	-11.1253
が中心	-11.1255
鈴木	-11.1255
お肌の	-11.1256
▁年齢	-11.1257
が出来ない	-11.1257
をしていると	-11.1257
珍しく	-11.1257
ティック	-11.1257
料金を	-11.1257
を満た	-11.1258
思われ	-11.1258
通販サイト	-11.1259
を打ち	-11.1259
賃金	-11.1259
興味のある	-11.1261
責任者	-11.1262
のですね	-11.1262
が含まれています	-11.1262
描いて	-11.1263
AP	-11.1269
の他	-11.1271
発音	-11.1272
典	-11.1274
数百	-11.1274
を提供しています	-11.1275
0,000	-11.1279
様式	-11.1279
協議	-11.128
大事です	-11.1281
残念です	-11.1282
▁予めご了承ください	-11.1284
存在している	-11.1284
判明	-11.1285
実態	-11.1285
わる	-11.1285
もらうこと	-11.1285
▁今後は	-11.1286
抜群	-11.1286
助かります	-11.1288
ばら	-11.1289
を理解して	-11.1289
予選	-11.1289
しているのです	-11.1291
兆	-11.1292
▁・・・	-11.1292
を基に	-11.1293
▁このため	-11.1294
事が出来ます	-11.1295
とても良い	-11.1296
枚の	-11.1297
店舗で	-11.13
増える	-11.13
取った	-11.1301
仮想	-11.1301
及	-11.1302
すばらしい	-11.1302
名で	-11.1303
▁初めての	-11.1304
されるので	-11.1305
この映画	-11.1305
供	-11.1307
画面に	-11.1307
どんなこと	-11.1308
の両方	-11.1308
をベースに	-11.1309
▁彼らは	-11.1309
の方で	-11.1311
経由で	-11.1312
多くの人に	-11.1313
ゲームを	-11.1313
その結果	-11.1314
を閉じ	-11.1314
観て	-11.1315
写真を撮って	-11.1316
れません	-11.1317
チュー	-11.1318
を与えて	-11.1318
闇	-11.1318
やすさ	-11.1321
ine	-11.1322
ポリシー	-11.1322
で約	-11.1323
ってきた	-11.1324
卒業後	-11.1325
蓋	-11.1325
頂ければ	-11.1326
普段の	-11.1326
祝い	-11.1326
69	-11.1328
然と	-11.1328
レベルで	-11.1328
フィット	-11.1329
るのに	-11.133
▁僕の	-11.133
柳	-11.1331
していたのですが	-11.1332
私と	-11.1333
方法として	-11.1334
中継	-11.1336
乗車	-11.1336
皮膚科	-11.1337
親戚	-11.1338
コロ	-11.1338
出血	-11.1339
LO	-11.134
通っている	-11.134
荷物を	-11.134
わら	-11.134
インプラント	-11.1343
承知	-11.1343
ダイビング	-11.1345
のだけれど	-11.1345
ひたすら	-11.1346
▁北	-11.1346
観戦	-11.1349
▁英語	-11.135
佐藤	-11.1352
勝つ	-11.1352
腐	-11.1353
鎮	-11.1354
の機会	-11.1354
▁PC	-11.1354
より一層	-11.1355
お尻	-11.1357
というものです	-11.1358
の負担	-11.1358
大正	-11.1358
-3	-11.1359
が多くて	-11.1359
ちゃんは	-11.1361
しょ	-11.1362
は無理	-11.1363
アニ	-11.1365
希望者	-11.1365
東京の	-11.1366
適正な	-11.1367
それらを	-11.137
増え	-11.137
サイズは	-11.137
承	-11.1372
漁	-11.1373
高まり	-11.1374
何度	-11.1374
画像は	-11.1375
の増加	-11.1375
だい	-11.1376
やらない	-11.1377
に乗る	-11.1381
年ぶり	-11.1386
を調べて	-11.1386
画面で	-11.1387
神の	-11.1388
欠かせない	-11.1389
多いと思います	-11.1389
契約書	-11.139
そこそこ	-11.139
ターミナル	-11.1391
栗	-11.1393
釣	-11.1394
と思うんです	-11.1394
と思いながら	-11.1395
喉	-11.1396
深刻な	-11.1396
るのも	-11.1397
広島県	-11.1398
絆	-11.1398
ついでに	-11.1399
行われた	-11.14
を観	-11.1403
友人の	-11.1405
横浜市	-11.1406
不要な	-11.1407
警告	-11.1408
将来的に	-11.1408
延	-11.1409
を保つ	-11.1409
邸	-11.1409
関係ない	-11.141
することになります	-11.1412
盛り上がって	-11.1412
▁今後とも	-11.1412
進める	-11.1414
日頃の	-11.1414
幾	-11.1415
飼育	-11.1416
をチェックして	-11.1416
いるのです	-11.1417
リンパ	-11.1419
を目指します	-11.1419
長野県	-11.1421
ウン	-11.1421
ぇ	-11.1425
ソウル	-11.1425
足を運んで	-11.1425
の仕組み	-11.1426
▁<	-11.1426
入居者	-11.1428
亜	-11.1433
その理由	-11.1433
申し込む	-11.1434
るよう	-11.1434
三重県	-11.1435
残念な	-11.1438
彼女に	-11.144
研	-11.1442
の道	-11.1442
頭を	-11.1444
公務員	-11.1446
カラオケ	-11.1446
相手と	-11.1447
ml	-11.1448
枕	-11.1449
を忘れて	-11.1449
属性	-11.145
限定で	-11.145
責任を	-11.1452
マイクロ	-11.1452
ゲット	-11.1453
揺れ	-11.1455
▁当サイトでは	-11.1455
往復	-11.1455
対象となる	-11.1456
た後	-11.1457
贈り物	-11.1457
ありませんでした	-11.1458
できるのか	-11.1458
の立場	-11.1461
などなど	-11.1461
を受けました	-11.1463
を選択して	-11.1463
潜	-11.1464
電波	-11.1464
日頃	-11.1465
誠実	-11.1465
受けて	-11.1466
足が	-11.1468
を含めた	-11.1468
干	-11.147
免疫力	-11.147
店長	-11.147
今回も	-11.1473
の方々に	-11.1474
音楽を	-11.1474
乗せ	-11.1475
https	-11.1475
を作りました	-11.1477
待つ	-11.1477
移	-11.1478
した時に	-11.148
に巻き込まれ	-11.148
のが特徴です	-11.148
残りの	-11.1482
思い切って	-11.1483
利用目的	-11.1484
がしっかり	-11.1489
問い	-11.149
▁その為	-11.1491
阿	-11.1494
ものなので	-11.1494
欲求	-11.1495
同士で	-11.1495
おこ	-11.1496
も高い	-11.1497
経験者	-11.1501
を書いた	-11.1502
シング	-11.1502
感じます	-11.1502
になるため	-11.1504
は以下の	-11.1505
ぐらいの	-11.1505
占	-11.1506
ソーシャル	-11.1507
トヨタ	-11.1508
哲学	-11.1508
ご存じ	-11.1509
させない	-11.151
おりますので	-11.1512
さっき	-11.1513
▁私自身	-11.1513
新型	-11.1513
ていくこと	-11.1515
みんなの	-11.1515
よろしくお願い申し上げます	-11.1515
を起こし	-11.1516
昇	-11.1516
の表示	-11.1517
現在も	-11.1517
工学	-11.1518
前には	-11.1518
述べた	-11.1518
終わりました	-11.1518
41	-11.1518
本当は	-11.152
戻り	-11.152
が集まる	-11.152
を楽しみに	-11.1521
起きる	-11.1524
市長	-11.1524
の範囲	-11.1525
待機	-11.1525
錠	-11.1525
があるようです	-11.1526
韓国の	-11.1526
かれた	-11.1527
生活の	-11.1529
明確に	-11.153
事業の	-11.1531
のいい	-11.1533
歯周病	-11.1534
とは思う	-11.1535
コメントを	-11.1536
なんとも	-11.1536
視点で	-11.1537
かせて	-11.1537
課税	-11.1538
リハビリ	-11.154
わたしたち	-11.1542
してもらいたい	-11.1542
込んでいる	-11.1542
を認め	-11.1542
準備を	-11.1544
の調査	-11.1544
学術	-11.1545
は必要	-11.1545
してくださった	-11.1546
国内で	-11.1546
クセ	-11.1547
松本	-11.1547
されてきた	-11.1548
ることができました	-11.1548
何処	-11.1551
きたので	-11.1552
膨大な	-11.1552
を感じます	-11.1552
紅	-11.1552
宿泊施設	-11.1553
フレーズ	-11.1554
低く	-11.1554
▁ご了承ください	-11.1555
を対象とした	-11.1555
仕事は	-11.1556
売っている	-11.1556
留学生	-11.1557
感想を	-11.1558
ないだろう	-11.1559
見解	-11.1559
を用意して	-11.1559
尊敬	-11.156
掛	-11.1561
まいりました	-11.1563
が変わった	-11.1566
デッキ	-11.1567
ましたね	-11.1569
▁ちょうど	-11.157
▁当院では	-11.1571
できますが	-11.1572
を作ること	-11.1574
とは何か	-11.1575
北区	-11.1579
学校に	-11.1582
をやる	-11.1582
パスポート	-11.1582
オル	-11.1582
糖質	-11.1583
ジェル	-11.1583
駒	-11.1583
汚	-11.1586
が完成	-11.1588
ゃ	-11.159
以下に	-11.1592
と思ってた	-11.1593
どうせ	-11.1593
悩ま	-11.1595
方は是非	-11.1595
でいい	-11.1596
却	-11.1597
支部	-11.1598
ナチュラル	-11.1599
しておりますが	-11.1599
場合もある	-11.16
子供の頃	-11.16
準	-11.16
コラーゲン	-11.1604
▁このブログ	-11.1604
私を	-11.1605
最中	-11.1606
群馬県	-11.1607
ことも多い	-11.1609
最大限	-11.1609
の場合には	-11.161
開店	-11.1612
代わり	-11.1613
もらおう	-11.1614
なんだけど	-11.1615
預金	-11.1616
ケガ	-11.1616
制定	-11.1616
▁皆様の	-11.1617
指名	-11.1617
調べた	-11.1618
のは初めて	-11.1621
テンション	-11.1623
運転手	-11.1627
によるもの	-11.1628
か分からない	-11.1628
てみました	-11.1629
一人暮らし	-11.1631
工作	-11.1631
って言う	-11.1631
してみます	-11.1632
も必要	-11.1632
今年度	-11.1635
ヶ月間	-11.1637
者として	-11.1637
取り組む	-11.1639
混	-11.1639
消え	-11.164
迷い	-11.1641
▁予約	-11.1641
思	-11.1642
情報など	-11.1642
▁いよいよ	-11.1643
お時間を	-11.1646
ないのか	-11.1646
地の	-11.1646
苦手な	-11.1647
上野	-11.1648
装飾	-11.1648
に恵まれ	-11.1649
オシャレ	-11.165
ブログの	-11.1652
可愛	-11.1653
があるのですが	-11.1655
集中力	-11.1657
減って	-11.1657
が出来て	-11.1659
学者	-11.1659
行われている	-11.1659
支	-11.166
超え	-11.166
開け	-11.1662
2001	-11.1664
明か	-11.1666
寝ている	-11.1667
と感じます	-11.1667
が行われた	-11.1668
いい感じ	-11.1668
車に	-11.1669
同様に	-11.167
お楽しみに	-11.1671
が大変	-11.1673
なってきている	-11.1673
肌を	-11.1674
承諾	-11.1677
ディー	-11.1677
ストリート	-11.1678
例え	-11.1678
血圧	-11.1682
彼らが	-11.1685
アプリで	-11.1685
額が	-11.1685
だったけど	-11.1686
に行ったり	-11.1688
ものとして	-11.1688
連絡を	-11.1688
by	-11.1689
のプロ	-11.1693
を押し	-11.1695
これほど	-11.1695
臨時	-11.1695
の連絡	-11.1697
▁こんばんは	-11.1699
ということだ	-11.1699
問わず	-11.1701
その中で	-11.1701
ありませんが	-11.1702
じて	-11.1702
04	-11.1705
いただいています	-11.1705
申込書	-11.1705
作品です	-11.1707
航	-11.1709
豪華	-11.171
67	-11.1714
荒れ	-11.1715
Sh	-11.1715
知りました	-11.1717
を守り	-11.1718
水曜日	-11.1718
▁それとも	-11.1718
変わらず	-11.1718
を披露	-11.1718
同じく	-11.1718
味噌	-11.1719
いじめ	-11.172
ビッグ	-11.1721
進めて	-11.1722
▁アニメ	-11.1723
ることができ	-11.1723
ほうが良い	-11.1724
を知ること	-11.1729
よろしく	-11.1729
チェックして	-11.173
子どもたちが	-11.1731
を代表する	-11.1732
唯一	-11.1733
one	-11.1733
ラウンジ	-11.1733
のかどうか	-11.1735
話して	-11.1736
相手は	-11.1736
長期間	-11.1738
付ける	-11.1738
医療費	-11.1738
物事	-11.1738
方と	-11.1739
鹿児島	-11.1739
わたしは	-11.174
餅	-11.1741
届いた	-11.1741
テント	-11.1742
食感	-11.1744
久々に	-11.1744
外から	-11.1745
身体を	-11.1745
と違う	-11.1745
死んだ	-11.1746
加速	-11.1746
左側	-11.1746
(2	-11.1747
来ない	-11.1748
奈良県	-11.1748
動物園	-11.175
日本国内	-11.1752
アドバイザー	-11.1752
ドーム	-11.1752
信頼性	-11.1753
なんですね	-11.1754
コチラ	-11.1755
醤油	-11.1756
認可	-11.1757
に登場する	-11.1758
渋滞	-11.1758
視線	-11.176
(19	-11.176
越し	-11.176
に残る	-11.1763
内容で	-11.1765
その時は	-11.1765
誰にでも	-11.1766
が上がって	-11.1766
そこには	-11.1767
鎌倉	-11.1767
性の高い	-11.1767
▁15	-11.1768
も多いので	-11.1768
側は	-11.1768
血流	-11.1769
喫煙	-11.1769
通う	-11.177
のご相談	-11.1771
友達が	-11.1773
餌	-11.1774
の裏	-11.1774
人によって	-11.1775
歳から	-11.1776
トリートメント	-11.1778
サム	-11.1779
ッカー	-11.1779
どうにか	-11.178
商業	-11.1781
の悪い	-11.1781
▁我が家	-11.1782
されても	-11.1783
語って	-11.1784
世界遺産	-11.1785
▁恋愛	-11.1786
ゆき	-11.1786
皿	-11.1786
▁どうしても	-11.1786
習得	-11.1786
抑え	-11.1787
$	-11.1788
開催される	-11.1788
▁ネットで	-11.179
▁Re	-11.179
袖	-11.179
の強い	-11.1792
を入れた	-11.1793
▁元	-11.1795
▁お店	-11.1795
お返事	-11.1796
-0	-11.1798
が足り	-11.1798
通行	-11.1799
ホン	-11.18
利用して	-11.1801
わけでもない	-11.1802
側が	-11.1802
が来た	-11.1802
いいでしょう	-11.1803
娘の	-11.1803
参りました	-11.1804
割と	-11.1804
ことである	-11.1804
おくこと	-11.1806
浮気不倫調査は探偵	-11.1809
与	-11.181
を出した	-11.181
寄せられ	-11.1812
盛り上げ	-11.1813
認められ	-11.1814
史上	-11.1815
かわり	-11.1815
できるような	-11.1816
次第に	-11.1818
取り入れ	-11.1818
ペーパー	-11.182
補給	-11.182
ご愛顧	-11.1822
日本代表	-11.1822
の確保	-11.1823
お腹が	-11.1824
ダイヤモンド	-11.1825
と思いましたが	-11.1827
去年	-11.1828
池袋	-11.1829
を楽しめる	-11.1829
新品	-11.1829
が始まりました	-11.183
使用されている	-11.1831
ねえ	-11.1833
ご自身で	-11.1833
参加する	-11.1833
もうちょっと	-11.1834
頂け	-11.1834
紅茶	-11.1836
HD	-11.1836
は下記	-11.1837
版の	-11.1838
▁既に	-11.1838
発表された	-11.1839
童	-11.1839
最適化	-11.184
れました	-11.1841
の参加	-11.1841
雷	-11.1841
両立	-11.1842
チー	-11.1843
保持	-11.1844
AGA	-11.1846
買取り	-11.1846
上部	-11.1847
いただけた	-11.1848
ミュージック	-11.1849
したいと	-11.185
日常的に	-11.1851
閉じ	-11.1851
協力して	-11.1853
が気になって	-11.1854
ショップで	-11.1855
強み	-11.1855
が必須	-11.1856
ゾーン	-11.1857
本音	-11.1857
の運営	-11.1858
チェンジ	-11.1861
価	-11.1861
WA	-11.1861
原稿	-11.1862
▁ご予約	-11.1862
多彩な	-11.1865
がうまく	-11.1866
ますようお願い申し上げます	-11.1868
できるもの	-11.1868
ki	-11.1868
鶏	-11.1869
着る	-11.187
行っています	-11.187
我々の	-11.187
ig	-11.187
di	-11.1871
気持ちよく	-11.1872
ia	-11.1873
物は	-11.1873
積み重ね	-11.1874
いたい	-11.1875
比率	-11.1878
シンプルで	-11.1878
水が	-11.1879
載	-11.1879
中国人	-11.1879
▁日本人	-11.188
セレクト	-11.188
束	-11.1882
合宿	-11.1882
ca	-11.1884
つもりです	-11.1884
はこちらから	-11.1885
ワンちゃん	-11.1886
血行	-11.1886
ユーロ	-11.1887
宛	-11.1888
か否か	-11.1888
頭の中	-11.1889
シュー	-11.189
たまま	-11.1891
張って	-11.1891
を発揮	-11.1892
▁日本で	-11.1892
郵便局	-11.1892
お誕生日	-11.1895
が始まった	-11.1896
間違った	-11.19
に位置し	-11.19
ET	-11.1901
あちこち	-11.1901
をつくり	-11.1901
ご縁	-11.1902
MP	-11.1903
太陽光発電	-11.1903
のではないだろうか	-11.1905
▁うちの	-11.1906
誇	-11.1907
時期は	-11.1908
誠にありがとうございました	-11.1908
を堪能	-11.1908
気持ちは	-11.1909
須	-11.191
友達に	-11.1911
と思うけど	-11.1911
肉体	-11.1914
高額な	-11.1916
隅	-11.1916
お預かり	-11.1918
▁たぶん	-11.1918
方も多いと思います	-11.1919
とは限りません	-11.1919
祖	-11.1919
フィルター	-11.1921
透明	-11.1922
自己紹介	-11.1925
現地で	-11.1926
生活保護	-11.1926
だろうが	-11.1926
傾向にあります	-11.1927
日数	-11.1927
したときに	-11.1927
辞め	-11.1927
高速道路	-11.1929
冷静に	-11.1929
確かめ	-11.1931
欄に	-11.1931
させたい	-11.1931
を継続	-11.1932
だろうと	-11.1933
ところまで	-11.1934
io	-11.1934
貫	-11.1936
効率化	-11.1937
酢	-11.194
大分	-11.1941
シューズ	-11.1942
育て	-11.1942
視聴者	-11.1942
過ぎた	-11.1943
渡す	-11.1944
過ごせる	-11.1945
多いのではないでしょうか	-11.1945
と同じような	-11.1946
撮った	-11.1946
ましたので	-11.1948
数の	-11.1949
庫	-11.1949
の水	-11.1953
に接続	-11.1954
を作りたい	-11.1955
いただければ幸いです	-11.1955
国内外	-11.1957
バンク	-11.1959
検索エンジン	-11.196
印鑑	-11.1961
刑事	-11.1961
ご参加ください	-11.1963
の壁	-11.1964
に対応している	-11.1965
友人に	-11.1966
ようにする	-11.1967
良いですね	-11.1968
～5	-11.1969
力を入れて	-11.1973
はるかに	-11.1975
感謝しています	-11.1975
月中旬	-11.1977
苗	-11.1977
ドクター	-11.1978
気になります	-11.1978
家族に	-11.1979
に強い	-11.198
たって	-11.1981
状況で	-11.1981
ご自身	-11.1981
その前に	-11.1983
ネットの	-11.1984
しなければいけない	-11.1985
ポーズ	-11.1985
にもよりますが	-11.1986
▁昨日の	-11.1987
お使いの	-11.1987
ことにした	-11.1987
がかかって	-11.1987
さに	-11.1988
悪いこと	-11.1989
放映	-11.199
地点	-11.1992
▁大変	-11.1992
という考え	-11.1992
楽しさ	-11.1992
の安全	-11.1993
をさせていただきます	-11.1994
限定の	-11.1994
エレ	-11.1994
いただきまして	-11.1995
やさしい	-11.1995
ジョー	-11.1996
ヴェ	-11.1996
アミノ酸	-11.1996
お近くの	-11.1997
をご希望の方は	-11.1997
3%	-11.1999
ハーブ	-11.1999
▁もしも	-11.2
熊本県	-11.2
ラッキー	-11.2002
▁というのも	-11.2003
お礼	-11.2003
割り切り	-11.2003
ゲームの	-11.2005
ッター	-11.2006
いるような	-11.201
マネ	-11.201
ぴ	-11.2011
52	-11.2011
の幅	-11.2011
min	-11.2012
歌う	-11.2012
された場合	-11.2012
を演出	-11.2013
山市	-11.2014
精一杯	-11.2015
掛かり	-11.2015
分野の	-11.2015
he	-11.2017
ブランドの	-11.2017
ee	-11.2018
人目	-11.2018
プラスチック	-11.2018
テー	-11.2019
二十	-11.202
になれ	-11.2021
の責任	-11.2023
が苦手	-11.2023
病院の	-11.2025
を希望する	-11.2026
お正月	-11.2026
国籍	-11.2031
耐	-11.2032
契約を	-11.2033
30%	-11.2034
質の高い	-11.2034
意外に	-11.2034
立体	-11.2037
売れる	-11.2038
ごめんなさい	-11.2039
ないで	-11.2041
生活習慣病	-11.2043
することにしました	-11.2043
実質	-11.2045
気を付けて	-11.2046
特有の	-11.2047
するとき	-11.2047
選手権	-11.2048
エレベーター	-11.2048
しまいましたが	-11.2049
月下旬	-11.205
条約	-11.2051
外来	-11.2051
秘	-11.2051
信じられない	-11.2051
試して	-11.2051
条件で	-11.2052
書きました	-11.2052
ラス	-11.2054
になってしまい	-11.2056
って言って	-11.2056
ミーティング	-11.2057
con	-11.2058
▁俺は	-11.2059
上達	-11.2059
を良く	-11.2059
仕事をする	-11.206
コト	-11.2062
ことがありません	-11.2062
はいけません	-11.2063
建てられ	-11.2063
辺り	-11.2063
併設	-11.2066
って何	-11.2066
卒	-11.2067
取れる	-11.2068
時間半	-11.2068
に電話	-11.2069
を考えた	-11.2069
興味のある方は	-11.2069
上場	-11.207
コミックサイト	-11.207
通報	-11.2071
リップ	-11.2072
を作成し	-11.2072
Microsoft	-11.2072
宮崎	-11.2074
は結構	-11.2076
使用できる	-11.2076
目は	-11.2076
と思うのです	-11.2077
疲れた	-11.2077
を募集しています	-11.2077
お客様には	-11.2078
その時の	-11.2079
吸い	-11.2083
調達	-11.2083
のレベル	-11.2083
修了	-11.2084
の皆さま	-11.2086
売り切れ	-11.2086
多くの方が	-11.2086
細菌	-11.2088
お家	-11.2089
選ばれ	-11.2089
村の	-11.209
お試しください	-11.209
を知った	-11.2091
を利用している	-11.2091
愛犬	-11.2092
ように見える	-11.2092
ならず	-11.2092
参考にしてみてください	-11.2093
歳まで	-11.2095
医院	-11.2095
が楽しめる	-11.2097
おじさん	-11.2097
にならないように	-11.2101
06	-11.2102
香りが	-11.2102
どうでもいい	-11.2102
ウチ	-11.2103
法的	-11.2103
飲食	-11.2105
▁Pro	-11.2105
しておいて	-11.2107
しにくい	-11.2108
と感じています	-11.2109
設	-11.2109
本屋	-11.2111
をもっと	-11.2111
こうやって	-11.2112
嫁の浮気を見破る方法	-11.2112
いただいた方	-11.2112
年まで	-11.2114
下部	-11.2114
書いています	-11.2115
以後	-11.2115
進歩	-11.2115
な雰囲気	-11.2116
始まった	-11.2116
暖かく	-11.2117
一人ひとり	-11.2118
調べてみると	-11.2118
患者さんの	-11.2119
ごみ	-11.212
今年で	-11.2121
におすすめの	-11.2122
俺が	-11.2123
時間を過ご	-11.2123
されている方	-11.2124
でお	-11.2126
を受けること	-11.2126
遺跡	-11.2127
なるほど	-11.2128
がないか	-11.213
の成果	-11.2131
の発表	-11.2132
どの程度	-11.2132
ir	-11.2133
▁下記の	-11.2134
諸国	-11.2134
他者	-11.2136
結成	-11.2136
のコメント	-11.2136
放送された	-11.2137
含まれています	-11.2138
メイ	-11.2138
連合	-11.2139
決まって	-11.2139
政府は	-11.214
閉店	-11.214
暑く	-11.214
を大事に	-11.2142
を行なって	-11.2142
で開催	-11.2142
2002	-11.2143
SH	-11.2143
デザート	-11.2143
好きで	-11.2143
ネス	-11.2144
眠り	-11.2144
良いもの	-11.2144
内容に	-11.2145
とは言えない	-11.2145
梱包	-11.2145
イス	-11.2146
もらえます	-11.2148
まっている	-11.2148
SEX	-11.2149
下がって	-11.2151
一層	-11.2153
も少なくありません	-11.2153
様子が	-11.2155
癌	-11.2156
してしまって	-11.2156
デスク	-11.2157
水着	-11.2158
にあたる	-11.2158
を定め	-11.216
の魅力を	-11.216
を開設	-11.2161
作戦	-11.2161
行政書士	-11.2162
悲	-11.2166
火災	-11.2167
趣旨	-11.2169
が流れ	-11.217
を増やし	-11.2172
東海	-11.2172
期の	-11.2173
のせい	-11.2174
プライバシーポリシー	-11.2175
させるために	-11.2175
放射線	-11.2177
ような感じ	-11.2178
シルバー	-11.2178
お聞き	-11.2181
果物	-11.2184
濃度	-11.2184
妄想	-11.2186
ことが重要	-11.2186
品種	-11.2186
首都	-11.2187
経済的	-11.2187
▁少しでも	-11.2188
セルフ	-11.2188
▁う	-11.2189
JA	-11.2191
に繋がる	-11.2191
相変わらず	-11.2192
位に	-11.2194
発売日	-11.2196
子供は	-11.2196
、2014	-11.2197
を突破	-11.2198
入り口	-11.2198
を記念して	-11.2199
取引先	-11.2199
寛	-11.22
事がある	-11.22
人にも	-11.2202
喋	-11.2203
湿度	-11.2204
奪	-11.2204
山田	-11.2207
賞を受賞	-11.2207
したことがある	-11.2208
本店	-11.2209
お世話	-11.221
モテ	-11.221
行われます	-11.2211
えば	-11.2212
呼びかけ	-11.2213
太平洋	-11.2214
世話	-11.2215
後輩	-11.2215
を残して	-11.2215
も少なく	-11.2215
1500	-11.2216
溶け	-11.2217
の施術	-11.2218
綿	-11.2218
ありますよね	-11.2219
麻酔	-11.222
何だか	-11.222
ゲン	-11.2223
逸	-11.2226
までご連絡ください	-11.2227
なったり	-11.2228
▁これまでの	-11.2228
様が	-11.2228
ローズ	-11.2228
貯め	-11.2229
しているのですが	-11.2232
べきか	-11.2232
自衛隊	-11.2232
言い方	-11.2234
で見る	-11.2236
施設の	-11.2236
全体が	-11.2236
羊	-11.2237
に違いない	-11.2242
ぼう	-11.2242
決められ	-11.2243
駆除	-11.2243
驚く	-11.2243
本サイト	-11.2245
ソフトバンク	-11.2245
を入力して	-11.2247
メールの	-11.2247
どちらの	-11.2248
の会	-11.2249
ホテルに	-11.2249
丈	-11.2252
強さ	-11.2252
青い	-11.2254
解決策	-11.2254
封	-11.2254
ex	-11.2254
を下げ	-11.2256
意識して	-11.2257
お求め	-11.2257
その中に	-11.2259
たいと思っています	-11.226
さっぱり	-11.226
あん	-11.2261
さすが	-11.2261
キュー	-11.2262
っており	-11.2262
する際には	-11.2263
になるのです	-11.2264
いるか	-11.2266
等により	-11.2266
を描く	-11.2266
ドコモ	-11.2267
親族	-11.2268
後には	-11.2268
を入手	-11.2269
はできない	-11.227
つに	-11.2272
ファイルの	-11.2272
なくてはなりません	-11.2274
森林	-11.2274
漫画を	-11.2275
満載	-11.2275
すぎた	-11.2275
僕ら	-11.2276
中央区	-11.2276
対処法	-11.2278
如何	-11.2278
グラン	-11.2279
(5	-11.2279
▁一般	-11.2279
一冊	-11.2279
この作品	-11.228
帝国	-11.2281
個人差	-11.2282
復元	-11.2282
無かった	-11.2285
名前が	-11.2285
刑	-11.2287
あっても	-11.2288
徒	-11.2288
の受付	-11.2289
が重要	-11.2289
苦痛	-11.2289
外壁	-11.2293
▁多分	-11.2295
食べられ	-11.2295
▁家	-11.2299
ストップ	-11.2299
が進む	-11.2299
帰ってきた	-11.2299
を最大限に	-11.2299
小学	-11.2301
服を	-11.2302
津波	-11.2306
CH	-11.2306
(3	-11.2306
してある	-11.2307
使っていた	-11.2307
が残っている	-11.2307
est	-11.2307
のお問い合わせ	-11.2307
ない場合	-11.2308
色を	-11.2308
輝き	-11.2308
含む	-11.2309
圧力	-11.2309
業界で	-11.231
届出	-11.2311
▁すべての	-11.2311
立ち上げ	-11.2312
のニーズ	-11.2312
を見ても	-11.2314
ess	-11.2314
多かった	-11.2314
を迎えた	-11.2314
滋賀県	-11.2315
がどう	-11.2316
キレイに	-11.2317
共通の	-11.2321
この人	-11.2321
リック	-11.2322
が行われます	-11.2322
優れている	-11.2324
タル	-11.2324
もできます	-11.2325
イチ	-11.2325
るようになる	-11.2326
辛	-11.2327
てしまうこと	-11.2328
の季節	-11.2328
お渡し	-11.233
各地	-11.2331
63	-11.2332
暑い日	-11.2334
待た	-11.2336
るための	-11.2336
泣いて	-11.2337
を決定	-11.2337
を扱う	-11.2337
ですからね	-11.2338
▁そこから	-11.2339
座席	-11.234
▁今朝	-11.234
暗号化	-11.2341
経った	-11.2341
なりたい	-11.2342
山口	-11.2344
参拝	-11.2345
どうしたらいい	-11.2346
検索結果	-11.2346
抑制	-11.2347
隆	-11.2349
利用可能	-11.235
来週	-11.2351
表示されている	-11.2352
有名です	-11.2352
紐	-11.2352
分散	-11.2354
ことがあった	-11.2355
通った	-11.2355
オーガニック	-11.2355
参加した	-11.2356
エージェント	-11.2356
中断	-11.2356
エー	-11.2359
たいです	-11.236
オーディオ	-11.236
考えれば	-11.2361
▁小さな	-11.2362
53	-11.2363
が出ない	-11.2366
アプリを	-11.2366
気になっていた	-11.2367
を学び	-11.2368
博多	-11.2369
堅	-11.237
周りの人	-11.237
本格	-11.2372
かなと思います	-11.2372
早めの	-11.2373
を楽しむことができます	-11.2373
置き換え	-11.2374
程度に	-11.2374
完全な	-11.2376
▁音楽	-11.2377
医師の	-11.2378
謝罪	-11.238
なくてもいい	-11.238
とも呼ばれ	-11.238
を担う	-11.2381
▁元々	-11.2382
がつき	-11.2382
ガイドライン	-11.2384
みたいなもの	-11.2385
国連	-11.2387
▁リ	-11.239
ときも	-11.2391
奥様	-11.2391
なければいけません	-11.2391
晴	-11.2391
染め	-11.2391
角度	-11.2392
があった場合	-11.2393
取られ	-11.2394
2%	-11.2396
時間ほど	-11.2398
受け付けております	-11.2399
風味	-11.2399
手入れ	-11.24
注意してください	-11.2401
という名前	-11.2401
件数	-11.2402
理由を	-11.2402
一括査定	-11.2403
デュ	-11.2407
間隔	-11.2408
ユニークな	-11.2408
額は	-11.2409
お散歩	-11.2409
と良いでしょう	-11.241
宴会	-11.241
記事の	-11.2411
じゃあ	-11.2412
こともできる	-11.2413
通って	-11.2416
を変更する	-11.2416
ジャズ	-11.2417
スタジアム	-11.2417
くらいで	-11.2418
出すこと	-11.2418
用いられ	-11.2418
出会う	-11.2418
旬	-11.242
を設定	-11.2421
いっ	-11.2421
しているのが	-11.2422
葬	-11.2423
の美しさ	-11.2423
酔	-11.2424
幼	-11.2425
お寺	-11.2425
立ち読み	-11.2425
が分からない	-11.2425
パスタ	-11.2426
ソング	-11.2426
メー	-11.2426
日本人は	-11.2428
のでしょうね	-11.243
っか	-11.2432
広がる	-11.2432
みてくださいね	-11.2433
あれこれ	-11.2433
ものも	-11.2434
解散	-11.2434
CC	-11.2434
を活用した	-11.2435
崩れ	-11.2436
サイトから	-11.2438
を更新	-11.2438
必要性	-11.2438
される場合は	-11.2439
に対しても	-11.244
シミュレーション	-11.244
アイテムを	-11.2441
一覧です	-11.2442
食堂	-11.2443
▁いろんな	-11.2443
金額は	-11.2443
ただし	-11.2444
変わってきます	-11.2444
芸能	-11.2445
疎	-11.2446
岡山	-11.2447
ことだと思います	-11.2448
日常の	-11.2448
が続いています	-11.2449
なっていく	-11.245
を支援する	-11.2451
であることが	-11.2451
ポップ	-11.2451
レンタカー	-11.2452
1980	-11.2453
投入	-11.2453
馴染み	-11.2453
恐ろしい	-11.2453
孤独	-11.2454
を備え	-11.2455
激安	-11.2456
企業は	-11.2458
ズの	-11.246
古く	-11.2461
を続け	-11.2461
全体で	-11.2461
ように感じます	-11.2462
息を	-11.2462
ないまま	-11.2464
mail	-11.2464
してくれるので	-11.2464
欲しく	-11.2465
粗	-11.2465
を待つ	-11.2465
市販の	-11.2465
ニン	-11.2466
料理の	-11.2466
ワクチン	-11.2466
ってくる	-11.2468
スタン	-11.2468
んな	-11.2469
なってきて	-11.2474
ご相談下さい	-11.2474
測	-11.2474
世界中で	-11.2474
ケイ	-11.2475
編成	-11.2476
カラダ	-11.2476
楽しみに	-11.2476
したかった	-11.2477
目覚め	-11.2477
アク	-11.2479
止	-11.248
くださいました	-11.2481
どうしたら	-11.2483
規約	-11.2485
ズレ	-11.2486
の気持ち	-11.2486
出来なかった	-11.2487
精神的な	-11.2488
CT	-11.249
べきだ	-11.249
質問を	-11.2491
味方	-11.2491
かね	-11.2493
サラ	-11.2494
過ぎる	-11.2494
が生まれる	-11.2495
じゃん	-11.2496
per	-11.2497
ly	-11.2497
くださって	-11.2498
大幅に	-11.2498
もあるようです	-11.2499
をゲット	-11.2502
情報も	-11.2505
額の	-11.2505
気になっている	-11.2506
▁本来	-11.2506
LA	-11.2507
過ごし	-11.2507
恵まれ	-11.2508
記事は	-11.2508
画面の	-11.2509
したという	-11.251
キリスト教	-11.251
出来ません	-11.2511
無料相談	-11.2511
の内容は	-11.2512
上げた	-11.2513
大手の	-11.2513
花火大会	-11.2516
雇	-11.2517
診	-11.2519
が開始され	-11.2519
の舞台	-11.2521
東京で	-11.2522
数回	-11.2523
を把握	-11.2525
ニコ	-11.2526
とらえ	-11.2526
ライブラリ	-11.2527
▁そんなこと	-11.2527
歴史的	-11.2527
集中して	-11.2529
部屋で	-11.253
好きだった	-11.253
国産	-11.2531
カビ	-11.2532
感じられ	-11.2533
▁それだけ	-11.2534
を意味する	-11.2536
られていた	-11.2536
重大な	-11.2536
かかり	-11.2538
くなります	-11.2538
歌って	-11.2539
最新情報	-11.2541
渡し	-11.2541
感心	-11.2542
プレス	-11.2542
大変なこと	-11.2543
募金	-11.2543
強度	-11.2543
インドネシア	-11.2545
吉田	-11.2547
(18	-11.2547
登場した	-11.2548
人たちに	-11.255
との連携	-11.255
を削除	-11.2551
購読	-11.2551
予防接種	-11.2551
しょうがない	-11.2553
主催者	-11.2556
住んで	-11.2557
を占め	-11.2558
を利用すれば	-11.2559
お届けします	-11.2559
多いです	-11.256
命を	-11.2561
財団	-11.2561
マリ	-11.2562
も多いです	-11.2562
▁こう	-11.2564
変わってくる	-11.2565
焦	-11.2565
ているのです	-11.2566
化して	-11.2567
全体を	-11.2567
どうすればいい	-11.2568
予報	-11.2568
を立て	-11.2569
に分かれて	-11.257
壁に	-11.257
モール	-11.2571
になるように	-11.2572
攻め	-11.2573
いたこと	-11.2573
の取り組み	-11.2574
▁会場	-11.2575
単純な	-11.2576
ひとりで	-11.2577
営業日	-11.2577
詰まって	-11.2579
知れ	-11.2579
を見つめ	-11.2583
ひろ	-11.2584
▁事前に	-11.2585
を選択します	-11.2586
継承	-11.2587
はどのような	-11.2587
ここ最近	-11.2589
お手	-11.2589
しん	-11.2589
の発生	-11.259
を開け	-11.259
API	-11.2591
は多い	-11.2592
ような気がして	-11.2592
関係を	-11.2593
家庭で	-11.2593
朝鮮	-11.2594
おもしろい	-11.2595
君の	-11.2595
もって	-11.2595
裂	-11.2596
堪能	-11.2596
消えて	-11.2598
視点から	-11.2599
怪しい	-11.2601
vi	-11.2602
なってきます	-11.2602
細かな	-11.2604
ネットショップ	-11.2605
似た	-11.2608
の一人	-11.2608
▁早速	-11.2609
キリ	-11.261
2〜3	-11.261
ケー	-11.2611
も非常に	-11.2613
北部	-11.2614
の強さ	-11.2615
岩手県	-11.2615
溶	-11.2616
イベントで	-11.2616
少なからず	-11.2617
鋭	-11.2617
シャン	-11.2617
ホー	-11.2618
のお手伝いを	-11.2618
すぎると	-11.2618
広め	-11.2618
ラル	-11.2618
機能性	-11.2619
でなければ	-11.2619
PO	-11.2619
急速に	-11.262
お客様の個人情報	-11.262
てくれました	-11.262
おこな	-11.262
に手を	-11.2621
なきゃいけない	-11.2621
の交換	-11.2622
大勢の	-11.2622
勤	-11.2624
じっくりと	-11.2624
避け	-11.2625
知名度	-11.2626
を請求	-11.2626
かえって	-11.2627
躊躇	-11.263
液晶	-11.263
受けた	-11.2631
につれて	-11.2631
大きくなって	-11.2633
独自	-11.2634
色合い	-11.2636
多摩	-11.2636
ヒーロー	-11.2637
ナル	-11.264
▁いくら	-11.2641
自分たち	-11.2644
取引所	-11.2644
発明	-11.2644
羅	-11.2645
注意事項	-11.2645
産の	-11.2645
といえるでしょう	-11.2645
注意して	-11.2646
協定	-11.2647
体育館	-11.2647
の一部を	-11.2647
教えてくれる	-11.2648
の少ない	-11.2648
よー	-11.2648
スクリプト	-11.2648
してくれている	-11.2649
はずの	-11.2649
翼	-11.2649
近隣の	-11.2651
▁クリスマス	-11.2651
アメリカで	-11.2652
に変化	-11.2652
見通し	-11.2653
人気のある	-11.2653
をしていて	-11.2655
可能性を	-11.2655
産地	-11.2655
を終了	-11.2656
ぴったり	-11.2657
を表す	-11.2659
苦しみ	-11.266
っぱなし	-11.2661
しわ	-11.2661
を増	-11.2662
完売	-11.2664
たくさんある	-11.2664
da	-11.2665
カーテン	-11.2665
ru	-11.2666
れなかった	-11.2667
▁たとえ	-11.2667
確立	-11.2668
サイトが	-11.267
露出	-11.267
個人情報は	-11.2671
したりして	-11.2671
戦う	-11.2671
駅まで	-11.2673
勧誘	-11.2674
という形で	-11.2675
儲け	-11.2676
お店が	-11.2676
言及	-11.2679
今や	-11.268
育毛	-11.268
に悩まされ	-11.268
ムービー	-11.2681
の一種	-11.2681
アクティブ	-11.2682
データは	-11.2683
慣れて	-11.2684
日頃から	-11.2685
改定	-11.2688
しなくて	-11.269
予約を	-11.269
はあった	-11.2691
自慢	-11.2691
シック	-11.2693
情報発信	-11.2694
未来の	-11.2694
も大丈夫	-11.2694
費用が	-11.2695
たのが	-11.2695
言っても	-11.2696
のホテル	-11.2697
店は	-11.2697
一連の	-11.2697
出せる	-11.2697
既婚者	-11.2698
何回か	-11.2699
おいしく	-11.27
を持つこと	-11.2701
適当に	-11.2702
られるように	-11.2704
の作業	-11.2704
老人	-11.2706
に努め	-11.2707
科学的	-11.2708
だったのです	-11.2708
スイス	-11.2709
は自分の	-11.271
は自分で	-11.2711
企業に	-11.2711
MS	-11.2714
いじ	-11.2714
▁しばらく	-11.2715
この頃	-11.2715
買い取り	-11.2716
の下で	-11.2718
を改善する	-11.2719
はありますか	-11.272
やること	-11.2721
適合	-11.2722
HA	-11.2722
賠償	-11.2724
梨	-11.2724
pe	-11.2725
を行なう	-11.2725
得意な	-11.2726
ライバル	-11.2727
開発者	-11.2727
試しに	-11.2729
から約	-11.2729
変数	-11.273
瓶	-11.2731
品物	-11.2731
適切	-11.2731
を集める	-11.2733
かったです	-11.2733
が生まれ	-11.2733
ub	-11.2733
遣い	-11.2733
に連れて	-11.2734
欠け	-11.2735
知らず	-11.2735
できなくなる	-11.2735
って思う	-11.2736
夢を	-11.2738
たところ	-11.2738
飲料	-11.2738
見極め	-11.2739
出費	-11.274
までお問い合わせください	-11.2744
開催中	-11.2746
がどんどん	-11.2747
も充実	-11.2748
のニュース	-11.2748
火曜日	-11.2748
と思っていたのですが	-11.2748
見方	-11.2749
ラベル	-11.2749
に注意	-11.275
に囲まれた	-11.2751
いらっしゃいました	-11.2752
知らせ	-11.2752
を付け	-11.2754
食器	-11.2754
進路	-11.2754
▁2009	-11.2754
行なわれ	-11.2756
引き上げ	-11.2757
音を	-11.2757
画像の	-11.2758
友人と	-11.2759
ディレクトリ	-11.276
自信を持って	-11.2761
理想的な	-11.2762
この先	-11.2762
感じている	-11.2763
▁先ほど	-11.2764
無限	-11.2764
に達し	-11.2766
人々は	-11.2766
▁大学	-11.2766
ませんので	-11.2767
の指導	-11.2767
こともあって	-11.2768
たいと	-11.2769
している場合	-11.277
ショット	-11.277
するようにしましょう	-11.277
一度に	-11.277
も無い	-11.2771
数を	-11.2772
も出	-11.2773
周囲に	-11.2773
いられる	-11.2773
確認する	-11.2774
最安値	-11.2775
あた	-11.2777
迷惑メール	-11.2777
下さる	-11.2778
延期	-11.2779
アップル	-11.2781
盛り上がり	-11.2781
がついている	-11.2782
を実施する	-11.2783
伊勢	-11.2784
▁僕が	-11.2784
南部	-11.2785
学生の	-11.2785
▁いつ	-11.2787
ねー	-11.2788
頼む	-11.2789
単価	-11.279
理解できる	-11.279
info	-11.279
登場人物	-11.2791
阪神	-11.2793
を出て	-11.2794
重宝	-11.2795
やれる	-11.2795
全国で	-11.2796
▁前回の	-11.2796
じゃなかった	-11.2797
ag	-11.2798
いきません	-11.2798
が得られる	-11.2798
浴衣	-11.2799
金の	-11.28
エステサロン	-11.28
トレーナー	-11.2803
交流会	-11.2803
申し上げ	-11.2804
世代の	-11.2804
それこそ	-11.2805
満足しています	-11.2806
各自	-11.2806
行為を	-11.2808
はまったく	-11.2809
もうひとつ	-11.281
につきまして	-11.2811
スピ	-11.2811
寮	-11.2812
身の	-11.2813
実務	-11.2813
退会	-11.2814
存在しない	-11.2814
はまだまだ	-11.2814
責め	-11.2814
お姉さん	-11.2815
ざる	-11.2816
モジュール	-11.2816
この曲	-11.2816
の最新	-11.2817
対応を	-11.2817
を増やして	-11.2819
駄目	-11.282
借金を	-11.2822
こともなく	-11.2825
スパイ	-11.2825
する予定	-11.2826
ユニ	-11.2826
後期	-11.2826
ギリギリ	-11.2826
する場合があります	-11.2827
当サイトで紹介している	-11.2827
を制作	-11.2828
ふく	-11.2828
楽に	-11.2829
様子を	-11.2832
▁お問い合わせ	-11.2833
福岡市	-11.2833
自社の	-11.2833
▁普通の	-11.2834
穏やかな	-11.2834
マイク	-11.2834
目を向け	-11.2836
優秀	-11.2836
▁秋	-11.2837
飼	-11.2837
定休日	-11.2837
ッキー	-11.2837
みようと思います	-11.2838
を加えて	-11.2838
洗濯機	-11.2838
なんですよ	-11.2839
ことができるでしょう	-11.2839
済ませ	-11.284
ちゃって	-11.284
カリキュラム	-11.2841
ってのは	-11.2843
の方には	-11.2843
清水	-11.2843
即日融資	-11.2845
えた	-11.2845
▁普段は	-11.2846
加熱	-11.2846
利用者が	-11.2847
スは	-11.2847
来月	-11.2849
キリスト	-11.285
も増え	-11.2851
ピザ	-11.2851
を購入した	-11.2853
桁	-11.2853
髪を	-11.2853
うこと	-11.2854
頑張り	-11.2855
鍼灸	-11.2856
▁100	-11.2856
状態が	-11.2857
大量	-11.2858
審査に	-11.2858
個の	-11.2861
理由が	-11.2862
88	-11.2862
のかも	-11.2864
確実な	-11.2864
遅延	-11.2864
が低下し	-11.2865
リセット	-11.2866
4000	-11.2866
内容について	-11.2866
参考にして	-11.2867
▁(1)	-11.2867
権力	-11.2869
雰囲気が	-11.2869
集まった	-11.2869
裸	-11.287
Blu	-11.2871
次世代	-11.2871
ことがわかりました	-11.2872
酸化	-11.2873
機材	-11.2875
更なる	-11.2875
忙しくて	-11.2876
入札	-11.2876
であるが	-11.2877
肥満	-11.2877
▁それも	-11.2877
ボート	-11.2877
を引き起こす	-11.2878
頑張る	-11.2878
社員の	-11.2878
ことが大事	-11.2879
がなくなる	-11.2882
ゴールデンウィーク	-11.2882
らん	-11.2882
SSL	-11.2882
感性	-11.2883
岡山県	-11.2884
栃木県	-11.2885
考察	-11.2886
▁本当は	-11.2887
大事なこと	-11.2887
は無く	-11.2888
やま	-11.2888
ブレーキ	-11.289
を生み出	-11.2891
ドロップ	-11.2892
が広がって	-11.2893
になっていく	-11.2893
いたしております	-11.2894
見られない	-11.2894
中村	-11.2895
製品は	-11.2895
捨てる	-11.2897
その点	-11.2897
自律神経	-11.2898
帰った	-11.2899
を売る	-11.29
価値がある	-11.2901
すと	-11.2903
人なら	-11.2904
誠に	-11.2905
になるまで	-11.2906
▁もっとも	-11.2906
のご依頼	-11.2908
モチーフ	-11.2908
への対応	-11.291
肺	-11.291
納め	-11.2912
ご迷惑をおかけし	-11.2914
挿入	-11.2915
精神的に	-11.2916
伝えた	-11.2918
開花	-11.2918
肩こり	-11.2919
規模の	-11.292
冠	-11.2921
エキス	-11.2922
まえ	-11.2924
予告	-11.2924
になってきます	-11.2925
お好みの	-11.2926
の平均	-11.2926
だろうな	-11.2926
が悪く	-11.2927
▁明日は	-11.2928
高収入	-11.2928
しようと思います	-11.2929
運び	-11.2929
▁台風	-11.2929
ロケーション	-11.293
未満	-11.2931
皮脂	-11.2931
を入力する	-11.2931
感じがします	-11.2932
を聞き	-11.2932
観光スポット	-11.2933
を務め	-11.2935
乃木坂	-11.2935
期間中に	-11.2936
ものだった	-11.2936
を動かす	-11.2936
前まで	-11.2937
個別に	-11.2937
フライト	-11.2938
ってしまいました	-11.2939
復縁	-11.2939
写真を撮る	-11.2941
なってきています	-11.2942
ソニー	-11.2942
お疲れ様でした	-11.2942
近くにある	-11.2943
スタンダード	-11.2946
デザインを	-11.2947
総合的に	-11.2949
すべてが	-11.2949
▁南	-11.295
が残って	-11.295
還元	-11.295
国内の	-11.2952
家が	-11.2952
正式に	-11.2956
に関しても	-11.2958
身体が	-11.2958
コム	-11.2958
血糖値	-11.296
GI	-11.2961
披露	-11.2961
混ぜ	-11.2961
はいない	-11.2962
する予定です	-11.2963
していただきます	-11.2963
ベー	-11.2964
ネーム	-11.2965
ご注意	-11.2966
コマ	-11.2967
目線	-11.2969
の一つとして	-11.297
▁不動産	-11.2971
やりがい	-11.2972
治療薬	-11.2973
02	-11.2973
だけなので	-11.2973
▁(※	-11.2974
の中身	-11.2975
死に	-11.2975
▁f	-11.2976
▁親	-11.2976
オンラインショッピング	-11.2977
カツ	-11.2977
▁今週	-11.298
折れ	-11.2982
わからなかった	-11.2982
▁上	-11.2983
メンタル	-11.2983
我々は	-11.2983
サービスで	-11.2985
ガル	-11.2986
街中	-11.2987
知識を	-11.2987
大臣	-11.2987
の勉強	-11.2987
先週	-11.2988
だからです	-11.2988
新商品	-11.2989
SO	-11.2989
息子が	-11.2991
寺院	-11.2992
ラボ	-11.2992
BookLive	-11.2992
憧れ	-11.2994
放題	-11.2995
確認できる	-11.2996
しまったので	-11.2998
読み放題	-11.2998
をうまく	-11.2999
もあるのです	-11.3
潰	-11.3001
無理な	-11.3001
丹	-11.3002
ジャック	-11.3003
ッキング	-11.3004
データが	-11.3004
話せる	-11.3004
パソコンの	-11.3005
添加物	-11.3006
土曜	-11.3007
周年を迎え	-11.3008
の部屋	-11.3008
支店	-11.3009
も見	-11.301
辞書	-11.3012
無難	-11.3012
ハンドル	-11.3014
続いた	-11.3014
名古屋市	-11.3018
耐震	-11.302
と言われます	-11.3021
を検討している	-11.3021
日以降	-11.3022
しないでください	-11.3023
がお	-11.3024
という印象	-11.3024
録	-11.3025
▁ここの	-11.3025
システムを	-11.3025
の整備	-11.3026
事が出来	-11.3027
事前の	-11.3027
欲しかった	-11.3027
のお客様は	-11.3029
♡	-11.3029
もらえ	-11.3029
話を聞く	-11.303
が集まり	-11.303
空間で	-11.3034
GW	-11.3034
咲	-11.3035
デル	-11.3035
全てが	-11.3036
に向け	-11.3037
深さ	-11.3038
商品です	-11.3038
を搭載	-11.304
会館	-11.3041
に出かけ	-11.3042
来院	-11.3043
現場の	-11.3043
アンテナ	-11.3043
説明書	-11.3044
得点	-11.3046
を取り戻	-11.3046
バストアップ	-11.3047
▁わたしは	-11.305
含んで	-11.305
論理	-11.3051
が終わって	-11.3052
万全	-11.3052
車種	-11.3054
のレッスン	-11.3055
担	-11.3056
寒く	-11.3057
カードは	-11.3057
大和	-11.3058
最強	-11.3058
を応援	-11.3058
どういうこと	-11.306
集会	-11.3062
ッパー	-11.3063
ょ	-11.3064
に関わらず	-11.3065
書面	-11.3067
行うこと	-11.3067
株主	-11.3067
できるようになった	-11.3068
▁次回は	-11.3068
をお持ちの方	-11.3068
を促す	-11.3069
を遂げ	-11.307
スカイ	-11.3071
リース	-11.3072
▁そのためには	-11.3072
の関係で	-11.3072
が付いている	-11.3074
状況が	-11.3074
ac	-11.3075
迷って	-11.3079
くらいです	-11.3079
メンバーが	-11.308
微妙な	-11.308
まちづくり	-11.308
関与	-11.3081
喧嘩	-11.3082
豪雨	-11.3082
▁久しぶりに	-11.3083
わけではないので	-11.3084
時間以上	-11.3086
などにより	-11.309
養成	-11.309
▁どちらも	-11.3091
初めての方	-11.3091
っちゃ	-11.3092
ナッツ	-11.3092
生の	-11.3092
必死	-11.3094
を開催いたします	-11.3094
プロミス	-11.3094
であることは	-11.3097
ポール	-11.3097
戻って	-11.3097
オランダ	-11.3097
偉	-11.3099
と違い	-11.31
▁ホーム	-11.3101
シーンで	-11.3101
匿名	-11.3101
の選択	-11.3102
ハードル	-11.3103
来日	-11.3104
▁プロ	-11.3105
の写真を	-11.3106
撮る	-11.3107
四国	-11.3107
無料コミック	-11.3108
終え	-11.311
の一覧	-11.3111
名は	-11.3111
と同じく	-11.3112
が入り	-11.3113
があるかもしれません	-11.3114
に対応した	-11.3114
限られた	-11.3114
高橋	-11.3114
日午後	-11.3114
▁カ	-11.3116
われて	-11.3117
を提供します	-11.3117
85	-11.3118
天使	-11.3122
に取り組んで	-11.3124
セイ	-11.3124
行かれ	-11.3125
ウィン	-11.3126
大人気	-11.3127
修行	-11.3133
でもいい	-11.3133
絡	-11.3133
高血圧	-11.3133
女性も	-11.3134
その通り	-11.3135
客観的に	-11.3138
わかっている	-11.3138
と合わせて	-11.3139
付く	-11.314
主催の	-11.3142
が落ちて	-11.3143
ふり	-11.3143
イク	-11.3145
催	-11.3146
創立	-11.3146
お店を	-11.3146
テック	-11.3148
art	-11.3149
んじゃないでしょうか	-11.315
▁主に	-11.315
母の	-11.315
外に出	-11.3151
全てを	-11.3152
▁弊社は	-11.3154
日本全国	-11.3154
を選び	-11.3155
▁昔は	-11.3155
老舗	-11.3155
美味しかったです	-11.3155
〇	-11.3156
運営している	-11.3157
高くなります	-11.3158
頑張っている	-11.3159
(4	-11.3159
てしまっている	-11.3159
Ex	-11.316
ve	-11.3163
ip	-11.3163
腫れ	-11.3163
ガラ	-11.3164
が大好きな	-11.3166
ホテルで	-11.3168
スタッフに	-11.3168
事業を	-11.3168
追記	-11.3169
入ってくる	-11.317
あわせ	-11.317
手がけ	-11.317
口を	-11.3171
によっても	-11.3171
コル	-11.3172
したのか	-11.3172
伸ば	-11.3173
▁さすがに	-11.3174
尚	-11.3174
と一緒	-11.3174
車は	-11.3174
受給	-11.3175
でなく	-11.3176
を集め	-11.3177
履歴書	-11.3179
のうちに	-11.318
とんでもない	-11.318
DI	-11.3182
髪型	-11.3183
を避ける	-11.3184
友達の	-11.3184
のやり方	-11.3184
大ヒット	-11.3185
セフレ募集	-11.3185
たのですが	-11.3186
っていうのは	-11.3186
母が	-11.3187
次の日	-11.3188
意外な	-11.3189
は初めて	-11.319
救急	-11.319
ことが判明	-11.319
95	-11.319
などがあります	-11.3191
しませんでした	-11.3192
方など	-11.3192
ウム	-11.3193
を見ることができます	-11.3195
、[	-11.3195
君は	-11.3196
た上で	-11.3196
▁24	-11.3198
つら	-11.3199
監督の	-11.3199
紙の	-11.3199
ぜひ一度	-11.32
家づくり	-11.32
眼鏡	-11.32
ものなのか	-11.3201
連盟	-11.3201
▁>>	-11.3203
整体	-11.3203
を取った	-11.3203
どうなるか	-11.3204
尽き	-11.3205
をつけた	-11.3205
充分	-11.3207
▁–	-11.3207
頼んで	-11.3207
明日の	-11.3208
たとえば	-11.3208
の協力	-11.3211
したことで	-11.3213
落ち着き	-11.3213
必要はない	-11.3214
融合	-11.3216
その内容	-11.3216
は他の	-11.3217
記事が	-11.3217
保つ	-11.3219
のは当然	-11.3219
仕事や	-11.3219
強調	-11.3219
ベンチ	-11.322
値段で	-11.3221
潤	-11.3221
(^^)	-11.3221
地で	-11.3222
になってきました	-11.3222
77	-11.3223
どんなもの	-11.3223
降りて	-11.3223
は必須	-11.3224
▁一般的な	-11.3225
が起きる	-11.3225
のとき	-11.3226
つです	-11.3226
扱う	-11.3227
潔	-11.3228
を残す	-11.323
こともあるので	-11.3231
しき	-11.3231
ランプ	-11.3232
遭遇	-11.3233
現実に	-11.3233
NI	-11.3234
目撃	-11.3234
静岡	-11.3234
もらえた	-11.3234
今週末	-11.3234
いうと	-11.3235
する上で	-11.3235
誤り	-11.3235
分ける	-11.3236
...!	-11.3239
ことを考えると	-11.3239
調味料	-11.3239
ご確認下さい	-11.324
オンラインショップ	-11.324
在住	-11.3241
の見直し	-11.3244
なんですけど	-11.3245
▁いろいろな	-11.3245
蓮	-11.3245
常時	-11.3246
仮に	-11.3246
を覚えて	-11.3247
一般に	-11.3247
巨大	-11.3247
西日本	-11.3248
こちらの商品は	-11.3249
各地で	-11.3249
があるのは	-11.325
予めご了承下さい	-11.325
精進	-11.3251
撮れ	-11.3251
ジュエリー	-11.3251
以前は	-11.3252
産後	-11.3253
人々に	-11.3254
を傷つけ	-11.3254
▁だって	-11.3255
側で	-11.3255
当たる	-11.3256
脂	-11.3256
エリアで	-11.3256
待ち時間	-11.3257
就活	-11.3257
たいてい	-11.3257
塗って	-11.3259
買え	-11.3259
相続税	-11.326
の設置	-11.326
おこう	-11.3262
がきっかけで	-11.3263
のよい	-11.3263
出された	-11.3263
と呼ぶ	-11.3263
の大きな	-11.3263
化し	-11.3263
を整える	-11.3264
どちらかというと	-11.3264
見せる	-11.3265
ue	-11.3268
がついた	-11.3269
仕方	-11.327
影響を与える	-11.3271
の支援	-11.3271
に包まれ	-11.3274
に成功	-11.3274
ウェ	-11.3275
自分の好きな	-11.3275
▁TV	-11.3276
されていること	-11.3276
リーズナブルな	-11.3276
で撮影	-11.3276
る必要があります	-11.3277
を守って	-11.3277
▁毎月	-11.3279
フランスの	-11.3279
に関心	-11.328
を提供し	-11.328
を注文	-11.3281
遺言	-11.3281
代目	-11.3283
あんな	-11.3284
だか	-11.3284
柔らかく	-11.3284
本文	-11.3285
がまだ	-11.3285
外側	-11.3285
あう	-11.3286
ビス	-11.3286
目の前の	-11.3286
恒例の	-11.3286
お見合い	-11.3287
に渡って	-11.3288
の移動	-11.3288
▁海	-11.329
カス	-11.329
競	-11.329
の期間	-11.329
してあげる	-11.329
In	-11.329
用事	-11.329
流し	-11.3291
締め	-11.3294
▁マ	-11.3295
さずに	-11.3295
気付き	-11.3296
生命保険	-11.3297
ことが出来	-11.3298
▁このたび	-11.3298
悔	-11.3299
人格	-11.3299
帽子	-11.33
で有名な	-11.3301
シス	-11.3302
ございません	-11.3302
App	-11.3304
に出席	-11.3307
会社員	-11.3308
を必要とし	-11.3309
～10	-11.3309
変化する	-11.3309
望む	-11.331
を手に入れ	-11.3311
高校の	-11.3312
ものだと	-11.3313
しばしば	-11.3313
一同	-11.3313
ターン	-11.3313
Ch	-11.3314
ヨーグルト	-11.3316
うか	-11.3317
カウンセラー	-11.3318
健康診断	-11.3319
ご連絡を	-11.3319
ドゥ	-11.332
BC	-11.3321
会いたい	-11.3321
扱っている	-11.3323
を決めた	-11.3324
骨盤	-11.3325
クラフト	-11.3326
留守	-11.3326
がとれ	-11.3326
この度	-11.3327
るだけ	-11.3327
の誕生日	-11.3328
ray	-11.3329
出演者	-11.333
好意	-11.333
バグ	-11.333
食事の	-11.3332
ウォッチ	-11.3332
額を	-11.3333
の再	-11.3334
最低限の	-11.3336
ご了承下さい	-11.3337
ダメな	-11.3337
豊かに	-11.3338
積極的な	-11.3338
試してみる	-11.3338
歩いている	-11.3338
確信	-11.3338
分けて	-11.3339
を広げ	-11.3339
するだけ	-11.334
DL	-11.334
ノリ	-11.334
して頂き	-11.334
を狙って	-11.334
▁私の場合	-11.3342
ライダー	-11.3345
座り	-11.3345
いいのですが	-11.3346
社会に	-11.3346
を掛け	-11.3346
ているのか	-11.3351
▁応募	-11.3354
あなたも	-11.3354
を深め	-11.3355
八幡	-11.3355
忘れた	-11.3356
荘	-11.3356
スタッフは	-11.3358
整骨院	-11.3358
`)	-11.3359
にご	-11.336
研究室	-11.336
館内	-11.3362
イメージを	-11.3363
を生み出す	-11.3365
無料体験	-11.3367
ならなかった	-11.3367
ご入力	-11.3368
対象外	-11.3368
口臭	-11.3368
ドロ	-11.3369
埼玉	-11.3373
見ることができます	-11.3373
行われました	-11.3374
短期間で	-11.3374
連動	-11.3375
がつかない	-11.3376
ビジュアル	-11.3376
念のため	-11.3378
出てきます	-11.3379
いち	-11.3381
方々の	-11.3381
誘	-11.3383
おっしゃって	-11.3383
んでしょう	-11.3383
に変換	-11.3384
の処理	-11.3385
過程で	-11.3385
種類があります	-11.3386
いるのに	-11.3386
へ行って	-11.3388
改造	-11.3388
幸せに	-11.3388
ことが大事です	-11.3389
週間ほど	-11.3389
就労	-11.339
リアン	-11.3391
頂	-11.3392
光の	-11.3393
使われて	-11.3397
やりとり	-11.3398
に期待	-11.3399
迷惑をかけ	-11.3399
だなぁ	-11.34
ほんとに	-11.3401
んじゃないの	-11.3401
紛争	-11.3401
がい	-11.3401
推薦	-11.3402
穏やか	-11.3405
お墓	-11.3405
ツー	-11.3406
無理に	-11.3406
を支払う	-11.3406
共演	-11.3407
〜!	-11.3409
▁2008	-11.341
目的の	-11.3412
がない場合は	-11.3413
あげた	-11.3414
制約	-11.3414
向かって	-11.3415
ここの	-11.3415
カ国	-11.3415
方法や	-11.3415
見事に	-11.3417
とは別に	-11.3418
ハッキリ	-11.3419
▁というか	-11.3421
によって異なります	-11.3421
消し	-11.3421
人として	-11.3423
五輪	-11.3424
ゆったりと	-11.3424
を少し	-11.3425
が追加され	-11.3425
▁最後の	-11.3426
まらない	-11.3426
フラッシュ	-11.3427
イノベーション	-11.3427
ことはありませんか	-11.3428
以前より	-11.3429
万ドル	-11.343
イスラエル	-11.3432
に沿った	-11.3432
サポーター	-11.3432
分かっている	-11.3434
ホッと	-11.3434
▁駐車場	-11.3435
大変です	-11.3436
試行錯誤	-11.3437
▁ビジネス	-11.3437
年賀状	-11.3439
メキシコ	-11.344
しているもの	-11.344
並み	-11.3441
注目されている	-11.3441
期間限定で	-11.3442
単純	-11.3443
に対応する	-11.3445
薬の	-11.3445
定期的な	-11.3446
▁妊娠	-11.3447
嘆	-11.3448
使われています	-11.3448
どちらが	-11.3449
blog	-11.3449
がメイン	-11.3449
▁この時	-11.345
を考慮して	-11.345
ケット	-11.345
を受けられる	-11.345
気にならない	-11.3453
霧	-11.3453
家の中	-11.3454
ご指定	-11.3454
優しさ	-11.3455
sp	-11.3456
点数	-11.3456
面白さ	-11.3457
お考え	-11.3458
地方の	-11.3458
できないこと	-11.3459
の特性	-11.3461
の買取	-11.3461
GA	-11.3461
を抱えている	-11.3465
ユーザーは	-11.3466
言葉は	-11.3468
万一	-11.3468
見ていた	-11.3469
年ほど	-11.3469
以降は	-11.3473
経験がある	-11.3474
を示した	-11.3474
にすると	-11.3476
卒業生	-11.3477
お待ちしています	-11.3478
スポンサー	-11.3478
ネック	-11.3479
で購入する	-11.3479
のことで	-11.3481
の心	-11.3481
未経験	-11.3481
しましたので	-11.3481
日間の	-11.3481
本学	-11.3483
テレビ番組	-11.3484
トンネル	-11.3484
に合わせ	-11.3484
be	-11.3485
NE	-11.3486
僕も	-11.3487
研究開発	-11.3489
セリフ	-11.349
をクリックしてください	-11.3491
本物	-11.3492
短時間で	-11.3492
知っています	-11.3494
してあります	-11.3496
に力を入れ	-11.3496
間違っている	-11.3496
シナリオ	-11.3497
のとおり	-11.3497
かどうかを	-11.3497
聞かれる	-11.35
専門医	-11.3502
点です	-11.3504
見積り	-11.3504
燃え	-11.3505
を払う	-11.3505
外見	-11.3506
日帰り	-11.3506
高かった	-11.3506
シェル	-11.3506
飲み放題	-11.3507
2.5	-11.3507
楽しそう	-11.3507
スコ	-11.3507
損害賠償	-11.3508
イイ	-11.3508
年に一度	-11.3509
語学	-11.3509
貸切	-11.3509
ございました	-11.3513
、2013	-11.3513
そのとき	-11.3513
都心	-11.3514
彼女と	-11.3515
を楽しみたい	-11.3516
®	-11.3517
とは異なる	-11.3519
青汁	-11.3519
いなかったので	-11.352
ol	-11.352
上り	-11.352
構いません	-11.3521
どん	-11.3522
方もいらっしゃる	-11.3523
をご参照ください	-11.3524
前向きに	-11.3525
夏に	-11.3525
傾向にある	-11.3526
という意見	-11.3526
年後の	-11.3526
子も	-11.3527
コンタクト	-11.3528
の各	-11.3529
正確	-11.3529
自宅の	-11.353
がほとんどです	-11.3531
98	-11.3531
浜松	-11.3531
販売されています	-11.3532
してきて	-11.3532
貼	-11.3532
資本	-11.3533
持っていく	-11.3533
加盟	-11.3534
縮小	-11.3535
年より	-11.3537
運送	-11.3537
国が	-11.3537
トピック	-11.3539
全体に	-11.354
全世界	-11.354
チームが	-11.3544
にしろ	-11.3544
からすると	-11.3545
日に発売	-11.3546
ゆったり	-11.3546
1990	-11.3546
62	-11.3547
ity	-11.3548
洲	-11.3548
アップグレード	-11.3548
目の前で	-11.3548
等について	-11.3548
自分達	-11.3549
目が覚め	-11.3549
たいと思う	-11.355
ce	-11.355
足元	-11.3551
裕	-11.3551
名前は	-11.3552
価格の	-11.3552
プレゼン	-11.3555
▁◎	-11.3556
が運営する	-11.3557
我が家の	-11.3557
行けない	-11.3558
しまうので	-11.3559
景	-11.3559
SI	-11.3559
とは異なり	-11.356
続けられる	-11.356
の低下	-11.3561
極端に	-11.3563
▁まさに	-11.3563
米軍	-11.3564
すぎない	-11.3564
プー	-11.3564
お盆	-11.3564
戸建	-11.3565
内臓	-11.3566
がございますので	-11.3566
アイディア	-11.3566
外交	-11.3566
扱って	-11.3567
リアルタイム	-11.3567
EU	-11.3568
人は多い	-11.3569
慢性	-11.357
助成	-11.3571
コンクリート	-11.3572
と言うと	-11.3573
にはなりません	-11.3575
チャージ	-11.3575
期待しています	-11.3576
▁当社では	-11.3576
▁ID	-11.3576
検出	-11.3576
院長	-11.3578
ものづくり	-11.3579
ネタバレ	-11.3579
見守って	-11.3579
ッタ	-11.358
川の	-11.358
癒され	-11.358
▁画像	-11.358
に分けて	-11.358
をリリース	-11.3582
日本人が	-11.3582
調和	-11.3583
ストック	-11.3584
させてくれる	-11.3584
との交流	-11.3585
高価な	-11.3585
...?	-11.3586
浮気調査	-11.3586
その中でも	-11.3586
を有効に	-11.3587
登録して	-11.3588
だと思っている	-11.3588
輝く	-11.3588
関係性	-11.3589
レディース	-11.359
を感じました	-11.359
来年も	-11.3591
迫力	-11.3591
たい方	-11.3592
が届く	-11.3592
と聞くと	-11.3596
の日程	-11.3598
下痢	-11.3599
レモン	-11.3599
ストレスが	-11.3602
をあげて	-11.3603
何人か	-11.3603
の約	-11.3604
を着て	-11.3604
最悪	-11.3607
▁ま	-11.3608
を飲み	-11.3608
フォームより	-11.361
▁(2)	-11.361
をどのように	-11.3611
▁オ	-11.3611
推移	-11.3612
世に	-11.3612
清潔	-11.3612
鹿児島県	-11.3613
来ます	-11.3613
360	-11.3614
セブン	-11.3614
を募集	-11.3614
でも安心して	-11.3615
の皆様に	-11.3616
見かけた	-11.3616
日焼け	-11.3616
地面	-11.3617
少なかった	-11.3619
劇場版	-11.362
揃って	-11.3621
手前	-11.3621
ミラー	-11.3621
ight	-11.3621
よろしければ	-11.3622
倍の	-11.3622
入門	-11.3624
なのかもしれない	-11.3625
あたりの	-11.3626
タンク	-11.3626
平日の	-11.3626
を必要とする	-11.3627
様々	-11.3627
真の	-11.3628
▁全ての	-11.3629
までの間	-11.3631
下取り	-11.3632
の申し込み	-11.3632
お待たせ	-11.3632
取得した	-11.3633
ご覧いただけます	-11.3633
中華	-11.3633
ab	-11.3634
を開けて	-11.3635
バリエーション	-11.3635
税抜	-11.3635
狙	-11.3636
個人で	-11.3637
と感じている	-11.3637
浮気を	-11.3637
儀	-11.3638
考えられない	-11.3638
締め切り	-11.3638
の作り方	-11.364
建築物	-11.3641
▁仮に	-11.3641
潤い	-11.3641
帰りに	-11.3642
は無料です	-11.3644
会は	-11.3645
DE	-11.3646
フェイスブック	-11.3646
最低でも	-11.3648
反面	-11.365
のあり方	-11.3651
日本が	-11.3655
集計	-11.3655
るから	-11.3656
交通費	-11.3656
洗う	-11.3658
者様	-11.3658
の詳細は	-11.3661
シップ	-11.3662
美味しさ	-11.3662
を徹底	-11.3663
処理を	-11.3663
引き出し	-11.3664
なのでしょう	-11.3664
協	-11.3665
仕事も	-11.3666
ive	-11.3666
をご紹介いたします	-11.3667
KI	-11.3668
で使う	-11.3668
息子の	-11.3668
米国の	-11.3669
▁電話	-11.3671
こんな感じで	-11.3672
シニア	-11.3673
理由として	-11.3673
急激に	-11.3673
圧倒的な	-11.3674
と思ってる	-11.3675
をサポートする	-11.3677
値段が	-11.3679
日本語で	-11.3682
省略	-11.3682
なったら	-11.3683
空室	-11.3683
したい場合は	-11.3685
使用した	-11.3685
の実施	-11.3685
だけれど	-11.3685
4/	-11.3687
▁©	-11.3688
つくり	-11.3689
ことがありました	-11.369
UI	-11.369
機会があれば	-11.3691
手に入れる	-11.3691
勢力	-11.3693
写真撮影	-11.3695
買取価格	-11.3695
椎	-11.3696
に興味がある	-11.3696
で見た	-11.3697
▁そうすると	-11.3697
になってる	-11.3697
きょう	-11.3699
肝臓	-11.3699
伊藤	-11.3701
ガチャ	-11.3702
の出会い	-11.3702
見かける	-11.3702
脅威	-11.3703
を過ぎて	-11.3703
芝	-11.3704
見れる	-11.3705
立っている	-11.3705
▁漫画	-11.3705
の金額	-11.3706
マネー	-11.3706
はどのように	-11.3706
求められ	-11.3707
もっともっと	-11.3707
が始まって	-11.3707
視覚	-11.3708
交差点	-11.3709
市役所	-11.3709
▁一応	-11.3709
したいと思っています	-11.3709
ない人	-11.3709
プラザ	-11.371
依頼を	-11.371
が認められ	-11.3714
有効期限	-11.3714
山本	-11.3716
含まれている	-11.3716
してみて下さい	-11.3716
技術力	-11.3716
必要ない	-11.3716
救	-11.3717
として活躍	-11.3717
のよ	-11.3717
モリ	-11.3718
▁どうやら	-11.3718
気付いた	-11.3719
,500	-11.3719
ているため	-11.3719
殺人	-11.372
これって	-11.372
お薬	-11.3722
町に	-11.3722
舎	-11.3723
携	-11.3724
)』	-11.3724
▁ずっと	-11.3724
▁すぐに	-11.3725
も大変	-11.3727
書きます	-11.3729
債権	-11.3729
通い	-11.373
今後とも	-11.3731
掛かる	-11.3731
は多く	-11.3732
ばれ	-11.3732
添	-11.3733
とも言える	-11.3734
って事	-11.3736
残る	-11.3737
お読み	-11.3737
あらためて	-11.3737
接近	-11.3738
未だに	-11.3738
マジ	-11.3739
現時点で	-11.374
増大	-11.3742
反射	-11.3742
漬け	-11.3743
お知らせください	-11.3743
どり	-11.3745
日午前	-11.3745
IE	-11.3745
ちょっとだけ	-11.3746
赤ちゃんが	-11.3746
セールス	-11.3748
国で	-11.3749
継	-11.3749
大企業	-11.3751
本校	-11.3752
全国に	-11.3752
長野	-11.3753
車内	-11.3754
届け	-11.3754
の調整	-11.3755
と主張	-11.3758
られるよう	-11.3759
だったから	-11.376
咲き	-11.3761
ウル	-11.3762
状況は	-11.3763
してきましたが	-11.3763
体系	-11.3764
電車で	-11.3764
号線	-11.3764
と考えられています	-11.3764
の審査	-11.3766
たまには	-11.3766
仲間と	-11.3766
が起きた	-11.3767
繋がって	-11.3767
財務	-11.3767
▁動画	-11.3768
▁通常の	-11.3768
複合	-11.3768
▁the	-11.3768
顧問	-11.3769
さほど	-11.377
と思っても	-11.3771
欠点	-11.3771
Con	-11.3771
衆	-11.3772
指定した	-11.3772
久しぶりの	-11.3773
休止	-11.3774
あげたい	-11.3775
違って	-11.3776
経つ	-11.3776
罰	-11.3776
が見つかる	-11.3777
を学んで	-11.3777
を目的とした	-11.3778
家は	-11.3778
登場する	-11.3778
貧困	-11.3779
民主党	-11.3779
どこかに	-11.3779
ダイニング	-11.3779
▁40	-11.3779
ブライダル	-11.3779
普段は	-11.378
贅沢	-11.378
も同様	-11.378
待遇	-11.378
響	-11.3781
ることを	-11.3784
妥当	-11.3784
グレード	-11.3786
んだと思います	-11.3786
費や	-11.3786
を聞いた	-11.3786
参入	-11.3787
した後に	-11.3788
▁お金	-11.3788
返却	-11.3789
ホント	-11.3789
を立てて	-11.3791
^)	-11.3791
のタイトル	-11.3791
並びに	-11.3792
為替	-11.3792
完結	-11.3794
見ました	-11.3794
なにより	-11.3795
返還	-11.3796
NTT	-11.3796
を設立	-11.3796
のチェック	-11.3797
会社から	-11.3797
スプレー	-11.3797
を表示する	-11.38
信じる	-11.38
ロビー	-11.3801
ことを考えて	-11.3802
とも言われ	-11.3802
政府の	-11.3802
肥	-11.3803
小学校の	-11.3803
エネルギーを	-11.3804
どうでしょうか	-11.3806
と考えられる	-11.3807
値を	-11.3809
木曜日	-11.381
ご自分の	-11.3812
が届きました	-11.3812
の代わりに	-11.3812
フィギュア	-11.3813
惹かれ	-11.3814
▁No	-11.3815
進展	-11.3816
清潔感	-11.3817
いるため	-11.3817
望み	-11.3817
脳の	-11.3817
言い訳	-11.3818
判断する	-11.3818
という言葉を	-11.3819
友だち	-11.3819
返り	-11.3819
～8	-11.3821
数分	-11.3821
おススメ	-11.3823
ですかね	-11.3823
多様化	-11.383
気にしない	-11.3831
しまして	-11.3831
傍	-11.3831
致	-11.3831
不安定	-11.3831
発酵	-11.3832
赤字	-11.3832
——	-11.3832
旅の	-11.3833
店頭で	-11.3834
親しまれ	-11.3834
考えられ	-11.3835
口の中	-11.3836
圧迫	-11.3836
される方は	-11.3836
パーセント	-11.3837
ムラ	-11.3838
する際は	-11.3838
メンバーの	-11.3838
申し訳ありません	-11.3839
IR	-11.384
かしら	-11.384
いるのが	-11.3841
コンテンツを	-11.3842
を始めました	-11.3842
二度と	-11.3843
小屋	-11.3843
ことが多いので	-11.3843
ので注意が必要です	-11.3844
枚数	-11.3844
ケアを	-11.3845
剥	-11.3845
来てくれた	-11.3846
女性を	-11.3847
リフト	-11.3848
して頂く	-11.3848
お客様へ	-11.3849
少人数	-11.3849
ほっと	-11.385
悟	-11.385
視力	-11.3851
トルコ	-11.3852
脚本	-11.3852
落ちた	-11.3853
が発生します	-11.3853
お世話になりました	-11.3854
なくては	-11.3854
はそれほど	-11.3855
パッチ	-11.3855
できないので	-11.3856
出せない	-11.3858
▁又	-11.3859
を取得する	-11.386
を見てみると	-11.3862
のところに	-11.3863
所定の	-11.3863
方もいる	-11.3863
▁万が一	-11.3864
▁米	-11.3865
締結	-11.3867
と話し	-11.3868
翌年	-11.3868
かける	-11.3869
視聴率	-11.3869
出ない	-11.3871
が人気	-11.3871
坊	-11.3875
当局	-11.3876
スルー	-11.3876
たい方は	-11.3877
大満足	-11.3878
暖房	-11.3879
を使っています	-11.3879
シェフ	-11.3879
▁色々な	-11.3879
ぶん	-11.388
▁今から	-11.388
を繰り返す	-11.388
のファン	-11.388
意味がない	-11.388
を止め	-11.388
復	-11.3885
お肌に	-11.3886
が起こり	-11.3887
ボタンを	-11.3891
の必要性	-11.3892
思うように	-11.3893
ョ	-11.3893
シャル	-11.3897
インク	-11.3899
度目の	-11.3899
食べている	-11.3899
幼児	-11.39
青森県	-11.39
んだが	-11.3902
お仕事を	-11.3904
出せ	-11.3904
防水	-11.3905
瞬間に	-11.3906
リアルタイムで	-11.3906
過ぎると	-11.3906
ラウンド	-11.3906
を覚える	-11.3907
さんで	-11.3907
雨の日	-11.3908
が出来た	-11.3908
ake	-11.3908
それよりも	-11.3909
▁他に	-11.3912
へのリンク	-11.3912
の声が	-11.3913
を構え	-11.3913
操	-11.3914
を浴び	-11.3914
ステータス	-11.3916
気象	-11.3916
うえ	-11.3917
を合わせて	-11.3917
にあって	-11.3917
をつくって	-11.3917
関係が	-11.3917
名誉	-11.3917
知らない人	-11.3917
チェックしてみてください	-11.3918
グラム	-11.3918
料金の	-11.3919
かき	-11.392
柏	-11.392
好奇心	-11.392
見られます	-11.392
かれて	-11.392
を十分に	-11.3921
学生が	-11.3921
岳	-11.3922
51	-11.3923
開幕	-11.3924
おしゃべり	-11.3924
麗	-11.3924
歌を	-11.3925
バブル	-11.3926
さらには	-11.3927
王子	-11.3927
非常	-11.3928
描く	-11.3928
以内に	-11.3928
秘め	-11.3928
代表取締役社長	-11.3928
家族や	-11.3929
と感じて	-11.3931
年後に	-11.3932
が高くなる	-11.3932
あなた自身	-11.3932
に欠かせない	-11.3932
イケメン	-11.3932
払	-11.3932
発売される	-11.3933
見たら	-11.3934
....	-11.3934
もよい	-11.3935
プロフェッショナル	-11.3935
が好きです	-11.3935
を結ぶ	-11.3936
内容や	-11.3937
育ち	-11.394
変わりません	-11.394
に引き続き	-11.3941
航空会社	-11.3942
父の	-11.3942
砲	-11.3945
けん	-11.3947
暑	-11.3947
▁黒	-11.3947
と思ったのですが	-11.3948
を育て	-11.3953
がありませんでした	-11.3953
にお住まいの方	-11.3954
にしたい	-11.3955
収容	-11.3956
▁下	-11.3956
涼しく	-11.3957
下記の通り	-11.3957
銀行振込	-11.3958
で買う	-11.3959
抜く	-11.3959
場合の	-11.3959
KA	-11.396
予備	-11.396
お約束	-11.3961
育てて	-11.3962
資料請求	-11.3963
を参照してください	-11.3963
▁次は	-11.3963
主役	-11.3964
shi	-11.3966
効果を発揮	-11.3966
見れば	-11.3968
連続で	-11.3969
〜。	-11.3969
を落とす	-11.3969
粘	-11.397
ドラッグ	-11.397
値が	-11.397
歯が	-11.3971
の規定	-11.3972
TE	-11.3972
開催されました	-11.3972
間取り	-11.3977
場に	-11.3978
あると思います	-11.3979
ご負担	-11.3979
所在地	-11.398
が集まって	-11.3981
かも知れませんが	-11.3982
の依頼	-11.3983
パーソナル	-11.3984
予めご了承ください	-11.3985
トップページ	-11.399
願望	-11.3994
に浸	-11.3994
ウォーター	-11.3994
天気予報	-11.3995
▁私たちが	-11.3995
ワキガ	-11.3996
るけど	-11.3997
付近	-11.3998
を強化	-11.3998
ゆえに	-11.3998
することはありません	-11.3999
成功する	-11.3999
のが普通	-11.4
してはいけない	-11.4001
ゆったりとした	-11.4001
委員長	-11.4002
われている	-11.4002
落ちて	-11.4002
～2	-11.4003
流出	-11.4003
感じています	-11.4004
は避け	-11.4004
は無料で	-11.4005
津市	-11.4006
も用意	-11.4007
当日は	-11.4007
日までの	-11.4007
いな	-11.4007
描写	-11.4008
施	-11.4008
土地の	-11.401
の絵	-11.4011
▁Amazon	-11.4011
っていうの	-11.4011
サイズが	-11.4011
の活用	-11.4012
の代表	-11.4012
ヌー	-11.4013
満たされ	-11.4015
が伸び	-11.4015
レール	-11.4016
▁もう少し	-11.4016
の公式	-11.4017
持ち込み	-11.4017
ここ数年	-11.4019
属	-11.4021
アウトドア	-11.4022
を下げる	-11.4022
包装	-11.4023
あの人	-11.4023
全面	-11.4023
ストレージ	-11.4024
コーティング	-11.4024
法第	-11.4024
サル	-11.4024
通常は	-11.4026
いえば	-11.4026
▁なんで	-11.4027
移動する	-11.4027
なくなってしまいます	-11.4027
素早く	-11.4028
の名	-11.4028
の実	-11.4028
ホントに	-11.4028
元気で	-11.4029
勤務先	-11.4031
話しかけ	-11.4032
から徒歩	-11.4032
承っております	-11.4033
悪くない	-11.4033
のリンク	-11.4034
ドキュメント	-11.4034
ハーフ	-11.4035
さないように	-11.4039
甲斐	-11.4039
しまったら	-11.404
手助け	-11.404
▁過去	-11.4041
する際	-11.4041
をいくつか	-11.4042
研修会	-11.4043
かねない	-11.4044
酷い	-11.4044
結婚したい	-11.4044
というわけではありません	-11.4045
新車	-11.4045
メリットがあります	-11.4045
残っています	-11.4046
の頃	-11.4047
韓国人	-11.4048
はいつ	-11.4049
トム	-11.4049
ブログ記事	-11.405
ガード	-11.405
されず	-11.405
だったのに	-11.4052
家庭用	-11.4052
が一般的	-11.4054
ネル	-11.4057
写真集	-11.4057
買わ	-11.4057
せます	-11.4058
▁その場合	-11.4058
不在	-11.4058
シワ	-11.4058
なってしまいます	-11.4058
▁非常に	-11.4059
Instagram	-11.4059
速報	-11.4059
抱	-11.406
と話す	-11.4061
付きで	-11.4063
はずなのに	-11.4063
いらっしゃ	-11.4063
オープニング	-11.4064
スカート	-11.4064
者を	-11.4064
AD	-11.4064
を全て	-11.4064
を自分で	-11.4066
根本	-11.4066
溜まって	-11.4067
▁そうすれば	-11.4067
に行くこと	-11.4068
フィン	-11.4068
当ブログ	-11.4068
是非とも	-11.4069
うまい	-11.4069
体内に	-11.407
(@	-11.407
に至る	-11.4071
▁それぞれ	-11.4071
になりましたが	-11.4071
年ぶりの	-11.4072
壁紙	-11.4073
キシ	-11.4078
入らない	-11.4078
となりますが	-11.4079
洗練された	-11.408
ばっかり	-11.408
美容院	-11.408
クラウドファンディング	-11.4081
遺伝	-11.4083
機能は	-11.4083
申請書	-11.4083
労力	-11.4084
イギリスの	-11.4084
毎日のように	-11.4085
▁5.	-11.4086
が主流	-11.4088
志望	-11.4088
いつもより	-11.4089
誘って	-11.409
ているのは	-11.4093
▁僕も	-11.4094
試してみてください	-11.4095
育って	-11.4096
輝	-11.4097
ps	-11.4097
ミックス	-11.4097
歳以上の	-11.4099
を受け取る	-11.4099
やってきました	-11.41
が同じ	-11.4101
交代	-11.4102
てみると	-11.4102
貼り	-11.4102
ことではありません	-11.4102
(※	-11.4102
悲し	-11.4105
し続け	-11.4105
を得られる	-11.4106
脱出	-11.4106
リソース	-11.4106
干し	-11.4108
寄り添	-11.4109
アンド	-11.4109
みること	-11.411
観た	-11.411
の報告	-11.4111
コスプレ	-11.4112
に行ったら	-11.4114
マンションの	-11.4114
を作っている	-11.4115
フォーマット	-11.4115
ビルの	-11.4117
ことがわかります	-11.4117
かっこいい	-11.4118
花の	-11.4118
あがり	-11.4119
という考え方	-11.4119
ヨン	-11.4119
行ったこと	-11.4119
されたこと	-11.412
にあわせて	-11.412
SC	-11.4121
国語	-11.4121
ありましたが	-11.4121
過ごした	-11.4122
観る	-11.4122
数ヶ月	-11.4123
にお越し	-11.4126
症候群	-11.4126
豊富に	-11.4126
溢れる	-11.4127
蕎麦	-11.4127
した方がいい	-11.4127
釈	-11.4128
るほど	-11.4128
安くて	-11.4128
法案	-11.4129
たのか	-11.4131
いなくても	-11.4131
▁クレジットカード	-11.4132
請求書	-11.4133
のがおすすめです	-11.4134
となれば	-11.4135
贈	-11.4135
躍	-11.4136
算出	-11.4137
助けて	-11.4137
自作	-11.4137
ヤマ	-11.4138
拡散	-11.4139
を追い	-11.4139
再会	-11.4139
飾って	-11.4139
減ら	-11.414
させます	-11.414
座って	-11.414
ブロックチェーン	-11.414
が続きます	-11.414
▁そのとき	-11.414
クマ	-11.4141
はもっと	-11.4141
を信じて	-11.4142
半ば	-11.4142
せめて	-11.4143
の合間	-11.4144
木材	-11.4144
むくみ	-11.4145
わかりませんが	-11.4146
ace	-11.4146
変わりました	-11.4146
買	-11.4147
借りる	-11.4148
になりやすい	-11.4148
▁購入	-11.4149
そのあと	-11.415
▁どうして	-11.415
触って	-11.4151
させて頂き	-11.4151
を開始しました	-11.4152
代替	-11.4152
いわ	-11.4153
の人気商品を掲載	-11.4153
半額	-11.4154
開発した	-11.4155
区で	-11.4156
の質問	-11.4157
景観	-11.4157
懇親会	-11.4158
を抱えて	-11.4158
開いた	-11.4159
の提出	-11.416
で確認	-11.416
聞け	-11.4161
介護保険	-11.4162
デザインが	-11.4162
年以降	-11.4162
しているような	-11.4163
が続き	-11.4163
の方々が	-11.4164
ell	-11.4167
全国的に	-11.4167
不動産投資	-11.4168
川市	-11.4168
▁午後	-11.4168
会議室	-11.4169
の模様	-11.417
0°	-11.4171
争	-11.4171
大切なのは	-11.4173
任意の	-11.4173
概	-11.4174
和食	-11.4174
えます	-11.4175
なくてはいけない	-11.4176
の中にも	-11.4176
ok	-11.4177
とくに	-11.4178
問題解決	-11.4178
家族と	-11.4179
動機	-11.4179
を使うこと	-11.418
ているようです	-11.418
剛	-11.4181
雅	-11.4182
店員	-11.4182
表彰	-11.4188
込まれ	-11.4188
つながる	-11.4188
ストレート	-11.4188
ベリー	-11.4189
しないこと	-11.419
星の	-11.4193
勉強する	-11.4193
人工知能	-11.4194
創設	-11.4195
標高	-11.4195
入店	-11.4196
こんな風に	-11.4197
企業様	-11.4197
今夜	-11.4197
改修	-11.4198
は不明	-11.4202
開拓	-11.4202
スラ	-11.4203
販売されている	-11.4204
標	-11.4205
160	-11.4205
ウォー	-11.4206
を目的として	-11.4207
授	-11.4207
ゆとり	-11.4207
周知	-11.4207
フライ	-11.4208
在住の	-11.4208
怖	-11.4209
移り	-11.4209
マニア	-11.421
イルミネーション	-11.4211
表れ	-11.4212
▁大きな	-11.4212
推測	-11.4213
以下の通り	-11.4213
撮	-11.4214
下落	-11.4215
通訳	-11.4216
恩	-11.4216
間違いありません	-11.4216
スケール	-11.4217
飲め	-11.4217
の概要	-11.4218
傾向があります	-11.4219
姿は	-11.4219
記者会見	-11.4219
留意	-11.422
が表示される	-11.4221
それ以上	-11.4222
の方と	-11.4223
遅れて	-11.4223
空いている	-11.4225
取り扱っている	-11.4225
待ち合わせ	-11.4227
大人になって	-11.4227
カメラマン	-11.4227
が存在し	-11.4228
蒸し	-11.4228
神奈川	-11.423
非公開	-11.423
願う	-11.423
決まる	-11.423
効果を実感	-11.4231
ピング	-11.4232
上海	-11.4232
エク	-11.4233
争い	-11.4234
威	-11.4236
パスワードを	-11.4237
を試	-11.4237
悩んだ	-11.4237
PHP	-11.4238
作曲	-11.4239
鍛え	-11.4239
着実に	-11.4241
山梨県	-11.4242
祖母	-11.4243
体は	-11.4243
期間を	-11.4243
あげてください	-11.4245
特長	-11.4246
ことがありますが	-11.4247
ie	-11.4247
今の時代	-11.4247
ヴァン	-11.4247
を指定	-11.4248
両者	-11.4248
抜	-11.4248
後ろに	-11.4249
猛	-11.425
でないと	-11.4251
高級感	-11.4251
ができるように	-11.4251
を踏まえて	-11.4252
公園で	-11.4252
を育てる	-11.4253
ご挨拶	-11.4255
学べる	-11.4255
一言で	-11.4258
可能性がございます	-11.4259
の追加	-11.4259
なんだよ	-11.4261
を集めた	-11.4261
弁当	-11.4262
状態の	-11.4262
▁まるで	-11.4264
が減って	-11.4265
そうだった	-11.4265
を付ける	-11.4265
アコム	-11.4265
▁初	-11.4266
を重ねる	-11.4266
含め	-11.4266
ピア	-11.4266
なんですよね	-11.4266
面白かった	-11.4266
動け	-11.4267
ことでも	-11.4269
の時は	-11.4269
から離れ	-11.4269
▁▼	-11.427
電子メール	-11.427
屋の	-11.4273
一戸建て	-11.4274
ケースもあります	-11.4274
再起動	-11.4275
をテーマにした	-11.4275
首都圏	-11.4276
をご覧下さい	-11.4277
ようなこと	-11.4277
告げ	-11.4277
うた	-11.4278
閣	-11.4278
周辺で	-11.4278
開封	-11.4279
の権利	-11.428
▁そんなわけで	-11.4282
▁このサイト	-11.4282
あらすじ	-11.4283
▁↑	-11.4283
こころ	-11.4286
一流	-11.4287
こともありますが	-11.4289
うまくいかない	-11.4289
▁見た目	-11.4289
▁これらは	-11.429
自分には	-11.4291
果た	-11.4292
ていれば	-11.4294
三菱	-11.4294
利用規約	-11.4294
合併	-11.4294
らないように	-11.4295
の基準	-11.4295
専門的な	-11.4295
働か	-11.4296
ヒアルロン酸	-11.4297
楽しみにして	-11.4298
いちばん	-11.43
理解し	-11.43
架	-11.43
握	-11.4301
その辺	-11.4301
に限って	-11.4301
78	-11.4301
たいと思っている	-11.4304
浪	-11.4304
あらかじめご了承ください	-11.4305
させていただきますので	-11.4305
やすかった	-11.4305
ゲイ	-11.4306
まとめてみました	-11.4307
災	-11.4307
週間前	-11.4308
川崎	-11.4308
なるもの	-11.4309
機嫌	-11.4309
っ子	-11.431
説明する	-11.431
クリエイティブ	-11.431
あなたを	-11.4311
の構築	-11.4311
mg	-11.4311
それとも	-11.4312
なと思いました	-11.4312
などの情報	-11.4312
数え	-11.4312
アップする	-11.4313
ファンド	-11.4313
家を売る	-11.4313
やってくる	-11.4313
お気軽にお問い合わせ下さい	-11.4313
遂行	-11.4314
ものとする	-11.4314
クリエイター	-11.4314
コンディション	-11.4314
聞かれた	-11.4314
fi	-11.4314
▁沖縄	-11.4318
良いのですが	-11.4318
挑	-11.4319
らし	-11.4319
働ける	-11.4319
と異なる	-11.432
鉱	-11.432
部長	-11.432
様は	-11.4321
ワールドカップ	-11.4321
ていなかった	-11.4322
困難な	-11.4322
を見せる	-11.4323
プレーヤー	-11.4324
するときは	-11.4325
を見れば	-11.4327
ところもあります	-11.4327
▁その中でも	-11.4328
選手は	-11.4328
現れた	-11.4329
坪	-11.4329
彼女たち	-11.433
すご	-11.433
大陸	-11.4333
私たちに	-11.4334
安全で	-11.4335
▁なんだか	-11.4335
72	-11.4336
われわれ	-11.4337
出願	-11.4338
リアルな	-11.4338
支払わ	-11.4338
クイズ	-11.4339
本気	-11.4339
終わらせ	-11.434
を殺	-11.434
してもいい	-11.4341
先端	-11.4343
カジュアル	-11.4344
に通って	-11.4344
しまうのです	-11.4346
だと思った	-11.4346
シャッター	-11.4346
万円を	-11.4347
本当にありがとうございます	-11.4348
られること	-11.4348
果て	-11.4348
現行	-11.4349
bit	-11.4349
楽しみ方	-11.435
再発	-11.435
が始まります	-11.4352
人がいます	-11.4352
インストラクター	-11.4353
に戻り	-11.4355
様子を見	-11.4357
▁お店の	-11.4357
ということになる	-11.4357
まれた	-11.4361
さんを	-11.4363
世の	-11.4364
チキン	-11.4364
拝見	-11.4365
動画が	-11.4366
おられます	-11.4367
幻	-11.4367
▁名古屋	-11.4367
替	-11.4367
を上手に	-11.4368
プレッシャー	-11.4368
ならびに	-11.4368
を食べた	-11.4368
てしまうので	-11.4369
▁自然	-11.437
レジャー	-11.4371
焼け	-11.4371
水の	-11.4373
80%	-11.4373
バター	-11.4373
速い	-11.4374
料金で	-11.4376
お手伝いを	-11.4376
にしている	-11.4379
地獄	-11.4379
を作ろう	-11.438
という事実	-11.4381
遊びに来て	-11.4381
良いか	-11.4381
境内	-11.4383
が遅れ	-11.4384
必要とされる	-11.4385
自分だけの	-11.4385
お任せ	-11.4385
都合により	-11.4386
正月	-11.4386
を失って	-11.4386
薬剤	-11.4387
業者は	-11.4387
している人は	-11.4388
つつあります	-11.4388
回っている	-11.4388
その間	-11.4389
する可能性	-11.4389
〇〇	-11.439
秋田	-11.439
宿題	-11.4391
越え	-11.4392
広げ	-11.4392
フォームから	-11.4392
2、3	-11.4394
あー	-11.4394
.5%	-11.4394
いる場合	-11.4395
来場者	-11.4395
フレンド	-11.4396
セットで	-11.4396
の電話	-11.4396
を挙げて	-11.4399
だす	-11.44
申し込みを	-11.4401
事もあります	-11.4402
を歩いて	-11.4402
数年前	-11.4403
円です	-11.4403
応援して	-11.4404
石油	-11.4405
利用される	-11.4405
は既に	-11.4406
紹介されました	-11.4406
菅	-11.4406
ブラン	-11.4406
の発売	-11.4406
嫌いな	-11.4407
憲	-11.4407
かけた	-11.4407
やすいです	-11.4408
が発生した	-11.4409
疲れて	-11.4409
徹	-11.4411
意味がある	-11.4411
っち	-11.4411
何十	-11.4412
それ以降	-11.4413
情報交換	-11.4419
os	-11.442
110	-11.4421
の実現	-11.4421
計画を立て	-11.4421
せいで	-11.4421
を習得	-11.4422
フリーランス	-11.4424
つ目の	-11.4424
ということですね	-11.4425
生息	-11.4427
連日	-11.4427
故郷	-11.4427
しめ	-11.4427
自民党	-11.4429
が残る	-11.443
効く	-11.4432
ちん	-11.4432
というよりも	-11.4432
見逃し	-11.4435
占い師	-11.4435
提供している	-11.4436
んじ	-11.4436
を借りて	-11.4437
やってみたい	-11.4437
が始まり	-11.4438
影響力	-11.444
マジック	-11.444
学期	-11.4442
LIVE	-11.4442
衝突	-11.4443
という方も	-11.4443
出版社	-11.4443
写真や	-11.4444
上がります	-11.4444
を指す	-11.4446
と言っていた	-11.4446
ご近所	-11.4447
86	-11.4447
解け	-11.4448
いいこと	-11.4448
の評判	-11.4449
シンポジウム	-11.4449
考えます	-11.445
居心地	-11.4452
を少しでも	-11.4452
久しぶり	-11.4452
購入できる	-11.4453
ya	-11.4454
の充実	-11.4455
思えば	-11.4455
お世話になった	-11.4456
FA	-11.4456
に移行	-11.4457
捕	-11.4458
内蔵	-11.4458
支出	-11.4459
サプライズ	-11.4459
する事で	-11.4459
を維持する	-11.4461
げる	-11.4461
領収書	-11.4462
の近くに	-11.4462
資料を	-11.4462
健康的な	-11.4462
けた	-11.4463
整え	-11.4463
指輪	-11.4464
を使わない	-11.4464
嬉しかった	-11.4465
を行わ	-11.4468
▁女性の	-11.4475
のある人	-11.4475
▁まさか	-11.4475
が大切です	-11.4477
範囲内	-11.4479
の全	-11.448
前後の	-11.448
者と	-11.4484
下着	-11.4484
道の駅	-11.4487
を通過	-11.4487
失敗した	-11.4488
丼	-11.449
への影響	-11.4491
騙され	-11.4493
位置に	-11.4494
わせて	-11.4494
自己責任	-11.4495
かからない	-11.4495
迷っている	-11.4495
必要がない	-11.4496
を確かめ	-11.4496
ANA	-11.4497
山形県	-11.4498
体調不良	-11.4498
主要な	-11.4499
を引く	-11.4499
残す	-11.4499
与えられた	-11.45
と述べた	-11.4501
政府が	-11.4501
励み	-11.4501
派の	-11.4501
向き合う	-11.4501
あげましょう	-11.4501
イカ	-11.4501
僕たち	-11.4502
スル	-11.4502
石川県	-11.4502
住居	-11.4503
育った	-11.4504
良好	-11.4504
小林	-11.4505
と認識	-11.4506
につながります	-11.4506
もしかすると	-11.4507
▁for	-11.451
にて開催	-11.451
品川	-11.451
を依頼する	-11.4511
貰う	-11.4511
描かれている	-11.4512
泊まり	-11.4512
圧縮	-11.4513
密着	-11.4514
トランプ	-11.4514
ul	-11.4515
賛同	-11.4516
いると思います	-11.4517
の人々	-11.4517
排	-11.4518
緑の	-11.4518
掲載されている	-11.4519
には様々な	-11.4519
認めて	-11.4519
指定された	-11.452
方法も	-11.4521
右側	-11.4523
私立	-11.4523
区域	-11.4524
有難うございました	-11.4524
ネイティブ	-11.4524
選出	-11.4524
時間がかかります	-11.4525
韓	-11.4526
多大な	-11.4526
消滅	-11.4527
を務める	-11.4527
されていますので	-11.4528
年代に	-11.4528
があるんです	-11.4529
したまま	-11.453
分離	-11.4532
▁イ	-11.4532
が沢山	-11.4533
わからず	-11.4534
ご覧になって	-11.4534
お客さんが	-11.4535
お金は	-11.4535
▁過去の	-11.4535
平気	-11.4536
泥	-11.4537
楽しみながら	-11.4537
覚えている	-11.4538
異なり	-11.4538
年くらい	-11.4538
が大事	-11.4538
異なって	-11.4539
リスクを	-11.454
って思った	-11.454
狩り	-11.454
コレステロール	-11.4541
キャッシュバック	-11.4541
ご覧下さい	-11.4541
口から	-11.4542
鉢	-11.4542
るところ	-11.4542
脈	-11.4542
銅	-11.4544
ティン	-11.4544
すべてを	-11.4545
に参加した	-11.4547
と思ってしまう	-11.4547
秘訣	-11.4548
経歴	-11.4548
現金化	-11.4549
した事	-11.4549
ッカ	-11.4551
悲しみ	-11.4552
▁この記事では	-11.4552
の心配	-11.4553
▁当社の	-11.4553
専攻	-11.4555
の記事で	-11.4556
いままで	-11.4556
カウント	-11.4556
事が多い	-11.4557
かせる	-11.4557
ケル	-11.4558
マレーシア	-11.4558
を見たり	-11.4559
彫刻	-11.4559
歳未満	-11.456
並べ	-11.456
are	-11.456
▁おかげさまで	-11.4561
を支援	-11.4562
▁複数の	-11.4562
を受診	-11.4562
一発	-11.4563
でなくても	-11.4563
どうしよう	-11.4563
響き	-11.4563
悪魔	-11.4563
関係なく	-11.4565
確	-11.4565
同行	-11.4566
Adobe	-11.4566
理解できない	-11.4567
お使いいただけます	-11.4568
ユーザーに	-11.4569
が求められる	-11.457
DM	-11.457
だけあって	-11.457
を見つけました	-11.4571
策定	-11.4571
区分	-11.4573
毎月の	-11.4573
▁好きな	-11.4574
した際	-11.4574
書いてあった	-11.4575
▁常に	-11.4576
▁コメント	-11.4576
に取り組んでいます	-11.4576
歩いた	-11.4577
垣	-11.4578
▁日本語	-11.4578
結婚する	-11.4581
を参考にして	-11.4581
飲んだ	-11.4582
兼ね	-11.4582
の多くが	-11.4582
ストラップ	-11.4583
のやりとり	-11.4583
場合がありますので	-11.4583
会話を	-11.4584
に提出	-11.4585
環	-11.4586
所得税	-11.4587
が本当に	-11.4587
木造	-11.4588
何事も	-11.4588
su	-11.4589
塗る	-11.4589
してくださる	-11.4589
の取引	-11.459
NEXT	-11.459
嫌われ	-11.4591
してしまうこと	-11.4591
▁電子書籍	-11.4595
▁無	-11.4596
転職活動	-11.4597
にせよ	-11.4601
を取ら	-11.4601
は通常	-11.4601
認め	-11.4602
CPU	-11.4602
pl	-11.4602
安心できる	-11.4603
刃	-11.4604
時代は	-11.4604
教える	-11.4608
落札	-11.4608
たいへん	-11.4609
を行うことで	-11.4609
決勝	-11.4609
かく	-11.4609
換え	-11.461
ということに	-11.461
英語力	-11.4612
が決まった	-11.4613
結局は	-11.4613
贅沢な	-11.4615
起こった	-11.4615
衛星	-11.4616
することが大切です	-11.4616
入国	-11.4618
速く	-11.4618
最低限	-11.4622
迷う	-11.4622
忍	-11.4623
階段を	-11.4623
演劇	-11.4624
されるのは	-11.4624
女の子が	-11.4625
に関係なく	-11.4625
良いかもしれません	-11.4627
気付か	-11.4628
折り返し	-11.4629
抜けて	-11.4629
こちらが	-11.4629
をまとめた	-11.463
どうなって	-11.4631
原理	-11.4631
できなくなります	-11.4632
yo	-11.4632
あの時	-11.4633
を加え	-11.4633
元に戻	-11.4633
クション	-11.4634
なくていい	-11.4634
生後	-11.4635
ウェディング	-11.4635
ご了承	-11.4636
勉強して	-11.4636
付けられ	-11.4636
功	-11.4637
内側	-11.4638
ブックマーク	-11.4638
賃貸物件	-11.4639
TS	-11.4639
を終えて	-11.464
TBS	-11.4641
部屋を	-11.4642
たちも	-11.4643
見せて	-11.4644
者数	-11.4645
よろしい	-11.4647
キラキラ	-11.4647
かろう	-11.4648
次第です	-11.4648
衰え	-11.465
驚いて	-11.465
と思いませんか	-11.4651
少量	-11.4651
皆さんは	-11.4651
ヒル	-11.4652
噛み	-11.4652
旅行者	-11.4653
クレーム	-11.4653
のひとつです	-11.4654
していただけます	-11.4655
きっちり	-11.4656
がなされ	-11.4656
に備えて	-11.4656
勘	-11.4656
発足	-11.4657
とは言えません	-11.466
のテーマ	-11.4662
を開始する	-11.4665
見てください	-11.4665
納税	-11.4665
開催されている	-11.4666
良いこと	-11.4666
がちですが	-11.4666
ベテラン	-11.4667
防犯	-11.4668
に同意	-11.4672
レストランで	-11.4672
が行われている	-11.4673
に従事	-11.4673
行きましょう	-11.4674
ていきたい	-11.4674
歯を	-11.4674
になってくる	-11.4674
が困難	-11.4675
するつもり	-11.4675
なかったこと	-11.4675
安定して	-11.4676
人気がある	-11.4678
配当	-11.4678
登り	-11.4678
胸を	-11.4678
類似	-11.4679
生産者	-11.468
取り入れて	-11.468
綱	-11.4681
税別	-11.4681
こともあるでしょう	-11.4681
できますか	-11.4682
今現在	-11.4682
のせいで	-11.4684
▁詳細	-11.4684
▁そろそろ	-11.4684
がなくて	-11.4684
幸運	-11.4685
になったので	-11.4685
石鹸	-11.4685
〜」	-11.4686
午後から	-11.4686
しまったり	-11.4687
に追加	-11.4688
お酒を	-11.4689
昨夜	-11.469
▁結果	-11.469
をご用意しています	-11.4692
返答	-11.4693
給付	-11.4693
▁毎回	-11.4694
ところも	-11.4697
文庫	-11.4698
をしていく	-11.4698
見られた	-11.47
考えること	-11.47
の投稿	-11.47
感のある	-11.4701
前で	-11.4702
載せて	-11.4703
山口県	-11.4705
▁写真は	-11.4706
進んだ	-11.4706
少なくない	-11.4707
昨日の	-11.4707
答える	-11.4707
窓から	-11.4707
正式	-11.4709
滑り	-11.4709
与える	-11.4709
能力を	-11.471
▁ここから	-11.4711
雨が降って	-11.4712
にかかわらず	-11.4713
てた	-11.4713
一点	-11.4713
存	-11.4714
空気が	-11.4715
の被害	-11.4715
が起こった	-11.4716
最終回	-11.4717
ボーイ	-11.4718
市民の	-11.4718
キム	-11.4718
冷静	-11.4719
BO	-11.4719
と思えば	-11.4719
RPG	-11.4719
辞	-11.4719
固め	-11.472
宝石	-11.472
ご案内いたします	-11.472
なりますが	-11.4721
アプリは	-11.4722
していきますので	-11.4723
ないといけません	-11.4725
ark	-11.4725
po	-11.4725
本を読んで	-11.4725
に基づいた	-11.4726
お店は	-11.4727
もしも	-11.4727
を聴いて	-11.4728
ご家庭	-11.473
たくさんいる	-11.473
トラン	-11.473
日本から	-11.4732
描かれた	-11.4733
みたところ	-11.4734
いただけたら	-11.4735
スキャン	-11.4735
をお考えの方	-11.4735
で構成され	-11.4737
、2012	-11.4737
給食	-11.4739
インスタグラム	-11.4739
じっと	-11.4739
案外	-11.474
スリ	-11.474
再婚	-11.474
入れ替え	-11.474
たくさんいます	-11.4741
がわかります	-11.4742
なんていう	-11.4743
コメント欄	-11.4743
いる方	-11.4744
なんでしょうか	-11.4744
丁度	-11.4745
パチンコ	-11.4746
カードが	-11.4746
付き合う	-11.4746
らす	-11.4747
障	-11.4748
ピックアップ	-11.4748
熱心に	-11.4749
(1)	-11.4749
にもなり	-11.475
に際して	-11.475
眠れ	-11.4751
募	-11.4751
の記録	-11.4752
our	-11.4752
お見積り	-11.4753
めちゃくちゃ	-11.4753
クリーン	-11.4753
回路	-11.4754
To	-11.4755
受け入れられ	-11.4755
マクロ	-11.4755
かかりません	-11.4756
情勢	-11.4756
伝わり	-11.4757
ルイ	-11.4757
間違いない	-11.4759
ガソリン	-11.4759
満開	-11.476
私達の	-11.476
心身	-11.4761
が提供する	-11.4762
-5	-11.4762
実際のところ	-11.4763
AKB	-11.4763
去	-11.4763
シンボル	-11.4764
胆	-11.4764
ご活用ください	-11.4765
sa	-11.4766
稼いで	-11.4767
ock	-11.4768
いいもの	-11.4768
すれば良い	-11.4769
は無料	-11.4769
状況により	-11.4769
前回の	-11.4769
変える	-11.477
の企画	-11.4771
ええ	-11.4771
クッション	-11.4771
ありましたら	-11.4772
▁スマートフォン	-11.4774
言え	-11.4774
送金	-11.4774
ところにある	-11.4774
すき	-11.4775
▁千葉県	-11.4775
スピーチ	-11.4776
の思い出	-11.4776
結構な	-11.4776
お得です	-11.4777
遺族	-11.4777
走っている	-11.4778
日前	-11.4779
することができない	-11.4779
頼り	-11.478
周期	-11.4781
譲	-11.4782
日本と	-11.4784
示す	-11.4784
スタンス	-11.4786
キャップ	-11.4786
敏感	-11.4787
だけではありません	-11.4789
婦	-11.4789
設定されている	-11.479
著	-11.479
をすべて	-11.479
望んで	-11.4791
マシ	-11.4791
を実施し	-11.4792
参加費	-11.4792
ネガティブな	-11.4795
筋肉が	-11.4795
人柄	-11.4796
瞑想	-11.4796
比較して	-11.4797
打ち上げ	-11.4798
永久	-11.4798
を除いて	-11.4798
つは	-11.4799
に努めます	-11.4799
色は	-11.4803
有意義な	-11.4804
ba	-11.4809
重ね	-11.4809
▁今後の	-11.4809
ドイツの	-11.481
ってくれる	-11.4811
地味	-11.4811
伸	-11.4813
をお受け	-11.4813
放棄	-11.4814
働きたい	-11.4814
でいっぱい	-11.4815
を整え	-11.4815
教えてくれた	-11.4817
月まで	-11.4817
を寄せ	-11.4818
健康保険	-11.4818
正義	-11.4819
をご希望	-11.482
豊富	-11.4822
決めました	-11.4824
並んでいる	-11.4825
考えていた	-11.4826
あれは	-11.4826
と出会う	-11.4826
思ったより	-11.4827
いいのに	-11.4827
エリアの	-11.4828
本質	-11.4829
生じた	-11.483
喜ぶ	-11.483
指針	-11.483
調査結果	-11.4831
右手	-11.4831
がある方は	-11.4832
工務店	-11.4832
理解を深め	-11.4832
詳細を	-11.4832
平等	-11.4833
ておきましょう	-11.4834
くれれば	-11.4834
▁この日	-11.4835
言うこと	-11.4836
どうでしょう	-11.4837
96	-11.4837
屈	-11.4838
と答え	-11.4839
ましい	-11.484
7%	-11.484
諦めて	-11.4841
▁登録	-11.4842
同居	-11.4843
察	-11.4843
▁^	-11.4844
売られている	-11.4845
ひとつひとつ	-11.4845
アメリカ人	-11.4845
済みます	-11.4846
開発された	-11.4847
旬の	-11.4847
解明	-11.4849
BE	-11.4849
つけた	-11.485
現場に	-11.485
いくつも	-11.485
詞	-11.4851
観点から	-11.4853
それはそれで	-11.4854
中野	-11.4854
を望む	-11.4854
メス	-11.4854
虐待	-11.4856
行えます	-11.4856
我が	-11.4856
若く	-11.4856
多々	-11.4856
があるなら	-11.4858
したい方	-11.4858
ゴン	-11.4858
va	-11.4859
お買い求め	-11.4861
京都の	-11.4862
が低く	-11.4863
よくない	-11.4864
方はぜひ	-11.4864
と心配	-11.4865
使っています	-11.4865
ほどに	-11.4865
年連続	-11.4866
大会で	-11.4867
台数	-11.487
の項目	-11.487
改め	-11.4871
いいですよ	-11.4873
初めに	-11.4873
双	-11.4873
破産	-11.4874
社員が	-11.4874
拠	-11.4874
使い分け	-11.4875
ぜひご覧ください	-11.4877
マッ	-11.4878
会社です	-11.4879
てます	-11.4881
バスト	-11.4881
繊維	-11.4882
なってしまった	-11.4883
年近く	-11.4884
お困り	-11.4884
定額	-11.4885
映像を	-11.4885
遊べる	-11.4886
堂々と	-11.4887
[...]
