<unk>	0
<s>	0
</s>	0
、	-2.81133
。	-2.98144
の	-3.26403
▁	-3.31742
は	-4.30169
が	-4.34432
を	-4.62472
に	-4.66709
で	-4.75552
と	-4.9095
」	-5.12647
も	-5.21722
「	-5.33315
や	-5.42893
!	-5.64177
から	-5.64554
)	-5.66115
です	-5.69323
(	-5.73491
・	-5.74578
し	-6.00762
1	-6.05703
?	-6.08789
日	-6.25736
月	-6.30143
する	-6.31738
して	-6.33722
年	-6.37062
な	-6.39355
2	-6.39359
という	-6.40648
ので	-6.4098
には	-6.42921
か	-6.47827
した	-6.48103
など	-6.51115
では	-6.55507
3	-6.57133
る	-6.67731
その	-6.67779
として	-6.70391
▁「	-6.71309
この	-6.79638
▁また	-6.85353
て	-6.85524
た	-6.88764
.	-6.94255
ます	-6.97109
人	-7.01087
でも	-7.02958
って	-7.03251
している	-7.04442
まで	-7.0468
...	-7.11034
4	-7.11708
します	-7.11869
』	-7.11922
▁この	-7.1437
お	-7.1644
、「	-7.16504
5	-7.16902
り	-7.16921
である	-7.18325
ました	-7.21123
10	-7.23265
にも	-7.27141
より	-7.27525
い	-7.28097
こと	-7.28422
ね	-7.29862
しています	-7.31152
『	-7.32825
,	-7.34999
ですが	-7.36095
ら	-7.38034
について	-7.40126
時間	-7.4235
しました	-7.43449
だ	-7.44151
:	-7.45834
大	-7.46827
でした	-7.48988
ない	-7.50025
▁しかし	-7.52643
6	-7.53454
時	-7.54242
本	-7.54365
された	-7.55062
ため	-7.56807
なら	-7.57302
できる	-7.5996
7	-7.60368
へ	-7.6094
▁※	-7.61338
よ	-7.61991
がある	-7.63503
-	-7.64593
分	-7.64886
中	-7.65759
ス	-7.66067
だった	-7.66176
8	-7.68027
回	-7.68943
ように	-7.69616
/	-7.69865
”	-7.71043
される	-7.7153
ある	-7.7215
への	-7.72499
になる	-7.72984
などの	-7.73129
一	-7.73929
▁そして	-7.74135
情報	-7.74356
9	-7.74496
自分の	-7.74956
水	-7.74988
と思います	-7.75903
いる	-7.7653
います	-7.76936
ている	-7.78398
があります	-7.78797
30	-7.7891
また	-7.7911
事	-7.79758
サービス	-7.82588
なので	-7.82896
つ	-7.8305
方	-7.84941
円	-7.85145
いた	-7.85217
とは	-7.86564
み	-7.86607
もの	-7.86723
く	-7.86932
20	-7.87287
▁!	-7.88086
によって	-7.88621
のですが	-7.88807
等	-7.89542
名	-7.89846
さん	-7.90797
き	-7.9091
のか	-7.91816
ような	-7.91844
になります	-7.92231
す	-7.93131
とか	-7.93161
▁その	-7.93318
ですね	-7.93629
でしょう	-7.94159
手	-7.96001
による	-7.97804
さ	-7.98561
ー	-7.99146
いて	-7.99164
12	-7.99757
後	-7.99838
ご	-7.99887
ことを	-7.99958
日本	-8.00003
されている	-8.00275
的な	-8.00292
性	-8.01275
とても	-8.0288
市	-8.02952
金	-8.03081
だけ	-8.0313
上	-8.04159
第	-8.04199
ください	-8.05792
けど	-8.06252
物	-8.06284
った	-8.06681
サイト	-8.06737
者	-8.06808
11	-8.07165
場合は	-8.07497
良い	-8.08119
見	-8.08514
商品	-8.08745
約	-8.08933
～	-8.09118
により	-8.09943
山	-8.10585
話	-8.1079
場合	-8.11357
ア	-8.12242
ています	-8.12693
のです	-8.13363
ト	-8.13429
今	-8.13522
▁でも	-8.13697
ほど	-8.13741
にて	-8.13822
s	-8.14905
C	-8.14982
力	-8.15019
リ	-8.15248
ながら	-8.15993
時に	-8.16052
され	-8.16256
生	-8.16509
▁」	-8.17795
いい	-8.17881
人は	-8.18163
数	-8.187
だと	-8.18721
前	-8.18731
様々な	-8.18812
にある	-8.18979
出	-8.18987
法	-8.20219
問題	-8.20512
利用	-8.20802
化	-8.21083
があり	-8.2109
】	-8.22078
国	-8.22332
う	-8.23257
人が	-8.23397
何	-8.24113
よう	-8.24204
会	-8.24465
環境	-8.2463
前に	-8.2568
女性	-8.25894
活動	-8.26201
私は	-8.26223
点	-8.26672
ク	-8.26697
新	-8.26974
人の	-8.27407
ことは	-8.27656
下	-8.27972
▁(	-8.28169
日に	-8.28186
大きな	-8.2857
他の	-8.28721
仕事	-8.29474
それ	-8.29661
ラ	-8.30197
ことが	-8.30452
していた	-8.30904
会社	-8.31725
ことで	-8.3235
的	-8.3288
方法	-8.32921
については	-8.33402
生活	-8.33607
高	-8.33967
たい	-8.33995
心	-8.3418
S	-8.34296
そう	-8.34322
したい	-8.34502
機能	-8.34607
というのは	-8.34706
本当に	-8.34745
対応	-8.35261
▁私は	-8.3527
15	-8.35316
よく	-8.35578
・・・	-8.35683
気	-8.35763
ところ	-8.35985
子	-8.36525
A	-8.36676
となる	-8.36739
できます	-8.37016
新しい	-8.37235
色	-8.37602
となります	-8.37829
であり	-8.37845
ズ	-8.37879
よりも	-8.38
そうです	-8.38195
ル	-8.38359
木	-8.38494
多くの	-8.39004
〜	-8.39042
ようです	-8.39133
ために	-8.3914
所	-8.39259
いました	-8.39483
すると	-8.39627
目	-8.39972
ちょっと	-8.4011
ゲーム	-8.40619
わ	-8.40709
場所	-8.40894
年に	-8.41261
▁1	-8.41284
もう	-8.41562
▁ただ	-8.41575
と思う	-8.41642
各	-8.41681
町	-8.41696
少し	-8.42245
私の	-8.42272
いたします	-8.4233
▁これは	-8.42442
コ	-8.42479
ド	-8.42788
イベント	-8.42905
なんて	-8.4292
に関する	-8.43089
んだ	-8.43165
用	-8.43347
土	-8.43982
m	-8.44211
管理	-8.44353
ナ	-8.4471
企業	-8.45425
マ	-8.4547
代	-8.45636
店	-8.45882
タ	-8.46182
できない	-8.46503
だけで	-8.46875
販売	-8.46913
先	-8.46926
こ	-8.46976
ず	-8.47118
道	-8.4729
ではなく	-8.47448
方は	-8.4766
すぐに	-8.48149
作品	-8.48209
」「	-8.48338
したり	-8.48352
家	-8.48502
体	-8.48529
の中で	-8.48553
何か	-8.48558
内	-8.4864
を使って	-8.48694
かもしれません	-8.48836
だけでなく	-8.49064
内容	-8.4918
車	-8.49585
長	-8.49691
▁今回は	-8.49942
治療	-8.50048
になった	-8.51181
ポイント	-8.51245
地域	-8.51535
しております	-8.51689
のある	-8.51747
ん	-8.51911
しか	-8.51959
において	-8.52447
100	-8.52989
まだ	-8.53245
なかった	-8.53254
的に	-8.53381
技術	-8.53402
されています	-8.53447
小	-8.53495
登録	-8.53622
作業	-8.53904
キ	-8.5395
設定	-8.54046
すること	-8.54318
そんな	-8.54514
状態	-8.54569
参加	-8.54632
カ	-8.54654
歳	-8.5492
になって	-8.55033
に対して	-8.55221
同じ	-8.5534
使用	-8.55673
▁そんな	-8.55849
ぜひ	-8.56191
実際に	-8.56503
システム	-8.56859
ま	-8.56975
下さい	-8.56998
デザイン	-8.57
あまり	-8.5716
T	-8.5748
なく	-8.5784
または	-8.58215
不	-8.58222
田	-8.58295
映画	-8.58356
駅	-8.58537
ものです	-8.58687
確認	-8.58691
D	-8.58766
め	-8.58775
そして	-8.58831
んです	-8.58972
口	-8.59098
三	-8.59493
さんの	-8.59666
度	-8.59702
関係	-8.59816
万	-8.59865
ば	-8.60304
メール	-8.6041
のような	-8.60649
のために	-8.60734
だろう	-8.60734
自分	-8.6087
すれば	-8.617
カード	-8.61756
“	-8.61916
東京	-8.62156
地	-8.622
のように	-8.62301
イ	-8.62321
ことができます	-8.62512
方が	-8.62548
B	-8.63174
む	-8.63328
相談	-8.63633
れば	-8.63737
大学	-8.63828
線	-8.64468
事業	-8.64531
F	-8.64775
18	-8.64813
になり	-8.64827
購入	-8.64853
写真	-8.64923
ミ	-8.65093
状況	-8.65292
してください	-8.6544
をする	-8.65646
シ	-8.65734
といった	-8.65918
世界	-8.66012
だと思います	-8.66105
万円	-8.66253
品	-8.66331
になりました	-8.66364
無料	-8.66484
ロ	-8.66511
▁...	-8.666
を見て	-8.66791
料理	-8.66881
をして	-8.67218
教育	-8.67302
様	-8.67374
予約	-8.67474
変更	-8.677
特に	-8.67786
外	-8.67811
でしょうか	-8.68092
19	-8.68115
つの	-8.68438
バ	-8.68691
かなり	-8.68952
条件	-8.69073
思い	-8.69164
とき	-8.69284
さらに	-8.69387
▁【	-8.69388
があった	-8.69425
であれば	-8.6955
これ	-8.69606
海	-8.69809
かな	-8.7029
毎日	-8.7056
24	-8.70746
食	-8.71116
などで	-8.71118
サ	-8.71162
▁2	-8.71297
川	-8.71456
日本の	-8.71585
どんな	-8.71719
25	-8.71736
社会	-8.71806
調査	-8.71825
データ	-8.72096
経験	-8.72161
れ	-8.72346
行	-8.72347
書	-8.72381
オ	-8.72526
ましょう	-8.72731
になっている	-8.72931
契約	-8.72956
アプリ	-8.72969
することができます	-8.72974
ノ	-8.72976
愛	-8.73051
型	-8.73315
島	-8.73573
することで	-8.7376
勉強	-8.73786
のでしょうか	-8.7415
されます	-8.7416
部	-8.74204
面	-8.74431
あり	-8.74651
自分が	-8.74681
50	-8.74682
考え	-8.74939
t	-8.75115
施設	-8.75128
元	-8.75157
私	-8.75183
店舗	-8.75891
ということ	-8.75918
ません	-8.76147
▁『	-8.76221
を行う	-8.76246
の方が	-8.7634
たら	-8.76425
戦	-8.76687
見て	-8.76702
&	-8.76712
必ず	-8.76794
たり	-8.76849
体験	-8.77028
無	-8.77365
でしたが	-8.77621
石	-8.77801
M	-8.78073
音楽	-8.78144
レ	-8.78178
発	-8.78449
位	-8.78821
っている	-8.78839
同	-8.78855
え	-8.78884
非常に	-8.78974
紹介	-8.78995
効果	-8.79073
しない	-8.79124
及び	-8.7931
G	-8.79505
公開	-8.79567
感	-8.79697
アップ	-8.79757
ときに	-8.79836
ではない	-8.79902
研究	-8.80186
間	-8.80309
説明	-8.80615
製品	-8.80657
男性	-8.80824
人に	-8.80834
全	-8.80945
台	-8.80969
ウ	-8.81018
一番	-8.81041
ジ	-8.81077
それは	-8.81161
もっと	-8.81206
あ	-8.81231
け	-8.81254
られる	-8.81429
それを	-8.8146
のみ	-8.81554
場	-8.817
これは	-8.81913
あなたの	-8.81963
16	-8.8197
されて	-8.82097
着	-8.82305
予定	-8.82442
K	-8.82562
笑	-8.82681
旅行	-8.82707
支援	-8.82712
されました	-8.82728
対策	-8.8276
いない	-8.82926
結果	-8.83159
業務	-8.83246
としては	-8.8329
開発	-8.83338
ネット	-8.8338
行動	-8.8344
なかなか	-8.83649
月に	-8.83672
くらい	-8.83806
▁もちろん	-8.83819
健康	-8.83867
しながら	-8.83875
ム	-8.83996
e	-8.84035
ページ	-8.8407
▁なお	-8.84473
私が	-8.84523
平成	-8.8463
社	-8.85052
ブ	-8.85143
等の	-8.85164
味	-8.85287
14	-8.85483
などを	-8.85485
いく	-8.85486
きた	-8.85603
エ	-8.85618
現在	-8.86041
▁特に	-8.86201
させる	-8.86317
検索	-8.86378
版	-8.86595
モ	-8.86601
としても	-8.86748
薬	-8.8679
さんが	-8.86796
17	-8.86796
高い	-8.86967
ブログ	-8.87013
お店	-8.87044
コース	-8.87747
評価	-8.8789
チェック	-8.87944
光	-8.88035
更新	-8.88348
ファン	-8.88506
料金	-8.88699
13	-8.88725
感じ	-8.88796
記事	-8.88909
リー	-8.88938
画像	-8.88942
▁そこで	-8.89145
もあります	-8.89154
動画	-8.89288
二	-8.89361
電話	-8.89447
人気	-8.89539
バー	-8.89613
していく	-8.89699
ですよね	-8.89786
風	-8.89826
年間	-8.89913
に対する	-8.90017
簡単に	-8.90075
曲	-8.90253
▁それは	-8.90268
人間	-8.90272
制度	-8.90308
▁今日は	-8.9038
業者	-8.90452
原	-8.90467
あります	-8.90473
一緒に	-8.90597
ホテル	-8.90612
ると	-8.90669
花	-8.90914
ダ	-8.90927
と言う	-8.90956
なのか	-8.9102
別	-8.9102
火	-8.91162
よね	-8.91212
いつも	-8.91417
まず	-8.915
っ	-8.91564
しており	-8.9161
以上	-8.91683
の場合は	-8.91766
となっています	-8.91769
形	-8.91786
頭	-8.9179
▁さらに	-8.91928
▁・	-8.91932
40	-8.92132
出会い	-8.92158
不安	-8.9218
医療	-8.92229
足	-8.92558
時は	-8.92573
ビジネス	-8.92639
夢	-8.92685
撮影	-8.92967
心配	-8.92975
量	-8.92992
ケース	-8.92992
学	-8.93019
メニュー	-8.93128
白	-8.93295
女	-8.93314
P	-8.93323
中の	-8.93345
しましょう	-8.93362
通り	-8.93464
自分で	-8.93468
られた	-8.93496
是非	-8.93503
上で	-8.93706
がない	-8.93847
んで	-8.94084
フ	-8.94098
系	-8.94121
のため	-8.94226
ツ	-8.94349
プラン	-8.94449
せ	-8.94502
▁ただし	-8.94532
の場合	-8.94617
こんな	-8.94698
イン	-8.94741
質問	-8.94778
してくれる	-8.94779
学校	-8.94781
なる	-8.94818
理解	-8.94823
気持ち	-8.94948
ことに	-8.95065
]	-8.95132
通	-8.9547
ことができる	-8.95515
および	-8.95624
神	-8.95904
取り	-8.95905
モデル	-8.96158
部分	-8.96159
結婚	-8.962
イメージ	-8.96241
一度	-8.96359
しても	-8.97006
直	-8.97152
以下	-8.97291
W	-8.97493
だから	-8.97555
やって	-8.97631
となった	-8.97664
▁3	-8.97821
サポート	-8.97842
価格	-8.97958
21	-8.98057
美	-8.98066
必要	-8.98268
さんは	-8.98449
号	-8.9852
食事	-8.98687
"	-8.98698
ずっと	-8.98759
屋	-8.98891
朝	-8.98981
ニ	-8.99046
ていた	-8.99156
入	-8.99254
南	-8.99471
グ	-8.9968
成長	-8.9978
ち	-8.99891
改善	-8.99931
ということで	-8.99973
における	-9.00309
大変	-9.00325
セット	-9.0039
ときは	-9.00455
パ	-9.00591
表示	-9.00623
文	-9.00664
://	-9.00799
空	-9.00836
営業	-9.00872
やすい	-9.00887
々	-9.0094
にとって	-9.00947
中に	-9.01481
があれば	-9.01512
▁そのため	-9.01585
ビ	-9.0167
チーム	-9.01762
ですので	-9.0201
なり	-9.02108
以下の	-9.02137
機会	-9.02161
表	-9.02287
親	-9.02333
おり	-9.02357
顔	-9.02498
のではないでしょうか	-9.0253
H	-9.02703
じ	-9.02988
やはり	-9.03063
次の	-9.03128
かもしれない	-9.03157
したら	-9.03353
野	-9.03376
それが	-9.03419
▁今	-9.03477
目的	-9.03648
になっています	-9.03847
プログラム	-9.0396
経営	-9.03963
N	-9.03994
と一緒に	-9.04011
ことも	-9.04076
室	-9.04191
文化	-9.04266
チ	-9.04366
機	-9.04471
交換	-9.04522
からです	-9.04536
後に	-9.04666
大会	-9.04848
意識	-9.05032
28	-9.05046
時代	-9.05066
E	-9.05149
けれど	-9.05178
ッ	-9.05206
期間	-9.05343
種類	-9.05449
リンク	-9.05479
式	-9.05531
さまざまな	-9.05749
初めて	-9.05791
村	-9.05798
夜	-9.05822
23	-9.05839
【	-9.05908
ための	-9.05929
東	-9.06079
安心して	-9.06104
楽しい	-9.06117
ヶ月	-9.0637
開催	-9.0638
だったので	-9.06505
投稿	-9.06508
作	-9.06544
年の	-9.06733
サイズ	-9.06804
グループ	-9.06847
御	-9.06864
計画	-9.06884
今回は	-9.0707
主	-9.07092
を持つ	-9.0711
検査	-9.07206
ン	-9.0733
存在	-9.07374
センター	-9.07545
どう	-9.07657
もある	-9.07739
家族	-9.07882
広告	-9.0817
ハ	-9.08217
テレビ	-9.08246
が多い	-9.08309
準備	-9.08376
となりました	-9.08603
▁さて	-9.08686
運動	-9.08917
なのです	-9.09017
と思った	-9.09024
お客様	-9.09027
・・・。	-9.09129
会員	-9.09295
音	-9.09296
西	-9.09362
29	-9.09382
をしている	-9.09492
作り	-9.097
練習	-9.09807
場合には	-9.09845
ファイル	-9.09918
工事	-9.09946
R	-9.09986
開始	-9.10142
を見	-9.10154
北	-9.10227
熱	-9.1038
病気	-9.10485
運営	-9.10513
プロ	-9.10543
楽	-9.10601
枚	-9.10712
22	-9.10766
び	-9.10855
当	-9.10868
していない	-9.10872
行く	-9.1093
メ	-9.10968
期待	-9.11179
ありがとうございました	-9.11301
ど	-9.11477
になると	-9.11519
ガ	-9.11864
スタッフ	-9.12166
病院	-9.12247
タイプ	-9.12364
インターネット	-9.12374
となり	-9.12463
入力	-9.125
ものを	-9.12564
重	-9.1258
希望	-9.12589
デ	-9.12739
どのような	-9.1278
▁もし	-9.12945
直接	-9.13366
和	-9.13443
きました	-9.13456
連絡	-9.13557
くる	-9.13636
理由	-9.13699
素材	-9.14057
てしまう	-9.14072
番	-9.14107
があって	-9.14127
発表	-9.1417
お客様の	-9.14322
個人	-9.14391
違う	-9.14502
お金	-9.14609
意味	-9.1463
を持って	-9.14662
ずに	-9.14763
試験	-9.14771
情報を	-9.14854
に行く	-9.14894
能力	-9.14978
表現	-9.1503
年齢	-9.15294
ユーザー	-9.15302
ダイエット	-9.15338
人生	-9.15384
もあり	-9.15454
バス	-9.15601
らしい	-9.1561
おすすめ	-9.15615
割	-9.15763
新たな	-9.15766
男	-9.15805
まずは	-9.15825
させていただきます	-9.15931
毛	-9.15953
語	-9.15976
にして	-9.15979
文字	-9.16004
素晴らしい	-9.16087
例	-9.16322
27	-9.16407
審査	-9.16422
街	-9.16424
多	-9.16441
来	-9.16538
放送	-9.16549
させて	-9.16571
がありました	-9.1658
▁現在	-9.16707
カメラ	-9.16739
はありません	-9.16754
の中に	-9.16799
査定	-9.16944
必要な	-9.17019
席	-9.17227
を中心に	-9.17228
どの	-9.17287
学習	-9.17298
費用	-9.17362
産	-9.17399
住宅	-9.17413
事故	-9.17527
26	-9.17569
ネ	-9.17578
に合わせて	-9.17624
ソフト	-9.17708
初	-9.17708
かどうか	-9.17715
言葉	-9.1773
ができる	-9.17763
以上の	-9.17764
郡	-9.17821
スポーツ	-9.17921
中国	-9.17986
実は	-9.18061
プ	-9.18063
処理	-9.18093
U	-9.18114
投資	-9.18126
判断	-9.18147
▁2018	-9.18182
ばかり	-9.18191
ぎ	-9.18727
真	-9.18753
時期	-9.18762
オープン	-9.18917
が多く	-9.1898
とも	-9.19005
時の	-9.19103
配信	-9.19135
終了	-9.19172
メーカー	-9.19185
ケア	-9.19201
そうな	-9.19235
アクセス	-9.19493
g	-9.19633
J	-9.19635
安心	-9.19829
期	-9.19994
▁これ	-9.20125
致します	-9.20193
▁ちなみに	-9.20238
テ	-9.2024
ザ	-9.20309
前の	-9.20604
キャンペーン	-9.20707
ことがあります	-9.20745
パン	-9.20761
▁お	-9.20903
作成	-9.20969
掲載	-9.20979
)」	-9.21035
対象	-9.21038
学生	-9.21133
してしまう	-9.21351
相手	-9.21394
ましたが	-9.2164
天	-9.21656
...。	-9.21709
er	-9.21723
とともに	-9.21743
p	-9.21747
▁例えば	-9.2178
以外の	-9.21793
スタイル	-9.21815
自然	-9.21835
今まで	-9.21838
原因	-9.21876
絵	-9.21929
するために	-9.22027
しっかり	-9.22039
i	-9.22072
子供	-9.22079
であった	-9.22247
城	-9.22286
全く	-9.22399
していました	-9.22494
60	-9.22711
はずです	-9.2275
肌	-9.2278
ぐ	-9.22988
y	-9.23064
いただき	-9.23068
脱毛	-9.23275
英語	-9.2328
別の	-9.23291
するのは	-9.23298
f	-9.23339
と思って	-9.23607
しまう	-9.23942
すぐ	-9.24135
上の	-9.24233
服	-9.24307
L	-9.2433
れる	-9.24403
平	-9.24543
かもしれませんが	-9.24579
カー	-9.24685
課題	-9.24704
雨	-9.24759
物件	-9.24779
取引	-9.24814
ことです	-9.24817
実	-9.24867
▁A	-9.24902
あった	-9.25162
保険	-9.25224
好きな	-9.25374
アイテム	-9.25539
印象	-9.25572
金額	-9.25828
選択	-9.26083
たくさんの	-9.26122
付け	-9.26168
欲しい	-9.26194
変化	-9.2627
残	-9.26315
病	-9.26347
ということです	-9.26364
知識	-9.26458
日から	-9.26726
公園	-9.26747
次	-9.26853
ストレス	-9.26881
株式会社	-9.26921
しっかりと	-9.26944
たくさん	-9.26962
経済	-9.27003
このような	-9.27188
区	-9.27211
すべての	-9.27212
ますが	-9.2725
海外	-9.2726
ゴ	-9.27287
マン	-9.2732
事を	-9.27431
となっている	-9.2748
ること	-9.27724
......	-9.27762
プロジェクト	-9.27793
ライブ	-9.2789
cm	-9.28007
古	-9.28028
設計	-9.28045
0	-9.28067
目標	-9.28219
アニメ	-9.28246
メッセージ	-9.28266
ニュース	-9.28307
と同じ	-9.28427
ブランド	-9.28484
事件	-9.28535
スマホ	-9.28587
制作	-9.28618
考えて	-9.28637
他	-9.28653
団体	-9.28675
2018	-9.28702
ており	-9.28777
画面	-9.28808
流	-9.28835
▁つまり	-9.28894
ぐらい	-9.28931
小さな	-9.29075
食べ	-9.29105
安	-9.29148
c	-9.29178
はもちろん	-9.29203
週間	-9.29284
最も	-9.29287
セ	-9.29561
企画	-9.29574
寺	-9.29584
そういう	-9.29603
提供	-9.29927
歌	-9.30032
身	-9.30036
素敵な	-9.30036
事前に	-9.30051
何も	-9.30084
役	-9.30118
の方	-9.30145
紙	-9.30326
コン	-9.30343
してる	-9.30363
こう	-9.30416
県	-9.30499
再	-9.30513
早く	-9.30522
人と	-9.30615
a	-9.30625
そのまま	-9.30782
を受け	-9.30901
受付	-9.30901
o	-9.3091
今回の	-9.30945
を作る	-9.31034
展開	-9.31053
PC	-9.31155
それぞれ	-9.31217
空間	-9.31446
指定	-9.31566
市場	-9.31602
教室	-9.31678
に向けて	-9.31741
報告	-9.3181
時間が	-9.31883
これから	-9.31972
移動	-9.31983
春	-9.31991
していきます	-9.3203
館	-9.32098
シリーズ	-9.32132
ありがとうございます	-9.32151
なければ	-9.32227
500	-9.3223
組織	-9.32307
ヤ	-9.32314
んですが	-9.32343
楽しく	-9.32377
出来る	-9.3243
のための	-9.3249
定	-9.3268
国際	-9.32731
日々	-9.32736
ちゃんと	-9.32737
銀行	-9.32767
持ち	-9.32866
解決	-9.32879
ター	-9.3291
ほとんど	-9.32972
X	-9.33023
立	-9.33031
レベル	-9.33149
黒	-9.33188
に関しては	-9.332
映像	-9.3325
すべて	-9.33344
安全	-9.33459
いただいた	-9.33479
漫画	-9.33523
時には	-9.33527
多く	-9.33694
最近	-9.33701
募集	-9.33706
じゃない	-9.33713
してきた	-9.33762
くれる	-9.33817
試合	-9.33872
ピ	-9.33937
d	-9.33998
はず	-9.34071
いろいろな	-9.34109
パソコン	-9.34171
使って	-9.34249
年度	-9.34288
根	-9.34331
が高い	-9.34337
入り	-9.34345
安い	-9.34439
美味しい	-9.34442
犬	-9.34573
ディ	-9.34652
特別	-9.34684
ご利用	-9.34729
用の	-9.3477
使う	-9.34834
通信	-9.34907
よい	-9.34965
ぞ	-9.34995
士	-9.35011
業界	-9.35021
ティ	-9.35046
保存	-9.35074
ポ	-9.35221
▁今回の	-9.35243
ちゃん	-9.35403
業	-9.3545
そ	-9.35473
▁10	-9.35484
と思い	-9.3552
ドラマ	-9.35531
カラー	-9.356
と思っています	-9.35605
率	-9.35616
31	-9.35762
大阪	-9.35873
面白い	-9.35902
悪	-9.35987
はない	-9.36053
▁日本	-9.36227
ここ	-9.36325
すごく	-9.3636
肉	-9.36422
遊び	-9.36448
▁だから	-9.36489
ようで	-9.36504
あと	-9.36504
アン	-9.36543
ホームページ	-9.36546
ボ	-9.36568
があるので	-9.3663
が必要です	-9.36665
市の	-9.36967
テーマ	-9.36975
論	-9.36979
件	-9.3701
ひ	-9.37057
中で	-9.37103
先に	-9.37253
それぞれの	-9.37391
を利用して	-9.37403
障害	-9.37476
ではありません	-9.37672
リング	-9.37734
▁最近	-9.3776
リスト	-9.37785
スペース	-9.3787
正	-9.37917
▁本	-9.37929
寝	-9.37931
クラス	-9.3796
▁-	-9.37965
色々な	-9.37969
▁いつも	-9.38019
のだ	-9.3803
アメリカ	-9.38041
最大	-9.38062
成分	-9.38086
を使う	-9.38113
活用	-9.38149
横	-9.38151
引き	-9.38214
症状	-9.3823
らない	-9.38249
のこと	-9.38263
ろ	-9.38303
ごとに	-9.38321
コメント	-9.38399
エリア	-9.38504
メディア	-9.386
▁先日	-9.38634
コンテンツ	-9.38681
介護	-9.38692
選手	-9.38739
▁それ	-9.3878
ライン	-9.38809
読んで	-9.38881
図	-9.38903
しまった	-9.38947
長く	-9.38948
強い	-9.39037
ほしい	-9.39118
注文	-9.39127
られ	-9.39466
個	-9.39495
値	-9.39546
時間を	-9.39618
プレイ	-9.39648
観光	-9.39658
マンション	-9.39726
トラブル	-9.39729
努力	-9.39786
▁>	-9.39825
種	-9.39926
ワ	-9.40068
発売	-9.40077
▁今回	-9.4011
Y	-9.40144
なども	-9.40145
だけではなく	-9.40184
依頼	-9.40191
メンバー	-9.40233
王	-9.40257
切り	-9.40375
頑張って	-9.40413
自由	-9.40484
注意	-9.40512
船	-9.40599
基準	-9.4062
価値	-9.40676
日の	-9.40693
項目	-9.40816
を使った	-9.40852
指導	-9.40873
決定	-9.40881
馬	-9.40964
超	-9.4098
スト	-9.41139
施術	-9.41143
番組	-9.41352
動き	-9.4138
ツアー	-9.41449
んだけど	-9.41487
常に	-9.41541
雰囲気	-9.41576
関連	-9.41585
ショップ	-9.41691
▁S	-9.41714
コーヒー	-9.41741
駐車場	-9.41786
フリー	-9.41916
まして	-9.41971
OK	-9.42004
限定	-9.4201
と思いました	-9.4203
負担	-9.42053
美しい	-9.42073
母	-9.42144
一人	-9.42165
V	-9.42167
大人	-9.42264
売却	-9.42297
いただきました	-9.4234
を行います	-9.42375
ケ	-9.42422
日間	-9.42513
プレゼント	-9.42553
一部	-9.42554
不動産	-9.42602
いたしました	-9.42657
ダウンロード	-9.42689
立ち	-9.42819
思い出	-9.42839
私も	-9.42872
いきます	-9.42939
今回	-9.42947
当社	-9.43089
何を	-9.43185
分の	-9.43409
全て	-9.43511
Web	-9.43523
やっぱり	-9.43528
▁4	-9.43572
されていた	-9.43579
ことから	-9.43597
などに	-9.43608
出す	-9.43613
土地	-9.43685
採用	-9.43722
ツール	-9.4373
傷	-9.43749
というのが	-9.43751
仕事を	-9.43777
太	-9.43788
によっては	-9.43801
ということは	-9.43818
丸	-9.43945
今日は	-9.44046
目に	-9.44046
暮らし	-9.4422
事務所	-9.44237
チケット	-9.44288
自	-9.44295
大切な	-9.44313
していて	-9.44618
書いて	-9.44631
追加	-9.44667
程度	-9.44673
レッスン	-9.44684
転職	-9.44804
有	-9.44884
ヒ	-9.44897
+	-9.4491
全国	-9.44921
雪	-9.44941
l	-9.44956
合	-9.44995
器	-9.45085
米	-9.45105
▁まずは	-9.45144
みると	-9.45151
ためには	-9.4516
気軽に	-9.4517
人で	-9.45179
計算	-9.4529
研修	-9.45302
操作	-9.45408
何度も	-9.4541
歴史	-9.45428
が必要	-9.4543
▁●	-9.45435
行って	-9.45452
今後	-9.45456
可能	-9.45463
夏	-9.45465
ものは	-9.45539
悪い	-9.45648
ですか	-9.45658
なんか	-9.45665
組	-9.45665
のであれば	-9.45695
言う	-9.4572
ていく	-9.45728
好き	-9.45748
みんな	-9.45781
ラン	-9.45789
セミナー	-9.45838
これまで	-9.45952
成功	-9.45957
リスク	-9.45998
無料で	-9.46028
保護	-9.4603
ソ	-9.46147
公	-9.4621
ならば	-9.46236
80	-9.46237
温泉	-9.46246
ても	-9.46523
♪	-9.46539
過	-9.46581
申請	-9.46607
階	-9.46652
女子	-9.46727
良く	-9.46733
死	-9.46824
お客様に	-9.46827
を作って	-9.4686
応援	-9.46984
恋愛	-9.4699
ですよ	-9.47002
今日	-9.4702
野菜	-9.47037
_	-9.47275
部屋	-9.47284
記録	-9.47292
込み	-9.47298
実施	-9.47298
ロー	-9.47319
エネルギー	-9.47433
歯	-9.47446
ファッション	-9.47486
比較	-9.47599
▁私の	-9.47661
ご注文	-9.4768
ベ	-9.47706
テスト	-9.47733
大きく	-9.47782
クラブ	-9.47921
手続き	-9.47962
返済	-9.4799
後の	-9.47997
宮	-9.48014
脳	-9.48054
食品	-9.48076
かも	-9.48162
などが	-9.48226
▁私も	-9.48262
見る	-9.48263
w	-9.4834
魚	-9.48373
k	-9.48416
桜	-9.48424
修理	-9.48424
会場	-9.48471
▁第	-9.48508
講座	-9.48539
相	-9.48547
自己	-9.4873
法人	-9.48939
ット	-9.49182
重要な	-9.49248
なぁ	-9.49268
命	-9.4937
ここで	-9.49399
話題	-9.49442
▁その後	-9.49459
書き	-9.49575
要素	-9.49656
してから	-9.49756
質	-9.49758
強	-9.49769
へと	-9.49781
骨	-9.49802
▁自分の	-9.49829
流れ	-9.49864
難しい	-9.4993
によると	-9.49964
場合があります	-9.5007
授業	-9.50182
友達	-9.50231
と言われています	-9.50265
カフェ	-9.50312
料	-9.50332
制	-9.50356
すでに	-9.50392
だが	-9.50451
込んで	-9.50526
コミュニケーション	-9.50567
ック	-9.50597
を行い	-9.5066
気が	-9.50705
気になる	-9.50751
シー	-9.50777
O	-9.50821
調整	-9.50838
▁5	-9.50867
r	-9.50876
為	-9.5089
利益	-9.50896
八	-9.50985
検討	-9.51064
トップ	-9.51091
なのですが	-9.51148
▁まず	-9.5118
かつ	-9.51216
トレーニング	-9.51277
できません	-9.51321
なくて	-9.514
先生	-9.51525
みて	-9.51582
行う	-9.51612
と言って	-9.5166
渡	-9.51706
費	-9.51756
全ての	-9.51823
もしくは	-9.51873
回答	-9.51982
サロン	-9.52029
使える	-9.52062
名前	-9.52078
を通して	-9.5212
行為	-9.52216
身体	-9.52224
どうしても	-9.52327
痛み	-9.52335
を見る	-9.52391
知らない	-9.52409
買取	-9.52475
記憶	-9.52547
悩み	-9.52744
幸せ	-9.5282
タイム	-9.52908
▁まだ	-9.52923
わけです	-9.53129
スタート	-9.53166
の方は	-9.5321
季節	-9.53266
一般	-9.53275
きちんと	-9.53295
結構	-9.53297
下記	-9.53309
▁私が	-9.53321
認識	-9.53421
200	-9.53515
てきた	-9.53552
会社の	-9.5358
の上	-9.53694
いただく	-9.53763
協力	-9.53818
弁護士	-9.53825
ようになりました	-9.53829
までに	-9.53895
師	-9.54031
良かった	-9.54042
読み	-9.54122
分析	-9.54155
長い	-9.54164
をご紹介します	-9.54183
発送	-9.54199
一つ	-9.54225
あの	-9.54244
弊社	-9.54271
額	-9.54386
を持っている	-9.54396
指	-9.54476
京都	-9.54492
きっと	-9.54555
▁■	-9.54585
ローン	-9.54648
h	-9.54687
冬	-9.54716
旅	-9.54736
社員	-9.5477
権	-9.54779
なった	-9.54779
することが	-9.54789
モノ	-9.54799
を受けて	-9.54848
はとても	-9.5487
各種	-9.54994
よかった	-9.55047
のない	-9.55068
特徴	-9.55075
生産	-9.55222
こそ	-9.55276
ランキング	-9.55292
人も	-9.55391
付き	-9.55621
行った	-9.55666
を通じて	-9.5577
とした	-9.55791
手術	-9.55843
の中から	-9.55863
もので	-9.56133
と思いますが	-9.56255
ありません	-9.56333
基本	-9.56392
断	-9.56485
キャラクター	-9.56491
ふ	-9.565
女の子	-9.56509
波	-9.56536
行き	-9.56553
明	-9.56559
成	-9.56571
スター	-9.56633
右	-9.56645
内の	-9.5675
みたいな	-9.56863
家庭	-9.56891
iPhone	-9.56907
どんどん	-9.56907
制限	-9.56918
半	-9.56968
内で	-9.56976
n	-9.56989
ネットワーク	-9.57028
担当	-9.57075
たち	-9.57135
に行って	-9.57144
資格	-9.57154
コード	-9.57171
資料	-9.57173
気分	-9.57182
一日	-9.57298
ほぼ	-9.57364
必要があります	-9.57382
座	-9.574
トイレ	-9.57412
松	-9.57452
ただ	-9.57537
演奏	-9.57551
彼女	-9.57564
物語	-9.57566
レストラン	-9.57603
声	-9.57619
氏	-9.57621
秋	-9.57647
ことがある	-9.57682
出し	-9.57706
今は	-9.57709
時から	-9.57737
仲間	-9.5774
ものが	-9.57743
られている	-9.57765
状態で	-9.57884
祭	-9.57974
▁2017	-9.57989
なぜ	-9.58001
などは	-9.58009
想像	-9.58043
言って	-9.5805
都市	-9.5806
様に	-9.58068
なくても	-9.58096
食べる	-9.58101
倍	-9.5813
趣味	-9.58173
満足	-9.58187
再生	-9.58283
せず	-9.58288
こちらの	-9.58294
できた	-9.58342
することができる	-9.58371
クレジットカード	-9.58407
クリニック	-9.58463
買って	-9.58579
▁平成	-9.58594
」(	-9.586
しましたが	-9.58602
ハイ	-9.58614
▁実は	-9.58635
類	-9.58642
を選ぶ	-9.58678
訪問	-9.58686
反応	-9.58701
自動車	-9.58707
の中	-9.58777
向け	-9.58794
橋	-9.58827
シーン	-9.58896
=	-9.58966
毎年	-9.58975
てしまった	-9.5901
もなく	-9.59011
運用	-9.59032
しよう	-9.59064
酒	-9.59177
未来	-9.59242
▁もう	-9.59315
妻	-9.59344
お問い合わせ	-9.59349
[	-9.59367
おります	-9.59383
井	-9.59395
子ども	-9.59399
持って	-9.59458
建物	-9.59485
事が	-9.59533
とっても	-9.59558
どうぞ	-9.59575
ていました	-9.59601
しているので	-9.59708
ボタン	-9.59766
わからない	-9.59875
お気軽に	-9.60016
くれた	-9.60097
んですよ	-9.60099
であっても	-9.60108
早い	-9.60153
いれば	-9.6024
とのこと	-9.60316
オリジナル	-9.60332
入れ	-9.60357
設備	-9.60358
谷	-9.60544
するための	-9.60551
記	-9.60578
多い	-9.60656
保証	-9.60671
きます	-9.60699
猫	-9.60715
キー	-9.60744
のではないか	-9.60944
校	-9.60949
、『	-9.60958
アカウント	-9.61019
来て	-9.61085
を受ける	-9.61202
地方	-9.61224
スキル	-9.61245
b	-9.61287
をはじめ	-9.61289
げ	-9.61347
ギ	-9.61347
収入	-9.61366
者の	-9.6142
園	-9.61493
きて	-9.61524
失敗	-9.61555
千	-9.6158
@	-9.61594
ホ	-9.61602
日本語	-9.61684
あって	-9.61762
剤	-9.61894
姿勢	-9.61932
っと	-9.62011
アルバム	-9.62031
達	-9.62117
u	-9.6215
展示	-9.62192
からは	-9.62213
com	-9.62248
近く	-9.62388
ところで	-9.62405
オン	-9.62408
使い	-9.62442
IT	-9.62455
さんに	-9.62476
を持ち	-9.62499
可能性があります	-9.62538
されており	-9.62648
赤	-9.62755
少しずつ	-9.62843
チャンス	-9.62917
ご連絡	-9.62986
事実	-9.63043
低	-9.63053
▁このような	-9.63135
ております	-9.6316
確実に	-9.6317
参加者	-9.63238
いても	-9.63286
将来	-9.63339
日本人	-9.63371
違い	-9.63447
文章	-9.6353
簡単な	-9.63564
送信	-9.63653
上に	-9.63661
させていただきました	-9.63703
とする	-9.63742
現状	-9.63809
茶	-9.63959
も多く	-9.63964
利用者	-9.63998
差	-9.64088
家の	-9.64108
ワイン	-9.64108
門	-9.64251
ませんでした	-9.64259
ないように	-9.64265
2017	-9.64296
構造	-9.64298
あるいは	-9.64314
までは	-9.64327
正しい	-9.6433
最後の	-9.64349
方に	-9.64411
連	-9.64424
聞いて	-9.64438
産業	-9.64447
州	-9.64591
られて	-9.64689
会話	-9.64691
してみました	-9.64769
興味	-9.64811
友人	-9.64821
ペ	-9.64832
もらう	-9.64835
するのが	-9.64892
なくなる	-9.64916
飲み	-9.64918
第一	-9.64926
現在の	-9.64933
コスト	-9.64969
丁寧に	-9.64995
予想	-9.64997
フル	-9.65011
経	-9.65026
マー	-9.65038
あなた	-9.65046
ご予約	-9.65051
軍	-9.65054
ぶ	-9.65104
十分	-9.65115
箱	-9.65122
300	-9.65159
を受けた	-9.65189
昭和	-9.65246
方も	-9.65247
さま	-9.65261
いろいろ	-9.65293
まま	-9.65323
少しでも	-9.65337
変	-9.65388
医師	-9.65422
▁実際に	-9.65477
みたい	-9.65567
観	-9.6568
巻	-9.6572
複数の	-9.65804
ホーム	-9.65975
▁*	-9.65983
もし	-9.6599
ルール	-9.6604
70	-9.66053
ドル	-9.66149
ことができました	-9.66198
電	-9.66203
んですけど	-9.66231
年以上	-9.66232
一人で	-9.66312
ていない	-9.6634
条	-9.66362
マッサージ	-9.66375
CD	-9.66473
中央	-9.66529
現実	-9.66538
応募	-9.66572
メールアドレス	-9.66609
いろんな	-9.66635
賞	-9.66715
全部	-9.66715
いつでも	-9.66831
客	-9.66834
セックス	-9.66841
すごい	-9.66864
サン	-9.66885
キャッシング	-9.669
顧客	-9.66908
ゆっくり	-9.66942
職	-9.67007
感覚	-9.67023
神社	-9.67093
シーズン	-9.67116
こともあります	-9.67194
嬉しい	-9.67234
ませ	-9.67261
リン	-9.67315
後は	-9.67331
になってしまう	-9.67341
んですよね	-9.67367
運転	-9.67381
居	-9.67405
削除	-9.67454
のだが	-9.67535
際に	-9.67567
魅力	-9.6758
することは	-9.67586
収	-9.67594
笑顔	-9.67594
人気の	-9.67639
かと思います	-9.6765
損	-9.67682
編集	-9.67683
最高	-9.6772
請求	-9.67762
監督	-9.67765
させ	-9.67776
ママ	-9.67853
でき	-9.6791
女性の	-9.67947
屋さん	-9.67953
地域の	-9.67961
接続	-9.67969
を取り	-9.68003
もらえる	-9.68021
掲示板	-9.68157
総	-9.68198
ワン	-9.68274
被害	-9.68322
北海道	-9.68505
にくい	-9.68518
皆さん	-9.68525
機器	-9.68535
今の	-9.68555
してくれます	-9.68584
皆様	-9.68654
▁それが	-9.68696
会議	-9.68739
と呼ばれる	-9.68755
に関して	-9.68765
るのは	-9.68798
限り	-9.68835
のうち	-9.68883
なって	-9.68944
局	-9.69016
製造	-9.69036
▁しかも	-9.69068
I	-9.69218
離婚	-9.69222
電気	-9.69227
教	-9.69244
というもの	-9.69283
働き	-9.69294
ゆ	-9.6931
これが	-9.6936
当然	-9.6937
色々	-9.69438
頃	-9.69467
メリット	-9.69481
感謝	-9.69483
こういう	-9.6952
計	-9.69566
その後	-9.69635
油	-9.69668
印刷	-9.69712
員	-9.69722
られない	-9.69748
午後	-9.69923
タイ	-9.69944
出演	-9.69983
対	-9.70014
せる	-9.70056
程	-9.70088
近	-9.7027
Z	-9.70279
▁そう	-9.70313
専門	-9.7036
についても	-9.7042
に対し	-9.70428
導入	-9.70447
強く	-9.70494
たくない	-9.7062
気に	-9.70688
もない	-9.70726
答え	-9.70753
左	-9.70807
建築	-9.70813
総合	-9.70831
したいと思います	-9.70863
×	-9.71052
in	-9.71054
言い	-9.71059
高校	-9.71092
思う	-9.71126
年生	-9.71176
時間は	-9.71274
下記の	-9.71281
素	-9.7134
番号	-9.71377
弾	-9.71542
せずに	-9.71621
あなたが	-9.71751
株	-9.71875
又は	-9.71943
の高い	-9.71964
ご相談	-9.71969
スーパー	-9.7198
距離	-9.71983
DVD	-9.71992
スマートフォン	-9.71994
える	-9.71999
信頼	-9.72071
▁こんにちは	-9.72109
作って	-9.72145
mm	-9.72146
取得	-9.72189
雑誌	-9.72254
1000	-9.7231
まとめ	-9.72319
クリスマス	-9.72369
と共に	-9.72378
要	-9.72452
攻撃	-9.72532
協会	-9.72561
新聞	-9.72571
適切な	-9.72582
をした	-9.72586
民	-9.72638
勝	-9.72705
可能な	-9.72758
女性が	-9.7287
公式	-9.72988
する事	-9.72989
加工	-9.72989
裏	-9.72999
改めて	-9.73007
星	-9.7304
しやすい	-9.73135
戦争	-9.73165
されていない	-9.7325
地震	-9.73281
かかる	-9.73304
求人	-9.73332
進	-9.73453
探し	-9.73486
四	-9.73561
ようだ	-9.73566
v	-9.73568
彼の	-9.73576
を入れて	-9.73678
霊	-9.73679
ひと	-9.7369
開	-9.73708
疲れ	-9.73786
なりました	-9.73885
古い	-9.739
尾	-9.73905
新規	-9.73907
構成	-9.73951
しまいます	-9.73961
co	-9.73975
タイトル	-9.73994
れた	-9.74019
精神	-9.74028
可能です	-9.74091
ですから	-9.74182
自分に	-9.742
種類の	-9.74204
便利な	-9.74222
有名	-9.7423
角	-9.7435
してしまった	-9.74389
書類	-9.7451
楽しみ	-9.74543
利	-9.74618
するには	-9.74625
厳しい	-9.74629
回復	-9.7463
閲覧	-9.74664
住所	-9.74673
そうだ	-9.74712
動物	-9.74718
買い	-9.74739
不足	-9.7475
責任	-9.74826
これらの	-9.7483
講師	-9.74933
鳥	-9.75041
予防	-9.75078
なります	-9.75179
体の	-9.75354
相場	-9.75357
▁6	-9.75366
だと思う	-9.75419
インストール	-9.75424
ほ	-9.75432
増	-9.75467
委員会	-9.7547
娘	-9.75475
食べて	-9.7557
んですね	-9.75611
al	-9.75613
いたら	-9.75633
リフォーム	-9.75637
お話	-9.75639
動作	-9.75665
切	-9.75665
を利用する	-9.7568
これを	-9.75721
つき	-9.75758
最初の	-9.75779
みました	-9.75781
草	-9.7587
深い	-9.75934
急	-9.76003
かった	-9.76021
認定	-9.76094
と思っている	-9.7623
だけど	-9.76253
プラス	-9.7626
いましたが	-9.76284
字	-9.76379
際	-9.7666
受け	-9.76702
生徒	-9.76759
未	-9.76797
小さい	-9.76799
層	-9.76828
栄養	-9.76846
拡大	-9.76881
90	-9.76887
ていて	-9.76948
といえば	-9.76981
ここに	-9.76982
有名な	-9.77058
ものの	-9.77097
絶対に	-9.77126
血	-9.77199
ステージ	-9.77304
韓国	-9.77357
▁これから	-9.77397
許可	-9.77428
だけでも	-9.77436
なければならない	-9.77579
きっかけ	-9.77783
だけの	-9.77917
カット	-9.77953
実践	-9.77971
案内	-9.77994
を感じる	-9.78003
数字	-9.78026
うちに	-9.78045
夫婦	-9.78046
となっております	-9.78061
ランチ	-9.78063
に必要な	-9.78084
事情	-9.78234
ですし	-9.78255
非	-9.78257
商品を	-9.78328
書いた	-9.7835
僕	-9.78362
ったり	-9.78376
実行	-9.784
設置	-9.78401
いません	-9.78413
刺激	-9.78434
☆	-9.78499
うまく	-9.78553
診断	-9.78664
てくれる	-9.78673
合い	-9.78688
が良い	-9.78707
週	-9.78726
レンタル	-9.78734
若い	-9.78746
修正	-9.78754
森	-9.78786
集	-9.78865
が可能です	-9.78919
そこに	-9.78923
ラー	-9.78939
のかな	-9.79007
落	-9.79034
良	-9.7906
複数	-9.79072
はまだ	-9.7912
逆	-9.79128
クリーム	-9.79152
影響	-9.79186
団	-9.79189
させて頂きます	-9.79211
ないので	-9.79224
してきました	-9.79232
携帯電話	-9.79266
前から	-9.79281
づくり	-9.79336
その他	-9.79397
極	-9.79528
ないと	-9.79531
接	-9.79593
こちら	-9.79596
製作	-9.79691
つく	-9.79703
キャンセル	-9.79725
べき	-9.79751
完成	-9.79757
奥	-9.79822
アイ	-9.79853
テーブル	-9.79899
定期的に	-9.79903
ストーリー	-9.79969
やり	-9.80005
逆に	-9.80105
発生	-9.80111
までの	-9.80118
がん	-9.80127
できるように	-9.80138
つけ	-9.80175
深く	-9.80192
携帯	-9.80196
大丈夫	-9.80222
法律	-9.80257
どのように	-9.80268
するため	-9.80277
HP	-9.80294
が無い	-9.80492
弱	-9.80554
楽しんで	-9.80722
ひとつ	-9.80728
の問題	-9.80751
いただけます	-9.80771
者が	-9.80772
機関	-9.80781
の中には	-9.80805
内に	-9.80827
便	-9.80829
自転車	-9.80874
資金	-9.8093
お届け	-9.8097
km	-9.81052
あらゆる	-9.8115
相手の	-9.81161
かけ	-9.81207
始め	-9.81234
板	-9.81241
ベスト	-9.8125
運	-9.81257
しかない	-9.8131
実績	-9.81318
市民	-9.81366
湯	-9.81383
一覧	-9.81387
汚れ	-9.81406
だったら	-9.81422
ルーム	-9.81457
省	-9.81485
退	-9.81531
re	-9.81552
両	-9.81579
沢	-9.81634
特別な	-9.81826
看護師	-9.81843
解説	-9.81885
URL	-9.81893
ますので	-9.81903
全然	-9.81905
売	-9.82
治	-9.82002
専用	-9.8208
彼	-9.8218
壁	-9.82189
宿泊	-9.82198
向上	-9.82243
積極的に	-9.82262
筋	-9.82267
みる	-9.82313
日まで	-9.82318
系の	-9.8233
読	-9.82351
ことでしょう	-9.82407
サッカー	-9.8242
仕様	-9.82431
jp	-9.82432
ことになります	-9.82434
まだまだ	-9.82512
を含む	-9.82552
できるだけ	-9.82621
葉	-9.82658
選び	-9.82675
▁[	-9.8272
よろしくお願いします	-9.82759
▁“	-9.82761
出来ない	-9.82775
申し込み	-9.82807
休み	-9.82838
可愛い	-9.82887
用意	-9.8292
通常	-9.82939
性格	-9.83083
と言われる	-9.83093
わかる	-9.83135
▁他の	-9.83159
取	-9.83177
女性は	-9.83186
サーバー	-9.83186
走	-9.832
始めた	-9.83215
工場	-9.8328
込む	-9.83343
▁このように	-9.83357
されること	-9.83362
側	-9.83365
したもの	-9.83367
バイク	-9.83374
症	-9.83429
美容	-9.83444
見た	-9.83456
里	-9.83549
体重	-9.83566
展	-9.83609
腕	-9.83679
分野	-9.83711
提案	-9.83719
普通に	-9.83725
▁今まで	-9.83746
みてください	-9.8379
国民	-9.83813
来た	-9.83839
トン	-9.83842
天気	-9.83908
オンライン	-9.83934
買い物	-9.83978
共有	-9.83989
安く	-9.84008
路	-9.84042
をご覧ください	-9.84046
記念	-9.84089
建設	-9.84112
無い	-9.84147
いますが	-9.84157
事は	-9.84167
パートナー	-9.84184
予算	-9.84299
回目	-9.84306
▁ぜひ	-9.84362
▁7	-9.84418
場所に	-9.8446
院	-9.84507
昨年	-9.84523
材料	-9.84531
科	-9.84569
輪	-9.84588
売り	-9.84693
Q	-9.84743
普通	-9.84768
を見ると	-9.84786
不倫	-9.84796
知	-9.84799
官	-9.84962
ミニ	-9.84965
落ち	-9.84969
人たち	-9.85012
ホール	-9.85059
今年	-9.85069
に行った	-9.85199
放	-9.85201
なし	-9.8522
敵	-9.85226
みましょう	-9.85242
話を	-9.85243
に応じて	-9.85303
外国人	-9.85335
感動	-9.85367
現場	-9.85397
五	-9.8541
過去	-9.85452
吉	-9.85484
今後の	-9.85503
細胞	-9.85593
信	-9.85597
融資	-9.85662
の話	-9.85668
既に	-9.8567
可能性	-9.85707
しまいました	-9.85766
アート	-9.85789
すべき	-9.8581
サー	-9.85831
フォーム	-9.85872
▁2016	-9.85885
固定	-9.85888
バージョン	-9.85912
あたり	-9.85917
金利	-9.85922
いるので	-9.85963
担当者	-9.86005
僕は	-9.86111
スポット	-9.86117
に入って	-9.86139
はあまり	-9.86174
画	-9.86213
証	-9.86224
元気	-9.86228
なくなった	-9.8626
x	-9.86262
しまい	-9.86319
まったく	-9.86347
間に	-9.86367
キャリア	-9.86396
2000	-9.86414
最高の	-9.86444
働く	-9.86457
le	-9.86478
してくれた	-9.8649
できて	-9.8651
をもって	-9.86512
付	-9.86611
道路	-9.86621
できれば	-9.86687
端末	-9.86726
機械	-9.86737
形で	-9.86741
シート	-9.86779
想	-9.8678
シャ	-9.86788
疑問	-9.86792
布	-9.86914
意見	-9.86915
を紹介	-9.86946
記載	-9.86983
続けて	-9.8701
失	-9.87012
ロック	-9.87048
お仕事	-9.87068
方法を	-9.87081
通知	-9.87106
発行	-9.8711
▁ここでは	-9.87185
方の	-9.87187
いま	-9.87201
ることができます	-9.87213
いたので	-9.87214
出張	-9.87226
ガス	-9.87236
周辺	-9.87242
訳	-9.87251
危険	-9.87275
診療	-9.87276
個人情報	-9.87299
食材	-9.87303
バランス	-9.8736
当日	-9.874
社長	-9.87418
宿	-9.87436
勤務	-9.87454
アジア	-9.87495
てしまいます	-9.87504
そのような	-9.87523
もちろん	-9.8756
植物	-9.87562
感情	-9.87572
リリース	-9.8767
ようになった	-9.87679
がとても	-9.87716
35	-9.87744
町の	-9.87745
分からない	-9.8776
仕組み	-9.87837
人を	-9.87842
来る	-9.87908
筋肉	-9.88007
出来	-9.88022
端	-9.88033
イラスト	-9.88092
割引	-9.88093
WEB	-9.8815
▁こんな	-9.88155
関係者	-9.88157
ハウス	-9.88158
がありません	-9.88172
転	-9.88256
ある程度	-9.88331
の方に	-9.88332
首	-9.88348
完全に	-9.88365
SNS	-9.88369
とにかく	-9.88391
しません	-9.88449
お知らせ	-9.88452
地球	-9.88453
レース	-9.88456
新たに	-9.88477
完了	-9.88478
▁これまで	-9.88515
労働	-9.88527
絶対	-9.88534
Google	-9.88541
見える	-9.88552
ビタミン	-9.88562
特	-9.88579
▁ちょっと	-9.88594
異	-9.88616
継続	-9.8868
卒業	-9.88699
十	-9.8872
動	-9.8875
心の	-9.8876
人物	-9.88763
処分	-9.88793
国の	-9.88836
破	-9.88845
公演	-9.88847
早	-9.88853
パターン	-9.88885
柄	-9.88912
無理	-9.88935
調	-9.88971
ご紹介	-9.88971
守	-9.88972
ライフ	-9.89006
▁ここで	-9.89007
みなさん	-9.8908
▁C	-9.89114
お願い	-9.89118
ビル	-9.89214
発見	-9.89257
ほか	-9.89358
考える	-9.89401
手数料	-9.89417
に行ってきました	-9.89444
事例	-9.89523
さんと	-9.89534
っていう	-9.89549
バンド	-9.89574
具体的な	-9.89576
する必要があります	-9.89583
妊娠	-9.89633
ケーキ	-9.89643
がありますが	-9.89656
高齢者	-9.89664
そこまで	-9.89697
品質	-9.89729
▁本当に	-9.89744
▁これらの	-9.89773
自動	-9.89784
お願いします	-9.89858
自由に	-9.89872
以来	-9.89913
情報が	-9.8992
普通の	-9.89943
造	-9.89945
ミス	-9.89954
だって	-9.89963
続ける	-9.89976
製	-9.9
アルバイト	-9.90012
LINE	-9.90039
みたいです	-9.90052
保	-9.90054
家に	-9.90165
につきましては	-9.90174
余	-9.9018
留学	-9.9018
セキュリティ	-9.90251
ご家族	-9.90258
を行っています	-9.90264
待って	-9.90272
借金	-9.90275
すぎて	-9.90283
ガン	-9.90287
データを	-9.90325
しい	-9.90394
塩	-9.90401
見学	-9.90429
手段	-9.90479
肩	-9.90508
脱	-9.90512
口コミ	-9.90524
▁_	-9.906
お酒	-9.90611
袋	-9.90615
フィ	-9.90625
出会い系	-9.90641
on	-9.90644
バイト	-9.9065
アル	-9.90672
を探す	-9.9069
スピード	-9.90729
の際に	-9.90758
戸	-9.90767
考え方	-9.90772
重要	-9.90833
気がします	-9.90853
ログイン	-9.90854
して下さい	-9.90912
いっぱい	-9.90955
が悪い	-9.90958
にとっては	-9.90959
じゃ	-9.90971
ご参加	-9.91059
られます	-9.91173
▁なので	-9.91185
▁8	-9.91185
汗	-9.91231
決済	-9.91237
しなければならない	-9.91243
普段	-9.91278
▁何	-9.91296
なんと	-9.91299
ファ	-9.91368
▁それでも	-9.91455
君	-9.91482
報道	-9.915
管	-9.91554
以前	-9.91571
れない	-9.91581
耳	-9.91582
の流れ	-9.91607
列	-9.9163
理	-9.91658
国内	-9.9167
いって	-9.91731
焼き	-9.91739
するという	-9.91784
言語	-9.91788
下の	-9.9179
津	-9.91892
体制	-9.9196
緊張	-9.92037
場所で	-9.92094
パーティー	-9.92136
戦略	-9.9216
やる	-9.92165
ていません	-9.92171
券	-9.92187
に参加	-9.92196
可能性がある	-9.92207
ぼ	-9.92209
それでも	-9.92287
レビュー	-9.92335
食べ物	-9.92338
秒	-9.92366
の間	-9.92403
習慣	-9.9251
報	-9.92534
になること	-9.9257
オプション	-9.92576
月から	-9.92584
バッグ	-9.92599
www	-9.92798
目の	-9.92809
バック	-9.92822
▁大	-9.92839
▁T	-9.92858
突然	-9.92906
人材	-9.92913
▁9	-9.92949
と思われる	-9.9296
億円	-9.92964
が出る	-9.93006
場合がございます	-9.93022
納得	-9.93036
整備	-9.93037
ぬ	-9.93066
就職	-9.93078
電子	-9.93083
在庫	-9.93133
方々	-9.93141
についての	-9.9318
父	-9.93187
メンテナンス	-9.93203
方法は	-9.93224
an	-9.93283
2016	-9.93312
を超える	-9.93314
の原因	-9.93336
生き	-9.93362
証拠	-9.93366
ビデオ	-9.93385
▁あと	-9.93435
であろう	-9.9344
マーク	-9.93479
職場	-9.9353
玉	-9.93597
世代	-9.93605
旦那	-9.93701
べ	-9.93723
は何	-9.93736
のお	-9.93743
婚活	-9.9375
にならない	-9.93768
できなかった	-9.93872
っています	-9.93885
ようになります	-9.93912
徐々に	-9.93917
メイン	-9.93925
ライト	-9.93943
があると	-9.93974
過ぎ	-9.93984
誰でも	-9.93996
苦労	-9.94009
通販	-9.94018
赤ちゃん	-9.94052
実際の	-9.94059
en	-9.94144
ができます	-9.94167
藤	-9.9418
するか	-9.94209
ニー	-9.94249
地図	-9.94266
を使用して	-9.94276
は非常に	-9.94292
ご来店	-9.94303
沖縄	-9.94315
キャラ	-9.94345
万人	-9.94347
を紹介します	-9.94403
自ら	-9.94467
自分を	-9.94509
してみてください	-9.94515
日は	-9.94561
恋	-9.94564
グッズ	-9.94573
大手	-9.94584
オフィス	-9.94617
宇宙	-9.94737
返	-9.9474
幅	-9.94754
税	-9.9477
タン	-9.94782
に入る	-9.94788
したこと	-9.94809
ころ	-9.94847
岩	-9.94878
ここまで	-9.94906
注	-9.94908
歳の	-9.9492
の違い	-9.95012
の一部	-9.95026
▁12	-9.95045
範囲	-9.95068
アドバイス	-9.9511
に来て	-9.9512
つつ	-9.95138
であること	-9.95158
をしています	-9.95159
年から	-9.95199
節	-9.95206
だし	-9.95217
パパ	-9.9528
面接	-9.95309
空気	-9.95347
▁本日	-9.95367
ビール	-9.95406
更に	-9.95416
ありました	-9.95439
なるべく	-9.95442
工	-9.95458
代表	-9.95511
その他の	-9.95524
もあるので	-9.95571
現	-9.95672
スクール	-9.95674
資産	-9.9572
堂	-9.95763
旧	-9.95797
編	-9.95844
ようになる	-9.95854
上記	-9.9586
出して	-9.95965
異なる	-9.95971
特典	-9.96005
が一番	-9.96033
ワーク	-9.96049
アドレス	-9.96061
医	-9.96118
スケジュール	-9.96128
▁これが	-9.9615
日本で	-9.96185
返信	-9.96241
結局	-9.96244
当時	-9.96307
いくら	-9.96328
地区	-9.96332
シュ	-9.96335
えて	-9.96399
タイプの	-9.96408
企業の	-9.96423
合う	-9.96447
お茶	-9.96485
市で	-9.96507
最後に	-9.96511
交渉	-9.96537
を行いました	-9.96551
方法で	-9.96565
▁P	-9.96582
車で	-9.96587
の情報	-9.96641
界	-9.96654
鉄	-9.96725
好	-9.96759
越	-9.96789
キャ	-9.9679
体調	-9.96797
買う	-9.96801
もいい	-9.96877
かけて	-9.96904
電子書籍	-9.96933
▁まあ	-9.96972
フランス	-9.96976
自信	-9.96995
言	-9.96999
そんなに	-9.97042
▁昨日	-9.97054
レポート	-9.9708
デート	-9.97099
お金を	-9.9715
満	-9.97163
インド	-9.97167
なんとか	-9.97174
いただける	-9.97214
結	-9.97214
しようと	-9.97229
自身の	-9.97281
こともある	-9.97305
比較的	-9.97339
ゼ	-9.97388
した場合	-9.97392
坂	-9.97398
もう少し	-9.97414
なのに	-9.97462
ことが出来ます	-9.97478
▁確かに	-9.97491
卵	-9.97495
利用する	-9.975
ing	-9.97507
▁東京	-9.97509
私たちの	-9.97591
相手に	-9.97612
といっても	-9.9762
評判	-9.97632
▁以前	-9.97656
広く	-9.97664
ウェブサイト	-9.97686
職員	-9.97747
米国	-9.97755
舞台	-9.97766
空港	-9.97786
もらった	-9.9782
事項	-9.97865
平均	-9.97867
詳細	-9.97869
交流	-9.9794
いくつか	-9.97963
事業者	-9.97997
歩いて	-9.98019
ところに	-9.98025
してもらう	-9.98082
向けの	-9.98107
シャツ	-9.98177
の状態	-9.98282
像	-9.98305
到着	-9.98413
青	-9.98417
デジタル	-9.98436
氏は	-9.98488
浮気	-9.98504
▁11	-9.98522
小学校	-9.9853
枠	-9.98538
なんです	-9.98551
ブラ	-9.98553
なんだ	-9.98609
人には	-9.98649
ならない	-9.9867
選	-9.9867
いう	-9.98678
さえ	-9.98681
喜んで	-9.98686
清	-9.98777
たいと思います	-9.98781
ar	-9.98798
昔	-9.98829
終わり	-9.98864
がありますので	-9.98875
わけ	-9.98979
把握	-9.99004
いつ	-9.99017
方には	-9.9903
便利です	-9.99085
チャ	-9.9909
▁M	-9.99094
内容を	-9.99117
手間	-9.99147
twitter	-9.99174
殺	-9.99175
テキスト	-9.99185
してます	-9.99187
大きい	-9.99191
ボール	-9.99193
発展	-9.9921
乗り	-9.99226
取り組み	-9.99238
男女	-9.99316
オフ	-9.99346
メールで	-9.99409
林	-9.99424
表情	-9.99545
遠	-9.99572
東京都	-9.99585
or	-9.99617
を持った	-9.99652
発言	-9.99682
スタッフが	-9.99692
場合もあります	-9.997
優しい	-9.99708
箇所	-9.99727
ようにしましょう	-9.99738
レス	-9.99758
公式サイト	-9.99772
▁B	-9.99832
腰	-9.9985
生まれ	-9.99885
解	-9.99986
上げ	-10.0001
明日	-10.0004
を楽しむ	-10.0006
乾燥	-10.001
からも	-10.0012
申込	-10.0013
科学	-10.0017
私たち	-10.0018
以外にも	-10.0019
セフレ	-10.0024
カン	-10.0028
なん	-10.003
モン	-10.003
知っている	-10.0031
以降	-10.0033
当たり	-10.004
挑戦	-10.0043
人口	-10.0047
というか	-10.0051
実現	-10.0052
工夫	-10.0055
自宅	-10.0056
床	-10.0056
▁各	-10.0057
ベース	-10.0061
打ち	-10.0063
か月	-10.0065
模様	-10.0067
案	-10.007
るように	-10.0071
ペット	-10.0076
福祉	-10.0076
現代	-10.0076
世界の	-10.0079
となって	-10.008
パワー	-10.0081
を行っている	-10.0082
ざ	-10.0085
方針	-10.0092
お得な	-10.0096
いった	-10.0099
詳しく	-10.0101
にあります	-10.0101
お母さん	-10.0104
カードローン	-10.0113
が可能	-10.0118
本日	-10.0118
にあった	-10.012
00	-10.0125
一般的な	-10.0128
のだろうか	-10.0136
様子	-10.015
必要がある	-10.0153
ことができ	-10.0164
の一つ	-10.0171
の利用	-10.0174
の中でも	-10.0178
▁私たちは	-10.0179
別途	-10.0181
実験	-10.0182
立場	-10.0184
具体的に	-10.0192
ID	-10.0199
▁今年は	-10.02
よろしくお願いいたします	-10.02
豊	-10.0201
だろうか	-10.0201
意	-10.0202
できました	-10.0204
頂き	-10.0206
派	-10.0208
深	-10.0209
とりあえず	-10.0212
最初に	-10.0212
回数	-10.0214
喜び	-10.0216
化粧品	-10.0217
簡単	-10.0222
れて	-10.0226
知って	-10.0229
言えば	-10.0232
縁	-10.0234
においては	-10.0237
ショー	-10.0238
消費	-10.0238
提出	-10.0239
カル	-10.0245
内部	-10.0245
っていた	-10.0248
ゲ	-10.025
お部屋	-10.0251
ベッド	-10.0252
ご協力	-10.0252
の種類	-10.0255
先輩	-10.0258
はかなり	-10.0266
先の	-10.0268
パー	-10.027
増加	-10.0271
ピアノ	-10.0272
全体の	-10.0275
感想	-10.0278
議論	-10.0283
作る	-10.0284
災害	-10.0288
一つの	-10.0289
アプリケーション	-10.029
雇用	-10.029
の内容	-10.0295
地元	-10.0296
モバイル	-10.03
禁止	-10.0304
45	-10.0306
出産	-10.0306
ガイド	-10.031
結婚式	-10.0312
いると	-10.0314
やすく	-10.0321
車両	-10.0322
状	-10.0327
鍵	-10.0333
▁私	-10.0333
政治	-10.0337
の写真	-10.0338
ではないでしょうか	-10.0346
払い	-10.0347
夫	-10.0348
が出て	-10.0349
リア	-10.0351
瞬間	-10.0354
サイ	-10.0358
香	-10.0363
キロ	-10.0364
上昇	-10.0366
パス	-10.0366
作った	-10.0368
小説	-10.0371
特定の	-10.0373
球	-10.0374
少ない	-10.0378
養	-10.038
患者	-10.0382
▁あなたの	-10.0383
有料	-10.0385
を目指す	-10.0387
ときには	-10.0388
してみましょう	-10.039
を選んで	-10.0392
あなたは	-10.0397
ドレス	-10.04
こともあり	-10.0403
名の	-10.0408
予定です	-10.041
ようやく	-10.041
が必要な	-10.0411
残り	-10.0412
要因	-10.0413
安定	-10.0414
のかもしれません	-10.0414
に近い	-10.0417
ヴィ	-10.0419
タイミング	-10.0423
▁当	-10.0426
ジュ	-10.0426
引	-10.0429
だな	-10.0429
バン	-10.043
コーナー	-10.0432
初心者	-10.0432
傾向	-10.0439
をお願いします	-10.0445
くん	-10.045
ヨーロッパ	-10.0452
級	-10.0453
近くの	-10.0455
・・	-10.0457
んだろう	-10.0457
たちが	-10.0462
長期	-10.0466
ご案内	-10.0469
害	-10.0469
を買う	-10.0473
のではなく	-10.0474
らず	-10.0476
姿	-10.0477
子育て	-10.0479
おすすめの	-10.0481
ことが多い	-10.0481
はある	-10.0484
消費者金融	-10.049
片	-10.0497
チャレンジ	-10.0499
精	-10.05
値段	-10.0502
多少	-10.0502
カバー	-10.0503
が少ない	-10.0503
持っている	-10.0503
CM	-10.0506
難	-10.0506
鉄道	-10.0511
おいしい	-10.0518
間違い	-10.0525
にもかかわらず	-10.0528
ご購入	-10.0531
独自の	-10.0532
年代	-10.0534
くれました	-10.0536
オススメ	-10.054
出発	-10.0544
のだろう	-10.0545
取材	-10.0551
近い	-10.0553
に入れて	-10.0555
日程	-10.0557
ボランティア	-10.056
聞き	-10.0561
保管	-10.057
何が	-10.0572
選挙	-10.0578
車の	-10.058
が高く	-10.058
京	-10.0582
香り	-10.0582
色々と	-10.0583
入って	-10.0586
億	-10.0586
段階	-10.0587
という事	-10.059
どれだけ	-10.0593
める	-10.0594
人数	-10.0596
送	-10.0598
虫	-10.0599
みた	-10.0602
思った	-10.0602
ヌ	-10.0609
早めに	-10.0609
らしく	-10.0616
ロン	-10.0617
していますが	-10.0619
しばらく	-10.062
みんなで	-10.0621
そこで	-10.0626
OS	-10.0626
材	-10.0627
これからも	-10.0633
専門家	-10.0639
TV	-10.0645
軽	-10.0649
と言えます	-10.0652
マイ	-10.0653
をつけて	-10.0653
お休み	-10.0655
楽しめる	-10.0657
送料	-10.0659
教えて	-10.0661
ネタ	-10.0661
の間に	-10.0664
的には	-10.067
あれ	-10.0674
従業員	-10.0679
書籍	-10.0682
塾	-10.0683
起	-10.0683
これで	-10.0684
頂く	-10.0689
大事な	-10.0689
の高さ	-10.069
ガラス	-10.0696
わかって	-10.0699
ブル	-10.0707
使っている	-10.0707
問い合わせ	-10.0709
ずつ	-10.0712
スキンケア	-10.0713
ソフトウェア	-10.0713
減少	-10.0727
てる	-10.0727
勝手に	-10.0731
胸	-10.0733
時まで	-10.0735
頂いた	-10.0738
当店	-10.0742
午前	-10.0742
現地	-10.0744
お問い合わせください	-10.0745
背景	-10.0746
受験	-10.0746
そうで	-10.0747
最終	-10.0747
志	-10.0747
2015	-10.0748
コピー	-10.075
のことを	-10.075
睡眠	-10.0751
をよく	-10.0752
ベル	-10.0752
麻	-10.0753
いなかった	-10.0755
政策	-10.0759
のでしょう	-10.0766
高く	-10.077
がたくさん	-10.0773
時点で	-10.0774
電話番号	-10.0781
再び	-10.0782
事で	-10.0784
を見た	-10.0788
途中で	-10.0788
されない	-10.0795
液	-10.0798
報酬	-10.0799
ハン	-10.0799
在	-10.0799
といいます	-10.08
軽く	-10.0805
▁最近は	-10.0809
と言えば	-10.0813
認証	-10.0814
まさに	-10.0815
キッチン	-10.0817
もありますが	-10.0822
岡	-10.0826
の世界	-10.0827
半分	-10.0828
ろう	-10.0831
終	-10.0832
急に	-10.0834
冊	-10.0835
▁とても	-10.0836
ります	-10.0838
羽	-10.084
ジャ	-10.084
お電話	-10.0843
の方々	-10.0846
ドイツ	-10.0849
写真を	-10.0849
円で	-10.0849
百	-10.0851
こうした	-10.0857
ちょっとした	-10.086
ところです	-10.0863
炎	-10.0863
向	-10.0873
だそうです	-10.0876
合わせ	-10.0876
誰か	-10.0878
んだよ	-10.0881
ロシア	-10.0883
▁なぜ	-10.089
パッケージ	-10.0892
実際	-10.0896
痛	-10.0897
すぎる	-10.0898
手法	-10.0901
アップデート	-10.0902
異常	-10.0906
推進	-10.0907
ダンス	-10.0908
▁今日	-10.0908
▁ということで	-10.0912
ジャンル	-10.0914
学び	-10.0914
▁今年も	-10.0914
▁毎日	-10.0916
登場	-10.0921
を考える	-10.0923
施工	-10.0925
を取る	-10.093
アンケート	-10.0939
髪	-10.0941
アーティスト	-10.0941
技	-10.0943
に合わせた	-10.0943
即	-10.0944
時計	-10.0948
どうやって	-10.095
大型	-10.0953
者は	-10.0954
向き	-10.0955
'	-10.0955
休日	-10.0964
ほどの	-10.0964
ペン	-10.0965
利用できる	-10.0966
Windows	-10.0971
再度	-10.0973
規制	-10.0976
配送	-10.0978
手を	-10.0978
しないと	-10.0984
嬉しいです	-10.0991
情報は	-10.0992
待ち	-10.1
エル	-10.1003
整理	-10.1006
記事を	-10.1012
100%	-10.1018
消費者	-10.1021
を使い	-10.1026
世	-10.1027
お申し込み	-10.1028
▁2015	-10.1029
ネットで	-10.1029
ナー	-10.1031
できるよう	-10.1031
日常	-10.1031
便利	-10.1033
最新の	-10.1033
現金	-10.1033
ブラック	-10.1039
彼は	-10.1042
政府	-10.1043
説	-10.1045
駅から	-10.1045
折	-10.1045
等で	-10.1046
を探して	-10.1046
ボックス	-10.1046
レン	-10.1047
ビー	-10.105
活動を	-10.1051
ることで	-10.1054
秘密	-10.1054
の結果	-10.1054
得	-10.1055
章	-10.1061
に合った	-10.1062
▁今は	-10.1067
ティー	-10.1069
と思っていた	-10.1072
決して	-10.1073
▁https	-10.1075
▁F	-10.1078
おく	-10.108
の変化	-10.1081
配布	-10.1082
していると	-10.1085
▁こちらの	-10.1087
誰	-10.1088
てきました	-10.1091
電車	-10.1092
をお	-10.1099
釣り	-10.11
都	-10.1101
湖	-10.1107
つい	-10.1107
ことが出来る	-10.111
幅広い	-10.111
感染	-10.1111
派遣	-10.1113
▁これからも	-10.1114
▁これで	-10.1115
源	-10.1119
出会い系サイト	-10.1122
キーワード	-10.1126
いくつかの	-10.1129
豊かな	-10.1131
しておく	-10.1142
仕	-10.1146
ということを	-10.1146
忘れ	-10.1148
を考えて	-10.115
at	-10.1154
二人	-10.1154
庭	-10.1155
訓練	-10.1157
ッと	-10.1166
完全	-10.1166
高校生	-10.1166
部門	-10.1171
を買って	-10.1173
Twitter	-10.1173
▁http	-10.1175
皆	-10.1179
指摘	-10.118
手順	-10.1184
降	-10.1185
口座	-10.1186
▁一方	-10.1191
コンサート	-10.1192
アレルギー	-10.1196
息子	-10.1197
思いを	-10.1197
皮	-10.1206
反	-10.1207
パック	-10.1207
調べて	-10.1209
を出す	-10.1218
アー	-10.1219
規模	-10.1221
ソン	-10.1222
段	-10.1228
防止	-10.1228
お客さん	-10.1229
すぎ	-10.1232
等を	-10.1233
ラーメン	-10.1233
替え	-10.1234
連携	-10.1235
てしまいました	-10.1236
48	-10.1238
とさせていただきます	-10.124
明らかに	-10.1245
こともできます	-10.1245
屋根	-10.125
ご希望	-10.1254
地元の	-10.1258
ブラウザ	-10.1264
一年	-10.1266
同時に	-10.1268
メイク	-10.1269
になってしまいます	-10.127
▁詳しくは	-10.1278
ことはない	-10.1278
カレー	-10.1279
見られる	-10.128
成果	-10.128
サイトで	-10.1281
積	-10.1287
も多い	-10.1287
ブルー	-10.1293
扱い	-10.1295
だけでは	-10.13
平和	-10.1302
時間に	-10.1303
かわいい	-10.1309
フード	-10.1311
包	-10.1311
したのは	-10.1312
と思ったら	-10.1313
リーダー	-10.1314
私たちは	-10.1317
家具	-10.1318
交通	-10.1319
帯	-10.1326
支払	-10.1328
お勧め	-10.1329
速度	-10.133
なあ	-10.1332
鼻	-10.1332
生きる	-10.1333
貴重な	-10.1335
自分は	-10.1336
どこか	-10.1336
共同	-10.1339
目を	-10.134
>	-10.1343
別に	-10.1344
も可能です	-10.1346
しますので	-10.1348
優勝	-10.1349
相当	-10.135
警察	-10.1352
気持ちが	-10.1352
コントロール	-10.1354
ヘ	-10.1355
オー	-10.1356
がいい	-10.1357
恋人	-10.1357
良かったです	-10.1357
いき	-10.1357
回り	-10.136
シェア	-10.1364
忙しい	-10.137
を出して	-10.1371
頂きました	-10.1372
がよく	-10.1374
前後	-10.1376
私達	-10.1376
バイ	-10.1379
いたり	-10.138
権利	-10.1388
新しく	-10.1393
少年	-10.1394
にする	-10.1395
になってしまった	-10.1395
義	-10.1399
わけではない	-10.1401
投票	-10.1403
▁僕は	-10.1404
放置	-10.1404
商品の	-10.1406
今年は	-10.1409
を知る	-10.1413
デビュー	-10.1413
st	-10.1429
肌の	-10.143
示	-10.143
がいる	-10.1432
靴	-10.1437
込んだ	-10.1439
選択肢	-10.1439
寒い	-10.144
母親	-10.1441
の大きさ	-10.1446
ダメ	-10.1446
ていきます	-10.1447
ルー	-10.1455
こんなに	-10.146
にかけて	-10.146
変わり	-10.1464
盤	-10.1466
夕方	-10.1468
雲	-10.1471
そこから	-10.1472
土曜日	-10.1481
サイトの	-10.1482
ch	-10.1484
友	-10.1489
オイル	-10.1489
辛い	-10.1494
関	-10.1495
住	-10.1502
あらかじめ	-10.1502
日より	-10.1503
会社に	-10.1504
▁みなさん	-10.1505
お友達	-10.1512
体に	-10.1513
▁ありがとうございました	-10.1513
休	-10.1514
支払い	-10.1514
振	-10.1516
ジェ	-10.1518
続く	-10.1527
分かる	-10.1528
事態	-10.1529
主に	-10.1532
に比べて	-10.1532
職業	-10.1537
意外と	-10.1538
収納	-10.1545
最後まで	-10.155
スタジオ	-10.155
返品	-10.1553
人々	-10.1554
児童	-10.1556
神経	-10.1556
デメリット	-10.1561
彼氏	-10.1562
泊	-10.1563
となると	-10.1565
順	-10.1572
美術館	-10.1573
→	-10.1575
を目指して	-10.1577
怖い	-10.1578
チン	-10.1579
術	-10.158
イタリア	-10.1581
読む	-10.1584
に対応	-10.1585
する場合	-10.1586
エン	-10.1588
だという	-10.1591
久	-10.1592
中です	-10.1595
金融	-10.1596
の皆様	-10.1599
それほど	-10.16
一体	-10.1602
プール	-10.1602
防	-10.1604
そういった	-10.161
ご相談ください	-10.1615
証明	-10.162
余裕	-10.1621
ゴルフ	-10.1622
なお	-10.1623
ヨガ	-10.1628
出て	-10.1633
繰り返し	-10.1638
信用	-10.1645
モード	-10.1649
内容は	-10.1655
常	-10.1659
ゲスト	-10.1659
どういう	-10.1659
」、「	-10.1662
財産	-10.1666
時間帯	-10.1668
と考える	-10.167
サンプル	-10.167
発信	-10.1671
台風	-10.168
臭い	-10.1682
配	-10.1682
も良い	-10.1682
をしっかり	-10.1682
ほうが	-10.1689
岐	-10.169
していること	-10.169
収録	-10.1694
好み	-10.1696
誰も	-10.1699
窓	-10.1701
効率	-10.1702
活躍	-10.1702
と考えています	-10.1706
最適な	-10.171
特定	-10.1712
▁日本の	-10.1713
人が多い	-10.1716
来ました	-10.1717
女性に	-10.172
分け	-10.1726
歩き	-10.1727
と思われます	-10.173
▁そういう	-10.1731
▁他にも	-10.1732
だったり	-10.1732
受	-10.1732
やり方	-10.1737
上手く	-10.1739
に変更	-10.1742
するように	-10.1743
切れ	-10.1747
だけです	-10.1748
義務	-10.1749
荷物	-10.1752
受信	-10.1755
ける	-10.1755
ことにより	-10.1755
th	-10.1756
武	-10.176
願い	-10.1761
副業	-10.1762
400	-10.1766
事務	-10.1767
場面	-10.1769
やっと	-10.1771
聖	-10.1773
振り	-10.1775
今後も	-10.1775
サービスを	-10.1778
▁ご	-10.1778
本当の	-10.1788
なっている	-10.1789
池	-10.1795
ようと	-10.1798
本体	-10.1799
する方法	-10.1799
ものに	-10.1801
▁やはり	-10.1804
ような気がします	-10.1807
広	-10.1809
嫌	-10.181
マーケティング	-10.1812
コンビニ	-10.1814
人もいる	-10.1818
パーツ	-10.1826
▁当社は	-10.1834
台湾	-10.1835
年前	-10.1836
仮	-10.1838
日記	-10.1839
先生の	-10.1839
▁ところが	-10.1843
▁ここ	-10.1844
サプリメント	-10.1844
見た目	-10.1845
緑	-10.1847
豊富な	-10.1849
▁それに	-10.1851
だよ	-10.1851
さない	-10.1853
が違う	-10.1854
閉	-10.1854
療法	-10.1855
優	-10.1855
芸術	-10.1858
政	-10.1858
ライ	-10.1862
最大の	-10.1867
パフォーマンス	-10.1869
▁新	-10.187
交	-10.1871
無事	-10.1872
他にも	-10.1874
進化	-10.1883
進行	-10.1884
の良い	-10.1887
がなく	-10.1887
▁その他	-10.1888
名古屋	-10.1888
を求める	-10.189
温度	-10.1891
調べ	-10.1898
方向	-10.1901
飲む	-10.1902
ゼロ	-10.1906
▁こちらは	-10.1908
広い	-10.1909
経営者	-10.1918
そちら	-10.1919
摂取	-10.1923
若干	-10.1928
効果が	-10.1932
ご飯	-10.1934
無事に	-10.1935
出した	-10.1937
アプローチ	-10.1938
出る	-10.1942
一部の	-10.1944
かもしれませんね	-10.1944
毎月	-10.1955
してみると	-10.1955
若者	-10.1957
作用	-10.1958
合格	-10.1959
世紀	-10.1963
言った	-10.1968
レシピ	-10.1969
ご連絡ください	-10.1973
ではありますが	-10.1984
十分に	-10.1985
るような	-10.1988
視	-10.199
押し	-10.1992
ことはありません	-10.1993
そもそも	-10.1995
の設定	-10.1996
の向上	-10.1998
▁ですから	-10.2004
力を	-10.2016
基礎	-10.2017
つか	-10.2018
になりたい	-10.2018
野球	-10.2019
標準	-10.2026
せて	-10.2026
の販売	-10.2029
通常の	-10.203
側の	-10.2032
窓口	-10.2033
倉	-10.2033
新宿	-10.2037
▁たとえば	-10.2039
有効	-10.204
可	-10.204
理由は	-10.2042
当たり前	-10.2042
心を	-10.2043
相続	-10.2045
肌に	-10.2048
ためにも	-10.205
アイデア	-10.2054
ピン	-10.2058
エンジン	-10.206
仏	-10.206
流行	-10.2061
子さん	-10.2061
ものだ	-10.2065
次回	-10.2065
伝え	-10.2068
彼女の	-10.2068
ってしまう	-10.2069
浜	-10.2074
自動的に	-10.2077
高さ	-10.2077
にしても	-10.2082
が出	-10.2084
罪	-10.2085
を使用する	-10.2086
物を	-10.2086
仕事が	-10.2087
に向かって	-10.2088
それら	-10.2092
国家	-10.2097
だけに	-10.2098
クラ	-10.2102
してほしい	-10.2106
z	-10.2107
出てくる	-10.2108
任	-10.2113
生まれた	-10.2114
たかった	-10.2114
のなら	-10.2115
若	-10.2115
作品を	-10.2119
沢山の	-10.2119
に入った	-10.2119
なのだ	-10.2123
過去の	-10.2125
批判	-10.2127
つまり	-10.2128
もあった	-10.2128
着物	-10.2134
為に	-10.2135
の仕事	-10.2138
くれます	-10.2142
が強い	-10.2142
顔を	-10.2144
致しました	-10.2147
ようですが	-10.2147
エントリー	-10.2148
綺麗な	-10.2151
何とか	-10.2152
今でも	-10.2152
僕の	-10.2155
を見つけ	-10.2157
の良さ	-10.2159
引越し	-10.2161
修	-10.2166
最新	-10.2169
に出	-10.2173
両親	-10.2176
のひとつ	-10.2178
注目	-10.2181
お話し	-10.2184
周り	-10.2184
の声	-10.2184
近くに	-10.2187
外部	-10.219
ニキビ	-10.2191
念	-10.2192
滞在	-10.2197
児	-10.2202
トリ	-10.2204
当時の	-10.2208
人間の	-10.2211
最近は	-10.2213
道具	-10.2217
ご覧	-10.222
▁同	-10.222
クリア	-10.2222
短	-10.2223
いかに	-10.2224
カウンセリング	-10.2227
打	-10.2228
江	-10.2229
▁実際	-10.2233
▁最後に	-10.2233
セール	-10.2234
十分な	-10.2235
格	-10.2239
をかけて	-10.2239
腹	-10.224
開業	-10.224
穴	-10.224
誰もが	-10.2248
徒歩	-10.2251
になりますが	-10.2253
横浜	-10.2255
の上に	-10.2258
ることができる	-10.226
効果がある	-10.2261
年には	-10.2263
創	-10.2263
お客様から	-10.2269
走り	-10.227
天然	-10.2271
生地	-10.2271
ラジオ	-10.2275
起こ	-10.2278
生活を	-10.228
はこちら	-10.2283
▁H	-10.2285
位置	-10.2286
なければなりません	-10.2288
それに	-10.2289
昨日	-10.229
歩	-10.2296
わけではありません	-10.2296
経過	-10.2298
』(	-10.2305
▁それから	-10.2306
建	-10.2307
てください	-10.2308
課	-10.2308
ON	-10.231
してしまいました	-10.2311
商	-10.2315
測定	-10.2318
皮膚	-10.2321
具	-10.2322
色の	-10.2323
なかったので	-10.2331
フェ	-10.2332
とはいえ	-10.2335
変わって	-10.2337
場合に	-10.2338
お伝え	-10.2338
相手が	-10.2339
バッテリー	-10.2341
問	-10.2342
もらって	-10.2342
七	-10.2343
跡	-10.2343
みます	-10.2345
対処	-10.2345
印	-10.2345
飲んで	-10.2346
底	-10.2346
現在は	-10.2348
お菓子	-10.235
スムーズに	-10.2353
JR	-10.2357
逃げ	-10.2357
こういった	-10.236
においても	-10.2365
役割	-10.2367
そのもの	-10.2369
中には	-10.2369
ごと	-10.237
老	-10.2371
例えば	-10.2372
タグ	-10.2373
不満	-10.2376
温	-10.2381
お腹	-10.2382
なんとなく	-10.2383
住民	-10.2383
ご要望	-10.2387
頂けます	-10.2388
▁19	-10.2389
装置	-10.2389
を探し	-10.2389
次第	-10.2397
の名前	-10.2398
基本的に	-10.2399
まる	-10.2401
末	-10.2403
上司	-10.2405
何でも	-10.2407
とのことです	-10.2408
生きて	-10.241
はじめて	-10.2413
シングル	-10.2416
は約	-10.2421
竹	-10.2422
いただきます	-10.2422
回目の	-10.2424
患者さん	-10.2426
関心	-10.2427
ダイ	-10.243
営	-10.243
いずれ	-10.2437
困難	-10.2437
使い方	-10.2438
入院	-10.2438
お子様	-10.2439
▁どんな	-10.2439
▁仕事	-10.2441
現象	-10.2448
るので	-10.245
もう一度	-10.2454
▁★	-10.2456
▁自分が	-10.2457
▁これを	-10.2457
を購入する	-10.2458
詰め	-10.2459
立て	-10.246
仮想通貨	-10.2461
されていて	-10.2463
ノート	-10.2463
当該	-10.2463
眼	-10.2466
子供の	-10.2468
ブロック	-10.247
ール	-10.2471
掛け	-10.2471
先日	-10.2474
変わる	-10.2479
町で	-10.2479
低い	-10.2489
世の中	-10.2494
不要	-10.2497
の記事	-10.2504
をもとに	-10.2505
クリック	-10.2507
▁そもそも	-10.2509
をしたり	-10.2513
レンズ	-10.2516
くらいの	-10.2519
できること	-10.2528
させて頂きました	-10.254
たちは	-10.2543
が出てくる	-10.2544
気がする	-10.2545
明るく	-10.2546
クーポン	-10.255
体を	-10.255
できるので	-10.2551
日目	-10.2553
期限	-10.2554
面倒	-10.2559
不思議な	-10.2562
りました	-10.2566
があったので	-10.2567
した後	-10.257
確かに	-10.2571
心に	-10.2576
を提供	-10.2578
読者	-10.2578
用途	-10.2579
大変な	-10.2581
アイドル	-10.2583
脂肪	-10.2583
トラ	-10.2584
中止	-10.2586
イギリス	-10.2588
部品	-10.259
見積もり	-10.259
にも関わらず	-10.2591
最	-10.2596
個性	-10.2596
動画を	-10.2598
しますが	-10.2601
一気に	-10.2611
樹	-10.2612
の際は	-10.2612
意味で	-10.2615
クロ	-10.2617
掃除	-10.2617
風景	-10.2619
ランド	-10.2619
続き	-10.2622
負け	-10.2622
▁少し	-10.2623
ダー	-10.2624
景色	-10.2625
の様子	-10.2629
公表	-10.2634
リーグ	-10.2639
el	-10.264
張り	-10.2646
手軽に	-10.2651
性能	-10.2653
マップ	-10.2654
わずか	-10.2654
▁こうした	-10.2656
調理	-10.266
と同じように	-10.266
するためには	-10.2664
くて	-10.2666
日曜日	-10.2667
たく	-10.2669
られています	-10.2672
▁皆さん	-10.2677
安全性	-10.268
誌	-10.2681
たった	-10.2681
九州	-10.2684
蔵	-10.2685
ヨ	-10.2686
色んな	-10.2688
しまって	-10.2688
減	-10.2689
河	-10.2693
をしていた	-10.2693
お風呂	-10.2694
頻繁に	-10.2697
方を	-10.27
と言っても	-10.2703
ことが大切です	-10.2707
基本的な	-10.271
初期	-10.2714
挨拶	-10.2718
プロフィール	-10.2721
主な	-10.2721
図書館	-10.2723
停止	-10.2723
▁いや	-10.2724
いること	-10.2725
日本に	-10.2725
進む	-10.2726
農業	-10.2729
という点	-10.2731
想い	-10.2734
散歩	-10.2735
くれ	-10.2736
会計	-10.2736
何度か	-10.2741
私に	-10.2743
が大きく	-10.2744
家で	-10.2744
シン	-10.2746
Android	-10.2747
年目	-10.2747
受講	-10.2749
際は	-10.2749
の魅力	-10.2753
給	-10.2758
と言われている	-10.2766
不明	-10.2768
スタ	-10.277
に行きました	-10.2777
の特徴	-10.278
疾患	-10.2782
数は	-10.2783
格安	-10.2783
あなたに	-10.2785
確率	-10.2787
加	-10.2788
と感じる	-10.2788
乗	-10.2792
とされています	-10.2793
されていました	-10.2793
薄	-10.2793
子どもの	-10.2801
翻訳	-10.2809
皆様の	-10.281
数値	-10.2811
しておりますので	-10.2815
入手	-10.2817
型の	-10.2819
引き続き	-10.2823
▁ですが	-10.2824
アクション	-10.2829
買った	-10.2832
心が	-10.2836
大きさ	-10.2838
エステ	-10.2839
が出来る	-10.284
いわゆる	-10.2842
デバイス	-10.2843
を実現	-10.2846
息	-10.2851
のほうが	-10.2853
シミ	-10.2854
の為	-10.2861
してくれました	-10.2862
充電	-10.2863
ノウハウ	-10.2863
の歴史	-10.2866
PS	-10.2868
時々	-10.287
もありません	-10.2878
▁朝	-10.2878
出版	-10.2881
を行った	-10.2881
を行って	-10.2886
46	-10.2886
中心	-10.2888
保護者	-10.2888
酸	-10.2889
金融機関	-10.2891
▁とはいえ	-10.2893
ニュー	-10.2896
陰	-10.2896
話す	-10.2896
うち	-10.2897
仲	-10.2897
話し	-10.2898
やっている	-10.2904
庁	-10.2905
NHK	-10.2911
核	-10.2914
ありがとう	-10.2915
プロセス	-10.2915
糸	-10.2918
シャンプー	-10.2918
記述	-10.292
残念ながら	-10.2921
洋	-10.2922
どこ	-10.2922
サイン	-10.2923
出力	-10.2923
隊	-10.2925
平日	-10.2928
採	-10.293
ゴミ	-10.2931
てくる	-10.2935
速	-10.2936
▁それを	-10.2939
は一切	-10.294
プライベート	-10.294
以外に	-10.2948
2.	-10.2948
▁是非	-10.2953
お申込み	-10.2953
牛	-10.2955
港	-10.2955
後半	-10.2957
楽天	-10.2957
AI	-10.296
ひとり	-10.2961
そば	-10.2962
いただいて	-10.2964
が大きい	-10.2965
やりたい	-10.2966
本社	-10.2968
すら	-10.2968
加入	-10.2968
ザー	-10.297
お待ちしております	-10.2973
.1	-10.2976
の意味	-10.2977
程度の	-10.2983
大切に	-10.2983
ご質問	-10.2983
ワークショップ	-10.2986
チャー	-10.2986
史	-10.2987
甲	-10.2991
崎	-10.2991
思考	-10.2992
▁1.	-10.2994
わけで	-10.2994
伝	-10.2995
際には	-10.2995
細	-10.2999
るべき	-10.3
方や	-10.3003
ジョ	-10.3005
周りの	-10.3009
社会人	-10.3012
至	-10.3012
不思議	-10.3017
くださいね	-10.3018
開示	-10.3018
独立	-10.3019
形式	-10.3021
お試し	-10.3022
朝食	-10.3026
連続	-10.3028
なのでしょうか	-10.3028
目が	-10.303
誤	-10.3032
銀	-10.3041
車を	-10.3048
水分	-10.3054
からだ	-10.3054
ちゃ	-10.3059
約束	-10.306
させた	-10.3064
たちの	-10.3066
英	-10.307
オーダー	-10.3071
毎週	-10.3072
お子さん	-10.3073
市内	-10.3073
テン	-10.3076
2014	-10.3077
願	-10.3078
帰り	-10.3079
もあって	-10.3081
するような	-10.3083
でもある	-10.3084
高額	-10.3095
要望	-10.3096
男性は	-10.3102
ユ	-10.3105
▁G	-10.3105
講演	-10.3105
わない	-10.3108
使用する	-10.3109
解消	-10.3113
消	-10.3113
やら	-10.3116
予測	-10.3118
本人	-10.3121
売買	-10.3131
諸	-10.3131
収集	-10.3134
レイ	-10.3137
絶	-10.3138
▁最初は	-10.3139
福	-10.3139
賃貸	-10.3142
行政	-10.3143
タクシー	-10.3143
他に	-10.3146
頂ける	-10.3149
ゆっくりと	-10.3152
Wi	-10.3153
コミュニティ	-10.3155
今すぐ	-10.3156
知り合い	-10.3163
無く	-10.3163
菌	-10.3169
することを	-10.3173
呼吸	-10.3174
てしまい	-10.318
音声	-10.3183
を利用した	-10.3186
聞く	-10.3186
ニーズ	-10.3188
教授	-10.3189
まるで	-10.3191
▁Q	-10.3193
バラ	-10.3193
要求	-10.3194
選ぶ	-10.3195
思って	-10.3197
32	-10.3198
創業	-10.3198
参考	-10.3198
専用の	-10.3201
毎回	-10.3203
ダウン	-10.3204
今年も	-10.3205
子供が	-10.3207
はどう	-10.3211
を始める	-10.3213
全員	-10.3215
いたのですが	-10.3219
ジー	-10.3221
クライアント	-10.3221
パスワード	-10.3222
ドリンク	-10.3223
するだけで	-10.3226
規定	-10.3228
なぜか	-10.323
反対	-10.323
苦	-10.3232
プレー	-10.3235
ができない	-10.3236
したところ	-10.3244
通勤	-10.3246
試	-10.3249
畑	-10.325
高級	-10.3251
していましたが	-10.3251
伝統	-10.3252
永	-10.3254
初め	-10.3255
▁同じ	-10.3255
楽しむ	-10.3261
作家	-10.3263
エラー	-10.3264
私には	-10.3265
プレイヤー	-10.3272
▁今後	-10.3273
たびに	-10.3273
ことが可能です	-10.3274
場合でも	-10.3277
文書	-10.3278
もらい	-10.3279
皆様に	-10.328
メン	-10.3282
日常生活	-10.3283
行事	-10.3285
やった	-10.3287
FX	-10.329
体力	-10.3291
ルート	-10.3293
しく	-10.3294
でもあります	-10.3298
自分自身	-10.3299
ドア	-10.3299
様の	-10.3301
時代の	-10.3302
まり	-10.3305
まとめて	-10.3305
父親	-10.3308
決め	-10.331
アピール	-10.331
初の	-10.331
......。	-10.3314
かり	-10.3314
を確認	-10.3319
自然と	-10.3323
をご紹介	-10.3324
飛び	-10.3327
当サイト	-10.3331
いきなり	-10.3333
砂	-10.3334
パリ	-10.334
のようなもの	-10.3341
菜	-10.3343
ついて	-10.3344
手作り	-10.3347
どこに	-10.3347
行きたい	-10.335
ことだ	-10.3353
一回	-10.3354
マイナス	-10.3356
ジャパン	-10.3356
入荷	-10.3358
につき	-10.3361
幼稚園	-10.3363
してみませんか	-10.3365
のもの	-10.337
出来事	-10.337
たので	-10.3371
ノー	-10.3377
関東	-10.3379
上位	-10.338
▁逆に	-10.3381
策	-10.3382
女優	-10.3385
の変更	-10.339
事に	-10.3391
年末	-10.3391
お客様が	-10.3391
いか	-10.3392
検証	-10.3393
感じる	-10.3395
設立	-10.34
なもの	-10.34
はほとんど	-10.3401
を知って	-10.3402
細かい	-10.3405
いきたいと思います	-10.3406
乱	-10.3406
IP	-10.3407
快適な	-10.3408
お気軽にお問い合わせください	-10.3408
▁多くの	-10.3411
視聴	-10.3413
実感	-10.3417
人間関係	-10.3419
以上に	-10.342
詳しい	-10.3422
第二	-10.3422
ボード	-10.3426
乳	-10.3428
カ月	-10.3428
風邪	-10.3429
ことによって	-10.3431
ご意見	-10.3432
ものである	-10.3433
電源	-10.3435
行っている	-10.3435
どうして	-10.3436
PDF	-10.3436
お土産	-10.3436
ドライブ	-10.3441
共通	-10.3442
沢山	-10.3442
しなかった	-10.3448
サーバ	-10.3449
はこの	-10.345
復活	-10.3453
帰って	-10.3457
kg	-10.3457
ご理解	-10.3457
翌日	-10.3458
ヘア	-10.346
今年の	-10.3461
になるので	-10.3467
がございます	-10.347
ごろ	-10.3476
となりますので	-10.3479
を取得	-10.3479
望	-10.3485
成績	-10.3485
の存在	-10.3488
一定の	-10.3489
少女	-10.349
るのが	-10.3491
ないこと	-10.3491
世間	-10.3492
神戸	-10.3492
の仕方	-10.3494
自社	-10.3494
it	-10.35
体が	-10.3501
賀	-10.3506
していますので	-10.3507
メモ	-10.3508
仕事の	-10.3509
▁だが	-10.3513
学部	-10.3513
六	-10.3515
ちょうど	-10.3515
昼	-10.3515
止め	-10.3517
定期	-10.3519
白い	-10.3519
してみて	-10.3522
上記の	-10.3522
を入れる	-10.3526
おそらく	-10.3527
回収	-10.3531
マスター	-10.3532
使われている	-10.3536
は本当に	-10.3538
ないといけない	-10.3538
今では	-10.3539
られました	-10.354
に伴い	-10.3544
筆	-10.3547
使った	-10.3548
都合	-10.3549
おいて	-10.3551
抜き	-10.3552
左右	-10.3553
ご確認ください	-10.3554
刺	-10.3558
っこ	-10.3559
と言われ	-10.3561
みてはいかがでしょうか	-10.3566
遠く	-10.3567
犯罪	-10.357
を楽しんで	-10.357
を読んで	-10.357
ロード	-10.3571
頭皮	-10.3572
結論	-10.3575
からね	-10.3577
食べた	-10.358
お祝い	-10.3582
ショッピング	-10.3586
お願いいたします	-10.359
を聞いて	-10.3593
分ほど	-10.3595
アイコン	-10.3596
メートル	-10.3598
支え	-10.3603
するので	-10.3603
▁pic	-10.3605
太陽	-10.3606
最初は	-10.3609
年前に	-10.361
どうか	-10.3614
お付き合い	-10.3615
男性が	-10.3618
明るい	-10.3619
僕が	-10.3625
証明書	-10.3625
途中	-10.3628
を取って	-10.3629
ブース	-10.3629
恵	-10.3631
被	-10.3631
全国の	-10.3633
遊んで	-10.3635
わざわざ	-10.3636
アレンジ	-10.3636
▁20	-10.3638
見えない	-10.3638
脚	-10.364
動か	-10.3642
優れた	-10.3643
価値観	-10.3644
主義	-10.3646
自宅で	-10.3646
ックス	-10.3649
たっぷり	-10.3653
副作用	-10.3655
という言葉	-10.3657
を大切に	-10.3657
ことになる	-10.3659
教会	-10.3664
こだわり	-10.3666
初めての	-10.3672
カップ	-10.3678
お越し	-10.368
驚き	-10.3683
勇気	-10.3683
ソース	-10.3683
いらっしゃる	-10.3684
することも	-10.3687
1.	-10.3687
を経て	-10.3689
群	-10.3689
してしまいます	-10.3694
大人の	-10.3695
なくなります	-10.3696
ご来場	-10.3706
綺麗に	-10.3707
ならではの	-10.3707
▁まぁ	-10.3708
知りたい	-10.3715
留	-10.3716
短い	-10.3717
明治	-10.3721
易	-10.3723
エアコン	-10.3723
しなければ	-10.3724
ということが	-10.3724
大学の	-10.3725
しまうと	-10.3725
▁そのような	-10.3729
佐	-10.3729
年収	-10.373
もらいたい	-10.3736
▁All	-10.3737
どれ	-10.3739
▁2.	-10.3739
お互い	-10.3742
いきましょう	-10.3748
泉	-10.375
中古車	-10.3753
パーク	-10.3754
を変える	-10.3756
期間は	-10.3756
アパート	-10.3756
遊	-10.3757
密	-10.3761
梅	-10.3764
魅力的な	-10.3765
に加え	-10.3767
していきたいと思います	-10.3768
サイトを	-10.3769
を見つける	-10.3775
の使用	-10.378
楽器	-10.3783
日々の	-10.3784
なんだか	-10.3788
5%	-10.379
600	-10.3791
が良く	-10.3792
助け	-10.3793
室内	-10.3795
決	-10.3796
背	-10.3798
案件	-10.38
人達	-10.38
いや	-10.3802
動く	-10.3805
激	-10.3807
ぶり	-10.3808
物質	-10.3809
被害者	-10.3811
▁#	-10.3812
プラ	-10.3813
を見ながら	-10.3813
時間も	-10.3814
主張	-10.3821
トラック	-10.3822
観光客	-10.3824
圧	-10.3826
陣	-10.3826
一歩	-10.3827
はじめ	-10.3828
de	-10.383
ウェブ	-10.3831
▁◆	-10.3832
周年	-10.3832
保湿	-10.3833
パート	-10.3835
というような	-10.3838
すっかり	-10.3839
お悩み	-10.3839
ついに	-10.384
陽	-10.3842
借入	-10.3843
安全な	-10.3845
お支払い	-10.3848
サイド	-10.3849
覚え	-10.385
人がいる	-10.3851
un	-10.3851
抜け	-10.3853
となっており	-10.3855
違います	-10.3857
するなど	-10.3858
▁2014	-10.386
ますね	-10.3864
他人	-10.3865
つもり	-10.3868
ra	-10.3869
と言われた	-10.3873
るために	-10.3873
に挑戦	-10.3874
競技	-10.3878
クラウド	-10.388
除	-10.388
聞いた	-10.3881
追	-10.3881
あまりにも	-10.3886
▁Copyright	-10.3888
社内	-10.389
合って	-10.3892
労働者	-10.3892
いろいろと	-10.3892
みませんか	-10.3893
ゴール	-10.3893
わたし	-10.3895
が欲しい	-10.3896
るか	-10.3897
時代に	-10.3898
ご利用いただけます	-10.3901
しなくても	-10.3903
我慢	-10.3904
▁ア	-10.3905
誕生	-10.3905
▁それでは	-10.3908
書く	-10.391
ことにしました	-10.391
を書いて	-10.3912
会員登録	-10.3912
ではないか	-10.392
介	-10.392
～。	-10.3923
そこ	-10.3923
助	-10.393
杯	-10.3934
いただければ	-10.3936
内容が	-10.3939
緊急	-10.394
▁こういう	-10.3942
分かって	-10.3942
維持	-10.3943
入会	-10.3944
撃	-10.3945
裁判	-10.3945
不具合	-10.3945
▁毎年	-10.3945
大好きな	-10.3946
と言った	-10.3947
パネル	-10.3947
ことなく	-10.3948
教え	-10.3949
輸入	-10.3949
ブック	-10.3952
あるので	-10.3952
触れ	-10.3954
粉	-10.3955
▁初めて	-10.3956
ありますが	-10.3958
を見つけて	-10.396
であって	-10.3961
ガー	-10.3965
彼ら	-10.3966
領域	-10.3968
何らかの	-10.3971
飲食店	-10.3972
態度	-10.3974
的で	-10.3978
配慮	-10.398
独	-10.3985
入学	-10.3987
シンプルな	-10.3992
もありますので	-10.3994
想定	-10.3996
表面	-10.3996
子どもたち	-10.3997
飽き	-10.3999
もらいました	-10.4002
IN	-10.4006
と同時に	-10.4006
学会	-10.4006
はその	-10.4007
活	-10.4008
グリーン	-10.4009
優しく	-10.4011
噂	-10.4017
▁Reserved	-10.402
宣伝	-10.402
適	-10.4025
飛行機	-10.4025
の説明	-10.4029
獲得	-10.4029
離	-10.403
男子	-10.403
お手伝い	-10.4031
進んで	-10.4031
俺	-10.4033
ステ	-10.4033
ことになりました	-10.4034
置き	-10.4038
その場で	-10.4038
させていただいております	-10.4045
談	-10.4046
事も	-10.4051
0.	-10.4053
用に	-10.4054
出会	-10.4056
カップル	-10.4057
になってしまいました	-10.4058
Fi	-10.4061
ログ	-10.4062
くれて	-10.4064
引っ越し	-10.4068
税金	-10.4076
かというと	-10.4076
本当	-10.4077
お客さま	-10.4077
に出演	-10.4078
言葉を	-10.4078
▁何か	-10.4079
▁ありがとうございます	-10.4081
を作り	-10.4089
ご提供	-10.4094
、2018	-10.4096
が必要になります	-10.4097
売上	-10.4097
夏の	-10.4099
実家	-10.4099
広島	-10.4102
大学生	-10.4103
許	-10.4104
ことが多いです	-10.4106
の紹介	-10.4108
ケーブル	-10.4113
のホームページ	-10.4113
だったのですが	-10.4114
ver	-10.4117
ようになり	-10.4119
出場	-10.412
廃	-10.4129
数が	-10.4131
Facebook	-10.4132
奴	-10.4133
中小企業	-10.4135
らせて	-10.4136
探	-10.4141
参考に	-10.4142
につながる	-10.4144
まった	-10.4146
俳優	-10.4149
充実した	-10.4153
IC	-10.4153
寄	-10.4154
巻き	-10.4158
事務局	-10.416
容量	-10.416
を感じ	-10.416
抵抗	-10.4165
▁Rights	-10.4167
給与	-10.4167
が発生する	-10.4171
をいただきました	-10.4174
力が	-10.4176
手に	-10.4176
大統領	-10.418
覚えて	-10.418
焼	-10.4182
主人公	-10.4187
記入	-10.419
▁今年	-10.4193
*	-10.4194
灯	-10.4197
Apple	-10.4202
する場合は	-10.4203
一生懸命	-10.4204
宗教	-10.4205
切って	-10.4208
最初から	-10.421
はいけない	-10.4213
レー	-10.4215
々と	-10.4218
ブログで	-10.4222
の皆さん	-10.4223
Amazon	-10.4226
になれば	-10.4229
に関わる	-10.4233
みよう	-10.4239
誕生日	-10.4239
る事	-10.424
ご覧ください	-10.424
▁新しい	-10.4241
塗装	-10.4243
達成	-10.425
コンピュータ	-10.4254
正直	-10.4255
多数の	-10.4258
辺	-10.4261
のお店	-10.4262
突	-10.4265
の確認	-10.4266
をしました	-10.4269
始める	-10.427
▁自分	-10.4273
帰宅	-10.4275
幸せな	-10.4276
が非常に	-10.4277
問題は	-10.4279
旨	-10.4281
150	-10.4282
http	-10.4282
の花	-10.4283
を入れ	-10.4284
新作	-10.4285
年金	-10.4286
ともに	-10.4286
以外	-10.4289
の開発	-10.4289
に基づき	-10.429
ようになって	-10.4298
債務整理	-10.4298
くなる	-10.4298
配置	-10.4298
YouTube	-10.43
を実施	-10.43
ご使用	-10.4301
宝	-10.4301
ご紹介します	-10.4303
ものではありません	-10.4304
してくる	-10.4306
しつつ	-10.431
築	-10.4312
ro	-10.4313
▁あなたは	-10.4317
地域で	-10.4317
いつか	-10.4318
節約	-10.4321
からこそ	-10.4324
効果的な	-10.4327
喜	-10.4328
祭り	-10.4333
アリ	-10.4334
フェア	-10.4335
組み合わせ	-10.4335
続け	-10.4338
それだけ	-10.4338
時間の	-10.4339
めて	-10.434
マル	-10.4341
2013	-10.4346
生命	-10.4346
ファイルを	-10.4347
個人情報を	-10.4347
機種	-10.4348
資源	-10.4349
▁とりあえず	-10.435
これも	-10.4353
マーケット	-10.4354
が気になる	-10.4355
占い	-10.4358
診察	-10.4359
▁というわけで	-10.4364
ロボット	-10.4367
コー	-10.4375
育児	-10.4381
調子	-10.4381
していません	-10.4381
医療機関	-10.4382
変わった	-10.4384
承認	-10.4386
違った	-10.4388
移転	-10.4389
中古	-10.4395
インタビュー	-10.4395
今日の	-10.4398
改正	-10.4399
人々の	-10.4399
をつけ	-10.4407
するもの	-10.441
を食べ	-10.441
いいのか	-10.4412
▁株式会社	-10.4414
サイトに	-10.4415
これら	-10.4415
関西	-10.4416
拠点	-10.4419
の間で	-10.4422
ご了承ください	-10.4422
お気に入りの	-10.4424
を用いて	-10.4426
普及	-10.4426
損害	-10.443
to	-10.443
いつまでも	-10.443
正しく	-10.4432
ホワイト	-10.4432
価格で	-10.4433
人妻	-10.4439
言うと	-10.4439
確定	-10.444
も同じ	-10.4444
福岡	-10.4449
男性の	-10.4452
ができ	-10.4452
過ごす	-10.4453
あげ	-10.4454
を食べる	-10.4456
事前	-10.4461
これだけ	-10.4462
ければ	-10.4462
は無い	-10.4462
博物館	-10.4463
降り	-10.4463
実に	-10.4464
でございます	-10.4466
ってこと	-10.4468
だからこそ	-10.4469
▁́	-10.4474
ますます	-10.4475
を変更	-10.4476
一生	-10.4476
があっても	-10.4477
表記	-10.4477
日本では	-10.4478
従	-10.4479
の影響	-10.4485
初回	-10.449
をし	-10.449
個人の	-10.4495
保育園	-10.4495
ように思います	-10.4498
定義	-10.4499
▁それで	-10.45
聴	-10.4513
網	-10.4514
と比べて	-10.4516
スキー	-10.4516
これまでの	-10.4518
の活動	-10.4519
はございません	-10.4519
を始め	-10.4524
静	-10.4526
かた	-10.4532
単に	-10.4532
全体	-10.4535
デザイナー	-10.4542
を用意	-10.4542
延長	-10.4545
意思	-10.4551
借り	-10.4553
ご注意ください	-10.4553
しかも	-10.4554
背中	-10.4557
上がる	-10.4566
ギフト	-10.4569
観察	-10.4571
共に	-10.4573
トーク	-10.4579
▁とにかく	-10.4579
アメリカの	-10.458
商品が	-10.4582
法令	-10.4584
リニューアル	-10.4587
所得	-10.459
のまま	-10.4591
キャンプ	-10.4592
▁E	-10.4592
中学生	-10.4594
歯科	-10.4597
血液	-10.4599
かなりの	-10.4599
雑	-10.4603
カロリー	-10.4605
することが可能です	-10.4606
お気軽にご相談ください	-10.4608
アフィリエイト	-10.4608
議員	-10.4616
部分を	-10.462
外国	-10.4622
書き込み	-10.4622
下に	-10.4622
副	-10.4624
語り	-10.4625
タブレット	-10.4625
▁あなたが	-10.4627
務	-10.4629
▁一	-10.4631
1,000	-10.4632
を使っている	-10.4632
の為に	-10.4635
仕上がり	-10.4637
札幌	-10.4641
ところは	-10.4641
電力	-10.4642
になっていた	-10.4642
する前に	-10.4642
原作	-10.4643
指示	-10.4644
のかもしれない	-10.4644
あい	-10.4646
の治療	-10.4647
以内	-10.4656
始めて	-10.4656
お料理	-10.4657
化学	-10.4657
見せ	-10.466
ボディ	-10.466
自治体	-10.4661
難しく	-10.4666
5000	-10.4668
するのか	-10.4671
一方	-10.4671
迫	-10.4671
ad	-10.4671
間の	-10.4673
常識	-10.4675
思っている	-10.4676
んでいる	-10.4678
を考え	-10.468
同意	-10.468
ジム	-10.4682
それまで	-10.4682
適用	-10.4683
アルコール	-10.4685
合計	-10.4689
のバランス	-10.4689
過ぎて	-10.469
随時	-10.4695
自然に	-10.4695
スペシャル	-10.4697
供給	-10.4697
ドメイン	-10.4698
原則	-10.4699
に乗って	-10.4701
ER	-10.4703
伊	-10.4703
劇場	-10.4707
本格的な	-10.4712
周	-10.4714
-1	-10.4714
側に	-10.4716
をお持ち	-10.472
こちらから	-10.4723
のほう	-10.4725
なくなって	-10.4727
▁明日	-10.4727
思います	-10.4732
▁L	-10.4733
などと	-10.4735
という方は	-10.4736
演出	-10.4736
比	-10.4737
入社	-10.4738
訴え	-10.474
滅	-10.4744
多くの人が	-10.4744
バル	-10.4745
コンセプト	-10.4745
たのは	-10.4745
セッション	-10.4751
お時間	-10.4754
ませんが	-10.4758
気持ちを	-10.4759
見ている	-10.4759
ませんか	-10.4761
したので	-10.4761
があること	-10.4762
▁あ	-10.4762
どちらか	-10.4763
収益	-10.4765
▁昨年	-10.4765
集団	-10.4769
吸収	-10.4773
ma	-10.4773
自体は	-10.4773
酵素	-10.4774
になりますので	-10.4776
中学校	-10.4776
だいたい	-10.4776
ic	-10.4777
かかって	-10.4779
起動	-10.4782
痩せ	-10.4784
▁小	-10.4785
郵送	-10.4788
珍しい	-10.4795
っぽい	-10.4795
仕事で	-10.4796
ながらも	-10.4797
あれば	-10.4797
単位	-10.4798
の前に	-10.4799
話が	-10.4802
退職	-10.4803
人も多い	-10.4804
ジン	-10.4805
取って	-10.4806
ユーザ	-10.4806
玄関	-10.4806
護	-10.4809
一時	-10.4809
36	-10.4814
を参考に	-10.4817
それなりに	-10.4817
環	-10.4825
帰る	-10.4828
コイン	-10.4828
暑さ	-10.4831
できている	-10.4834
糖尿病	-10.4835
議	-10.4838
RE	-10.4841
はありますが	-10.4845
ようですね	-10.4845
刻	-10.4846
ぜ	-10.4855
限界	-10.486
用品	-10.4864
どちら	-10.4865
関節	-10.4867
ニア	-10.4868
今も	-10.4869
を対象に	-10.4876
気になった	-10.4876
と思うので	-10.4877
麺	-10.4879
勝利	-10.4883
素人	-10.4883
遅れ	-10.4885
変動	-10.4885
が増え	-10.4885
ウイルス	-10.4887
今度は	-10.4888
子が	-10.4889
電話で	-10.4892
リアル	-10.4893
世界に	-10.4894
会社が	-10.4895
なんですが	-10.4895
ワクワク	-10.4897
むしろ	-10.49
休憩	-10.49
出来ます	-10.49
きれいな	-10.4901
集中	-10.4903
当初	-10.4906
裁判所	-10.4906
寄付	-10.4906
mo	-10.4907
税込	-10.4913
工業	-10.4913
売る	-10.4914
死亡	-10.4914
充実	-10.4915
USB	-10.4915
過去に	-10.4917
ッド	-10.4919
▁しかしながら	-10.4919
離れた	-10.4921
ワールド	-10.4922
▁今年の	-10.4924
お店で	-10.4937
項	-10.494
を検討	-10.4943
仕上げ	-10.4944
▁次に	-10.4946
▁上記	-10.4949
最後	-10.4952
することができました	-10.4953
を選択	-10.4955
ラブ	-10.4959
覚	-10.496
久しぶりに	-10.4961
商品は	-10.4963
強化	-10.4964
が必要となります	-10.4964
と言える	-10.497
エンジニア	-10.4971
購入した	-10.4971
入れて	-10.4972
面で	-10.4974
半年	-10.4976
ステップ	-10.4978
セン	-10.4979
候補	-10.498
を変えて	-10.4981
ブログに	-10.4981
時半	-10.4981
アウト	-10.4982
を与え	-10.4983
モニター	-10.4986
理論	-10.4988
に向けた	-10.4988
te	-10.4989
フォロー	-10.4989
のでご了承ください	-10.4989
という方	-10.4989
回転	-10.4991
薄毛	-10.4991
洗	-10.4993
思わず	-10.4993
は必ず	-10.5
オーストラリア	-10.5
アダルト	-10.5002
コマンド	-10.5002
▁現在は	-10.5006
の多い	-10.5006
の位置	-10.501
を高め	-10.5011
をご利用	-10.5012
柱	-10.5013
っていました	-10.5013
天皇	-10.5014
はできません	-10.5015
安全に	-10.5017
かどうかは	-10.5035
しなければなりません	-10.5036
心から	-10.5036
リズム	-10.5038
肝	-10.5038
ができて	-10.5039
定番	-10.504
特集	-10.5041
周りに	-10.5042
確保	-10.5042
昔から	-10.5043
を迎える	-10.5044
ング	-10.5049
回の	-10.5051
よかったです	-10.5052
第三者	-10.5052
のではないかと	-10.5056
連絡先	-10.5058
悪化	-10.5058
の大	-10.5058
65	-10.5059
人生を	-10.506
があったり	-10.506
かつて	-10.5061
駅から徒歩	-10.5062
代の	-10.5065
しておきます	-10.5075
グル	-10.5075
元気に	-10.5075
▁なぜなら	-10.5076
してた	-10.5077
兄	-10.5079
九	-10.5082
心理	-10.5082
▁"	-10.5084
を得る	-10.5085
お得	-10.5087
クス	-10.5088
FAX	-10.5089
彼女が	-10.5089
が変わる	-10.5092
出荷	-10.5093
歩く	-10.5096
来年	-10.5096
方法です	-10.5098
のみで	-10.5101
作業を	-10.5103
見え	-10.5104
素敵	-10.5105
せない	-10.5105
栽培	-10.5106
遅く	-10.5108
だいぶ	-10.5109
処方	-10.5111
が入っている	-10.5114
チェ	-10.5114
状況を	-10.5116
画像を	-10.5121
▁@	-10.5122
やる気	-10.5123
ビットコイン	-10.5125
味わい	-10.5131
本当にありがとうございました	-10.5133
もありました	-10.5137
コート	-10.5137
を超えて	-10.5137
した上で	-10.5139
サークル	-10.5139
▁今後も	-10.5141
自身	-10.5144
構築	-10.5147
患者様	-10.5148
38	-10.5152
に基づいて	-10.5154
説明会	-10.5154
管理者	-10.5154
ることなく	-10.5155
解釈	-10.5155
人でも	-10.5156
晴れ	-10.5158
つながり	-10.5158
先生が	-10.516
道を	-10.5161
を決める	-10.5162
一枚	-10.5163
世界で	-10.5163
バレ	-10.5167
ているので	-10.5167
長年	-10.5169
浦	-10.5171
連休	-10.5173
しておきましょう	-10.5173
んじゃないか	-10.5176
割り	-10.5176
高速	-10.5177
涙	-10.5178
うえで	-10.5179
勝ち	-10.5183
避難	-10.5184
障害者	-10.5185
になれる	-10.5187
が来る	-10.5188
置いて	-10.5191
写真は	-10.5191
日付	-10.5191
週末	-10.5193
何より	-10.5194
800	-10.5195
写	-10.5198
住宅ローン	-10.5198
神様	-10.5201
氏の	-10.5204
ビーチ	-10.5208
購入する	-10.5209
悪く	-10.5213
オリンピック	-10.5214
管理人	-10.5214
深夜	-10.5214
隠	-10.5215
生きている	-10.5215
リゾート	-10.5221
と考えて	-10.5222
目で	-10.5223
と考えている	-10.5226
地下	-10.5227
エッチ	-10.5227
華	-10.5229
ことができない	-10.5233
に限らず	-10.5236
クリ	-10.5239
まって	-10.524
に来た	-10.524
身体の	-10.5241
単語	-10.5244
服用	-10.5246
UP	-10.525
が増える	-10.5253
方式	-10.5263
研究所	-10.5265
理想	-10.5265
本来の	-10.5265
交際	-10.5269
舞	-10.5271
が強く	-10.5271
方がいい	-10.5273
るのか	-10.5274
を追加	-10.5277
があるのか	-10.5279
ハワイ	-10.5279
昔の	-10.528
話は	-10.528
代金	-10.5286
他社	-10.5287
彼らの	-10.5287
基本的には	-10.5288
になっても	-10.5292
us	-10.5292
ポート	-10.5295
まい	-10.5295
仕事に	-10.5296
削減	-10.5297
読んだ	-10.5299
混雑	-10.53
祝	-10.5301
なんで	-10.5301
という話	-10.5302
作られた	-10.5304
なのは	-10.5305
軸	-10.5306
近年	-10.5311
身近な	-10.5311
ることは	-10.5311
を提供する	-10.5317
少々	-10.5318
需要	-10.532
サプリ	-10.5322
2019	-10.5324
中学	-10.5324
も含めて	-10.5325
フロント	-10.5325
装	-10.5325
小学生	-10.5326
店の	-10.5327
▁前	-10.5338
は特に	-10.534
ねぇ	-10.5345
インテリア	-10.5345
▁自分で	-10.5346
善	-10.5348
お買い物	-10.535
支持	-10.535
▁女性	-10.535
人から	-10.535
わかりやすく	-10.5352
われ	-10.5352
やめ	-10.5353
をすると	-10.5362
するまで	-10.5363
最初	-10.5364
ことや	-10.5365
といって	-10.5365
重要です	-10.5368
切り替え	-10.5376
プレ	-10.5382
ミー	-10.5383
ーン	-10.5383
等は	-10.5385
植え	-10.539
を購入	-10.5394
学ぶ	-10.5396
人たちが	-10.5399
同じような	-10.5399
としたら	-10.5403
ことができた	-10.5404
美しく	-10.5404
ご依頼	-10.5405
コツ	-10.5406
ッツ	-10.5406
はもう	-10.541
no	-10.541
体質	-10.5414
覚悟	-10.5415
承	-10.5417
▁普段	-10.5418
嫌な	-10.5421
具合	-10.5421
知らなかった	-10.5422
凄い	-10.5426
営業時間	-10.5426
すこと	-10.5426
看護	-10.5433
本来	-10.5434
バカ	-10.5434
セル	-10.5436
▁彼は	-10.5436
まれ	-10.5437
ればいい	-10.5437
▁昨日は	-10.5437
お話を	-10.544
取り付け	-10.5441
という気持ち	-10.5443
代わりに	-10.5446
ッシュ	-10.545
探偵	-10.545
を行っております	-10.5452
妹	-10.5453
こっち	-10.5453
なくなりました	-10.5455
日時	-10.5456
テクニック	-10.5457
足り	-10.5458
北朝鮮	-10.546
する必要がある	-10.5467
だけは	-10.5467
ほかの	-10.5469
知られ	-10.5469
でない	-10.5475
はありませんが	-10.5476
お弁当	-10.5476
渋谷	-10.5476
大体	-10.5481
を担当	-10.5483
とその	-10.5483
かかります	-10.5486
航空	-10.549
にお	-10.549
走って	-10.549
部屋に	-10.5493
おきたい	-10.5498
進め	-10.55
していきたい	-10.5501
を持っています	-10.5502
プリント	-10.5503
は少し	-10.5505
病院で	-10.5507
▁W	-10.5507
瀬	-10.5507
のもと	-10.5508
▁J	-10.5508
代行	-10.5508
笑顔で	-10.5508
紅葉	-10.5511
は全く	-10.5512
スイッチ	-10.5519
先生に	-10.552
ピー	-10.552
太郎	-10.5523
▁D	-10.5525
出会った	-10.5525
といわれています	-10.5528
視点	-10.5531
仕方ない	-10.5531
訴	-10.5532
をお願いいたします	-10.5533
個人情報の	-10.5535
いませんでした	-10.5535
グラ	-10.5535
GB	-10.5536
読書	-10.5536
彼女は	-10.5537
彼が	-10.5541
散	-10.5541
を体験	-10.5542
こちらで	-10.5546
片付け	-10.5547
をとって	-10.5549
頼	-10.5555
夏休み	-10.5555
マナー	-10.5555
部分が	-10.5557
を作成	-10.5557
無視	-10.5566
一方で	-10.5569
ri	-10.557
夜の	-10.5573
本気で	-10.5573
を示す	-10.5573
▁本日は	-10.5574
を導入	-10.5577
子どもが	-10.5577
にあたり	-10.5579
を使用した	-10.5579
大な	-10.5581
少なくとも	-10.5583
さんも	-10.5583
テレビで	-10.5583
臨	-10.5583
出店	-10.5584
おくと	-10.5584
ent	-10.5585
縦	-10.5585
済み	-10.5585
向けに	-10.5585
を維持	-10.5588
SA	-10.5588
が完了	-10.559
快適に	-10.559
プリ	-10.5591
ED	-10.5593
▁きっと	-10.5597
様な	-10.5599
出身	-10.56
暑い	-10.5601
胃	-10.5601
つけて	-10.5602
が出た	-10.5604
専門店	-10.5605
全身	-10.5608
だけが	-10.561
ダン	-10.5612
装備	-10.5612
を求めて	-10.5614
固	-10.5615
それらの	-10.5618
丁目	-10.5619
とは違う	-10.562
いきたい	-10.5622
所に	-10.5626
ることが	-10.5627
お昼	-10.5628
働いて	-10.5629
着用	-10.563
ことはできません	-10.5633
エコ	-10.5636
ふと	-10.5637
認知症	-10.565
たこと	-10.5653
▁結局	-10.5661
こちらも	-10.5666
―	-10.5668
▁今日の	-10.5671
..	-10.5672
に行き	-10.5673
鏡	-10.5675
▁最近では	-10.5675
髪の毛	-10.5676
▁一度	-10.5678
の方も	-10.5679
異なります	-10.5679
にいる	-10.568
興	-10.568
自己破産	-10.5681
をとる	-10.5681
目的で	-10.5681
変わらない	-10.5682
をたくさん	-10.5682
必須	-10.5682
けて	-10.5683
近所の	-10.5685
▁スマホ	-10.5686
ご用意	-10.5689
のではないかと思います	-10.569
免許	-10.5694
あげる	-10.5697
のほか	-10.5698
求人情報	-10.5699
リラックス	-10.5702
ものと	-10.5703
のことです	-10.5706
決まり	-10.5709
コレクション	-10.5709
農	-10.571
支給	-10.5711
オーバー	-10.5712
データベース	-10.5713
札	-10.5715
55	-10.5717
みたら	-10.5719
おかげで	-10.5721
重い	-10.5721
▁もっと	-10.5722
No	-10.5724
数多くの	-10.5726
およそ	-10.5727
ドライバー	-10.5727
気温	-10.573
3000	-10.5731
撮って	-10.5732
ジョン	-10.5733
公共	-10.5733
を紹介しています	-10.5733
マシン	-10.5734
なければいけない	-10.5738
棚	-10.5738
ご自身の	-10.5739
の質	-10.574
講義	-10.574
オーナー	-10.5742
家事	-10.5744
マンガ	-10.5746
シティ	-10.5747
タイミングで	-10.5749
▁写真	-10.5752
が多いので	-10.5752
▁次の	-10.5754
落ち着いて	-10.5755
PR	-10.5758
▁詳細は	-10.5759
束	-10.576
域	-10.5762
風俗	-10.5763
する際に	-10.5765
一般的に	-10.5775
当院	-10.5776
でしょ	-10.5777
後ろ	-10.5779
▁インターネット	-10.5779
匹	-10.5779
をご利用ください	-10.578
iPad	-10.578
統計	-10.5785
～!	-10.5788
解約	-10.5788
を開始	-10.579
メント	-10.579
の対象	-10.5791
いただきたい	-10.5791
カウンター	-10.5795
まあ	-10.5795
▁R	-10.5796
職種	-10.5797
影	-10.5799
美術	-10.58
CO	-10.5808
頃から	-10.5808
殿	-10.5811
ぁ	-10.5812
▁2013	-10.5813
ニューヨーク	-10.5813
論文	-10.5814
中は	-10.5815
とう	-10.5817
勤め	-10.5819
童	-10.5819
個人的には	-10.5824
をチェック	-10.5826
一切	-10.5826
を高める	-10.5827
入った	-10.583
空き	-10.5832
欠	-10.5833
盛	-10.5834
ST	-10.5835
連載	-10.584
考えている	-10.584
SIM	-10.5843
インフルエンザ	-10.5844
当社の	-10.5847
▁ここまで	-10.5848
彩	-10.5849
給料	-10.5851
いませんか	-10.5854
次に	-10.5855
張	-10.5855
料金は	-10.5857
することにより	-10.5858
合わせて	-10.5859
登	-10.586
心地	-10.5862
タッチ	-10.5864
上がって	-10.5866
それも	-10.5868
にアクセス	-10.5869
天候	-10.587
が原因	-10.587
お早めに	-10.5872
きれい	-10.5874
ヒット	-10.5875
OFF	-10.5875
倒	-10.5876
日本人の	-10.5881
の関係	-10.5882
してもらえる	-10.5888
ページに	-10.5888
迎え	-10.5888
劇	-10.5889
良いと思います	-10.5889
ダメージ	-10.5891
返金	-10.5893
提携	-10.5896
一本	-10.5899
無駄	-10.5901
バックアップ	-10.5903
吹	-10.5906
今から	-10.5907
報告書	-10.5909
、2017	-10.5911
方が良い	-10.5911
するのも	-10.5912
以下のような	-10.5915
に掲載	-10.5916
▁まだまだ	-10.5918
は大変	-10.5918
貢献	-10.592
綺麗	-10.592
富士	-10.5922
▁よく	-10.5923
もともと	-10.5923
言われた	-10.5923
プレミアム	-10.5923
フォルダ	-10.5924
そろそろ	-10.5925
違反	-10.5926
どれも	-10.5927
カレンダー	-10.5931
措置	-10.5933
朝から	-10.5935
いきました	-10.5939
してしまい	-10.5939
使われる	-10.5941
キング	-10.5941
ギター	-10.5947
試し読み	-10.5948
売れ	-10.5948
もっとも	-10.5954
カスタマイズ	-10.5954
MA	-10.5955
秘	-10.5958
グローバル	-10.5958
たまたま	-10.596
ときの	-10.596
をしっかりと	-10.596
恐怖	-10.5962
▁すると	-10.5963
最低	-10.5964
先行	-10.5966
ed	-10.5967
能	-10.5969
競争	-10.5969
列車	-10.597
通りに	-10.597
であることを	-10.597
をかけ	-10.5972
に入り	-10.5973
必ずしも	-10.5975
になったり	-10.5977
ああ	-10.5978
警	-10.5979
冷え	-10.5979
▁皆様	-10.5982
絵本	-10.5985
現場で	-10.5987
定め	-10.5987
保険料	-10.5988
ライフスタイル	-10.599
プログラミング	-10.5992
お名前	-10.5993
▁3.	-10.5994
ポケット	-10.5994
を選択する	-10.5995
送って	-10.5995
を提案	-10.5995
後悔	-10.5997
ものがあります	-10.5998
間違いなく	-10.5999
かと	-10.5999
クリーニング	-10.6001
おすすめです	-10.6003
小さく	-10.6005
下げ	-10.6006
宣言	-10.6006
暗	-10.6012
取る	-10.6013
誰が	-10.6013
▁あの	-10.6013
じっくり	-10.6013
部分は	-10.6014
復帰	-10.6014
電池	-10.6015
本を	-10.6016
せっかく	-10.6019
いよいよ	-10.6019
もよく	-10.602
じゃなくて	-10.6021
氷	-10.6021
票	-10.6023
嘘	-10.6023
おけば	-10.6023
りする	-10.6023
33	-10.6024
新築	-10.6027
の改善	-10.6028
伸び	-10.6028
のようです	-10.6031
に加えて	-10.6031
それで	-10.6035
もたくさん	-10.6035
そうですが	-10.6036
委託	-10.6036
住まい	-10.604
の開催	-10.6041
会社で	-10.6043
ご確認	-10.6045
くださった	-10.6045
汁	-10.6049
することができ	-10.605
年も	-10.6051
マラソン	-10.6052
鑑定	-10.6052
冷	-10.6053
政権	-10.6054
をしながら	-10.6057
可能性が高い	-10.6058
眺め	-10.6059
社会的	-10.606
龍	-10.6063
2～3	-10.6064
始めました	-10.6065
思え	-10.6065
行います	-10.6065
入浴	-10.607
▁近年	-10.6072
を迎え	-10.6077
▁みんな	-10.6077
眠	-10.6079
実装	-10.608
ボリューム	-10.6083
しかありません	-10.6084
のご利用	-10.6084
ご利用ください	-10.6085
▁海外	-10.6087
症状が	-10.6087
尿	-10.6087
ったら	-10.6088
肌が	-10.6088
いるのか	-10.609
を読む	-10.6092
ご提案	-10.6093
激しい	-10.6094
経験を	-10.6096
駅の	-10.6097
子の	-10.6098
分から	-10.6107
極めて	-10.6109
マニュアル	-10.6109
危機	-10.6111
書かれた	-10.6111
3.	-10.6112
姿を	-10.6112
お金が	-10.6113
衛生	-10.612
歓迎	-10.6123
37	-10.6125
変な	-10.6125
▁あとは	-10.6126
子供達	-10.6127
状態に	-10.6128
の基本	-10.6131
著作権	-10.6132
ないよう	-10.6132
はなく	-10.6141
があるため	-10.6141
会長	-10.6142
度に	-10.6143
であると	-10.6147
ゾ	-10.6147
才	-10.6147
楽曲	-10.6147
チラシ	-10.6152
便秘	-10.6154
撮り	-10.6154
なー	-10.6155
のおかげで	-10.6159
せば	-10.616
寝る	-10.6162
ノン	-10.6162
メールを	-10.6164
豆	-10.6165
といえます	-10.6167
チョコレート	-10.6168
理想の	-10.617
▁こちら	-10.617
終わって	-10.6171
共	-10.6176
ご希望の	-10.6176
おき	-10.6177
兵	-10.6178
縮	-10.6178
年末年始	-10.618
はっきり	-10.618
実際には	-10.6182
毛穴	-10.6183
全体的に	-10.6186
載って	-10.6187
トロ	-10.6188
を送って	-10.619
専門の	-10.6193
名様	-10.6195
を確認する	-10.6197
スマート	-10.62
お前	-10.6205
結果的に	-10.6206
笑い	-10.6207
自分も	-10.6208
かも知れません	-10.6209
の中の	-10.6211
と言い	-10.6212
反省	-10.6213
どこで	-10.6213
新鮮な	-10.6214
ブリ	-10.6216
分かりやすく	-10.6217
面積	-10.6217
やつ	-10.6219
怪	-10.6219
教師	-10.622
の購入	-10.622
著者	-10.6226
なかったり	-10.6226
お肌	-10.6227
を守る	-10.6228
年前の	-10.6228
が入って	-10.6229
700	-10.623
金属	-10.6233
させていただく	-10.6234
li	-10.6236
おりました	-10.624
ハー	-10.6241
を確保	-10.6243
東北	-10.6243
興奮	-10.6248
▁ブログ	-10.625
にあり	-10.625
ジャー	-10.6251
分で	-10.6252
ベトナム	-10.6252
機構	-10.6252
故障	-10.6254
わかり	-10.6255
膜	-10.6256
あくまで	-10.6257
国立	-10.6258
可能性もあります	-10.6258
がなければ	-10.6258
人類	-10.6258
の練習	-10.6262
訪れる	-10.6262
2012	-10.6263
人間が	-10.6263
成立	-10.6264
誰にも	-10.6265
社の	-10.6266
厚	-10.6266
混	-10.6268
制御	-10.6272
▁やっぱり	-10.6277
気をつけ	-10.6278
丘	-10.6278
フレーム	-10.628
考えた	-10.6281
#	-10.6281
を感じて	-10.6282
生理	-10.6283
の使い方	-10.6285
代謝	-10.6286
のみならず	-10.6288
両方	-10.6293
できず	-10.6295
に興味	-10.6297
形態	-10.6297
に基づく	-10.6297
▁N	-10.6297
人や	-10.6297
美味しく	-10.6298
コミック	-10.63
;	-10.63
タオル	-10.6301
主婦	-10.6303
知る	-10.6304
の下	-10.6304
武器	-10.6304
を行うこと	-10.6305
ヘッド	-10.6316
困る	-10.6316
を設定	-10.6319
ブーム	-10.632
というのも	-10.6323
富	-10.6323
を利用	-10.6323
※	-10.6326
環境で	-10.633
ロゴ	-10.633
のイメージ	-10.6332
ディスプレイ	-10.6332
という意味	-10.6333
▁ところで	-10.6336
と言います	-10.6337
になったら	-10.6337
企業が	-10.6338
複雑な	-10.6339
長時間	-10.6342
ではありませんが	-10.6343
10%	-10.6343
をやって	-10.6347
の作成	-10.6347
磨	-10.6351
隣	-10.6356
するのに	-10.6356
持	-10.6357
なにか	-10.6358
入る	-10.636
我々	-10.636
身長	-10.6361
リクエスト	-10.6361
店内	-10.6361
評	-10.6361
▁あまり	-10.6362
見ると	-10.6362
▁以下	-10.6363
者に	-10.6363
付いて	-10.6363
あっという間に	-10.6364
不可能	-10.6368
を元に	-10.6369
共感	-10.6371
題	-10.6372
りと	-10.6373
の効果	-10.6374
をつける	-10.6375
荒	-10.6377
がいっぱい	-10.638
注意が必要です	-10.638
使え	-10.6388
してみてはいかがでしょうか	-10.6388
登山	-10.6392
否定	-10.6395
ありがたい	-10.6395
所で	-10.6396
見えます	-10.6397
いいですね	-10.6398
▁せっかく	-10.6398
株式	-10.6398
が好きな	-10.64
の中では	-10.6401
パラ	-10.6401
自体が	-10.6401
周辺の	-10.6401
返し	-10.6401
付属	-10.6406
することによって	-10.6407
かん	-10.6407
ピンク	-10.6408
チーズ	-10.6409
後日	-10.6409
と考え	-10.6414
されているので	-10.6418
サービスの	-10.642
いける	-10.6422
づけ	-10.6423
フィールド	-10.6424
盛り	-10.6425
履歴	-10.6427
中国の	-10.643
期間中	-10.6434
夕食	-10.6435
形状	-10.6436
あとは	-10.6438
帰	-10.6439
提示	-10.6439
としている	-10.6439
実力	-10.6442
決断	-10.6444
家族の	-10.6445
外出	-10.6447
していただき	-10.6448
お食事	-10.6454
マス	-10.6455
★	-10.6455
きています	-10.6458
機能を	-10.6458
勉強会	-10.6459
と呼ばれ	-10.646
会って	-10.6462
スマホで	-10.6462
理由で	-10.6462
ことが多く	-10.6463
の多くは	-10.6466
ますか	-10.6466
に登録	-10.6467
上から	-10.6471
異性	-10.6472
世界中の	-10.6475
冷蔵庫	-10.6476
思いました	-10.6478
田市	-10.6478
教材	-10.6479
多数	-10.6481
諦め	-10.6487
しかし	-10.6488
同僚	-10.6489
フォー	-10.6491
していただく	-10.6491
お店の	-10.6493
いている	-10.6494
お越しください	-10.6495
知り	-10.65
帳	-10.6503
補	-10.6504
が表示されます	-10.6504
さんから	-10.6511
食生活	-10.6514
ナイト	-10.6514
最終的に	-10.6515
でしたら	-10.6515
踏み	-10.6516
メモリ	-10.6516
パパ活	-10.6519
主演	-10.6522
周囲	-10.6524
を見せて	-10.6525
保育	-10.6525
をします	-10.6528
矢	-10.6528
ビュー	-10.6528
トレード	-10.653
...」	-10.6531
かれ	-10.6534
監視	-10.6534
このように	-10.6536
選んで	-10.654
衝撃	-10.654
話を聞いて	-10.6541
前提	-10.6544
ta	-10.6549
▁その結果	-10.655
▁北海道	-10.6553
自身が	-10.6554
▁K	-10.6555
と考えております	-10.6556
の準備	-10.6556
トレンド	-10.6556
が行われ	-10.6558
脱毛サロン	-10.6561
のご	-10.6565
して欲しい	-10.6566
控除	-10.6566
▁基本的に	-10.6567
申込み	-10.6567
°	-10.6574
寝て	-10.6575
不正	-10.6576
田舎	-10.6581
飯	-10.6583
医学	-10.6583
▁これも	-10.6584
純	-10.6585
広場	-10.6586
ヶ	-10.6588
に役立つ	-10.6589
なしで	-10.659
皇	-10.659
▁お客様の	-10.659
化粧水	-10.659
氏が	-10.6591
タイヤ	-10.6595
早速	-10.6596
わかりやすい	-10.6596
が可能な	-10.6597
あえて	-10.6598
部分に	-10.6601
の際には	-10.6606
ter	-10.6608
正解	-10.6608
を考えると	-10.6611
とし	-10.6612
が低い	-10.6614
の色	-10.6615
34	-10.6616
部屋の	-10.6617
を飲む	-10.6617
貴	-10.6617
付き合い	-10.6619
ワー	-10.6622
これからの	-10.6627
弁	-10.6627
否	-10.6628
出品	-10.6628
してくれて	-10.663
をまとめて	-10.663
探す	-10.6631
ご登録	-10.6633
マッチ	-10.6634
していただきました	-10.6634
がほとんど	-10.6634
手紙	-10.6635
不動産会社	-10.6636
知人	-10.6636
みれば	-10.6636
得意	-10.6636
規則	-10.6637
を中心とした	-10.6637
秋の	-10.6638
月末	-10.664
39	-10.6642
家を	-10.6645
高め	-10.6646
前日	-10.6647
みたいに	-10.6648
んだな	-10.6649
人生の	-10.6649
価格は	-10.6649
子は	-10.6649
住んでいる	-10.6651
そうですね	-10.6651
路線	-10.6651
ご本人	-10.6652
求め	-10.6653
冬の	-10.6654
別れ	-10.6655
▁こういった	-10.6656
きり	-10.6656
とおり	-10.6657
通貨	-10.6658
東日本大震災	-10.6658
司	-10.666
襲	-10.6663
結婚相談所	-10.6663
と思える	-10.6665
告知	-10.6665
ものではない	-10.6668
新幹線	-10.6669
細かく	-10.6669
は全て	-10.667
走行	-10.6671
クロス	-10.6671
改革	-10.6671
栄養素	-10.6673
役員	-10.6674
発想	-10.6675
的にも	-10.6675
腰痛	-10.6677
お花	-10.6678
促進	-10.6679
納	-10.6682
その分	-10.6684
しておきたい	-10.6691
無線	-10.6691
してみる	-10.6693
の数	-10.6697
頻度	-10.6698
の雰囲気	-10.6698
あくまでも	-10.6701
仲良く	-10.6706
おかしい	-10.671
孫	-10.6713
をクリックすると	-10.6713
j	-10.6715
が好き	-10.6716
そうした	-10.6717
ーズ	-10.6717
参照	-10.6718
をご覧	-10.6719
がついて	-10.672
ギャラリー	-10.6722
エロ	-10.6722
SE	-10.6723
芸	-10.6723
幸	-10.6725
最近では	-10.6728
をしたい	-10.6729
お父さん	-10.6735
月額	-10.6735
ついた	-10.6736
エピソード	-10.6737
の量	-10.6739
があったら	-10.6741
まち	-10.6747
▁三	-10.6747
との出会い	-10.6749
送付	-10.675
でしょうが	-10.6756
一定	-10.6757
をクリックして	-10.6759
を書く	-10.6763
駅前	-10.6764
考えると	-10.6765
危険な	-10.6766
▁映画	-10.6768
がありましたら	-10.6768
恐れ	-10.6768
がある場合は	-10.6769
フォト	-10.677
したくない	-10.6772
寄り	-10.6773
はコメントを受け付け	-10.6773
スープ	-10.678
紹介した	-10.678
年生の	-10.6783
の差	-10.6785
▁中国	-10.6785
んだよね	-10.6786
多様な	-10.6787
果	-10.6791
しま	-10.6793
本作	-10.6796
がございましたら	-10.6797
陸	-10.6798
と思っております	-10.6799
研究者	-10.681
されてしまう	-10.6811
化する	-10.6811
復興	-10.6811
職人	-10.6812
利用できます	-10.6813
良くない	-10.6814
お得に	-10.6816
遠い	-10.6817
ピッタリ	-10.6818
差し	-10.6821
服装	-10.6821
オブ	-10.6825
ますよ	-10.683
痛い	-10.683
歴	-10.6832
ということになります	-10.6835
たまに	-10.6836
皆さま	-10.6836
寄せ	-10.6837
兵庫県	-10.6838
消費税	-10.684
をすること	-10.6846
軽減	-10.6847
ほとんどの	-10.6848
より良い	-10.6849
オール	-10.6852
～」	-10.6852
音が	-10.6853
怒り	-10.6858
と思うのですが	-10.686
親子	-10.686
使わない	-10.6861
率は	-10.6862
宜しくお願い致します	-10.6863
って感じ	-10.6864
手続	-10.6867
貸	-10.6868
遺産	-10.6871
ブログを	-10.6873
場合も	-10.6874
衣	-10.6875
によれば	-10.6875
真剣に	-10.6878
コール	-10.6879
いいと思います	-10.688
のご案内	-10.6884
交通事故	-10.6884
銀座	-10.6884
キン	-10.6885
用紙	-10.6885
低下	-10.6889
デー	-10.689
健	-10.6893
映	-10.6894
▁どの	-10.6896
腸	-10.6897
勢	-10.6898
ほう	-10.6899
どれくらい	-10.6902
微	-10.6903
ことがない	-10.6904
単純に	-10.6905
お出かけ	-10.6905
のでご注意ください	-10.6907
根拠	-10.6907
が続く	-10.6912
に応じた	-10.6912
福島	-10.6913
正確な	-10.6913
邪魔	-10.6913
わかった	-10.6914
補助	-10.6918
を変え	-10.6921
雄	-10.6926
軒	-10.6928
上限	-10.6929
を与える	-10.693
を伝える	-10.693
起こる	-10.693
頭痛	-10.6931
接客	-10.6932
偶然	-10.6935
ようになっています	-10.6935
うれしい	-10.6935
いざ	-10.6936
なんでも	-10.6937
優先	-10.6937
走る	-10.6938
こない	-10.6946
言われて	-10.6947
しているのか	-10.695
、“	-10.6953
最適	-10.6953
添付	-10.6955
んですか	-10.6957
好評	-10.6957
2009	-10.6958
落ち着いた	-10.6958
時期に	-10.6959
しておくと	-10.696
手が	-10.6962
していれば	-10.6962
イー	-10.6965
住み	-10.697
が少なく	-10.6973
医薬品	-10.6974
アップロード	-10.6976
防災	-10.6976
将	-10.6978
の提供	-10.698
おらず	-10.6982
▁ネット	-10.6983
まつり	-10.6993
教えてください	-10.6994
インターネットで	-10.6995
誠にありがとうございます	-10.6995
くださいませ	-10.6996
カナダ	-10.6996
女性と	-10.6997
真実	-10.6997
理念	-10.6997
弟	-10.7001
食べられる	-10.7001
送り	-10.7005
iOS	-10.7007
宗	-10.7009
上がり	-10.7012
なこと	-10.7015
エイ	-10.7015
生成	-10.7016
のなかで	-10.7017
気をつけて	-10.7018
上映	-10.7019
手で	-10.7022
奈良	-10.7023
ございます	-10.7026
魔法	-10.7028
宅	-10.7029
明け	-10.7029
を示	-10.703
敗	-10.7032
姉	-10.7033
たま	-10.7034
したとき	-10.7034
いますので	-10.7037
連れ	-10.7039
長さ	-10.7039
事業所	-10.704
EC	-10.7043
お願い致します	-10.7043
愛情	-10.7043
いかない	-10.7046
続けている	-10.7048
▁通常	-10.7048
▁そういった	-10.7049
圏	-10.7049
お問合せ	-10.7051
わかります	-10.7051
と言われて	-10.7055
センチ	-10.7056
てくれます	-10.7057
癒し	-10.7059
嫌い	-10.7059
会う	-10.706
塗り	-10.7061
いけ	-10.7062
一緒	-10.7062
民間	-10.7063
たくなる	-10.7064
ではなかった	-10.7065
看板	-10.7066
とされる	-10.7067
将来の	-10.7068
を食べて	-10.7069
パーティ	-10.7072
二人の	-10.7075
並んで	-10.7076
暇	-10.7079
暑	-10.7082
ていること	-10.7083
学園	-10.7085
感じた	-10.7085
呼び	-10.7085
威	-10.7086
ur	-10.7089
を活用して	-10.7091
ポリ	-10.7091
食事を	-10.7092
マウス	-10.7093
特許	-10.7094
is	-10.7094
というと	-10.7095
やかな	-10.7096
向かい	-10.7096
迷惑	-10.7097
うちの	-10.7101
かかった	-10.7101
ッチ	-10.7102
▁個人的には	-10.7107
ポイントは	-10.7108
気づき	-10.7116
奈	-10.7117
意図	-10.7118
お待ち	-10.7118
なか	-10.7119
をご確認ください	-10.712
衣装	-10.7121
問題ない	-10.7121
食べたい	-10.7122
メールにて	-10.7125
さすがに	-10.7125
ユニット	-10.7129
本格的に	-10.713
伝えて	-10.7136
▁ホテル	-10.7138
カードを	-10.714
抗	-10.7142
がち	-10.7143
注意点	-10.7143
の知識	-10.7144
US	-10.7145
しているため	-10.7145
則	-10.7145
税理士	-10.7146
最近の	-10.7147
ウィ	-10.7147
(1	-10.7148
が多いです	-10.7149
財	-10.715
価格が	-10.7153
アクセサリー	-10.7155
英会話	-10.7156
人工	-10.7157
配達	-10.7157
など様々な	-10.7157
同一	-10.716
人形	-10.716
分割	-10.7161
のが一番	-10.7171
幕	-10.7174
英語で	-10.7178
ひとつの	-10.7178
議会	-10.7179
鑑賞	-10.7182
海外の	-10.7183
を公開	-10.7184
なっています	-10.7186
なきゃ	-10.7188
受け取り	-10.7189
機能が	-10.7189
ココ	-10.7191
ほうがいい	-10.7191
出席	-10.7195
になってから	-10.7197
しておりません	-10.7197
復旧	-10.7197
開設	-10.72
を学ぶ	-10.7203
を発見	-10.7205
▁無料	-10.7206
キス	-10.721
置	-10.7214
の授業	-10.7214
立って	-10.7214
カタログ	-10.7215
自然な	-10.7215
戦い	-10.7216
生物	-10.7216
金曜日	-10.7216
党	-10.7217
証券	-10.7224
個室	-10.7224
造り	-10.7225
演	-10.7226
水を	-10.7228
日で	-10.723
日中	-10.7232
SS	-10.7233
の姿	-10.7236
が多かった	-10.7236
郷	-10.7238
▁一方で	-10.7242
消化	-10.7243
お断り	-10.7246
スタッフの	-10.7246
危険性	-10.7252
礼	-10.7253
集合	-10.7254
が起こる	-10.7257
といい	-10.7257
飲み物	-10.726
をご用意	-10.726
2008	-10.7262
声を	-10.7263
使いやすい	-10.7266
もしかしたら	-10.7267
嫁	-10.7268
時も	-10.7269
奥さん	-10.727
が行われました	-10.7271
モチベーション	-10.7271
軽い	-10.7274
ストア	-10.7276
内容の	-10.7277
▁不倫	-10.7277
me	-10.7283
統一	-10.7284
残念	-10.7289
ではないので	-10.729
レベルの	-10.729
しないように	-10.7291
お互いに	-10.7292
心より	-10.7292
の形	-10.7294
万円の	-10.7294
どこの	-10.7296
同時	-10.7297
入金	-10.7297
んじゃないかな	-10.7298
と言えるでしょう	-10.7303
がないので	-10.7307
どこまで	-10.7309
に位置する	-10.7309
ひどい	-10.7309
ドン	-10.7312
だと思って	-10.7313
していきましょう	-10.7314
との関係	-10.7322
みな	-10.7322
なくなり	-10.7325
関連の	-10.7325
後で	-10.7327
寒さ	-10.7329
全員が	-10.7332
相手を	-10.7332
意欲	-10.7332
の作品	-10.7333
サイトです	-10.7338
の前で	-10.7338
阿	-10.7338
商店街	-10.7339
おきます	-10.7341
頂きます	-10.7341
▁それぞれの	-10.7341
以外は	-10.7345
たりする	-10.7349
進出	-10.7351
本番	-10.7351
てしまって	-10.7352
に到着	-10.7352
破壊	-10.7353
気持ちで	-10.7354
▁日本では	-10.7356
してまいります	-10.7357
過ごして	-10.7357
送料無料	-10.7359
よろしくお願い致します	-10.736
▁尚	-10.7361
入場	-10.7363
運命	-10.7364
であります	-10.7365
を獲得	-10.7365
ランク	-10.7366
されると	-10.7367
私たちが	-10.7369
前回	-10.7371
泣き	-10.7371
上手に	-10.7372
いただいております	-10.7373
創造	-10.7373
TA	-10.7375
記事に	-10.7375
回線	-10.7375
負荷	-10.7378
を大きく	-10.738
発達	-10.7381
方法が	-10.7381
が増えて	-10.7382
シア	-10.7384
実態	-10.7386
短期	-10.7389
はすべて	-10.7389
することもできます	-10.7391
を問わず	-10.7394
キャスト	-10.7395
自らの	-10.7396
貫	-10.7397
TO	-10.7397
プライバシー	-10.7397
えない	-10.7403
の経験	-10.7409
工程	-10.741
洗濯	-10.7412
訪れた	-10.7413
se	-10.7414
称	-10.7416
止	-10.7417
したのですが	-10.7418
蓄積	-10.742
行ける	-10.7421
等に	-10.7423
浮	-10.7423
サブ	-10.7425
120	-10.7428
運行	-10.7428
の可能性	-10.7428
▁I	-10.743
際の	-10.743
行われる	-10.7434
揚げ	-10.7435
▁前回	-10.7438
を開催します	-10.7444
▁ですので	-10.7447
度の	-10.7448
を手に	-10.7448
を減らす	-10.745
毒	-10.7452
盗	-10.7455
▁今日も	-10.7459
フレ	-10.7462
でもない	-10.7463
地下鉄	-10.7463
かは	-10.7464
ポスター	-10.7465
ご支援	-10.7466
していくこと	-10.7468
使	-10.7472
分かりません	-10.7473
点検	-10.7474
晩	-10.7475
主人	-10.7476
段階で	-10.7477
2011	-10.7478
▁2012	-10.7479
na	-10.7485
休暇	-10.7487
NO	-10.7487
を始めた	-10.7489
以前の	-10.7491
震災	-10.7495
の際	-10.7496
に関する情報	-10.7496
の対応	-10.7496
洋服	-10.7499
漏	-10.7501
ソリューション	-10.7501
麦	-10.7502
予	-10.7503
驚きました	-10.7503
レーザー	-10.7503
ごく	-10.7507
なってきました	-10.7508
を展開	-10.7509
変換	-10.7515
育	-10.7515
会った	-10.7517
自体	-10.7518
ne	-10.7519
GO	-10.7522
応用	-10.7523
ファミリー	-10.7528
リード	-10.753
されていません	-10.7531
カラ	-10.7532
逮捕	-10.7533
の第	-10.7535
没	-10.7541
コレ	-10.7543
エア	-10.7543
をご用意しております	-10.7544
プロの	-10.7545
狭い	-10.7546
財布	-10.7547
デイ	-10.7547
をつくる	-10.7549
持続	-10.7551
を決めて	-10.7553
複雑	-10.7555
才能	-10.7557
カテゴリ	-10.7557
葬儀	-10.7557
レッド	-10.7558
即日	-10.7561
祝日	-10.7562
万円以上	-10.7564
の価値	-10.7566
継続して	-10.7566
効果は	-10.7566
照明	-10.7568
ですけど	-10.7568
見逃	-10.7571
熱い	-10.7571
▁18	-10.7573
役に立つ	-10.7579
まぁ	-10.758
▁男性	-10.758
くれている	-10.758
▁V	-10.7583
この記事	-10.7584
はなかなか	-10.7588
もん	-10.7591
どういった	-10.7594
期間が	-10.7596
大阪市	-10.7598
去年	-10.7598
解除	-10.76
気になって	-10.7602
場で	-10.7603
栄	-10.7609
休業	-10.7609
学校の	-10.7609
にとっても	-10.7611
はありませんでした	-10.7613
決めた	-10.7615
スーツ	-10.7615
あんまり	-10.7616
本書	-10.7617
雑貨	-10.7619
飛んで	-10.7619
打ち合わせ	-10.7619
部位	-10.7619
じゃないですか	-10.7619
ポイントを	-10.762
してしまうと	-10.7623
が難しい	-10.7625
の動き	-10.7625
つぶ	-10.7626
を抑える	-10.7628
に集中	-10.7633
昼間	-10.7636
飾り	-10.7637
感じで	-10.7638
がちな	-10.7638
つける	-10.7639
車が	-10.7639
学科	-10.7641
▁今の	-10.7643
相性	-10.7643
▁すでに	-10.7645
過程	-10.7646
ネイル	-10.7647
清掃	-10.7649
した時	-10.7649
グルメ	-10.765
信じ	-10.7652
はあります	-10.7652
心臓	-10.7652
無し	-10.7654
▁この度	-10.7656
ってしまった	-10.7656
する人	-10.7656
方面	-10.7656
アドバイスを	-10.7658
千葉県	-10.766
ありますので	-10.7661
既存の	-10.7661
婚	-10.7664
をご	-10.7669
の中心	-10.7669
従来	-10.7669
お気に入り	-10.767
漏れ	-10.7671
がかかります	-10.7676
食い	-10.7677
おもちゃ	-10.7677
らなかった	-10.7678
子供たち	-10.7679
見たい	-10.768
タワー	-10.7681
兄弟	-10.7681
を送る	-10.7682
を発表	-10.7683
ウェイ	-10.7685
都道府県	-10.7686
お湯	-10.7689
司法書士	-10.769
りします	-10.769
問題を	-10.7692
届く	-10.7692
メッセージを	-10.7692
俺は	-10.7692
一週間	-10.7693
実際は	-10.7696
とのことで	-10.7697
フィリピン	-10.77
水準	-10.7702
援助	-10.7703
ハード	-10.7703
しているのは	-10.7704
科目	-10.7706
目の前に	-10.7708
することなく	-10.7713
短く	-10.7713
、2016	-10.7714
歳で	-10.7716
然	-10.7718
いただいている	-10.7718
自分たちの	-10.7721
応え	-10.7723
以前に	-10.7724
ショ	-10.7725
業者に	-10.7725
解析	-10.7727
かない	-10.7728
強制	-10.7729
氏名	-10.773
LAN	-10.773
ir	-10.7732
らしいです	-10.7733
んだから	-10.7734
協	-10.7735
を探している	-10.7737
展示会	-10.7737
していなかった	-10.7738
を含め	-10.7738
寒	-10.7739
年後	-10.7739
関数	-10.774
中身	-10.7742
ワード	-10.7742
頭に	-10.7743
ライセンス	-10.7743
ユーザーの	-10.7748
大量の	-10.7752
CA	-10.7755
トー	-10.7757
チュ	-10.7758
は現在	-10.776
引用	-10.7762
のページ	-10.7764
ot	-10.7767
の人が	-10.7768
で働く	-10.7771
間違って	-10.7772
仙台	-10.7776
基盤	-10.7778
▁大阪	-10.7779
ツイート	-10.7781
伝える	-10.7782
がかかる	-10.7782
スク	-10.7783
ナン	-10.7783
店で	-10.7786
来店	-10.7787
書かれている	-10.7788
なさい	-10.7789
本の	-10.7789
潜	-10.7789
プラットフォーム	-10.779
ができた	-10.7792
▁いま	-10.7793
感じられる	-10.7793
原発	-10.7794
はずだ	-10.7797
亡くなった	-10.7798
いいね	-10.7798
MI	-10.7799
方向に	-10.7801
かい	-10.7801
移	-10.7801
革	-10.7802
手続きを	-10.7802
そうでない	-10.7804
行きました	-10.7805
形成	-10.7809
少しだけ	-10.781
▁世界	-10.7817
まいります	-10.7818
する機会	-10.782
点は	-10.7823
方も多い	-10.7826
してました	-10.7826
をプレゼント	-10.7827
じゃないか	-10.7827
クルマ	-10.7828
無料の	-10.7828
確認できます	-10.7829
部の	-10.783
一言	-10.783
▁もともと	-10.7831
and	-10.7831
が原因で	-10.7831
<	-10.7832
やってる	-10.7833
似	-10.7833
スパ	-10.7836
リビング	-10.7836
いただくこと	-10.7839
有効な	-10.7839
お伺い	-10.7839
これ以上	-10.7841
調べてみました	-10.7845
飛	-10.7849
行われ	-10.7849
ップ	-10.785
浸透	-10.785
レジ	-10.7852
感じです	-10.7853
いくと	-10.7854
サービスは	-10.7855
言います	-10.7858
問題ありません	-10.7859
ベルト	-10.786
ものでした	-10.786
ばかりで	-10.7861
位の	-10.7863
問題が	-10.7865
分野で	-10.7866
受診	-10.7867
多分	-10.7868
がんばって	-10.7869
審	-10.787
を得	-10.7871
吹き	-10.7871
あっても	-10.7872
MO	-10.7875
周年記念	-10.7875
と同様に	-10.7875
対戦	-10.7876
に来る	-10.7879
どこかで	-10.7879
借り入れ	-10.7879
出来た	-10.7882
赤い	-10.7882
登記	-10.7884
もはや	-10.7884
いけない	-10.7886
75	-10.7887
5,000	-10.7888
を使えば	-10.789
欄	-10.789
何故	-10.7891
ことが出来ました	-10.7892
99	-10.7893
破損	-10.7895
ウス	-10.7896
なかったのですが	-10.79
ことをおすすめします	-10.7905
場合によっては	-10.7906
ナンバー	-10.7908
通話	-10.7909
プラグイン	-10.7909
投	-10.7912
にした	-10.7912
わかりません	-10.7912
封	-10.7913
ていますが	-10.7913
大丈夫です	-10.7918
対策を	-10.7919
ゴールド	-10.792
直す	-10.792
ではなくて	-10.792
育成	-10.792
健康に	-10.7922
起業	-10.7922
基	-10.7922
良いです	-10.7924
ダム	-10.7925
のうえ	-10.7925
そんなこと	-10.7925
きれいに	-10.7927
▁これら	-10.7928
日には	-10.7932
専門学校	-10.7933
このまま	-10.7934
れている	-10.7936
分解	-10.794
最終的には	-10.7941
サイクル	-10.7942
関係ない	-10.7942
ツイッター	-10.7942
まわり	-10.7943
の距離	-10.7943
生活習慣	-10.7943
主要	-10.7948
みなさま	-10.795
込まれ	-10.7951
存在する	-10.7951
が登場	-10.7954
ショック	-10.7957
頃に	-10.7958
NG	-10.7959
家賃	-10.796
してくれ	-10.7961
返事	-10.7962
話し合い	-10.7962
つつある	-10.7963
スペイン	-10.7964
チャンネル	-10.7965
不可	-10.7965
人もいます	-10.7965
終了後	-10.7966
になっていました	-10.7967
の元	-10.7969
もあれば	-10.7969
合成	-10.7971
申告	-10.7974
信号	-10.7974
緩和	-10.7975
載せ	-10.7978
マルチ	-10.798
センス	-10.798
と感じた	-10.7984
を得て	-10.7984
一括	-10.7985
にわたって	-10.7985
タウン	-10.7985
けっこう	-10.7986
都内	-10.7987
ところが	-10.7989
範囲で	-10.7993
・・・・	-10.7995
演技	-10.7996
憲法	-10.7996
id	-10.7996
姫	-10.7997
主催	-10.7998
欧米	-10.7998
からといって	-10.7999
の有無	-10.7999
何卒	-10.7999
IS	-10.7999
でしょうね	-10.8001
op	-10.8001
どっち	-10.8002
びっくり	-10.8003
タバコ	-10.8003
を超えた	-10.8004
販売店	-10.8004
の方から	-10.8005
を防ぐ	-10.8005
りして	-10.8006
のだから	-10.8007
Mac	-10.8008
開き	-10.8008
ry	-10.801
ファイ	-10.8011
ate	-10.8013
などから	-10.8013
入れる	-10.8016
個人的な	-10.8017
Yahoo	-10.8017
コンテスト	-10.8018
生え	-10.8022
大切	-10.8022
はちょっと	-10.8022
テンプレート	-10.8025
7.	-10.8027
処	-10.8031
方が多い	-10.8032
をお願い	-10.8032
普段から	-10.8033
美人	-10.8037
EN	-10.8037
日以内に	-10.8038
▁」「	-10.8038
になっていて	-10.8041
天井	-10.8044
わけですが	-10.8044
フルーツ	-10.8045
ちゃんの	-10.8045
の時に	-10.8046
参	-10.8047
コラボ	-10.805
に感謝	-10.8054
見られ	-10.8057
独特の	-10.8059
作れる	-10.8059
追い	-10.806
外に	-10.806
貴方	-10.8062
福島県	-10.8062
今のところ	-10.8063
▁おそらく	-10.8063
土日	-10.8064
▁ここは	-10.8065
きている	-10.8068
がないと	-10.8069
された方	-10.8069
るもの	-10.807
そうに	-10.807
使えます	-10.8071
夕	-10.8073
分かった	-10.8075
鹿	-10.8076
に記載	-10.8076
足の	-10.8077
ナイ	-10.8078
皆さんの	-10.8078
のお客様	-10.8079
終わった	-10.808
経費	-10.808
事ができます	-10.808
帰国	-10.8081
人々が	-10.8081
那	-10.8083
洗顔	-10.8084
検	-10.8085
一杯	-10.8085
ロンドン	-10.8086
香港	-10.8086
ぼく	-10.8088
et	-10.8091
海外旅行	-10.8092
の言葉	-10.8094
を設置	-10.8095
算	-10.8095
ヒント	-10.8096
近所	-10.8098
こんな感じ	-10.8101
ご存知	-10.8101
られません	-10.8104
であったり	-10.8106
で開催される	-10.8107
スッキリ	-10.8107
近づいて	-10.8111
6.	-10.8112
を上げる	-10.8113
出展	-10.8114
取り扱い	-10.8115
変わります	-10.8117
のイベント	-10.8117
フラ	-10.8117
出勤	-10.8118
人間は	-10.8119
47	-10.812
使用している	-10.812
言っている	-10.812
徹底	-10.8122
▁たくさんの	-10.8124
の商品	-10.8124
の求人	-10.8125
テクノロジー	-10.8125
lo	-10.8125
楽しかった	-10.8125
由来	-10.8125
どちらも	-10.8126
かと思いますが	-10.8128
鳴	-10.8128
結果は	-10.8129
利便性	-10.8129
岸	-10.813
数々の	-10.8133
紫外線	-10.8133
投資家	-10.8137
でしたので	-10.8138
チャット	-10.814
ならず	-10.814
次のような	-10.8141
悲しい	-10.8142
けれども	-10.8142
ここでは	-10.8143
キット	-10.8149
いませんが	-10.815
従来の	-10.8152
仕入れ	-10.8152
ここから	-10.8155
がおすすめです	-10.8156
なんだろう	-10.8157
族	-10.8158
ユーザーが	-10.8164
やりたいこと	-10.8165
のんびり	-10.8167
治療法	-10.8168
慎重に	-10.8168
原則として	-10.817
施行	-10.817
結果を	-10.817
の意見	-10.817
みんなが	-10.8172
の評価	-10.8173
動いて	-10.8174
数年	-10.8175
違和感	-10.8176
残って	-10.8178
外で	-10.8179
している人	-10.8181
お店に	-10.8181
大阪府	-10.8182
さが	-10.8182
徳	-10.8186
ことなど	-10.819
流通	-10.819
AN	-10.8191
水道	-10.8192
くれない	-10.8192
われる	-10.8192
と違って	-10.8194
美肌	-10.8194
ビン	-10.8194
再開	-10.8196
▁したがって	-10.8196
立地	-10.82
死ぬ	-10.8203
ラスト	-10.8204
アド	-10.8211
その後の	-10.8214
インチ	-10.8215
を選んだ	-10.8215
が無く	-10.8217
上がった	-10.8219
ation	-10.8225
このブログ	-10.8226
我	-10.8226
統合	-10.8226
教員	-10.8227
ないか	-10.8231
お知らせいたします	-10.8232
の人気	-10.8234
を買い	-10.8237
へ行く	-10.8238
作品は	-10.8238
先生は	-10.824
タブ	-10.8241
してみたい	-10.8245
わけではなく	-10.8248
矯正	-10.8252
を出し	-10.8256
血管	-10.8257
キュ	-10.8258
返す	-10.8258
通りの	-10.8258
シャワー	-10.8258
場所は	-10.8259
ポケモン	-10.826
ような気がする	-10.8261
行きます	-10.8262
体験談	-10.8265
今月	-10.8265
どうも	-10.8266
そこは	-10.8266
続	-10.8268
SP	-10.8269
に出て	-10.8273
人事	-10.8273
ようなので	-10.8274
外観	-10.8274
離れて	-10.8275
決意	-10.8277
グラフ	-10.8279
茨城県	-10.8279
旅館	-10.828
ところを	-10.8281
どのくらい	-10.8282
サービスです	-10.8282
口に	-10.8283
すみません	-10.8283
うつ	-10.8284
手配	-10.8285
の部分	-10.8287
言葉で	-10.8287
の成長	-10.8294
江戸	-10.8295
クラスの	-10.8297
をテーマに	-10.8302
研	-10.8304
アイス	-10.8305
してもらった	-10.8306
マネジメント	-10.8306
訂正	-10.8307
相互	-10.8308
に住む	-10.831
反映	-10.8312
大事に	-10.8312
勝負	-10.8313
いたしますので	-10.8313
お値段	-10.8313
▁京都	-10.8316
製の	-10.8316
○	-10.8317
試み	-10.8319
言われる	-10.8321
付き合って	-10.8322
▁様々な	-10.8324
ミッション	-10.8325
時刻	-10.8325
製品の	-10.8325
すっきり	-10.8325
受賞	-10.8325
デモ	-10.8326
au	-10.8327
在宅	-10.8328
web	-10.833
RA	-10.8332
を増やす	-10.8332
に住んでいる	-10.8333
をかける	-10.8333
量が	-10.8335
信頼できる	-10.8335
不調	-10.8337
風に	-10.8337
ソー	-10.8343
RO	-10.8343
2020	-10.8344
▁当サイト	-10.8345
とお	-10.8347
毎に	-10.8348
描き	-10.8348
はどんな	-10.8356
レーション	-10.8358
▁以下の	-10.836
情	-10.8361
されております	-10.8363
決めて	-10.8364
テレ	-10.8365
を読み	-10.8365
クッキー	-10.8365
魔	-10.8365
洗い	-10.8367
を起こす	-10.837
直後	-10.8372
ことができません	-10.8374
疑い	-10.8376
am	-10.8377
の研究	-10.8378
してみた	-10.8379
受ける	-10.8379
フィー	-10.8382
補償	-10.8383
温かい	-10.8386
万が一	-10.8386
個人的に	-10.8386
男の子	-10.8389
保有	-10.8389
お手数ですが	-10.8389
子ども達	-10.8389
振興	-10.839
えた	-10.8391
困った	-10.8391
ターゲット	-10.8392
欲	-10.8394
甘い	-10.8401
るという	-10.8405
ko	-10.8406
を切り	-10.8406
照	-10.8408
の支払い	-10.8409
の長さ	-10.8411
月曜日	-10.8415
を目指し	-10.8417
を知り	-10.8417
講演会	-10.8417
足を	-10.8418
ようとする	-10.8419
やろう	-10.8421
再現	-10.8423
いけば	-10.8424
埼玉県	-10.8424
▁その際	-10.8424
することがあります	-10.8425
生徒さん	-10.8426
個別	-10.8427
お店です	-10.8428
貸し	-10.8428
生活に	-10.8429
を共有	-10.8429
参考にしてください	-10.843
得る	-10.843
○○	-10.843
行い	-10.8432
キーボード	-10.8432
というものは	-10.8434
ロール	-10.8439
容	-10.8443
ちゃう	-10.8446
ボー	-10.8447
布団	-10.8447
くなった	-10.845
だと思いますが	-10.8452
考えられる	-10.8453
▁高	-10.8454
ゆる	-10.8458
寿命	-10.8459
気味	-10.8459
でしか	-10.8459
所属	-10.8462
行かない	-10.8462
を説明	-10.8464
という思い	-10.8464
暮らす	-10.8466
▁東京都	-10.8466
の情報を	-10.8468
本部	-10.8469
英国	-10.8469
ことになった	-10.847
になっており	-10.8472
が取れ	-10.8478
決算	-10.8479
だれ	-10.848
椅子	-10.8481
テロ	-10.8481
被災地	-10.8482
認知	-10.8484
2010	-10.8484
が出来	-10.8485
を多く	-10.8486
いらっしゃいます	-10.8487
▁iPhone	-10.8493
させて頂いております	-10.8495
客室	-10.8496
ポジション	-10.8499
▁30	-10.85
を作成する	-10.8501
ダブル	-10.8501
▁私たち	-10.8501
捨て	-10.8502
をより	-10.8505
を掲載	-10.8505
▁以上	-10.8507
快	-10.8507
が発生し	-10.8508
▁そういえば	-10.8508
臭	-10.8512
を実行	-10.8514
合意	-10.8516
20%	-10.8517
読める	-10.8519
何よりも	-10.852
浅	-10.852
組合	-10.8521
お受け	-10.8522
階段	-10.8522
のサポート	-10.8522
BA	-10.8523
千葉	-10.8524
同士の	-10.8525
名前を	-10.853
ここは	-10.8532
出会える	-10.8534
友達と	-10.8534
直し	-10.8535
同じように	-10.8536
コーディネート	-10.8537
業種	-10.8541
それだけで	-10.8543
出てきた	-10.8546
年間の	-10.8546
あげて	-10.8547
net	-10.855
それ以外の	-10.855
拡張	-10.855
委員	-10.8552
おか	-10.8554
づ	-10.8556
に影響	-10.8558
In	-10.8559
滑	-10.856
特殊な	-10.856
こんにちは	-10.8561
▁O	-10.8561
お二人	-10.8562
発売された	-10.8563
神奈川県	-10.8566
織	-10.8569
がなかった	-10.8569
が多数	-10.857
▁2011	-10.8571
とします	-10.8572
後から	-10.8575
ことができるので	-10.8576
方へ	-10.8578
の場	-10.8579
イヤ	-10.858
DS	-10.8583
を進める	-10.8583
しないで	-10.8583
▁X	-10.8583
禁	-10.8583
させること	-10.8584
容易に	-10.8585
そのうち	-10.8586
ート	-10.8587
ご応募	-10.8588
時間がかかる	-10.8589
遊ぶ	-10.8591
薬剤師	-10.8591
世界観	-10.8592
やすくなります	-10.8593
いくこと	-10.8594
交付	-10.8594
会社は	-10.8595
債務	-10.8596
観光地	-10.8597
後も	-10.8598
あきらめ	-10.8598
例の	-10.8598
場合もございます	-10.86
順番	-10.86
スイーツ	-10.8603
違法	-10.8604
を手に入れる	-10.8605
日までに	-10.8605
風呂	-10.8605
もございます	-10.8606
の家	-10.8607
購入しました	-10.861
唯一の	-10.861
ておく	-10.8611
ゆく	-10.8611
稲	-10.8611
ムダ毛	-10.8612
であるため	-10.8613
次は	-10.8614
64	-10.8614
にもなります	-10.8616
▁先週	-10.8617
カテゴリー	-10.8618
順次	-10.8619
分程度	-10.8625
するなら	-10.8625
遺	-10.8626
甘	-10.8626
自宅に	-10.8626
静岡県	-10.8627
フォ	-10.8627
▁昔	-10.863
残っている	-10.8632
込め	-10.8633
のご予約	-10.8634
選手が	-10.8635
マスク	-10.8638
安心感	-10.8639
配合	-10.8639
各社	-10.864
たん	-10.864
になるため	-10.864
お送り	-10.8641
なくてはならない	-10.8642
摩	-10.8644
行け	-10.8644
プル	-10.8648
行える	-10.8648
▁JR	-10.8649
稼働	-10.865
てきます	-10.865
当選	-10.8652
料理を	-10.8652
戻	-10.8652
全般	-10.8653
奇	-10.8655
医者	-10.8655
と考えられます	-10.8655
行こう	-10.8657
▁浮気	-10.8658
料金が	-10.866
を改善	-10.866
申し訳ない	-10.8662
限	-10.8664
ティング	-10.8665
学年	-10.8668
巡り	-10.8669
丁寧な	-10.867
凄く	-10.8672
を使用し	-10.8673
アナ	-10.8673
しておけば	-10.8674
のメンバー	-10.8674
一時的に	-10.8675
建物の	-10.8675
イライラ	-10.8676
ケン	-10.8677
に合う	-10.8682
切手	-10.8685
名刺	-10.8685
デン	-10.8685
の役割	-10.8685
最中	-10.8686
というわけです	-10.8686
OL	-10.8689
フィルム	-10.8689
んでしょうか	-10.8691
は絶対に	-10.8693
用語	-10.8693
基地	-10.8695
育毛剤	-10.8699
をお願い致します	-10.87
ペース	-10.87
ATM	-10.87
可能性は	-10.8701
ジャケット	-10.8702
されている方	-10.8705
の割合	-10.8709
ものですが	-10.871
幅広く	-10.8711
単なる	-10.8711
に触れ	-10.8711
こども	-10.8712
SD	-10.8713
魅力的	-10.8713
もかなり	-10.8713
検索結果	-10.8714
as	-10.8716
だけを	-10.8716
が異なる	-10.8716
利点	-10.8719
を進め	-10.8719
回避	-10.872
生き方	-10.872
2007	-10.8721
のお知らせ	-10.8721
一面	-10.8723
疲労	-10.8724
の森	-10.8725
苦しい	-10.8726
うん	-10.8728
厳しく	-10.8729
大学院	-10.873
梅雨	-10.8731
いこう	-10.8731
お肉	-10.8731
濃い	-10.8732
8.	-10.8733
ション	-10.8734
されたもの	-10.8734
をとり	-10.8735
どこから	-10.8735
投げ	-10.8735
確定申告	-10.8736
使い勝手	-10.8738
が必要になる	-10.8742
海岸	-10.8742
繋がり	-10.8743
AL	-10.8743
を考えている	-10.8744
に直接	-10.8746
気に入った	-10.8746
メル	-10.8747
場所を	-10.8749
をみて	-10.875
▁テレビ	-10.8754
かも知れない	-10.8754
自覚	-10.8754
お好きな	-10.8755
既	-10.8755
FC	-10.8756
重さ	-10.8756
京都府	-10.8757
乗り換え	-10.8758
だったが	-10.8759
発表した	-10.8759
ホテルの	-10.876
を引き	-10.8762
ぷ	-10.8763
率が	-10.8764
のメリット	-10.8764
AR	-10.8765
900	-10.8765
ホルモン	-10.8767
混乱	-10.877
いるようです	-10.8771
ミン	-10.8773
残業	-10.8774
夜は	-10.8774
ないもの	-10.8776
をサポート	-10.8779
マイル	-10.8781
なくなってしまう	-10.8781
になっております	-10.8781
されたり	-10.8782
首相	-10.8783
飛ば	-10.8786
広報	-10.8786
っけ	-10.8787
著	-10.8787
上げて	-10.8788
んじゃない	-10.8789
をはじめとする	-10.879
株価	-10.8791
イオン	-10.8795
やってきた	-10.8796
同社	-10.8796
高度な	-10.8796
いで	-10.8799
ボン	-10.88
開催された	-10.8801
問題なく	-10.8803
素直に	-10.8804
大量に	-10.8804
側面	-10.8805
デザインの	-10.8806
写真が	-10.8806
露	-10.8807
▁だからこそ	-10.8807
てくれた	-10.8809
ばかりです	-10.8811
誘導	-10.8811
住む	-10.8812
▁次回	-10.8813
に従って	-10.8816
備え	-10.8818
洗浄	-10.8819
▁商品	-10.8819
したりする	-10.8819
使えない	-10.882
以前から	-10.8822
思っています	-10.8822
因	-10.8823
回る	-10.8823
摂	-10.8823
費用は	-10.8823
42	-10.8824
コスメ	-10.8828
の生活	-10.8829
房	-10.8831
てきて	-10.8831
一人の	-10.8831
恥ずかしい	-10.8832
一致	-10.8833
小型	-10.8835
44	-10.8836
ストレッチ	-10.8836
努力を	-10.8836
に関連する	-10.8837
こちらに	-10.8838
敷	-10.8838
方でも	-10.884
を試	-10.8842
▁Google	-10.8846
一見	-10.8846
に入れ	-10.8846
の通り	-10.8849
宮城県	-10.885
誤解	-10.8851
などにも	-10.8852
われた	-10.8853
を教えて	-10.8853
一つ一つ	-10.8855
トル	-10.8857
切った	-10.8857
に注目	-10.8857
担保	-10.8859
▁夏	-10.886
ハンド	-10.8861
達が	-10.8861
よし	-10.8862
テープ	-10.8862
になると思います	-10.8862
LED	-10.8865
るため	-10.8865
正規	-10.8867
失礼	-10.8867
集まって	-10.8871
美白	-10.8872
ショート	-10.8873
並	-10.8875
ようにしています	-10.8876
廃止	-10.8877
』『	-10.8879
筋トレ	-10.888
紹介します	-10.8884
はもちろんのこと	-10.8885
支配	-10.8885
をきっかけに	-10.8888
ないし	-10.889
は日本	-10.889
保障	-10.8895
施	-10.8896
らい	-10.8897
稼ぐ	-10.8897
付近	-10.8899
初日	-10.89
に含まれる	-10.8904
探して	-10.8905
を達成	-10.8908
オス	-10.8911
▁中には	-10.8911
に移	-10.8912
時間で	-10.8912
ポイントです	-10.8914
▁これにより	-10.8915
がわかる	-10.8916
いただくと	-10.8919
持つ	-10.892
チップ	-10.8921
発表会	-10.8922
一応	-10.8922
その人	-10.8923
オススメです	-10.8924
言葉に	-10.8924
無効	-10.8925
できるか	-10.8926
の無い	-10.893
駆け	-10.893
を減ら	-10.8932
意見を	-10.8932
誇り	-10.8932
を発揮	-10.8933
を飲んで	-10.8933
病院に	-10.8934
かぶ	-10.8935
紹介しています	-10.8936
mi	-10.8937
インター	-10.8937
hi	-10.8938
海外で	-10.8939
▁上記の	-10.8939
▁ここに	-10.8942
に相談	-10.8943
かわからない	-10.8944
たくて	-10.8945
nd	-10.8946
できるようになりました	-10.8947
をもつ	-10.8949
にかかる	-10.8949
レット	-10.8951
ボク	-10.8951
ーん	-10.8952
だと思っています	-10.8953
▁その中で	-10.8954
知った	-10.8956
センサー	-10.8956
にもなる	-10.8956
やり取り	-10.8957
をやっている	-10.8957
どころ	-10.8957
と思っていました	-10.8958
弱い	-10.8959
の撮影	-10.8959
たもの	-10.896
排出	-10.8961
去	-10.8962
薬局	-10.8962
ある程度の	-10.8963
は基本的に	-10.8964
▁去年	-10.8965
大いに	-10.8966
県内	-10.8966
書きましたが	-10.8966
ha	-10.8966
ロング	-10.8967
急な	-10.8967
みても	-10.8968
はなかった	-10.8968
ということもあり	-10.8969
していたら	-10.897
トマト	-10.8971
を付けて	-10.8971
2004	-10.8972
49	-10.8973
お互いの	-10.8973
世帯	-10.8973
が行われる	-10.8974
嬉しく	-10.8975
次元	-10.8976
と思ってます	-10.8977
二人で	-10.8978
当初は	-10.898
が決定	-10.8984
攻略	-10.8988
花火	-10.8989
現役	-10.8991
選考	-10.8991
欧州	-10.8992
テニス	-10.8995
黄	-10.8997
ビジョン	-10.9001
の詳細	-10.9002
アフリカ	-10.9002
ものであり	-10.9003
控え	-10.9004
尽く	-10.9004
ない場合は	-10.9005
果たして	-10.9006
さを	-10.9007
を続ける	-10.9008
光景	-10.901
ガーデン	-10.9011
いただければと思います	-10.9011
しゃ	-10.9013
を上げ	-10.9013
面倒な	-10.9014
聴いて	-10.9016
よいでしょう	-10.9016
分くらい	-10.902
リス	-10.9022
製品を	-10.9023
古代	-10.9023
カリ	-10.9028
を開催	-10.9029
敏感肌	-10.9029
ゆう	-10.903
講習	-10.903
形に	-10.9033
ごとの	-10.904
搭載	-10.9042
59	-10.9043
手帳	-10.9043
遅い	-10.9043
文学	-10.9044
終了しました	-10.9044
せいか	-10.9044
役立つ	-10.9045
頂いて	-10.9047
に沿って	-10.9048
民族	-10.9049
紀	-10.9049
増えて	-10.905
略	-10.905
ほんの	-10.9052
元々	-10.9053
たとえ	-10.9055
ことができれば	-10.9055
わり	-10.9056
を受けている	-10.9056
化粧	-10.9056
損失	-10.9057
も可能	-10.9059
▁気になる	-10.9059
AT	-10.9059
単	-10.9061
高等学校	-10.9062
出た	-10.9062
が出ている	-10.9063
壊	-10.9063
をおすすめします	-10.9065
クール	-10.9065
難易度	-10.9066
モー	-10.9066
にあたって	-10.9067
気候	-10.9074
受け入れ	-10.9079
にしか	-10.9081
売って	-10.9087
どこでも	-10.9089
、2015	-10.9089
一度は	-10.9091
もまた	-10.9092
最悪	-10.9093
ゴム	-10.9093
もう一つ	-10.9094
全身脱毛	-10.9095
データの	-10.9095
夫の	-10.91
ナビ	-10.9101
働き方	-10.9101
▁全	-10.9103
できるようになる	-10.9104
が始まる	-10.9104
しまっている	-10.9105
年度の	-10.9107
ディスク	-10.9107
おきましょう	-10.9111
れます	-10.9112
精度	-10.9113
ES	-10.9114
コンサルタント	-10.9115
ペア	-10.9116
保育士	-10.9118
引退	-10.9119
ファースト	-10.9119
延	-10.912
おお	-10.9121
学校で	-10.9124
男性に	-10.9124
かなぁ	-10.9124
方で	-10.9124
es	-10.9124
皆さんに	-10.9126
の価格	-10.9129
改良	-10.9129
50%	-10.913
を見ていると	-10.9131
の痛み	-10.9131
名称	-10.9131
所有	-10.9132
くださる	-10.9133
日本は	-10.9133
▁一番	-10.9136
驚いた	-10.9139
ますよね	-10.914
はよく	-10.914
スタンプ	-10.9141
レイアウト	-10.9142
歌詞	-10.9144
サイズの	-10.9146
調節	-10.9148
夜に	-10.9149
感じて	-10.9149
としています	-10.915
お電話で	-10.915
作成した	-10.9151
を使用しています	-10.9152
会い	-10.9153
すり	-10.9153
ことも可能です	-10.9156
を買った	-10.9158
業績	-10.9158
ものがある	-10.9162
レコード	-10.9166
ジュース	-10.9168
る人	-10.9168
結び	-10.9169
地上	-10.9173
と思いますので	-10.9174
発生する	-10.9175
と比較して	-10.9177
方法について	-10.9178
ご報告	-10.9179
彼に	-10.918
▁この場合	-10.9181
に貢献	-10.9183
▁Web	-10.9185
をご提供	-10.9187
併せて	-10.9188
があるのです	-10.919
キャッシュ	-10.9193
パンツ	-10.9195
得た	-10.9197
で行われた	-10.92
手の	-10.9203
予め	-10.9203
しかった	-10.9206
することに	-10.9209
▁残念ながら	-10.9209
を強く	-10.9209
起きた	-10.9211
に関連した	-10.9212
も良く	-10.9214
ある意味	-10.9216
一瞬	-10.9217
VR	-10.9219
頭が	-10.9219
秀	-10.922
上げる	-10.922
消防	-10.9222
AC	-10.9222
年間で	-10.9223
よくある	-10.9224
を検索	-10.9224
解放	-10.9225
出ている	-10.9225
原因は	-10.9226
その時	-10.9227
出来るだけ	-10.9227
の口コミ	-10.9229
次第で	-10.9231
アロマ	-10.9231
飾	-10.9232
店頭	-10.9236
▁こちらも	-10.9241
していたので	-10.9244
間で	-10.9245
保険会社	-10.9247
と同様	-10.9247
先生方	-10.9247
繁	-10.9249
のだと思います	-10.925
クオリティ	-10.925
の様子を	-10.925
周囲の	-10.9251
近隣	-10.9253
変え	-10.9254
こちらは	-10.9255
事です	-10.9257
押	-10.9259
LE	-10.9259
ないという	-10.926
倒れ	-10.926
録音	-10.926
を使用している	-10.9262
だと言えます	-10.9262
可能性が	-10.9264
身に	-10.9264
隣の	-10.9265
してもらって	-10.9267
湿	-10.9268
信仰	-10.9268
曲を	-10.9268
実習	-10.9268
代理店	-10.9269
とは思いますが	-10.9271
学者	-10.9272
見つけた	-10.9274
っか	-10.9274
一般の	-10.9274
んですけどね	-10.9275
を提示	-10.9275
書店	-10.9276
を図る	-10.9276
ビザ	-10.9276
愛用	-10.9278
うどん	-10.9278
修復	-10.9278
愛知県	-10.9279
二重	-10.9281
エンド	-10.9282
の味	-10.9282
整	-10.9284
薄い	-10.9286
分泌	-10.9286
より多くの	-10.9287
宅配	-10.9287
闘	-10.9288
関係の	-10.9288
ドキドキ	-10.9289
感染症	-10.929
を使用	-10.9291
▁Windows	-10.9292
は少ない	-10.9295
だんだん	-10.9296
フェスティバル	-10.9297
のいずれか	-10.9301
ディズニー	-10.9303
SEO	-10.9304
すればいい	-10.9305
名が	-10.9305
ないけど	-10.9305
活性化	-10.9306
会の	-10.9308
聞こえ	-10.9308
の画像	-10.9309
ご連絡下さい	-10.9309
AM	-10.931
歯の	-10.9312
おしゃれ	-10.9313
怪我	-10.9313
境	-10.9316
監査	-10.9317
が少し	-10.932
数日	-10.9322
ぽ	-10.9322
の事	-10.9326
正社員	-10.933
利用者の	-10.9334
針	-10.9337
幸いです	-10.9338
にも対応	-10.9338
会える	-10.9339
慣れ	-10.9339
▁なんと	-10.934
排	-10.934
メンズ	-10.9342
を実感	-10.9343
方から	-10.9343
▁参加	-10.9344
の営業	-10.9344
大規模な	-10.9346
踏	-10.9346
他の人	-10.9346
治療を	-10.935
した方が	-10.9351
金額が	-10.9351
らせ	-10.9353
適正	-10.9354
食欲	-10.9354
何かを	-10.9355
しておりました	-10.9355
苦手	-10.9355
幸福	-10.9356
入居	-10.9357
近代	-10.9357
状態です	-10.9359
という人は	-10.936
伝説	-10.9363
いくつも	-10.9363
日曜	-10.9363
HTML	-10.9364
お持ち	-10.9364
に入れる	-10.9364
なしに	-10.9367
という人	-10.9368
が含まれている	-10.9369
だらけ	-10.9369
悩んで	-10.9369
順に	-10.937
飲み会	-10.9371
シンガポール	-10.9372
しようとする	-10.9372
PA	-10.9374
我が家	-10.9376
自分自身の	-10.9376
リンク先	-10.9377
当て	-10.9378
分かりやすい	-10.9379
並び	-10.9379
同期	-10.9382
誰かに	-10.9382
ヒト	-10.9385
詳細な	-10.9385
チャート	-10.9389
に乗り	-10.9389
気づいて	-10.9391
を開く	-10.9392
下り	-10.9393
四季	-10.9395
安定した	-10.9398
お客様と	-10.9398
サラリーマン	-10.94
居る	-10.9401
取扱	-10.9405
他人の	-10.9405
▁約	-10.9405
▁今月	-10.9407
時間をかけて	-10.9407
稼げる	-10.9411
環境に	-10.9411
▁弊社	-10.9415
全額	-10.9418
悩んでいる	-10.9418
を置く	-10.9419
ようなもの	-10.942
男性と	-10.9421
お手入れ	-10.9421
無駄な	-10.9422
ということも	-10.9422
コンサルティング	-10.9422
組み	-10.9422
が存在する	-10.9426
するとともに	-10.9429
銘柄	-10.9431
注射	-10.9431
がかなり	-10.9431
レンタ	-10.9432
を続けて	-10.9433
判	-10.9437
働いている	-10.944
合わない	-10.9441
今までの	-10.9441
的なもの	-10.9442
をしても	-10.9443
とり	-10.9443
▁アメリカ	-10.9448
のデータ	-10.9448
なりません	-10.945
創作	-10.9451
▁この日は	-10.9453
一旦	-10.9456
ミルク	-10.9456
パル	-10.9456
決める	-10.9458
しょ	-10.9461
似たような	-10.9462
することが出来ます	-10.9462
長崎	-10.9464
いえ	-10.9464
そうなので	-10.9465
早朝	-10.9465
勘違い	-10.9466
時点	-10.9466
姿が	-10.9466
la	-10.9466
できますので	-10.9469
俺の	-10.9469
をしない	-10.947
気に入って	-10.947
これまでに	-10.947
▁/	-10.9471
が発生	-10.9471
というところ	-10.9471
が上がる	-10.9472
溶	-10.9474
厳	-10.9476
一人一人	-10.948
▁子供	-10.9481
拒否	-10.9481
の予約	-10.9485
筆者	-10.9485
独身	-10.9486
当日の	-10.9488
たぶん	-10.949
でありながら	-10.949
江戸時代	-10.949
例外	-10.9492
を除く	-10.9492
新人	-10.9493
ディング	-10.9493
健康な	-10.9494
んでしょうね	-10.9495
入試	-10.9495
▁水	-10.9495
のある方	-10.9495
割れ	-10.9496
を書き	-10.9496
行ってきました	-10.9498
▁だけど	-10.9498
みて下さい	-10.9499
保健	-10.95
発電	-10.9501
月号	-10.9505
のですから	-10.9505
せた	-10.9507
教科書	-10.9511
狭	-10.9516
富士山	-10.9516
アラ	-10.9518
はっきりと	-10.9518
分類	-10.9519
する必要	-10.952
代表的な	-10.952
通院	-10.9521
炎症	-10.9522
訪れ	-10.9523
と思うと	-10.9525
方向性	-10.9525
集客	-10.9525
特殊	-10.9526
移住	-10.9528
を一緒に	-10.9528
するのではなく	-10.9531
厚生労働省	-10.9531
されません	-10.9531
招待	-10.9532
てから	-10.9533
ブレ	-10.9533
があるから	-10.9533
声が	-10.9533
オークション	-10.9534
ができました	-10.9534
総会	-10.9535
um	-10.9536
思想	-10.9537
彼と	-10.9538
犯	-10.9543
ネコ	-10.9548
お客様は	-10.9548
山の	-10.9548
ホット	-10.9548
▁そうした	-10.9548
朝の	-10.9549
ビア	-10.9553
の重要性	-10.9556
さくら	-10.9556
ことのできる	-10.9558
シンプル	-10.9559
誰かが	-10.9559
譲渡	-10.956
公開された	-10.9561
進学	-10.9564
月には	-10.9565
差別	-10.9567
時頃	-10.9569
まん	-10.957
線の	-10.9572
ME	-10.9572
の力	-10.9577
不良	-10.9578
させて頂く	-10.9581
表示される	-10.9581
優秀な	-10.9583
をインストール	-10.9583
▁私たちの	-10.9584
NPO	-10.9586
詳細は	-10.9587
のお仕事	-10.9589
することはできません	-10.9591
とこ	-10.9591
駅で	-10.9592
がありましたが	-10.9593
必要はありません	-10.9594
学んで	-10.9597
テラス	-10.9597
に限り	-10.9598
上下	-10.96
を採用	-10.9601
ご説明	-10.9601
ボーナス	-10.9602
で一番	-10.9602
に戻って	-10.9603
転送	-10.9604
ni	-10.9605
はどこ	-10.9605
グランド	-10.9605
をお伝え	-10.9607
ウン	-10.9608
(?	-10.9611
トレ	-10.9612
原料	-10.9613
▁☆	-10.9615
といわれ	-10.9615
クト	-10.9616
円の	-10.9618
ポン	-10.9621
▁出会い	-10.9622
硬	-10.9622
試して	-10.9623
告白	-10.9623
自分でも	-10.9624
に見える	-10.9624
の上で	-10.9625
国道	-10.9625
身体に	-10.9625
爆	-10.9625
経って	-10.9626
ソロ	-10.9626
に掲載されている	-10.9629
ハリ	-10.9629
聴き	-10.9631
べく	-10.9632
を始めて	-10.9635
要件	-10.9635
府	-10.9638
ご希望の方は	-10.9638
何の	-10.9639
ドライ	-10.9639
妊娠中	-10.9641
出せる	-10.9643
元の	-10.9645
あわせて	-10.9645
発生した	-10.9647
を上げて	-10.9648
政治家	-10.965
の導入	-10.965
できていない	-10.9654
を構築	-10.9655
いないので	-10.9657
落とし	-10.9657
ローカル	-10.9659
崩	-10.9663
ベン	-10.9666
どうなる	-10.9667
練	-10.9668
これに	-10.9669
しませんか	-10.9674
に設定	-10.9676
^^	-10.9677
もしっかり	-10.9677
起きて	-10.9678
キャンパス	-10.9679
の影響で	-10.968
ことが大切	-10.968
英語を	-10.9683
かを	-10.9685
お住まい	-10.9685
効果があります	-10.9685
余計な	-10.9688
合った	-10.9689
メールが	-10.9689
捜査	-10.969
メソッド	-10.969
博士	-10.9691
添え	-10.9692
1.5	-10.9693
楽しめ	-10.9693
戦闘	-10.9694
古くから	-10.9695
都会	-10.9695
紛失	-10.9696
シール	-10.9697
補助金	-10.9699
▁結婚	-10.97
を記録	-10.97
戦後	-10.9701
に至るまで	-10.9701
静かな	-10.9703
冒頭	-10.9703
成人	-10.9703
がわからない	-10.9704
を込めて	-10.9706
と言われました	-10.9708
おしゃれな	-10.9709
いだ	-10.971
展覧会	-10.971
ウェア	-10.9718
美しさ	-10.9719
色が	-10.9719
ようにして	-10.972
チョコ	-10.972
夜間	-10.9721
を感じた	-10.9722
重量	-10.9722
っていて	-10.9723
させていただき	-10.9725
習	-10.9726
を決め	-10.9728
モンスター	-10.9728
を実現する	-10.973
できる限り	-10.973
に比べると	-10.9732
の管理	-10.9734
効率的に	-10.9735
有り	-10.9735
スリー	-10.9737
最短	-10.9738
all	-10.9739
移行	-10.9739
にくく	-10.974
侵入	-10.9741
ずいぶん	-10.9745
勢い	-10.9747
見積	-10.9749
を積極的に	-10.975
▁かなり	-10.975
作者	-10.975
グリ	-10.9752
(*	-10.9753
つま	-10.9753
ご自宅	-10.9754
リオ	-10.9754
――	-10.9755
ロス	-10.9756
赤ちゃんの	-10.9756
回って	-10.9757
アス	-10.9761
た場合	-10.9762
希望の	-10.9763
外壁塗装	-10.9765
かれる	-10.9771
同様の	-10.9772
トータル	-10.9774
技術を	-10.9774
続けた	-10.9774
爆発	-10.9775
サラダ	-10.9775
以外で	-10.9776
真ん中	-10.9777
頂	-10.9777
名で	-10.9778
させていただいた	-10.9779
貯金	-10.9779
の症状	-10.9779
してくださいね	-10.978
した結果	-10.9781
下さいね	-10.9781
分かり	-10.9783
掲載しています	-10.9783
忘れて	-10.9785
寂しい	-10.9785
家庭教師	-10.9788
ベイ	-10.9788
選んだ	-10.9789
割合	-10.9791
ことのない	-10.9794
するよう	-10.9794
るようになりました	-10.9795
▁パソコン	-10.9797
チェーン	-10.9799
忙しく	-10.9802
してみよう	-10.9803
取れ	-10.9804
申し	-10.9804
劣化	-10.9805
しょう	-10.9805
できませんでした	-10.9806
ード	-10.9807
刊	-10.9815
規格	-10.9816
ってる	-10.9816
と思いますよ	-10.9817
クラシック	-10.9817
が生じる	-10.9817
知恵	-10.9818
ことになり	-10.9818
yo	-10.9819
出身の	-10.9821
をしてくれる	-10.9822
ちゃんが	-10.9823
が好きで	-10.9824
サクラ	-10.9825
問題点	-10.9826
重視	-10.9827
していただける	-10.9827
確実	-10.9827
嬉しかったです	-10.9828
沖縄県	-10.9829
-2	-10.9837
を満喫	-10.9838
最後は	-10.984
早期	-10.9842
が開催されました	-10.9844
が出てきます	-10.9844
同様	-10.985
階の	-10.9851
をそのまま	-10.9851
ヴァ	-10.9851
が出てきた	-10.9852
バトル	-10.9853
お問い合わせ下さい	-10.9854
引っ	-10.9855
その人の	-10.9855
のみなさん	-10.9856
ままに	-10.9856
この時期	-10.9858
どうすれば	-10.9859
併用	-10.9859
なのかもしれません	-10.9859
離れ	-10.986
進み	-10.9861
・・・」	-10.9862
バリ	-10.9863
を無料で	-10.9863
▁アニメ	-10.9864
大切なこと	-10.9866
来ている	-10.9866
って思って	-10.9867
観客	-10.9868
定員	-10.9869
56	-10.987
をしていました	-10.987
事が出来る	-10.9871
いながら	-10.9871
属	-10.9871
1～2	-10.9871
係	-10.9872
なさ	-10.9872
▁夜	-10.9873
以降の	-10.9874
今日も	-10.9874
▁以前は	-10.9875
納品	-10.9876
困っている	-10.9877
概要	-10.9877
昼食	-10.9879
が必要だ	-10.988
偽	-10.988
▁おはようございます	-10.9883
兼	-10.9883
本物の	-10.9884
技術者	-10.9885
概念	-10.9885
なれば	-10.9885
いずれも	-10.9885
歯科医院	-10.9885
レート	-10.9886
の普及	-10.9886
円以上	-10.9886
▁最初に	-10.9887
を設け	-10.9889
年々	-10.9889
好きな人	-10.989
がなくても	-10.9891
とある	-10.9891
AS	-10.9891
ローマ	-10.9892
傾	-10.9892
と感じました	-10.9894
クレジット	-10.9895
それなりの	-10.9898
アレ	-10.9898
たけど	-10.9898
執行	-10.99
オリジナルの	-10.9902
けどね	-10.9902
化した	-10.9904
分かります	-10.9905
田さん	-10.9905
と比べると	-10.9906
コーチ	-10.9906
どんなに	-10.9907
由	-10.9907
をすれば	-10.9908
新年	-10.9908
言わ	-10.9908
除去	-10.9909
に行こう	-10.9909
ものではなく	-10.9911
ボトル	-10.9912
届かない	-10.9914
熟女	-10.9915
塚	-10.9916
に使う	-10.9917
謎	-10.992
改	-10.9921
NA	-10.9921
付きの	-10.9922
いいな	-10.9923
をクリック	-10.9925
開け	-10.9925
犬の	-10.9929
いったい	-10.9929
サービスを提供	-10.9931
するべき	-10.9933
歳以上	-10.9935
見えた	-10.9935
応	-10.9936
していただいた	-10.9937
▁→	-10.9938
ラク	-10.9938
商標	-10.9939
たちに	-10.9939
味が	-10.9939
を置いて	-10.994
虫歯	-10.9941
多くの人	-10.9942
II	-10.9945
のデザイン	-10.9947
まし	-10.9948
暖かい	-10.9951
ほとんどが	-10.9952
▁更に	-10.9953
リサーチ	-10.9953
日本でも	-10.9956
に立ち	-10.9956
▁現在の	-10.9957
っていく	-10.9962
利息	-10.9962
踊り	-10.9962
ファー	-10.9963
コア	-10.9964
ビックリ	-10.9965
▁ダイエット	-10.9967
人たちは	-10.9968
が開催されます	-10.9973
を優先	-10.9974
区の	-10.9976
数多く	-10.9976
ろうと	-10.9977
翌	-10.9979
▁家族	-10.998
豪	-10.9981
頑張ります	-10.9981
車検	-10.9982
簡単で	-10.9986
郎	-10.9986
テル	-10.9986
見かけ	-10.9987
キレイ	-10.9988
ことはできない	-10.9988
▁一般的に	-10.9989
を参照	-10.9989
ラインナップ	-10.999
を明確に	-10.9992
せい	-10.9993
ハロウィン	-10.9993
サービスが	-10.9995
中間	-10.9995
禁煙	-10.9996
作品が	-11
の方の	-11.0001
世界的に	-11.0005
サイトは	-11.0006
影響を与え	-11.0006
不安な	-11.001
レア	-11.0011
金額を	-11.0011
▁西	-11.0012
高度	-11.0012
講習会	-11.0012
現地の	-11.0013
を支える	-11.0013
を見せ	-11.0014
4.	-11.0014
容易	-11.0014
任せ	-11.0015
▁エ	-11.0019
施策	-11.002
ばかりの	-11.0022
はい	-11.0026
がある場合	-11.0026
致	-11.0027
の状況	-11.0027
アマゾン	-11.0028
執筆	-11.0029
次々と	-11.0029
無料漫画	-11.0029
お知らせします	-11.0029
になりそうです	-11.003
発症	-11.0031
が増えた	-11.0035
感が	-11.0036
植	-11.0036
してもらい	-11.0039
と聞いて	-11.004
do	-11.0041
物が	-11.0042
美容室	-11.0042
をご紹介しています	-11.0044
は難しい	-11.0045
09	-11.0045
子どもたちの	-11.0046
ンダー	-11.0047
オレ	-11.0048
▁正直	-11.005
同士	-11.005
ところから	-11.0053
全力で	-11.0053
サウンド	-11.0055
該当	-11.0056
農家	-11.0056
が重要	-11.0057
就職活動	-11.0057
ふたり	-11.0058
の内容を	-11.0058
単位で	-11.0059
自殺	-11.0059
の時期	-11.0059
若手	-11.006
ことをお勧めします	-11.0067
乗って	-11.0068
益	-11.0068
を頂きました	-11.007
狙い	-11.007
元気な	-11.0071
に向かう	-11.0071
age	-11.0072
定着	-11.0073
頭を	-11.0074
見えて	-11.0074
アニメーション	-11.0074
臨床	-11.0075
が入った	-11.0076
現代の	-11.0076
がたくさんあります	-11.0077
▁ある	-11.0078
ものとします	-11.0078
直前	-11.0078
吸	-11.0079
意志	-11.008
開放	-11.0081
ポスト	-11.0084
を利用し	-11.0085
考えています	-11.0086
▁どうぞ	-11.0088
提供する	-11.0089
した際に	-11.0089
をすることで	-11.0093
▁個人	-11.0094
大事	-11.0095
up	-11.0095
を目指しています	-11.0096
システムの	-11.0097
起き	-11.0098
伝わる	-11.01
選定	-11.01
ごはん	-11.0103
ページを	-11.0103
キッズ	-11.0104
を紹介する	-11.0104
見込み	-11.0105
の感想	-11.0105
効果的	-11.0106
言えない	-11.0107
含まれています	-11.011
彼らは	-11.011
家族で	-11.011
で購入	-11.0111
も一緒に	-11.0112
楽しかったです	-11.0112
を掲載しています	-11.0114
身近に	-11.0115
ネット上で	-11.0116
方にも	-11.0116
3,000	-11.0118
58	-11.0119
冷たい	-11.0119
ついつい	-11.0119
貼り付け	-11.012
招	-11.012
向こう	-11.012
だろ	-11.0121
足りない	-11.0122
小規模	-11.0123
不便	-11.0123
を作った	-11.0125
とさせて頂きます	-11.0126
に出る	-11.0126
おう	-11.0126
心理学	-11.0129
広がり	-11.0129
を集めて	-11.013
かす	-11.013
個々の	-11.0133
分間	-11.0133
っていない	-11.0134
射	-11.0134
オート	-11.0135
剣	-11.0137
になっているので	-11.0138
なってしまう	-11.0139
気を	-11.0141
吐	-11.0141
参加して	-11.0142
危	-11.0143
行動を	-11.0144
▁なかなか	-11.0145
正常に	-11.0145
花粉症	-11.0146
されてる	-11.0148
ないため	-11.0149
を知っている	-11.0149
ユー	-11.0151
タレント	-11.0151
続けること	-11.0152
を呼び	-11.0154
いただけるよう	-11.0157
お米	-11.0157
を意識して	-11.0158
わけだ	-11.0159
お天気	-11.0159
前は	-11.016
労	-11.0162
を繰り返し	-11.0162
になるのか	-11.0162
それから	-11.0163
売り上げ	-11.0164
寿司	-11.0166
くり	-11.0169
ハート	-11.0171
市にある	-11.0172
おめでとうございます	-11.0174
終わる	-11.0175
伴	-11.0175
くると	-11.0178
テー	-11.018
エス	-11.0181
今週	-11.0183
ドラ	-11.0183
▁2010	-11.0185
結婚して	-11.0186
に係る	-11.0187
▁春	-11.0189
伝統的な	-11.0189
を超え	-11.019
が見え	-11.019
ないような	-11.0192
ダイビング	-11.0193
わけですから	-11.0193
駐車	-11.0194
ようでした	-11.0196
残った	-11.0196
をもたらし	-11.0199
劣	-11.0199
と考えます	-11.02
自分に合った	-11.0201
歌手	-11.0203
があると思います	-11.0203
が苦手	-11.0203
クル	-11.0204
一覧です	-11.0206
がつく	-11.0208
▁自分は	-11.021
優良	-11.0211
を進めて	-11.0212
らしさ	-11.0212
を確認して	-11.0212
sh	-11.0213
情報や	-11.0215
もとても	-11.0217
MB	-11.0218
▁当日	-11.0218
ポイントが	-11.0219
職場の	-11.0219
ないのです	-11.0221
を実践	-11.0221
楽しみです	-11.0222
という感じ	-11.0222
最終日	-11.0224
の一環として	-11.0225
この機会に	-11.0226
溢れ	-11.023
観測	-11.0231
自分にとって	-11.0232
いたしません	-11.0233
この日	-11.0234
を連れて	-11.0234
業者が	-11.0237
ページの	-11.0239
経つ	-11.024
くらいに	-11.0241
願います	-11.0241
時より	-11.0242
1%	-11.0243
会場で	-11.0243
参考になる	-11.0246
日本酒	-11.0247
集まり	-11.0248
2006	-11.0248
事ができる	-11.0249
スカ	-11.0249
が変わって	-11.0249
結果として	-11.025
のブログ	-11.025
をクリア	-11.025
2,000	-11.0251
触	-11.0252
冒険	-11.0253
利用している	-11.0253
興味深い	-11.0253
スタッフ一同	-11.0254
ミリ	-11.0255
を聞く	-11.0255
絞	-11.0255
言わない	-11.0256
を立ち上げ	-11.0257
通学	-11.0257
記念日	-11.0258
申し訳ございません	-11.0259
してもらいました	-11.0259
見つかり	-11.0261
処置	-11.0262
が足りない	-11.0263
レッ	-11.0264
▁むしろ	-11.0265
を求め	-11.0265
ことができて	-11.0266
ますようお願い申し上げます	-11.0266
の機能	-11.0267
明記	-11.0268
量を	-11.0271
▁はい	-11.0272
方のために	-11.0273
▁あれ	-11.0273
墓	-11.0273
任意整理	-11.0274
怒	-11.0275
酷	-11.0276
期間限定	-11.0277
をきちんと	-11.0277
▁下記	-11.0277
申し上げます	-11.0278
しておくこと	-11.0278
していても	-11.0279
に取り組む	-11.028
することが可能	-11.028
挙げられ	-11.0281
さい	-11.0282
プチ	-11.0283
並ぶ	-11.0284
競馬	-11.0284
スピーカー	-11.0286
まさか	-11.0286
しさ	-11.0286
なんてこと	-11.0288
は決して	-11.0292
げる	-11.0292
句	-11.0294
正確に	-11.0295
強力な	-11.0298
▁○	-11.03
ワイ	-11.0301
希	-11.0301
壊れ	-11.0302
求める	-11.0303
いる人	-11.0303
43	-11.0304
ることも	-11.0304
気を付け	-11.0307
チョ	-11.0309
家電	-11.0309
週に	-11.0309
情熱	-11.0309
頭の	-11.0309
とのことでした	-11.0309
さらなる	-11.0312
することになりました	-11.0313
領	-11.0313
伊勢	-11.0314
ことができるのです	-11.0314
収め	-11.0314
入口	-11.032
お使い	-11.032
のだそうです	-11.0321
年半	-11.0321
このページ	-11.0322
▁お客様	-11.0322
お問い合わせは	-11.0323
グラス	-11.0324
をクリックします	-11.0325
自由な	-11.0325
奏	-11.0328
告	-11.0329
になるでしょう	-11.0329
容器	-11.0329
腫	-11.033
はほぼ	-11.0338
の下に	-11.0339
お金の	-11.034
できるようになります	-11.034
意義	-11.0342
横に	-11.0344
▁来年	-11.0344
効	-11.0347
裁	-11.0349
名を	-11.0349
ブログ記事	-11.035
前半	-11.0352
体感	-11.0352
ka	-11.0354
の一つです	-11.0355
グレー	-11.0356
明らか	-11.0356
▁今回も	-11.0358
乾燥肌	-11.0359
悩む	-11.036
ut	-11.036
ずれ	-11.036
感じました	-11.0361
得られる	-11.0362
撮影した	-11.0362
生き物	-11.0365
という事で	-11.0366
のですか	-11.0368
免疫	-11.0368
デフォルト	-11.0369
に参加する	-11.0369
言葉が	-11.0369
を有する	-11.037
されていますが	-11.0373
2003	-11.0374
ランニング	-11.0374
中国語	-11.0374
ラップ	-11.0375
るよう	-11.0375
ジャンプ	-11.0376
悲	-11.0377
懐かしい	-11.0379
急いで	-11.038
漢字	-11.0381
耐久性	-11.0382
推奨	-11.0382
集め	-11.0383
店に	-11.0384
おられる	-11.0385
受け付け	-11.0385
合わ	-11.0385
ないから	-11.0386
判定	-11.0387
開いて	-11.0388
のサイズ	-11.0389
に行くと	-11.0389
右側	-11.039
砂糖	-11.039
人にとっては	-11.0392
配偶者	-11.0393
あて	-11.0395
好きです	-11.0396
オブジェクト	-11.0399
子供に	-11.0401
の女性	-11.0403
金沢	-11.0404
革命	-11.0407
の組み合わせ	-11.0408
を依頼	-11.0409
性質	-11.041
抱え	-11.0411
少なく	-11.0411
書いている	-11.0412
と判断	-11.0417
▁この記事	-11.0417
自立	-11.0421
選手の	-11.0423
令	-11.0426
シフト	-11.0426
はすでに	-11.0426
を調べて	-11.0426
声をかけて	-11.0426
簡易	-11.0427
つらい	-11.0428
感覚で	-11.0429
いるのは	-11.043
恐らく	-11.043
体験を	-11.0432
ai	-11.0432
フロア	-11.0434
▁ゲーム	-11.0434
やめて	-11.0435
タンパク質	-11.0436
ある日	-11.0437
▁メール	-11.0438
量は	-11.0439
減り	-11.044
に入ると	-11.0441
挙げ	-11.0442
きれない	-11.0442
とされている	-11.0442
パイ	-11.0445
言える	-11.0446
グループの	-11.0447
転換	-11.0448
英語の	-11.0449
を発行	-11.0454
の試合	-11.0457
見つけ	-11.0458
ホスト	-11.0458
ディナー	-11.046
必要に応じて	-11.0463
現在では	-11.0463
することも可能です	-11.0463
かみ	-11.0465
自動で	-11.0466
どうやら	-11.0468
の新	-11.0469
指導者	-11.047
荷	-11.0473
のだけど	-11.0473
の他に	-11.0475
自分から	-11.0476
って言って	-11.0477
研究会	-11.0478
体温	-11.0479
だったのか	-11.0479
査定額	-11.0479
の更新	-11.0479
月より	-11.0482
▁in	-11.0482
が来て	-11.0482
(^	-11.0483
主体	-11.0483
暖	-11.0484
絵画	-11.0485
っきり	-11.0487
数学	-11.0488
にまで	-11.0488
世界を	-11.0489
屋外	-11.0489
添	-11.0491
速やかに	-11.0496
▁学校	-11.0496
録画	-11.0496
利用目的	-11.0499
写真の	-11.0502
知事	-11.0502
ゴー	-11.0502
熊本	-11.0503
かれた	-11.0504
といわれる	-11.0504
で開催された	-11.0505
メガネ	-11.0505
会社を	-11.0505
が増えている	-11.0507
きましたが	-11.0511
崩壊	-11.0511
▁最近の	-11.0515
しやすく	-11.0515
件の	-11.0515
おい	-11.0516
かず	-11.0517
を満た	-11.0521
うつ病	-11.0521
チャン	-11.0523
新潟県	-11.0525
07	-11.0527
365	-11.053
は常に	-11.0531
に最適な	-11.0532
待	-11.0532
良いのか	-11.0533
タスク	-11.0534
のかを	-11.0535
を選択し	-11.0536
総額	-11.0537
有利	-11.0537
とは思って	-11.0537
外れ	-11.0538
トライ	-11.054
抽出	-11.054
課金	-11.0541
は高い	-11.0541
市に	-11.0543
青年	-11.0543
保守	-11.0543
で行う	-11.0547
に比べ	-11.0547
体型	-11.0548
に戻る	-11.0549
表示されます	-11.055
短縮	-11.0553
途	-11.0554
▁当時	-11.0554
よくわからない	-11.0554
やがて	-11.0555
中々	-11.0557
届	-11.0557
DA	-11.0558
輸送	-11.0559
突き	-11.0561
認められる	-11.0561
のライブ	-11.0561
輸出	-11.0562
作品の	-11.0562
▁4.	-11.0563
何回も	-11.0563
を描いた	-11.0564
馬鹿	-11.0565
器具	-11.0566
が入る	-11.0566
とは思えない	-11.0566
生まれて	-11.0571
みたいですね	-11.0572
は避け	-11.0573
仕事をしている	-11.0575
に入っている	-11.0576
地域に	-11.0577
を得た	-11.058
可能な限り	-11.058
を発表した	-11.0582
を落と	-11.0584
いいです	-11.0585
と言う事	-11.0585
フォン	-11.0585
確かな	-11.0586
手当	-11.0586
▁昭和	-11.0588
しろ	-11.0588
宜しくお願いします	-11.0589
地に	-11.0589
宇	-11.0591
スコア	-11.0592
開催されます	-11.0592
紹介する	-11.0593
快適	-11.0593
買取業者	-11.0593
低く	-11.0594
シェ	-11.0597
お電話にて	-11.0598
お買い上げ	-11.0598
▁そんな中	-11.0598
とは違い	-11.0599
庭園	-11.0599
を活用する	-11.0599
復	-11.0601
内装	-11.0604
さに	-11.0605
を手に入れ	-11.0606
博	-11.0606
文字列	-11.0607
適切に	-11.0608
話題の	-11.0609
組み立て	-11.0612
福岡県	-11.0612
多くの方に	-11.0614
くださり	-11.0614
奇跡	-11.0614
確認して	-11.0614
迷	-11.0616
しまえば	-11.0617
を経験	-11.0619
CH	-11.062
敷地	-11.062
づらい	-11.0621
例年	-11.0623
取扱い	-11.0623
▁大人	-11.0625
を求めている	-11.0625
居酒屋	-11.0626
を調べる	-11.0628
仕方がない	-11.0631
飼い主	-11.0633
マネージャー	-11.0633
市内の	-11.0634
続いて	-11.0634
ベビー	-11.0635
明確な	-11.0635
というイメージ	-11.064
計測	-11.0646
なのが	-11.0646
予選	-11.0649
ドー	-11.0649
トゥ	-11.065
ませんでしたが	-11.0651
条件で	-11.0651
気配	-11.0652
っても	-11.0654
にはならない	-11.0655
費や	-11.0656
フロー	-11.0658
コンピューター	-11.0658
痛みが	-11.066
金を	-11.0662
方法があります	-11.0662
抜群	-11.0664
負	-11.0664
適応	-11.0665
のやり取り	-11.0667
▁当日は	-11.0667
に特化した	-11.0667
出来て	-11.0667
一度も	-11.0668
埋め	-11.0669
使命	-11.0669
を記載	-11.0671
分かりませんが	-11.0672
できるのは	-11.0673
▁これだけ	-11.0673
このサイト	-11.0673
合っている	-11.0677
ってきた	-11.0677
下さった	-11.0677
購入して	-11.0678
笑って	-11.068
本人の	-11.0681
顔の	-11.0683
読め	-11.0684
も多数	-11.0687
▁それにしても	-11.0688
PV	-11.0688
大勢	-11.0688
のご注文	-11.0689
は同じ	-11.0692
フェス	-11.0692
んだろうな	-11.0692
のお話	-11.0693
▁そこで今回は	-11.0693
を理解して	-11.0695
メルマガ	-11.0696
暗い	-11.0696
点を	-11.0696
毎	-11.0697
任意	-11.0703
見ても	-11.0705
双方	-11.0706
年ぶりに	-11.0707
情報収集	-11.0708
楽しめます	-11.0709
年で	-11.071
な感じ	-11.071
▁その時	-11.0711
の戦い	-11.0712
スタンド	-11.0713
接触	-11.0713
それぞれに	-11.0718
に置いて	-11.072
始まり	-11.072
食物繊維	-11.0724
継続的に	-11.0724
ge	-11.0724
250	-11.0727
黄色	-11.0727
詳しくは	-11.0729
こうして	-11.0729
▁東	-11.073
無料アニメ動画	-11.073
汚染	-11.0731
目指	-11.0731
を誇る	-11.0732
場合や	-11.0732
おやつ	-11.0733
▁もしかしたら	-11.0734
ギャ	-11.0735
インプラント	-11.0736
生きていく	-11.0737
熟	-11.0737
発注	-11.0737
静かに	-11.0738
をお勧めします	-11.0739
疑	-11.0739
然と	-11.074
進める	-11.074
納期	-11.074
の目的	-11.074
なってきた	-11.0741
リサイクル	-11.0743
▁当社	-11.0744
使いたい	-11.0745
▁U	-11.0745
うれしいです	-11.0746
べきです	-11.0746
祈り	-11.0746
似ている	-11.0747
取り組んで	-11.0747
取引所	-11.0747
使われ	-11.0748
した場合は	-11.0749
なのかな	-11.075
協議会	-11.0751
を見ている	-11.0753
180	-11.0755
にわたり	-11.0757
部署	-11.0757
はいつも	-11.0758
を教えてください	-11.0758
事が出来ます	-11.0758
あるのですが	-11.0759
巡	-11.0759
▁我が家	-11.0759
特性	-11.076
稼ぎ	-11.076
▁イベント	-11.0761
性別	-11.0761
の奥	-11.0761
やすくなる	-11.0762
に行きたい	-11.0763
小物	-11.0765
ハム	-11.0765
にチャレンジ	-11.0766
たか	-11.0766
釣	-11.0767
が最も	-11.0768
の相場	-11.0768
実物	-11.077
効果的に	-11.0772
ライター	-11.0773
じゃん	-11.0775
お申し込みください	-11.0776
この映画	-11.0777
たる	-11.0777
生活が	-11.0779
順位	-11.078
この本	-11.078
9.	-11.0781
しっかりとした	-11.0782
こんなこと	-11.0782
描いた	-11.0782
希望者	-11.0782
を見つけた	-11.0783
ion	-11.0783
▁それと	-11.0783
気になる方は	-11.0787
対象となる	-11.0788
専	-11.0789
えば	-11.079
満足度	-11.079
立つ	-11.0791
バナー	-11.0792
▁子ども	-11.0793
を開いて	-11.0793
im	-11.0793
目安	-11.0794
おもてなし	-11.0794
さら	-11.0797
地位	-11.0798
千円	-11.0798
飛行	-11.0801
観て	-11.0801
ことと	-11.0802
準	-11.0802
ピーク	-11.0803
いなければ	-11.0803
ドリ	-11.0803
WordPress	-11.0804
というより	-11.0805
に大きな	-11.0807
松本	-11.0807
涼	-11.0808
を気に	-11.0808
人たちの	-11.0808
RI	-11.081
チェックイン	-11.081
困	-11.0812
形式で	-11.0812
かのように	-11.0812
▁全国	-11.0814
春の	-11.0814
お祭り	-11.0816
に対しては	-11.0816
▁彼の	-11.0817
不倫証拠	-11.0817
ブラジル	-11.082
コラーゲン	-11.082
祝い	-11.0822
いいか	-11.0822
関わり	-11.0824
といえる	-11.0824
命令	-11.0824
簡単です	-11.0824
午前中	-11.0825
煙	-11.0825
▁こんばんは	-11.0827
ペースで	-11.0827
業務を	-11.0827
と思っていましたが	-11.0828
巨大な	-11.0828
いつの間にか	-11.0829
情報提供	-11.083
式の	-11.083
始	-11.083
湾	-11.083
もありましたが	-11.0831
んだり	-11.0831
プロモーション	-11.0833
出血	-11.0833
を図り	-11.0833
を含めて	-11.0833
を確認し	-11.0835
チームの	-11.0835
入っている	-11.0835
目的地	-11.0835
大事です	-11.0835
▁北	-11.0836
燃料	-11.0836
いかなる	-11.0838
の判断	-11.0838
多くの人に	-11.0839
方々に	-11.0839
行列	-11.0839
54	-11.084
01	-11.0841
したのが	-11.0841
しているという	-11.0841
のサイト	-11.0842
国民の	-11.0842
効率よく	-11.0842
隠れ	-11.0842
より一層	-11.0843
慰謝料	-11.0846
時給	-11.0847
あふれる	-11.0848
視野	-11.0852
08	-11.0853
8%	-11.0853
私にとって	-11.0855
航空券	-11.0856
薄く	-11.0856
スクリーン	-11.0857
ac	-11.0859
側から	-11.086
リハビリ	-11.0862
マッチング	-11.0864
工房	-11.0866
格好	-11.0866
をお待ちしております	-11.0866
数十	-11.0867
今後は	-11.0869
男は	-11.087
切る	-11.0871
を出した	-11.0871
BS	-11.0872
はいかがでしょうか	-11.0874
の予防	-11.0874
ハッピー	-11.0875
が異なります	-11.0877
チュー	-11.0877
もち	-11.0879
の専門家	-11.0879
お金を借りる	-11.088
立派な	-11.088
インパクト	-11.0881
を知りたい	-11.0883
世界遺産	-11.0884
程度で	-11.0884
高齢	-11.0886
ことですが	-11.0886
▁皆様の	-11.0888
年ぶり	-11.0889
コンパクト	-11.089
をどう	-11.089
みたり	-11.0891
ゲート	-11.0893
グラフィック	-11.0893
余り	-11.0894
語る	-11.0894
めた	-11.0895
ぼう	-11.0898
待機	-11.0898
5.	-11.0899
文句	-11.09
の方法	-11.0901
ボス	-11.0903
パンフレット	-11.0904
調べる	-11.0904
bo	-11.0904
為の	-11.0905
商売	-11.0906
の旅	-11.0906
表紙	-11.0906
お願い申し上げます	-11.0906
を用いた	-11.0906
皮膚科	-11.0907
▁当院では	-11.0907
うる	-11.0907
謝	-11.0909
犯人	-11.091
お楽しみ	-11.091
に適した	-11.0911
一目	-11.0911
だとか	-11.0912
死んで	-11.0913
中でも	-11.0913
ポー	-11.0914
に伴う	-11.0914
に関しましては	-11.0917
の国	-11.0918
ないと思います	-11.0919
の基礎	-11.092
店員さん	-11.092
暴	-11.0921
所有者	-11.0922
行わ	-11.0924
書かれて	-11.0928
冷凍	-11.0929
開く	-11.0933
マット	-11.0933
るんだ	-11.0934
当事者	-11.0936
黒い	-11.0937
夫が	-11.0937
の動画	-11.0938
を理解し	-11.0939
フラワー	-11.094
面白く	-11.094
残念な	-11.094
存在感	-11.0942
つもりで	-11.0945
限度額	-11.0945
助かりました	-11.0946
ちょ	-11.0946
社会の	-11.0947
していたのですが	-11.0948
に通う	-11.0948
したいという	-11.0949
は大きく	-11.0949
点が	-11.0949
を重ねて	-11.0949
▁ホームページ	-11.095
しまいましたが	-11.0951
自然の	-11.0951
0,000	-11.0953
声優	-11.0953
UN	-11.0953
どなたでも	-11.0957
削	-11.0958
決まった	-11.0959
大正	-11.096
しみ	-11.0961
が集まる	-11.0963
偏	-11.0965
季	-11.0965
市町村	-11.0965
ウォーキング	-11.0965
検診	-11.0965
よりは	-11.0966
出来れば	-11.0966
下手	-11.0968
ィ	-11.0969
が発売	-11.0969
乾	-11.097
経験者	-11.0972
デスクトップ	-11.0973
上手	-11.0973
かえ	-11.0973
下さいませ	-11.0974
コメントを	-11.0975
仲介	-11.0975
を認め	-11.0975
顔が	-11.0976
ものすごく	-11.0976
大好き	-11.0979
終わりました	-11.098
を保つ	-11.0983
男が	-11.0984
訪	-11.0985
観戦	-11.0985
66	-11.0989
条例	-11.0991
ただの	-11.0994
確か	-11.0994
受けて	-11.0995
ow	-11.0995
権限	-11.0995
を伝え	-11.0996
積み	-11.0996
の香り	-11.0996
寄って	-11.0998
ラム	-11.1
くなって	-11.1
フォント	-11.1
したものです	-11.1
ないでください	-11.1001
好みの	-11.1002
大規模	-11.1002
お客さまの	-11.1003
かわ	-11.1003
を重ね	-11.1007
をもたらす	-11.1008
▁食事	-11.1009
暴力	-11.1011
大学で	-11.1011
在籍	-11.1011
理解して	-11.1011
外の	-11.1013
ジャン	-11.1014
おばあちゃん	-11.1014
太陽光発電	-11.1014
随分	-11.1014
だね	-11.1015
を提供しています	-11.1017
～1	-11.1018
ay	-11.1018
進めて	-11.1019
だったと思います	-11.1019
SO	-11.1019
そうと	-11.102
受け止め	-11.102
方も多いのではないでしょうか	-11.1021
いるのですが	-11.1021
▁今後は	-11.1022
カスタム	-11.1024
しようか	-11.1025
▁よろしくお願いします	-11.1026
区別	-11.1031
▁韓国	-11.1032
倉庫	-11.1034
ケット	-11.1034
▁PC	-11.1037
頂ければ	-11.1039
カジノ	-11.104
会場に	-11.1043
るだけで	-11.1043
を購入して	-11.1046
することです	-11.1046
間違え	-11.1047
興味のある	-11.1048
▁of	-11.1048
が付いて	-11.1049
セー	-11.1051
兆	-11.1053
し続ける	-11.1053
あると思います	-11.1054
してない	-11.1054
などでも	-11.1054
んじゃ	-11.1055
をタップ	-11.1056
染	-11.1056
判決	-11.1057
されるので	-11.1057
流れる	-11.1058
インフラ	-11.106
耐	-11.106
を比較	-11.1061
牛乳	-11.1061
男の	-11.1061
カイ	-11.1063
手元に	-11.1064
遅	-11.1064
囲	-11.1064
に該当する	-11.1064
を読んだ	-11.1066
Mo	-11.1067
▁当店	-11.1068
とは言え	-11.1069
ティック	-11.1069
があるか	-11.1069
でお	-11.107
等が	-11.1071
ことも多い	-11.1071
JA	-11.1071
場所です	-11.1072
ものもあります	-11.1072
状態を	-11.1072
相続人	-11.1072
子供を	-11.1073
ard	-11.1073
確立	-11.1073
ビット	-11.1074
適正な	-11.1074
みたいで	-11.1074
思っていた	-11.1075
群馬県	-11.1075
居住	-11.108
様式	-11.1081
真似	-11.1084
頃には	-11.1085
を開催しました	-11.1085
が中心	-11.1086
二つ	-11.1087
業界の	-11.1089
やすさ	-11.1089
伝えたい	-11.1089
尻	-11.1091
二次	-11.1091
go	-11.1092
を起こし	-11.1092
をいただき	-11.1092
したいです	-11.1093
なかで	-11.1093
という声	-11.1095
ないです	-11.1097
本人が	-11.1097
老化	-11.1098
のは難しい	-11.1099
効果を	-11.11
リフレッシュ	-11.1101
▁当然	-11.1101
困って	-11.1102
ことについて	-11.1102
待つ	-11.1103
熱中症	-11.1103
頂きたい	-11.1104
抽選	-11.1104
▁どうも	-11.1105
オシャレ	-11.1105
申込書	-11.1106
検定	-11.1109
どおり	-11.111
らせる	-11.1111
長男	-11.1112
トリートメント	-11.1116
自主	-11.1118
を表示	-11.1118
写真を撮って	-11.1118
ようにしてください	-11.1118
しているか	-11.1119
イエス	-11.1119
込	-11.1121
の両方	-11.1122
拝	-11.1122
横浜市	-11.1124
連絡を	-11.1125
当社が	-11.1125
芸能人	-11.1127
現地で	-11.1127
メーカーの	-11.1132
足を運んで	-11.1133
使用される	-11.1133
送る	-11.1135
容疑者	-11.1135
で行われる	-11.1135
▁彼女は	-11.1136
何年も	-11.1136
たいという	-11.1136
になるのは	-11.1139
サイズは	-11.1139
あふれ	-11.1141
観光スポット	-11.1142
画面に	-11.1143
を抑え	-11.1143
内科	-11.1143
郵便	-11.1144
の中にある	-11.1148
気づいた	-11.1148
)～	-11.1149
▁他	-11.1151
LO	-11.1151
思い切って	-11.1154
酸素	-11.1155
カラオケ	-11.1156
支払う	-11.1157
事があります	-11.1157
を下	-11.1161
水着	-11.1164
しないといけない	-11.1165
ようなこと	-11.1165
03	-11.1167
の資格	-11.117
・・。	-11.117
種の	-11.1171
初心者の方	-11.1173
ために必要な	-11.1174
手に入る	-11.1175
預け	-11.1176
猫の	-11.1176
がしっかり	-11.1181
順調に	-11.1182
景気	-11.1185
お家	-11.1186
指標	-11.1186
ミネラル	-11.1186
釈	-11.119
プレート	-11.119
るようになった	-11.119
安心です	-11.1191
▁今では	-11.1192
紫	-11.1192
57	-11.1193
体操	-11.1194
要請	-11.1196
わず	-11.1199
いらない	-11.12
WA	-11.1202
▁このため	-11.1202
何となく	-11.1203
過ごし	-11.1203
ついでに	-11.1203
次のように	-11.1203
▁よって	-11.1203
ハマ	-11.1204
必要なもの	-11.1205
オリ	-11.1205
受注	-11.1206
ソフトバンク	-11.1206
▁一緒に	-11.1208
人権	-11.121
お預かり	-11.1211
映画館	-11.1212
めの	-11.1214
署名	-11.1214
などについて	-11.1215
ほんと	-11.1215
で約	-11.1215
しているのです	-11.1215
▁そのために	-11.1215
買える	-11.1216
De	-11.1217
待っている	-11.1218
レベルで	-11.1219
のが特徴です	-11.122
導	-11.1221
今年度	-11.1222
してくださった	-11.1223
分に	-11.1223
という意味で	-11.1223
と思いながら	-11.1224
を目指します	-11.1224
部下	-11.1224
協議	-11.1227
さっそく	-11.1229
技能	-11.1229
すばらしい	-11.123
▁家	-11.1231
可能性も	-11.1232
見られます	-11.1233
増える	-11.1233
を提出	-11.1234
の予定	-11.1234
効果的です	-11.1235
懸念	-11.1235
の悩み	-11.1236
みたいと思います	-11.1237
はしない	-11.1238
だということ	-11.124
無駄に	-11.1241
今度	-11.1242
の街	-11.1242
をしていると	-11.1243
日頃の	-11.1246
歳から	-11.1246
まいりました	-11.1247
そこそこ	-11.1248
テンション	-11.1249
シリーズの	-11.125
他人に	-11.1251
と指摘	-11.1255
ひたすら	-11.1256
▁当サイトでは	-11.1256
の働き	-11.1257
体育	-11.1258
対話	-11.1258
を知らない	-11.1263
クター	-11.1263
に乗る	-11.1264
があるようです	-11.1265
画像は	-11.1265
ho	-11.1266
記者	-11.1267
を含めた	-11.1268
▁初めての	-11.1268
をお届けします	-11.1269
にしました	-11.1269
場面で	-11.1271
を基に	-11.1271
前には	-11.1272
戻り	-11.1273
コチラ	-11.1273
のトラブル	-11.1274
運動を	-11.1276
成分が	-11.1277
空いて	-11.128
ハーブ	-11.1283
▁基本的には	-11.1285
木の	-11.1285
.2	-11.1286
場所が	-11.1287
に参加して	-11.1287
の考え方	-11.1288
台の	-11.1288
しているようです	-11.1291
に戻	-11.1292
助かります	-11.1296
達は	-11.1297
書かれています	-11.1297
が全く	-11.1299
有機	-11.1301
ジェル	-11.1302
職場で	-11.1303
Renta	-11.1303
しておりますが	-11.1303
抜け毛	-11.1305
▁具体的には	-11.1307
しているところ	-11.1307
なってきている	-11.1307
▁白	-11.1307
描いて	-11.1308
を開け	-11.1309
徒	-11.1309
マイクロ	-11.131
認可	-11.131
ていましたが	-11.1311
ソウル	-11.1311
外科	-11.1312
あまりに	-11.1314
掛	-11.1315
をお楽しみください	-11.1318
ものなので	-11.1319
自分と	-11.1321
をお届け	-11.1321
妻が	-11.1321
比べ	-11.1322
仕掛け	-11.1323
のだけれど	-11.1323
を感じます	-11.1324
美容液	-11.1324
ぇ	-11.1326
させたい	-11.1326
通じ	-11.1326
こな	-11.1328
昇	-11.1328
申し込む	-11.133
新型	-11.133
などなど	-11.1331
選べる	-11.1332
明日から	-11.1333
今回も	-11.1333
▁今後とも	-11.1335
へのアクセス	-11.1335
以下のように	-11.1336
バンク	-11.1337
お尻	-11.1338
なくなってしまった	-11.1339
のポイント	-11.1339
ちゃった	-11.1339
伝えられ	-11.1339
出現	-11.1339
往復	-11.134
階に	-11.1343
41	-11.1343
あっ	-11.1344
佐藤	-11.1344
存在している	-11.135
経由で	-11.1351
方は是非	-11.1351
ページで	-11.1352
も高い	-11.1354
のみの	-11.1354
高まり	-11.1355
遺伝子	-11.1358
で最も	-11.1358
も含め	-11.1359
かもしれないが	-11.136
信頼性	-11.1361
長い間	-11.1362
スレ	-11.1364
を必要と	-11.1365
積み重ね	-11.1366
できたら	-11.1366
開店	-11.1366
人にとって	-11.1366
防衛	-11.1367
られていた	-11.1367
イス	-11.1368
2005	-11.137
相手と	-11.137
髪の	-11.137
よろしくお願い申し上げます	-11.137
の増加	-11.1372
を解消	-11.1372
を用意して	-11.1373
が見られる	-11.1373
増えている	-11.1375
現在も	-11.1377
装着	-11.1378
奈良県	-11.1379
法律事務所	-11.138
工学	-11.1381
というものです	-11.1381
却	-11.1383
している方	-11.1383
のかもしれませんね	-11.1384
ッター	-11.1384
メジャー	-11.1385
▁その為	-11.1386
ゲット	-11.1387
北区	-11.139
ネス	-11.139
▁ご注文	-11.1392
三重県	-11.1393
てしまうと	-11.1394
唯一	-11.1395
とても良い	-11.1395
ことが重要	-11.1397
新潟	-11.1398
だと思いました	-11.1402
オススメの	-11.1405
圧倒的に	-11.1407
と言うこと	-11.1407
が見える	-11.1408
代わり	-11.1412
池袋	-11.1412
を使うと	-11.1412
の木	-11.1417
立た	-11.1418
ack	-11.1418
さず	-11.1419
国内外	-11.142
場合もある	-11.1421
患者さんの	-11.1424
ためです	-11.1424
を対象とした	-11.1425
募金	-11.1426
思われ	-11.1426
が多くて	-11.1426
の後	-11.1426
行われた	-11.1427
子供の頃	-11.1428
▁予約	-11.1429
05	-11.1431
発音	-11.1433
ケガ	-11.1436
コラム	-11.1437
視点で	-11.1437
ダイレクト	-11.1438
▁彼らは	-11.1439
価	-11.1441
▁・・・	-11.1441
多彩な	-11.1441
が何	-11.1444
ことが重要です	-11.1445
課税	-11.1445
それらを	-11.1445
られなかった	-11.1446
▁こうして	-11.1449
その日の	-11.1449
旦那さん	-11.145
▁この度は	-11.145
テント	-11.1451
ナチュラル	-11.1452
香りが	-11.1453
ステーション	-11.1455
することにしました	-11.1456
言われ	-11.1457
連れて	-11.1458
ディー	-11.1458
乗車	-11.1461
▁僕の	-11.1461
ホン	-11.1461
久々に	-11.1463
不要な	-11.1465
店長	-11.1466
漫画を	-11.1466
繋	-11.1466
に恵まれ	-11.1467
こそが	-11.1468
変わらず	-11.1469
ラウンジ	-11.147
本屋	-11.1473
通過	-11.1474
作られている	-11.1475
売っている	-11.1475
友人が	-11.1475
(2	-11.1476
払	-11.1477
責任者	-11.1478
シュー	-11.1478
わかりました	-11.1479
典	-11.1481
ただし	-11.1482
面談	-11.1482
とは限りません	-11.1482
その結果	-11.1483
財政	-11.1483
どころか	-11.1483
知ってる	-11.1483
欠かせない	-11.1485
たりして	-11.1487
年まで	-11.1487
のご相談	-11.1489
まれた	-11.1489
お客様には	-11.149
やらない	-11.1491
島の	-11.1493
をご希望の方は	-11.1494
契約書	-11.1494
付けて	-11.1497
海の	-11.1498
店舗で	-11.1499
をベースに	-11.1501
カードの	-11.1501
を作りました	-11.1501
▁親	-11.1502
に登場する	-11.1505
喫煙	-11.1506
は今	-11.1507
借	-11.1511
当時は	-11.1513
することになります	-11.1513
広島県	-11.1515
クセ	-11.1517
建て	-11.1517
放映	-11.1518
生活保護	-11.1519
ばら	-11.1521
を簡単に	-11.1521
多少の	-11.1522
を開き	-11.1522
同様に	-11.1524
同士で	-11.1525
くなり	-11.1526
かれて	-11.1527
預金	-11.1528
の手続き	-11.1528
いただいています	-11.1528
のリスク	-11.1529
https	-11.1532
をお探しの方	-11.1534
逃	-11.1536
ウィンドウ	-11.1536
行われている	-11.1538
お誕生日	-11.1538
生活習慣病	-11.1539
スペック	-11.1539
たとき	-11.1541
第三	-11.1542
をチェックして	-11.1545
汚	-11.1547
チェックして	-11.1547
占	-11.1548
当社は	-11.1548
本サービス	-11.1548
取れない	-11.1554
尊敬	-11.1555
でいい	-11.1556
▁そこに	-11.1557
飼育	-11.1557
免疫力	-11.1558
先ほど	-11.1558
ヶ月間	-11.1559
が出てきて	-11.156
かもしれないけど	-11.1562
らずに	-11.1562
折り	-11.1562
敬	-11.1564
電波	-11.1565
フレーズ	-11.1565
マネ	-11.1565
▁このページでは	-11.1567
子を	-11.1567
▁元	-11.1567
起きる	-11.1568
を利用している	-11.1568
祈	-11.1569
が大変	-11.1571
いるのです	-11.1571
を披露	-11.1574
の負担	-11.1574
日本国内	-11.1577
は必要	-11.1577
大分	-11.158
人によって	-11.158
画面で	-11.1582
学術	-11.1582
がないか	-11.1582
開催される	-11.1583
見たこと	-11.1583
お過ごし	-11.1585
苦手な	-11.1585
届いた	-11.1585
か分からない	-11.1585
お肌の	-11.1585
つかない	-11.1586
なかったら	-11.1589
オレンジ	-11.1589
長野県	-11.159
が続いて	-11.1591
した時に	-11.1592
は何も	-11.1593
を守り	-11.1595
残念です	-11.1595
個人情報保護	-11.1596
揺れ	-11.1596
最大限	-11.1598
マスコミ	-11.16
私と	-11.16
と違う	-11.1601
中国人	-11.1603
ご存じ	-11.1604
/1	-11.1605
できるのか	-11.1605
を書いた	-11.1606
いたい	-11.1607
HO	-11.1607
勝つ	-11.1607
は無理	-11.1607
される方	-11.1608
▁日本人	-11.1608
物事	-11.161
プラスチック	-11.161
▁15	-11.1611
に行ったり	-11.1612
di	-11.1617
けた	-11.1617
尊	-11.1618
に連絡	-11.1618
論理	-11.1622
させない	-11.1622
をさせていただきます	-11.1622
歳まで	-11.1623
侵害	-11.1624
-3	-11.1624
数百	-11.1626
の確保	-11.1628
▁恋愛	-11.1628
糖	-11.1629
達の	-11.1629
通っている	-11.163
額が	-11.1631
地点	-11.1633
いい感じ	-11.1634
訪れて	-11.1634
行政書士	-11.1634
多くの方が	-11.1635
国内で	-11.1636
がついている	-11.1636
ページです	-11.1638
見直し	-11.1639
ありませんでした	-11.164
留学生	-11.1641
を追求	-11.1644
新品	-11.1644
方法として	-11.1645
ユーロ	-11.1645
おりますので	-11.1647
その中で	-11.1647
おりません	-11.1648
街の	-11.1649
仕事をする	-11.1649
ターミナル	-11.1652
やさしい	-11.1652
▁会場	-11.1654
外から	-11.1654
ソーシャル	-11.1654
ドゥ	-11.1655
医療費	-11.1655
これほど	-11.166
調べてみると	-11.1661
腐	-11.1662
豪華	-11.1662
を楽しめる	-11.1663
状況で	-11.1663
▁いよいよ	-11.1663
がかかって	-11.1666
を作ること	-11.1666
と思うんです	-11.1668
の魅力を	-11.1668
Re	-11.1669
トヨタ	-11.167
作品です	-11.1671
保持	-11.1673
の技術	-11.1674
割と	-11.1675
AP	-11.1676
by	-11.1676
2001	-11.1676
隠し	-11.1677
を堪能	-11.1678
リック	-11.1678
可能性もある	-11.1678
ポーズ	-11.1678
火災	-11.1679
なと思います	-11.1679
歯周病	-11.168
できるもの	-11.168
は以下の	-11.1684
金額は	-11.1684
発売日	-11.1686
依存	-11.1686
がお	-11.1686
感じます	-11.1687
の前	-11.1687
外壁	-11.169
コードを	-11.169
▁なんか	-11.1691
▁このブログ	-11.1691
どの程度	-11.1692
通販サイト	-11.1692
にもよりますが	-11.1694
予告	-11.1695
関わって	-11.1695
内容に	-11.1697
するとき	-11.1698
試行	-11.1698
ってくる	-11.1699
方も多いと思います	-11.17
誰にでも	-11.17
チー	-11.17
身体を	-11.17
そういうこと	-11.1701
呼んで	-11.1701
贈	-11.1703
どん	-11.1703
取り組む	-11.1705
立ち読み	-11.1705
家族が	-11.1706
▁私自身	-11.1707
っぽ	-11.1708
ほかにも	-11.171
日本代表	-11.1711
紅茶	-11.1713
選ばれ	-11.1713
どうする	-11.1714
者として	-11.1714
する際には	-11.1715
が崩れ	-11.1715
薬を	-11.1715
AGA	-11.1717
様子が	-11.1718
ますし	-11.172
贈り物	-11.1721
ite	-11.1721
▁どうしても	-11.1721
可愛	-11.1723
カビ	-11.1723
聞いたこと	-11.1724
フィルター	-11.1724
フィット	-11.1724
修了	-11.1724
ちゃんは	-11.1725
してみます	-11.1727
だったけど	-11.1727
とは何か	-11.1727
▁不動産	-11.173
▁ご了承ください	-11.1731
水曜日	-11.1731
が楽しめる	-11.1732
デザート	-11.1733
下部	-11.1734
わい	-11.1735
ゆき	-11.1738
ものとして	-11.174
慣れて	-11.174
以下に	-11.1741
日常的に	-11.1741
限定で	-11.1741
田中	-11.1744
国籍	-11.1744
おくこと	-11.1744
たくさんある	-11.1745
設定を	-11.1747
集中力	-11.1747
シルバー	-11.1747
同じく	-11.1747
を推進	-11.1748
お返事	-11.1748
雰囲気が	-11.175
良いですね	-11.1751
デッキ	-11.1752
est	-11.1752
パスポート	-11.1754
取引先	-11.1754
肌荒れ	-11.1754
を入れた	-11.1755
臨時	-11.1755
によるもの	-11.1756
が含まれています	-11.1757
気を付けて	-11.1757
が変わった	-11.1758
67	-11.1759
できますが	-11.1759
支部	-11.176
わる	-11.176
比率	-11.176
言ってる	-11.1762
水が	-11.1762
輝き	-11.1763
免	-11.1763
左側	-11.1764
業界で	-11.1768
ありますよね	-11.1768
血圧	-11.1769
だい	-11.1769
足が	-11.177
を継続	-11.1771
遺跡	-11.1771
と考えた	-11.1772
時間と	-11.1774
書いてある	-11.1774
取った	-11.1775
彼らが	-11.1776
耳に	-11.1777
膨大な	-11.1778
強み	-11.1778
商業	-11.1778
もらうこと	-11.1778
ッカー	-11.1779
アプリの	-11.178
お楽しみに	-11.1781
con	-11.1781
を担う	-11.1782
ディーラー	-11.1782
頂け	-11.1782
3%	-11.1783
のは初めて	-11.1784
ご縁	-11.1784
もったいない	-11.1784
合宿	-11.1786
替	-11.1787
立ち上げ	-11.1788
か否か	-11.1788
を知ること	-11.1788
深刻な	-11.1789
れません	-11.1792
ki	-11.1792
も多いので	-11.1795
ていると	-11.1796
与	-11.1796
、2014	-11.1796
▁――	-11.1797
▁車	-11.1798
ということだ	-11.1798
でしたね	-11.18
になるか	-11.18
個人情報は	-11.18
が行われた	-11.18
が始まった	-11.1802
いじめ	-11.1802
を楽しむことができます	-11.1803
に残る	-11.1803
されてきた	-11.1803
費用を	-11.1805
キャッチ	-11.1805
を忘れ	-11.1806
もらおう	-11.1807
フォーラム	-11.181
に位置し	-11.181
誠にありがとうございました	-11.181
その場	-11.1811
日数	-11.1812
残りの	-11.1812
効率化	-11.1812
使用されている	-11.1812
ゃ	-11.1814
を描く	-11.1814
捉え	-11.1814
Sh	-11.1815
参加する	-11.1816
その理由	-11.1816
少	-11.1817
激しく	-11.1818
何度	-11.1819
お腹が	-11.182
の場合には	-11.182
ビッグ	-11.1822
財務	-11.1823
楽しさ	-11.1823
shi	-11.1823
感謝の気持ち	-11.1824
EX	-11.1824
公務員	-11.1827
を支援する	-11.1829
ご自身	-11.1829
があまり	-11.1831
オル	-11.1835
最適化	-11.1835
▁年齢	-11.1835
どうせ	-11.1835
濃度	-11.1837
装飾	-11.1839
St	-11.1839
普段の	-11.184
もできます	-11.1842
された場合	-11.1842
次第に	-11.1843
金銭	-11.1843
ぴ	-11.1843
しにくい	-11.1844
旬	-11.1844
いただけた	-11.1845
気になります	-11.1845
ゾーン	-11.1846
ご愛顧	-11.1846
を卒業	-11.1846
浴	-11.1847
デスク	-11.1847
ょ	-11.1848
たいと思っています	-11.1848
音楽を	-11.1848
ap	-11.185
一人暮らし	-11.185
不幸	-11.1851
を残して	-11.1851
気持ちよく	-11.1852
加速	-11.1852
▁<	-11.1853
属性	-11.1855
と言っている	-11.1856
なんだけど	-11.1856
シューズ	-11.1859
取り入れ	-11.186
相変わらず	-11.186
丈	-11.1861
動物園	-11.1862
▁というのも	-11.1862
だろうと	-11.1865
ひどく	-11.1865
荷物を	-11.1866
リップ	-11.1868
意外に	-11.1868
なくては	-11.1869
興味のある方は	-11.187
をつくり	-11.187
迷い	-11.1871
を叶え	-11.1876
キレイに	-11.1879
ご自身で	-11.188
感謝しています	-11.188
にならないように	-11.1882
習得	-11.1882
宿泊施設	-11.1884
の食事	-11.1886
と感じます	-11.1887
を選択して	-11.1887
アプリで	-11.189
は下記	-11.189
熊本県	-11.189
換え	-11.1892
警告	-11.1895
連合	-11.1896
を考えた	-11.1898
問い	-11.1902
の写真を	-11.1903
ドクター	-11.1903
ほうが良い	-11.1904
ホテルに	-11.1906
飲食	-11.1907
肉体	-11.1908
を活用した	-11.1908
Microsoft	-11.1909
目は	-11.1909
に違いない	-11.1911
ないのですが	-11.1913
濃	-11.1914
なるほど	-11.1914
協力して	-11.1915
子どもたちが	-11.1915
ペーパー	-11.1916
結成	-11.1918
発表された	-11.1918
ショップで	-11.192
家計	-11.192
カート	-11.192
精一杯	-11.1921
知られています	-11.1921
明確に	-11.1923
プライバシーポリシー	-11.1924
間違った	-11.1924
娘が	-11.1924
取れる	-11.1924
を控え	-11.1927
駆除	-11.1927
が始まりました	-11.1931
史上	-11.1932
▁上	-11.1934
祖	-11.1936
法的	-11.1937
いただきまして	-11.1939
外来	-11.1939
の立場	-11.194
ごめんなさい	-11.1942
▁既に	-11.1942
お寺	-11.1942
枚目	-11.1943
誇	-11.1944
講	-11.1944
行われます	-11.1946
工作	-11.1947
-0	-11.1951
ラッキー	-11.1952
▁うちの	-11.1954
知られている	-11.1955
の時代	-11.1959
どうにか	-11.1959
▁あなたも	-11.1959
何処	-11.1963
見解	-11.1964
今年で	-11.1964
▁英語	-11.1965
ない場合	-11.1966
みんなの	-11.1967
お試しください	-11.1968
バイオ	-11.1969
を代表する	-11.1969
大臣	-11.197
一冊	-11.1971
自己紹介	-11.1973
▁ちょうど	-11.1974
趣旨	-11.1974
お渡し	-11.1975
コミ	-11.1976
ユニークな	-11.1976
ly	-11.1977
一層	-11.1977
出会う	-11.198
いただければ幸いです	-11.1981
感想を	-11.1983
月中旬	-11.1985
しん	-11.1985
ことが可能	-11.1986
サイトが	-11.1986
よろしく	-11.1987
キュー	-11.1987
30%	-11.1987
た時	-11.1988
%	-11.1991
賀県	-11.1991
をやる	-11.1993
本店	-11.1994
調達	-11.1996
疲れた	-11.1996
みてくださいね	-11.1997
ニン	-11.1998
どうしたらいい	-11.1998
決まって	-11.1999
麻酔	-11.1999
ue	-11.1999
を記念して	-11.2
実質	-11.2001
お正月	-11.2002
強さ	-11.2003
掛かり	-11.2003
仕事は	-11.2005
芸能	-11.2005
本サイト	-11.2005
すぎた	-11.2006
出てきて	-11.2007
LA	-11.2009
内容で	-11.2011
仮想	-11.2011
知らせ	-11.2011
閉店	-11.2012
の美しさ	-11.2012
傾向にあります	-11.2012
溶け	-11.2013
ダイヤモンド	-11.2014
きたので	-11.2014
に接続	-11.2014
セルフ	-11.2015
仏教	-11.2015
の先生	-11.2016
一人ひとり	-11.2016
後には	-11.2017
までご連絡ください	-11.2017
増え	-11.2018
買わ	-11.2029
あら	-11.203
行っています	-11.2031
立体	-11.2032
冷や	-11.2036
昨今	-11.2038
注意してください	-11.2039
おじさん	-11.204
もいる	-11.204
はいけません	-11.2041
私を	-11.2042
はこちらから	-11.2045
が現れ	-11.2045
利用して	-11.2045
時間ほど	-11.2046
激安	-11.2047
受け付けております	-11.2048
リンパ	-11.2049
渋滞	-11.205
原稿	-11.2054
経済的	-11.2055
ml	-11.2057
彼女に	-11.2059
が表示され	-11.206
側は	-11.206
吉田	-11.2061
運転手	-11.2062
お礼	-11.2063
▁少しでも	-11.2063
売り切れ	-11.2064
好きで	-11.2064
来週	-11.2064
妻の	-11.2064
載	-11.2065
暖かく	-11.2067
育て	-11.2068
月下旬	-11.2068
語って	-11.2069
こともできる	-11.2069
エレベーター	-11.2071
じっくりと	-11.2073
記事は	-11.2074
質の高い	-11.2074
等により	-11.2075
を続け	-11.2075
との連携	-11.2076
設	-11.2077
をダウンロード	-11.2077
伸ば	-11.2078
毎日の	-11.2078
▁プロ	-11.2078
コロ	-11.2078
ことである	-11.2079
▁人間	-11.2079
時期は	-11.208
られており	-11.2081
していただきます	-11.2081
駅まで	-11.2081
色合い	-11.2081
▁一般	-11.2082
協定	-11.2082
と感じています	-11.2082
たって	-11.2083
AV	-11.2083
マリ	-11.2085
まわ	-11.2087
風の	-11.2088
の発展	-11.209
充	-11.2091
そこには	-11.2091
買取り	-11.2091
角度	-11.2092
悪いこと	-11.2093
須	-11.2093
04	-11.2093
il	-11.2094
の仕組み	-11.2094
もらえます	-11.2095
求められる	-11.2096
ごみ	-11.2096
思	-11.2097
荒れ	-11.21
本音	-11.2102
を大事に	-11.2103
ることができました	-11.2104
の登録	-11.2104
アプリを	-11.2104
宴会	-11.2104
通う	-11.2105
北部	-11.2106
一番の	-11.2107
▁海	-11.2108
〜!	-11.2109
▁最初の	-11.211
を学び	-11.211
気になっている	-11.211
を扱う	-11.2112
吸い	-11.2112
という考え	-11.2113
を知った	-11.2113
無料コミック	-11.2114
しまうこと	-11.2115
辺り	-11.2115
細菌	-11.2116
してもらいたい	-11.2117
驚く	-11.2118
火曜日	-11.2118
があった場合	-11.2118
血行	-11.2119
条約	-11.2119
位に	-11.212
山田	-11.212
MS	-11.212
かなと思います	-11.2122
生産性	-11.2122
視聴者	-11.2122
多いと思います	-11.2123
親族	-11.2125
ソング	-11.2126
ub	-11.2127
が流れ	-11.2127
構	-11.2127
が開始され	-11.2127
に向け	-11.2132
▁今朝	-11.2133
デュ	-11.2133
ミーティング	-11.2134
減って	-11.2134
お近くの	-11.2134
ワンちゃん	-11.2136
ミュージック	-11.2137
を開設	-11.2137
が気になって	-11.2138
ようにする	-11.2139
の方々に	-11.2139
見せて	-11.2139
上野	-11.214
シンプルで	-11.214
良いでしょう	-11.214
本当は	-11.214
のではないだろうか	-11.2141
圧力	-11.2141
全国各地	-11.2141
始まった	-11.2141
挑	-11.2143
使っていた	-11.2143
スタジアム	-11.2144
どんなこと	-11.2145
付ける	-11.2146
ストップ	-11.2147
賃金	-11.2148
を受けました	-11.2148
ex	-11.215
越し	-11.215
しなければいけない	-11.2151
豊富に	-11.2152
の音	-11.2154
してくれるので	-11.2157
頭の中	-11.2159
制定	-11.216
わたしの	-11.216
になれ	-11.2162
書きました	-11.2162
攻め	-11.2163
ルト	-11.2164
努めて	-11.2164
も少なくありません	-11.2165
BI	-11.2165
は結構	-11.2166
1500	-11.2167
お世話	-11.2168
早めの	-11.2168
だめ	-11.2169
欄に	-11.2171
わたしは	-11.2172
▁すべての	-11.2173
にあたる	-11.2173
もうちょっと	-11.2173
も多いです	-11.2175
かわり	-11.2175
定休日	-11.2176
単純な	-11.2176
卒	-11.2178
スイス	-11.2181
を受けること	-11.2182
あれこれ	-11.2182
に対しても	-11.2183
森林	-11.2185
ましたので	-11.2186
があるのですが	-11.2187
まない	-11.2188
二十	-11.2188
特有の	-11.2189
わけじゃない	-11.2191
振込	-11.2192
欲求	-11.2192
ように見える	-11.2193
こうやって	-11.2194
と同じような	-11.2195
に巻き込まれ	-11.2195
なりたい	-11.2195
▁もしも	-11.2198
友人の	-11.2201
枚の	-11.2201
入り口	-11.2201
の幅	-11.2203
が沢山	-11.2204
作戦	-11.2206
を付け	-11.2207
急速に	-11.2207
▁元々	-11.2207
ヴ	-11.2208
国会	-11.2209
を忘れて	-11.2209
すと	-11.2209
この曲	-11.221
ご連絡を	-11.221
ないだろう	-11.2211
を送り	-11.2211
に強い	-11.2213
▁たぶん	-11.2214
放射線	-11.2215
の機会	-11.2215
企業は	-11.2215
鹿児島	-11.2216
調べた	-11.2216
を作成し	-11.2217
ケイ	-11.2217
を増やし	-11.2221
得点	-11.2223
は初めて	-11.2226
待た	-11.2226
できるような	-11.2227
受けた	-11.2227
数回	-11.2228
方と	-11.2229
さっぱり	-11.2229
の顔	-11.223
気持ちは	-11.223
集中して	-11.223
を募集しています	-11.2231
軍事	-11.2232
情報など	-11.2232
パスタ	-11.2234
が進む	-11.2235
利用可能	-11.2235
命を	-11.2237
なんですね	-11.2238
木坂	-11.2241
52	-11.2241
共通の	-11.2242
お散歩	-11.2242
ドコモ	-11.2243
座席	-11.2243
視点から	-11.2244
ラベル	-11.2244
山口	-11.2244
してしまって	-11.2244
のお手伝いを	-11.2245
ヴェ	-11.2246
グラン	-11.2246
件数	-11.2247
▁二	-11.2248
が出来て	-11.2248
min	-11.2248
に触れる	-11.2249
っぱ	-11.225
のプロ	-11.2251
▁事前に	-11.2255
を最大限に	-11.2256
病院の	-11.2256
名古屋市	-11.2257
らないように	-11.2258
発揮	-11.2258
カラダ	-11.2261
までお問い合わせください	-11.2263
▁ご予約	-11.2265
量の	-11.2267
の方で	-11.2267
も用意	-11.2267
ゲームを	-11.2267
親が	-11.2268
高額な	-11.2269
大幅に	-11.2269
中断	-11.2271
ポリシー	-11.2272
は大	-11.2273
お聞き	-11.2273
イル	-11.2273
ような感じ	-11.2273
▁そこから	-11.2274
補給	-11.2275
イヤー	-11.2276
葬	-11.2277
インドネシア	-11.2277
オーガニック	-11.2277
(19	-11.2277
冷静に	-11.2278
HA	-11.2278
MP	-11.2278
車に	-11.2278
なっていく	-11.2278
指名	-11.2279
果物	-11.228
のお問い合わせ	-11.228
撮った	-11.2281
▁予めご了承ください	-11.2282
用いられ	-11.2282
が行われます	-11.2282
肌を	-11.2283
ようになっている	-11.2283
開催中	-11.2284
予報	-11.2284
諸国	-11.2286
ですからね	-11.2286
苦痛	-11.2287
上達	-11.2287
何だか	-11.2289
愛犬	-11.229
スペ	-11.229
アミノ酸	-11.2292
ガイドライン	-11.2295
したときに	-11.2295
借金を	-11.2299
▁それとも	-11.2299
変わってきます	-11.23
やること	-11.23
良いもの	-11.23
るようになる	-11.23
性の高い	-11.2302
SEX	-11.2304
と良いでしょう	-11.2304
ok	-11.2305
つもりです	-11.2306
カリキュラム	-11.2307
コト	-11.2307
糖質	-11.2308
名前が	-11.2311
に繋がる	-11.2313
▁前回の	-11.2313
完売	-11.2315
郵便局	-11.2315
友人に	-11.2315
ときも	-11.2315
事がある	-11.2317
裕	-11.2317
1980	-11.2318
太平洋	-11.2318
その前に	-11.2318
湿度	-11.2319
▁本来	-11.2319
独自	-11.232
消え	-11.2321
ru	-11.2323
みたいなもの	-11.2323
機能性	-11.2325
進歩	-11.2325
の話を	-11.2332
奥様	-11.2334
意識して	-11.2335
ニング	-11.2335
ウチ	-11.2336
歌う	-11.2338
を作りたい	-11.2339
という名前	-11.234
イチ	-11.234
一連の	-11.2341
部分の	-11.2342
を出て	-11.2342
営業日	-11.2342
騒	-11.2343
品物	-11.2344
青い	-11.2344
来院	-11.2346
CC	-11.235
を待つ	-11.2352
業者の	-11.2353
考えれば	-11.2354
併設	-11.2355
浴衣	-11.2355
うちは	-11.2356
周りの人	-11.2356
皆さんが	-11.2356
がうまく	-11.2357
その時の	-11.2359
▁う	-11.2359
財団	-11.236
寒く	-11.236
個人差	-11.236
ヴァン	-11.2361
考慮	-11.2361
HD	-11.2362
の悪い	-11.2363
使用できる	-11.2363
合同	-11.2363
を良く	-11.2363
送迎	-11.2366
っ子	-11.2367
ことがありません	-11.2368
品種	-11.2368
などにより	-11.2368
視線	-11.2368
ユニ	-11.2369
SI	-11.2371
を加えて	-11.2371
をもっと	-11.2372
▁いろんな	-11.2372
貧	-11.2372
家族に	-11.2373
06	-11.2373
ET	-11.2374
小学	-11.2378
he	-11.2378
っぱなし	-11.2378
ざる	-11.2379
とは言えない	-11.2379
を応援	-11.238
予約を	-11.2381
を利用すれば	-11.2381
なくてはなりません	-11.2383
次世代	-11.2383
に対応している	-11.2383
スタン	-11.2384
サラ	-11.2385
くださいました	-11.2386
に手を	-11.2387
ご相談下さい	-11.2388
▁下記の	-11.2388
たくさんの人	-11.2389
多いのではないでしょうか	-11.2389
BookLive	-11.2389
気になっていた	-11.2389
市長	-11.239
以後	-11.239
▁小さな	-11.2391
2%	-11.2391
の強い	-11.2393
が分からない	-11.2394
必要性	-11.2395
▁お店	-11.2396
ピザ	-11.2396
料金を	-11.2397
アドバイザー	-11.24
決められ	-11.2401
を迎えた	-11.2402
ぐらいの	-11.2402
側が	-11.2403
の下で	-11.2404
art	-11.2405
ひとりで	-11.2406
さすが	-11.2406
たいです	-11.2407
2002	-11.2408
な雰囲気	-11.241
の他	-11.2411
に関しても	-11.2411
表示されている	-11.2411
セフレ募集	-11.2412
額は	-11.2412
を増やして	-11.2413
おいしく	-11.2413
前まで	-11.2415
ゴールデンウィーク	-11.2415
まらない	-11.2415
例え	-11.2417
自信を持って	-11.2418
性の	-11.2419
われて	-11.242
掘り	-11.242
さっき	-11.242
ふく	-11.2421
含む	-11.2422
日常の	-11.2422
空間で	-11.2424
の範囲	-11.2426
信じられない	-11.2426
多々あります	-11.2426
ジャック	-11.2427
上げた	-11.2428
いたこと	-11.2428
本格	-11.2429
改定	-11.2429
されても	-11.243
強度	-11.2431
せん	-11.2432
くださって	-11.2432
相手は	-11.2432
結果が	-11.2433
賠償	-11.2434
情報発信	-11.2434
の季節	-11.2435
いただいた方	-11.2435
ポール	-11.2436
た後	-11.2437
中央区	-11.2438
やってきました	-11.2438
参加した	-11.2438
検索エンジン	-11.244
アク	-11.244
する場合があります	-11.2442
ラス	-11.2445
わけでもない	-11.2446
察	-11.2447
骨盤	-11.2447
来ない	-11.2447
宮崎	-11.2447
間隔	-11.2449
名義	-11.2449
暗号化	-11.245
する予定です	-11.2452
全体を	-11.2453
本文	-11.2453
風味	-11.2454
われている	-11.2456
しわ	-11.2456
が出来た	-11.2457
をお持ちの方	-11.2458
奪	-11.2459
が生まれる	-11.2462
堪能	-11.2462
話して	-11.2465
ラボ	-11.2468
▁普通の	-11.2471
出来ません	-11.2471
プレス	-11.2472
なってきています	-11.2473
を務め	-11.2473
友達が	-11.2473
長期間	-11.2474
高橋	-11.2475
(5	-11.2476
を聞いた	-11.2476
によっても	-11.2476
東京で	-11.2478
日以降	-11.2478
屈	-11.2479
嫁の浮気を見破る方法	-11.2479
かかり	-11.248
をうまく	-11.248
▁秋	-11.248
何回か	-11.248
近隣の	-11.248
自慢	-11.2482
京都市	-11.2483
ないのか	-11.2483
の一部を	-11.2484
が設置され	-11.2484
帰ってきた	-11.2485
投入	-11.2486
ましたね	-11.2486
人々は	-11.2486
最新情報	-11.2487
物は	-11.2487
したりして	-11.2487
理由を	-11.2488
注意して	-11.2489
医院	-11.2489
人たちに	-11.2489
編成	-11.249
利用者が	-11.2491
閉じ	-11.2492
おもしろい	-11.2493
につれて	-11.2493
クラフト	-11.2495
西洋	-11.2495
を演出	-11.2496
後期	-11.2496
南部	-11.2497
モテ	-11.2497
お客様の個人情報	-11.2498
わたしたち	-11.2499
のご依頼	-11.2499
って何	-11.25
に応じ	-11.2501
経った	-11.2502
の責任	-11.2503
後輩	-11.2503
子供は	-11.2504
実務	-11.2504
の人は	-11.2504
捨てる	-11.2505
シミュレーション	-11.2506
ウェ	-11.2508
解体	-11.2509
よー	-11.2509
クレ	-11.2509
年代の	-11.251
風が	-11.2511
▁普段は	-11.2515
託	-11.2516
の壁	-11.2519
戸建	-11.252
参拝	-11.2521
購読	-11.2522
抑制	-11.2522
てて	-11.2523
になってしまい	-11.2523
をつけた	-11.2525
レンタカー	-11.2526
ニック	-11.2527
染め	-11.2527
対処法	-11.2529
話を聞く	-11.253
精神的な	-11.2531
られるように	-11.2531
人目	-11.2532
行うこと	-11.2533
リース	-11.2534
僕ら	-11.2534
売れる	-11.2535
部屋で	-11.2536
世界中で	-11.2538
食堂	-11.2539
ない限り	-11.2541
満載	-11.2543
頑張り	-11.2544
の相談	-11.2547
かったです	-11.2547
を定め	-11.2549
雇	-11.2551
曲が	-11.2552
似た	-11.2553
付与	-11.2553
mail	-11.2554
で検索	-11.2555
全体が	-11.2557
っており	-11.2558
浮気不倫調査は探偵	-11.2559
確実な	-11.2562
登場した	-11.2563
が残っている	-11.2563
人気のある	-11.2564
ヒーロー	-11.2566
娘の	-11.2566
友達に	-11.2566
モチーフ	-11.2567
に囲まれた	-11.2568
をまとめました	-11.257
所在地	-11.257
ジャズ	-11.2571
くなります	-11.2572
を提供します	-11.2575
をゲット	-11.2576
復元	-11.2576
▁こう	-11.2577
緩	-11.2577
チェンジ	-11.2578
適切	-11.258
シャン	-11.258
アクティブ	-11.2582
ムービー	-11.2583
53	-11.2583
が入り	-11.2584
加熱	-11.2585
上部	-11.2585
が残って	-11.2586
オンラインショップ	-11.2586
学生時代	-11.2587
あた	-11.259
ポップ	-11.2592
盛り上がり	-11.2593
との事	-11.2593
なってきて	-11.2594
で見る	-11.2594
馴染み	-11.2594
なければいけません	-11.2595
多かった	-11.2597
見られない	-11.2597
大変なこと	-11.2597
るための	-11.2599
磨き	-11.2599
花火大会	-11.2599
崩れ	-11.26
が分かる	-11.2601
を下げ	-11.2601
の皆さま	-11.2602
撮	-11.2602
をご提案	-11.2603
を表す	-11.2606
が出来ない	-11.2606
ってしまいました	-11.2606
と思っていたのですが	-11.2608
を更新	-11.2609
川市	-11.2609
友人と	-11.2611
カーテン	-11.2611
優秀	-11.2613
▁Pro	-11.2613
モーター	-11.2613
食器	-11.2614
ワクチン	-11.2616
`)	-11.2618
披露	-11.2618
アイテムを	-11.2618
交流会	-11.2619
露出	-11.2619
キリスト教	-11.2619
二つの	-11.2619
▁Re	-11.2619
べきか	-11.2619
家づくり	-11.262
程度に	-11.262
診	-11.262
ていくこと	-11.262
学校に	-11.262
この人	-11.262
かえって	-11.2622
医師の	-11.2623
壁に	-11.2624
63	-11.2626
大量	-11.2627
挙	-11.2628
規約	-11.2628
だったのです	-11.263
サイトから	-11.2631
ことがわかりました	-11.2632
優れている	-11.2632
老舗	-11.2632
もうひとつ	-11.2632
賞を受賞	-11.2632
の表示	-11.2633
▁次回は	-11.2633
書いています	-11.2634
▁日本で	-11.2634
ぜひ一度	-11.2635
参考にしてみてください	-11.2635
になるのです	-11.2636
自分たち	-11.2637
他者	-11.2638
銀行の	-11.2638
適合	-11.2639
頑張る	-11.264
に設置	-11.2641
▁それまで	-11.2641
ハンドル	-11.2641
機材	-11.2642
生命保険	-11.2643
ないでしょう	-11.2643
セブン	-11.2644
てくれました	-11.2645
少なからず	-11.2647
メンバーが	-11.2648
重宝	-11.2648
しておいて	-11.2648
も非常に	-11.2649
手入れ	-11.2651
を動かす	-11.2651
当事務所	-11.2651
を請求	-11.2651
分散	-11.2652
ショット	-11.2652
出来なかった	-11.2652
って言う	-11.2654
になるように	-11.2654
ご注意	-11.2654
如何	-11.2656
物の	-11.2658
になっていく	-11.2658
いつもの	-11.266
くら	-11.2661
時間半	-11.2663
▁たとえ	-11.2663
各自	-11.2663
してある	-11.2664
の発生	-11.2665
という形で	-11.2666
受給	-11.2667
ことでも	-11.2669
無料相談	-11.2669
化して	-11.2671
我々の	-11.2671
とは思う	-11.2671
を見ても	-11.2672
したかった	-11.2676
株主	-11.2677
忙しくて	-11.2678
を改善する	-11.2679
ように感じます	-11.2679
置き換え	-11.2679
目を向け	-11.268
4000	-11.268
API	-11.2681
はできない	-11.2682
くらいで	-11.2682
解散	-11.2683
恐	-11.2683
を与えて	-11.2683
話です	-11.2684
仙	-11.2684
まちづくり	-11.2687
訳で	-11.2687
どちらの	-11.2688
▁ネットで	-11.2689
させるために	-11.2693
咲	-11.2693
を引き起こす	-11.2697
女性も	-11.2698
ねえ	-11.2698
数を	-11.2699
だろうが	-11.2699
産地	-11.27
辛	-11.2701
をしていて	-11.2702
個別に	-11.2703
の発表	-11.2704
この作品	-11.2706
どんなもの	-11.2707
登場人物	-11.2707
▁自宅	-11.2707
主催者	-11.2708
高収入	-11.2709
言い方	-11.2709
測	-11.2709
と合わせて	-11.2711
製品は	-11.2712
干	-11.2714
古く	-11.2716
見通し	-11.2717
流し	-11.2718
に関わらず	-11.272
暑く	-11.2722
が大好きな	-11.2722
はまだまだ	-11.2723
てみました	-11.2724
勧誘	-11.2725
解決策	-11.2726
創立	-11.2727
体育館	-11.2727
高血圧	-11.2728
感心	-11.2729
集会	-11.2729
いたしております	-11.2731
この度	-11.2731
▁100	-11.2732
CT	-11.2733
整体	-11.2733
発明	-11.2733
するときに	-11.2734
死んだ	-11.2735
ことはありませんか	-11.2735
ねー	-11.2735
も必要	-11.2736
済	-11.2736
GW	-11.2739
真っ	-11.274
したという	-11.274
模	-11.2741
買え	-11.2741
常時	-11.2742
費用が	-11.2742
▁大変	-11.2742
髪型	-11.2742
できなくなる	-11.2742
世話	-11.2742
▁平日	-11.2743
息を	-11.2744
を閉じ	-11.2744
限定の	-11.2745
ニコ	-11.2745
が生まれ	-11.2745
しているのですが	-11.2745
全国で	-11.2746
ッキー	-11.2746
▁それだけ	-11.2747
を搭載	-11.2747
周囲に	-11.2749
遣	-11.2749
消えて	-11.2749
映画の	-11.2752
東海	-11.2752
▁弊社は	-11.2753
大和	-11.2754
ゲン	-11.2754
、2013	-11.2755
メンタル	-11.2756
▁毎月	-11.2756
国産	-11.2756
でなく	-11.2757
重大な	-11.2758
関係を	-11.2759
人にも	-11.276
細かな	-11.276
を集める	-11.2761
の運営	-11.2761
仕事や	-11.2763
▁お問い合わせ	-11.2764
いらっしゃいました	-11.2764
とらえ	-11.2764
注意事項	-11.2764
がない場合は	-11.2764
にもなり	-11.2765
延期	-11.2765
で開催	-11.2766
DE	-11.2766
の成果	-11.2767
とは異なる	-11.2768
の一種	-11.2768
イベントで	-11.2768
山市	-11.2769
▁昨日の	-11.277
深さ	-11.277
お会い	-11.2771
口を	-11.2772
承ります	-11.2774
につきまして	-11.2774
アンテナ	-11.2775
の強さ	-11.2775
のせい	-11.2777
を制作	-11.2778
変わってくる	-11.278
旅の	-11.278
子宮	-11.278
ことだと思います	-11.278
を立て	-11.278
はどのような	-11.2781
の内容は	-11.2781
モール	-11.2785
即日融資	-11.2786
歌って	-11.2786
お使いの	-11.2788
Blu	-11.2789
各地で	-11.279
するようにしましょう	-11.2793
大勢の	-11.2793
写真撮影	-11.2793
出会え	-11.2794
に悩まされ	-11.2795
日頃	-11.2795
岡山	-11.2796
info	-11.2797
かね	-11.2798
弊社の	-11.2798
この頃	-11.28
政府は	-11.28
デル	-11.2801
してくれている	-11.2801
集まった	-11.2804
▁リ	-11.2804
のニーズ	-11.2805
お見合い	-11.2806
阪神	-11.2807
飲料	-11.2808
企業に	-11.281
あなたも	-11.2811
カツ	-11.2813
はならない	-11.2813
マイク	-11.2816
泣いて	-11.2816
万一	-11.2818
勤	-11.2818
使われて	-11.2819
開発者	-11.2819
が来た	-11.2819
自律神経	-11.2822
いますか	-11.2822
ハードル	-11.2822
であるが	-11.2824
ランプ	-11.2826
ギリギリ	-11.2826
遅延	-11.2826
目線	-11.2827
することはありません	-11.283
88	-11.2831
できないこと	-11.2833
ことがあった	-11.2833
迷惑メール	-11.2835
に変化	-11.2836
はありますか	-11.2836
未満	-11.2836
(3	-11.2837
世代の	-11.2838
になってきます	-11.2839
が上がって	-11.2839
車種	-11.2839
ッパー	-11.2839
▁しばらく	-11.2841
一般に	-11.2841
の安全	-11.2842
スライド	-11.2842
言及	-11.2846
見れる	-11.2846
すぎると	-11.2846
を開催いたします	-11.2847
の少ない	-11.2847
が得られる	-11.2849
味方	-11.2849
ズレ	-11.2849
単価	-11.285
データが	-11.285
アップル	-11.2851
日頃から	-11.2852
首都	-11.2854
に達し	-11.2855
ストリート	-11.2856
てしまうこと	-11.2857
ローズ	-11.2858
の取り組み	-11.2858
られること	-11.2859
キリ	-11.286
ぴったり	-11.286
ーション	-11.2861
健康診断	-11.2861
を押	-11.2861
癒され	-11.2861
ライブラリ	-11.2862
研究室	-11.2863
して頂き	-11.2864
脂	-11.2865
出された	-11.2866
予定の	-11.2867
あん	-11.2867
感性	-11.2868
叶	-11.2868
最強	-11.2869
もあるようです	-11.2869
一括査定	-11.287
進路	-11.2872
自分の好きな	-11.2872
復縁	-11.2874
ダイニング	-11.2874
予防接種	-11.2874
写真を撮る	-11.2876
ひろ	-11.2876
ゆったりと	-11.2877
カス	-11.2877
エキス	-11.2878
内容や	-11.2878
中村	-11.2879
ことができるでしょう	-11.288
施設の	-11.288
継承	-11.2881
承知	-11.2882
在住	-11.2882
によって異なります	-11.2883
既婚者	-11.2884
スカイ	-11.2884
眠り	-11.2888
支店	-11.2888
ライバル	-11.2889
▁多分	-11.2889
ess	-11.289
歴史的	-11.2891
ント	-11.2894
The	-11.2895
腫れ	-11.2895
混ぜ	-11.2896
高速道路	-11.2898
理想的な	-11.2898
正面	-11.2898
テック	-11.2899
とは異なり	-11.2899
を行なう	-11.29
ソニー	-11.29
▁どちらも	-11.2901
に連れて	-11.2901
版の	-11.2901
しまったので	-11.2902
になるまで	-11.2904
大きくなって	-11.2905
取り上げられ	-11.2906
しましたので	-11.2907
ボート	-11.2907
ご了承下さい	-11.2907
が集まり	-11.2909
西日本	-11.2909
と同	-11.2909
がついた	-11.291
データは	-11.2911
イメージが	-11.2918
が付いている	-11.2919
日本人は	-11.2921
苦しみ	-11.2921
人々に	-11.2921
が広がって	-11.2922
その点	-11.2924
すべてが	-11.2924
▁これまでの	-11.2926
(18	-11.2926
じゃなかった	-11.2927
たて	-11.2928
の施術	-11.2929
に電話	-11.2929
岩手県	-11.2929
市販の	-11.2929
当たる	-11.2929
の一つとして	-11.293
清水	-11.293
津市	-11.2931
どうすればいい	-11.2932
豪雨	-11.2932
人なら	-11.2932
化し	-11.2934
を売る	-11.2934
還元	-11.2935
耐震	-11.2936
納め	-11.2937
を見つめ	-11.2937
お店を	-11.2938
行なわれ	-11.2938
刑事	-11.2939
ブレーキ	-11.294
出費	-11.2941
卒業後	-11.2941
事業の	-11.2941
のでしょうね	-11.2943
状態が	-11.2944
と違い	-11.2945
育毛	-11.2945
▁漫画	-11.2947
質問を	-11.2948
さないように	-11.2948
いるような	-11.2949
時間以上	-11.2951
連盟	-11.2952
届出	-11.2953
着る	-11.2953
デザインを	-11.2955
存在しない	-11.2956
の舞台	-11.2956
全世界	-11.2956
試してみる	-11.2957
街中	-11.2958
▁本当は	-11.2958
個人で	-11.2958
過ぎた	-11.2958
でなければ	-11.2958
価値がある	-11.2958
を再	-11.2959
といえるでしょう	-11.2959
UI	-11.296
かる	-11.2961
などがあります	-11.2962
放題	-11.2963
頑張っている	-11.2964
知名度	-11.2964
お姉さん	-11.2964
美味しかったです	-11.2964
ちゃって	-11.2965
ないまま	-11.2965
臓	-11.2966
いいでしょう	-11.2967
こともあって	-11.2967
から約	-11.2968
スクリプト	-11.2969
外側	-11.2969
▁画像	-11.2969
やれる	-11.297
通って	-11.2971
夢を	-11.2973
▁ホーム	-11.2974
ご記入	-11.298
自衛隊	-11.2981
▁久しぶりに	-11.2982
できるようになった	-11.2982
私自身	-11.2982
新商品	-11.2982
契約を	-11.2982
お知らせください	-11.2983
SH	-11.2985
スタッフに	-11.2986
説明書	-11.2986
わけではないので	-11.2986
救急	-11.2986
書面	-11.2987
使われています	-11.2988
お疲れ様でした	-11.2988
への対応	-11.2989
ホッと	-11.299
かねません	-11.299
目覚め	-11.2992
肥満	-11.2992
研究開発	-11.2992
怪しい	-11.2993
ce	-11.2993
だなぁ	-11.2993
を観	-11.2993
サービスで	-11.2993
分野の	-11.2995
お店が	-11.2995
最安値	-11.2996
万全	-11.2998
を果た	-11.2998
四国	-11.3002
の見直し	-11.3003
れました	-11.3003
適当に	-11.3004
が運営する	-11.3005
確認できる	-11.3007
乱れ	-11.3011
戦う	-11.3012
画面の	-11.3012
いきません	-11.3012
会館	-11.3012
販売している	-11.3012
込んでいる	-11.3013
済ませ	-11.3014
(4	-11.3016
しようと思います	-11.3016
乗せ	-11.3016
あわせ	-11.3019
呼びかけ	-11.3021
Me	-11.3021
辞め	-11.3022
てい	-11.3023
付く	-11.3023
全体で	-11.3023
お届けします	-11.3023
どうしたら	-11.3024
老人	-11.3025
2〜3	-11.3025
未来の	-11.3026
68	-11.3027
感じている	-11.3028
限られた	-11.3029
引き上げ	-11.303
無かった	-11.303
を決定	-11.303
誠に	-11.3035
供	-11.3036
東京の	-11.3036
▁台風	-11.3036
含まれている	-11.3036
朝日	-11.3038
見かけた	-11.3042
値段が	-11.3044
の参加	-11.3047
なってきます	-11.3047
変化する	-11.3048
ませんので	-11.3048
らん	-11.3049
▁今週	-11.3049
意外な	-11.305
を増	-11.3051
買い取り	-11.3051
つに	-11.3051
豊かに	-11.3052
説明する	-11.3052
という印象	-11.3052
フライト	-11.3054
通った	-11.3055
▁クリスマス	-11.3055
が終わって	-11.3057
試しに	-11.3057
が必須	-11.3058
いじ	-11.3059
追記	-11.3059
伝えた	-11.306
のお客様は	-11.3061
ありませんが	-11.3062
している場合	-11.3063
に取り組んで	-11.3064
沿い	-11.3065
酸化	-11.3065
与え	-11.3066
リセット	-11.3068
積極的な	-11.3068
オランダ	-11.3068
▁早速	-11.3068
ウィン	-11.3071
見ることができます	-11.3072
に取り	-11.3073
皮脂	-11.3074
▁2009	-11.3074
静岡	-11.3075
95	-11.3076
エステサロン	-11.3076
▁いろいろな	-11.3077
感じがします	-11.3077
上場	-11.3078
下がり	-11.3078
モジュール	-11.308
オンラインショッピングの	-11.308
なきゃいけない	-11.308
に沿った	-11.3083
印鑑	-11.3084
音を	-11.3086
02	-11.3087
あるもの	-11.3089
両立	-11.309
仕方	-11.309
事前の	-11.309
日本全国	-11.309
したいと	-11.3091
主催の	-11.3091
▁もっとも	-11.3092
シニア	-11.3092
を持つこと	-11.3092
面白さ	-11.3092
を聞き	-11.3095
日帰り	-11.3095
リーズナブルな	-11.3097
▁明日は	-11.3098
カ国	-11.3098
貸切	-11.3098
も少なく	-11.3098
尚	-11.31
期間中に	-11.3101
と一緒	-11.3102
完全な	-11.3102
それこそ	-11.3103
るだけ	-11.3105
しないでください	-11.3105
▁昔は	-11.3105
ネタバレ	-11.3105
が低下し	-11.3105
を残す	-11.3106
見方	-11.3107
持っていく	-11.3107
ホテルで	-11.3108
姉妹	-11.3108
満足しています	-11.3111
一度に	-11.3112
添加物	-11.3112
んじゃないでしょうか	-11.3113
血糖値	-11.3117
大手の	-11.3117
大人気	-11.3117
大ヒット	-11.3118
▁40	-11.3118
へのリンク	-11.312
年賀状	-11.312
▁沖縄	-11.312
って思う	-11.312
GA	-11.3122
国連	-11.3123
長野	-11.3124
来日	-11.3125
フラッシュ	-11.3126
ベンチ	-11.3126
ョ	-11.3126
EU	-11.3126
責め	-11.3128
ネーム	-11.3129
ものも	-11.3129
▁だって	-11.313
しているのが	-11.313
情報も	-11.3131
楽に	-11.3131
77	-11.3134
手がけ	-11.3134
その通り	-11.3136
対応を	-11.3136
の場所	-11.3137
予めご了承下さい	-11.3137
状況が	-11.3138
今週末	-11.3138
する時	-11.3139
更なる	-11.3141
どちらかというと	-11.3142
▁すぐに	-11.3142
シェフ	-11.3143
大事なこと	-11.3147
スタッフは	-11.3148
頼んで	-11.3149
神の	-11.3149
恐ろしい	-11.3149
わかっている	-11.3149
ホー	-11.3149
運営している	-11.315
しょうがない	-11.3151
菓子	-11.3152
いるか	-11.3152
▁一般的な	-11.3153
方など	-11.3154
出演者	-11.3155
録	-11.3156
お客様へ	-11.3162
韓国の	-11.3163
をご紹介いたします	-11.3163
種類があります	-11.3164
天使	-11.3167
を過ぎて	-11.3169
を入力する	-11.3169
をリリース	-11.317
うた	-11.317
の関係で	-11.317
ものなのか	-11.3172
たい方	-11.3172
幼児	-11.3173
どうでもいい	-11.3173
お薬	-11.3174
を選択します	-11.3174
絡	-11.3175
津波	-11.3175
微妙な	-11.3176
で有名な	-11.3177
とは別に	-11.3179
ような気がして	-11.318
本学	-11.318
穏やかな	-11.3181
パッチ	-11.3183
目の前の	-11.3183
を心がけ	-11.3186
頼む	-11.3188
に注意	-11.3189
の方には	-11.319
多摩	-11.319
は自分で	-11.3191
掛かる	-11.3191
フリ	-11.3192
通行	-11.3193
申し上げ	-11.3193
通報	-11.3194
催	-11.3194
カードは	-11.3195
んじゃないの	-11.3195
家が	-11.3195
あう	-11.3197
るのに	-11.3197
洗濯機	-11.3198
を決めた	-11.3199
こともあるので	-11.3201
埼玉	-11.3201
保つ	-11.3201
取得した	-11.3202
債権	-11.3203
つです	-11.3204
サム	-11.3204
養成	-11.3206
がございますので	-11.3209
人気商品を掲載しています	-11.3209
ray	-11.321
と思うけど	-11.3211
商品です	-11.3212
サイズが	-11.3213
ロケーション	-11.3214
を促す	-11.3214
ものだと	-11.3214
俺が	-11.3217
対象外	-11.3217
関与	-11.3218
を目的とした	-11.3218
する予定	-11.3219
結婚したい	-11.3219
しまして	-11.3221
を購入した	-11.3222
幸せに	-11.3222
に期待	-11.3224
無限	-11.3225
85	-11.3225
正式に	-11.3225
も増えて	-11.3226
お待ちしています	-11.3227
寺院	-11.3227
を少し	-11.3229
▁それも	-11.3229
自社の	-11.3229
人として	-11.3229
が追加され	-11.323
を変更する	-11.323
▁ビジネス	-11.323
62	-11.3231
降りて	-11.3231
▁初	-11.3232
コム	-11.3233
テレビ番組	-11.3233
治療薬	-11.3234
眼鏡	-11.3237
が出ない	-11.3237
変数	-11.3238
航空会社	-11.3238
留守	-11.3239
本校	-11.3239
色を	-11.324
を検討している	-11.3241
いっ	-11.3242
ブランドの	-11.3242
シナリオ	-11.3242
になってきました	-11.3243
代目	-11.3243
が続いています	-11.3245
コマ	-11.3246
落ち着き	-11.3246
住んで	-11.3246
なんですよ	-11.3247
と呼ぶ	-11.3248
未経験	-11.3248
の実現	-11.3251
撮れ	-11.3251
関係性	-11.3252
戻って	-11.3252
迷って	-11.3253
割り切り	-11.3255
店頭で	-11.3255
ご主人	-11.3256
AD	-11.3256
知れ	-11.3256
の受付	-11.3257
のかどうか	-11.3257
を身につけ	-11.3259
総合的に	-11.3259
ものづくり	-11.3259
▁そのためには	-11.3261
があるのは	-11.3266
この先	-11.3266
と同じく	-11.3268
期の	-11.3268
学生の	-11.3268
撮る	-11.3268
エリアで	-11.3269
っちゃ	-11.327
視力	-11.327
da	-11.3271
久しぶりの	-11.3272
くらいです	-11.3273
▁そんなこと	-11.3273
▁このたび	-11.3274
用事	-11.3274
美味しさ	-11.3275
～10	-11.3277
機会があれば	-11.3277
トンネル	-11.3279
を受けられる	-11.3279
血流	-11.328
芝	-11.3281
車は	-11.3282
であることが	-11.3283
と実感	-11.3284
をご参照ください	-11.3285
シーンで	-11.3286
やりとり	-11.3286
等について	-11.3287
改造	-11.3288
を楽しみたい	-11.3289
流出	-11.329
様が	-11.3291
返却	-11.3292
参考にして	-11.3294
なくてもいい	-11.3295
会いたい	-11.3295
スタンダード	-11.3295
もらえた	-11.3298
に出席	-11.3298
方もいらっしゃる	-11.3299
おっしゃって	-11.33
はるかに	-11.33
を設立	-11.3302
アメリカで	-11.3304
仰	-11.3304
だか	-11.3306
んな	-11.3306
様々	-11.3308
があるかもしれません	-11.3308
退会	-11.3309
燃え	-11.3309
患	-11.331
いち	-11.331
息子が	-11.3311
考察	-11.3312
我々は	-11.3312
泣	-11.3312
仕事も	-11.3312
鹿児島県	-11.3314
及	-11.3316
)』	-11.3316
とんでもない	-11.3316
と言われます	-11.3318
▁音楽	-11.3318
張って	-11.3319
来ます	-11.332
たいてい	-11.332
育てて	-11.3322
だからです	-11.3323
なってしまいます	-11.3324
やま	-11.3324
の整備	-11.3325
見せる	-11.3325
誘って	-11.3325
ノリ	-11.3326
...!	-11.3327
地面	-11.3329
がメイン	-11.3329
シス	-11.3329
観た	-11.333
お店は	-11.333
こんな感じで	-11.3331
App	-11.3334
ことが大事	-11.3336
ジュエリー	-11.3336
木県	-11.3336
登録して	-11.3336
穏やか	-11.3337
手前	-11.3341
エー	-11.3341
止まって	-11.3341
家庭で	-11.3342
しばしば	-11.3343
に欠かせない	-11.3343
4/	-11.3344
短期間で	-11.3344
▁ずっと	-11.3345
登場する	-11.3345
子に	-11.3347
ビス	-11.3348
劇場版	-11.3348
来月	-11.3349
母が	-11.335
記事が	-11.335
も出	-11.335
ことが判明	-11.3351
土曜	-11.3351
なんとも	-11.3352
身体が	-11.3352
ネットショップ	-11.3353
無料体験	-11.3353
が増えています	-11.3353
フェイスブック	-11.3355
履歴書	-11.3356
イノベーション	-11.3357
オーディオ	-11.3357
ウォッチ	-11.3357
間違っている	-11.3357
はどのように	-11.3358
全てが	-11.3361
待遇	-11.3361
確信	-11.3361
ご指定	-11.3361
にすると	-11.3362
を選び	-11.3362
知識を	-11.3362
就活	-11.3362
親の	-11.3363
ガル	-11.3363
に努め	-11.3364
の詳細は	-11.3365
はまったく	-11.3365
ブログの	-11.3366
値段で	-11.3367
こともなく	-11.3368
雨の日	-11.3368
させて頂き	-11.3369
シェル	-11.3369
その内容	-11.3369
処理を	-11.337
だけだ	-11.337
がつかない	-11.3373
参りました	-11.3374
様子を	-11.3374
迷惑をかけ	-11.3375
書きます	-11.3375
車内	-11.3375
ご確認下さい	-11.3375
プロミス	-11.3375
修行	-11.3375
ことが大事です	-11.3376
楽しそう	-11.3376
歌を	-11.3377
スポンサー	-11.3377
と聞くと	-11.3378
がとれ	-11.3379
締結	-11.3379
注目されている	-11.3379
たいと	-11.3381
エージェント	-11.3381
子も	-11.3382
ネック	-11.3383
販売されています	-11.3383
札幌市	-11.3383
するだけ	-11.3384
▁この時	-11.3385
額の	-11.3385
整骨院	-11.3386
ジョー	-11.3386
する際は	-11.3388
締め切り	-11.3389
ドロップ	-11.339
▁僕が	-11.339
使用した	-11.3391
▁最新の	-11.3391
複合	-11.3392
▁主に	-11.3393
理解できる	-11.3393
に分けて	-11.3394
アウトドア	-11.3395
がたくさんある	-11.3398
梨	-11.3398
ライダー	-11.3398
縮小	-11.34
を避ける	-11.3402
定期的な	-11.3402
必死	-11.3402
～2	-11.3404
ゆったり	-11.3405
▁下	-11.3405
べきだ	-11.3406
たまま	-11.3407
多いです	-11.3407
承っております	-11.3407
関係が	-11.3408
の特性	-11.3408
ふり	-11.3409
お求め	-11.341
だけなので	-11.341
柔らかく	-11.341
年より	-11.341
反面	-11.3411
ag	-11.3411
システムを	-11.3411
は無料です	-11.3411
けい	-11.3412
▁マ	-11.3412
安倍	-11.3412
現場の	-11.3413
行われました	-11.3415
(^^)	-11.3415
名前は	-11.3416
店は	-11.3418
上り	-11.3418
単純	-11.342
は無く	-11.3421
じゃあ	-11.3422
飼	-11.3422
細な	-11.3424
スは	-11.3425
見かける	-11.3426
を目的として	-11.3428
かける	-11.3429
が生じ	-11.3429
方々の	-11.3429
スパイ	-11.343
枚数	-11.3431
僕も	-11.3431
を狙って	-11.3431
に浸	-11.3432
個の	-11.3432
たのですが	-11.3432
ターン	-11.3432
リアルタイム	-11.3432
辞書	-11.3433
気付いた	-11.3434
▁大きな	-11.3435
調和	-11.3435
ンズ	-11.3436
その中でも	-11.3437
分ける	-11.344
年に一度	-11.3441
就労	-11.3441
為替	-11.3441
メー	-11.3441
だろうな	-11.3441
いいのですが	-11.3441
したことで	-11.3442
不在	-11.3443
の一人	-11.3444
待ち時間	-11.3444
行ったこと	-11.3445
プラザ	-11.3445
NTT	-11.3445
その日	-11.3446
がほとんどです	-11.3446
▁2008	-11.3447
の作り方	-11.3447
は自分の	-11.3448
▁最後の	-11.3448
卒業生	-11.3448
どういうこと	-11.345
飲み放題	-11.345
世に	-11.3451
は他の	-11.3452
も同様	-11.3452
痛く	-11.3453
を徹底	-11.3454
したのか	-11.3456
遺言	-11.3456
クラウドファンディング	-11.3456
のあり方	-11.3457
エレ	-11.3458
どうなるか	-11.3458
目撃	-11.3458
を傷つけ	-11.346
なったり	-11.346
超え	-11.346
共演	-11.3461
あるのか	-11.3462
足元	-11.3463
社員の	-11.3463
制約	-11.3463
を整える	-11.3464
レディース	-11.3465
に渡って	-11.3466
入ってくる	-11.3466
語学	-11.3466
▁24	-11.3468
過ぎる	-11.3471
ございません	-11.3471
をサポートする	-11.3472
気にならない	-11.3473
以前より	-11.3475
に合わせ	-11.3476
連動	-11.3476
98	-11.3477
1990	-11.3478
しませんでした	-11.3478
かどうかを	-11.3478
BC	-11.3478
でもいい	-11.3479
blog	-11.3481
当サイトで紹介している	-11.3482
全国に	-11.3482
岡山県	-11.3484
認められ	-11.3484
してあげる	-11.3485
に所属	-11.3486
入札	-11.3488
を覚えて	-11.3489
歩いている	-11.3493
2.5	-11.3494
される方は	-11.3494
おこう	-11.3495
都心	-11.3497
〇	-11.3498
を取った	-11.3499
いな	-11.3499
を結ぶ	-11.3503
持ち込み	-11.3503
▁ご希望の	-11.3503
▁妊娠	-11.3504
ab	-11.3504
短時間で	-11.3505
航	-11.3506
締め	-11.3506
レモン	-11.3508
は必須	-11.3509
だけれど	-11.351
ない人	-11.3511
を入力して	-11.3511
視聴率	-11.3511
相続税	-11.3512
はいない	-11.3512
の必要性	-11.3513
推移	-11.3515
たところ	-11.3518
技術力	-11.3519
を生み出す	-11.3519
入居者	-11.3519
見守って	-11.352
▁いくら	-11.3521
ムラ	-11.3521
▁マンション	-11.3522
が起き	-11.3522
ことを考えると	-11.3524
境内	-11.3524
▁私の場合	-11.3524
▁全ての	-11.3527
DI	-11.3529
押す	-11.3531
並びに	-11.3531
ほんとに	-11.3532
数分	-11.3533
で撮影	-11.3534
半額	-11.3534
が届く	-11.3535
なのでしょう	-11.3535
しているもの	-11.3535
あげた	-11.3536
サポーター	-11.3537
かしら	-11.3538
帰った	-11.3538
▁先ほど	-11.3539
おススメ	-11.3539
できないので	-11.354
目が覚め	-11.354
扱う	-11.354
のコメント	-11.3542
OR	-11.3543
をクリックしてください	-11.3544
カウンセラー	-11.3544
念のため	-11.3545
を楽しみに	-11.3546
に成功	-11.3546
翌年	-11.3547
みに	-11.3547
たいと思っている	-11.3548
として活躍	-11.3548
させてくれる	-11.3549
肩こり	-11.3549
SSL	-11.355
さんで	-11.3551
欠点	-11.3551
出てきます	-11.3552
わからなかった	-11.3553
律	-11.3554
形の	-11.3555
が届きました	-11.3556
全てを	-11.3556
次の日	-11.3556
...?	-11.3559
高まって	-11.3562
あなたを	-11.3563
伝わって	-11.3563
となりますが	-11.3563
合併	-11.3564
にご	-11.3564
は多く	-11.3564
のレベル	-11.3564
規模の	-11.3565
は多い	-11.3567
に力を入れ	-11.3567
バブル	-11.3567
続けています	-11.3568
▁万が一	-11.357
▁TV	-11.3571
過程で	-11.3571
メールの	-11.3572
▁私たちが	-11.3572
を募集	-11.3573
ヨーグルト	-11.3574
動きが	-11.3574
交差点	-11.3576
▁通常の	-11.3576
大満足	-11.3576
折れ	-11.3577
言いたい	-11.3578
かさ	-11.3578
年ほど	-11.3579
聞かれる	-11.358
を守って	-11.358
ロビー	-11.3582
メキシコ	-11.3582
▁さすがに	-11.3583
で確認	-11.3583
先週	-11.3583
する上で	-11.3584
がなくなる	-11.3584
溢れる	-11.3584
セイ	-11.3585
したい場合は	-11.3588
仲間と	-11.3588
担	-11.359
を隠	-11.359
が減って	-11.3591
数え	-11.3591
人格	-11.3595
セールス	-11.3597
権力	-11.3598
上海	-11.3598
参入	-11.3599
▁どうやら	-11.3599
を見ることができます	-11.3599
分けて	-11.3599
木曜日	-11.36
アコム	-11.36
てしまっている	-11.36
圧迫	-11.3601
と言うと	-11.3601
▁大学	-11.3602
バリエーション	-11.3603
からすると	-11.3603
誤り	-11.3603
舎	-11.3605
の誕生日	-11.3606
に保存	-11.3606
360	-11.3606
一同	-11.3607
景観	-11.3607
言葉は	-11.3608
間取り	-11.3608
素早く	-11.3608
▁このサイト	-11.3608
事業を	-11.361
介護保険	-11.3612
防水	-11.3614
欲しかった	-11.3615
貼り	-11.3616
素晴らし	-11.3616
続けられる	-11.3616
だと思っている	-11.3617
パーセント	-11.3617
ガード	-11.3617
▁わたしは	-11.3618
を提供し	-11.3619
お待たせ	-11.3621
に行か	-11.3622
まえ	-11.3625
慢性	-11.3625
をあげて	-11.3627
下ろ	-11.3628
スルー	-11.3628
駄目	-11.3629
のとおり	-11.3629
が豊富	-11.363
▁駐車場	-11.363
ることができ	-11.3631
リアン	-11.3631
倍の	-11.3634
精神的に	-11.3635
癒	-11.3637
発酵	-11.3638
されず	-11.3639
悩ま	-11.3639
当日は	-11.3639
も充実	-11.3641
つくり	-11.3642
ことにした	-11.3642
お任せ	-11.3642
が発生します	-11.3643
ものだった	-11.3644
肥	-11.3645
ぱ	-11.3646
以降は	-11.3646
からスタート	-11.3647
見積り	-11.3647
わか	-11.365
家を売る	-11.365
紅	-11.365
見ていた	-11.3653
町に	-11.3654
家は	-11.3654
イイ	-11.3654
あらすじ	-11.3655
ことがありました	-11.3655
を考慮して	-11.3656
▁ID	-11.3657
を整え	-11.3657
してあります	-11.3657
が見つかる	-11.366
る必要があります	-11.366
加盟	-11.366
▁(1)	-11.3661
君の	-11.3662
した後に	-11.3662
グラム	-11.3662
必要はない	-11.3664
ないで	-11.3664
充分	-11.3665
ドーム	-11.3666
と考えられています	-11.3667
確認する	-11.3667
楽しみに	-11.3667
麗	-11.3667
仮に	-11.3668
ia	-11.3668
助成	-11.3668
▁色々な	-11.3669
響	-11.3669
可能性を	-11.3671
DL	-11.3671
ディレクトリ	-11.3672
調味料	-11.3672
スプレー	-11.3673
彼女と	-11.3673
を掲げ	-11.3674
お答え	-11.3674
どちらが	-11.3674
で見た	-11.3675
に変換	-11.3676
買取価格	-11.3677
ところまで	-11.3678
救	-11.3679
との交流	-11.368
主役	-11.368
▁自然	-11.3681
うえ	-11.3682
留め	-11.3682
髪を	-11.3683
もっともっと	-11.3685
先で	-11.3685
DO	-11.3686
責任を	-11.3686
恥ずかし	-11.3687
掲載されている	-11.3687
に分かれて	-11.3688
コンタクト	-11.3688
税抜	-11.369
専門医	-11.3692
プロフェッショナル	-11.3693
急激に	-11.3693
がまだ	-11.3694
伊藤	-11.3694
まっている	-11.3695
▁非常に	-11.3695
してみて下さい	-11.3695
人は多い	-11.3696
ッタ	-11.3696
の指導	-11.3697
ガラ	-11.3699
▁(※	-11.3699
そのとき	-11.37
っていうのは	-11.37
けん	-11.3701
キャッシュバック	-11.3703
館内	-11.3703
青森県	-11.3703
▁まさに	-11.3704
現行	-11.3704
引き出し	-11.3705
イルミネーション	-11.3706
道の駅	-11.3706
にあわせて	-11.3707
望む	-11.3707
社会に	-11.3707
方もいる	-11.3707
へ行って	-11.3707
学べる	-11.3708
ベリー	-11.3708
中継	-11.3709
家の中	-11.3709
トルコ	-11.3709
バグ	-11.371
ハーフ	-11.3713
を支払う	-11.3713
落ちた	-11.3713
繋がって	-11.3714
▁当社では	-11.3714
集計	-11.3714
たとえば	-11.3715
なのかもしれない	-11.3716
地で	-11.3716
過ぎると	-11.3716
お肌に	-11.3723
ビジュアル	-11.3723
を集め	-11.3725
収容	-11.3726
を必要とする	-11.3726
トップページ	-11.3726
額を	-11.3727
側で	-11.3727
エクササイズ	-11.3727
以前は	-11.373
シンポジウム	-11.3731
フランスの	-11.3732
正確	-11.3733
という意見	-11.3735
推薦	-11.3736
企業様	-11.3736
んでしょう	-11.3736
▁南	-11.3736
以内に	-11.3737
差し上げ	-11.3737
日に発売	-11.3739
を深め	-11.3739
描く	-11.374
トレーナー	-11.374
で買う	-11.3741
者を	-11.3742
シワ	-11.3742
を合わせて	-11.3743
幾	-11.3743
ファイルの	-11.3745
ございました	-11.3748
安くて	-11.3748
から徒歩	-11.3749
週間ほど	-11.375
を生み出し	-11.3751
させていただきますので	-11.3753
少人数	-11.3755
▁日本語	-11.3756
前向きに	-11.3757
ことが出来	-11.3758
のち	-11.3758
無理な	-11.3761
を理解する	-11.3762
母の	-11.3762
を表現	-11.3763
残る	-11.3763
▁過去	-11.3764
川崎	-11.3764
身の	-11.3765
食感	-11.3766
ツー	-11.3767
を着て	-11.3767
万ドル	-11.3767
返り	-11.3768
ba	-11.3769
全体に	-11.377
Con	-11.3773
無理に	-11.3774
出ない	-11.3775
謝罪	-11.3775
しゃべ	-11.3777
反射	-11.3779
スコ	-11.378
咲き	-11.3781
友だち	-11.3781
寝ている	-11.3781
を育て	-11.3782
をどのように	-11.3785
がありませんでした	-11.3785
記事の	-11.3786
のかも	-11.3786
の中にも	-11.3786
▁購入	-11.3788
▁お金	-11.3788
経験がある	-11.3788
たまには	-11.3788
いなかったので	-11.3788
を入手	-11.3789
浮気調査	-11.3789
ッカ	-11.3789
▁クレジットカード	-11.379
かわい	-11.3791
年後の	-11.3792
経験が	-11.3792
なんですけど	-11.3792
れなかった	-11.3793
お仕事を	-11.3793
ホントに	-11.3794
を止め	-11.3796
目の前で	-11.3797
交通費	-11.3799
GI	-11.3801
てない	-11.3802
さずに	-11.3802
村の	-11.3802
皆さんは	-11.3803
理由が	-11.3803
扱って	-11.3804
セリフ	-11.3805
に興味がある	-11.3807
沢な	-11.3809
顧問	-11.3809
完結	-11.3809
してはいけない	-11.3813
がどう	-11.3813
Adobe	-11.3813
ブロックチェーン	-11.3814
優しさ	-11.3814
状況は	-11.3815
点数	-11.3815
外交	-11.3816
を注文	-11.3816
ご自分の	-11.3817
場合を除き	-11.3817
までの間	-11.3817
ゆったりとした	-11.3821
▁仮に	-11.3821
最低限の	-11.3821
出せ	-11.3821
されていること	-11.3821
で購入する	-11.3822
産の	-11.3822
好意	-11.3823
信託	-11.3825
したいと思っています	-11.3825
者数	-11.3826
さらには	-11.3826
場合がありますので	-11.3826
が起きる	-11.3826
幸い	-11.3827
年ぶりの	-11.3827
かからない	-11.3828
のは当然	-11.3828
近くにある	-11.3829
安全で	-11.3829
料理の	-11.383
をいただく	-11.383
に基づいた	-11.3831
口臭	-11.3831
お勧めです	-11.3832
女性を	-11.3832
特長	-11.3832
言っても	-11.3834
お墓	-11.3834
あがり	-11.3834
見直	-11.3834
洗練された	-11.3835
多様化	-11.3835
を把握	-11.3835
日本語で	-11.3837
を学んで	-11.3837
ネットの	-11.3838
ミックス	-11.3838
座り	-11.3839
気象	-11.3841
▁当社の	-11.3841
が好きです	-11.3842
こん	-11.3843
密着	-11.3843
お世話になりました	-11.3844
手助け	-11.3845
請求書	-11.3846
博多	-11.3846
いらっしゃ	-11.3846
電車で	-11.3847
をテーマにした	-11.3847
日午後	-11.3847
刑	-11.3848
よろしければ	-11.3848
迫力	-11.3849
のがおすすめです	-11.3849
外見	-11.3849
〜。	-11.3851
が始まり	-11.3852
デザインが	-11.3854
とも言える	-11.3854
借りる	-11.3854
を抱えている	-11.3855
学生が	-11.3857
という考え方	-11.3857
いなくても	-11.3858
かせて	-11.3858
号線	-11.386
躍	-11.386
ありましたが	-11.3861
に住んで	-11.3861
変わりません	-11.3862
産後	-11.3862
時間を過ご	-11.3863
山梨県	-11.3864
山本	-11.3865
違って	-11.3865
赤字	-11.3865
予備	-11.3865
暖房	-11.3866
高価な	-11.3866
当ブログ	-11.3867
ストレート	-11.3868
入門	-11.3868
申し訳ありません	-11.387
方法や	-11.3871
行けない	-11.3871
の依頼	-11.3872
マジ	-11.3872
しまうので	-11.3873
家族や	-11.3875
本物	-11.3876
を感じました	-11.3878
▁コメント	-11.3879
見事に	-11.3882
▁それぞれ	-11.3882
チャージ	-11.3882
木材	-11.3884
を十分に	-11.3884
監督の	-11.3885
で簡単に	-11.3885
客観的に	-11.3885
会は	-11.3886
も無い	-11.3886
▁動画	-11.3888
次いで	-11.3888
行為を	-11.3889
日間の	-11.3889
のやり方	-11.3892
何人か	-11.3894
られず	-11.3895
品を	-11.3896
紛争	-11.3896
儀	-11.3896
したことがある	-11.3897
▁次は	-11.3897
並み	-11.3898
ここ数年	-11.39
蒸し	-11.39
楽しみ方	-11.39
▁そうすれば	-11.39
と思ってた	-11.3901
シック	-11.3901
タンク	-11.3902
申請書	-11.3904
まれる	-11.3905
期間限定で	-11.3905
が一般的	-11.3905
を表示しています	-11.3909
バストアップ	-11.3911
会社員	-11.3911
TI	-11.3911
▁(2)	-11.3912
プレーヤー	-11.3913
必要があり	-11.3913
チキン	-11.3913
フォーマット	-11.3914
を覚え	-11.3914
▁5.	-11.3915
one	-11.3916
授	-11.3917
資本	-11.3917
大企業	-11.3917
下落	-11.3918
者様	-11.3919
銀行振込	-11.3922
巨大	-11.3923
を始めました	-11.3923
をご覧下さい	-11.3924
進展	-11.3924
出している	-11.3924
全国的に	-11.3925
fi	-11.3926
開発した	-11.3929
清潔感	-11.3929
なにより	-11.3929
秋田	-11.393
を広げ	-11.393
あらかじめご了承ください	-11.3931
極端に	-11.3931
視覚	-11.3932
通い	-11.3932
資料請求	-11.3933
描写	-11.3935
を浴び	-11.3935
アンド	-11.3937
96	-11.3937
口の中	-11.3937
すぎない	-11.3938
ダメな	-11.394
プレゼン	-11.3941
らす	-11.3942
揃って	-11.3942
体系	-11.3943
を払う	-11.3944
する際	-11.3944
ガチャ	-11.3944
ものや	-11.3944
聞け	-11.3945
日焼け	-11.3945
を希望する	-11.3946
影響を与える	-11.3946
赤ちゃんが	-11.3947
溜まって	-11.3947
あらためて	-11.3948
指輪	-11.3949
週間前	-11.3949
ity	-11.3952
ならなかった	-11.3952
浮気を	-11.3953
豆腐	-11.3953
ol	-11.3953
シップ	-11.3955
した際	-11.3957
オープニング	-11.3961
出せない	-11.3962
算出	-11.3963
レール	-11.3963
と異なる	-11.3965
圧倒的な	-11.3965
▁f	-11.3966
院長	-11.3966
普段は	-11.3967
比較して	-11.3968
が過ぎ	-11.3969
クマ	-11.3969
いるという	-11.397
Instagram	-11.397
りません	-11.3971
現実に	-11.3972
を有効に	-11.3973
▁応募	-11.3974
こちらの商品は	-11.3974
拡散	-11.3975
それよりも	-11.3975
に対応した	-11.3975
小屋	-11.3977
という言葉を	-11.3977
販売されている	-11.3979
生産者	-11.398
運送	-11.398
再会	-11.398
PO	-11.3982
自分達	-11.3982
の皆様に	-11.3983
おしゃべり	-11.3983
天気予報	-11.3984
自作	-11.3984
機能は	-11.3985
グレード	-11.3986
の交換	-11.3987
▁米	-11.3988
気にしない	-11.3988
クイズ	-11.3988
当局	-11.3989
と感じている	-11.399
壁紙	-11.399
ps	-11.3991
ほっと	-11.3991
イケメン	-11.3992
体内に	-11.3993
市役所	-11.3993
ゆとり	-11.3994
代替	-11.3994
ことがわかります	-11.3995
お手伝いを	-11.3995
疲れて	-11.3996
を踏まえ	-11.3997
思うように	-11.3999
を使っています	-11.4
が起こり	-11.4
を使わない	-11.4002
あなた自身	-11.4003
ya	-11.4003
問わず	-11.4004
下がって	-11.4004
の設置	-11.4005
メイ	-11.4006
を落とす	-11.4006
してしまうこと	-11.4008
と考えられる	-11.401
満たされ	-11.401
省略	-11.4011
えます	-11.4012
日前	-11.4012
インク	-11.4013
会社から	-11.4014
祖母	-11.4014
非常	-11.4014
貧困	-11.4015
望み	-11.4015
に努めます	-11.4015
漢	-11.4015
死に	-11.4018
全面	-11.4018
外に出	-11.4019
見ました	-11.402
抜く	-11.402
を実施しています	-11.4021
のレッスン	-11.4024
薬剤	-11.4024
取り入れて	-11.4024
貰う	-11.4024
青汁	-11.4024
ホント	-11.4025
出掛け	-11.4027
代表取締役社長	-11.4028
ご覧いただけます	-11.4028
不安定	-11.4028
どこかに	-11.4028
未だに	-11.4029
▁その場合	-11.4029
リアルな	-11.4031
がつき	-11.4031
一流	-11.4032
分かれ	-11.4032
も増え	-11.4032
開いた	-11.4032
肝臓	-11.4032
リフト	-11.4032
現時点で	-11.4033
が発生した	-11.4035
ところもあります	-11.4035
必要ない	-11.4036
ウル	-11.4037
変わりました	-11.4038
正月	-11.4039
を務める	-11.4042
に至る	-11.4044
置いた	-11.4044
▁カ	-11.4045
の低下	-11.4046
輝く	-11.4047
以下の通り	-11.4048
話で	-11.4048
中華	-11.4049
チェックしてみてください	-11.405
入店	-11.405
国内の	-11.4051
リアルタイムで	-11.4051
発売される	-11.4051
は無料	-11.4051
最低でも	-11.4051
接近	-11.4052
後ろに	-11.4053
弁当	-11.4054
盛り上がって	-11.4055
出版社	-11.4055
楽しみながら	-11.4056
be	-11.4056
防犯	-11.4058
移動する	-11.4058
アニ	-11.4058
位置に	-11.4058
bit	-11.4059
帰りに	-11.4059
しめ	-11.406
お好み	-11.4061
脚本	-11.4062
朝鮮	-11.4062
シャッター	-11.4064
はあった	-11.4064
和食	-11.4065
スキャン	-11.4065
に関係なく	-11.4065
シンボル	-11.4068
多種多様な	-11.4069
の最新	-11.4069
ゅ	-11.4069
の地	-11.407
所得税	-11.4072
は無料で	-11.4072
を突破	-11.4072
キリスト	-11.4072
含まれ	-11.4072
が実現	-11.4072
ゲー	-11.4072
サル	-11.4073
ちょっとだけ	-11.4073
瞬間に	-11.4073
ているのです	-11.4073
ご紹介した	-11.4075
土地の	-11.4075
バター	-11.4075
を表	-11.4075
体は	-11.4076
待ち合わせ	-11.4076
カメラマン	-11.4076
加齢	-11.4076
▁Amazon	-11.4077
衛星	-11.4077
▁俺	-11.4077
スカート	-11.408
期待しています	-11.408
残っています	-11.408
クリエイター	-11.4081
を示した	-11.4081
相談を	-11.4082
夏に	-11.4084
マイホーム	-11.4085
少なくない	-11.4085
になりやすい	-11.4086
アイディア	-11.4086
ナル	-11.4087
イメージを	-11.4087
メリットがあります	-11.409
させます	-11.4091
ことが多いので	-11.4091
を得られる	-11.4091
いつもより	-11.4092
が大事	-11.4093
かき	-11.4093
先端	-11.4094
症候群	-11.4094
してきましたが	-11.4095
有効期限	-11.4095
の道	-11.4095
さほど	-11.4096
ご覧になって	-11.4096
の申し込み	-11.4096
うまい	-11.4096
今の時代	-11.4097
内側	-11.4097
ラウンド	-11.4099
親会	-11.41
を少しでも	-11.4101
焼け	-11.4104
と思うのです	-11.4104
ならびに	-11.4105
▁というか	-11.4105
育ち	-11.4105
ヤマ	-11.4106
面白かった	-11.4108
を集めた	-11.4108
言い訳	-11.4109
の頃	-11.411
父の	-11.411
年後に	-11.4111
ことがありますが	-11.4111
選手は	-11.4111
タップ	-11.4111
To	-11.4112
変形	-11.4114
患者さま	-11.4114
が求められる	-11.4114
米軍	-11.4115
現れた	-11.4115
高校の	-11.4115
わら	-11.4116
周知	-11.4116
店員	-11.4116
so	-11.4116
に取り組んでいます	-11.4117
▁そんなわけで	-11.4117
連日	-11.4117
出願	-11.4117
あたりの	-11.4118
にお住まいの方	-11.4119
いえば	-11.4119
カジュアル	-11.412
を見てみると	-11.412
せます	-11.4121
やりがい	-11.4122
大変です	-11.4122
が始まって	-11.4124
自分には	-11.4124
首都圏	-11.4126
を付ける	-11.4126
ってのは	-11.4128
を全て	-11.4128
コンディション	-11.413
は通常	-11.4131
▁そ	-11.4132
女の子が	-11.4132
されたこと	-11.4133
ストレージ	-11.4135
を実施し	-11.4135
試してみてください	-11.4135
を表示する	-11.4136
打ち上げ	-11.4136
という方も	-11.4137
生息	-11.4137
目的の	-11.4137
研修会	-11.4138
創設	-11.4138
りたい	-11.4139
イスラム	-11.4139
お見積り	-11.4141
コミックサイト	-11.4142
を抱えて	-11.4142
をいくつか	-11.4143
しまったら	-11.4145
下記の通り	-11.4145
地方の	-11.4145
ご案内いたします	-11.4146
異なって	-11.4146
いるため	-11.4146
開幕	-11.4149
であることは	-11.415
sa	-11.4151
もよい	-11.4151
ドキュメント	-11.4152
着実に	-11.4153
トム	-11.4154
ことを考えて	-11.4154
大きめ	-11.4155
数ヶ月	-11.4155
にあって	-11.4156
かせ	-11.4156
掲げ	-11.4156
かねない	-11.4158
それ以降	-11.4159
んだと思います	-11.416
のニュース	-11.4161
つつあります	-11.4161
ウォーター	-11.4161
こんな風に	-11.4161
たい方は	-11.4162
お好みの	-11.4163
▁the	-11.4164
したうえで	-11.4164
して頂く	-11.4165
考えられない	-11.4166
るのも	-11.4166
状況に	-11.4166
あげたい	-11.4166
納税	-11.4167
減ら	-11.4167
すご	-11.4167
あんな	-11.4167
になりましたが	-11.4168
TBS	-11.4168
▁そうすると	-11.4168
お考え	-11.4169
ブライダル	-11.417
ぶん	-11.417
を繰り返す	-11.417
遠方	-11.4172
写真に	-11.4173
の代わりに	-11.4173
につながります	-11.4173
含	-11.4174
やすかった	-11.4174
包装	-11.4175
来場者	-11.4175
▁一応	-11.4177
ハッキリ	-11.4179
に関心	-11.4179
標	-11.4179
現金化	-11.418
を使うこと	-11.4181
おりますが	-11.4181
をつくって	-11.4181
活動に	-11.4181
を作ろう	-11.4181
タル	-11.4182
^)	-11.4185
感じています	-11.4185
広げ	-11.4185
まれて	-11.4186
抜けて	-11.4186
正式	-11.4186
半ば	-11.4188
されるのは	-11.419
座って	-11.4191
内蔵	-11.4192
と思っても	-11.4193
かっこいい	-11.4193
動画が	-11.4194
はいつ	-11.4195
参加費	-11.4195
を習得	-11.4196
今後とも	-11.4196
▁そろそろ	-11.4197
年以降	-11.4197
情報を掲載しています	-11.4198
建築物	-11.4199
フィン	-11.4199
カウント	-11.4202
操	-11.4203
ご近所	-11.4203
を育てる	-11.4203
迷っている	-11.4203
いかが	-11.4204
を上手に	-11.4204
ないのに	-11.4206
何十	-11.4208
在住の	-11.421
勤務先	-11.421
があるんです	-11.4211
こともあるでしょう	-11.4211
絞り	-11.4211
かも知れませんが	-11.4211
育って	-11.4212
▁電話	-11.4213
フレンド	-11.4213
～8	-11.4214
神奈川	-11.4215
が主流	-11.4217
景	-11.4217
度目の	-11.4217
▁写真は	-11.4218
インストラクター	-11.4219
遺伝	-11.4219
配当	-11.422
不動産投資	-11.422
きっちり	-11.4222
憲	-11.4223
自分だけの	-11.4223
庫	-11.4223
チームが	-11.4226
なるもの	-11.4226
是非とも	-11.4227
含まれており	-11.4227
脈	-11.4227
が始まります	-11.4228
安心できる	-11.4228
ヌー	-11.4228
ご了承	-11.423
これって	-11.423
を下げる	-11.423
がどんどん	-11.4231
世の中には	-11.4233
で使う	-11.4233
を踏まえて	-11.4233
塗料	-11.4233
山形県	-11.4235
▁電子書籍	-11.4235
みましたが	-11.4236
▁又	-11.4237
することが大切です	-11.4237
勢力	-11.4238
計画を立て	-11.4239
うまくいかない	-11.424
債権者	-11.424
衆	-11.424
見積もりを	-11.4241
▁愛	-11.4242
クリエイティブ	-11.4242
価格の	-11.4244
ティン	-11.4244
アップグレード	-11.4245
歯を	-11.4246
▁これらは	-11.4246
好奇心	-11.4246
故郷	-11.4246
たいと思う	-11.4248
を加え	-11.4249
委員長	-11.425
イスラエル	-11.4251
コンクリート	-11.4251
きょう	-11.4251
現れ	-11.4251
落ちて	-11.4253
▁俺は	-11.4253
ヨン	-11.4253
同行	-11.4254
を自分で	-11.4254
▁女性の	-11.4256
可能性がございます	-11.4256
を行うことで	-11.4258
が高くなる	-11.4258
▁みなさま	-11.4258
家族と	-11.4259
文庫	-11.4261
▁まるで	-11.4262
なってくる	-11.4262
▁スマートフォン	-11.4264
二度と	-11.4264
年くらい	-11.4264
会議室	-11.4265
の選択	-11.4265
とくに	-11.4265
本当にありがとうございます	-11.4266
演劇	-11.4267
ので注意が必要です	-11.4268
フライ	-11.4269
ッキング	-11.4271
▁ここから	-11.4272
初めての方	-11.4274
休止	-11.4274
が同じ	-11.4274
私たちに	-11.4275
▁僕も	-11.4275
災	-11.4275
学期	-11.4276
ドラッグ	-11.4278
の代表	-11.4279
を受賞	-11.4279
お困り	-11.4279
ユーザーは	-11.4281
に際して	-11.4281
に含まれている	-11.4282
事もあります	-11.4282
はずなのに	-11.4282
にて開催	-11.4283
を挙げて	-11.4283
決まる	-11.4284
(@	-11.4286
を支援	-11.4286
民主党	-11.4287
下取り	-11.4287
ゆえに	-11.4288
数年前	-11.4288
▁素敵な	-11.4288
見れば	-11.4289
が行われている	-11.429
部屋を	-11.4291
専門的な	-11.4292
ばっかり	-11.4292
はずの	-11.4292
開催されている	-11.4293
LIVE	-11.4293
完成した	-11.4294
を作っている	-11.4295
見てください	-11.4295
増大	-11.4296
と思ったのですが	-11.4296
RPG	-11.4298
を見つけました	-11.4298
情報交換	-11.4299
▁黒	-11.4301
日本と	-11.4301
▁他に	-11.4302
範囲内	-11.4302
整形	-11.4304
ボーイ	-11.4305
が集まって	-11.4305
が落ちて	-11.4305
▁複数の	-11.4306
方はぜひ	-11.4307
時間がかかります	-11.4308
となれば	-11.431
繊維	-11.431
が困難	-11.431
方法も	-11.431
認めて	-11.4311
円です	-11.4311
▁この日	-11.4313
レジャー	-11.4315
電子メール	-11.4315
▁もう少し	-11.4315
の調査	-11.4316
公園で	-11.4317
マニア	-11.4319
モリ	-11.4319
記者会見	-11.4319
160	-11.432
彼女たち	-11.4322
取り扱っている	-11.4324
旬の	-11.4324
らし	-11.4325
困難な	-11.4325
の買取	-11.4325
▁16	-11.4325
飾って	-11.4325
それ以上	-11.4327
再発	-11.4327
辞	-11.4329
なるので	-11.4329
良いのですが	-11.433
検出	-11.4331
IR	-11.4332
標高	-11.4332
なったら	-11.4332
▁その中でも	-11.4334
セレクト	-11.4335
ホルモンバランス	-11.4337
ゲル	-11.4337
政府の	-11.4338
国で	-11.4339
全日本	-11.4339
を見せる	-11.434
が遅れ	-11.434
をお選びください	-11.4341
はもっと	-11.4341
開催されました	-11.4342
入らない	-11.4342
豊富	-11.4343
▁イ	-11.4343
だけあって	-11.4345
ご家庭	-11.4345
の裏	-11.4345
▁そのとき	-11.4346
がちですが	-11.4347
いちばん	-11.4352
いままで	-11.4353
満開	-11.4353
滑り	-11.4354
あの人	-11.4354
有意義な	-11.4354
元気で	-11.4355
写真や	-11.4355
レンジ	-11.4355
サプライズ	-11.4355
フォームより	-11.4356
遅れて	-11.4356
窓から	-11.4356
コル	-11.4357
に対応する	-11.4358
頼り	-11.4358
.5%	-11.4359
名は	-11.4359
本気	-11.436
クレーム	-11.4361
ケースもあります	-11.4363
空いている	-11.4363
ヒアルロン酸	-11.4364
が残る	-11.4365
をお送り	-11.4365
歳未満	-11.4366
ドローン	-11.4366
▁ま	-11.4366
そのあと	-11.4369
ネイティブ	-11.4369
今夜	-11.4369
幼	-11.4369
速く	-11.437
ましい	-11.437
手放	-11.437
お世話になった	-11.4374
日本が	-11.4375
の平均	-11.4375
マクロ	-11.4376
ストック	-11.4378
悟	-11.4378
アップする	-11.4378
着替え	-11.4379
イギリスの	-11.4379
自己責任	-11.438
PHP	-11.438
の概要	-11.438
写真集	-11.4381
どうでしょうか	-11.4381
料金で	-11.4382
ご覧下さい	-11.4382
貨	-11.4382
ケアを	-11.4383
専攻	-11.4383
を確立	-11.4383
交代	-11.4385
デザインは	-11.4385
し続け	-11.4386
向かって	-11.4386
▁いつ	-11.4386
ことではありません	-11.4386
ベテラン	-11.4387
間近	-11.4388
お気軽にお問い合わせ下さい	-11.4388
▁弊社では	-11.4389
提供している	-11.439
概	-11.439
しき	-11.4391
カルシウム	-11.4392
スラ	-11.4393
していただけます	-11.4394
支	-11.4394
個人情報の保護	-11.4394
任意の	-11.4396
上がります	-11.4397
干し	-11.4397
▁学生	-11.4398
美容院	-11.4399
に移行	-11.4399
ささ	-11.4399
An	-11.44
知らない人	-11.4401
ばれ	-11.4402
描かれている	-11.4403
もあるのです	-11.4403
せめて	-11.4405
譲	-11.4408
ご挨拶	-11.4408
もしも	-11.4408
行きましょう	-11.4409
イベントは	-11.4409
泊まり	-11.4409
というわけではありません	-11.441
石油	-11.441
楽しみにして	-11.441
なと思いました	-11.4411
ell	-11.4411
お相手	-11.4412
お客さんが	-11.4412
に通って	-11.4412
味を	-11.4414
この日は	-11.4414
決めました	-11.4415
税別	-11.4416
たいへん	-11.4417
ミラー	-11.4417
買	-11.4418
とは言えません	-11.4419
おられます	-11.4422
動け	-11.4422
多大な	-11.4423
期間を	-11.4424
避け	-11.4424
ステータス	-11.4424
励み	-11.4426
話せる	-11.4427
脱出	-11.4428
を強化	-11.4429
IE	-11.4429
もらえない	-11.443
分かっている	-11.4432
詰	-11.4433
日本から	-11.4434
次第です	-11.4436
クション	-11.4436
息子の	-11.4438
むくみ	-11.4438
78	-11.4438
かかりません	-11.4438
72	-11.4439
にぴったりの	-11.4439
願望	-11.4439
と出会う	-11.4441
珍しく	-11.4442
簡	-11.4449
▁Y	-11.4449
イング	-11.445
を見たり	-11.445
になってる	-11.445
やすいです	-11.445
判断する	-11.445
に行くこと	-11.4451
メス	-11.4452
電話を	-11.4452
悪くない	-11.4453
争い	-11.4453
雰囲気を	-11.4454
働きたい	-11.4454
SC	-11.4455
▁お店の	-11.4456
学んだ	-11.4456
ウェディング	-11.4456
ですかね	-11.4457
することができない	-11.4457
と話す	-11.4457
空気が	-11.4458
工務店	-11.4461
マイナンバー	-11.4462
所定の	-11.4463
影響力	-11.4465
日本人が	-11.4467
速報	-11.4467
スピ	-11.4471
開花	-11.4471
日午前	-11.4473
幹	-11.4474
ができるので	-11.4475
台数	-11.4476
僕たち	-11.4476
ユーザーに	-11.4477
わせて	-11.4478
登り	-11.4479
エネルギーを	-11.448
一言で	-11.448
少量	-11.4481
にはなりません	-11.4481
遊びに来て	-11.4482
住居	-11.4482
働か	-11.4482
頂いております	-11.4484
歯が	-11.4484
が大切	-11.4484
体調不良	-11.4485
、2012	-11.4485
がわかります	-11.4485
してくださる	-11.4485
▁毎回	-11.4487
スケール	-11.449
車買取	-11.449
で初めて	-11.449
それとも	-11.449
述	-11.4493
va	-11.4493
驚いて	-11.4493
賃貸物件	-11.4494
おうち	-11.4495
ストラップ	-11.4495
改修	-11.4497
51	-11.4498
▁おかげさまで	-11.4498
することもあります	-11.4499
マッ	-11.4499
ほどに	-11.4499
勉強する	-11.4499
バレエ	-11.4499
部長	-11.4501
セットで	-11.4502
ぽっちゃり	-11.4502
ゲイ	-11.4504
へん	-11.4504
値を	-11.4505
が必要な場合	-11.4505
その辺	-11.4506
ていなかった	-11.4506
周辺で	-11.4506
コスプレ	-11.4507
フォームから	-11.4507
にしている	-11.4507
結構な	-11.451
なくてはいけない	-11.4511
の声が	-11.4511
午後から	-11.4513
もうすぐ	-11.4514
をまとめた	-11.4515
を受け取る	-11.4515
存在します	-11.4515
領収書	-11.4516
高級感	-11.4516
ところも	-11.4518
答える	-11.4519
酷い	-11.452
を受診	-11.452
の活用	-11.4521
廃棄物	-11.4521
拝見	-11.4521
プレッシャー	-11.4521
破産	-11.4521
われわれ	-11.4522
効く	-11.4523
居心地	-11.4523
でなくても	-11.4524
▁なんで	-11.4524
▁無	-11.4524
近くで	-11.4526
成功する	-11.4526
者と	-11.4527
が人気	-11.4528
ブラン	-11.4528
テク	-11.4529
事が出来	-11.4529
を立てて	-11.4529
作曲	-11.4529
てしまうので	-11.453
見たら	-11.4532
描かれた	-11.4533
傾向があります	-11.4533
インスタグラム	-11.4535
の部屋	-11.4536
メイト	-11.4539
いただきありがとうございました	-11.4539
▁なんだか	-11.454
意味がない	-11.454
占い師	-11.454
準備を	-11.4542
小林	-11.4542
使っています	-11.4543
整え	-11.4543
光の	-11.4544
お客様のご要望	-11.4544
参ります	-11.4545
もございますので	-11.4546
明日の	-11.4547
フリーランス	-11.4549
実家に	-11.4549
年代に	-11.4549
残高	-11.455
でないと	-11.455
働ける	-11.4551
信じる	-11.4551
予めご了承ください	-11.4552
推測	-11.4552
....	-11.4554
読みたい	-11.4554
なんといっても	-11.4555
の調整	-11.4555
を体感	-11.4557
MC	-11.4558
一戸建て	-11.4558
にしたい	-11.4558
発足	-11.4559
元に戻	-11.456
こともありますが	-11.4561
お楽しみください	-11.4561
(6	-11.4561
してもいい	-11.4561
クエスト	-11.4562
失敗した	-11.4562
英語力	-11.4562
ナンパ	-11.4564
君は	-11.4565
と感じて	-11.4565
するときは	-11.4565
のよい	-11.4566
申し込みを	-11.4566
7%	-11.4568
都合により	-11.4568
新車	-11.4569
社員が	-11.457
▁午後	-11.457
助けて	-11.457
SU	-11.4571
考えること	-11.4571
効果を実感	-11.4572
心身	-11.4573
になったので	-11.4576
認め	-11.4576
分離	-11.4576
飲め	-11.4577
▁まさか	-11.4578
ワールドカップ	-11.4578
のが普通	-11.4578
広め	-11.4578
平等	-11.4578
お金は	-11.4579
▁どうして	-11.4579
を借りて	-11.4582
代後半	-11.4582
横断	-11.4582
コメント欄	-11.4583
する事で	-11.4585
物流	-11.4585
執	-11.4586
良いかもしれません	-11.4586
下着	-11.4587
ネル	-11.4589
に戻り	-11.4591
良好	-11.4591
晴	-11.4592
折り返し	-11.4592
あげてください	-11.4592
行えます	-11.4593
選手権	-11.4593
まとめてみました	-11.4594
変える	-11.4594
ブックマーク	-11.4595
販売しています	-11.4596
担当者が	-11.4597
と述べた	-11.4598
届き	-11.4599
安定して	-11.4599
時など	-11.4599
駅周辺	-11.46
への影響	-11.46
アリス	-11.4601
損傷	-11.4601
TE	-11.4603
ive	-11.4603
センターで	-11.4603
弱性	-11.4603
健康的な	-11.4606
が大切です	-11.4606
カードが	-11.4607
の方と	-11.4608
かなと	-11.4608
リスクを	-11.4609
▁^	-11.4609
というよりも	-11.4609
月まで	-11.461
▁過去の	-11.461
こころ	-11.4611
mg	-11.4611
大雨	-11.4612
を取ら	-11.4612
が挙げられます	-11.4613
最終回	-11.4613
と思いませんか	-11.4614
をご希望	-11.4615
などの情報	-11.4615
花が	-11.4615
ヨー	-11.4615
お車	-11.4615
思ったより	-11.4616
大切なのは	-11.4617
を取得する	-11.4617
、40	-11.4618
宝石	-11.4619
何事も	-11.4619
、[	-11.4619
しないこと	-11.4619
人工知能	-11.4619
一般的には	-11.4619
が決まった	-11.4619
双	-11.462
の移動	-11.462
重点	-11.4621
資格取得	-11.4621
大切です	-11.4622
ちん	-11.4623
パーソナル	-11.4624
雨が降って	-11.4624
久しぶり	-11.4624
に行ったら	-11.4624
最低限	-11.4625
口から	-11.4626
ve	-11.4626
聞か	-11.4626
歳以上の	-11.4627
レストランで	-11.4627
トランプ	-11.4628
を維持する	-11.4628
電子コミック	-11.4629
やってくる	-11.463
状況により	-11.4631
韓	-11.4633
あけましておめでとうございます	-11.4633
越え	-11.4633
EA	-11.4635
悪魔	-11.4636
その後も	-11.4637
悲しみ	-11.4638
衝突	-11.4638
のタイトル	-11.4639
主要な	-11.4639
一発	-11.464
される場合は	-11.464
柔らかい	-11.4641
メンバーの	-11.4641
情報を発信	-11.4641
詳細を	-11.4641
我が家の	-11.4643
ill	-11.4643
い系	-11.4643
考えられ	-11.4643
でいっぱい	-11.4643
わかりませんが	-11.4645
どり	-11.4646
ところにある	-11.4646
速い	-11.4646
〇〇	-11.4647
区域	-11.4648
問題解決	-11.4648
気分が	-11.4648
を望む	-11.4649
してもらうこと	-11.4649
若く	-11.4651
満席	-11.4652
指定した	-11.4652
話題になっている	-11.4653
してきて	-11.4655
詰まった	-11.4655
出会い系アプリ	-11.4656
ガソリン	-11.4656
怖	-11.4657
が続き	-11.4657
いいこと	-11.4658
宿題	-11.4658
が提供する	-11.4658
動向	-11.4658
69	-11.4659
意見交換	-11.466
話も	-11.4661
されていますので	-11.4662
80%	-11.4662
必要とされる	-11.4662
いる場合	-11.4663
使用できます	-11.4664
単行本	-11.4666
が存在し	-11.4667
を通過	-11.4668
を信じて	-11.4669
している人は	-11.4669
木造	-11.4669
事が多い	-11.4669
という結果	-11.467
遊べる	-11.467
欠かせません	-11.4671
目立つ	-11.4671
効能	-11.4671
の評判	-11.4671
せいで	-11.4671
のある人	-11.4671
さまざま	-11.4672
の充実	-11.4672
毎日のように	-11.4673
巨	-11.4673
人がいます	-11.4673
育った	-11.4673
になってくる	-11.4674
決勝	-11.4675
くれれば	-11.4676
進んだ	-11.4677
の選び方	-11.4678
伸	-11.4678
ピア	-11.468
国語	-11.4682
した人	-11.4682
も大きく	-11.4682
コースを	-11.4683
を訪れた	-11.4683
悩んだ	-11.4686
ソファ	-11.4686
中野	-11.4687
思えば	-11.4687
迷う	-11.4688
場に	-11.4691
利用規約	-11.4691
国が	-11.4692
▁結婚式	-11.4693
再婚	-11.4693
ウォー	-11.4693
根本	-11.4694
キラキラ	-11.4694
情勢	-11.4695
圧縮	-11.4695
のいい	-11.4696
だす	-11.4698
BOX	-11.47
現場に	-11.47
だけではありません	-11.4701
法案	-11.4701
告げ	-11.4702
殺人	-11.4702
山口県	-11.4703
結婚する	-11.4704
空室	-11.4704
嫌いな	-11.4704
▁for	-11.4707
の多くが	-11.4709
ということですね	-11.4709
ストレスが	-11.4709
値が	-11.4714
ナッツ	-11.4714
区分	-11.4715
ルイ	-11.4715
極力	-11.4715
できますか	-11.4716
かのような	-11.4717
あの時	-11.4717
▁雨	-11.4718
フラン	-11.4718
物理	-11.4718
訳です	-11.4719
我が	-11.4719
与えられた	-11.472
の中身	-11.4721
階段を	-11.4722
改装	-11.4723
と主張	-11.4724
展望	-11.4726
使い分け	-11.4727
マジック	-11.4729
丁度	-11.473
星の	-11.473
を飲み	-11.473
動機	-11.4731
ine	-11.4733
んでいます	-11.4733
に出展	-11.4736
で構成され	-11.4736
したまま	-11.4736
におすすめの	-11.4739
昨夜	-11.4739
▁サ	-11.474
存在しています	-11.474
小学校の	-11.474
障	-11.474
透明	-11.4741
の公式	-11.4742
▁米国	-11.4743
にしろ	-11.4744
じっと	-11.4744
io	-11.4746
していきますので	-11.4746
スタンス	-11.4747
もしかすると	-11.4747
ひとつひとつ	-11.4747
並んでいる	-11.4749
億ドル	-11.4749
筋肉が	-11.4749
響き	-11.4749
解け	-11.4749
お使いいただけます	-11.475
がなくて	-11.4751
案外	-11.4752
クリーン	-11.4753
両者	-11.4753
それ以上に	-11.4754
▁当店では	-11.4754
たのが	-11.4755
のひとつです	-11.4755
に限って	-11.4755
▁名古屋	-11.4756
を目的に	-11.4758
回路	-11.4758
をしていく	-11.476
本日は	-11.4762
市は	-11.4763
移植	-11.4764
スル	-11.4764
ご契約	-11.4765
に従い	-11.4765
AKB	-11.4765
に反映	-11.4766
科学的	-11.4766
▁かつて	-11.4766
理解し	-11.4768
気付か	-11.4769
入れ替え	-11.4769
緑の	-11.477
有難うございました	-11.477
ようになってきました	-11.4771
おおよそ	-11.4771
楽天市場	-11.4772
(10	-11.4773
やってみたい	-11.4774
Ver	-11.4775
豪華な	-11.4776
が起きた	-11.4776
だと思われます	-11.4776
if	-11.4777
胸が	-11.4778
一点	-11.4778
個人再生	-11.4779
▁この記事では	-11.4781
点です	-11.4782
本質	-11.4782
を開始しました	-11.4783
▁タイ	-11.4784
と心配	-11.4784
ドッグ	-11.4784
焼いて	-11.4785
嬉しかった	-11.4786
今現在	-11.4787
を指す	-11.4787
利用される	-11.4787
したい方	-11.4787
の構築	-11.479
捕	-11.4792
原理	-11.4793
原市	-11.4794
塗る	-11.4795
ものとする	-11.4796
が存在します	-11.4797
考えます	-11.4797
ご対応	-11.4798
フィギュア	-11.4799
様は	-11.4799
2、3	-11.4799
ピックアップ	-11.48
指定された	-11.4801
ゴン	-11.4802
を活用し	-11.4802
動画は	-11.4802
是非一度	-11.4803
就業	-11.4803
経理	-11.4804
リソース	-11.4804
いいもの	-11.4807
会話を	-11.4807
隣に	-11.4808
野菜を	-11.4808
できなくなります	-11.4808
レギュラー	-11.4808
は既に	-11.4809
募	-11.4809
されていく	-11.4809
の時は	-11.4809
経歴	-11.481
のが現状です	-11.481
▁国内	-11.481
秋田県	-11.4811
にお越し	-11.4811
永久	-11.4812
セラピスト	-11.4813
前回の	-11.4814
pl	-11.4814
を終えて	-11.4816
感じでした	-11.4816
見られた	-11.4817
その間	-11.4818
各地	-11.4818
TOP	-11.4818
見どころ	-11.4819
ANA	-11.4819
を指定	-11.4819
会社です	-11.4822
映像を	-11.4822
姿は	-11.4823
あげましょう	-11.4824
の権利	-11.4824
る前に	-11.4825
と思ってしまう	-11.4825
ご活用ください	-11.4826
想いを	-11.483
の方々が	-11.483
非公開	-11.4831
をまとめてみました	-11.4833
した方がいい	-11.4834
教えてくれた	-11.4835
を覚える	-11.4836
功	-11.4836
過ごせる	-11.4837
感激	-11.4837
頂けるよう	-11.4837
スキー場	-11.4839
旅行者	-11.484
と呼ばれている	-11.4842
申	-11.4845
付き合う	-11.4845
付きで	-11.4846
を守るために	-11.4848
子どもたちは	-11.4849
誠実	-11.4849
を歩いて	-11.485
かけた	-11.4852
本を読んで	-11.4852
開催します	-11.4852
調査結果	-11.4852
を掛け	-11.4853
購入できる	-11.4854
めば	-11.4854
▁あなた	-11.4854
に参加した	-11.4854
右手	-11.4855
回以上	-11.4855
ものが多い	-11.4856
▁人気	-11.4856
下さり	-11.4856
懐	-11.4857
暑い日	-11.4857
散策	-11.4857
出すこと	-11.4858
飲んだ	-11.4858
業者は	-11.4858
4%	-11.486
▁花	-11.486
にかかわらず	-11.4861
向き合う	-11.4863
ここの	-11.4865
なくとも	-11.4865
動いている	-11.4865
〜」	-11.4865
を遂げ	-11.4865
プレゼンテーション	-11.4866
だと思った	-11.4866
とも呼ばれ	-11.4866
学生さん	-11.4866
聖書	-11.4867
年頃	-11.4868
と言っていた	-11.4869
には様々な	-11.4869
を機に	-11.487
るけど	-11.487
皆さまの	-11.4871
経験豊富な	-11.4871
消し	-11.4871
洗って	-11.4871
に突入	-11.4872
ラッシュ	-11.4873
大会で	-11.4873
を要する	-11.4873
過ごした	-11.4874
アメリカン	-11.4874
生まれる	-11.4874
▁そんなとき	-11.4874
が必要となる	-11.4875
っち	-11.4876
を調べ	-11.4876
が起こった	-11.4876
胸に	-11.4876
を実施する	-11.4876
高知県	-11.4877
喜ぶ	-11.4878
当方	-11.4878
浸	-11.488
なんていう	-11.4881
忘れた	-11.4881
複製	-11.4881
って事	-11.4882
をお楽しみ	-11.4883
下さって	-11.4884
を常に	-11.4884
運び	-11.4884
さんを	-11.4884
歩いた	-11.4884
誘	-11.4885
こまめに	-11.4885
コーティング	-11.4885
先を	-11.4887
する必要はありません	-11.4888
動画で	-11.4888
したい場合	-11.4888
それぞれが	-11.4889
療養	-11.4889
を終え	-11.4889
徹	-11.4889
石川県	-11.489
福岡市	-11.4891
今シーズン	-11.4891
ないといけません	-11.4891
均	-11.4892
110	-11.4893
遭	-11.4894
are	-11.4894
ake	-11.4895
マレーシア	-11.4895
めちゃくちゃ	-11.4895
per	-11.4895
周期	-11.4895
HDD	-11.4898
内容について	-11.4898
まじ	-11.49
さえあれば	-11.4901
られるよう	-11.4902
▁常に	-11.4902
とのコミュニケーション	-11.4902
通訳	-11.4902
消滅	-11.4902
の大きな	-11.4902
6%	-11.4903
咲いて	-11.4903
だったのに	-11.4903
甘え	-11.4905
を目指している	-11.4905
しているような	-11.4905
観点から	-11.4906
良いこと	-11.4906
るほど	-11.4906
明示	-11.4907
退院	-11.4907
どうなっている	-11.4909
ベー	-11.4909
加藤	-11.4911
確	-11.4912
はやはり	-11.4912
システムは	-11.4913
-5	-11.4913
すき	-11.4914
伝わり	-11.4915
存	-11.4915
スタッフさん	-11.4915
地の	-11.4916
を満たす	-11.4917
パク	-11.4919
歯磨き	-11.492
NY	-11.492
重ね	-11.4921
が完成	-11.4922
を描いて	-11.4923
お迎え	-11.4923
駆	-11.4923
教える	-11.4923
ケル	-11.4924
万円を	-11.4924
コンテンツを	-11.4925
並べ	-11.4926
スキルアップ	-11.4926
写真で	-11.4927
を受講	-11.4927
与える	-11.4928
書こう	-11.4928
サイトでは	-11.4929
パズル	-11.4929
文化財	-11.4929
することが出来る	-11.493
世の	-11.4932
出かける	-11.4932
走っている	-11.4933
をご用意しています	-11.4933
誠に勝手ながら	-11.4933
何かと	-11.4933
の処理	-11.4935
ace	-11.4935
答えは	-11.4936
感じたこと	-11.4937
メニューを	-11.4938
を見れば	-11.494
▁加えて	-11.494
前で	-11.494
自分の中で	-11.4942
一品	-11.4942
多々	-11.4942
キャップ	-11.4944
放送された	-11.4944
と話し	-11.4945
同社の	-11.4945
ネガティブな	-11.4946
そうだった	-11.4947
場合など	-11.4947
OB	-11.4947
精神的	-11.4948
うこと	-11.4948
なっていきます	-11.4949
賛同	-11.4949
0°	-11.4951
合わせた	-11.4951
と説明	-11.4952
ることを	-11.4953
かく	-11.4953
芝居	-11.4953
に自信	-11.4954
がなされ	-11.4955
覚えている	-11.4955
注意が必要	-11.4956
間違いない	-11.4957
▁今後の	-11.4957
生後	-11.4958
タダ	-11.4959
わからず	-11.496
類似	-11.4961
をお伝えします	-11.4961
望んで	-11.4962
資料を	-11.4964
▁この時期	-11.4964
にあたっては	-11.4965
されてしまった	-11.4966
ので是非	-11.4967
ミュージカル	-11.4967
つけた	-11.4967
高原	-11.4969
支出	-11.497
86	-11.497
や家族	-11.497
年会費	-11.4971
が高まる	-11.4972
でお願いします	-11.4973
になってきた	-11.4975
冬は	-11.4977
やってみる	-11.4979
給付	-11.4981
パソコンの	-11.4981
再起動	-11.4983
番目の	-11.4984
ヶ月で	-11.4985
▁サイズ	-11.4985
BO	-11.4986
先は	-11.4986
たちも	-11.4987
野市	-11.4987
送金	-11.4987
続々	-11.4988
グランプリ	-11.4992
ツボ	-11.4994
部に	-11.4995
というよりは	-11.4995
脳の	-11.4995
ファンド	-11.4996
いいですよ	-11.4996
時代は	-11.4997
今や	-11.4998
と思えば	-11.4998
内にある	-11.4998
つは	-11.5
王国	-11.5001
こちらが	-11.5001
こちらをご覧ください	-11.5002
開封	-11.5002
北京	-11.5004
を打ち	-11.5004
ヤン	-11.5005
生じた	-11.5005
先生と	-11.5005
状況です	-11.5006
慣れない	-11.5006
を広げて	-11.5006
電子レンジ	-11.5007
触って	-11.5007
する為に	-11.5009
実際のところ	-11.5009
援	-11.501
対象者	-11.501
を参照してください	-11.5011
ご負担	-11.5012
健康食品	-11.5012
買いたい	-11.5012
はそれほど	-11.5012
大豆	-11.5012
TS	-11.5013
をすべて	-11.5013
消去	-11.5013
経験から	-11.5014
に開催される	-11.5017
題材	-11.5017
能力を	-11.5017
救い	-11.5017
に身を	-11.5018
▁基本	-11.5019
売られている	-11.5021
分だけ	-11.5021
人柄	-11.5022
を食べた	-11.5024
眠れ	-11.5024
が無かった	-11.5024
意味がある	-11.5025
市場で	-11.5025
抜	-11.5025
閣	-11.5026
のテーマ	-11.5026
行くと	-11.5026
の近くで	-11.5027
～20	-11.5028
▁タイトル	-11.5028
2.0	-11.5029
話をする	-11.503
同居	-11.503
のやりとり	-11.503
和歌山県	-11.5032
しまったり	-11.5033
大陸	-11.5033
が認められ	-11.5034
ってくれる	-11.5034
広大な	-11.5036
びっくりしました	-11.5037
ということになる	-11.5037
終わらせ	-11.5037
画家	-11.5038
んこ	-11.504
戻ってくる	-11.504
コレステロール	-11.504
若い頃	-11.504
対面	-11.5041
炭	-11.5043
亡くなって	-11.5043
既存	-11.5043
ゼミ	-11.5044
うっかり	-11.5045
停電	-11.5045
ミル	-11.5046
ee	-11.5047
の景色	-11.5047
も多かった	-11.5048
乗る	-11.5049
を押し	-11.505
だったか	-11.505
アメリカ人	-11.505
人気がある	-11.5051
を失って	-11.5052
の製造	-11.5052
がどのように	-11.5053
落ちる	-11.5055
ip	-11.5055
▁埼玉県	-11.5056
取組	-11.5058
も無く	-11.5058
子供たちが	-11.506
私達の	-11.506
マシ	-11.5062
認	-11.5063
の実施	-11.5064
人以上	-11.5064
も大変	-11.5064
真の	-11.5064
開発された	-11.5066
企業や	-11.5067
各国	-11.5067
万人以上	-11.5067
水分を	-11.5067
分まで	-11.5068
を開けて	-11.5069
の中を	-11.507
わりと	-11.507
がある方は	-11.507
chi	-11.5073
潜在	-11.5074
の企画	-11.5074
返答	-11.5075
給食	-11.5077
SM	-11.5077
を尊重し	-11.5077
改め	-11.5078
患者の	-11.5079
真面目に	-11.5081
それはそれで	-11.5082
を閲覧	-11.5082
▁過去に	-11.5084
お買い求め	-11.5084
年近く	-11.5086
効率的な	-11.5087
数ある	-11.5088
資金を	-11.5089
行ってみたい	-11.5089
続けていく	-11.509
をお持ちの方は	-11.509
DM	-11.509
ジュニア	-11.509
幸運	-11.509
強調	-11.5091
を呼んで	-11.5092
に従事	-11.5093
になるかもしれません	-11.5094
振動	-11.5094
パチンコ	-11.5094
披露宴	-11.5094
幾つか	-11.5094
ていきたい	-11.5095
▁結果	-11.5095
関わる	-11.5096
ということに	-11.5097
図面	-11.5097
済みます	-11.5098
女性たち	-11.5099
と思いつつ	-11.5099
・・・?	-11.51
あったので	-11.51
出会って	-11.5102
事が出来ました	-11.5102
力を発揮	-11.5103
迅速に	-11.5103
まとめました	-11.5104
▁その場合は	-11.5104
嫌われ	-11.5105
、2011	-11.5105
が初めて	-11.5107
山頂	-11.5108
クッション	-11.5108
最新作	-11.5109
グーグル	-11.5109
をいいます	-11.5109
を聴いて	-11.5109
ようとしている	-11.511
Be	-11.511
開かれた	-11.5113
関係なく	-11.5113
解明	-11.5113
のところに	-11.5113
ように見えます	-11.5114
前後の	-11.5115
沖	-11.5119
乳酸菌	-11.5119
おかしく	-11.5119
を開始する	-11.5119
会員様	-11.512
に備えて	-11.512
シャー	-11.5122
わけではありませんが	-11.5122
お立ち寄りください	-11.5123
ft	-11.5124
柔軟	-11.5124
勉強になりました	-11.5127
敏感	-11.5127
前述の	-11.5128
自分なりに	-11.5128
を除いて	-11.513
という状況	-11.513
結局は	-11.5131
をお探し	-11.5131
便利に	-11.5131
お得です	-11.5133
片手	-11.5133
上がっている	-11.5134
いないと	-11.5134
▁横浜	-11.5135
諦めて	-11.5137
pe	-11.514
日差し	-11.5141
聞かれた	-11.5141
スリム	-11.5143
々しい	-11.5143
生活費	-11.5144
を希望	-11.5144
近づけ	-11.5145
RT	-11.5145
融合	-11.5146
に同意	-11.5146
みないと	-11.5147
エール	-11.5149
これからは	-11.5149
ていれば	-11.515
と思ってる	-11.5151
を終えた	-11.5151
KO	-11.5151
繰り	-11.5151
るから	-11.5154
保全	-11.5155
が表示される	-11.5156
をメインに	-11.5157
じて	-11.5161
を観て	-11.5161
があるなら	-11.5161
入国	-11.5162
西部	-11.5162
するつもり	-11.5163
節目	-11.5164
どうですか	-11.5164
ラック	-11.5165
も安心して	-11.5165
するのです	-11.5166
を持たれ	-11.5166
ブラシ	-11.5166
書きたい	-11.5168
戻る	-11.5172
を活かして	-11.5173
書類を	-11.5174
▁従って	-11.5174
炭酸	-11.5174
なにも	-11.5175
を組んで	-11.5175
皆様には	-11.5176
みること	-11.5178
バーベキュー	-11.5178
Excel	-11.5178
デリヘル	-11.5178
[...]
