<unk>	0
<s>	0
</s>	0
、	-2.87714
。	-3.08553
▁	-3.33523
の	-3.57201
が	-4.15232
は	-4.24506
を	-4.24566
に	-4.42029
で	-4.67454
と	-4.81549
も	-5.09582
」	-5.2167
「	-5.43561
や	-5.43943
から	-5.60116
です	-5.64745
し	-5.82024
)	-5.84606
(	-5.90011
!	-5.90225
する	-5.98109
な	-6.00126
・	-6.03832
して	-6.07163
?	-6.09666
1	-6.15246
か	-6.15333
した	-6.20764
という	-6.25682
日	-6.3394
る	-6.3594
ので	-6.37454
た	-6.43529
には	-6.45887
年	-6.45965
2	-6.47035
て	-6.51086
その	-6.51883
では	-6.5381
月	-6.56115
など	-6.6569
3	-6.66305
この	-6.66645
人	-6.72609
って	-6.72984
お	-6.73219
として	-6.73782
▁「	-6.75275
り	-6.80372
い	-6.81029
している	-6.81922
ます	-6.83733
ら	-6.85599
でも	-6.93402
ました	-6.94783
します	-6.95929
ない	-6.97234
▁また	-6.99028
▁この	-7.04018
ス	-7.06126
、「	-7.09357
こと	-7.09788
まで	-7.09909
く	-7.10068
である	-7.1225
だ	-7.14811
ね	-7.14963
4	-7.15632
.	-7.15886
大	-7.17542
5	-7.20152
にも	-7.20432
しています	-7.23771
いる	-7.2678
がある	-7.28541
より	-7.29651
』	-7.30165
いた	-7.30772
...	-7.32059
います	-7.32188
された	-7.33264
ですが	-7.3328
しました	-7.3354
なら	-7.35428
み	-7.35506
,	-7.36532
ー	-7.36831
10	-7.36897
だった	-7.37683
される	-7.39296
一	-7.39422
ように	-7.39428
できる	-7.40079
本	-7.40104
になる	-7.40276
す	-7.4066
について	-7.41205
よ	-7.4152
時	-7.43295
ご	-7.44306
時間	-7.45042
ている	-7.45228
中	-7.45923
つ	-7.46677
分	-7.47043
▁しかし	-7.47112
ため	-7.47941
見	-7.48385
でした	-7.48385
6	-7.48726
さ	-7.48968
と思います	-7.4939
ある	-7.49417
き	-7.50048
的な	-7.50659
自分の	-7.5159
『	-7.55134
のは	-7.56264
事	-7.56405
者	-7.5642
へ	-7.57593
った	-7.58177
リ	-7.58935
いい	-7.59189
7	-7.60752
回	-7.61409
:	-7.61673
性	-7.61726
手	-7.61904
ことを	-7.62485
ください	-7.62866
もの	-7.62938
されている	-7.63133
への	-7.63198
ル	-7.64687
上	-7.64927
▁その	-7.65004
方	-7.65035
カ	-7.65412
のか	-7.65562
のです	-7.65573
でしょう	-7.68583
ク	-7.696
ト	-7.70107
日本	-7.70149
8	-7.7046
▁そして	-7.70698
水	-7.71009
出	-7.71477
のですが	-7.7161
だけ	-7.71996
わ	-7.72108
う	-7.72463
後	-7.72923
力	-7.73233
があります	-7.73484
ラ	-7.73506
ア	-7.73806
-	-7.74558
ん	-7.75124
物	-7.76846
9	-7.77119
数	-7.77858
情報	-7.77985
などの	-7.78168
いて	-7.78249
/	-7.78358
さん	-7.78452
国	-7.78576
名	-7.78884
前	-7.79918
サービス	-7.81134
なので	-7.81283
とは	-7.81445
何	-7.81484
場合	-7.82639
気	-7.82887
また	-7.83024
ような	-7.832
～	-7.83377
会	-7.83669
によって	-7.83797
場合は	-7.85139
とか	-7.85168
円	-7.85306
”	-7.85607
生	-7.85643
ですね	-7.85649
子	-7.87039
山	-7.87488
問題	-7.87813
話	-7.87912
ほど	-7.88359
になります	-7.88498
30	-7.88655
タ	-7.88755
けど	-7.88776
たい	-7.88822
サイト	-7.90193
マ	-7.90337
法	-7.90646
化	-7.90823
そう	-7.90907
め	-7.90929
人は	-7.91356
ま	-7.91568
ド	-7.92418
良い	-7.93551
ところ	-7.94113
したい	-7.94257
こ	-7.94421
s	-7.95322
等	-7.95889
とても	-7.95977
利用	-7.96332
人が	-7.96465
だと	-7.96756
コ	-7.97082
イ	-7.97111
ことが	-7.97206
金	-7.9785
ことは	-7.98682
よう	-7.98722
んだ	-7.98934
すると	-7.99092
的に	-7.99243
点	-7.99876
ず	-8.00064
長	-8.00064
今	-8.00233
ながら	-8.00441
先	-8.00916
なかった	-8.00943
家	-8.01386
ています	-8.0147
20	-8.01783
市	-8.01969
され	-8.02411
目	-8.02769
高	-8.02834
所	-8.03633
感	-8.04124
▁※	-8.04176
約	-8.0459
ロ	-8.05525
的	-8.06036
商品	-8.06382
会社	-8.06835
心	-8.06892
人の	-8.07207
方法	-8.07475
下	-8.07483
により	-8.0773
大きな	-8.07968
地	-8.08434
時に	-8.09165
による	-8.09408
よく	-8.09783
ば	-8.09829
対応	-8.10136
▁でも	-8.10458
と思う	-8.10757
あ	-8.11028
女性	-8.11509
前に	-8.11834
ことで	-8.1268
内	-8.12956
▁」	-8.12972
いない	-8.13059
くらい	-8.13279
不	-8.13729
道	-8.14028
私は	-8.14078
環境	-8.14232
できない	-8.15223
ナ	-8.15361
C	-8.15425
度	-8.15817
にある	-8.15999
いました	-8.16036
新	-8.16407
していた	-8.17093
A	-8.17157
使用	-8.17692
着	-8.18046
ム	-8.18119
キ	-8.18699
できます	-8.19122
▁!	-8.19183
S	-8.19198
用	-8.1929
ミ	-8.19556
第	-8.19638
代	-8.19845
体	-8.20414
設定	-8.21079
ズ	-8.21333
なく	-8.21363
車	-8.21432
他の	-8.21612
ン	-8.21673
管理	-8.21713
レ	-8.21916
それ	-8.22073
田	-8.22087
行	-8.22435
12	-8.22523
状況	-8.2263
T	-8.22883
があり	-8.23096
オ	-8.23111
仕事	-8.23151
されています	-8.23784
関係	-8.24071
場	-8.24119
になった	-8.24776
シ	-8.24825
そうです	-8.24839
だろう	-8.24996
ブ	-8.25074
ために	-8.25558
というのは	-8.25774
本当に	-8.25832
チ	-8.25934
よりも	-8.2603
ッ	-8.26236
々	-8.26667
参加	-8.26721
え	-8.27101
生活	-8.27104
登録	-8.2711
確認	-8.27167
無	-8.27732
同じ	-8.2789
となる	-8.28028
M	-8.28198
面	-8.28306
状態	-8.28328
少し	-8.2844
っている	-8.28942
ことができます	-8.29023
小	-8.29111
P	-8.295
れば	-8.29514
・・・	-8.29675
場所	-8.29751
なんて	-8.29801
活動	-8.29867
企業	-8.29925
〜	-8.30037
機能	-8.30331
様々な	-8.3037
社会	-8.30416
ゲーム	-8.30419
品	-8.30655
色	-8.30765
▁ただ	-8.30869
じ	-8.30875
バ	-8.31072
に対して	-8.31164
外	-8.31226
方は	-8.31295
については	-8.31389
B	-8.3187
になって	-8.31881
作品	-8.31971
しか	-8.3255
口	-8.3266
▁私は	-8.32771
店	-8.32809
D	-8.32845
られる	-8.33569
部	-8.3362
e	-8.33773
o	-8.33827
む	-8.33963
11	-8.34194
私の	-8.34243
かもしれません	-8.34361
▁(	-8.34501
思い	-8.34556
もう	-8.34832
ということ	-8.34996
アップ	-8.35076
木	-8.35113
日に	-8.35224
ようです	-8.35422
ジ	-8.35502
方が	-8.35557
内容	-8.35588
多くの	-8.35593
すれば	-8.35636
の中で	-8.35832
書	-8.36227
結果	-8.36229
れ	-8.36258
エ	-8.36349
すること	-8.36869
イベント	-8.36937
サ	-8.3696
▁これは	-8.37073
っ	-8.37389
考え	-8.37389
どう	-8.37706
食	-8.37892
リー	-8.38029
相談	-8.38178
ではない	-8.3842
んです	-8.385
のある	-8.3857
だけで	-8.38716
しない	-8.38903
ません	-8.38955
技術	-8.3896
川	-8.39661
写真	-8.40001
かな	-8.40032
イン	-8.40119
量	-8.40299
であり	-8.40427
戦	-8.41166
何か	-8.41264
ちょっと	-8.41413
町	-8.41674
発	-8.41702
経験	-8.41803
治療	-8.4193
あまり	-8.42235
世界	-8.42551
取り	-8.42588
様	-8.42761
カード	-8.43146
したり	-8.43317
プ	-8.43321
海	-8.43369
をする	-8.43563
さんの	-8.43784
三	-8.43852
歳	-8.44074
t	-8.44194
新しい	-8.4438
ウ	-8.44404
15	-8.4449
フ	-8.44578
されて	-8.44622
グ	-8.44678
メール	-8.45206
となります	-8.45276
すぐに	-8.45476
ではなく	-8.45598
一番	-8.4561
大学	-8.46047
島	-8.4612
万	-8.46385
を見て	-8.46443
あります	-8.46451
19	-8.46504
いたします	-8.46544
m	-8.46575
愛	-8.46773
とき	-8.46856
私	-8.47194
万円	-8.47195
G	-8.47406
られた	-8.47626
間	-8.47734
理由	-8.47895
ましょう	-8.47903
そんな	-8.48251
のような	-8.4835
親	-8.48419
F	-8.49182
販売	-8.4923
け	-8.49289
台	-8.49358
アプリ	-8.49649
家族	-8.49706
ち	-8.49801
線	-8.49828
ものです	-8.50067
いく	-8.50111
必要	-8.50143
がない	-8.50168
に関する	-8.50237
勉強	-8.50256
を使って	-8.50292
しております	-8.50311
購入	-8.50386
になり	-8.50459
せ	-8.50547
デザイン	-8.50574
高い	-8.50851
まだ	-8.50944
見て	-8.50992
システム	-8.51048
下さい	-8.51191
モ	-8.51238
気持ち	-8.51245
地域	-8.51249
事業	-8.51375
作	-8.51755
土	-8.52113
野	-8.52204
ポイント	-8.52229
全	-8.5224
以上	-8.52311
ツ	-8.52468
のように	-8.5258
であれば	-8.52715
があった	-8.52764
としても	-8.52821
ページ	-8.5307
契約	-8.53238
どんな	-8.53243
味	-8.53272
通	-8.53351
ビ	-8.53398
ハ	-8.53443
夜	-8.53452
男性	-8.53512
同	-8.53765
にて	-8.53773
神	-8.5381
メ	-8.53813
といった	-8.53944
主	-8.5409
元	-8.54163
予定	-8.5421
かなり	-8.54296
デ	-8.54449
調査	-8.54605
説明	-8.55226
だと思います	-8.55279
データ	-8.55583
ノ	-8.55791
▁1	-8.55794
されます	-8.55864
期待	-8.55892
東京	-8.56182
になりました	-8.56225
をして	-8.56271
▁そんな	-8.56319
のために	-8.56383
各	-8.56482
駅	-8.56487
】	-8.56515
なる	-8.56589
のでしょうか	-8.56608
顔	-8.57124
感じ	-8.57138
理解	-8.58004
テ	-8.58171
業者	-8.58297
大変	-8.58349
E	-8.58375
原	-8.58485
来	-8.58535
学	-8.58537
でしょうか	-8.5871
やって	-8.58889
朝	-8.59006
簡単に	-8.59118
実際に	-8.59292
それを	-8.59357
」「	-8.59408
a	-8.59522
上で	-8.59622
i	-8.59649
において	-8.59749
足	-8.59763
ぜひ	-8.598
してください	-8.59818
無料	-8.60296
んで	-8.60643
たら	-8.60692
作業	-8.60758
形	-8.6087
映画	-8.60903
L	-8.60914
ると	-8.60936
人気	-8.61058
これ	-8.61095
部分	-8.61228
ニ	-8.61508
自分	-8.61512
することで	-8.61671
100	-8.61731
予約	-8.61802
期	-8.61811
社	-8.61856
と言う	-8.61931
だけでなく	-8.6195
になっている	-8.62046
自分が	-8.62429
させる	-8.62472
きた	-8.62624
光	-8.62673
二	-8.62751
白	-8.62776
非常に	-8.62873
電話	-8.6289
風	-8.631
音	-8.63194
直	-8.63273
女	-8.63607
薬	-8.63613
有	-8.63652
東	-8.63732
たり	-8.63934
人に	-8.64016
条件	-8.64119
なかなか	-8.64157
y	-8.64233
例	-8.64244
年に	-8.64276
結婚	-8.64312
入	-8.64709
毎日	-8.64725
ブログ	-8.64748
人間	-8.6486
p	-8.64866
機	-8.65261
研究	-8.6549
行動	-8.65968
日本の	-8.65997
つの	-8.66045
を行う	-8.66188
効果	-8.66244
目的	-8.664
もっと	-8.66626
からの	-8.66855
それは	-8.67089
ること	-8.67244
お店	-8.67484
料金	-8.67537
健康	-8.67675
としては	-8.67873
立	-8.67917
現在	-8.67974
さらに	-8.68042
d	-8.681
記事	-8.68133
製品	-8.68287
もある	-8.68339
空	-8.684
いつも	-8.68417
そして	-8.68417
ことに	-8.6844
紹介	-8.68543
または	-8.68573
表示	-8.68637
あり	-8.68658
18	-8.68797
ダ	-8.68964
身	-8.69084
なのか	-8.69303
自分で	-8.6934
通り	-8.69851
ット	-8.70014
成長	-8.70014
の方が	-8.70054
流	-8.70076
ネ	-8.70088
などで	-8.70121
合	-8.70193
体験	-8.70277
頭	-8.70375
価格	-8.70982
特に	-8.71047
バー	-8.7113
区	-8.71182
50	-8.71192
施設	-8.71257
することができます	-8.71313
させて	-8.71332
▁今回は	-8.71391
していく	-8.71531
てしまう	-8.71551
ときに	-8.71623
質問	-8.71658
ありません	-8.71929
曲	-8.72
O	-8.72116
U	-8.72117
評価	-8.72125
文	-8.72308
一緒に	-8.72624
心配	-8.72711
ていた	-8.72758
ですよね	-8.7277
一度	-8.72831
やすい	-8.72868
されました	-8.72896
石	-8.72929
u	-8.72967
営業	-8.73058
ヶ月	-8.7318
セ	-8.73205
これは	-8.73254
男	-8.7343
頃	-8.73504
情報を	-8.73632
悪	-8.73777
教育	-8.73915
ぐ	-8.73995
意識	-8.74428
を持って	-8.74725
画面	-8.74737
などを	-8.74774
不安	-8.74946
よい	-8.75005
支援	-8.75071
まず	-8.7516
判断	-8.75181
開催	-8.75252
重	-8.75397
よね	-8.75512
動画	-8.75544
変更	-8.7566
きました	-8.7575
ネット	-8.758
式	-8.75854
さんが	-8.75861
ホテル	-8.75985
楽	-8.76367
位	-8.7637
料理	-8.76485
動	-8.76576
夢	-8.76688
お金	-8.76844
かもしれない	-8.76936
チェック	-8.77028
観	-8.77188
時代	-8.77333
笑	-8.77408
ケース	-8.77751
当	-8.77786
くる	-8.77879
実	-8.77924
しても	-8.78055
ガ	-8.78127
私が	-8.78157
学校	-8.7823
パ	-8.78595
必ず	-8.78687
を見	-8.78774
初めて	-8.78945
ダイエット	-8.79083
自	-8.79109
でしたが	-8.792
と思った	-8.79211
母	-8.79264
額	-8.7939
対策	-8.79424
かどうか	-8.79638
お客様	-8.79848
会員	-8.79851
和	-8.79861
音楽	-8.80037
ビジネス	-8.80084
しましょう	-8.80094
型	-8.80196
場合には	-8.80268
40	-8.80331
のみ	-8.80347
K	-8.80348
別	-8.80702
してくれる	-8.80708
R	-8.80964
だから	-8.80995
村	-8.81096
画像	-8.8139
プロ	-8.81436
次	-8.81451
西	-8.8163
開発	-8.81646
サイズ	-8.81946
コン	-8.81969
早く	-8.8215
れる	-8.82264
天	-8.82279
“	-8.82404
公開	-8.82425
c	-8.82517
そ	-8.82525
けれど	-8.82558
あなたの	-8.82695
食事	-8.82903
と思って	-8.83058
ことができる	-8.83202
以下の	-8.83253
▁今	-8.83268
▁それは	-8.83332
ボ	-8.8337
▁もちろん	-8.83598
何も	-8.83721
注意	-8.83915
▁それ	-8.84002
ポ	-8.84061
ひ	-8.84165
にとって	-8.84278
旅行	-8.84407
検索	-8.84583
中の	-8.84705
時は	-8.84717
室	-8.84928
W	-8.84964
イメージ	-8.85072
こんな	-8.85099
値	-8.8516
版	-8.85166
屋	-8.85213
付け	-8.85281
撮影	-8.85282
店舗	-8.85332
後に	-8.85347
出会い	-8.85456
スト	-8.85533
ケ	-8.85652
こう	-8.85672
業務	-8.85716
もあります	-8.85756
再	-8.85829
号	-8.85836
ろ	-8.85934
しながら	-8.86127
ど	-8.86337
の場合	-8.86435
ヤ	-8.86573
ター	-8.86625
真	-8.86693
保険	-8.86835
子供	-8.86837
及び	-8.86879
さんは	-8.86964
引き	-8.87034
考えて	-8.87191
平	-8.87292
したら	-8.87429
のだ	-8.87495
ときは	-8.87702
試	-8.87735
なければ	-8.8776
のではないでしょうか	-8.87857
増	-8.88109
V	-8.8822
それが	-8.88288
費用	-8.88296
24	-8.88388
定	-8.88402
そうな	-8.88503
なり	-8.88535
ことも	-8.88598
]	-8.88633
しまう	-8.88637
I	-8.8864
処理	-8.88678
ずっと	-8.8873
中に	-8.88772
期間	-8.88772
北	-8.89045
▁2	-8.89052
が多く	-8.89208
個人	-8.89457
なのです	-8.8952
夏	-8.89565
に対する	-8.8958
使う	-8.89729
カー	-8.90246
▁そのため	-8.90308
産	-8.90489
熱	-8.90495
ファン	-8.90534
H	-8.90567
からです	-8.90573
やはり	-8.90658
ック	-8.90957
火	-8.91114
希望	-8.91361
b	-8.91375
街	-8.91491
あった	-8.91602
費	-8.91731
表	-8.91833
0	-8.92073
センター	-8.92119
▁特に	-8.92192
自然	-8.92274
ずに	-8.92291
ものを	-8.92329
▁ただし	-8.92418
ファイル	-8.92436
審査	-8.92456
▁そこで	-8.92475
金額	-8.92547
16	-8.92553
美	-8.92572
ぶ	-8.92648
意味	-8.92802
全く	-8.92847
員	-8.92978
マン	-8.93029
▁お	-8.93106
変化	-8.93134
等の	-8.93144
更新	-8.9317
友人	-8.93188
御	-8.93214
らない	-8.93222
チーム	-8.93318
安	-8.93363
どのような	-8.93471
役	-8.93511
医療	-8.94182
サポート	-8.94188
南	-8.94192
コース	-8.94371
違う	-8.94468
改善	-8.94654
25	-8.94727
f	-8.94785
していない	-8.94936
▁『	-8.94961
病院	-8.95037
行く	-8.95045
月に	-8.9506
解決	-8.95157
初	-8.95304
言葉	-8.95321
の場合は	-8.95347
次の	-8.95354
ワ	-8.95387
それぞれ	-8.95388
掲載	-8.95565
系	-8.95586
じゃない	-8.95617
歯	-8.95665
割	-8.95687
グループ	-8.9572
l	-8.95791
残	-8.95801
おり	-8.95821
年間	-8.95829
語	-8.95838
妻	-8.95918
作り	-8.95946
気が	-8.96012
相手	-8.96026
機会	-8.96049
毛	-8.96191
連絡	-8.96365
花	-8.96387
言って	-8.96517
ティ	-8.96683
多く	-8.96708
ほとんど	-8.96769
計画	-8.9686
しっかり	-8.96877
上の	-8.97052
とも	-8.97061
パソコン	-8.97063
ソ	-8.97262
好きな	-8.97323
なくて	-8.97664
ことがあります	-8.97718
制度	-8.97723
▁・	-8.97739
文化	-8.97855
脱毛	-8.97889
表現	-8.97905
と同じ	-8.98019
準備	-8.98057
テレビ	-8.98085
g	-8.98132
存在	-8.98172
運動	-8.98198
選手	-8.98307
学生	-8.98382
ということで	-8.98519
肌	-8.98521
バス	-8.9862
があれば	-8.98817
交換	-8.98817
人と	-8.9886
の方	-8.9886
ばかり	-8.9888
発売	-8.98929
ピ	-8.98952
ぎ	-8.9909
び	-8.9919
コメント	-8.99264
かもしれませんが	-8.99588
安心して	-8.99597
席	-8.99646
X	-8.99702
そのまま	-8.99778
N	-9.00002
げ	-9.00091
能力	-9.00196
提供	-9.00441
多	-9.00471
Y	-9.00548
たくさんの	-9.00567
立ち	-9.00579
ユーザー	-9.00597
14	-9.0069
全て	-9.00702
命	-9.00825
運営	-9.01
使って	-9.01205
が多い	-9.01325
▁もし	-9.01332
病	-9.01377
られて	-9.01482
はありません	-9.01498
楽しい	-9.01526
料	-9.01554
発表	-9.01644
行って	-9.01688
持ち	-9.0173
▁これ	-9.0192
k	-9.01953
▁さらに	-9.01956
好き	-9.01961
n	-9.02003
なくても	-9.02011
ベ	-9.02035
放送	-9.0208
するために	-9.02116
ですか	-9.02153
ための	-9.02216
是非	-9.02219
はない	-9.02288
するのは	-9.02316
っと	-9.02327
質	-9.02592
17	-9.02704
検査	-9.02737
指定	-9.02748
プラン	-9.02815
ギ	-9.02818
年の	-9.02898
士	-9.02938
強	-9.03074
正	-9.03155
&	-9.032
ヒ	-9.03214
▁なお	-9.03308
強い	-9.03323
あと	-9.03457
r	-9.03493
投稿	-9.03557
の中に	-9.03591
週間	-9.03781
かった	-9.04074
声	-9.04165
ストレス	-9.0417
番	-9.04284
がありました	-9.04341
原因	-9.04593
経済	-9.04911
くれる	-9.04959
を使う	-9.05011
ゴ	-9.05027
負担	-9.05068
ふ	-9.05142
率	-9.05161
たち	-9.05272
ディ	-9.05278
ではありません	-9.05299
をしている	-9.05401
13	-9.05452
スタッフ	-9.05467
と言って	-9.05502
させていただきます	-9.05521
無理	-9.05546
▁そう	-9.05647
最も	-9.05648
時間が	-9.05654
以上の	-9.05674
ただ	-9.05768
文字	-9.05851
あなた	-9.0595
メニュー	-9.06002
他	-9.06057
病気	-9.06063
に行く	-9.0612
難しい	-9.06183
であった	-9.06231
すべて	-9.06319
広告	-9.06399
事を	-9.0647
一般	-9.06492
要	-9.06503
レベル	-9.06518
食べ	-9.06543
必要な	-9.0656
セット	-9.06621
ということです	-9.06633
犬	-9.06654
年齢	-9.06669
国際	-9.06692
▁...	-9.06789
パン	-9.06825
達	-9.06874
ぐらい	-9.06932
米	-9.07038
終了	-9.07074
言う	-9.07132
死	-9.07178
件	-9.07249
現実	-9.07293
ケア	-9.07436
別の	-9.07471
となっています	-9.07477
書き	-9.07543
者の	-9.07598
満足	-9.07611
業	-9.07611
結構	-9.07665
断	-9.07677
最	-9.0777
活用	-9.07773
以下	-9.07786
種	-9.07792
を持つ	-9.07796
してしまう	-9.07817
インターネット	-9.07821
気に	-9.07976
▁【	-9.08016
日の	-9.08085
行為	-9.08194
ですので	-9.08288
話題	-9.08393
時期	-9.08478
平成	-9.08496
にして	-9.08535
ても	-9.08591
英語	-9.08643
居	-9.08676
守	-9.08753
はず	-9.08786
目に	-9.08827
ないと	-9.08935
スマホ	-9.08949
らしい	-9.0896
しており	-9.0897
そういう	-9.0898
リング	-9.0906
移動	-9.09158
事件	-9.09254
リンク	-9.09324
事故	-9.09402
権	-9.09558
になっています	-9.09648
ご利用	-9.09784
べ	-9.09889
アン	-9.09931
していました	-9.09984
使い	-9.10166
知識	-9.10275
おすすめ	-9.10362
モデル	-9.10372
成功	-9.10414
民	-9.10461
うちに	-9.10486
近	-9.10491
直接	-9.10569
"	-9.1078
時の	-9.10852
裏	-9.10885
一人	-9.11293
安全	-9.11386
▁つまり	-9.11498
銀行	-9.11557
が必要	-9.1161
時間を	-9.1163
集	-9.11652
ましたが	-9.11663
選択	-9.11755
出来る	-9.11841
を受け	-9.11878
依頼	-9.11898
があって	-9.11972
部屋	-9.12007
図	-9.12056
歌	-9.12067
取引	-9.12424
のため	-9.12508
全国	-9.12527
身体	-9.12537
アメリカ	-9.12559
買取	-9.12611
ホームページ	-9.12632
急	-9.12639
決定	-9.12714
・・・。	-9.12868
になると	-9.12968
目標	-9.1304
器	-9.13041
友達	-9.13074
何度も	-9.1312
事実	-9.13187
重要な	-9.13303
思う	-9.13366
好	-9.13402
公	-9.13439
における	-9.13515
寝	-9.13561
J	-9.13579
となった	-9.1358
▁例えば	-9.13597
in	-9.13689
春	-9.13711
もあり	-9.13866
紙	-9.13922
人生	-9.13966
常に	-9.13998
および	-9.1405
前の	-9.14122
大会	-9.14341
欲しい	-9.14369
階	-9.14407
サン	-9.1443
悪い	-9.14634
することが	-9.14667
枚	-9.14676
ロー	-9.14691
投資	-9.14718
差	-9.1474
傷	-9.14763
60	-9.1488
er	-9.14885
ペ	-9.14924
成分	-9.14943
しまった	-9.14954
だったので	-9.14976
▁だから	-9.15021
込み	-9.1505
られ	-9.15063
制	-9.15069
条	-9.15147
側	-9.1515
対象	-9.15285
ザ	-9.15345
スタート	-9.15446
良く	-9.15459
不動産	-9.1548
採用	-9.15514
人も	-9.1553
印象	-9.15591
はずです	-9.15607
w	-9.15681
と一緒に	-9.15855
ことです	-9.15905
根	-9.1611
城	-9.16132
しい	-9.16132
ますが	-9.1616
......	-9.16215
明	-9.16216
低	-9.1633
住宅	-9.16419
経営	-9.16548
アクセス	-9.16644
▁A	-9.16659
猫	-9.16677
治	-9.16684
ができる	-9.16711
リスク	-9.1679
読み	-9.16895
程度	-9.16903
報告	-9.17056
興味	-9.17065
出し	-9.17195
中国	-9.17246
答え	-9.1726
脳	-9.17281
雨	-9.17296
書いて	-9.17316
会場	-9.17456
さまざまな	-9.17494
すべき	-9.1767
ほしい	-9.17681
に行って	-9.17884
が高い	-9.17889
のであれば	-9.17928
弊社	-9.17974
王	-9.18029
知	-9.18063
▁3	-9.18066
試験	-9.18128
▁さて	-9.18232
してる	-9.18245
ホ	-9.18255
倍	-9.18272
半	-9.18434
まして	-9.18544
引	-9.1855
今まで	-9.18617
...。	-9.1868
おります	-9.1869
特	-9.18705
と思っています	-9.18894
太	-9.1907
実は	-9.19375
タイプ	-9.19457
▁今日は	-9.19689
多い	-9.19701
理	-9.19788
個	-9.19849
基準	-9.19866
プログラム	-9.19957
変	-9.19962
こともあります	-9.19988
▁日本	-9.20018
校	-9.20077
つく	-9.20088
父	-9.20129
利用者	-9.20137
21	-9.20232
特徴	-9.2031
請求	-9.20354
黒	-9.20369
のお	-9.20509
学習	-9.20514
すぐ	-9.20598
査定	-9.20621
なった	-9.2064
大きく	-9.2081
成	-9.20834
やり	-9.20855
仕事を	-9.20883
子ども	-9.2089
教	-9.20895
カメラ	-9.20937
ということは	-9.21028
失敗	-9.2104
持って	-9.2108
られている	-9.21092
気になる	-9.21101
職	-9.21148
論	-9.21218
種類	-9.2133
渡	-9.21399
まとめ	-9.21527
実施	-9.21571
▁ちなみに	-9.21602
プレゼント	-9.21675
ちゃんと	-9.21735
自己	-9.21762
みました	-9.21824
開始	-9.21883
みたい	-9.22009
入力	-9.22124
メーカー	-9.22133
なって	-9.22202
娘	-9.22221
▁>	-9.22252
リスト	-9.22306
検討	-9.22386
すべての	-9.22401
うまく	-9.22421
館	-9.22448
ダウンロード	-9.22468
活躍	-9.22482
ニュース	-9.22531
どの	-9.22603
まずは	-9.22621
路	-9.2275
いただき	-9.22858
追加	-9.2288
ですよ	-9.22926
弁護士	-9.23165
夫	-9.23227
と思いました	-9.23255
のこと	-9.23303
井	-9.23356
があるので	-9.23524
切り	-9.23536
言い	-9.23543
ったり	-9.23578
認識	-9.23739
良かった	-9.23836
旅	-9.23902
今回は	-9.23978
つけ	-9.24012
違い	-9.24018
可能	-9.24021
指導	-9.24087
出す	-9.24098
忘れ	-9.24119
このような	-9.24175
軍	-9.24204
これから	-9.24209
ソフト	-9.24229
スポーツ	-9.24262
もない	-9.24335
収入	-9.24378
後の	-9.24447
んですが	-9.24457
賞	-9.24496
勝	-9.24536
ありがとうございました	-9.24536
開	-9.24606
ませんでした	-9.24624
トラブル	-9.24646
髪	-9.24808
業界	-9.24865
税	-9.24878
練習	-9.2489
満	-9.24918
聞いて	-9.24963
客	-9.24982
もなく	-9.25076
募集	-9.25157
どのように	-9.25166
立て	-9.25199
られない	-9.25221
限定	-9.25267
知らない	-9.25269
赤	-9.25273
入れ	-9.25509
意	-9.25564
自分に	-9.25716
先生	-9.2576
韓国	-9.258
保存	-9.2585
小さな	-9.25926
古	-9.25973
必要があります	-9.26077
市場	-9.26119
人たち	-9.26208
テーマ	-9.26308
指	-9.26335
安心	-9.26359
きます	-9.26361
みんな	-9.26474
全体	-9.26488
なんか	-9.26548
行き	-9.26638
を作る	-9.26689
電	-9.26718
ないように	-9.26779
込んで	-9.26841
通信	-9.26851
横	-9.27024
取	-9.27038
事が	-9.27059
いただく	-9.27137
▁本	-9.27199
当社	-9.27212
お客様の	-9.27274
雰囲気	-9.27286
以外の	-9.27374
注文	-9.27424
世	-9.27425
転	-9.2749
無料で	-9.27729
クレジットカード	-9.27822
程	-9.27879
解説	-9.2796
ぞ	-9.28017
できません	-9.28045
作成	-9.28062
いただいた	-9.28139
長い	-9.28171
痛み	-9.28188
PC	-9.28261
ためには	-9.28271
幸せ	-9.28356
ほぼ	-9.28434
障害	-9.28463
いれば	-9.28599
ご紹介	-9.28633
入り	-9.28763
したこと	-9.2881
土地	-9.28819
でき	-9.2891
殺	-9.28919
早	-9.28963
付	-9.28964
想像	-9.2898
今回の	-9.29044
恋愛	-9.2909
来た	-9.29144
していて	-9.29168
なければならない	-9.29173
読んで	-9.29319
となり	-9.29338
みると	-9.29398
総	-9.2949
いか	-9.29492
高校	-9.29566
23	-9.29619
場合があります	-9.29789
県	-9.29798
することは	-9.29845
何を	-9.29862
工事	-9.29937
先に	-9.29947
ほ	-9.30012
医師	-9.30024
価値	-9.30071
応援	-9.30082
ラー	-9.301
重要	-9.3016
となりました	-9.30294
介護	-9.3033
僕	-9.30439
すでに	-9.30483
制作	-9.30492
中で	-9.30629
なぁ	-9.30632
科	-9.30715
どうしても	-9.30759
というのが	-9.30761
座	-9.30771
すごく	-9.30795
君	-9.30831
してきた	-9.30834
楽しく	-9.30859
加	-9.30867
ライブ	-9.30867
しっかりと	-9.30875
ここ	-9.30927
ファ	-9.30978
利益	-9.3098
ようで	-9.31065
症状	-9.31137
わけです	-9.31178
異	-9.31199
名前	-9.31308
アニメ	-9.31399
物件	-9.31577
させ	-9.31672
細	-9.31702
タイ	-9.31757
みて	-9.31794
言	-9.3182
家庭	-9.31833
これまで	-9.31964
付き	-9.32069
絵	-9.32087
素晴らしい	-9.32112
事前に	-9.32151
会社の	-9.32286
解	-9.32322
つき	-9.32365
に関しては	-9.3241
://	-9.32428
悩み	-9.32448
日本人	-9.3254
大切な	-9.32568
責任	-9.32583
見る	-9.32636
ラン	-9.32638
きて	-9.32647
[	-9.32709
しまいます	-9.32715
未	-9.32723
園	-9.32813
28	-9.32842
話を	-9.32849
海外	-9.32852
日本語	-9.33001
22	-9.33031
手続き	-9.33081
いても	-9.33213
日間	-9.33247
こそ	-9.33252
記	-9.33376
だと思う	-9.33411
課題	-9.33431
ならば	-9.33485
思い出	-9.33488
いろいろな	-9.33505
使える	-9.33506
漫画	-9.33639
今回	-9.33685
てしまった	-9.33838
右	-9.3384
を選ぶ	-9.33963
リン	-9.34023
するのが	-9.34048
対	-9.34099
メッセージ	-9.34171
公園	-9.34227
社員	-9.34234
基本	-9.34254
探	-9.34303
組織	-9.34365
気分	-9.34425
宮	-9.34458
【	-9.34658
わからない	-9.34664
キャンペーン	-9.34683
記憶	-9.34716
たくさん	-9.3472
ものが	-9.34756
メンバー	-9.34815
マンション	-9.34825
と思い	-9.34838
落ち	-9.34922
のない	-9.34964
オープン	-9.35063
時には	-9.35087
専門	-9.35097
まる	-9.35106
できた	-9.35133
企画	-9.3516
今の	-9.35165
官	-9.35171
ご注文	-9.35174
_	-9.35183
正しい	-9.352
によっては	-9.35238
影響	-9.35256
資格	-9.35257
切	-9.35295
みたいな	-9.35414
大人	-9.35434
制限	-9.35468
00	-9.35482
注目	-9.35536
肉	-9.3558
松	-9.35592
素	-9.35678
不足	-9.3569
間に	-9.3575
者が	-9.35762
近く	-9.35763
減	-9.35791
頑張って	-9.35839
方に	-9.35867
コード	-9.35934
配信	-9.35954
スタイル	-9.35964
ドラマ	-9.35994
いきます	-9.36084
四	-9.3611
星	-9.36124
ール	-9.36235
ちゃん	-9.36244
結	-9.3625
服	-9.36262
骨	-9.36352
自由	-9.36362
大阪	-9.36415
とする	-9.36417
していきます	-9.36435
関連	-9.36491
なくなる	-9.36503
組	-9.36524
働き	-9.36619
最近	-9.36633
くれた	-9.36762
返済	-9.36773
さんに	-9.36779
ックス	-9.36943
疲れ	-9.36966
弾	-9.36978
アイテム	-9.3705
▁現在	-9.37065
政府	-9.37072
建物	-9.37113
エネルギー	-9.37231
向け	-9.37238
症	-9.3728
新たな	-9.37324
することができる	-9.3733
色々な	-9.37386
流れ	-9.3741
を利用する	-9.37472
んだけど	-9.37579
かも	-9.376
末	-9.3765
分からない	-9.37716
分の	-9.3774
私も	-9.37741
いつ	-9.37771
の中	-9.37788
ないので	-9.37894
努力	-9.37921
きちんと	-9.3817
をお	-9.38185
あの	-9.38221
帰り	-9.38231
などに	-9.38269
お届け	-9.38328
楽しみ	-9.38345
協力	-9.38358
馬	-9.38361
事務所	-9.38408
ものは	-9.3849
こちら	-9.38601
もらう	-9.38604
今後	-9.38621
29	-9.38667
ライン	-9.38684
v	-9.38703
内に	-9.3877
操作	-9.38783
地方	-9.38875
レー	-9.38906
法律	-9.3894
長く	-9.39035
500	-9.39067
特別	-9.39094
当日	-9.3912
▁今回	-9.39123
or	-9.39129
一日	-9.39135
信	-9.39162
橋	-9.39177
試合	-9.39212
いますが	-9.39221
生き	-9.39227
団	-9.39303
遊び	-9.39478
用の	-9.39532
を利用して	-9.39558
してから	-9.39567
となっている	-9.3959
転職	-9.39647
ブランド	-9.39684
動き	-9.39915
安い	-9.4002
素敵な	-9.4004
であること	-9.4007
在	-9.4008
返	-9.40112
資料	-9.40308
せず	-9.40352
日々	-9.40393
飲み	-9.40415
計算	-9.40468
という事	-9.40469
なぜ	-9.40564
皆さん	-9.40607
高く	-9.40615
年度	-9.4064
コンテンツ	-9.40641
などが	-9.40685
相	-9.40731
内の	-9.40817
午後	-9.40865
を作って	-9.40877
機関	-9.40888
せる	-9.40949
致します	-9.40967
彼女	-9.40977
どんどん	-9.40984
▁自分の	-9.41003
連	-9.41006
を受ける	-9.41098
最高	-9.41108
だって	-9.41131
ていました	-9.41166
展開	-9.41172
一つ	-9.41181
まま	-9.41271
派	-9.41346
第一	-9.41386
もし	-9.41473
Web	-9.41556
ざ	-9.41574
▁最近	-9.41671
an	-9.41758
手術	-9.41774
メディア	-9.41838
かけ	-9.41908
血	-9.4196
する事	-9.41968
ありがとうございます	-9.42011
さえ	-9.42085
方も	-9.42133
に合わせて	-9.42148
船	-9.42193
書類	-9.42237
てきた	-9.42242
以降	-9.42317
いろんな	-9.42388
壁	-9.42438
受付	-9.42458
利	-9.42473
んですけど	-9.42485
ローン	-9.42504
為	-9.42522
の話	-9.42529
しよう	-9.42533
までに	-9.4257
のではないか	-9.42594
▁今回の	-9.4262
予想	-9.4274
なども	-9.42811
番組	-9.42832
少しでも	-9.42839
も多く	-9.42897
昔	-9.42904
角	-9.42917
の上	-9.42954
法人	-9.42956
ことがある	-9.43069
つか	-9.43104
比較	-9.43175
秋	-9.43201
シリーズ	-9.43216
千	-9.43457
200	-9.43486
過	-9.43488
要素	-9.43589
申請	-9.4363
会話	-9.43678
べき	-9.43742
とした	-9.43839
仲間	-9.43853
非	-9.43857
良	-9.43889
感情	-9.4391
というもの	-9.43957
お客様に	-9.43962
首	-9.44093
27	-9.44095
行った	-9.44102
と言われています	-9.44157
又は	-9.4423
歴史	-9.4424
当然	-9.44257
までの	-9.44294
ごとに	-9.44351
ぼ	-9.44366
売	-9.44397
のための	-9.4447
あたり	-9.44474
=	-9.44504
自動車	-9.44517
かつ	-9.44604
感覚	-9.44611
限り	-9.44617
アル	-9.44628
都合	-9.44674
26	-9.4468
発行	-9.44767
▁S	-9.44775
されていた	-9.44787
ようになりました	-9.4486
面白い	-9.4486
売却	-9.44872
便	-9.4491
相場	-9.44922
彼の	-9.44963
記録	-9.44964
施術	-9.45003
になってしまう	-9.45098
▁その後	-9.45125
レッスン	-9.45128
落	-9.45133
はもちろん	-9.45136
状態で	-9.45151
団体	-9.45167
ダー	-9.45171
ていない	-9.45182
完成	-9.45273
しまいました	-9.45286
プロジェクト	-9.4536
弱	-9.45369
とともに	-9.45492
あるいは	-9.45509
▁まず	-9.45511
シー	-9.45569
谷	-9.45582
フリー	-9.45595
いません	-9.4561
全ての	-9.45625
株式会社	-9.45642
を受けて	-9.45694
接	-9.45695
やっぱり	-9.45722
)」	-9.45755
チャ	-9.45835
私たち	-9.45894
あって	-9.45906
ここで	-9.46023
剤	-9.46117
動物	-9.46122
級	-9.46177
ショップ	-9.46256
そこ	-9.46269
青	-9.46277
納得	-9.46365
ツール	-9.46438
下記の	-9.46557
精	-9.46587
雪	-9.46612
と思いますが	-9.46646
未来	-9.46671
▁私の	-9.46677
ですし	-9.46685
削除	-9.46716
映像	-9.46757
疑問	-9.46808
調	-9.46817
早い	-9.46827
ていく	-9.46848
左	-9.4692
人で	-9.47089
暮らし	-9.47149
ことから	-9.47249
いろいろ	-9.47334
タイム	-9.47369
筋肉	-9.47388
見た	-9.47406
運転	-9.47442
力を	-9.47517
を持っている	-9.47596
あなたが	-9.47641
へと	-9.477
キー	-9.47704
十	-9.47719
に参加	-9.47724
しばらく	-9.47762
は何	-9.47762
季節	-9.47827
などは	-9.47871
それぞれの	-9.47889
上に	-9.47918
合い	-9.48034
を実施	-9.48038
全部	-9.48067
▁私も	-9.48081
を見る	-9.48224
そこに	-9.48246
任	-9.48277
券	-9.48335
の方は	-9.48357
受け	-9.48406
メリット	-9.48463
内で	-9.48476
保護	-9.48561
項目	-9.4865
80	-9.48708
赤ちゃん	-9.48728
マー	-9.48762
ており	-9.48803
摂取	-9.4883
反応	-9.48838
保証	-9.48883
プレイ	-9.48942
だけではなく	-9.48981
よかった	-9.48996
んですよね	-9.49032
ナー	-9.49061
十分	-9.49063
素材	-9.49106
書いた	-9.49147
エリア	-9.49163
画	-9.49168
通常	-9.4918
するための	-9.49242
なくなった	-9.49272
最初の	-9.49318
運	-9.49337
栄養	-9.4942
家の	-9.49551
冬	-9.49553
野菜	-9.49561
都市	-9.49584
を受けた	-9.49611
その後	-9.49611
なのですが	-9.49791
かと思います	-9.49811
空間	-9.4986
を中心に	-9.49896
パー	-9.49908
と思っている	-9.49973
国民	-9.49981
相手の	-9.50018
値段	-9.5008
るように	-9.5009
るのは	-9.50131
超	-9.50131
ところで	-9.50278
に行った	-9.50283
胸	-9.50293
寺	-9.50315
が必要です	-9.50327
ランキング	-9.50411
実行	-9.50425
既に	-9.50485
してしまった	-9.50506
積極的に	-9.50535
詳細	-9.50536
に入って	-9.50573
消	-9.50618
彼	-9.50656
いう	-9.50658
日から	-9.50695
スペース	-9.5072
労働	-9.50866
乗	-9.50921
行う	-9.50933
くなる	-9.50954
大丈夫	-9.51024
波	-9.51047
OK	-9.51063
下記	-9.51227
越	-9.51281
武	-9.5131
安く	-9.51322
自信	-9.51365
茶	-9.51403
詳しく	-9.51414
進	-9.51468
思った	-9.51509
いただけます	-9.51539
ですから	-9.51541
フィ	-9.51544
教室	-9.51688
しましたが	-9.51763
丸	-9.51792
最後の	-9.51799
レン	-9.51927
保	-9.5193
少ない	-9.51968
調整	-9.5199
番号	-9.5207
されること	-9.52125
掛け	-9.52211
実現	-9.52247
ことはありません	-9.52268
アイ	-9.52274
刺激	-9.52315
局	-9.5236
戦争	-9.52374
送	-9.5238
ハイ	-9.5243
聴	-9.52444
代表	-9.5247
んですよ	-9.52511
マイ	-9.52528
を使った	-9.52534
最初に	-9.52559
を持ち	-9.52591
からは	-9.52622
出来ない	-9.52742
クラス	-9.52802
終	-9.52829
に向けて	-9.5283
複数の	-9.5285
あれ	-9.52912
のだが	-9.52928
いくら	-9.52932
息子	-9.52948
可能性があります	-9.53004
たくない	-9.53044
一部	-9.53112
可能性	-9.53135
▁私が	-9.53173
ものの	-9.53185
時点で	-9.53204
こちらの	-9.5323
ゆ	-9.53241
だけど	-9.53253
受	-9.53297
に関して	-9.53316
感謝	-9.53336
証	-9.53347
▁いつも	-9.5337
を取り	-9.53391
用意	-9.53537
思って	-9.53545
生産	-9.53612
訪問	-9.53633
今は	-9.53649
今日	-9.53654
方の	-9.53662
完全に	-9.53739
いましたが	-9.53846
だけの	-9.53878
しているので	-9.5394
普通の	-9.54007
源	-9.54008
お話	-9.54038
損	-9.54041
サー	-9.54078
、『	-9.54107
いたら	-9.54124
どうぞ	-9.54167
防	-9.54259
文章	-9.54267
軽	-9.54274
くて	-9.54285
お問い合わせ	-9.54299
事は	-9.54346
スター	-9.54406
セミナー	-9.54481
余裕	-9.54547
人を	-9.54548
テスト	-9.54556
感想	-9.54736
端	-9.54754
温	-9.54763
al	-9.54777
ホーム	-9.54882
エン	-9.54944
難	-9.54944
カラー	-9.54994
はとても	-9.55002
反	-9.5503
コミュニケーション	-9.55064
える	-9.55069
編集	-9.55103
現場	-9.5515
▁実は	-9.55174
れた	-9.55224
方法を	-9.55315
最大	-9.55319
担当	-9.5535
職場	-9.55414
来て	-9.55469
切れ	-9.55518
分析	-9.55577
コスト	-9.5561
発生	-9.5562
送信	-9.55633
70	-9.55666
始め	-9.55682
回答	-9.55723
発展	-9.55799
x	-9.55814
研修	-9.55823
女性の	-9.55829
平均	-9.55864
負	-9.55922
出来	-9.56002
きっと	-9.56127
をした	-9.56143
ひと	-9.56162
続け	-9.56216
設計	-9.56237
美味しい	-9.56259
iPhone	-9.56269
類	-9.56339
今日は	-9.56341
配	-9.56347
やる	-9.56374
食品	-9.56377
られます	-9.56382
普段	-9.56477
いたしました	-9.56477
なんだ	-9.56584
者は	-9.56599
であっても	-9.56647
生徒	-9.56651
っていた	-9.5668
現代	-9.56685
いって	-9.56701
終わり	-9.56712
の問題	-9.56742
▁-	-9.56843
わけ	-9.56939
するには	-9.57012
ありました	-9.57021
氏	-9.57102
ママ	-9.57213
フェ	-9.57215
藤	-9.57215
若い	-9.57227
密	-9.57236
誰	-9.57244
までは	-9.57263
2017	-9.57293
ツアー	-9.57342
女子	-9.57351
授業	-9.57363
駐車場	-9.57364
ぬ	-9.57379
両	-9.57446
求人	-9.57524
によると	-9.57573
まったく	-9.57594
ご連絡	-9.57604
▁まずは	-9.57608
スーパー	-9.57617
モノ	-9.57667
わかる	-9.57678
聞き	-9.57711
国の	-9.57719
資金	-9.57729
字	-9.57761
める	-9.57802
考え方	-9.57826
re	-9.57856
案	-9.57973
買って	-9.58014
森	-9.58048
カフェ	-9.58091
知って	-9.58107
生まれ	-9.58114
監督	-9.58206
てくれる	-9.58244
嬉しい	-9.58257
得	-9.58515
なりました	-9.58516
スキル	-9.58588
いただける	-9.58707
過去	-9.58707
込む	-9.5878
訳	-9.58812
ルール	-9.58828
失	-9.58834
トレーニング	-9.58888
草	-9.58894
継続	-9.59038
の原因	-9.59122
現状	-9.59148
子どもたち	-9.5922
被害	-9.59225
演	-9.59247
お気軽に	-9.59301
層	-9.59393
安定	-9.59415
展示	-9.59448
様に	-9.5948
以内	-9.59498
攻撃	-9.59534
してきました	-9.59663
+	-9.59698
退	-9.59835
買い	-9.59858
2018	-9.59983
こういう	-9.60007
まり	-9.60017
人々	-9.60118
これを	-9.60141
離婚	-9.60147
市の	-9.60284
みてください	-9.60316
っています	-9.6035
常	-9.60388
ジャ	-9.60411
▁10	-9.60441
将来	-9.60516
しまい	-9.60523
ドル	-9.60524
女の子	-9.6054
しやすい	-9.60556
距離	-9.60632
れて	-9.60653
京都	-9.60673
現在の	-9.60685
▁それが	-9.60766
休	-9.60877
予防	-9.6093
造	-9.61049
設置	-9.61059
家に	-9.61065
クラブ	-9.61088
絶	-9.61109
八	-9.61166
祭	-9.6118
合わせ	-9.61263
なります	-9.6138
方々	-9.61389
コーヒー	-9.6141
観光	-9.61415
口コミ	-9.61425
昭和	-9.61464
トイレ	-9.61491
シーン	-9.61504
▁このような	-9.61505
▁もう	-9.6153
せて	-9.6164
が出	-9.61645
タイトル	-9.61659
増加	-9.61667
お金を	-9.61724
すごい	-9.61739
息	-9.61991
フォーム	-9.62004
以上に	-9.62007
もしくは	-9.62075
お願い	-9.62107
修正	-9.62143
運用	-9.6216
んですね	-9.62168
始めた	-9.62182
事情	-9.62224
聞いた	-9.6224
帯	-9.62345
しかない	-9.62354
続けて	-9.62357
戸	-9.62362
遠	-9.62398
郡	-9.62414
せずに	-9.62525
いっぱい	-9.62563
様子	-9.62642
できるように	-9.62656
魚	-9.62663
現地	-9.62718
ようになった	-9.62749
だが	-9.62755
▁先日	-9.6279
姿勢	-9.62798
体の	-9.62841
アカウント	-9.62845
なん	-9.62892
姿	-9.62945
ライ	-9.62974
ければ	-9.63021
強く	-9.63028
フル	-9.63045
導入	-9.63188
に対応	-9.63198
だったら	-9.632
合う	-9.63223
一人で	-9.63247
演奏	-9.63251
▁4	-9.63251
歳の	-9.63261
過ぎ	-9.63321
範囲	-9.63322
させて頂きます	-9.63327
を通して	-9.63376
当たり前	-9.63403
逆	-9.63469
しようと	-9.6352
葉	-9.63569
ーン	-9.63587
分かる	-9.63594
にくい	-9.63608
眠	-9.6363
電気	-9.63735
のだろう	-9.63739
してみました	-9.63749
cm	-9.63766
新聞	-9.63769
カル	-9.63796
したもの	-9.63821
手段	-9.63837
するか	-9.63864
h	-9.63917
箱	-9.63961
発見	-9.64166
オンライン	-9.64202
ことになります	-9.64212
記念	-9.64249
参加者	-9.64258
いくつか	-9.64259
申し込み	-9.64295
ワン	-9.64298
極	-9.64314
借り	-9.6435
可能な	-9.64369
いたり	-9.64422
現	-9.6446
発送	-9.64468
有効	-9.64469
許	-9.64519
自分を	-9.64543
霊	-9.6457
北海道	-9.64632
鳥	-9.64633
これが	-9.64645
危険	-9.64656
際に	-9.64681
分野	-9.64694
となって	-9.64739
痛	-9.64835
▁2018	-9.64838
仕組み	-9.64842
卒業	-9.64872
ますので	-9.64903
んだろう	-9.64926
筋	-9.6498
31	-9.65017
ご案内	-9.65058
もので	-9.65109
精神	-9.65155
リア	-9.6517
ボタン	-9.65213
ボール	-9.65215
ご予約	-9.6526
信頼	-9.65266
院	-9.65291
いたので	-9.65319
に来て	-9.65331
打ち	-9.65349
際	-9.65374
皆	-9.65402
メイン	-9.65424
考える	-9.6546
いるので	-9.65469
公式	-9.65547
地震	-9.65662
桜	-9.65739
そうだ	-9.65754
俺	-9.65812
の情報	-9.65837
売り	-9.65867
ワーク	-9.65925
応募	-9.65945
みる	-9.65969
▁今まで	-9.66039
改めて	-9.66104
いま	-9.66174
んだよ	-9.66207
されない	-9.66238
広	-9.66264
整理	-9.66368
具	-9.66408
接続	-9.66427
師	-9.66474
米国	-9.66513
証拠	-9.66518
丁寧に	-9.66533
サロン	-9.66574
チケット	-9.66601
相手に	-9.66625
色々	-9.66633
放	-9.66666
編	-9.66733
もらった	-9.66795
向	-9.66884
のかな	-9.66914
の違い	-9.66937
いただきました	-9.66965
を行い	-9.67021
インストール	-9.67034
習	-9.6707
の一つ	-9.6715
▁まだ	-9.67203
注	-9.67207
しません	-9.67299
のうち	-9.67476
いで	-9.67576
と呼ばれる	-9.67583
ところに	-9.67595
オン	-9.67642
ッシュ	-9.67645
なっている	-9.67654
いると	-9.67731
▁第	-9.67734
としての	-9.67862
児	-9.67888
市民	-9.67891
▁実際に	-9.67921
支払	-9.67933
自動	-9.67972
話し	-9.68003
ゲ	-9.68026
製造	-9.6803
はある	-9.6813
するという	-9.68136
趣味	-9.68143
Google	-9.68184
夫婦	-9.68216
後は	-9.68247
いなかった	-9.68314
少しずつ	-9.68349
決め	-9.68363
にとっては	-9.68434
セックス	-9.68449
もらえる	-9.68452
意見	-9.68559
全然	-9.68561
妊娠	-9.68571
するため	-9.68616
適	-9.6864
許可	-9.68668
▁しかも	-9.68681
教えて	-9.68816
▁大	-9.68869
講座	-9.68878
ビル	-9.6906
が出て	-9.69065
Q	-9.69073
を行って	-9.69075
みた	-9.69087
委員会	-9.69147
抜け	-9.69204
とっても	-9.69277
というか	-9.69294
取得	-9.69301
ネットワーク	-9.6934
いつでも	-9.69367
五	-9.69396
年代	-9.69425
計	-9.69569
という言葉	-9.6961
が無い	-9.69695
じゃ	-9.69791
とのこと	-9.69804
目を	-9.69828
クリスマス	-9.69878
しく	-9.69928
に対し	-9.6993
記載	-9.70011
のでしょう	-9.70044
基礎	-9.70099
美しい	-9.70101
旦那	-9.7012
を見た	-9.70203
遅れ	-9.70288
歩	-9.70387
新規	-9.70429
確実に	-9.70449
会議	-9.70533
有名な	-9.70534
価	-9.7057
物語	-9.70599
した場合	-9.70606
オリジナル	-9.70615
更に	-9.70644
であろう	-9.70664
可能性がある	-9.70669
大きい	-9.70706
登	-9.70714
わかりません	-9.70787
・・	-9.70843
婚活	-9.70856
▁P	-9.70886
反対	-9.70908
st	-9.7092
しなければならない	-9.71021
きっかけ	-9.7105
周辺	-9.71055
腹	-9.71083
さま	-9.71097
次第	-9.7114
一覧	-9.71147
食べる	-9.71225
務	-9.71244
酒	-9.71258
汗	-9.7127
結局	-9.71286
構成	-9.71324
写真を	-9.7133
小さい	-9.71339
節	-9.7136
le	-9.71367
次回	-9.71393
についても	-9.71403
されていない	-9.71422
探し	-9.71438
除	-9.71504
実践	-9.71533
仕	-9.71538
もいい	-9.71559
絶対に	-9.71561
選	-9.71591
東京都	-9.7166
製	-9.71666
が出る	-9.71699
らず	-9.71752
最終	-9.71791
▁●	-9.71854
乳	-9.71863
害	-9.71863
手を	-9.71885
起こ	-9.7191
どちら	-9.71942
目の	-9.71947
できました	-9.71947
幅	-9.71949
巻	-9.72041
元気	-9.72072
の内容	-9.72112
残り	-9.7214
時から	-9.72141
屋さん	-9.72145
ゼ	-9.72307
自分は	-9.72316
段	-9.72382
だけでも	-9.72414
短	-9.72418
ようだ	-9.72418
よろしくお願いします	-9.72422
思います	-9.72498
手数料	-9.72616
できて	-9.7263
れない	-9.72668
ることができます	-9.72683
参考	-9.72704
気軽に	-9.72727
借金	-9.72731
明らかに	-9.72741
自宅	-9.72757
前から	-9.72769
必要がある	-9.7277
普通	-9.72771
つい	-9.72805
▁これから	-9.72836
有名	-9.72849
になること	-9.72882
通知	-9.7289
適切な	-9.72951
置	-9.72965
助	-9.72976
にお	-9.72985
顧客	-9.73055
もちろん	-9.7307
外国人	-9.73139
魅力	-9.73198
以前	-9.7324
逆に	-9.73265
かかる	-9.73267
クリーム	-9.73272
バランス	-9.73273
布	-9.73298
当時	-9.73303
嫌	-9.73418
させていただきました	-9.73433
成果	-9.73459
ロン	-9.73487
深く	-9.73492
異なる	-9.73515
振り	-9.7354
ch	-9.73544
政治	-9.73559
寄	-9.73562
すぎ	-9.73587
トップ	-9.73592
州	-9.7363
続き	-9.73631
クリニック	-9.73668
されており	-9.7368
構造	-9.73697
その他の	-9.73717
の中から	-9.73755
を行います	-9.73762
敵	-9.73764
空港	-9.73769
なんと	-9.7378
スマートフォン	-9.73811
レストラン	-9.7382
商品を	-9.73856
こともある	-9.73889
まだまだ	-9.7389
チャンス	-9.73905
可能です	-9.73912
女性が	-9.73928
▁何	-9.73969
算	-9.73992
感動	-9.73997
項	-9.73999
信用	-9.74001
国内	-9.74012
セキュリティ	-9.74041
門	-9.74042
と考えています	-9.74077
作って	-9.74261
瞬間	-9.74302
大手	-9.74356
育て	-9.74387
状	-9.74409
キャ	-9.74433
個人情報	-9.74433
取り組み	-9.7447
二人	-9.74485
▁このように	-9.74555
人気の	-9.74584
積	-9.74587
整備	-9.74589
の良い	-9.746
完了	-9.74654
にならない	-9.74668
看護師	-9.74698
すぎて	-9.7473
僕は	-9.74736
してくれた	-9.74775
場合がございます	-9.7478
拡大	-9.74823
頂いた	-9.74843
できれば	-9.74899
暗	-9.74909
しておく	-9.74936
みましょう	-9.74985
日常	-9.75
なんです	-9.75055
トン	-9.7507
できるだけ	-9.7511
はどう	-9.75189
再生	-9.75243
主張	-9.75245
▁5	-9.75282
起	-9.75307
の方に	-9.75312
をもって	-9.75313
簡単な	-9.75331
万人	-9.75418
払い	-9.75424
ライト	-9.75426
ろう	-9.75432
百	-9.75444
これらの	-9.75488
シャ	-9.75496
に出	-9.75518
提出	-9.75606
建築	-9.75677
を通じて	-9.75681
ガン	-9.75804
いった	-9.7583
他に	-9.75878
もらって	-9.75943
を得る	-9.75967
わたし	-9.7599
解消	-9.76031
機器	-9.76052
下の	-9.76055
わけではない	-9.76071
の一部	-9.76105
効果が	-9.76138
携帯	-9.76144
方には	-9.76154
便利	-9.76157
義	-9.76162
アー	-9.76217
動作	-9.76235
キャンセル	-9.76285
職員	-9.76309
なのだ	-9.76356
▁19	-9.765
苦	-9.76512
工	-9.76518
についての	-9.76526
on	-9.76549
充実	-9.76551
乾燥	-9.76602
受験	-9.76603
美容	-9.76613
食べて	-9.76618
ということを	-9.76706
乗り	-9.76711
時間は	-9.76775
板	-9.76818
おか	-9.76831
さんと	-9.76832
ませ	-9.76886
づ	-9.76892
と思われる	-9.76936
くれて	-9.76957
固	-9.77062
をはじめ	-9.77074
厳しい	-9.77093
楽しめる	-9.77119
が良い	-9.77134
修理	-9.77167
ここに	-9.77172
速	-9.7724
めて	-9.7728
人もいる	-9.7732
そのような	-9.77353
ひとり	-9.7736
▁これまで	-9.7741
当店	-9.77442
皆様	-9.77465
回復	-9.77468
為に	-9.77471
することを	-9.77484
鉄	-9.77525
方法は	-9.77598
ります	-9.7762
絶対	-9.77679
のだろうか	-9.77704
自由に	-9.77747
コー	-9.77806
科学	-9.77813
ものだ	-9.77821
続ける	-9.77829
脱	-9.77847
▁[	-9.77879
設	-9.77935
はまだ	-9.77941
ちゃ	-9.7803
権利	-9.78072
ar	-9.78073
変え	-9.78106
てしまいます	-9.78127
そうで	-9.78147
香り	-9.78177
言った	-9.78182
▁ご	-9.78191
見える	-9.78195
がん	-9.78199
ころ	-9.78223
の記事	-9.78285
の世界	-9.78301
称	-9.78319
もう少し	-9.78324
ペット	-9.78334
泊	-9.78365
オススメ	-9.7844
」(	-9.78442
私たちの	-9.7845
設備	-9.78454
実績	-9.7846
ジェ	-9.78477
ヨ	-9.78545
してもらう	-9.78641
数字	-9.7876
わけで	-9.78773
場所に	-9.78809
バージョン	-9.78811
初期	-9.78832
同時に	-9.78854
合わせて	-9.7886
IT	-9.78865
してくれます	-9.78874
久	-9.78896
のではなく	-9.78932
づくり	-9.79023
ることができる	-9.7908
上げ	-9.79107
体重	-9.79146
てる	-9.79163
患者さん	-9.79202
レス	-9.7922
案内	-9.79306
を感じる	-9.79356
女性は	-9.79376
がありますが	-9.79382
毎年	-9.79386
昨日	-9.79388
はあまり	-9.79456
位置	-9.79506
に必要な	-9.79508
を作成	-9.7953
をご紹介します	-9.79536
掃除	-9.79544
Z	-9.79557
走	-9.7958
を紹介	-9.79614
明日	-9.79616
脂肪	-9.7962
ブラ	-9.79772
なのに	-9.79846
したいと思います	-9.7985
ランド	-9.79863
余	-9.79871
貸	-9.79924
念	-9.79926
産業	-9.79959
担当者	-9.80021
共	-9.80055
性格	-9.80078
ップ	-9.8008
が可能	-9.80101
禁止	-9.80101
ルーム	-9.80125
リリース	-9.80179
るのが	-9.80233
そこまで	-9.80255
サーバー	-9.80262
2016	-9.80344
頂き	-9.80348
義務	-9.80374
出して	-9.80381
300	-9.80397
負け	-9.80413
住所	-9.80425
総合	-9.80441
留	-9.80474
車の	-9.80492
技	-9.80566
ニー	-9.80573
シュ	-9.80596
舞台	-9.80669
るべき	-9.80672
福	-9.80673
温泉	-9.8072
en	-9.8075
省	-9.80752
近い	-9.80823
の高い	-9.809
ベスト	-9.80915
玉	-9.80936
バイ	-9.80947
岡	-9.80947
伝	-9.80973
国家	-9.80987
の写真	-9.80999
言えば	-9.81001
シーズン	-9.81027
▁M	-9.81054
関心	-9.81063
提案	-9.81089
人には	-9.81133
地域の	-9.81158
ID	-9.81175
があると	-9.81177
▁なので	-9.81183
▁こんな	-9.81225
が一番	-9.81226
無い	-9.81229
普通に	-9.81249
たいと思います	-9.8133
を確認	-9.81343
1000	-9.81352
キャッシング	-9.81356
キャラクター	-9.81399
ける	-9.81442
がありません	-9.8147
袋	-9.81487
の仕事	-9.81663
の中には	-9.81684
縁	-9.8169
Windows	-9.81753
予算	-9.81814
のことを	-9.8186
てくる	-9.81879
の状態	-9.81896
就職	-9.81972
メールアドレス	-9.82006
っていう	-9.8201
背	-9.82024
▁ここで	-9.82039
勤務	-9.82043
創	-9.82093
が悪い	-9.82115
ご相談	-9.82139
認定	-9.82152
差し	-9.82162
商	-9.82177
のもの	-9.82177
警察	-9.82201
を出して	-9.82209
空気	-9.82215
頼	-9.82246
見え	-9.82273
金利	-9.82283
以来	-9.82307
列	-9.82355
@	-9.8236
発言	-9.82363
河	-9.8245
友	-9.82457
年以上	-9.82469
お客さん	-9.82476
ログイン	-9.82493
ハウス	-9.82504
旧	-9.82527
別に	-9.82575
浮気	-9.82594
今後の	-9.82605
効	-9.82669
神社	-9.82714
情報が	-9.82737
んじゃないか	-9.82746
世代	-9.82747
自転車	-9.82754
ていて	-9.8276
無く	-9.82763
電車	-9.82778
適用	-9.8278
専門家	-9.82791
深い	-9.82797
ハン	-9.82845
住	-9.82897
問	-9.82903
閲覧	-9.82912
睡眠	-9.82944
十分に	-9.82968
et	-9.82983
ビタミン	-9.83056
突然	-9.83067
理由は	-9.83079
評判	-9.83093
ダン	-9.83123
毎月	-9.83157
養	-9.83238
ネットで	-9.83281
厚	-9.83318
共有	-9.83398
多少	-9.8342
▁ここ	-9.83474
指摘	-9.83519
柄	-9.8359
ほどの	-9.83594
ro	-9.83634
ならない	-9.83643
ちょうど	-9.83654
交	-9.8369
化粧品	-9.83707
別れ	-9.83713
変わって	-9.83718
バン	-9.83755
協会	-9.83798
タン	-9.83823
CD	-9.83828
どこ	-9.83844
人間の	-9.83914
昨年	-9.83924
説	-9.83944
格	-9.83982
診断	-9.84015
替え	-9.84072
それでも	-9.84099
と言われる	-9.84125
停止	-9.84128
若	-9.84169
地球	-9.84185
肩	-9.84225
する必要があります	-9.84245
だったり	-9.84282
向上	-9.84304
炎	-9.84312
複数	-9.84345
深	-9.84347
かもしれませんね	-9.84356
co	-9.84359
が必要な	-9.84393
話す	-9.84403
物を	-9.8443
ガー	-9.84464
そこから	-9.84481
特定	-9.84487
お酒	-9.84514
と思っていた	-9.84528
ております	-9.84663
買い物	-9.84684
ゆっくり	-9.8469
資産	-9.84749
決して	-9.84778
待ち	-9.84798
ッと	-9.84876
緑	-9.84884
バック	-9.8489
心の	-9.84953
▁それでも	-9.84958
雑誌	-9.84979
報	-9.84998
荷物	-9.85006
ヘ	-9.8502
言語	-9.85045
の利用	-9.85097
人材	-9.8514
日本で	-9.85142
肌の	-9.85157
待って	-9.85181
系の	-9.85189
お腹	-9.85192
合格	-9.85214
出て	-9.8523
経過	-9.8523
形で	-9.85231
油	-9.85247
を開始	-9.85255
しさ	-9.85273
まさに	-9.85285
プラス	-9.85287
マッサージ	-9.85343
一般的な	-9.85425
離	-9.85441
だな	-9.85465
秒	-9.85507
ことができました	-9.85511
僕の	-9.85511
印	-9.85558
やり方	-9.85561
当該	-9.85592
com	-9.85599
それほど	-9.85606
望	-9.85633
どこに	-9.85642
日は	-9.85644
していること	-9.85656
頂	-9.85684
不倫	-9.85697
示	-9.85735
今年	-9.85797
交流	-9.85843
患者	-9.85851
工夫	-9.85878
自分自身	-9.85879
子供の	-9.85884
体制	-9.85914
簡単	-9.85947
商品の	-9.85993
前後	-9.85999
面倒	-9.86018
の間	-9.86046
香	-9.86077
▁B	-9.86094
議論	-9.86126
データを	-9.86195
休み	-9.86229
定期	-9.86245
破	-9.86276
進んで	-9.8631
歩いて	-9.86317
のかもしれません	-9.86318
を見ると	-9.86367
吉	-9.86392
ほか	-9.86397
方を	-9.86412
人物	-9.8647
金融	-9.8649
とにかく	-9.86527
してみてください	-9.86586
住民	-9.86587
相当	-9.86608
の方々	-9.86623
体調	-9.8665
ようと	-9.86663
受講	-9.86694
効率	-9.867
▁他の	-9.8671
が少ない	-9.86728
傾向	-9.86791
腰	-9.86803
を入れて	-9.86851
的には	-9.86872
腕	-9.86919
決	-9.86928
顔を	-9.86958
菌	-9.87025
ようになる	-9.87026
大事な	-9.87046
わかって	-9.87063
主に	-9.87075
派遣	-9.87102
パスワード	-9.87151
内容を	-9.87153
していると	-9.87177
入って	-9.87234
するように	-9.87269
報道	-9.8727
ないこと	-9.87276
タイミング	-9.87295
90	-9.87319
回目	-9.87319
細胞	-9.87328
隠	-9.87338
ティー	-9.8738
スポット	-9.87446
建設	-9.87448
を探す	-9.87622
京	-9.87684
実感	-9.87756
ある程度	-9.87768
結婚式	-9.87784
できること	-9.87786
オフ	-9.87822
ことでしょう	-9.87836
古い	-9.87842
なあ	-9.87849
to	-9.87876
沢山	-9.8794
具体的な	-9.87943
消費	-9.87958
キャリア	-9.87959
実際の	-9.87959
来る	-9.87966
陸	-9.87995
やすく	-9.88019
に相談	-9.88036
お知らせ	-9.88046
作った	-9.88063
レイ	-9.88101
経	-9.88131
▁■	-9.88222
津	-9.88248
窓	-9.88249
なし	-9.88319
触	-9.88323
球	-9.8834
のなら	-9.88366
災害	-9.88406
徳	-9.88441
ファッション	-9.88462
ミス	-9.88465
アルバム	-9.8848
圧	-9.88559
始めて	-9.88577
術	-9.8858
出演	-9.88596
ドイツ	-9.886
▁確かに	-9.88603
読	-9.88668
といえば	-9.88701
▁まあ	-9.88721
する場合	-9.88735
テーブル	-9.88776
誰でも	-9.88777
選挙	-9.88785
周り	-9.88796
オー	-9.88811
して下さい	-9.88876
なお	-9.88898
面接	-9.88912
奥	-9.8892
▁C	-9.88921
子供が	-9.88925
頂きました	-9.89026
便利な	-9.89032
お願いします	-9.89059
あらゆる	-9.89073
か月	-9.89102
品質	-9.89105
知っている	-9.89128
ようになります	-9.8915
フランス	-9.8916
ほうが	-9.8921
数は	-9.89217
堂	-9.89254
比較的	-9.89297
聖	-9.8936
がとても	-9.89365
1.	-9.89371
聞か	-9.89392
at	-9.89426
に入れて	-9.89431
週	-9.89435
チャレンジ	-9.89466
規模	-9.89489
宇宙	-9.89506
事項	-9.89544
笑顔	-9.8958
処分	-9.896
談	-9.89606
使用する	-9.89622
中央	-9.89627
背景	-9.89652
気がします	-9.89696
働く	-9.89697
るような	-9.89758
どういう	-9.89791
パートナー	-9.89809
すぎる	-9.89853
至	-9.89855
どこか	-9.89864
湯	-9.89886
耳	-9.89899
ダメ	-9.899
▁私	-9.89902
アドバイス	-9.89916
印刷	-9.89939
を使用して	-9.89946
まって	-9.89998
パターン	-9.90003
全員	-9.90013
方法で	-9.90077
動か	-9.90142
ことが出来る	-9.90204
宿泊	-9.90213
ザー	-9.9023
交通	-9.90301
ティング	-9.90315
買う	-9.90326
サイトで	-9.90372
もあるので	-9.90374
手間	-9.90385
題	-9.9039
活	-9.90395
をご	-9.90495
z	-9.9054
方針	-9.90543
してみましょう	-9.90546
小学校	-9.90595
異常	-9.90595
塩	-9.90599
向き	-9.90603
上手く	-9.90606
種類の	-9.9061
鳴	-9.90639
公式サイト	-9.90661
それに	-9.90661
もあった	-9.90667
展	-9.90672
写	-9.90674
医	-9.9069
を取る	-9.90697
お伝え	-9.90715
減少	-9.90765
々と	-9.90766
に入る	-9.90772
途中	-9.90781
を持った	-9.90786
えて	-9.90804
だろうか	-9.90834
各種	-9.90846
尾	-9.90874
恋	-9.90899
と言っても	-9.90981
することも	-9.90995
5%	-9.91066
調べ	-9.9107
ここまで	-9.91105
里	-9.91169
像	-9.91194
罪	-9.91204
たちが	-9.9121
隊	-9.91299
DVD	-9.913
持	-9.91306
はじめ	-9.91309
ひとつ	-9.9133
佐	-9.9135
関係者	-9.91371
出した	-9.91385
当たり	-9.91391
▁昨日	-9.91402
彼女の	-9.91415
床	-9.91463
見られる	-9.91463
維持	-9.91463
と共に	-9.91471
ッド	-9.91481
長期	-9.91554
初心者	-9.91563
羽	-9.91564
場合もあります	-9.91586
苦労	-9.9159
くらいの	-9.91594
▁これが	-9.91605
だし	-9.91677
▁T	-9.91685
を含む	-9.91705
微	-9.91708
がよく	-9.91759
を超える	-9.91781
タイプの	-9.918
年生	-9.91824
の流れ	-9.91872
分かって	-9.91922
くれ	-9.91946
たった	-9.9196
そんなこと	-9.91979
できなかった	-9.92016
母親	-9.92053
わけではありません	-9.92073
主義	-9.9208
情	-9.92087
酸	-9.92105
受け入れ	-9.92119
そんなに	-9.92228
ことになる	-9.92237
約束	-9.92242
被	-9.92266
本来	-9.92267
ところです	-9.92305
教え	-9.92316
▁当	-9.92323
は非常に	-9.92324
おく	-9.92347
とおり	-9.92351
具体的に	-9.92365
なか	-9.92386
参	-9.92505
込んだ	-9.92522
工場	-9.92535
撃	-9.9254
かけて	-9.92548
いただいて	-9.92565
▁そういう	-9.92569
坂	-9.92575
株	-9.92577
降	-9.92604
ごろ	-9.92649
▁本当に	-9.92692
しまって	-9.92734
沢	-9.92734
ることで	-9.92756
を選んで	-9.92829
習慣	-9.9283
を提供	-9.92871
楽しんで	-9.92891
レンタル	-9.92921
の皆様	-9.92953
連続	-9.92958
片	-9.92992
つつ	-9.93047
ジュ	-9.93052
られています	-9.93072
悪く	-9.93084
見学	-9.93102
生活を	-9.93141
なるべく	-9.93148
を用意	-9.93161
クロ	-9.93198
融資	-9.93214
記事を	-9.93222
勝手に	-9.93229
だよ	-9.93233
プラ	-9.9324
決済	-9.9327
洗	-9.93275
スピード	-9.933
上がり	-9.93311
子供たち	-9.9332
立場	-9.93348
その他	-9.93358
診療	-9.93391
枠	-9.93408
☆	-9.93408
沖縄	-9.93446
彼氏	-9.93447
♪	-9.93464
営	-9.935
材	-9.93518
時間に	-9.93521
に応じて	-9.93551
押し	-9.93637
段階	-9.93653
サッカー	-9.93655
心を	-9.93675
こんなに	-9.93692
残念ながら	-9.93705
ニーズ	-9.93729
を使い	-9.93766
パワー	-9.93792
▁平成	-9.93809
カン	-9.93865
一つの	-9.94034
なもの	-9.94051
×	-9.94064
共通	-9.94069
感じる	-9.94082
戦略	-9.94085
必須	-9.94124
覚えて	-9.94132
トリ	-9.94142
利用する	-9.94166
他にも	-9.94311
捨て	-9.94333
→	-9.94418
企業の	-9.9443
自ら	-9.9443
伸び	-9.94449
ことはない	-9.9445
定期的に	-9.9445
講師	-9.94458
もありません	-9.94475
人が多い	-9.94612
戻	-9.9462
たく	-9.9464
従業員	-9.94647
嬉しいです	-9.94654
も良い	-9.94705
(1	-9.94714
いること	-9.94716
シート	-9.94725
最新	-9.94727
先の	-9.94745
社長	-9.94755
ソン	-9.94758
諸	-9.94777
日まで	-9.94777
たかった	-9.94868
間違い	-9.94882
老	-9.94955
▁あと	-9.94984
ようにしましょう	-9.94999
私達	-9.95024
本当の	-9.95078
交渉	-9.95078
ニキビ	-9.95089
手に	-9.95159
盛	-9.95181
キング	-9.95184
の間に	-9.95204
あなたは	-9.95208
電子	-9.95266
出てくる	-9.95341
マーク	-9.95395
ート	-9.9544
両親	-9.95448
逃げ	-9.95458
と思われます	-9.95586
遊	-9.95593
打	-9.95626
これだけ	-9.95663
緊張	-9.95677
上昇	-9.95678
みなさん	-9.9569
喜び	-9.95719
みたいです	-9.95776
恐れ	-9.95802
端末	-9.95839
バイク	-9.95872
ッチ	-9.95928
僕が	-9.95972
自体	-9.95973
を守る	-9.96003
ホール	-9.96004
強化	-9.96017
ためにも	-9.96046
さない	-9.96052
これで	-9.96061
ことが多い	-9.96079
ビー	-9.96088
ることは	-9.96094
どうして	-9.96148
OS	-9.96152
汚れ	-9.96161
なかったので	-9.96259
掲示板	-9.96303
道路	-9.96304
何が	-9.96305
に興味	-9.96315
を出す	-9.96351
宿	-9.96419
お仕事	-9.9644
財産	-9.96463
固定	-9.96476
過去の	-9.96487
七	-9.96506
▁これらの	-9.9651
崎	-9.96545
力が	-9.96561
コピー	-9.966
追い	-9.96614
レビュー	-9.96665
を使用する	-9.9672
ダイ	-9.96806
返信	-9.96825
植物	-9.96836
関	-9.9686
モン	-9.96861
機械	-9.96935
喜んで	-9.96944
願	-9.96949
が高く	-9.96999
活動を	-9.97036
いただきます	-9.9705
テン	-9.97087
下げ	-9.97105
界	-9.97136
正直	-9.9714
鼻	-9.97144
ガス	-9.97156
携帯電話	-9.97175
そのもの	-9.9718
本人	-9.97204
帰	-9.97207
に登録	-9.97251
言うと	-9.97284
暴	-9.973
徐々に	-9.97305
▁ちょっと	-9.97328
触れ	-9.97334
議	-9.97345
られました	-9.97352
の結果	-9.97418
スキンケア	-9.97476
確かに	-9.97509
させた	-9.97529
発信	-9.97566
控え	-9.9767
焼き	-9.97701
側の	-9.97727
ストーリー	-9.97743
する方法	-9.97791
ることが	-9.97791
食べ物	-9.97794
ブル	-9.97795
した後	-9.97832
のひとつ	-9.97836
なんとか	-9.97844
農	-9.97853
即	-9.97864
やら	-9.97881
▁ぜひ	-9.97923
穴	-9.97962
どれだけ	-9.98002
我々	-9.98047
を楽しむ	-9.9805
を考えて	-9.98073
一切	-9.98101
輪	-9.98102
ノー	-9.98108
誰も	-9.98135
先輩	-9.9814
初め	-9.98167
英	-9.98217
庁	-9.98242
世紀	-9.98273
最後に	-9.98313
ついた	-9.98316
mm	-9.98363
ってしまう	-9.9837
おすすめの	-9.9841
サプリ	-9.98427
眼	-9.98454
ディング	-9.98482
代の	-9.985
がありますので	-9.98536
辞め	-9.98571
だけでは	-9.9858
跡	-9.98594
特別な	-9.98596
生きて	-9.98606
肌に	-9.9865
好み	-9.98718
批判	-9.9875
専用	-9.98768
申込	-9.98834
HP	-9.98852
オプション	-9.98853
飛び	-9.98885
広く	-9.98901
アジア	-9.98902
会社に	-9.98908
のまま	-9.9891
を探して	-9.98912
聞く	-9.98968
▁ここでは	-9.98977
設立	-9.98979
仕事が	-9.9903
車で	-9.99039
頂く	-9.99049
起動	-9.99062
ルー	-9.99075
するもの	-9.99092
避け	-9.99097
ピン	-9.99111
ショー	-9.99137
LINE	-9.99249
▁2017	-9.99275
なければなりません	-9.99295
知りたい	-9.99337
高齢者	-9.99341
把握	-9.99344
出身	-9.99377
ング	-9.99395
お母さん	-9.99412
トラ	-9.99432
といっても	-9.9945
様な	-9.99456
SNS	-9.99513
見た目	-9.99594
しないと	-9.99625
政策	-9.99643
視	-9.99653
ロック	-9.99659
コントロール	-9.99667
カット	-9.99694
選び	-9.99714
アドレス	-9.9975
事で	-9.99756
ビデオ	-9.99758
を作り	-9.99826
ベル	-9.99835
デート	-9.99845
事例	-9.99853
車を	-9.99856
体に	-9.99861
誤	-9.99935
収	-9.99944
の特徴	-9.99954
を感じ	-9.99994
誘	-10.0002
低い	-10.0005
なくなって	-10.001
なんで	-10.0015
困難	-10.002
スタ	-10.002
出産	-10.0021
思え	-10.0022
甘	-10.0022
いいのか	-10.0025
出張	-10.0028
からも	-10.0034
要求	-10.0035
は無い	-10.0037
迫	-10.0039
速度	-10.0042
ワイン	-10.0042
ときには	-10.0042
だけに	-10.0043
当時の	-10.0051
言葉を	-10.0052
事態	-10.0053
を見つけ	-10.006
バイト	-10.0061
数が	-10.0063
浮	-10.0063
シン	-10.0065
2015	-10.0066
進む	-10.0066
述	-10.0069
していますが	-10.007
なんだか	-10.008
人も多い	-10.0088
保湿	-10.0089
快	-10.0089
否定	-10.0091
備	-10.0092
▁*	-10.0093
彼女は	-10.0094
アウト	-10.0097
億円	-10.011
キーワード	-10.0112
にする	-10.0118
と考えている	-10.0119
到着	-10.012
改正	-10.0121
▁それに	-10.0125
人口	-10.013
▁以前	-10.013
すこと	-10.0135
誰か	-10.0136
装	-10.0144
サイトの	-10.0149
いき	-10.0149
0.	-10.015
小説	-10.0151
混	-10.0152
ようになって	-10.0153
そこで	-10.0153
欠	-10.0155
始まり	-10.0162
ついて	-10.0163
まった	-10.0166
がたくさん	-10.0166
りする	-10.0166
雇用	-10.0169
それだけ	-10.0172
犯罪	-10.0172
クリ	-10.0173
男女	-10.0174
知り	-10.0174
詳しい	-10.0175
忙しい	-10.0179
ずつ	-10.0183
諦め	-10.0185
ミニ	-10.0186
億	-10.0187
URL	-10.0188
登場	-10.0191
テキスト	-10.0195
彼は	-10.0199
だという	-10.02
すら	-10.0202
いいでしょう	-10.0202
つもり	-10.0204
実験	-10.0206
過ごす	-10.0207
らせて	-10.0209
皮膚	-10.0214
35	-10.0219
最大の	-10.0221
デジタル	-10.0222
にしても	-10.0225
あげ	-10.0227
と考える	-10.0231
建	-10.0232
お風呂	-10.0234
フォー	-10.0235
の名前	-10.0237
選択肢	-10.0238
の際に	-10.024
会う	-10.0242
においては	-10.0243
福祉	-10.0244
虫	-10.025
滞在	-10.0262
ことだ	-10.0263
組み合わせ	-10.0264
りました	-10.0264
もありますが	-10.0265
お勧め	-10.0266
裁判	-10.0266
立って	-10.0266
2000	-10.0268
とりあえず	-10.0269
仮	-10.027
という点	-10.0272
が可能です	-10.0274
志	-10.0277
補	-10.0277
ご参加	-10.0284
TV	-10.0285
ステ	-10.0286
たちは	-10.0287
効果がある	-10.0288
口座	-10.0292
進行	-10.0295
を考える	-10.03
ウェブサイト	-10.0301
散	-10.0309
核	-10.0312
内容は	-10.0315
▁東京	-10.0317
特定の	-10.0318
健	-10.0319
リフォーム	-10.0324
となっております	-10.0326
午前	-10.0326
くれました	-10.0333
相続	-10.0338
せない	-10.034
方向	-10.0344
徒歩	-10.0346
けれども	-10.0347
場所で	-10.0349
利用できる	-10.0352
を与え	-10.0357
不明	-10.0357
てください	-10.036
宝	-10.0361
いわゆる	-10.0361
去	-10.0361
▁ですから	-10.0361
ケーキ	-10.0363
普及	-10.0366
にもかかわらず	-10.0372
いや	-10.0376
世界の	-10.0376
お越し	-10.038
ステージ	-10.0382
かり	-10.0382
▁一	-10.0394
見積もり	-10.0396
加工	-10.0402
の中でも	-10.0403
終わった	-10.0404
分け	-10.0404
セフレ	-10.041
弁	-10.0411
想い	-10.0416
はかなり	-10.0417
上がって	-10.042
確保	-10.0421
というのも	-10.0422
回数	-10.0422
割引	-10.0424
神経	-10.0427
採	-10.0433
▁F	-10.0436
km	-10.0437
を知る	-10.0437
らしく	-10.0437
樹	-10.0441
気持ちが	-10.0442
ic	-10.0448
冊	-10.0449
にあった	-10.0453
くださいね	-10.0456
につきましては	-10.0459
思考	-10.0461
要因	-10.0463
ra	-10.0464
を大切に	-10.0465
かない	-10.0465
したのは	-10.0469
▁あ	-10.0473
焼	-10.0475
以外にも	-10.0477
お楽しみ	-10.0479
4.	-10.0482
it	-10.0486
の大	-10.0488
ではないでしょうか	-10.0489
厳	-10.0493
倒	-10.0493
意味で	-10.0494
雑	-10.0496
ってこと	-10.0499
少年	-10.0502
氏は	-10.051
平和	-10.0511
貴重な	-10.0513
キロ	-10.0519
うちの	-10.0525
俺は	-10.0527
消費者金融	-10.0527
は全く	-10.0533
振	-10.0537
生きる	-10.0537
時間の	-10.054
かも知れません	-10.054
靴	-10.054
水分	-10.0542
共同	-10.0542
するような	-10.0547
体を	-10.0549
可愛い	-10.0549
管	-10.0553
在庫	-10.0557
クラ	-10.0558
当て	-10.0558
はっきり	-10.0558
材料	-10.0559
いきたい	-10.056
規制	-10.056
ものに	-10.056
自身の	-10.0564
どれ	-10.0567
岩	-10.0567
るために	-10.0568
▁今後	-10.057
酵素	-10.0572
名の	-10.0576
感染	-10.0577
清	-10.058
そもそも	-10.0587
th	-10.0587
と言えます	-10.0591
それで	-10.06
そういった	-10.0604
働いて	-10.0613
新たに	-10.0613
エステ	-10.0615
自身	-10.0615
作用	-10.0617
旨	-10.0621
ペン	-10.0622
を得	-10.0629
持っている	-10.0633
ケー	-10.0633
向けの	-10.0636
▁なぜ	-10.0636
事前	-10.0636
と言われて	-10.0637
月の	-10.0639
だけです	-10.0639
意思	-10.0639
熟	-10.0642
半分	-10.0647
はほとんど	-10.0651
ご協力	-10.0653
単	-10.0654
比	-10.0659
目で	-10.0665
されていました	-10.0671
をよく	-10.0687
こともあり	-10.0688
防止	-10.07
支払い	-10.0701
が発生し	-10.0707
まるで	-10.0708
▁6	-10.0709
2012	-10.071
の種類	-10.0711
モード	-10.0711
お電話	-10.0714
盤	-10.0714
達成	-10.0714
わない	-10.0717
うち	-10.0719
仕事の	-10.072
静	-10.072
党	-10.0722
チン	-10.0724
見えない	-10.0725
クリック	-10.0731
来ました	-10.0733
▁実際	-10.0734
とはいえ	-10.0737
過ぎて	-10.0738
するので	-10.0739
ランチ	-10.0739
ウィ	-10.0739
一般的に	-10.0739
になってしまいます	-10.0739
相手が	-10.0739
あげる	-10.074
政	-10.0743
メールで	-10.0746
仕様	-10.0747
がいる	-10.0748
に入り	-10.075
本日	-10.0757
集め	-10.0757
今では	-10.0759
多数	-10.0759
がいい	-10.0761
仮想通貨	-10.0761
電子書籍	-10.0762
色の	-10.0764
ようになり	-10.0766
サービスを	-10.0767
事業者	-10.0767
づけ	-10.077
近くに	-10.077
内部	-10.0771
こうした	-10.0772
対処	-10.0774
の皆さん	-10.0775
麻	-10.0777
低下	-10.0782
築	-10.0783
子育て	-10.0784
人数	-10.0786
の設定	-10.0792
後ろ	-10.0793
ソー	-10.0796
滅	-10.0797
▁7	-10.0798
▁ところが	-10.0804
台風	-10.0805
変わり	-10.0806
同意	-10.0807
出来事	-10.0808
富	-10.0809
と言った	-10.081
バレ	-10.0812
ヴィ	-10.0813
最新の	-10.0814
が大きく	-10.0815
ボランティア	-10.0816
ライフ	-10.0816
指示	-10.0817
できるので	-10.0818
チェ	-10.082
どうやって	-10.0821
従	-10.0822
証明	-10.0825
一体	-10.0825
皮	-10.0826
45	-10.0826
応え	-10.0827
そちら	-10.0828
途	-10.0831
サイトを	-10.0832
やっと	-10.0837
辛い	-10.084
我慢	-10.084
貴	-10.084
月から	-10.0842
激	-10.0844
地元	-10.0847
認められ	-10.0853
助け	-10.0856
くなって	-10.0857
姿を	-10.086
有料	-10.0865
思いを	-10.0869
なりません	-10.087
豊富な	-10.0875
食材	-10.0876
先生の	-10.0876
を読んで	-10.0877
を購入	-10.0879
しまうと	-10.088
存	-10.088
性能	-10.0881
薄	-10.0883
育	-10.0884
誕生日	-10.0886
かというと	-10.0898
してほしい	-10.0899
メイク	-10.0905
楽天	-10.0906
流行	-10.0909
ing	-10.091
晩	-10.0911
を知って	-10.0913
ステップ	-10.0916
なっています	-10.0918
介	-10.0918
報酬	-10.0921
サプリメント	-10.0921
る事	-10.0922
物質	-10.0924
善	-10.0927
場合に	-10.0928
ができ	-10.093
最高の	-10.0935
途中で	-10.0936
ということが	-10.0941
留学	-10.0941
ベッド	-10.0942
やっている	-10.0945
両方	-10.0946
道を	-10.0954
食べた	-10.0958
外部	-10.0961
覚え	-10.0964
明治	-10.0967
高級	-10.0973
気をつけ	-10.0973
してます	-10.0981
婚	-10.0983
視聴	-10.0984
議員	-10.0985
あなたに	-10.0985
江	-10.0986
通販	-10.0988
かつて	-10.0989
デメリット	-10.099
時まで	-10.0992
てきました	-10.0994
エル	-10.0995
時間帯	-10.0996
がなく	-10.0999
使っている	-10.1003
んでいる	-10.1003
イギリス	-10.101
おう	-10.101
しておきましょう	-10.1012
底	-10.1023
ありますが	-10.1024
届け	-10.1026
庭	-10.1026
問い合わせ	-10.103
▁G	-10.1035
に掲載	-10.1035
問題は	-10.1036
ダウン	-10.1038
引越し	-10.104
通常の	-10.1042
をつけて	-10.1044
調べて	-10.1054
ネタ	-10.1054
出会い系サイト	-10.1056
作る	-10.1057
回り	-10.1058
気温	-10.106
の関係	-10.1063
再び	-10.1064
に近い	-10.1064
ブラック	-10.1067
最後まで	-10.1073
お問い合わせください	-10.1076
▁それを	-10.1077
賃貸	-10.1079
バンド	-10.1079
嘘	-10.108
▁D	-10.108
▁こちらの	-10.108
告	-10.1082
表情	-10.1084
手順	-10.1086
繰り返し	-10.1087
ではないか	-10.1089
一回	-10.1091
ご存知	-10.1092
事に	-10.1092
子どもの	-10.1096
なってきた	-10.1101
箇所	-10.1101
があること	-10.1104
ことができ	-10.1105
済み	-10.1107
なのでしょうか	-10.1111
と考え	-10.1113
を食べ	-10.1115
保管	-10.1125
ほとんどの	-10.1127
なれば	-10.1127
最適な	-10.113
かれ	-10.1132
側に	-10.1135
を取得	-10.1141
つまり	-10.1142
少なくとも	-10.1149
に向かって	-10.115
町の	-10.115
わずか	-10.115
与	-10.1156
変わらない	-10.1161
蔵	-10.1163
裁	-10.1177
便利です	-10.1177
読む	-10.118
してみると	-10.1182
怖い	-10.1182
るか	-10.1185
早めに	-10.1186
配慮	-10.119
アンケート	-10.119
▁“	-10.1191
歯科	-10.1194
見せ	-10.1196
お前	-10.1197
となると	-10.1198
ガイド	-10.1205
お客さま	-10.1206
昼	-10.121
切って	-10.1212
してみる	-10.1216
続いて	-10.1217
くん	-10.1217
を買って	-10.1222
収集	-10.1222
学び	-10.1224
j	-10.1225
▁僕は	-10.1229
たちの	-10.1229
認証	-10.123
置き	-10.1232
等を	-10.1235
といいます	-10.1236
ようやく	-10.1237
急に	-10.1238
カードローン	-10.1238
いるのか	-10.1239
天気	-10.1242
アルバイト	-10.1244
それまで	-10.1248
全体の	-10.1248
ヘア	-10.1249
良かったです	-10.1253
マル	-10.1257
難しく	-10.1259
おすすめです	-10.126
の声	-10.1261
できるよう	-10.1262
Wi	-10.1263
リラックス	-10.1266
お話し	-10.1269
年前	-10.1271
ブラウザ	-10.1275
Twitter	-10.1278
送料	-10.1281
生まれた	-10.1282
定義	-10.1282
モバイル	-10.1283
見ると	-10.1292
者に	-10.1295
インド	-10.1298
▁そもそも	-10.1298
▁皆さん	-10.1299
スケジュール	-10.1299
豊	-10.1303
を始め	-10.1304
地図	-10.1307
バッグ	-10.1311
の変化	-10.1311
▁それから	-10.1312
血液	-10.1312
折	-10.1312
合って	-10.1314
製作	-10.1318
追	-10.132
扱い	-10.1328
章	-10.1329
優しい	-10.1329
他人	-10.1331
基本的な	-10.1341
のご	-10.1342
パーティー	-10.1345
歩く	-10.1348
飲む	-10.1348
第二	-10.1351
個別	-10.1352
▁これで	-10.1353
ノート	-10.1356
使い方	-10.1357
ことによって	-10.1362
職業	-10.1365
の生活	-10.1367
則	-10.1368
サイ	-10.1369
始める	-10.137
臭い	-10.1371
郎	-10.1378
おいて	-10.1379
止め	-10.1381
受信	-10.1384
▁本日	-10.139
段階で	-10.1392
ri	-10.1396
都	-10.1397
被害者	-10.1397
卵	-10.1401
時代の	-10.1403
を行った	-10.1403
ニング	-10.1404
上記	-10.1406
にあります	-10.1407
たまに	-10.1409
パス	-10.141
色々と	-10.1412
修	-10.1413
アレルギー	-10.1414
恋人	-10.1415
遅く	-10.1418
はこの	-10.1419
というような	-10.142
▁新	-10.1421
情報は	-10.1421
基本的には	-10.1428
ようですが	-10.1432
死亡	-10.1433
ことが出来ます	-10.1434
▁今は	-10.1435
例えば	-10.1439
皆さま	-10.144
WEB	-10.1442
もしかしたら	-10.1443
レポート	-10.1444
るので	-10.1445
中身	-10.1448
標準	-10.1449
毎回	-10.1449
の一	-10.145
を検討	-10.1453
メールを	-10.1456
これからも	-10.1456
▁一方	-10.1463
▁8	-10.1468
を表示	-10.1471
加入	-10.1472
を迎え	-10.1476
実際	-10.1477
パパ	-10.1478
アプリケーション	-10.1481
リアル	-10.1482
完全	-10.1483
あらかじめ	-10.1484
泉	-10.1484
変わる	-10.1486
際には	-10.1487
▁たとえば	-10.1488
コンビニ	-10.1491
続	-10.1492
詰め	-10.1493
抜	-10.1493
真っ	-10.1495
秘密	-10.1497
▁あなたの	-10.1499
っちゃ	-10.1501
独立	-10.1508
まとめて	-10.1509
かん	-10.1509
するためには	-10.1513
違います	-10.1515
と考えて	-10.1515
お得な	-10.1516
債務整理	-10.1517
になってしまった	-10.1518
jp	-10.1519
ないといけない	-10.152
短い	-10.1521
けて	-10.1523
一部の	-10.1528
手法	-10.1534
と言えば	-10.1535
使え	-10.1535
も同じ	-10.1537
違反	-10.1538
何故	-10.1539
になりたい	-10.1539
私に	-10.1539
気持ちを	-10.1541
想定	-10.1541
キャラ	-10.1543
をしていた	-10.1543
を取って	-10.1543
を買う	-10.1545
入院	-10.1546
2.	-10.1546
が入って	-10.1547
初めての	-10.1551
六	-10.1554
▁ですが	-10.156
疑	-10.1562
心地	-10.1564
ったら	-10.1574
検証	-10.1574
特典	-10.1575
いけ	-10.1576
前提	-10.1577
上司	-10.1581
みよう	-10.1583
少なく	-10.1584
てしまい	-10.1584
永	-10.1584
ご購入	-10.1588
伝え	-10.1591
イラスト	-10.1593
シェア	-10.1594
ロシア	-10.1597
若者	-10.1598
雲	-10.16
このまま	-10.16
せば	-10.1604
護	-10.1609
結論	-10.1614
いている	-10.1614
張り	-10.1616
退職	-10.1616
鍵	-10.162
役割	-10.1624
ペース	-10.1625
しなければ	-10.1634
辛	-10.1635
de	-10.1636
豆	-10.1637
と言い	-10.1638
後悔	-10.164
様の	-10.1641
JR	-10.1644
を紹介します	-10.1644
少女	-10.1644
塾	-10.1646
盛り	-10.1648
ブルー	-10.165
挑戦	-10.1652
になれば	-10.1653
っこ	-10.1656
実家	-10.1656
日本に	-10.1657
ができない	-10.1661
2011	-10.1675
違った	-10.1679
出会い系	-10.1679
に乗って	-10.1679
歩き	-10.1682
ay	-10.1683
ような気がします	-10.1683
済	-10.1684
何とか	-10.1686
しますので	-10.1691
賀	-10.1693
が良く	-10.1694
を防ぐ	-10.1695
▁これを	-10.17
彼が	-10.1704
近くの	-10.1706
呼吸	-10.1707
中止	-10.1711
消え	-10.1711
年から	-10.1712
投	-10.1721
ごと	-10.1721
エラー	-10.1725
スクール	-10.1729
爆	-10.1737
を考え	-10.1738
だそうです	-10.1739
出発	-10.1739
一時	-10.1741
益	-10.1742
パート	-10.1743
を求める	-10.1745
を行っている	-10.1746
現金	-10.1747
平日	-10.1747
異なります	-10.1747
閉	-10.1751
太陽	-10.1756
程度の	-10.1757
▁前回	-10.1758
ご希望	-10.176
不満	-10.1769
求め	-10.1774
IP	-10.1779
地元の	-10.178
を聞いて	-10.1782
の数	-10.1783
をしています	-10.1783
を読む	-10.1785
▁前	-10.1786
が違う	-10.1786
かかって	-10.1788
アート	-10.1789
売れ	-10.179
ご来店	-10.1793
レース	-10.1793
カウンセリング	-10.1797
涙	-10.1799
策	-10.1801
お使い	-10.1801
はその	-10.1803
オフィス	-10.1804
まれ	-10.1805
が増えて	-10.1807
書く	-10.1807
放置	-10.1808
グッズ	-10.1809
んですか	-10.1811
フード	-10.1816
乱	-10.1817
どうも	-10.1818
時代に	-10.1819
も多い	-10.182
所有	-10.1823
公演	-10.1826
行われる	-10.1826
消費者	-10.1827
もらいました	-10.1828
お子さん	-10.1829
訓練	-10.1832
わかります	-10.1833
はい	-10.1833
冷	-10.1833
組み	-10.1834
スムーズに	-10.1835
こだわり	-10.1836
の魅力	-10.1841
今度は	-10.1844
お休み	-10.1845
が多かった	-10.1845
を開催	-10.1847
を追加	-10.1852
思っている	-10.1853
豊かな	-10.1855
課	-10.1855
が少なく	-10.186
含	-10.1862
お送り	-10.1864
の歴史	-10.1866
になるので	-10.1866
ーク	-10.1867
方がいい	-10.1868
を行っています	-10.1872
一歩	-10.1873
続けている	-10.1874
は一切	-10.1881
を書いて	-10.1881
お茶	-10.1884
トロ	-10.1885
てしまいました	-10.1886
信じ	-10.1889
フレ	-10.189
いける	-10.189
得られる	-10.1896
市内	-10.1898
群	-10.1904
仏	-10.1904
ができます	-10.191
合わない	-10.1912
家で	-10.1915
自社	-10.1919
▁いや	-10.1921
ないか	-10.1923
をご覧ください	-10.1925
女性に	-10.1925
再度	-10.1933
カロリー	-10.1934
のほうが	-10.1934
覚	-10.1937
形式	-10.1938
を目指す	-10.1943
ものと	-10.1944
延	-10.195
中心	-10.195
と感じる	-10.1965
可能性が高い	-10.1966
出る	-10.1966
ご家族	-10.1967
パフォーマンス	-10.1969
してみて	-10.197
ありがとう	-10.197
人達	-10.1972
お子様	-10.1972
の意味	-10.1974
裁判所	-10.1975
▁昨年	-10.1976
▁こんにちは	-10.1977
療法	-10.1978
ぶり	-10.198
妙	-10.1983
刻	-10.1983
筆	-10.1984
ヘル	-10.1985
私たちは	-10.1986
イタリア	-10.1987
であって	-10.1987
▁自分が	-10.1992
Amazon	-10.1992
じゃなくて	-10.1993
買った	-10.1994
領	-10.1998
体が	-10.2003
タル	-10.2012
終わる	-10.2012
▁9	-10.2013
入学	-10.2016
▁Q	-10.2019
メンテナンス	-10.2021
こちらも	-10.2024
の存在	-10.2026
増え	-10.2028
カバー	-10.2032
▁逆に	-10.2041
電力	-10.2042
それも	-10.2045
Fi	-10.2047
我	-10.2047
ワイ	-10.2048
ベース	-10.205
池	-10.2051
我が家	-10.2054
正しく	-10.2054
と思ったら	-10.2057
おきましょう	-10.2058
洋	-10.2063
▁毎日	-10.2064
ヨーロッパ	-10.2065
今でも	-10.2067
IC	-10.2076
しなかった	-10.2079
応	-10.2084
やめ	-10.2085
▁やはり	-10.2089
の上に	-10.209
誕生	-10.2093
がございます	-10.2095
行政	-10.2101
年収	-10.2101
▁だが	-10.2103
地区	-10.2103
いずれ	-10.2105
購入した	-10.2105
声を	-10.2106
100%	-10.2109
医学	-10.211
もっとも	-10.2111
劇	-10.2113
ご覧	-10.2113
してしまいました	-10.2117
支持	-10.2118
誌	-10.212
のかもしれない	-10.212
CM	-10.2121
林	-10.2121
ものである	-10.2122
みます	-10.2125
最初から	-10.2126
私には	-10.213
▁今日	-10.2134
態度	-10.2135
を書く	-10.2135
シャツ	-10.2142
シミ	-10.2143
液	-10.2143
チャー	-10.2144
ものではありません	-10.2145
心に	-10.2146
アプローチ	-10.2148
円で	-10.2149
豊富	-10.2152
いくつかの	-10.2152
皆様の	-10.2152
離れ	-10.2153
申し	-10.2155
投票	-10.2156
▁自分	-10.2159
仲	-10.216
でしょうね	-10.2161
逃	-10.2164
中には	-10.2165
風邪	-10.2175
個性	-10.2179
そば	-10.218
オイル	-10.218
の高さ	-10.2182
もう一度	-10.2184
帰って	-10.2185
はいけない	-10.2186
贈	-10.2186
夕方	-10.2186
▁日本の	-10.2186
に比べて	-10.2189
辺	-10.2189
構築	-10.2189
着物	-10.219
の間で	-10.219
を持た	-10.2194
児童	-10.2198
などと	-10.2203
勇気	-10.2204
開示	-10.2205
を実現	-10.2205
世の中	-10.221
定める	-10.221
損害	-10.2212
可	-10.2217
限	-10.222
悩んでいる	-10.2221
合った	-10.2221
いつか	-10.2222
敷	-10.2226
魔	-10.2226
キレイ	-10.2227
陽	-10.2227
こういった	-10.2233
を見つける	-10.2234
ランク	-10.2239
市で	-10.2242
りと	-10.2244
事も	-10.2245
日程	-10.2246
偽	-10.2247
ジャー	-10.2247
という話	-10.2248
▁仕事	-10.2248
ゼロ	-10.2248
備え	-10.2252
盗	-10.2253
からね	-10.2255
優	-10.2258
大切に	-10.2267
引き続き	-10.2269
からだ	-10.227
でない	-10.2272
ぁ	-10.2273
取材	-10.2278
であると	-10.2281
▁これからも	-10.2283
大統領	-10.2283
心が	-10.2284
窓口	-10.2293
▁とても	-10.2295
現象	-10.2295
400	-10.2297
抗	-10.2299
軽く	-10.2301
クライアント	-10.2302
たこと	-10.2305
吸収	-10.2309
ソフトウェア	-10.2311
暑い	-10.2313
ろうと	-10.2318
ゴミ	-10.2323
代わりに	-10.2324
▁どんな	-10.2324
ソース	-10.2325
ちょっとした	-10.2326
▁普段	-10.2328
わり	-10.2332
ビール	-10.2334
言われて	-10.2334
はこちら	-10.2338
ショッピング	-10.234
包	-10.234
参考に	-10.2343
800	-10.2345
止ま	-10.2348
をしたり	-10.2352
してしまいます	-10.2353
能	-10.2354
▁L	-10.2357
ではありますが	-10.2359
るもの	-10.2363
という方	-10.2366
致	-10.2367
に入った	-10.2371
アイドル	-10.2372
過去に	-10.2372
予定です	-10.2373
ラーメン	-10.2377
しますが	-10.2377
参照	-10.2378
多分	-10.2378
合計	-10.2381
日目	-10.2381
ヶ	-10.2385
含まれ	-10.2386
規定	-10.2387
配置	-10.2388
ドア	-10.2389
休日	-10.239
来年	-10.2391
不思議	-10.2394
名古屋	-10.2395
▁各	-10.2401
兵	-10.2402
の大きさ	-10.2404
一年	-10.2404
▁12	-10.2417
ジー	-10.242
単に	-10.2422
挙げ	-10.2423
セル	-10.2423
映	-10.2424
▁最後に	-10.2429
頂いて	-10.2434
くれます	-10.2434
シングル	-10.2436
口に	-10.2439
芸	-10.2439
の詳細	-10.2439
の影響	-10.2442
面で	-10.2443
免許	-10.2445
▁2016	-10.2445
を購入する	-10.2449
呼び	-10.2455
基本的に	-10.2455
入会	-10.2455
つけて	-10.2458
るため	-10.2461
野球	-10.2462
亡	-10.2462
をかけて	-10.2462
講	-10.2467
怒	-10.2467
3.	-10.247
ピー	-10.247
経営者	-10.2471
www	-10.2474
を変える	-10.2476
ボックス	-10.2481
をしっかり	-10.2482
育成	-10.2483
台湾	-10.2484
大好きな	-10.2484
サーバ	-10.2485
2014	-10.2485
禁	-10.2487
翌日	-10.2489
と同じように	-10.2492
サイトに	-10.2495
からこそ	-10.2498
お支払い	-10.25
するのか	-10.2502
が出てくる	-10.2504
が好きな	-10.2507
を行いました	-10.2507
男性は	-10.2509
判	-10.2511
十分な	-10.2512
社会人	-10.2513
になれる	-10.2515
順	-10.2516
が強い	-10.2517
隣	-10.2517
まあ	-10.252
事務	-10.2522
目が	-10.2523
おいしい	-10.2526
○	-10.2528
呼	-10.2532
▁ア	-10.2532
反映	-10.2534
意外と	-10.2534
ファイルを	-10.2535
ブログを	-10.2538
引っ越し	-10.254
▁最近は	-10.2541
返し	-10.2543
をご紹介	-10.2545
したところ	-10.2545
ここから	-10.2549
ご飯	-10.2552
ーション	-10.2552
車両	-10.2553
抵抗	-10.2555
ませんが	-10.2555
みんなで	-10.2559
場面	-10.256
ことをおすすめします	-10.2568
ボード	-10.257
かどうかは	-10.2572
▁ということで	-10.2574
戦い	-10.2575
労働者	-10.2577
us	-10.2578
どうか	-10.2579
鉄道	-10.2582
足を	-10.2585
記述	-10.2586
」、「	-10.2587
ことにより	-10.2587
ヌ	-10.2589
▁ありがとうございました	-10.2589
電話番号	-10.2592
慣れ	-10.2592
のようなもの	-10.2594
行われ	-10.2594
確率	-10.2596
リーダー	-10.2597
日記	-10.26
と思われ	-10.261
終わって	-10.261
欲	-10.2611
気を	-10.2613
2010	-10.2614
▁私たちは	-10.2615
夏の	-10.2616
年後	-10.2616
訴え	-10.2619
スキー	-10.2619
おそらく	-10.2622
レンズ	-10.2624
ドレス	-10.2625
証明書	-10.2628
伝えて	-10.263
不要	-10.2633
▁小	-10.2636
グラ	-10.2636
年金	-10.2642
父親	-10.2644
高校生	-10.2647
と判断	-10.2649
広い	-10.2649
飲んで	-10.2649
上がる	-10.2649
いらっしゃる	-10.2651
たので	-10.2653
おらず	-10.2654
飲	-10.2656
際は	-10.2657
やりたい	-10.2657
売上	-10.2659
ミン	-10.2661
アメリカの	-10.2662
ピアノ	-10.2663
頻繁に	-10.2663
横浜	-10.2664
頃から	-10.2665
皆様に	-10.2666
が出来	-10.2666
しゃ	-10.2668
でもある	-10.2669
を確保	-10.2671
いかに	-10.2671
されていて	-10.2677
なくなり	-10.2679
考えた	-10.2682
大変な	-10.2682
イヤー	-10.2688
期間中	-10.2692
する際に	-10.2692
これも	-10.2694
宅	-10.2696
読者	-10.27
なのは	-10.2703
が出来る	-10.2706
残っている	-10.2708
引っ	-10.271
売買	-10.2712
のもと	-10.2715
間の	-10.2719
ありませんでした	-10.2722
壊	-10.2727
ed	-10.2729
入手	-10.273
se	-10.273
is	-10.2731
良いでしょう	-10.2731
始	-10.2732
の人が	-10.2736
降り	-10.2738
ればいい	-10.2738
理想	-10.274
おき	-10.2742
ダンス	-10.2742
続く	-10.2744
が非常に	-10.2744
中です	-10.2744
してくる	-10.2745
メント	-10.2746
措置	-10.2747
同じような	-10.2748
いたのですが	-10.2749
いますので	-10.2756
景色	-10.2756
という気持ち	-10.2757
開き	-10.2758
捉え	-10.276
遠く	-10.2764
飾	-10.2767
人がいる	-10.277
をやって	-10.2773
体内	-10.2774
気がする	-10.2778
毒	-10.2778
陰	-10.2782
支え	-10.2784
ナン	-10.2788
お客様が	-10.2792
リス	-10.2797
ファイ	-10.28
風景	-10.2801
セン	-10.2802
>	-10.2803
マーケティング	-10.2808
舞	-10.2809
独自の	-10.2813
▁朝	-10.2813
▁こうした	-10.2814
温度	-10.2815
駅から	-10.2817
にも関わらず	-10.2818
持つ	-10.2819
ma	-10.282
世間	-10.2824
先ほど	-10.2825
ブロック	-10.2827
司	-10.2827
いきなり	-10.2829
場合でも	-10.2829
になりますが	-10.2831
副作用	-10.2832
価値観	-10.2834
▁H	-10.2835
お部屋	-10.284
に合った	-10.2844
何でも	-10.2844
数値	-10.2846
遊んで	-10.2847
していますので	-10.2847
人間関係	-10.2849
吸	-10.285
ポイントを	-10.2851
出来ます	-10.2853
明け	-10.2854
使	-10.2854
el	-10.2856
先日	-10.2858
ますね	-10.2862
型の	-10.2866
メモ	-10.2867
史	-10.2868
ション	-10.2874
たとえ	-10.2875
配送	-10.2877
お手伝い	-10.2878
嫌な	-10.2881
週末	-10.2883
ロード	-10.2883
待	-10.2884
日常生活	-10.2884
あるので	-10.2894
こともできます	-10.2894
誰もが	-10.2895
何度か	-10.2895
インタビュー	-10.2898
の準備	-10.29
ゴルフ	-10.2901
別途	-10.2901
確定	-10.2901
時計	-10.2906
ことがない	-10.2906
彼ら	-10.2906
夕	-10.2908
くなった	-10.2912
▁少し	-10.2913
行われた	-10.2914
不可能	-10.2916
令	-10.2917
るのか	-10.2919
ポー	-10.2921
個人の	-10.2925
給料	-10.2925
聞こえ	-10.2926
芸術	-10.2927
飯	-10.2927
生命	-10.2928
がかかる	-10.2928
なんとなく	-10.293
縮	-10.2931
世界に	-10.2932
できず	-10.2933
ユ	-10.2934
ポート	-10.2937
進化	-10.2944
観察	-10.2944
集中	-10.2944
でしょ	-10.2945
れている	-10.2946
所に	-10.2947
彼らは	-10.2952
方や	-10.2953
電源	-10.2955
置いて	-10.2957
子の	-10.2957
ことが大切です	-10.296
昔から	-10.2961
不正	-10.2963
格安	-10.2964
表面	-10.2967
あくまで	-10.2968
知る	-10.297
収録	-10.2971
そうですが	-10.2971
感じました	-10.2971
主人公	-10.2975
このブログ	-10.2977
寒い	-10.2977
一気に	-10.2978
噂	-10.298
子さん	-10.2985
残って	-10.2986
これら	-10.2988
ゲスト	-10.2989
等で	-10.299
さすがに	-10.299
さら	-10.299
ジャンル	-10.2994
伝統	-10.2996
▁とはいえ	-10.2997
子が	-10.2998
作品を	-10.3
やった	-10.3002
期限	-10.3008
をチェック	-10.3008
を把握	-10.3008
am	-10.3011
が増え	-10.3014
にかけて	-10.3016
それら	-10.3017
くださった	-10.3018
に行ってきました	-10.3018
会計	-10.3019
かかり	-10.3025
するだけで	-10.3026
をかけ	-10.3027
自動的に	-10.3028
外国	-10.3028
弱い	-10.3029
去年	-10.3036
トーク	-10.3041
でございます	-10.3043
遅	-10.3045
とされています	-10.3047
給	-10.3048
いけば	-10.3048
新しく	-10.3051
動画を	-10.3052
仕事に	-10.3055
脚	-10.3058
奴	-10.3058
していきたい	-10.306
軽減	-10.3062
ir	-10.3062
サイン	-10.3062
規則	-10.3063
に変更	-10.3064
理由で	-10.3066
抜き	-10.3068
じっくり	-10.3068
容量	-10.3072
お話を	-10.3072
見ている	-10.3075
なぜか	-10.3077
まい	-10.3078
悩んで	-10.3081
何らかの	-10.3081
嫁	-10.3082
最近は	-10.3082
ないよう	-10.3082
目安	-10.3082
分かり	-10.3083
パッケージ	-10.3085
飛	-10.3089
と言われた	-10.3089
あい	-10.3094
廃	-10.3097
不思議な	-10.3097
お金が	-10.3098
Facebook	-10.3099
パック	-10.3099
クリア	-10.3101
場で	-10.3102
を超えて	-10.3103
を利用した	-10.3104
なこと	-10.3108
宗教	-10.311
ER	-10.3117
配布	-10.3118
言われた	-10.312
危機	-10.312
比べ	-10.3126
幸いです	-10.3129
細かい	-10.3133
をご覧	-10.3135
空き	-10.3135
しろ	-10.3138
▁11	-10.3139
あまりにも	-10.314
と言います	-10.3144
▁1.	-10.3146
通りに	-10.3148
un	-10.3153
推進	-10.3156
金融機関	-10.3157
メートル	-10.3158
世界で	-10.316
らえ	-10.3161
連れ	-10.3163
ドメイン	-10.3165
肌が	-10.3165
においても	-10.3166
整	-10.3166
たのは	-10.3169
願い	-10.3172
行きたい	-10.3174
選ぶ	-10.3175
わざわざ	-10.3175
会社が	-10.3177
怖	-10.3177
慣れて	-10.3179
もらい	-10.318
開催される	-10.318
クラウド	-10.3182
スク	-10.3183
通って	-10.3186
つながり	-10.3188
書籍	-10.3188
ON	-10.3188
りします	-10.3191
出来ません	-10.3192
▁多くの	-10.3193
ご理解	-10.3193
気をつけて	-10.3196
経験を	-10.3201
カレー	-10.3204
アピール	-10.3204
明らか	-10.3206
するなど	-10.3207
を行うこと	-10.3209
進み	-10.3209
プロフィール	-10.3209
もらいたい	-10.3214
'	-10.3215
<	-10.3216
決めた	-10.3218
のだから	-10.3218
とのことです	-10.322
副	-10.3221
で購入	-10.3222
スタッフが	-10.3224
よろしくお願いいたします	-10.3224
があっても	-10.3225
が大きい	-10.3227
落とし	-10.323
作られた	-10.3232
なくなります	-10.3235
コツ	-10.3236
ショ	-10.3237
寄せ	-10.3237
浜	-10.324
数日	-10.3242
▁他にも	-10.3242
灯	-10.3243
有り	-10.3244
デバイス	-10.3245
出た	-10.3251
がついて	-10.3254
解除	-10.3257
背中	-10.326
ご覧ください	-10.3263
徹底	-10.3263
を高める	-10.3266
▁当社は	-10.3267
ne	-10.327
かしら	-10.3272
検	-10.3278
▁これら	-10.3278
っていました	-10.3279
▁明日	-10.3281
人から	-10.3281
染	-10.3283
周りの	-10.3284
たびに	-10.3284
一緒	-10.3286
伝える	-10.3287
小さく	-10.3287
さんも	-10.3288
挨拶	-10.3291
残念	-10.3293
コーナー	-10.3293
刺	-10.3294
IN	-10.3294
ないでしょう	-10.3297
ョ	-10.3298
お得	-10.3302
剣	-10.3306
年目	-10.3308
専用の	-10.3309
の使用	-10.3311
コマンド	-10.3312
した上で	-10.3313
全身	-10.3315
保護者	-10.3318
上記の	-10.3318
▁こういう	-10.332
各地	-10.3324
調子	-10.3326
たぶん	-10.3328
綺麗な	-10.333
時間も	-10.3333
いませんでした	-10.3334
を読み	-10.3335
していきたいと思います	-10.3341
この記事	-10.3341
ガラス	-10.3342
アップデート	-10.3344
ーズ	-10.3345
個人情報の	-10.3345
見直し	-10.3345
▁その他	-10.3348
時々	-10.3354
自然と	-10.3355
日々の	-10.3355
マイナス	-10.3359
およそ	-10.3363
こな	-10.3365
模様	-10.3366
ード	-10.3372
と言われている	-10.3372
左右	-10.3372
男性が	-10.3375
コンサート	-10.3376
大学の	-10.3376
するのも	-10.3376
優れた	-10.3377
ているので	-10.3378
の前に	-10.3382
感じている	-10.3382
していません	-10.3383
考えられる	-10.3383
無視	-10.3388
かなりの	-10.3394
日曜日	-10.3394
購入する	-10.3395
言われ	-10.3395
今後も	-10.3396
アイデア	-10.3399
社内	-10.34
対策を	-10.3401
ユーザ	-10.3402
緊急	-10.3409
無事	-10.3414
純	-10.3414
族	-10.3415
勢	-10.3416
をお願い	-10.3418
心から	-10.342
学ぶ	-10.3426
お肌	-10.3427
コミュニティ	-10.3429
シャンプー	-10.3431
......。	-10.3433
してた	-10.3435
粉	-10.3435
これまでの	-10.3435
通じ	-10.3437
ご了承ください	-10.3442
射	-10.3445
食事を	-10.3446
一定の	-10.3447
込め	-10.3448
砂	-10.3448
お会い	-10.3448
観光客	-10.345
避難	-10.345
かわからない	-10.3451
道具	-10.3453
一方で	-10.3457
帳	-10.3457
牛	-10.3461
天皇	-10.3461
タブレット	-10.3463
典	-10.3464
問題が	-10.3465
▁なぜなら	-10.3469
▁そのような	-10.3474
状態に	-10.3475
票	-10.3479
犯	-10.348
始めました	-10.348
今から	-10.3482
アド	-10.3483
人でも	-10.3486
天然	-10.3487
の良さ	-10.3489
時間で	-10.349
クス	-10.349
プロセス	-10.3494
ああ	-10.3494
可能性は	-10.3495
見えて	-10.3497
刊	-10.3498
と言える	-10.3498
症状が	-10.35
瀬	-10.3502
男性の	-10.3503
しなくても	-10.3505
▁今年は	-10.3508
常識	-10.3508
久しぶりに	-10.3508
文書	-10.351
▁それでは	-10.3512
なさい	-10.3514
翻訳	-10.3515
もあって	-10.3518
を終え	-10.3518
と同時に	-10.3525
を目指して	-10.3525
浅	-10.3526
少	-10.3526
第三者	-10.3527
▁詳しくは	-10.3528
タグ	-10.3528
走り	-10.3529
を楽しんで	-10.353
連携	-10.3532
頂ける	-10.3532
5.	-10.3537
を獲得	-10.3538
部分を	-10.354
シンプル	-10.3544
張	-10.3544
ごく	-10.3545
を求め	-10.3547
お店の	-10.3547
切り替え	-10.355
スパ	-10.3555
させること	-10.3555
があったので	-10.3557
プライベート	-10.3557
会の	-10.3559
握	-10.3559
だけが	-10.356
疾患	-10.3563
me	-10.3563
過程	-10.3565
人生を	-10.3566
結び	-10.3566
48	-10.3569
内容が	-10.357
最初は	-10.3571
税金	-10.3572
考えると	-10.3576
は本当に	-10.3576
自分も	-10.3578
twitter	-10.3585
はじめて	-10.3586
スタジオ	-10.3589
救	-10.3589
得意	-10.3589
硬	-10.3591
お試し	-10.3593
と言われ	-10.3594
音が	-10.3595
といって	-10.3601
es	-10.3602
早速	-10.3603
でもあります	-10.3606
装置	-10.3607
ad	-10.361
▁それで	-10.3612
キン	-10.3613
ご紹介します	-10.3613
ぜ	-10.3615
回収	-10.3617
さが	-10.3618
銀	-10.3619
浴	-10.362
色んな	-10.3624
的で	-10.3626
図書館	-10.3627
帰る	-10.3628
のほう	-10.3628
挙	-10.3629
プール	-10.3629
巡	-10.363
公表	-10.3631
が強く	-10.3632
以外に	-10.3632
幅広い	-10.3632
▁まぁ	-10.3634
ところは	-10.3634
返品	-10.3637
▁最初は	-10.3639
ドリンク	-10.3645
そろそろ	-10.3648
該当	-10.3648
▁女性	-10.3651
のではないかと	-10.3651
楽しむ	-10.3652
ご確認	-10.3652
起き	-10.3652
のせい	-10.3655
知り合い	-10.3656
する前に	-10.3656
演出	-10.3659
痩せ	-10.3659
を上げる	-10.366
商品は	-10.3661
移	-10.3664
充電	-10.3664
すっかり	-10.3666
借入	-10.3667
当社の	-10.3667
こうして	-10.3667
▁みなさん	-10.3668
可能性が	-10.3669
安全性	-10.367
してしまい	-10.3671
情報の	-10.3672
保有	-10.3673
一言	-10.3675
私たちが	-10.368
送り	-10.3681
もありました	-10.3683
デビュー	-10.3686
メールが	-10.3687
話が	-10.3689
違って	-10.369
タクシー	-10.3692
出力	-10.3694
練	-10.3697
てくれた	-10.3699
があるのか	-10.3699
回の	-10.37
ウイルス	-10.3705
政権	-10.3705
突	-10.3706
属	-10.3707
サービスの	-10.3709
ワー	-10.371
使わない	-10.3715
ことが多いです	-10.3715
部門	-10.3716
今年は	-10.3718
であることを	-10.3722
収納	-10.3722
ときの	-10.3723
グル	-10.3724
ご希望の	-10.3725
問題を	-10.3725
の治療	-10.3729
無事に	-10.3729
▁同	-10.3732
デー	-10.3739
回目の	-10.3739
小学生	-10.3743
氏の	-10.3745
をとる	-10.3745
ドラ	-10.3748
メン	-10.3751
お申し込み	-10.3753
ありがたい	-10.3756
リップ	-10.3756
にくく	-10.3756
一応	-10.3757
服用	-10.3762
敗	-10.3762
いきたいと思います	-10.3765
月末	-10.3768
起こり	-10.3769
の様子	-10.3769
当初	-10.377
キッチン	-10.3771
いかない	-10.3771
祝	-10.3774
北朝鮮	-10.3776
腸	-10.3776
取り扱い	-10.3779
のお店	-10.378
競技	-10.3781
上位	-10.3786
ニア	-10.3788
キャンプ	-10.3791
▁次に	-10.3791
解釈	-10.38
大丈夫です	-10.3802
ナル	-10.3804
むしろ	-10.3811
▁よく	-10.3811
株式	-10.3815
お友達	-10.3815
記入	-10.3817
2013	-10.3818
をお願いします	-10.3819
ムダ毛	-10.382
大型	-10.3822
笑い	-10.3824
元々	-10.3828
コミック	-10.3833
陣	-10.3835
ボー	-10.3836
ように思います	-10.3837
踏み	-10.3838
広島	-10.3839
している人	-10.3839
を高め	-10.3841
の変更	-10.3841
▁こちらは	-10.3843
無かった	-10.3843
周	-10.3846
体力	-10.3846
きています	-10.3847
思いました	-10.3847
していましたが	-10.3847
たび	-10.3853
▁2.	-10.3853
正式	-10.3854
忘れて	-10.3855
▁あなたが	-10.3859
量が	-10.3859
意見を	-10.3861
悲	-10.3862
始まった	-10.3862
頭皮	-10.3866
競争	-10.3866
いただきたい	-10.387
行っている	-10.3872
意図	-10.3874
飛行機	-10.3877
を変更	-10.3878
くなり	-10.3879
かわいい	-10.388
足り	-10.388
域	-10.3882
作家	-10.3887
承認	-10.3888
闘	-10.3889
いきました	-10.3891
伊	-10.3892
取って	-10.3892
処方	-10.3896
するまで	-10.3902
の際は	-10.3903
になっていた	-10.3903
ぼく	-10.3906
占い	-10.3908
使った	-10.3908
破壊	-10.3908
という感じ	-10.3909
書き込み	-10.3912
ご相談ください	-10.3914
としたら	-10.3915
上手に	-10.3916
を見つけて	-10.3918
礼	-10.3918
状況を	-10.3919
出場	-10.3922
予測	-10.3923
年ぶり	-10.3924
要望	-10.3925
自分たち	-10.3926
ジョ	-10.3928
お互い	-10.3928
開設	-10.3937
あげて	-10.3939
因	-10.3941
に入れ	-10.3942
解約	-10.3942
の販売	-10.3945
機能を	-10.3946
の時間	-10.3949
はありませんでした	-10.3955
なってきました	-10.3957
されているので	-10.396
自治体	-10.3961
焦	-10.3968
いよいよ	-10.3969
需要	-10.397
滑	-10.3971
拠点	-10.3972
ちょ	-10.3974
評	-10.3979
したので	-10.398
▁あの	-10.3983
コイン	-10.3985
ほうがいい	-10.3992
ことができた	-10.3994
きている	-10.3995
手の	-10.3996
港	-10.3997
をご利用	-10.3999
みれば	-10.3999
前回	-10.4001
便秘	-10.4006
資	-10.4006
を探し	-10.4006
ない場合	-10.4007
する場合は	-10.4008
を始める	-10.401
考慮	-10.4011
してみた	-10.4011
経って	-10.4011
女優	-10.4014
as	-10.4014
しておりますので	-10.4015
現在は	-10.4017
九	-10.4019
の場	-10.4021
年も	-10.4024
圏	-10.4027
っぱ	-10.4031
度に	-10.4035
いただければ	-10.4037
見ても	-10.4037
ないという	-10.4039
出席	-10.404
使われている	-10.404
釣り	-10.4044
を導入	-10.4045
ビットコイン	-10.4046
ラブ	-10.4046
オリンピック	-10.4048
わかりやすく	-10.4049
生え	-10.4049
にあたって	-10.4051
間違え	-10.4053
NHK	-10.4054
当院	-10.4055
著作権	-10.4065
迎え	-10.4066
土曜日	-10.4067
アーティスト	-10.4069
デン	-10.407
寝る	-10.4073
気づき	-10.4076
組合	-10.4078
なってしまう	-10.4081
込	-10.4081
の仕方	-10.4084
並び	-10.4084
効果を	-10.4088
生理	-10.4092
換え	-10.4093
店内	-10.4093
FX	-10.4096
動く	-10.4097
押	-10.4098
配合	-10.4098
若干	-10.4099
共に	-10.4105
シング	-10.4105
方も多い	-10.4106
プリ	-10.4107
なかったり	-10.4107
切る	-10.4108
形成	-10.4108
ルート	-10.4108
はなく	-10.411
カラ	-10.411
マスター	-10.4112
今すぐ	-10.4113
につき	-10.4119
痛い	-10.4119
おりました	-10.4121
もよく	-10.4121
する必要	-10.4122
教授	-10.4124
アクション	-10.4125
リーグ	-10.4125
見られ	-10.4125
高額	-10.4125
重要です	-10.4126
AR	-10.4126
自覚	-10.4126
ことなく	-10.4126
する必要がある	-10.4126
よくある	-10.4126
方法が	-10.4127
ブック	-10.4128
子は	-10.4132
薄毛	-10.4135
的にも	-10.4135
ご連絡ください	-10.4136
当サイト	-10.4142
迷	-10.4148
しているのか	-10.4149
アリ	-10.415
心理	-10.4156
変換	-10.4157
入場	-10.4158
しなければなりません	-10.4162
活性化	-10.4162
という意味	-10.4164
たま	-10.4164
mo	-10.4165
いきましょう	-10.4165
一生	-10.4168
を見せ	-10.4168
の動き	-10.417
にした	-10.4171
社会的	-10.4171
が原因	-10.4171
幸せな	-10.4171
どちらか	-10.4173
自然に	-10.4173
sh	-10.4174
することができ	-10.4175
確かめ	-10.4176
が行われ	-10.4176
を設け	-10.4181
*	-10.4188
ボン	-10.4188
新宿	-10.4189
ベー	-10.4191
するのに	-10.4193
矯正	-10.4194
届く	-10.4195
所得	-10.42
梅	-10.4201
手が	-10.4202
いる人	-10.4202
▁E	-10.4202
済ませ	-10.4203
削減	-10.4205
然	-10.4207
単語	-10.4211
彼女が	-10.4212
ようになっています	-10.4213
・・・・	-10.4215
労	-10.4216
覚悟	-10.4216
興	-10.4217
が好き	-10.4221
が出た	-10.4224
に行き	-10.4228
ながらも	-10.4234
エンジン	-10.4234
あるもの	-10.4235
ラジオ	-10.4235
ご要望	-10.4235
親切	-10.4237
声が	-10.424
の対象	-10.4244
カリ	-10.4245
生きている	-10.4246
が必要になります	-10.4247
バカ	-10.4247
個人情報を	-10.4248
エア	-10.4248
を引き	-10.4249
オーナー	-10.4251
広げ	-10.4254
ウン	-10.4254
診察	-10.4255
に合わせた	-10.4255
ぽ	-10.4256
促進	-10.4259
晴れ	-10.4261
を選択	-10.4262
エイ	-10.4263
音声	-10.4265
関東	-10.4266
家を	-10.4267
さず	-10.427
衝撃	-10.4273
容	-10.4274
真剣に	-10.4274
たりする	-10.4275
▁通常	-10.4277
日本人の	-10.4277
トー	-10.4288
コール	-10.4291
と思うのですが	-10.4293
シア	-10.4293
おくと	-10.4295
お待ちしております	-10.43
が発生する	-10.4301
思われ	-10.4303
上手	-10.4303
立ち上げ	-10.4304
大人の	-10.4306
▁同じ	-10.4307
の花	-10.4309
推奨	-10.431
▁何か	-10.4312
本当	-10.4313
えない	-10.4316
できている	-10.4317
最低	-10.4321
のである	-10.4323
アラ	-10.4323
本体	-10.4324
▁結局	-10.4324
AI	-10.4325
びっくり	-10.4326
にいる	-10.4326
▁こちら	-10.4327
臭	-10.433
改革	-10.4332
見つけ	-10.4332
移行	-10.4333
屋根	-10.4334
サンプル	-10.4336
日中	-10.4337
本気で	-10.4337
600	-10.4338
生物	-10.4338
創業	-10.4338
をサポート	-10.4338
投げ	-10.4339
使われる	-10.4339
巻き	-10.4339
鏡	-10.4341
ノウハウ	-10.4343
浦	-10.4343
たっぷり	-10.4345
駆け	-10.4346
ウェブ	-10.4347
高速	-10.4347
Mac	-10.4352
どれくらい	-10.4355
商品が	-10.4361
トル	-10.4361
幕	-10.4364
が難しい	-10.4364
差別	-10.4366
際の	-10.4366
年前に	-10.4367
してくれました	-10.4368
学会	-10.4368
年には	-10.4371
嫌い	-10.4375
人もいます	-10.4378
本サービス	-10.4379
分かった	-10.438
li	-10.4382
が増える	-10.4384
をしたい	-10.4386
憲法	-10.4386
半年	-10.439
○○	-10.439
ショック	-10.439
成立	-10.4393
方法です	-10.4393
方が多い	-10.4397
だけは	-10.4398
宣伝	-10.4399
なくなりました	-10.4403
家具	-10.4404
溢れ	-10.4405
取る	-10.4408
こちらから	-10.441
進め	-10.4411
人間が	-10.4413
フォルダ	-10.4414
リズム	-10.4417
その時	-10.4421
つかない	-10.4423
ex	-10.4424
境	-10.4427
みたら	-10.4428
集団	-10.4433
殿	-10.4435
を設置	-10.4435
長年	-10.444
書かれている	-10.444
出会う	-10.444
出版	-10.4442
代金	-10.4442
耳に	-10.4444
関節	-10.4444
人たちが	-10.4446
自宅で	-10.4446
発症	-10.4448
バル	-10.4448
写真は	-10.4449
埋め	-10.445
悪化	-10.4453
考えている	-10.4453
勝ち	-10.4454
教会	-10.4454
所で	-10.4456
それ以上	-10.4458
参り	-10.4458
度の	-10.4458
をつける	-10.4461
帰宅	-10.4461
ダメージ	-10.4462
放題	-10.4464
もたくさん	-10.4464
成績	-10.4466
フラ	-10.4469
プレイヤー	-10.447
加えて	-10.4472
トラック	-10.4472
そうと	-10.4473
無駄	-10.4475
思	-10.4475
は必要	-10.4476
支払う	-10.4482
化学	-10.4483
チュー	-10.4483
もん	-10.4483
向いて	-10.4483
▁とにかく	-10.4484
数の	-10.4485
ていきます	-10.4485
でもない	-10.4486
領域	-10.4487
優勝	-10.4494
業者に	-10.4495
エントリー	-10.4496
明るく	-10.4496
お菓子	-10.4497
よいでしょう	-10.4504
んだな	-10.4507
だいたい	-10.4508
るという	-10.451
もありますので	-10.4512
基	-10.4512
部の	-10.4512
正確に	-10.4512
めた	-10.4513
なければいけない	-10.4514
価格で	-10.4514
効果的な	-10.4515
店の	-10.4517
を使っている	-10.452
フォロー	-10.4521
の為に	-10.4521
探偵	-10.4522
いざ	-10.4523
▁あなたは	-10.4525
初回	-10.4525
▁https	-10.4526
どちらも	-10.4527
▁彼は	-10.4531
アフィリエイト	-10.4534
今年の	-10.4536
後半	-10.4546
んじゃない	-10.4546
部分が	-10.4547
影	-10.455
32	-10.455
▁初めて	-10.4551
用品	-10.4551
しかも	-10.4552
仕上げ	-10.4552
稼ぐ	-10.4553
農業	-10.4554
ことにしました	-10.4554
と比べて	-10.4555
九州	-10.4556
▁20	-10.4558
竹	-10.4558
驚き	-10.4558
No	-10.456
しつつ	-10.4561
店で	-10.4564
ゆっくりと	-10.4566
払	-10.4569
納	-10.457
ヨガ	-10.457
に来た	-10.4573
散歩	-10.4574
くなります	-10.4574
杯	-10.4576
と思うので	-10.4577
カ月	-10.4582
いろいろと	-10.4582
te	-10.4584
していただく	-10.4586
ご確認ください	-10.4587
機種	-10.4587
航空	-10.4588
ドライブ	-10.4588
感じで	-10.4589
恐怖	-10.4591
変わった	-10.4591
はならない	-10.4591
の言葉	-10.4593
エッチ	-10.4594
違和感	-10.4598
曜	-10.46
関西	-10.4601
臨	-10.4602
になっても	-10.4602
スの	-10.4605
万が一	-10.4605
なさ	-10.4606
の向上	-10.4607
湖	-10.4608
離れて	-10.4608
いだ	-10.4609
測定	-10.461
なってしまいます	-10.4611
ご質問	-10.4613
を変えて	-10.4618
どれも	-10.4619
直後	-10.4619
提示	-10.4619
だったのですが	-10.4623
分から	-10.4625
遣	-10.4625
改	-10.4626
社の	-10.4632
訪れる	-10.4637
なるほど	-10.4638
化粧水	-10.464
を入れる	-10.4641
優しく	-10.4641
使われ	-10.4642
を得て	-10.4644
洗い	-10.4644
中古	-10.4647
方で	-10.4648
手軽に	-10.4652
▁W	-10.4653
どのくらい	-10.4653
さを	-10.4653
の説明	-10.4656
をすると	-10.4656
時期に	-10.4661
中古車	-10.4662
自体が	-10.4662
を教えて	-10.4662
ともに	-10.4665
おきます	-10.4671
かれる	-10.4672
機能が	-10.4674
神様	-10.4676
次に	-10.4677
じゃないですか	-10.4678
いつまでも	-10.4682
今日の	-10.4682
湿	-10.4682
の状況	-10.4684
グローバル	-10.4688
言っても	-10.4688
▁今年も	-10.4694
ッツ	-10.4696
せい	-10.4697
に努め	-10.4697
故	-10.4702
ものとします	-10.4704
ばかりで	-10.4705
につながる	-10.4711
のほか	-10.4711
大切です	-10.4712
限界	-10.4712
委託	-10.4716
休憩	-10.4717
先生が	-10.4718
沢山の	-10.4718
綺麗	-10.4719
朝鮮	-10.4721
を与える	-10.4723
PS	-10.4723
作業を	-10.4725
われ	-10.4727
▁2015	-10.4729
原則	-10.473
バッテリー	-10.4732
をご用意	-10.4733
書かれて	-10.4735
ってくる	-10.4736
障害者	-10.4736
決まって	-10.4737
磨	-10.4739
さい	-10.4739
上がった	-10.4739
日本では	-10.4742
なんだろう	-10.4743
入れて	-10.4745
が来る	-10.4746
孫	-10.4747
主な	-10.4747
美術館	-10.4747
次は	-10.475
をもとに	-10.4751
することに	-10.4751
一生懸命	-10.4754
の姿	-10.4757
ブログで	-10.4758
TO	-10.476
を確認する	-10.4763
ポン	-10.4768
罰	-10.4771
だということ	-10.4772
周りに	-10.4772
かす	-10.4774
自体は	-10.4774
のバランス	-10.4774
復活	-10.4776
という方は	-10.4776
本当は	-10.4777
ではなかった	-10.478
昔の	-10.4782
理論	-10.4785
彩	-10.4788
ケット	-10.4789
出来た	-10.479
病院で	-10.479
ゅ	-10.479
をとって	-10.4791
▁以下	-10.4791
しようとする	-10.4794
大半	-10.4795
なっていく	-10.4796
の中では	-10.4801
しま	-10.4801
▁_	-10.4804
就	-10.4805
頭を	-10.4807
していくこと	-10.4811
外出	-10.4813
▁http	-10.4815
恵	-10.4815
してくれて	-10.4816
率は	-10.4817
荒	-10.482
▁O	-10.4822
を参考に	-10.4823
遺	-10.4823
りして	-10.4829
サイド	-10.483
今も	-10.4831
可愛	-10.4832
実に	-10.4834
▁アメリカ	-10.4834
▁ここまで	-10.4835
下に	-10.4835
立つ	-10.4836
発電	-10.4837
の色	-10.484
勤	-10.4841
兄	-10.4842
妹	-10.4843
フォ	-10.4844
先生に	-10.4845
彼らの	-10.4846
それらの	-10.4848
こっち	-10.4852
おかしい	-10.4852
みな	-10.4854
パーツ	-10.4855
レーション	-10.4855
体質	-10.4855
履	-10.4857
見つかり	-10.4858
に立ち	-10.486
ファー	-10.486
好評	-10.4862
育児	-10.4864
ぷ	-10.4864
うえ	-10.4865
を入れ	-10.4865
以外	-10.4868
んだから	-10.4869
マップ	-10.487
のおかげで	-10.4872
ゾ	-10.4873
率が	-10.4873
匹	-10.4873
人や	-10.4874
が欲しい	-10.4874
CO	-10.4874
頂けます	-10.4876
たくなる	-10.4879
を発見	-10.4881
を押し	-10.4882
のではないかと思います	-10.4883
に行きました	-10.4884
方が良い	-10.4887
継	-10.489
コンピュータ	-10.4896
が表示されます	-10.4897
ことが可能です	-10.4897
講演	-10.4899
開業	-10.4902
と呼ばれ	-10.4906
ユー	-10.4908
ができて	-10.4908
お昼	-10.4911
気持ちで	-10.4912
バリ	-10.4913
ゴール	-10.4914
ヴァ	-10.4914
ことや	-10.4915
効果は	-10.4925
キュ	-10.4925
いいですね	-10.4931
お申込み	-10.4935
も含めて	-10.4936
の為	-10.4939
会社で	-10.494
いるようです	-10.494
あれば	-10.4945
過ご	-10.4947
候補	-10.4954
最近の	-10.4959
拒否	-10.4961
脱毛サロン	-10.4961
ものがあります	-10.4962
庫	-10.4962
招	-10.4963
夏休み	-10.4964
を対象に	-10.4969
祈	-10.497
主催	-10.4971
棚	-10.4972
というより	-10.4975
だと思って	-10.498
手紙	-10.4982
わたしは	-10.4984
府	-10.4987
うる	-10.4993
郷	-10.4993
kg	-10.4995
良いと思います	-10.4996
福岡	-10.4997
▁ブログ	-10.4999
身体の	-10.5
しまえば	-10.5001
ほかの	-10.5002
仮に	-10.5008
雄	-10.5009
ホルモン	-10.501
公共	-10.5011
司法書士	-10.5012
ベン	-10.5012
節約	-10.5014
迅速	-10.5015
させて頂きました	-10.5016
豊か	-10.5016
▁しかしながら	-10.502
SIM	-10.5022
の差	-10.5023
仕方ない	-10.5024
提供する	-10.5025
朝食	-10.5025
存在する	-10.503
は必ず	-10.5035
を変え	-10.5036
だからこそ	-10.504
シンプルな	-10.504
原発	-10.504
寄付	-10.5041
待つ	-10.5043
の活動	-10.5044
受診	-10.5044
震災	-10.5044
一方	-10.5046
こない	-10.5049
▁ネット	-10.505
延長	-10.5052
心より	-10.5053
通勤	-10.5054
カードを	-10.5054
風に	-10.5056
白い	-10.5057
尽く	-10.5058
大学生	-10.506
トレ	-10.5062
襲	-10.5063
開かれ	-10.5066
頭に	-10.5067
はもう	-10.5069
付ける	-10.507
入社	-10.5071
のだと思います	-10.5075
完璧	-10.5076
一括	-10.5076
相手を	-10.5076
確か	-10.5077
ことはできません	-10.5077
糖尿病	-10.5079
皇	-10.5081
照	-10.5081
しておくと	-10.5081
今週	-10.5082
誰が	-10.5082
透明	-10.5082
期間は	-10.5083
せっかく	-10.5085
伺	-10.5085
言っている	-10.5085
AL	-10.5089
中は	-10.5092
暇	-10.5094
お付き合い	-10.5099
脈	-10.5104
眺め	-10.5105
不具合	-10.5109
クト	-10.5111
実際には	-10.5114
エンジニア	-10.5116
載って	-10.5116
アイコン	-10.5118
せた	-10.5119
価格は	-10.5119
店頭	-10.5121
消化	-10.5123
ないもの	-10.5123
されてしまう	-10.5124
を見ながら	-10.5124
柔軟	-10.5125
変動	-10.5125
ご依頼	-10.5128
2009	-10.513
の中の	-10.5131
回線	-10.5134
をつけ	-10.5137
周年	-10.5137
アナ	-10.5138
なんですが	-10.5139
大きさ	-10.5141
▁とりあえず	-10.5144
衣	-10.5145
ことが多く	-10.5145
日より	-10.5146
どうやら	-10.5147
シェ	-10.5147
デイ	-10.5147
はよく	-10.5158
高さ	-10.5159
働	-10.516
ボディ	-10.5163
お客様から	-10.5165
離れた	-10.5165
貢献	-10.5165
それなりに	-10.5165
▁★	-10.5167
仕事で	-10.5168
ことはできない	-10.5172
集まり	-10.5173
っていく	-10.5173
行動を	-10.5173
住宅ローン	-10.5173
ギフト	-10.5179
伴	-10.5184
と言えるでしょう	-10.5184
根拠	-10.5185
狭	-10.5187
看護	-10.5187
順番	-10.5187
部分は	-10.5193
の時	-10.5193
とさせていただきます	-10.5195
用に	-10.52
薬を	-10.52
タップ	-10.5203
極めて	-10.5203
lo	-10.5204
えば	-10.5205
施工	-10.5208
仕方	-10.5208
通貨	-10.5209
民間	-10.521
パネル	-10.521
しているのは	-10.521
つける	-10.5211
取った	-10.5214
仲良く	-10.5214
毛穴	-10.5214
今月	-10.5215
カップ	-10.5215
姫	-10.5216
階段	-10.522
メモリ	-10.5221
うえで	-10.5225
学校の	-10.5225
方でも	-10.5227
日本は	-10.5228
況	-10.5228
偏	-10.5228
創造	-10.5228
飽き	-10.523
みなさま	-10.5231
がほとんど	-10.5232
気づか	-10.5233
ver	-10.5234
ものではない	-10.5241
大幅に	-10.5241
の方も	-10.5242
ニュー	-10.5244
女性と	-10.5247
準	-10.5247
房	-10.5248
▁もっと	-10.5251
付き合って	-10.5251
成分が	-10.5258
幼稚園	-10.5258
申し上げます	-10.5261
多数の	-10.5263
の下	-10.5264
行われている	-10.5264
エアコン	-10.5265
Android	-10.5266
があるため	-10.5266
今のところ	-10.5266
甲	-10.5267
かと	-10.5267
レッド	-10.5275
やる気	-10.5276
欠かせない	-10.5278
頃に	-10.5281
ho	-10.5281
乗せ	-10.5282
ST	-10.5283
大臣	-10.5285
に触れ	-10.5287
詐欺	-10.5288
敬	-10.5289
いいと思います	-10.529
その場で	-10.5293
書いてある	-10.5294
ますか	-10.5296
を増やす	-10.5297
託	-10.5297
することができました	-10.5297
無し	-10.5298
多くの人が	-10.5302
抱え	-10.5305
を飲む	-10.5305
ってしまった	-10.5307
▁当サイト	-10.5309
けどね	-10.5312
は約	-10.5312
を維持	-10.5313
真実	-10.5314
大勢	-10.5315
バックアップ	-10.5318
の通り	-10.5318
はありませんが	-10.5318
結果的に	-10.5319
まえ	-10.5319
壊れ	-10.5321
同じように	-10.5322
が気になる	-10.5323
畑	-10.5324
給与	-10.5325
ちゃう	-10.5325
しまっている	-10.5325
歴	-10.5327
レシピ	-10.5328
保健	-10.533
量を	-10.533
椅子	-10.5331
電話で	-10.5334
合わ	-10.5335
冷え	-10.5337
惑	-10.5338
しておきます	-10.5338
だんだん	-10.5339
数多く	-10.5339
吹	-10.5339
優先	-10.534
収益	-10.534
譲	-10.5341
ということになります	-10.5341
気を付け	-10.5341
呼んで	-10.5345
があったり	-10.5347
処	-10.5347
を食べる	-10.535
となりますので	-10.5357
セッション	-10.5358
になったり	-10.5358
停	-10.5359
と思っております	-10.536
も可能です	-10.536
アルコール	-10.5365
ねぇ	-10.5365
方もいる	-10.5367
に貢献	-10.5371
生成	-10.5372
寒	-10.5373
囲	-10.5373
月額	-10.5374
する際	-10.5375
案件	-10.5383
並んで	-10.5384
ハー	-10.5384
に限らず	-10.5386
2008	-10.5389
たん	-10.539
があるのです	-10.5392
部品	-10.5392
▁今年	-10.5393
受賞	-10.5394
向かい	-10.5401
アス	-10.5404
したとき	-10.5404
ジョン	-10.5406
魂	-10.5407
大阪府	-10.5408
菜	-10.5409
もう一つ	-10.5411
独	-10.5411
ができた	-10.5411
大体	-10.5412
も必要	-10.5412
可能性もあります	-10.5413
教師	-10.5415
調理	-10.5416
親子	-10.5417
副業	-10.5419
ラル	-10.5419
本来の	-10.5422
学んで	-10.5422
お待ち	-10.5423
他社	-10.5426
は大変	-10.5427
を示す	-10.5434
を集めて	-10.5434
ブログに	-10.5439
RO	-10.544
マス	-10.544
に関わる	-10.5441
議会	-10.5441
▁R	-10.5442
ワークショップ	-10.5443
子どもが	-10.5443
綺麗に	-10.5444
▁写真	-10.5446
IS	-10.5446
クション	-10.5446
こんな感じ	-10.5447
語り	-10.5451
かかった	-10.5451
謎	-10.5453
チャット	-10.5454
思わず	-10.5455
ることも	-10.5459
金を	-10.546
ことが可能	-10.546
表示される	-10.546
時半	-10.546
でしょうが	-10.5461
ませんか	-10.5461
突き	-10.5462
困り	-10.5462
して欲しい	-10.5463
やすくなります	-10.5463
感じられ	-10.5469
くださいませ	-10.5469
大切	-10.547
しかった	-10.5471
交際	-10.5473
マーケット	-10.5473
を感じて	-10.5474
倉	-10.5475
削	-10.5476
迷惑	-10.5476
を決める	-10.5478
個人的に	-10.5481
風俗	-10.5483
ってきた	-10.5484
怒り	-10.5484
に伴い	-10.5486
秘	-10.5486
話は	-10.5486
を始めた	-10.5489
施行	-10.549
パリ	-10.5493
▁基本的に	-10.5493
軸	-10.5493
のイメージ	-10.5496
セール	-10.5497
所属	-10.5498
の効果	-10.5498
▁今の	-10.5499
管理者	-10.5501
アパート	-10.5502
にかかる	-10.5503
MA	-10.5505
を図る	-10.5507
のホームページ	-10.5508
op	-10.5511
人類	-10.5514
をお持ち	-10.5515
をクリック	-10.5515
ジム	-10.5517
この時期	-10.5518
施	-10.5519
どんなに	-10.5521
保険料	-10.5521
しないで	-10.5521
快適に	-10.5521
祭り	-10.5524
物の	-10.5525
そのうち	-10.5526
が続いて	-10.5527
ワード	-10.5528
当たる	-10.5529
必ずしも	-10.5532
ログ	-10.5537
のことです	-10.5538
言わ	-10.5539
のページ	-10.5539
ようですね	-10.554
企業が	-10.554
一般の	-10.5543
と聞いて	-10.5543
幹	-10.5544
いえ	-10.5549
任せ	-10.5554
ッカー	-10.5554
しかありません	-10.5554
に基づいて	-10.5556
っていない	-10.5557
訪れた	-10.5557
単位	-10.556
決めて	-10.5564
販	-10.5564
何より	-10.5565
と感じました	-10.5567
得る	-10.5567
短期	-10.557
患者様	-10.5572
▁ありがとうございます	-10.5579
早期	-10.558
行け	-10.5581
はありますが	-10.5583
ナイ	-10.5588
用途	-10.5588
これからの	-10.559
起きて	-10.559
本質	-10.5591
受け付け	-10.5594
胃	-10.5594
脇	-10.5594
バラ	-10.5595
おけば	-10.5595
パーク	-10.5595
保障	-10.5596
お受け	-10.5599
近年	-10.5599
過ごし	-10.56
が無く	-10.56
似	-10.5605
再開	-10.5605
▁是非	-10.5606
になりますので	-10.5607
ならず	-10.5608
を送って	-10.561
魔法	-10.5611
まさか	-10.5613
低く	-10.5613
っち	-10.5614
人生の	-10.5614
響	-10.5616
すればいい	-10.5617
膜	-10.5617
休業	-10.5617
具合	-10.5619
んじゃないかな	-10.5619
反省	-10.5619
▁不倫	-10.562
が入っている	-10.5622
しないように	-10.5624
おかげで	-10.5628
ページに	-10.563
魅力的な	-10.563
を経て	-10.563
髪の毛	-10.5631
言いたい	-10.5633
ますます	-10.5633
航	-10.5633
マナー	-10.5636
▁インターネット	-10.5638
もともと	-10.564
辺り	-10.5644
どころ	-10.5645
ur	-10.5646
っぽい	-10.5647
人々の	-10.5647
お手	-10.5647
あると思います	-10.5649
Re	-10.565
間違いなく	-10.5659
縦	-10.566
室内	-10.566
分ほど	-10.5661
られません	-10.5663
の確認	-10.5665
言える	-10.5665
を求めて	-10.5665
na	-10.5665
知ら	-10.5667
に基づき	-10.5668
していれば	-10.5669
あとは	-10.567
洗顔	-10.5672
超え	-10.5675
ホワイト	-10.5676
を担当	-10.568
してもらえる	-10.5683
知らなかった	-10.5684
聴いて	-10.5685
中学生	-10.5688
の雰囲気	-10.5689
たいという	-10.5689
化する	-10.5689
人間は	-10.5689
セー	-10.5692
ol	-10.5693
大好き	-10.5694
割り	-10.5697
分割	-10.5699
がちな	-10.5699
だけを	-10.5699
走る	-10.5703
ビュー	-10.5704
話を聞いて	-10.5704
画像を	-10.5704
▁自分で	-10.5705
催	-10.5706
RE	-10.5706
っか	-10.5706
法令	-10.571
そうですね	-10.5711
答	-10.5713
保育	-10.5713
財布	-10.5714
国立	-10.5715
らなかった	-10.5716
なくてはならない	-10.5718
隠れ	-10.5719
以前から	-10.572
たくて	-10.5724
獲得	-10.5725
ッジ	-10.573
ますよ	-10.5733
履歴	-10.5733
みたいに	-10.5734
を選び	-10.5736
揃え	-10.574
が開催され	-10.574
混雑	-10.574
繋がり	-10.5743
を考えている	-10.5744
歳以上	-10.575
ご意見	-10.5752
ていること	-10.5754
博	-10.576
奪	-10.5761
安全な	-10.5762
の質	-10.5762
イル	-10.5763
明るい	-10.5763
▁一度	-10.5763
ございます	-10.5764
が完了	-10.5765
を用いて	-10.5767
感じられる	-10.5767
ないのですが	-10.5768
市販	-10.5769
サービスを提供	-10.5771
性の	-10.5773
中小企業	-10.5774
午前中	-10.5774
男子	-10.5774
否	-10.5774
が変わる	-10.5774
になったら	-10.5775
と感じた	-10.5776
プレー	-10.5779
カップル	-10.5782
監視	-10.5782
素人	-10.5782
▁新しい	-10.5786
じゃないか	-10.5786
紀	-10.5788
タバコ	-10.5788
ることなく	-10.579
悔	-10.5791
してくれ	-10.5791
わかった	-10.5792
分類	-10.5792
がないので	-10.5794
描いて	-10.5795
以下のような	-10.5795
糸	-10.5796
▁というわけで	-10.5797
このように	-10.5799
に挑戦	-10.5799
46	-10.58
華	-10.5801
翌	-10.5802
されると	-10.5802
の位置	-10.5803
ジン	-10.5803
見たこと	-10.5804
勤め	-10.5805
イス	-10.5806
言われる	-10.5809
があるから	-10.5809
主要	-10.581
きれいな	-10.5813
俺の	-10.5814
ない限り	-10.5815
クーポン	-10.5816
▁N	-10.582
致しました	-10.5823
に加え	-10.5826
前まで	-10.5829
になってしまいました	-10.5829
との関係	-10.583
だとか	-10.583
したのですが	-10.583
取り付け	-10.583
手続きを	-10.5832
さんから	-10.5833
申告	-10.5833
任意	-10.5834
変な	-10.5838
年末	-10.584
述べた	-10.5842
決まり	-10.5843
輸入	-10.5845
書いている	-10.5846
ことができない	-10.5847
スーツ	-10.5848
が見え	-10.5852
足の	-10.5853
視点	-10.5853
困る	-10.5853
素敵	-10.5854
を手に入れ	-10.5856
36	-10.5856
タイミングで	-10.5857
NA	-10.5862
名称	-10.5863
した時	-10.5867
宗	-10.5872
行事	-10.5873
ついに	-10.588
求められる	-10.5882
含まれている	-10.5883
をしっかりと	-10.5885
ますよね	-10.5887
コンセプト	-10.5887
長時間	-10.5891
等に	-10.5892
に出て	-10.5894
をお伝え	-10.5895
ておく	-10.5898
たまたま	-10.5898
見たい	-10.5899
矢	-10.5904
がおすすめです	-10.5908
ent	-10.5908
時間がかかる	-10.5909
を進めて	-10.5912
栄養素	-10.5913
元の	-10.5918
会員登録	-10.592
狂	-10.5923
▁3.	-10.5925
個人的には	-10.5925
にあり	-10.5927
部屋の	-10.5927
表記	-10.593
を思い出し	-10.5931
ヘッド	-10.5933
塚	-10.5934
んだよね	-10.5934
とは違う	-10.5935
宣言	-10.5937
は特に	-10.5941
はずだ	-10.5945
に記載	-10.5947
頻度	-10.5948
の経験	-10.5949
きり	-10.5952
あくまでも	-10.5953
お客様は	-10.5955
身に	-10.5955
わけではなく	-10.5957
紹介する	-10.5962
一瞬	-10.5965
▁すると	-10.5969
▁あまり	-10.5972
教えてください	-10.5974
栄	-10.5975
供給	-10.5981
TA	-10.5983
膝	-10.5983
』(	-10.5984
と考えられます	-10.5984
好みの	-10.5984
リニューアル	-10.5987
学部	-10.599
出会った	-10.5993
がかかって	-10.5993
認知	-10.5994
かれた	-10.5996
の本	-10.5997
建て	-10.5998
を買い	-10.6
勘違い	-10.6
に移	-10.6
絞	-10.6
はできません	-10.6001
の先生	-10.6001
リティ	-10.6002
他の人	-10.6003
艦	-10.6003
NG	-10.6003
することによって	-10.6006
6.	-10.6007
ほんと	-10.6008
読んだ	-10.6011
メル	-10.6013
織	-10.6015
そうした	-10.6016
医療機関	-10.6016
ロボット	-10.6016
ビア	-10.6017
のようです	-10.6018
一致	-10.6018
ゆったり	-10.6019
辞	-10.6019
いないので	-10.602
^	-10.6021
の使い方	-10.6021
衛生	-10.6023
まらない	-10.6028
が多いです	-10.6029
いいか	-10.603
目の前に	-10.603
しかし	-10.6032
利息	-10.6033
俳優	-10.6036
毎週	-10.604
テクニック	-10.6042
がなければ	-10.6043
通過	-10.6043
スイッチ	-10.6044
提携	-10.6049
珍しい	-10.6049
の購入	-10.6052
兄弟	-10.6052
方式	-10.6054
イオン	-10.6056
並	-10.6056
甘い	-10.6057
は避け	-10.6058
水を	-10.6059
▁ですので	-10.6059
の知識	-10.6063
内容の	-10.6063
れます	-10.6063
▁きっと	-10.6067
ですけど	-10.6068
のみで	-10.6069
軒	-10.6072
るのも	-10.6074
に加えて	-10.6075
ot	-10.6075
認知症	-10.6076
少々	-10.6076
わず	-10.6077
を展開	-10.6078
カウンター	-10.6079
食生活	-10.608
データベース	-10.608
イエス	-10.6082
お土産	-10.6082
怪我	-10.6083
http	-10.6084
と言うこと	-10.6086
オーダー	-10.6087
ta	-10.6088
が取れ	-10.6089
するべき	-10.6093
中学	-10.6094
自己破産	-10.6094
持続	-10.6095
オススメです	-10.6095
変わります	-10.6096
支給	-10.6096
働いている	-10.6097
▁せっかく	-10.6099
土日	-10.6099
を達成	-10.61
フレーム	-10.6103
中国の	-10.6105
売って	-10.6107
気になった	-10.6107
SA	-10.6107
返金	-10.611
結婚相談所	-10.6111
150	-10.6115
そこには	-10.6116
の時に	-10.6116
家事	-10.6118
を開け	-10.6119
ブレ	-10.6123
美白	-10.6123
季	-10.6125
開け	-10.6126
どうなる	-10.6126
単純に	-10.6129
5000	-10.613
ケーブル	-10.6133
で開催	-10.6133
当時は	-10.6135
危険性	-10.6135
じて	-10.6137
決断	-10.6139
点を	-10.6139
詞	-10.6142
柱	-10.6144
強制	-10.6146
を占め	-10.6148
飼	-10.615
存在します	-10.615
ことになった	-10.615
だいぶ	-10.6152
拡張	-10.6153
勝利	-10.6153
ではありませんが	-10.6156
外の	-10.6157
一人の	-10.616
洗濯	-10.616
異性	-10.6161
▁こういった	-10.6162
事務局	-10.6165
Co	-10.6171
を目指し	-10.6173
ぴったり	-10.6174
危険な	-10.6179
ヒント	-10.618
癖	-10.6181
生地	-10.6185
大量に	-10.6189
たもの	-10.619
言えない	-10.619
▁浮気	-10.6195
.1	-10.6201
それとも	-10.6202
けない	-10.6203
...」	-10.6204
レーザー	-10.6204
元気に	-10.6205
点は	-10.6206
が起こる	-10.621
最適	-10.621
することが可能です	-10.6211
寄り	-10.6212
てしまって	-10.6214
▁今年の	-10.6215
65	-10.6215
やつ	-10.6219
まち	-10.6222
部屋に	-10.6223
▁上記	-10.6224
伝わって	-10.6227
じゃあ	-10.6229
おこ	-10.6233
遅い	-10.6234
を抑え	-10.6234
初の	-10.6237
的なもの	-10.624
感じた	-10.6242
楽器	-10.6243
が生じ	-10.6244
とお	-10.6246
町で	-10.6248
頑張り	-10.6248
沈	-10.6249
ED	-10.6251
の改善	-10.6252
▁次の	-10.6252
最終的に	-10.6255
はいけません	-10.6255
周囲の	-10.6255
言え	-10.6257
付き合い	-10.6258
並べ	-10.6259
凄い	-10.6261
してしまうと	-10.6263
この日	-10.6264
必死	-10.6265
岸	-10.6269
自身が	-10.6272
経済的	-10.6272
前日	-10.6273
落ち着いて	-10.6273
としている	-10.6273
と思える	-10.6275
を見せて	-10.6275
▁皆様	-10.6275
財	-10.6277
となっており	-10.6277
メッセージを	-10.6277
期間が	-10.6278
何かを	-10.628
ことになりました	-10.628
分かります	-10.628
▁ところで	-10.6281
いるのは	-10.6281
通りの	-10.6281
良くない	-10.6284
をしました	-10.6284
を選択する	-10.6284
なにか	-10.6284
滞	-10.6286
主婦	-10.6288
タブ	-10.6288
過剰	-10.6291
統計	-10.6291
がち	-10.6291
以前に	-10.6293
マシン	-10.6295
活発	-10.6297
個人情報保護	-10.6297
SS	-10.63
体感	-10.63
▁J	-10.6302
感じです	-10.6303
テロ	-10.6304
の支払い	-10.6305
漏れ	-10.6305
落ち着いた	-10.6307
最悪	-10.6307
叩	-10.6309
▁あとは	-10.631
泣き	-10.6311
プリント	-10.6312
とう	-10.6312
日付	-10.6314
を伝える	-10.6314
困った	-10.632
本当にありがとうございました	-10.6325
真面目	-10.6325
資源	-10.6327
看板	-10.6328
届き	-10.6328
軽い	-10.6331
と考えます	-10.6332
なきゃ	-10.6333
時も	-10.6334
が原因で	-10.6334
強さ	-10.6334
ないため	-10.6335
NE	-10.6336
神戸	-10.6339
自らの	-10.6339
テレビで	-10.6339
てくれます	-10.6339
原因は	-10.634
ようなこと	-10.6342
することにより	-10.6342
様々	-10.6343
ご使用	-10.6347
エクス	-10.6349
果	-10.6352
重い	-10.6353
武器	-10.6355
立った	-10.6356
頭痛	-10.6357
取れ	-10.6358
広がり	-10.6361
こんなこと	-10.6363
1,000	-10.6368
きれいに	-10.6376
ウォー	-10.6377
間違って	-10.6377
レット	-10.638
発達	-10.6382
今年も	-10.6383
ことが出来ました	-10.6383
行きます	-10.6384
走って	-10.6386
後日	-10.6387
決まった	-10.6389
神奈川県	-10.639
概念	-10.6391
必要性	-10.6393
取られ	-10.6394
既	-10.6394
糖	-10.6396
が決定	-10.6401
目的で	-10.6403
グリ	-10.6404
ワクワク	-10.6405
Apple	-10.6405
プレ	-10.6405
保育園	-10.6406
騒	-10.6411
報告書	-10.6412
した方が	-10.6412
充実した	-10.6414
思っていた	-10.6414
尿	-10.6415
を確認して	-10.6415
登場する	-10.6415
に出演	-10.6416
みたいと思います	-10.6416
運び	-10.642
済む	-10.642
ご利用いただけます	-10.6423
ないと思います	-10.6425
中学校	-10.6428
物が	-10.6428
導	-10.6431
を出し	-10.6431
みてはいかがでしょうか	-10.6436
快適な	-10.6437
会って	-10.644
行い	-10.6443
を作った	-10.6444
といえます	-10.6446
診	-10.6447
証券	-10.6447
頂ければ	-10.645
▁その結果	-10.645
夜の	-10.6451
共感	-10.6452
由来	-10.6452
渋谷	-10.6454
その分	-10.6456
していても	-10.6457
の基本	-10.6458
お祝い	-10.6458
おられる	-10.6461
心がけ	-10.6462
最低限	-10.6463
になっていました	-10.6466
ご自身の	-10.6466
残る	-10.6467
耐	-10.6472
玄関	-10.6473
▁その時	-10.6473
やめて	-10.6474
奥さん	-10.6477
レッ	-10.6478
がなかった	-10.6479
パラ	-10.6481
物理	-10.6482
よかったです	-10.6483
にアクセス	-10.6484
いませんか	-10.6485
ってる	-10.6487
方にも	-10.6492
泣	-10.6495
といわれています	-10.6496
郵便	-10.6499
貨	-10.65
名を	-10.6505
苦手な	-10.6505
朝から	-10.6507
測	-10.6507
英会話	-10.6508
St	-10.6509
が一般的	-10.6512
安心です	-10.6513
開催された	-10.652
させていただく	-10.652
激しい	-10.6525
ご記入	-10.6525
われる	-10.6526
があったら	-10.653
この機会に	-10.6532
いくこと	-10.6533
したくない	-10.6533
bo	-10.6536
連絡先	-10.6537
らせる	-10.6539
有利	-10.6539
クレ	-10.6541
AN	-10.6542
いただけるよう	-10.6543
の立場	-10.6543
文句	-10.6545
ドン	-10.6547
つま	-10.6548
氷	-10.6549
チョ	-10.6549
かったです	-10.6549
マイル	-10.6552
同士	-10.6553
私にとって	-10.6555
外に出	-10.6556
姉	-10.6557
付いて	-10.6558
申し訳ありません	-10.6558
座って	-10.6559
ki	-10.6559
が起き	-10.6561
原作	-10.6561
が低い	-10.6561
全国の	-10.6562
PDF	-10.6563
中でも	-10.6563
を探している	-10.6565
ばかりの	-10.6566
含まれています	-10.6567
かぶ	-10.6569
ミー	-10.6574
復興	-10.6574
ターゲット	-10.6575
充分	-10.6576
気になります	-10.6581
発生した	-10.6581
は少し	-10.6582
ディー	-10.6583
を決めて	-10.6585
部分に	-10.6586
扱う	-10.6587
出品	-10.6589
インフルエンザ	-10.6591
上から	-10.6591
;	-10.6591
ウェイ	-10.6592
なくなってしまう	-10.6592
教材	-10.6594
最初	-10.6595
家族の	-10.6596
をたくさん	-10.6596
を提供する	-10.6596
ひどい	-10.6599
の前で	-10.6601
マニュアル	-10.6606
子供達	-10.6606
ポイントが	-10.6606
覆	-10.6607
することが可能	-10.6609
たちに	-10.6611
こちらで	-10.6615
太郎	-10.6617
ジャパン	-10.6619
捕	-10.662
踏	-10.6621
論文	-10.6627
多かった	-10.6628
▁そういった	-10.6628
ET	-10.6629
タッチ	-10.663
GB	-10.6631
鑑定	-10.6634
▁おそらく	-10.6634
電池	-10.6637
氏が	-10.6637
In	-10.6637
してみたい	-10.6639
残業	-10.6643
のイベント	-10.6646
蒸	-10.6647
美しさ	-10.6648
協	-10.665
場合も	-10.6651
片付け	-10.6656
を伝え	-10.6657
描いた	-10.6657
植え	-10.6658
あえて	-10.666
誰にも	-10.6663
をしながら	-10.6666
正解	-10.6666
ブリ	-10.6667
ウェア	-10.6667
地下	-10.6667
稼ぎ	-10.6667
入った	-10.6668
ケン	-10.6668
場所は	-10.6669
粒	-10.6669
を持っています	-10.667
過ぎる	-10.6671
貴方	-10.6676
マッチ	-10.6678
注意が必要です	-10.6678
私自身	-10.6678
紹介した	-10.6679
らせ	-10.6683
飲食店	-10.6684
会長	-10.6689
の意見	-10.6691
手作り	-10.6692
行います	-10.6693
ボタンをクリック	-10.6695
お父さん	-10.6695
ではないので	-10.6696
問題ない	-10.6696
がないと	-10.6697
愛知県	-10.6698
を認め	-10.67
ならではの	-10.6701
しているため	-10.6702
おきたい	-10.6702
阿	-10.6704
東北	-10.6704
にあたり	-10.6704
あわせて	-10.6704
構	-10.6707
書かれた	-10.6708
物事	-10.671
プログラミング	-10.671
▁これも	-10.6712
のある方	-10.6713
移転	-10.6714
いるのです	-10.6716
乾	-10.6716
つぶ	-10.6718
調べた	-10.6718
代行	-10.6718
▁V	-10.6719
の開発	-10.6719
同僚	-10.6722
勢い	-10.6731
好きな人	-10.6733
入荷	-10.6733
▁#	-10.6734
▁今日の	-10.6734
グリーン	-10.6739
ユニ	-10.6741
▁@	-10.6744
遊ぶ	-10.6747
▁その際	-10.6748
no	-10.6749
38	-10.675
なー	-10.6753
いったい	-10.6753
性質	-10.6756
かかります	-10.6757
弟	-10.6758
の多くは	-10.6758
マウス	-10.6759
構え	-10.6759
授	-10.676
易	-10.6762
関数	-10.6762
札	-10.6765
獣	-10.6766
死ぬ	-10.6768
を務め	-10.6768
をいただきました	-10.6772
披露	-10.6773
泳	-10.6774
ご用意	-10.6774
大事	-10.6777
▁高	-10.6779
YouTube	-10.6782
わかり	-10.6783
龍	-10.6785
貸し	-10.6786
であります	-10.6788
気づいた	-10.6788
予めご了承ください	-10.6788
尊	-10.6789
帰国	-10.679
のが一番	-10.6792
って言って	-10.6792
会い	-10.6793
USB	-10.6794
2007	-10.6794
が必要となります	-10.6796
投資家	-10.6796
を抑える	-10.6796
レジ	-10.6797
吹き	-10.68
に到着	-10.6803
イー	-10.6805
景	-10.6807
住み	-10.6811
RT	-10.6811
万円の	-10.6812
ふと	-10.6812
お互いに	-10.6817
たとき	-10.6821
していただき	-10.6822
黄	-10.6822
買	-10.6827
漢	-10.6827
の規定	-10.6828
筆者	-10.6828
伏	-10.6828
確信	-10.6829
やすくなる	-10.683
会った	-10.6835
これ以上	-10.6836
されたり	-10.6837
定め	-10.6837
要件	-10.684
2019	-10.6841
撮り	-10.6841
ハワイ	-10.6844
の多い	-10.6853
RA	-10.6853
SP	-10.6854
天候	-10.6855
ないのです	-10.6855
チュ	-10.6857
お礼	-10.6859
を比較	-10.6868
ちゃんの	-10.6869
だろ	-10.687
控除	-10.6873
が多いので	-10.6873
に基づく	-10.6874
直前	-10.6874
締め	-10.6876
模	-10.6881
憧れ	-10.6887
ブース	-10.6887
モニター	-10.6889
紫外線	-10.6891
交通事故	-10.6892
を続けて	-10.6894
福島	-10.6898
まわり	-10.6899
なんでも	-10.69
人によって	-10.69
ゲット	-10.6901
生まれて	-10.6902
博物館	-10.6903
ビット	-10.6904
であったり	-10.6905
後で	-10.6905
人々が	-10.6907
暴力	-10.6909
くれない	-10.6911
返事	-10.6912
身長	-10.6912
の価値	-10.6912
センス	-10.6912
会社は	-10.6913
補助	-10.6913
起こる	-10.6914
考	-10.6914
ノン	-10.6916
二人の	-10.6916
お花	-10.6918
確立	-10.6921
のですから	-10.6922
褒め	-10.6922
料金は	-10.6923
の際	-10.6926
全員が	-10.6929
手続	-10.6931
抱	-10.6931
いくと	-10.6933
以降の	-10.6939
くれている	-10.6939
にしか	-10.6942
の練習	-10.6944
従来の	-10.6946
を考えると	-10.695
名前を	-10.6954
どこで	-10.6957
考えれば	-10.6958
送って	-10.6958
とその	-10.6961
年前の	-10.6961
実装	-10.6963
取り入れ	-10.6966
を迎える	-10.6967
疑い	-10.6969
することなく	-10.697
首相	-10.697
とは思いますが	-10.6971
をまとめて	-10.6974
が表示され	-10.6977
似ている	-10.6978
ご本人	-10.6979
回転	-10.6979
になってから	-10.6979
支	-10.6983
かた	-10.6985
おりません	-10.6987
づらい	-10.699
最後	-10.6991
▁世界	-10.6991
-1	-10.6992
していなかった	-10.6992
アク	-10.6992
笑顔で	-10.6994
かも知れない	-10.6995
を減らす	-10.6995
知らず	-10.6995
がわかる	-10.6996
ロゴ	-10.6998
の元	-10.6999
周囲	-10.7001
その人	-10.7003
ついている	-10.7003
継続して	-10.7004
愛情	-10.7004
相互	-10.7005
略	-10.7005
っくり	-10.7008
深夜	-10.7016
どこでも	-10.7019
担	-10.702
▁◆	-10.7021
マリ	-10.7021
ハード	-10.7022
自立	-10.7023
読め	-10.7023
浸透	-10.7024
露	-10.7024
アドバイスを	-10.7024
するよう	-10.7026
秀	-10.7026
思っています	-10.7027
心臓	-10.7028
邪魔	-10.7028
レート	-10.703
していきましょう	-10.7031
まっている	-10.7031
ポケット	-10.7031
>>	-10.7033
干	-10.7036
一人一人	-10.7036
無効	-10.7038
下がって	-10.7042
つつある	-10.7043
充	-10.7043
取れる	-10.7044
わかりやすい	-10.7044
いませんが	-10.7045
レベルの	-10.7046
アレンジ	-10.7046
身近な	-10.7048
分に	-10.7049
正規	-10.7049
訪れ	-10.7052
という思い	-10.7052
自然な	-10.7052
イヤ	-10.7052
関わって	-10.7054
オーストラリア	-10.7054
同社	-10.7056
管理人	-10.7056
を浴び	-10.7057
▁最近では	-10.7057
―	-10.7058
ようとする	-10.7058
再現	-10.7059
ヴェ	-10.7059
ことができません	-10.706
売る	-10.7061
分泌	-10.7061
ポイントは	-10.7061
からといって	-10.7064
を体験	-10.7065
かれて	-10.7067
コート	-10.707
ほう	-10.707
手で	-10.707
▁海外	-10.7074
犠牲	-10.7074
外で	-10.7074
べく	-10.7076
添付	-10.7079
どこの	-10.7082
ひとつの	-10.7082
育毛剤	-10.7083
▁毎年	-10.7084
を大きく	-10.7084
責任を	-10.7085
安全に	-10.7089
んだり	-10.7089
を知り	-10.709
に感謝	-10.7092
に限り	-10.7092
今度	-10.7095
復帰	-10.7096
ce	-10.7098
ありますので	-10.7099
プレス	-10.7099
にとっても	-10.71
ラク	-10.7101
止	-10.7101
お手入れ	-10.7104
本社	-10.7104
分かりません	-10.7105
役員	-10.7107
特性	-10.7107
興奮	-10.7107
ことをお勧めします	-10.7107
違法	-10.7108
悩む	-10.7108
地域で	-10.7108
の紹介	-10.7109
はどこ	-10.7109
CA	-10.7109
特集	-10.711
知人	-10.711
田さん	-10.7112
今までの	-10.7112
実態	-10.7113
続けた	-10.7114
繋	-10.7114
統	-10.7116
ってくれる	-10.7118
スレ	-10.7119
フィールド	-10.7121
かせ	-10.7123
場所を	-10.7124
開いて	-10.7124
▁やっぱり	-10.7124
殆ど	-10.7127
美味しく	-10.7127
近所の	-10.7128
に向けた	-10.713
直す	-10.713
読書	-10.7132
ディズニー	-10.7133
郵送	-10.7134
を置いて	-10.7135
価格が	-10.7136
を起こす	-10.7136
になれ	-10.7138
態	-10.7138
支配	-10.7141
外に	-10.7142
ゆく	-10.7142
分で	-10.7142
発想	-10.7142
田市	-10.7144
随時	-10.7146
が続く	-10.7146
水道	-10.7147
ご用意しております	-10.715
鬼	-10.7151
デザイナー	-10.7151
複雑な	-10.7152
ところを	-10.7153
ペア	-10.7153
政治家	-10.7153
魅力的	-10.7155
▁近年	-10.7158
取り組んで	-10.7159
▁みんな	-10.7161
を実行	-10.7168
肝	-10.7169
執	-10.7169
モチベーション	-10.7172
を公開	-10.7173
▁現在は	-10.7174
将来の	-10.7175
▁́	-10.7175
させていただいております	-10.7177
サークル	-10.7177
受けられる	-10.718
現場で	-10.7183
を忘れて	-10.7185
審	-10.7189
注意点	-10.7189
金属	-10.7191
同一	-10.7191
の第	-10.7191
保持	-10.7191
ことができるので	-10.7196
Pro	-10.7196
お店で	-10.7197
EN	-10.7199
やりとり	-10.72
しておきたい	-10.7201
嬉しく	-10.7203
の作成	-10.7204
が付いて	-10.7207
国会	-10.7207
オーバー	-10.7207
在籍	-10.7208
戦闘	-10.7208
上げて	-10.721
あっても	-10.7212
るんだ	-10.7213
埼玉県	-10.7215
援	-10.7216
ツイッター	-10.7216
一枚	-10.722
お気に入りの	-10.722
一見	-10.7223
輝	-10.7228
排	-10.7228
精神的に	-10.7228
浸	-10.7229
方面	-10.7231
なければいけません	-10.7233
新作	-10.7234
他人の	-10.7237
お任せ	-10.7238
ないような	-10.7238
暑さ	-10.724
を確認し	-10.724
絡	-10.7241
以前の	-10.7241
返す	-10.7243
気に入って	-10.7244
に従って	-10.7247
衆	-10.7247
千葉県	-10.7249
する機会	-10.725
方へ	-10.725
英語の	-10.725
医薬品	-10.7252
学んだ	-10.7253
素直に	-10.7253
舎	-10.7254
律	-10.7255
まない	-10.7255
近づいて	-10.7257
スペイン	-10.7258
疲労	-10.7259
近隣	-10.7259
ボク	-10.726
言葉に	-10.7262
してもらった	-10.7263
を学ぶ	-10.7267
先生は	-10.7267
システムの	-10.7268
ないだろう	-10.7269
シャル	-10.7271
方向に	-10.7271
の痛み	-10.7273
終了後	-10.7274
事が出来	-10.728
ive	-10.7281
ことが大切	-10.7285
データの	-10.7287
撮った	-10.7288
7.	-10.729
撮	-10.7291
のは難しい	-10.7291
したりする	-10.7292
によれば	-10.7292
の口コミ	-10.7294
寝て	-10.7294
くり	-10.7297
車が	-10.7298
たくさんある	-10.7298
講義	-10.7302
2～3	-10.7307
▁中国	-10.7307
残す	-10.7309
肉体	-10.731
▁お客様の	-10.7316
タオル	-10.7318
▁三	-10.7321
驚きました	-10.7322
葬儀	-10.7322
観て	-10.7323
▁I	-10.7324
3000	-10.7325
参考にして	-10.7325
望む	-10.7326
努力を	-10.7333
馬鹿	-10.7334
頭の中	-10.7334
99	-10.7338
行きました	-10.7339
できるようになる	-10.7339
関わり	-10.734
解析	-10.734
選ばれ	-10.7342
カテゴリー	-10.7344
あら	-10.7345
ate	-10.7346
独自	-10.7346
ココ	-10.7346
毎	-10.735
ということも	-10.735
に来る	-10.735
戻って	-10.7352
混乱	-10.7353
と思っていました	-10.7353
補償	-10.7353
炎症	-10.7354
~	-10.7355
は別	-10.7356
緩和	-10.7356
を発表	-10.7358
足りない	-10.7358
のんびり	-10.7362
列車	-10.7362
の授業	-10.7362
増えて	-10.7364
を聞く	-10.7365
偶然	-10.7365
OP	-10.7367
入浴	-10.7367
大阪市	-10.7369
劇場	-10.7369
資本	-10.7372
地に	-10.7375
生活習慣	-10.7377
記事に	-10.7377
回って	-10.7379
本格的な	-10.7379
▁いま	-10.7381
向こう	-10.7385
海外の	-10.7386
あるのですが	-10.7387
推	-10.7388
を食べて	-10.7389
トライ	-10.7389
てきて	-10.7389
塗り	-10.7391
機構	-10.7394
問い	-10.7394
働き方	-10.7401
幸	-10.7402
ドライバー	-10.7403
概要	-10.7404
人妻	-10.7404
どこまで	-10.7406
一本	-10.7407
才	-10.7409
どこかで	-10.7411
をお願いいたします	-10.7413
賢	-10.7414
遠い	-10.7415
ために必要な	-10.7416
予	-10.7416
フロー	-10.742
を飲んで	-10.7421
本書	-10.7421
職人	-10.7423
MO	-10.7424
生活に	-10.7424
実際は	-10.7425
本を	-10.7425
形態	-10.7431
習得	-10.7432
招待	-10.7433
クル	-10.7435
過ごして	-10.7436
目指	-10.7436
向けに	-10.7436
始まって	-10.7437
駅の	-10.7439
関係ない	-10.7439
ような気がする	-10.744
実力	-10.7443
▁2014	-10.7444
何度	-10.7446
どうしよう	-10.7447
病院に	-10.7448
登記	-10.7449
最終的には	-10.7451
ニューヨーク	-10.7454
700	-10.7454
スタッフの	-10.7457
の症状	-10.7457
仙台	-10.7457
認	-10.7461
飲んだ	-10.7461
で検索	-10.7463
集合	-10.7465
とします	-10.7465
ることができ	-10.7465
なしで	-10.7465
数年前	-10.7465
高め	-10.7466
キャン	-10.7467
分かりやすく	-10.7467
、“	-10.747
キュー	-10.747
合わせる	-10.7471
ご説明	-10.7473
が登場	-10.7473
運命	-10.7476
話し合い	-10.7476
これに	-10.7477
あなたも	-10.7477
EC	-10.7479
が生まれ	-10.748
に該当する	-10.748
▁正直	-10.7487
起こった	-10.7487
述べて	-10.7487
みませんか	-10.7488
トレード	-10.7492
亡くなった	-10.7493
海外で	-10.7493
そこは	-10.7493
いずれも	-10.7501
不快	-10.7502
量は	-10.7506
▁どの	-10.7509
旬	-10.7509
55	-10.7511
マンガ	-10.7517
お断り	-10.7517
簿	-10.7518
減ら	-10.7518
この本	-10.7519
没	-10.7522
ヴ	-10.7523
以外で	-10.7524
ul	-10.7525
を書き	-10.7526
制御	-10.7528
酷	-10.7529
決意	-10.753
相続人	-10.7531
らい	-10.7534
有効な	-10.7536
聞け	-10.7536
も増えて	-10.7537
無料の	-10.7539
年生の	-10.7542
シャワー	-10.7543
ゃ	-10.7543
um	-10.7545
飛ば	-10.7546
▁したがって	-10.7551
出会	-10.7552
筋トレ	-10.7557
イライラ	-10.7559
ご来場	-10.7559
忠	-10.7561
▁pic	-10.7562
▁一方で	-10.7564
数年	-10.7567
になってきます	-10.7568
不良	-10.7568
夕食	-10.7569
墓	-10.7569
以外は	-10.7572
なってしまった	-10.7573
合意	-10.7573
メイ	-10.7574
をしても	-10.7574
わけですが	-10.7576
リゾート	-10.7576
封	-10.7579
▁あれ	-10.758
厳しく	-10.758
するなら	-10.758
んでしょうか	-10.7583
フロント	-10.7583
もはや	-10.7584
どっち	-10.7584
誤解	-10.7585
でしか	-10.7586
MS	-10.7587
理想の	-10.7589
細かく	-10.7589
田舎	-10.7591
事です	-10.7592
仕上がり	-10.7594
を上げ	-10.7594
方法について	-10.7595
ることができました	-10.7595
との出会い	-10.7596
を受けている	-10.7596
統一	-10.76
ry	-10.7601
って感じ	-10.7601
奈	-10.7603
待っている	-10.7603
言います	-10.7604
用語	-10.7605
選んで	-10.7605
収穫	-10.7605
そうでない	-10.7608
食い	-10.7609
負荷	-10.7611
幸い	-10.7612
酔	-10.7614
エピソード	-10.7614
なかったのですが	-10.7614
SD	-10.7615
んじゃ	-10.7616
貼	-10.7616
不可欠	-10.7616
死んで	-10.7616
喜	-10.7618
ナビ	-10.7618
かと思いますが	-10.7619
ではなくて	-10.7619
ハリ	-10.7619
▁だからこそ	-10.762
日以内に	-10.7621
一定	-10.7621
範囲で	-10.7621
時刻	-10.7621
気になって	-10.7622
ほんの	-10.7623
無線	-10.7623
著者	-10.7625
成人	-10.7628
区の	-10.7628
クリーニング	-10.7629
あんまり	-10.7633
振込	-10.7636
後から	-10.7636
うこと	-10.7636
環境で	-10.7637
RI	-10.7639
▁"	-10.7641
巣	-10.7643
に取り組んで	-10.7643
というものは	-10.7643
されません	-10.7644
しまうこと	-10.7644
上限	-10.7646
でしたら	-10.7647
サブ	-10.7647
堪能	-10.7648
抽選	-10.7649
税込	-10.7649
ピンク	-10.765
っぽ	-10.765
影響を与え	-10.7651
自分たちの	-10.7653
上映	-10.7655
起きた	-10.7661
言葉で	-10.7661
このサイト	-10.7663
購入しました	-10.7664
は絶対に	-10.7664
直し	-10.7664
しておけば	-10.7666
に影響	-10.7669
着用	-10.7669
になるでしょう	-10.7669
占	-10.767
宅配	-10.767
医者	-10.7675
の中心	-10.7676
もまた	-10.7678
察	-10.7678
ユーザーの	-10.7681
標	-10.7682
循環	-10.7683
ようにしてください	-10.7686
受け取り	-10.7686
た場合	-10.7688
をかける	-10.7689
付近	-10.7692
事ができます	-10.7692
が変わって	-10.7696
キャッシュ	-10.7696
彼に	-10.77
故障	-10.7702
付属	-10.7702
なのかもしれません	-10.7707
過ぎた	-10.7708
尋	-10.7709
ヒット	-10.7709
爪	-10.7711
届いて	-10.7711
33	-10.7712
日時	-10.7713
勿論	-10.7714
っていて	-10.7715
アップロード	-10.7715
デモ	-10.7716
のですか	-10.7717
ょ	-10.7717
申し訳ございません	-10.7718
主人	-10.7719
ホテルの	-10.7719
されたもの	-10.7719
及	-10.7719
撮って	-10.772
のなかで	-10.772
ご提供	-10.7722
整え	-10.7723
潮	-10.7723
定番	-10.7723
エー	-10.7725
▁今後も	-10.7726
1%	-10.7728
起業	-10.7728
どういった	-10.7729
ミュ	-10.7729
していたら	-10.7731
に戻って	-10.7731
はちょっと	-10.7736
ツイート	-10.7738
ホント	-10.7738
威	-10.7738
エロ	-10.7741
を覚えて	-10.7741
丘	-10.7744
期間限定	-10.7747
楽しみです	-10.7747
楽しめます	-10.7747
それだけで	-10.7748
棒	-10.7749
ないけど	-10.775
行ける	-10.7751
入金	-10.7751
#	-10.7753
引用	-10.7753
るようになった	-10.7756
の方から	-10.7757
のみならず	-10.7757
頭が	-10.7761
ワールド	-10.7761
を共有	-10.7768
紹介します	-10.7768
之	-10.7769
ia	-10.777
75	-10.7772
視野	-10.7773
自殺	-10.7773
との事	-10.7774
をテーマに	-10.7775
お問合せ	-10.7778
描	-10.7778
説明会	-10.7779
凝	-10.7779
悲しい	-10.778
SE	-10.778
いたこと	-10.7782
汚	-10.7783
路線	-10.7784
▁上記の	-10.7787
を込めて	-10.7787
に係る	-10.7791
mi	-10.7792
を構築	-10.7792
手元に	-10.7792
いっ	-10.7796
銃	-10.7799
エス	-10.7801
10%	-10.7801
知識を	-10.7805
句	-10.7807
ある程度の	-10.7808
することがあります	-10.7808
才能	-10.7811
名様	-10.7811
ポリ	-10.7812
と同	-10.7812
洋服	-10.7812
ブーム	-10.7814
▁この場合	-10.7817
爆発	-10.7818
われた	-10.7818
もち	-10.7821
いただいております	-10.7822
色が	-10.7824
潰	-10.783
住んでいる	-10.7832
英語で	-10.7833
昇	-10.7836
在宅	-10.7839
本作	-10.7839
研究所	-10.7839
入れる	-10.7841
を使用した	-10.7843
正常	-10.7843
を元に	-10.7845
を利用し	-10.7848
装備	-10.785
いらっしゃいます	-10.7851
かなぁ	-10.7851
困っている	-10.7851
製の	-10.7852
を落と	-10.7853
その点	-10.7854
に集中	-10.7854
飛んで	-10.7854
コレ	-10.7855
そうに	-10.7856
37	-10.7857
抑え	-10.7857
蓄積	-10.786
国民の	-10.7861
健康に	-10.7862
取引所	-10.7864
クール	-10.7865
腰痛	-10.7866
描く	-10.7867
やろう	-10.7868
id	-10.7869
ゲー	-10.787
に見える	-10.7871
の更新	-10.7872
不倫証拠	-10.7873
、2018	-10.7874
エコ	-10.7875
トゥ	-10.7877
苦しい	-10.7877
敏感肌	-10.7879
遺産	-10.7881
苦手	-10.7885
栽培	-10.7886
工業	-10.7889
ゴールド	-10.7891
よりは	-10.7892
二次	-10.7893
39	-10.7893
くださる	-10.7893
語る	-10.7894
次のような	-10.7896
と考えております	-10.7901
書け	-10.7902
絵本	-10.7903
内側	-10.7905
兼ね	-10.7905
°	-10.7909
フォト	-10.791
躍	-10.7913
ますし	-10.7914
英語を	-10.7916
良いのか	-10.7919
行われます	-10.7919
やりたいこと	-10.792
連休	-10.7921
預	-10.7924
するとき	-10.7926
コロ	-10.7931
プレミアム	-10.7938
不動産会社	-10.7938
を実感	-10.794
の距離	-10.7942
▁U	-10.7943
と思うんです	-10.7944
珍しく	-10.7946
排出	-10.7947
美しく	-10.7947
遺言	-10.7949
たけど	-10.7951
摂	-10.7952
ご注意ください	-10.7953
きましたが	-10.7955
クター	-10.7955
は少ない	-10.7956
あっという間に	-10.7956
ation	-10.7959
ドライ	-10.7961
貯金	-10.7968
and	-10.7968
援助	-10.7969
家電	-10.7969
本の	-10.797
アイス	-10.797
入る	-10.797
開放	-10.7973
と思いますので	-10.7975
▁詳細は	-10.7975
ことなど	-10.7976
祝日	-10.7976
認め	-10.7977
がありましたら	-10.7978
規	-10.7978
概	-10.7981
その後の	-10.7981
を使えば	-10.7983
は全て	-10.7984
けっこう	-10.7989
張って	-10.7989
ここでは	-10.799
開催されます	-10.7991
寄って	-10.7991
失礼	-10.7991
全体的に	-10.7992
だと思いますが	-10.7992
してみてはいかがでしょうか	-10.7995
入らない	-10.7997
日本でも	-10.8
問題ありません	-10.8001
いかがでしょうか	-10.8002
0,000	-10.8002
ユーザーが	-10.8003
塗装	-10.8003
お願いいたします	-10.8008
普段から	-10.8008
可能性もある	-10.8011
34	-10.8011
させられ	-10.8016
等は	-10.8018
最近では	-10.8018
▁個人的には	-10.802
ナイト	-10.8021
に合う	-10.8023
のメリット	-10.8023
立地	-10.8023
載せ	-10.8024
場合によっては	-10.8025
丁寧な	-10.8026
出荷	-10.8026
リクエスト	-10.8027
一週間	-10.8029
線の	-10.8033
廃止	-10.8033
見方	-10.8034
フェア	-10.8034
みても	-10.8034
借	-10.8037
ベトナム	-10.8037
進学	-10.8038
戦後	-10.804
お考え	-10.8042
けば	-10.8044
とくに	-10.8046
役に立つ	-10.8049
恐	-10.805
届いた	-10.805
UP	-10.8054
長崎	-10.8055
オリ	-10.8059
正確な	-10.806
ヤマ	-10.8061
婦	-10.8062
同じく	-10.8063
杉	-10.8065
アフリカ	-10.8065
やってる	-10.8067
間違いない	-10.8069
良いです	-10.807
服装	-10.8073
された方	-10.8075
動いて	-10.8078
を手に	-10.8078
のメンバー	-10.808
64	-10.8082
美肌	-10.8082
関係なく	-10.8087
はございません	-10.809
買え	-10.8092
がある場合は	-10.8093
消費税	-10.8097
込まれて	-10.8103
現在では	-10.8104
てきます	-10.8104
でしたので	-10.8106
総会	-10.8106
くださり	-10.8108
却	-10.8109
▁エ	-10.811
通い	-10.8111
ゴー	-10.8111
カテゴリ	-10.8113
へ行く	-10.8114
者様	-10.8116
描き	-10.8116
～!	-10.8117
子供を	-10.8118
部位	-10.8118
その場	-10.812
言わない	-10.812
届	-10.8121
きれい	-10.8121
都道府県	-10.8122
みんなが	-10.8125
好きです	-10.8128
求める	-10.8129
ちゃった	-10.8129
PR	-10.813
お伺い	-10.813
乱れ	-10.813
パーティ	-10.8132
上げる	-10.8136
▁まだまだ	-10.8137
ストア	-10.8138
何よりも	-10.8138
万円以上	-10.8138
宛	-10.8139
ゆう	-10.8141
まん	-10.8142
と違って	-10.8146
▁昨日は	-10.8148
か分からない	-10.8149
名が	-10.815
▁むしろ	-10.8153
ピッタリ	-10.8155
望んで	-10.8157
専	-10.8157
▁もともと	-10.8159
民族	-10.8164
iPad	-10.8164
しやすく	-10.8165
楽しみにして	-10.8167
を売る	-10.8169
を提出	-10.817
目線	-10.8174
数十	-10.8175
をクリックして	-10.8177
できるか	-10.818
お悩み	-10.8181
依存	-10.8182
新幹線	-10.8183
▁テレビ	-10.8183
することもできます	-10.8189
棟	-10.8189
研究者	-10.8191
というと	-10.8193
知った	-10.8193
渡し	-10.8193
リオ	-10.8195
8.	-10.8197
掲げ	-10.8197
違	-10.8198
揃って	-10.8199
付けられ	-10.8199
フィー	-10.82
通話	-10.82
世界中の	-10.82
詩	-10.8202
争	-10.8202
あんな	-10.8204
債務	-10.8204
供	-10.8205
ub	-10.8207
自分自身の	-10.8213
の評価	-10.8213
後も	-10.8218
スマホで	-10.8218
そのとき	-10.8219
観点から	-10.822
当選	-10.822
される方	-10.822
確認して	-10.8222
はすべて	-10.8222
場合もある	-10.8223
数多くの	-10.8224
切った	-10.8225
テー	-10.8226
意義	-10.8226
カスタマイズ	-10.8227
感謝の気持ち	-10.8227
もあれば	-10.8227
複雑	-10.8229
今後とも	-10.8231
癒	-10.8231
わる	-10.8238
費用は	-10.8242
▁それと	-10.8244
出てきた	-10.8244
その日の	-10.8247
▁当然	-10.8248
葬	-10.825
経緯	-10.8251
プロの	-10.8251
汁	-10.8252
試み	-10.8254
しているのです	-10.8254
▁K	-10.8256
を活用して	-10.8258
意欲	-10.826
冷蔵庫	-10.826
金額を	-10.8261
を進め	-10.8265
慎重に	-10.8267
ビックリ	-10.8267
プリン	-10.8268
分解	-10.8268
とされる	-10.827
まれて	-10.827
持参	-10.8274
というわけです	-10.8276
並み	-10.8276
を送る	-10.8276
経費	-10.8278
欄	-10.828
お時間	-10.8281
ter	-10.8288
卓	-10.8288
言葉が	-10.8289
オブ	-10.8291
ミネラル	-10.8291
腐	-10.8292
ないのに	-10.8296
だと思っています	-10.8297
誰かが	-10.8301
ことができるのです	-10.8301
のでご了承ください	-10.8303
キス	-10.8305
大学院	-10.8307
気づいて	-10.8308
生き方	-10.8308
添	-10.8309
しているという	-10.831
寿命	-10.8312
はありますか	-10.8312
単なる	-10.8314
ボリューム	-10.8315
参考にしてください	-10.8315
札幌	-10.8316
人たちは	-10.8316
が必要になる	-10.8316
行こう	-10.8317
るようになりました	-10.8319
オレ	-10.8321
ところから	-10.8323
出来て	-10.8324
美術	-10.8326
多様な	-10.8327
ダブル	-10.8329
ダム	-10.8329
個人的な	-10.833
登山	-10.8331
チャンネル	-10.8331
サラ	-10.8333
替	-10.8333
DI	-10.8335
職種	-10.8336
インターネットで	-10.8337
マネジメント	-10.8337
お弁当	-10.8339
貯め	-10.834
ow	-10.8342
出会って	-10.8344
込まれ	-10.8344
になってくる	-10.8344
可能性も	-10.8345
曲が	-10.8346
実質	-10.8347
見えます	-10.8351
できたら	-10.8351
申込み	-10.8354
狭い	-10.8354
千葉	-10.8354
US	-10.8355
HO	-10.8356
net	-10.8356
悩ま	-10.8358
思想	-10.8358
マネー	-10.8359
大量の	-10.8363
もございます	-10.8363
江戸	-10.8364
きたので	-10.8365
されていません	-10.8365
を与えて	-10.8365
相性	-10.8367
オール	-10.8368
涼	-10.8368
うん	-10.8373
に携わ	-10.8373
委員	-10.8374
買わ	-10.8376
残った	-10.8377
日本国内	-10.8377
がある場合	-10.8379
まぁ	-10.8379
大切なこと	-10.8381
テンプレート	-10.8382
ィ	-10.8383
かけた	-10.8384
(※	-10.8384
まいりました	-10.8385
人工	-10.8387
なさそう	-10.8388
付く	-10.8389
匂い	-10.839
と同様に	-10.8391
年間の	-10.8392
折り	-10.8399
どうすれば	-10.8401
ni	-10.8401
ものでした	-10.8402
だけだ	-10.8404
ようなもの	-10.841
ものがある	-10.8411
劣	-10.8412
逮捕	-10.8413
ホン	-10.8415
地上	-10.8415
強調	-10.842
と思いますよ	-10.842
合っている	-10.8421
アレ	-10.8421
チーズ	-10.8422
黙	-10.8422
煮	-10.8422
かける	-10.8423
とは思って	-10.8423
シティ	-10.8423
だれ	-10.8425
うれしい	-10.8426
お聞き	-10.8428
っけ	-10.8432
久しぶり	-10.8432
の有無	-10.8433
を選んだ	-10.8435
スマート	-10.8436
欧米	-10.8439
がかかります	-10.8439
晴	-10.844
ある意味	-10.8441
鮮	-10.8442
騙	-10.8445
を理解して	-10.8446
▁それぞれの	-10.8446
センチ	-10.8447
誘導	-10.8452
専門店	-10.8452
見られます	-10.8453
溶	-10.8454
当社が	-10.8455
が可能な	-10.8456
位の	-10.8457
基地	-10.846
不可	-10.846
誰かに	-10.8461
しているか	-10.8462
わけだ	-10.8463
すみません	-10.8463
行かない	-10.8463
除去	-10.8464
が異なる	-10.8466
▁」「	-10.8467
科目	-10.8469
方から	-10.8471
みたり	-10.8474
られていた	-10.8476
緩	-10.8477
になっていて	-10.8478
nd	-10.8479
行か	-10.8479
ライセンス	-10.848
牧	-10.8482
がつく	-10.8483
2006	-10.8483
タイヤ	-10.8483
心身	-10.8483
束	-10.8485
申し訳ない	-10.8485
デフォルト	-10.8486
残念な	-10.8491
▁映画	-10.8492
換	-10.8493
株主	-10.8494
▁来年	-10.8494
と思うと	-10.8495
ビン	-10.8495
譲渡	-10.8495
血管	-10.8497
NO	-10.8497
言ってる	-10.8499
水準	-10.85
麺	-10.8502
漁	-10.8503
(2)	-10.8504
OFF	-10.8504
タウン	-10.8506
扉	-10.8507
ラム	-10.8509
をつくる	-10.851
送付	-10.851
強み	-10.8513
冬の	-10.8517
に役立つ	-10.8517
楽しそう	-10.8517
お持ち	-10.8518
したいという	-10.8518
闇	-10.8519
適切に	-10.8521
フレンド	-10.8522
いけない	-10.8522
だと言えます	-10.8525
注意してください	-10.8525
がいっぱい	-10.853
なのが	-10.8531
できませんでした	-10.8532
化粧	-10.8534
という人は	-10.8535
ここは	-10.8535
与え	-10.8535
衛	-10.8538
が集まって	-10.8539
～」	-10.854
喫煙	-10.8545
那	-10.8545
ME	-10.855
キット	-10.855
信仰	-10.8552
た時	-10.8553
カナダ	-10.8558
を覚え	-10.856
でもいい	-10.8561
を学び	-10.8563
方もいらっしゃる	-10.8563
定められ	-10.8565
たいと思っている	-10.8565
飲み物	-10.8567
江戸時代	-10.857
はっきりと	-10.8572
録	-10.8572
一時的に	-10.8573
飲ま	-10.858
脂	-10.858
二十	-10.858
の方の	-10.8583
妊娠中	-10.8584
崩	-10.8586
している場合	-10.8587
我々は	-10.859
ac	-10.859
預け	-10.8594
入り口	-10.8595
訴訟	-10.8595
ファミリー	-10.8595
LAN	-10.8596
卒	-10.8597
に出る	-10.8606
お買い物	-10.8607
分かれ	-10.8607
その理由	-10.8607
してもらって	-10.8609
布団	-10.8609
演技	-10.8609
ようでした	-10.861
ネイル	-10.861
それ以外の	-10.8611
出店	-10.8613
告知	-10.8613
出展	-10.8618
千円	-10.8618
連合	-10.8618
をクリックします	-10.8619
するのではなく	-10.8621
の割合	-10.8621
を切り	-10.8622
困って	-10.8625
保険会社	-10.8626
たる	-10.8628
スカイ	-10.8629
に参加して	-10.863
可能性を	-10.8633
スパイ	-10.8634
だね	-10.8635
踊	-10.8635
債	-10.8636
ドー	-10.8637
借り入れ	-10.8638
すなわち	-10.8641
してみませんか	-10.8642
恥ずかしい	-10.8643
▁そんな時	-10.8644
を掲載しています	-10.8644
足を運んで	-10.8646
遠慮	-10.8647
になると思います	-10.8647
が用意され	-10.8648
’	-10.8648
しておりました	-10.8649
ご利用ください	-10.8649
不安定	-10.865
しまうので	-10.8651
楽しめ	-10.8653
で働く	-10.8654
怠	-10.8654
してしまって	-10.8654
楽しさ	-10.8654
高まり	-10.8658
未満	-10.8659
コミ	-10.866
まれた	-10.8665
捜査	-10.8666
ect	-10.8666
いるのが	-10.8667
受ける	-10.8668
しまうのです	-10.8668
稲	-10.8671
テル	-10.8671
カレンダー	-10.8672
貧	-10.8672
グラス	-10.8674
兵庫県	-10.8677
▁すでに	-10.8677
クラスの	-10.8681
歳で	-10.8685
ニック	-10.8685
と言われました	-10.8685
想	-10.8686
続けること	-10.8686
荷	-10.8687
yo	-10.8692
プル	-10.8694
法第	-10.8695
というところ	-10.8695
少しだけ	-10.8696
▁私自身	-10.8697
世の中に	-10.8697
執行	-10.87
られること	-10.8702
が存在する	-10.8703
らしいです	-10.8707
沼	-10.8711
を感じた	-10.8711
かせて	-10.8712
を受けました	-10.8712
将	-10.8713
本格的に	-10.8713
チラシ	-10.8715
いこう	-10.8715
撮影した	-10.8717
ざる	-10.872
最中	-10.8721
学園	-10.8722
してみよう	-10.8723
みてくださいね	-10.8724
★	-10.8725
るだけで	-10.8725
面積	-10.8726
ありますよね	-10.8728
ハッピー	-10.8728
例外	-10.8731
似たような	-10.8732
推測	-10.8733
復	-10.8734
ことのない	-10.8734
隣の	-10.8735
の様子を	-10.8735
意志	-10.8736
命令	-10.8736
決められ	-10.8737
使えない	-10.874
自分でも	-10.8742
東日本大震災	-10.8748
ok	-10.8748
回避	-10.8749
身体に	-10.875
していただきました	-10.875
告白	-10.8753
主体	-10.8753
るまで	-10.8759
用紙	-10.876
に行か	-10.8762
が求められ	-10.8765
下さった	-10.8767
ような感じ	-10.8768
できていない	-10.8768
ッキング	-10.8768
亜	-10.8769
TE	-10.8769
良さそう	-10.877
に達し	-10.877
家賃	-10.8774
お料理	-10.8774
紅葉	-10.8774
安心感	-10.8775
を避ける	-10.8775
を含め	-10.8778
を多く	-10.8778
のいずれか	-10.8784
が出ている	-10.8784
ビーチ	-10.8784
ニン	-10.8786
事業所	-10.8786
あきらめ	-10.8787
ある日	-10.879
地下鉄	-10.8792
運動を	-10.8793
は大きく	-10.8793
ギター	-10.8794
混ぜ	-10.8794
を飲み	-10.8798
係	-10.8799
LO	-10.88
にも対応	-10.88
より良い	-10.8802
声をかけ	-10.8804
昨今	-10.8806
ことも多い	-10.8809
必要はない	-10.8809
ていません	-10.8809
面白く	-10.8811
フィリピン	-10.8816
Yahoo	-10.8816
割合	-10.8816
サイクル	-10.8819
サル	-10.8819
いるか	-10.8821
を示し	-10.8821
倒れ	-10.8823
ソーシャル	-10.8823
と良いでしょう	-10.8825
促	-10.8825
au	-10.8826
アダルト	-10.8827
を上げて	-10.8827
その人の	-10.883
ご希望の方は	-10.8833
先行	-10.8834
鍋	-10.8835
本番	-10.8835
既存の	-10.8841
繰り返す	-10.8841
臨床	-10.8841
沿い	-10.8841
味わい	-10.8843
ut	-10.8849
拝見	-10.885
達が	-10.8851
由	-10.8852
お得に	-10.8852
8%	-10.8852
メールにて	-10.8852
登録して	-10.8853
衣装	-10.8854
ベビー	-10.8863
っちゃう	-10.8865
がんばって	-10.8866
居る	-10.8867
届かない	-10.8867
を超えた	-10.8869
と比較して	-10.887
先端	-10.8871
ロール	-10.8873
も含め	-10.8874
ピックアップ	-10.8876
似た	-10.8879
象徴	-10.888
きめ	-10.888
特許	-10.8881
▁そんな中	-10.8882
の際には	-10.8883
緒	-10.8884
圧倒的に	-10.8886
していただける	-10.8886
うつ	-10.8887
淡	-10.8887
芽	-10.889
プラグイン	-10.889
だったのか	-10.8891
ギャ	-10.8891
利用できます	-10.8891
大事に	-10.8891
理念	-10.8893
シック	-10.8894
するときに	-10.8894
に住んでいる	-10.8896
AC	-10.8896
選定	-10.8897
マルチ	-10.89
網	-10.8902
思わない	-10.8903
いじめ	-10.8903
損失	-10.8904
二人で	-10.8905
まわ	-10.8906
昼間	-10.8908
ライフスタイル	-10.8908
してない	-10.8909
揺	-10.891
されている方	-10.8913
子供に	-10.8914
現時点で	-10.8914
を提案	-10.8915
が終わって	-10.8915
分野で	-10.8915
食べられる	-10.8917
を読んだ	-10.8921
訪	-10.8921
if	-10.8921
インテリア	-10.8921
の方々に	-10.8923
▁そういえば	-10.8925
ムー	-10.8926
と違う	-10.8926
らん	-10.8933
学校で	-10.8934
を知っている	-10.8934
優秀な	-10.8935
海外旅行	-10.8935
連載	-10.8936
関連の	-10.8937
ーん	-10.8943
問題なく	-10.895
ピア	-10.8951
在住	-10.8951
された場合	-10.8952
角度	-10.8952
枝	-10.8953
プライバシー	-10.8955
勘	-10.8956
ことですが	-10.8956
藩	-10.8957
営業時間	-10.8958
重視	-10.8958
取り入れて	-10.8959
奏	-10.8961
業種	-10.8962
処置	-10.8963
いただいている	-10.8964
熊本	-10.8965
らずに	-10.8967
～。	-10.8968
ばかりです	-10.8969
よろしくお願い致します	-10.8969
お互いの	-10.897
あっ	-10.897
知られ	-10.897
えます	-10.897
接客	-10.8974
の重要性	-10.8974
お名前	-10.8975
それから	-10.8978
子供の頃	-10.8979
安定した	-10.898
ことが出来	-10.8986
意外に	-10.8986
▁日本では	-10.8987
歌詞	-10.899
が来て	-10.8991
やり取り	-10.8991
一杯	-10.8991
いいね	-10.8994
走行	-10.8997
二つ	-10.8999
側から	-10.9001
当事者	-10.9003
゚	-10.9003
懸念	-10.9005
生涯	-10.9005
友達と	-10.9005
を続ける	-10.9006
外れ	-10.9008
が増えた	-10.9009
形に	-10.901
しておくこと	-10.901
失われ	-10.901
オブジェクト	-10.9011
ンズ	-10.9012
vi	-10.9014
程度で	-10.9015
るようになる	-10.9015
が必要だ	-10.9016
美人	-10.9016
無駄な	-10.9016
使いやすい	-10.9017
それなりの	-10.9019
堅	-10.9019
刑	-10.902
インプラント	-10.9021
に住む	-10.9027
を付けて	-10.903
なと思いました	-10.9033
知られる	-10.9034
にわたって	-10.9035
分けて	-10.9037
応用	-10.9037
驚いた	-10.9043
は基本的に	-10.9044
いただくこと	-10.9045
聴き	-10.9047
二重	-10.9047
お答え	-10.9047
同時	-10.9048
叶	-10.9049
自分だけ	-10.9049
いくつも	-10.905
かわい	-10.9052
ましい	-10.9053
時間をかけて	-10.9054
スペシャル	-10.9055
秋の	-10.9057
ディスプレイ	-10.9063
を見ていると	-10.9064
▁本日は	-10.9065
スッキリ	-10.9066
▁その中で	-10.9066
博士	-10.9066
に連絡	-10.9067
そういうこと	-10.907
することです	-10.9071
配達	-10.9072
出された	-10.9076
ウェ	-10.9078
ことが重要です	-10.9078
べきです	-10.9078
を置く	-10.9081
ことが重要	-10.9082
如	-10.9083
勝負	-10.9084
解放	-10.9084
個人差	-10.9084
慰謝料	-10.9085
あて	-10.909
していたので	-10.909
頂きます	-10.9091
した場合は	-10.9092
食べたい	-10.9092
パパ活	-10.9094
教員	-10.9095
鹿	-10.9096
▁中には	-10.9097
マラソン	-10.9098
原則として	-10.9098
体験談	-10.9098
もかなり	-10.9098
してました	-10.9098
をやめ	-10.9098
大いに	-10.9099
を優先	-10.9101
根本	-10.9103
が現れ	-10.9105
勉強会	-10.9106
を進める	-10.911
愛用	-10.911
自宅に	-10.9113
をクリックすると	-10.9113
信号	-10.9114
感じて	-10.9115
イチ	-10.9118
余計な	-10.9119
学者	-10.9119
拭	-10.912
・・・」	-10.9121
開いた	-10.9122
打ち合わせ	-10.9124
このページ	-10.9126
巨	-10.9126
専門の	-10.9126
3%	-10.9127
チョコレート	-10.9128
たいと思う	-10.9129
氏名	-10.913
無意識	-10.913
来ている	-10.9131
幾	-10.9131
do	-10.9131
効果的	-10.9132
男の子	-10.9134
かからない	-10.9134
男性と	-10.9136
と言う事	-10.9137
るのに	-10.9138
ha	-10.9139
に関する情報	-10.914
チェーン	-10.9142
潜	-10.9144
あちこち	-10.9145
不便	-10.9145
知事	-10.9147
ものであり	-10.9148
伝説	-10.9148
商業	-10.9149
防災	-10.9149
探す	-10.915
ポスト	-10.9151
出ている	-10.9154
スタン	-10.9156
痛く	-10.9158
ものですが	-10.9159
なしに	-10.916
信頼できる	-10.9162
人事	-10.9163
相手と	-10.9164
短く	-10.9167
にもなる	-10.9169
人形	-10.9171
ございました	-10.9172
励	-10.9174
を始めて	-10.9174
やってきた	-10.9175
主演	-10.9176
ないのか	-10.9177
不安な	-10.9178
取り上げられ	-10.9178
その中でも	-10.918
▁ここは	-10.9182
必	-10.9186
DA	-10.9187
代謝	-10.919
点検	-10.9194
形状	-10.9196
恥ずかし	-10.92
寂	-10.9201
年度の	-10.9203
の役割	-10.9203
一旦	-10.9203
困	-10.9204
広がる	-10.9204
をみて	-10.9206
マイクロ	-10.9206
還	-10.9208
わけですから	-10.921
おくべき	-10.9212
んですけどね	-10.9213
指輪	-10.9214
容易に	-10.9215
SEO	-10.9217
お読み	-10.9219
考えられ	-10.9219
▁水	-10.922
膨	-10.922
オート	-10.922
ボス	-10.9221
兆	-10.9221
繋がって	-10.9223
特殊な	-10.9224
CE	-10.9225
に応じた	-10.9226
課税	-10.9227
拾	-10.9231
がちです	-10.9233
リアルタイム	-10.9234
人権	-10.9234
を満た	-10.9237
することはできません	-10.9237
快適	-10.9238
教えてくれ	-10.9238
なってしまいました	-10.9239
できるようになりました	-10.9241
必要はありません	-10.9242
自分から	-10.9243
次元	-10.9243
をやっている	-10.9244
明確に	-10.9246
ホー	-10.9247
▁2013	-10.9247
がございましたら	-10.9249
乾燥肌	-10.925
..	-10.9251
見せる	-10.9251
fi	-10.9256
と言っている	-10.9257
で最も	-10.9257
凄く	-10.9258
んだろうな	-10.9259
を深め	-10.9261
ポジション	-10.9263
であるため	-10.9263
かさ	-10.9266
に比べ	-10.9266
頼り	-10.9266
▁現在の	-10.9266
ちゃんが	-10.9268
した結果	-10.9268
狙	-10.9268
120	-10.9269
まとめてみました	-10.927
書きましたが	-10.9271
化した	-10.9272
側面	-10.9273
予め	-10.9273
裂	-10.9274
果たして	-10.9275
彼と	-10.9276
幸福	-10.9276
研	-10.9277
者として	-10.9278
が出来て	-10.9278
▁All	-10.928
グラフ	-10.9281
に置いて	-10.9281
ことができれば	-10.9281
駐	-10.9282
ほうが良い	-10.9282
どうにか	-10.9288
il	-10.9288
に直接	-10.9289
驚く	-10.929
駅前	-10.929
お選び	-10.9291
鑑賞	-10.9292
机	-10.9294
な感じ	-10.9296
になるのは	-10.9297
暮らす	-10.9298
GO	-10.9298
メソッド	-10.9298
絞り	-10.9299
が増えている	-10.93
ap	-10.9305
LE	-10.9308
歓迎	-10.9309
坊	-10.9311
気候	-10.9312
ざるを得ない	-10.9314
ec	-10.9319
怪	-10.9323
聞いたこと	-10.9324
伝えられ	-10.9324
に住んで	-10.9325
行けば	-10.9325
仕方がない	-10.9328
駆	-10.933
なってくる	-10.933
まれる	-10.9331
も良く	-10.9331
んでしょうね	-10.9331
フルーツ	-10.9332
新築	-10.9334
せいか	-10.9335
配偶者	-10.9336
に入れる	-10.9336
プチ	-10.9337
したのが	-10.9343
参考にしてみてください	-10.9344
得た	-10.9346
気味	-10.9346
夫の	-10.9347
楽しかった	-10.9348
年間で	-10.9348
Mo	-10.9352
いいな	-10.9353
にもなります	-10.9353
かせる	-10.9353
ごはん	-10.9355
求人情報	-10.9356
出会え	-10.9358
しているところ	-10.9361
定着	-10.9363
MI	-10.9363
とのことで	-10.9364
SH	-10.9364
2%	-10.9372
が上がる	-10.9373
富士	-10.9374
家庭教師	-10.9379
楽曲	-10.9379
広場	-10.938
場合もございます	-10.9381
住まい	-10.9386
に入っている	-10.9386
ならなかった	-10.9388
ことについて	-10.939
書店	-10.939
キーボード	-10.939
結果として	-10.9391
取扱	-10.9392
代理店	-10.9392
権限	-10.9393
暖	-10.9394
フライ	-10.9395
日で	-10.9398
をとり	-10.9399
を使用し	-10.9399
マスコミ	-10.94
来週	-10.94
唯一の	-10.9403
を払って	-10.9404
ハマ	-10.9404
べきだ	-10.9404
搭載	-10.9405
がわからない	-10.9407
クロス	-10.9407
まじ	-10.9409
パイ	-10.9409
を知った	-10.9409
豪華	-10.941
認められる	-10.941
▁だけど	-10.9411
男は	-10.9413
くら	-10.9414
交付	-10.9415
日には	-10.9415
結婚して	-10.9415
できるもの	-10.9416
ジャン	-10.942
使えます	-10.9421
仲介	-10.9422
モンスター	-10.9423
こども	-10.9423
煙	-10.9424
かのように	-10.9424
厳選	-10.9424
コレクション	-10.9426
皆さんに	-10.9427
になるため	-10.9427
FAX	-10.9428
おススメ	-10.9428
こちらに	-10.9429
サイトです	-10.9433
インター	-10.9435
落とす	-10.9437
すっきり	-10.944
ディスク	-10.9441
いながら	-10.9441
担保	-10.9444
光景	-10.9446
なんてこと	-10.9446
は無理	-10.9447
してもらえ	-10.9448
知りました	-10.9451
実用	-10.9451
基盤	-10.9454
印象的	-10.9456
サム	-10.9456
巡り	-10.9456
論理	-10.9456
優良	-10.9459
そうなので	-10.946
熱い	-10.9461
薬局	-10.9462
(19	-10.9463
ご了承	-10.9464
up	-10.9464
豚	-10.9464
お気軽にお問い合わせください	-10.9465
いますか	-10.9472
を意識して	-10.9473
しょ	-10.9474
即日	-10.9475
皿	-10.9475
割れ	-10.9475
不調	-10.9477
ラスト	-10.9477
の下に	-10.9478
賃金	-10.9481
渡す	-10.9482
することになります	-10.9483
mail	-10.9484
カイ	-10.9486
オス	-10.9486
傾	-10.9488
を手に入れる	-10.949
本人の	-10.9491
ベルト	-10.9491
シャン	-10.9491
語って	-10.9493
見ることができます	-10.9494
見積	-10.9495
赤い	-10.9496
コラボ	-10.9498
面倒な	-10.9499
してもらい	-10.9501
どこから	-10.9505
があるか	-10.9507
と同様	-10.9508
自分と	-10.9509
金曜日	-10.9512
いたしますので	-10.9514
たりして	-10.9515
ナンバー	-10.9516
テープ	-10.9516
なかったら	-10.952
誇り	-10.9524
軍事	-10.9529
II	-10.9529
ばれ	-10.9531
どうすればいい	-10.9534
チャン	-10.9534
ポーズ	-10.9536
又	-10.9538
を記録	-10.9538
転送	-10.9538
数え	-10.9541
新鮮な	-10.9541
ものではなく	-10.9542
に戻る	-10.9543
の内容を	-10.9544
ご了承下さい	-10.9544
の奥	-10.9545
お湯	-10.9546
サラリーマン	-10.9546
汚染	-10.9547
世帯	-10.9547
マスク	-10.9548
こともあって	-10.955
日までに	-10.9551
スープ	-10.9551
虫歯	-10.9553
リード	-10.9554
に行くと	-10.9555
を繰り返し	-10.9555
の長さ	-10.9555
を作成する	-10.9557
居住	-10.9557
行っています	-10.9558
崩壊	-10.9558
代わり	-10.9561
きれない	-10.9562
確定申告	-10.9563
ウス	-10.9563
▁ここに	-10.9563
▁――	-10.9565
やすさ	-10.9565
トレンド	-10.9567
話しかけ	-10.9569
おもちゃ	-10.9569
ig	-10.9569
いなければ	-10.9569
壇	-10.957
をお持ちの方	-10.9571
hi	-10.9573
ジョー	-10.9574
どうしたらいい	-10.9574
を問わず	-10.9575
どうしたら	-10.9575
滝	-10.9576
いるような	-10.958
ビッグ	-10.9581
ストレッチ	-10.9582
出勤	-10.9584
薄く	-10.9585
に参加する	-10.9586
を見つけた	-10.9586
稼働	-10.9588
刀	-10.9588
が多いようです	-10.9589
状態です	-10.959
ようなので	-10.9592
予告	-10.9595
教える	-10.9598
いえば	-10.9598
不幸	-10.9599
なのかな	-10.9601
作れる	-10.9601
お気軽にご相談ください	-10.9602
5,000	-10.9603
同士の	-10.9603
といわれ	-10.9603
ページで	-10.9606
粘	-10.9609
ようにしています	-10.9609
てしまうこと	-10.9609
第三	-10.961
掴	-10.961
一人ひとり	-10.9613
発生する	-10.9614
黄色	-10.9614
ことになり	-10.9616
貰え	-10.9619
PA	-10.9622
の無い	-10.9624
を強く	-10.9625
独身	-10.9627
影響を受け	-10.9628
癒し	-10.9629
と感じて	-10.9633
見えた	-10.9637
変える	-10.9637
肌荒れ	-10.9637
ヵ月	-10.9638
もらえます	-10.9639
カッコ	-10.9641
呼ばれ	-10.9641
がほとんどです	-10.9642
照明	-10.9644
トリー	-10.9647
奇	-10.9647
寒さ	-10.9649
を除く	-10.965
に乗り	-10.9651
まし	-10.9651
乗り換え	-10.9654
だめ	-10.9655
リハビリ	-10.9655
と思うのです	-10.966
冒頭	-10.9661
浮気不倫調査は探偵	-10.9663
進出	-10.9664
ペル	-10.9665
AP	-10.9665
贅沢	-10.9668
もったいない	-10.9668
韓	-10.9672
見たら	-10.9675
借りる	-10.9677
菓子	-10.9677
スクリーン	-10.9681
知られています	-10.9681
2005	-10.9684
まいります	-10.9684
用いられ	-10.9684
賛	-10.9685
方向性	-10.9685
様子を見	-10.9688
塔	-10.9688
つらい	-10.9689
って思って	-10.9689
を保つ	-10.9689
と思ってます	-10.969
謝	-10.9692
に戻	-10.9696
が出てきます	-10.9698
同期	-10.9698
ここ数年	-10.9702
困難な	-10.9703
造り	-10.9704
福岡県	-10.9704
使用している	-10.9707
すみ	-10.9708
どころか	-10.9708
お越しください	-10.9709
丁目	-10.9711
同様の	-10.9713
ine	-10.9716
説明する	-10.9716
当初は	-10.9718
tion	-10.9718
繰り	-10.9718
47	-10.972
竜	-10.9721
人にも	-10.9724
録音	-10.9724
誠	-10.9725
似て	-10.973
救急	-10.973
亀	-10.9731
ess	-10.9732
判決	-10.9733
に比べると	-10.9734
ポイントです	-10.9737
従来	-10.9738
ヒト	-10.9738
59	-10.9738
合成	-10.9739
ka	-10.9739
代表的な	-10.9739
何卒	-10.9742
をきちんと	-10.9746
子ども達	-10.9747
上げた	-10.9749
ca	-10.975
ということもあり	-10.975
が始まる	-10.975
厚生労働省	-10.9751
忍	-10.9752
戴	-10.9752
しまったり	-10.9753
調べてみました	-10.9753
治療法	-10.9754
へ行って	-10.9756
使わ	-10.9761
周辺の	-10.9763
一般的には	-10.9764
自慢	-10.9765
▁Copyright	-10.9767
もあるようです	-10.9767
ビザ	-10.9767
健康保険	-10.9768
に含まれる	-10.9769
作成した	-10.977
が出てきた	-10.9771
濃い	-10.9772
集客	-10.9773
咲	-10.9773
こともできる	-10.9774
に関連する	-10.9774
付いている	-10.9776
全身脱毛	-10.9778
クオリティ	-10.9779
条例	-10.9779
定員	-10.978
のでご注意ください	-10.9782
くださって	-10.9783
なくてはいけない	-10.9783
突破	-10.9783
安価	-10.9783
しようか	-10.9785
訂正	-10.9786
正社員	-10.9787
統合	-10.9788
抜く	-10.9793
教科書	-10.9795
泡	-10.9795
んじゃないの	-10.9796
シュー	-10.9796
知れ	-10.9797
休暇	-10.9798
香港	-10.9798
にはならない	-10.9798
ガラ	-10.9799
オシャレ	-10.9801
したいです	-10.9801
自主	-10.9803
ウム	-10.9803
火災	-10.9804
多いです	-10.9806
できるのか	-10.9806
もらうこと	-10.9807
遺伝子	-10.9808
は決して	-10.9808
いただければと思います	-10.9808
ショット	-10.9808
を止め	-10.9809
があった場合	-10.981
してくださった	-10.9811
この作品	-10.9811
を見ている	-10.9812
犯人	-10.9818
のだそうです	-10.9818
を果た	-10.9819
山市	-10.9821
嫁の浮気を見破る方法	-10.9822
耐え	-10.9823
商標	-10.9823
装着	-10.9826
お過ごし	-10.9826
智	-10.9827
――	-10.983
個室	-10.983
ユニット	-10.983
手配	-10.9832
復旧	-10.9832
偉	-10.9832
があると思います	-10.9832
たい方	-10.9836
幅広く	-10.9837
お肌の	-10.984
近所	-10.9841
im	-10.9843
引いて	-10.9843
AT	-10.9846
飲み会	-10.9853
がちですが	-10.9856
仰	-10.9856
税理士	-10.9857
ぴ	-10.986
大抵	-10.9861
間違いありません	-10.9864
iOS	-10.9868
芝	-10.9868
age	-10.9869
シャー	-10.987
構いません	-10.9872
自分にとって	-10.9873
を選択して	-10.9875
清潔	-10.9878
侵害	-10.9879
を出した	-10.9879
流通	-10.9879
当たって	-10.9879
殺人	-10.988
考えています	-10.9881
めん	-10.9884
範	-10.9885
など様々な	-10.9885
抜群	-10.9885
修復	-10.9886
総額	-10.9889
銀座	-10.9891
▁今日も	-10.9892
するとともに	-10.9894
留め	-10.9898
テニス	-10.9901
明記	-10.9902
っており	-10.9906
になるのか	-10.9906
多くの人	-10.9907
で行う	-10.9909
した時に	-10.9909
梅雨	-10.991
ともかく	-10.9911
ロイ	-10.9911
ご応募	-10.9912
丹	-10.9915
買える	-10.9916
稀	-10.9916
タンパク質	-10.9921
駅から徒歩	-10.9923
されてる	-10.9923
いらっしゃ	-10.9926
分かりやすい	-10.9927
徒	-10.9929
行ってきました	-10.9929
な雰囲気	-10.9932
▁そうした	-10.9932
恩	-10.9932
を行なって	-10.9932
ずいぶん	-10.9933
添え	-10.9933
されるので	-10.9935
を明確に	-10.9936
ことができて	-10.9937
20%	-10.9937
全額	-10.9938
同様に	-10.9938
毎に	-10.9939
受け止め	-10.994
薄い	-10.9942
しているのが	-10.9943
破損	-10.9949
お世話	-10.9949
をインストール	-10.9949
識	-10.9949
抜け毛	-10.9949
が行われました	-10.995
学生時代	-10.9952
ドリ	-10.9953
全力で	-10.9953
させていただき	-10.9955
人にとっては	-10.9955
事ができる	-10.9956
感覚で	-10.9956
一度も	-10.9957
▁先週	-10.9957
形式で	-10.9961
も少なくありません	-10.9965
気づく	-10.9965
事が出来ます	-10.9966
貼って	-10.9966
落ちる	-10.9967
住む	-10.9967
いるのですが	-10.9967
に行こう	-10.9968
られるように	-10.9969
に手を	-10.9972
高くなります	-10.9972
ご登録	-10.9972
見つかる	-10.9973
閉じ	-10.9975
のやり取り	-10.9976
art	-10.9977
ミッション	-10.9978
警戒	-10.9978
肺	-10.9982
ッピング	-10.9983
を得た	-10.9985
決める	-10.9986
申し上げ	-10.9987
決算	-10.9998
−	-10.9999
▁Reserved	-11
明か	-11
抜いて	-11.0001
ロス	-11.0002
ボーナス	-11.0002
している方	-11.0003
奈良	-11.0003
お早めに	-11.0004
コスメ	-11.0006
風呂	-11.0008
舌	-11.001
に接続	-11.0011
他人に	-11.0011
を買った	-11.0013
俺が	-11.0015
キャスト	-11.0016
頃には	-11.0017
を整える	-11.0018
MP	-11.002
ふう	-11.0026
美味しかった	-11.0026
下り	-11.0027
年末年始	-11.0027
頂きたい	-11.0028
と考えた	-11.0028
を受けること	-11.0031
ほかにも	-11.0034
置き換え	-11.0035
のお仕事	-11.0037
専門学校	-11.0037
などにも	-11.004
染め	-11.004
らないように	-11.0042
姿が	-11.0044
陥	-11.0044
だらけ	-11.0048
をご提供	-11.0053
塗	-11.0053
学年	-11.0054
うちは	-11.0055
を行っております	-11.0056
を中心とした	-11.0058
わかりました	-11.006
されていること	-11.0061
ごとの	-11.0061
出来るだけ	-11.0062
原子力	-11.0062
第三者に	-11.0065
本人が	-11.0066
ツー	-11.0069
ミリ	-11.0072
財政	-11.0074
通院	-11.0079
起きている	-11.0079
数学	-11.008
ュ	-11.0081
難易度	-11.0082
積み重ね	-11.0083
勧め	-11.0085
文学	-11.0087
記載されている	-11.0089
一つ一つ	-11.0091
気を付けて	-11.0092
レコード	-11.0093
BA	-11.0093
ジュース	-11.0094
▁Rights	-11.0095
被災地	-11.0098
分くらい	-11.0099
排除	-11.01
恐らく	-11.01
逸	-11.01
本部	-11.0102
9.	-11.0104
願って	-11.0104
回る	-11.0107
嬢	-11.0108
下手	-11.0109
取扱い	-11.011
拠	-11.011
テレ	-11.0112
銭	-11.0115
寿司	-11.0117
容疑者	-11.0117
預金	-11.0118
濃	-11.0122
テーション	-11.0124
揚げ	-11.0125
味方	-11.0125
青年	-11.0128
ハードル	-11.0128
未経験	-11.0129
ないといけません	-11.0129
日本人は	-11.0135
細菌	-11.0137
均	-11.0138
01	-11.0142
清掃	-11.0144
したときに	-11.0148
▁尚	-11.0153
させるために	-11.0154
臨時	-11.0155
を重ね	-11.0156
高齢	-11.016
問われ	-11.016
を呼び	-11.0164
ドキドキ	-11.0166
ぱ	-11.0166
してくださいね	-11.0168
ロンドン	-11.0168
ですかね	-11.017
吐	-11.017
ご支援	-11.0172
お値段	-11.0172
力を入れ	-11.0173
AS	-11.0174
長さ	-11.0175
を生かし	-11.0176
を有する	-11.0177
時期は	-11.0178
監査	-11.018
させたい	-11.0182
問題点	-11.0185
取れない	-11.0185
摩	-11.0186
ウォ	-11.0188
独特の	-11.019
行える	-11.0191
プラットフォーム	-11.0191
地位	-11.0191
が入り	-11.0194
時間を過ご	-11.0196
になっており	-11.0196
に沿って	-11.0197
を実現する	-11.0198
やがて	-11.0201
自動で	-11.0202
しばしば	-11.0202
しておいて	-11.0203
高まって	-11.0205
知恵	-11.0208
明確な	-11.0209
集まって	-11.0211
わけじゃない	-11.0214
委	-11.022
のみなさん	-11.022
%	-11.022
ポスター	-11.0223
初日	-11.0226
させていただいて	-11.0227
沿	-11.0227
漢字	-11.0228
食欲	-11.0229
商店街	-11.0229
とは思えない	-11.0232
ませんので	-11.0234
を起こし	-11.0239
リビング	-11.024
できるようになります	-11.0241
88	-11.0241
名義	-11.0242
取り上げ	-11.0243
ジェル	-11.0244
てくれました	-11.0245
をもつ	-11.0246
付けて	-11.0247
が含まれている	-11.0249
を掛け	-11.0251
生きていく	-11.0254
分程度	-11.0255
さっき	-11.0256
ちゃんは	-11.0257
タスク	-11.0258
じゃん	-11.0259
時点	-11.026
説明します	-11.0261
しておりません	-11.0264
ローズ	-11.0266
判定	-11.0266
OR	-11.0266
然と	-11.0268
の影響で	-11.0269
だと思いました	-11.027
出会える	-11.0271
心理学	-11.0273
を入力して	-11.0274
文字列	-11.0276
酸化	-11.0277
生徒さん	-11.028
お気に入り	-11.028
のお知らせ	-11.028
難い	-11.0281
洗浄	-11.0282
を連れて	-11.0288
美容液	-11.029
革命	-11.029
が足りない	-11.0291
おくこと	-11.0292
次第で	-11.0293
身に付け	-11.0293
申し出	-11.0295
ミルク	-11.0296
お住まい	-11.0296
ッター	-11.0297
飾り	-11.0297
英国	-11.03
正常に	-11.03
薬剤師	-11.0301
EX	-11.0302
作れ	-11.0304
工程	-11.0305
チャート	-11.0309
給付	-11.0309
オークション	-11.0312
遭	-11.0314
すり	-11.0315
増える	-11.0315
が好きで	-11.0317
現れる	-11.032
ビジョン	-11.0323
クセ	-11.0325
垂	-11.0325
しているようです	-11.0326
連れて	-11.0326
を踏まえ	-11.0328
訪れて	-11.0328
タワー	-11.033
残念です	-11.0331
ようになっている	-11.0332
健康な	-11.0332
飛行	-11.0334
もあるのです	-11.0335
出せる	-11.0336
運行	-11.0336
を改善する	-11.0339
近代	-11.0341
をおすすめします	-11.0341
AM	-11.0342
内閣	-11.0342
仕事をしている	-11.0343
植	-11.0344
つもりで	-11.0345
web	-11.0345
旦那さん	-11.0347
声をかけて	-11.0347
トランプ	-11.0348
スタンス	-11.0348
を使用している	-11.0349
と比べると	-11.0349
をご確認ください	-11.0349
体温	-11.0353
注目を集め	-11.0354
何回も	-11.0354
注射	-11.0355
次のように	-11.0356
更	-11.0358
承	-11.0358
しまして	-11.0359
付与	-11.0359
をきっかけに	-11.036
よくわからない	-11.0361
マジ	-11.0362
サクラ	-11.0362
に向かう	-11.0362
免疫	-11.0364
だったと思います	-11.0365
効果があります	-11.0366
られなかった	-11.0369
立派な	-11.037
つけられ	-11.0371
器具	-11.0374
ゆる	-11.0375
事が出来る	-11.0375
確実	-11.0376
50%	-11.0379
振り返って	-11.0379
ひどく	-11.038
外から	-11.0381
出現	-11.0382
劣化	-11.0384
侵入	-11.0386
を発揮	-11.0386
売れる	-11.0386
止める	-11.0386
屈	-11.0388
を動かす	-11.0388
宇	-11.0389
下さいね	-11.0391
も一緒に	-11.0393
載せて	-11.0394
が苦手	-11.0397
一面	-11.0398
ローカル	-11.0401
AD	-11.0404
発揮	-11.0404
を提示	-11.0406
ことがあった	-11.0408
われて	-11.0409
お問い合わせ下さい	-11.0412
現れ	-11.0413
斜	-11.0415
現役	-11.0417
対戦	-11.0421
駐車	-11.0421
が行われる	-11.0422
が表示される	-11.0422
HTML	-11.0423
販売されている	-11.0424
いる方	-11.0425
もありましたが	-11.0429
BI	-11.0429
ことを考え	-11.0432
▁但し	-11.0435
選考	-11.0436
比較して	-11.0437
られており	-11.0442
ことにした	-11.0442
防衛	-11.0444
かき	-11.0446
寂しい	-11.0447
施策	-11.0447
それらを	-11.0455
宜しくお願い致します	-11.0456
数々の	-11.0462
効率的に	-11.0463
ケル	-11.0468
嬉しかったです	-11.0468
ということだ	-11.0469
ものとする	-11.0469
ことも可能です	-11.0469
ご提案	-11.047
麦	-11.047
表示されます	-11.0473
肥	-11.0476
中華	-11.0476
受けて	-11.0477
とは言え	-11.0478
名刺	-11.0479
目立つ	-11.048
乗って	-11.0481
減り	-11.0483
分かりませんが	-11.0483
シフト	-11.0483
経ち	-11.0484
取締役	-11.0486
天井	-11.0488
課金	-11.0488
笑って	-11.0489
接触	-11.0491
温かい	-11.0492
コンサルタント	-11.0492
到達	-11.0493
利便性	-11.0493
区別	-11.0494
見解	-11.0494
なくなってしまった	-11.0494
無駄に	-11.0498
49	-11.0504
ダル	-11.0505
部下	-11.0513
始まる	-11.0513
おりますので	-11.0516
個々の	-11.0517
使われて	-11.0517
という意味で	-11.0518
より多くの	-11.0518
エンド	-11.0518
ホスト	-11.052
できますので	-11.052
世界観	-11.0522
クッキー	-11.0522
手帳	-11.0526
著	-11.0526
するようにしましょう	-11.0527
止めて	-11.0527
積み	-11.0527
徹底的に	-11.0532
わき	-11.0533
デュ	-11.0535
狩	-11.0536
私と	-11.0542
いなくても	-11.0542
を含めて	-11.0542
先生方	-11.0544
興味深い	-11.0545
できる限り	-11.0545
マッチング	-11.0547
来店	-11.0548
というイメージ	-11.0549
観光地	-11.0551
祈り	-11.0555
革	-11.0558
重さ	-11.056
存在している	-11.0561
冷静に	-11.0561
この世	-11.0562
グランド	-11.0563
燃	-11.0566
アクセサリー	-11.0568
とのことでした	-11.0569
の一つです	-11.0573
古代	-11.0574
出すこと	-11.0575
署名	-11.0579
してみて下さい	-11.058
を守って	-11.058
あるのか	-11.0582
対面	-11.0585
を調べて	-11.0587
セルフ	-11.0587
適正	-11.0591
克服	-11.0591
できるのは	-11.0595
ライター	-11.0595
堀	-11.0595
たまま	-11.0597
隅	-11.0597
があるようです	-11.06
スタンプ	-11.06
実習	-11.06
読ま	-11.0602
することが出来ます	-11.0604
調べる	-11.0605
願います	-11.0606
告げ	-11.0608
都内	-11.061
うつ病	-11.0611
功	-11.0612
した際に	-11.0612
いち	-11.0612
ないまま	-11.0614
借金を	-11.0614
気に入った	-11.0617
来院	-11.0618
満足度	-11.0624
承諾	-11.0625
じゃなく	-11.0626
も大丈夫	-11.0627
漂	-11.063
44	-11.0632
利点	-11.0633
究	-11.0634
85	-11.0636
脅	-11.0637
が入る	-11.0637
募	-11.0638
条約	-11.0642
云	-11.0642
大事です	-11.0642
されております	-11.0642
指導者	-11.0643
肝心	-11.0643
月曜日	-11.0644
ギャラリー	-11.0649
おいてください	-11.0649
暦	-11.065
欠け	-11.0652
お二人	-11.0653
↓	-11.0653
新年	-11.0656
業績	-11.0656
と指摘	-11.0658
乗車	-11.0661
仕入れ	-11.0666
磁	-11.0669
スピ	-11.0669
ネル	-11.067
奇跡	-11.067
疎	-11.067
ご主人	-11.067
惜し	-11.0673
スカ	-11.0673
移住	-11.0675
販売店	-11.0676
簡	-11.0678
眠り	-11.0679
寒く	-11.0679
し続ける	-11.068
釣	-11.0681
転換	-11.0682
長野県	-11.0683
全般	-11.0683
考えていた	-11.0684
続けています	-11.0685
高品質	-11.0687
伸ば	-11.0689
ip	-11.069
PO	-11.0691
双方	-11.0692
挟	-11.0693
真似	-11.0695
湧	-11.0696
カム	-11.0698
参考になる	-11.07
興味のある方は	-11.0701
思える	-11.0704
ATM	-11.0709
急いで	-11.071
その結果	-11.071
株価	-11.0711
災	-11.0711
に入ると	-11.0713
に戻り	-11.0713
ローマ	-11.0716
させない	-11.0723
感染症	-11.0725
財務	-11.0726
になっているので	-11.0728
総理	-11.0729
を着て	-11.073
横浜市	-11.073
収め	-11.0732
就職活動	-11.0732
鎮	-11.0733
それ以外	-11.0735
しているような	-11.0736
自衛隊	-11.0737
当サイトで紹介している	-11.0737
カタログ	-11.0742
鶴	-11.0742
予備	-11.0743
契約書	-11.0744
出てきて	-11.0745
コメントを受け付けていません	-11.0746
抱き	-11.0747
ネコ	-11.0747
まつり	-11.0749
週に	-11.0751
ついでに	-11.0752
謝罪	-11.0759
ものすごく	-11.0761
を理解し	-11.0761
しないといけない	-11.0761
条第	-11.0764
訳で	-11.0767
が起きた	-11.0771
敏感	-11.0772
進歩	-11.0772
二つの	-11.0773
おお	-11.0773
チェックしてみてください	-11.0776
高度な	-11.0777
側は	-11.0777
会える	-11.0777
と話して	-11.0779
悪いこと	-11.0779
容易	-11.0782
権力	-11.0782
リーズナブル	-11.0782
キャンパス	-11.0783
ランニング	-11.0783
頑張ります	-11.0784
900	-11.0784
に触れる	-11.0784
役立つ	-11.0785
来ない	-11.0788
ハンド	-11.0789
De	-11.079
お出かけ	-11.0791
に乗る	-11.0792
短縮	-11.0793
ネット上で	-11.0794
が中心	-11.0794
正面	-11.0797
法的	-11.0797
を開く	-11.0797
DS	-11.0798
が生じる	-11.0798
確認できます	-11.0801
完	-11.0801
を増やし	-11.0802
一括査定	-11.0804
と思っていましたが	-11.0805
認める	-11.0806
賠償	-11.081
協議	-11.081
実務	-11.0811
献	-11.0812
れました	-11.0813
以下のように	-11.0813
掛	-11.0813
ついつい	-11.0817
消防	-11.0817
向いている	-11.0818
幼	-11.0819
言い方	-11.0821
なくてもいい	-11.0823
選んだ	-11.0824
～5	-11.0824
ブロ	-11.0825
していただいた	-11.0826
みて下さい	-11.0826
通る	-11.0827
▁これにより	-11.0829
豪	-11.0829
を抱えている	-11.0829
正確	-11.083
下がり	-11.0831
ラベル	-11.0831
要請	-11.0834
できそう	-11.0836
らしさ	-11.0837
あげたい	-11.0838
覧	-11.0839
利用している	-11.0842
死んだ	-11.0843
を紹介しています	-11.0843
を実践	-11.0845
ポケモン	-11.0845
公務員	-11.0846
かもしれないけど	-11.0846
市町村	-11.0849
透	-11.0849
グルメ	-11.0853
を記載	-11.0855
そうそう	-11.0856
パッ	-11.0857
欲求	-11.0857
消えて	-11.086
も同様	-11.086
ソリューション	-11.0861
を開いて	-11.0862
※	-11.0867
例え	-11.0868
欄に	-11.087
改良	-11.0871
を理解する	-11.0872
ご自宅	-11.0873
お渡し	-11.0876
唐	-11.0877
寄せられ	-11.0877
決勝	-11.088
クルマ	-11.0882
韓国人	-11.0884
手当	-11.0886
併用	-11.0887
良好	-11.0888
スタンド	-11.0889
を入力し	-11.0892
単位で	-11.0896
責任者	-11.0896
ion	-11.0896
消滅	-11.0896
喉	-11.0898
詰	-11.09
が多数	-11.0901
再発	-11.0901
時頃	-11.0902
たどり着	-11.0902
終わらせ	-11.0902
敢	-11.0904
していたのですが	-11.0905
ものなので	-11.0907
メルマガ	-11.0908
講習	-11.0908
加盟	-11.0908
しょう	-11.0909
警告	-11.091
粗	-11.0911
注意しましょう	-11.0913
隠し	-11.0916
減って	-11.0917
によるもの	-11.0918
でしたね	-11.0919
んでしょう	-11.0919
フェス	-11.092
聞きました	-11.092
コンパクト	-11.0922
を購入して	-11.0922
引退	-11.0922
何となく	-11.0923
彼女に	-11.0927
を満たす	-11.0928
希	-11.0931
自分に合った	-11.0931
上場	-11.0933
作者	-11.0934
震	-11.0937
検索結果	-11.0938
リサイクル	-11.0939
中間	-11.0941
本サイト	-11.0945
▁もしも	-11.0947
放棄	-11.0947
もらえた	-11.0948
格好	-11.0948
歯周病	-11.095
生き物	-11.0951
書かれています	-11.0954
わけでもない	-11.0954
市長	-11.0956
動機	-11.0956
が出てきて	-11.0957
▁以前は	-11.0958
優秀	-11.0959
どり	-11.0961
も少なくない	-11.0963
大規模な	-11.0965
メタ	-11.0966
ものもあります	-11.0967
テクノロジー	-11.0968
果物	-11.0968
急な	-11.097
発売された	-11.097
他者	-11.0973
性の高い	-11.0973
と感じます	-11.0976
ソロ	-11.0978
た方がいい	-11.0978
できるような	-11.0978
`)	-11.0979
間違った	-11.0979
福島県	-11.0985
アメ	-11.099
慶	-11.0992
go	-11.0993
冷や	-11.0994
限られた	-11.0994
というものです	-11.0996
すぎると	-11.0996
使い勝手	-11.0996
与えられ	-11.0996
を求めている	-11.0997
面白かった	-11.0997
ko	-11.0999
▁それにしても	-11.0999
1～2	-11.1004
2020	-11.1007
強力な	-11.1008
アマゾン	-11.1009
暮	-11.1009
きれ	-11.101
限度額	-11.1011
良くなる	-11.1014
慢性	-11.1015
越え	-11.1016
知らせ	-11.1018
黒い	-11.1019
フィン	-11.1019
川崎	-11.1019
アロマ	-11.102
いつの間にか	-11.1022
コーチ	-11.1022
ことのできる	-11.1026
学科	-11.1027
してみます	-11.1028
いかなる	-11.1029
に取り組む	-11.103
欧州	-11.1031
FC	-11.1031
記者	-11.1034
知られている	-11.1034
買取業者	-11.1034
余り	-11.1034
方法があります	-11.1035
が入った	-11.1038
グレー	-11.1039
を調整	-11.104
ファースト	-11.1043
精度	-11.1043
っきり	-11.1047
を参照	-11.1047
上下	-11.1048
垣	-11.1049
人にとって	-11.105
保守	-11.1052
などについて	-11.1052
見積り	-11.1052
協議会	-11.1054
録画	-11.1054
押さえ	-11.1061
all	-11.1062
商売	-11.1063
あげた	-11.1063
広報	-11.1064
ぺ	-11.1067
わからなく	-11.1068
ベイ	-11.1068
センサー	-11.1071
観測	-11.1071
狙い	-11.1072
講演会	-11.1073
ack	-11.1073
SEX	-11.1073
虚	-11.1074
身近に	-11.1074
しているもの	-11.1074
▁よって	-11.1075
か否か	-11.1075
を送り	-11.1076
ai	-11.1077
年まで	-11.108
新人	-11.108
の大切さ	-11.1081
通っている	-11.1082
語った	-11.1082
はもちろんのこと	-11.1082
旗	-11.1083
進めて	-11.1086
ウィンドウ	-11.1086
冷たい	-11.1086
に行きたい	-11.1092
キリスト	-11.1093
』『	-11.1093
警	-11.1093
方法として	-11.1094
ボル	-11.1096
本物の	-11.1097
速やかに	-11.1101
知ってる	-11.1105
ッキー	-11.1105
歩いている	-11.1106
をお待ちしております	-11.1106
してきて	-11.1107
彼らが	-11.1108
をしていると	-11.1112
仏教	-11.1112
みたいですね	-11.1113
任意整理	-11.1114
最後は	-11.1115
戻す	-11.1117
みること	-11.1117
ワクチン	-11.1119
に所属	-11.1121
フィルム	-11.1123
が広がって	-11.1128
突っ	-11.113
分間	-11.1133
紛失	-11.1135
酸素	-11.1135
駅周辺	-11.1138
勢力	-11.1139
が上がって	-11.1139
お食事	-11.1139
を定め	-11.114
馴染み	-11.1141
が減って	-11.1141
炊	-11.1142
インチ	-11.1143
苦痛	-11.1143
ge	-11.1144
モー	-11.1148
ゲン	-11.115
やらない	-11.1154
しなければいけない	-11.1155
訴	-11.1155
イスラエル	-11.1155
真ん中	-11.1157
キャッチ	-11.1159
全面	-11.116
一貫	-11.1161
傘	-11.1163
カート	-11.1166
見かけ	-11.1167
禁煙	-11.1168
he	-11.117
ab	-11.1171
58	-11.1172
決めました	-11.1173
仁	-11.1173
OL	-11.1174
ことだと思います	-11.1175
々しい	-11.1177
忙しく	-11.1178
承知	-11.118
コンタクト	-11.1181
なりたい	-11.1182
整体	-11.1184
なんですね	-11.1185
老化	-11.1185
傍	-11.1187
愛する	-11.1188
患	-11.1188
各社	-11.1189
多々	-11.1192
JA	-11.1196
食べられ	-11.1196
売り上げ	-11.1199
責め	-11.12
宜	-11.1201
テク	-11.1202
燃料	-11.1205
保育士	-11.1207
静かに	-11.1209
競馬	-11.121
をご利用ください	-11.1211
拍	-11.1211
大量	-11.1212
障がい	-11.1214
経つ	-11.1215
併せて	-11.1215
に通う	-11.1217
柔らか	-11.1222
に分けて	-11.1223
据え	-11.1223
してしまうこと	-11.1224
結果が出	-11.1224
何十	-11.1227
ロング	-11.1228
尊敬	-11.1229
表明	-11.1229
体型	-11.123
暗い	-11.123
7%	-11.123
如何	-11.123
合理的	-11.1233
を選択し	-11.1238
賞を受賞	-11.1238
を開催します	-11.124
効果的です	-11.124
なったり	-11.1241
チップ	-11.1241
観客	-11.1243
場合が多い	-11.1244
同様	-11.1244
高度	-11.1245
冒険	-11.1245
数百	-11.1249
も多いです	-11.125
送料無料	-11.1251
を搭載	-11.1252
してもらいたい	-11.1252
出来れば	-11.1254
掘り	-11.1255
を重視し	-11.1256
動向	-11.1257
免	-11.1259
必要不可欠	-11.126
深刻な	-11.126
とは言えない	-11.1263
▁そこで今回は	-11.1268
だったのです	-11.1269
この映画	-11.1271
とは思う	-11.1272
してまいります	-11.1272
を考えた	-11.1273
やりがい	-11.1273
畳	-11.1273
といえる	-11.1273
ストップ	-11.1273
ご報告	-11.1273
補助金	-11.1274
お待ちしています	-11.1276
日頃から	-11.1277
選手権	-11.1279
人以上	-11.1284
部署	-11.1284
絶え	-11.1286
見つけた	-11.1287
景気	-11.1287
釈	-11.1287
静岡県	-11.1287
順位	-11.1288
苦しみ	-11.1288
展示会	-11.1289
⇒	-11.129
読める	-11.1292
誠にありがとうございます	-11.1292
エキス	-11.1293
ショート	-11.1296
幼児	-11.1297
入っている	-11.1303
●	-11.1303
どおり	-11.1305
昼食	-11.1305
冷凍	-11.1313
デスク	-11.1313
属性	-11.1314
言うこと	-11.1315
かなと思います	-11.1315
所有者	-11.1315
って言う	-11.1317
破産	-11.1317
販売している	-11.1317
激しく	-11.1319
CS	-11.132
したほうが	-11.132
ご安心ください	-11.1321
長男	-11.1322
WordPress	-11.1326
早朝	-11.1327
記念日	-11.1329
象	-11.1329
ねえ	-11.1331
糖質	-11.1331
を追求	-11.1332
調節	-11.1336
東海	-11.1337
ポップ	-11.1338
随分	-11.1338
加齢	-11.1338
に位置する	-11.1339
BC	-11.134
寸	-11.134
ドーム	-11.134
補給	-11.134
提供している	-11.1342
クレジット	-11.1343
どうせ	-11.1344
免疫力	-11.1345
ご参加ください	-11.1346
を借りて	-11.1347
操	-11.135
気配	-11.1353
稼げる	-11.1356
本音	-11.1357
を代表する	-11.1359
ひたすら	-11.136
問題を解決	-11.1361
入試	-11.1361
銘柄	-11.1362
バンク	-11.1368
寝ている	-11.1368
させていただいた	-11.1369
掛かり	-11.137
をもたらし	-11.1375
使いたい	-11.1376
伝わる	-11.1378
起きる	-11.1378
特殊	-11.1379
ないでください	-11.1379
生じた	-11.138
それこそ	-11.1381
こんにちは	-11.1381
カジノ	-11.1382
寛	-11.1383
某	-11.1383
針	-11.1384
見込み	-11.1389
中国人	-11.139
発表された	-11.139
楽しみながら	-11.1393
が得られ	-11.1394
歯科医院	-11.1394
↑	-11.1395
空いて	-11.1398
お願い致します	-11.1403
を推進	-11.1403
奪われ	-11.1403
返って	-11.1403
売りたい	-11.1404
今日も	-11.1407
恒例	-11.1408
2004	-11.1409
仕掛け	-11.1414
次々と	-11.1414
巨大な	-11.1415
拝	-11.1416
を身につけ	-11.1417
入居	-11.1418
されてきた	-11.1418
ベンチャー	-11.1422
ですからね	-11.1423
新潟	-11.1424
いるのに	-11.1428
眠れ	-11.143
が多くて	-11.1431
レイアウト	-11.1432
宣	-11.1433
与える	-11.1433
9%	-11.1433
時過ぎ	-11.1435
飼い主	-11.1435
金銭	-11.1435
浮気を	-11.1436
する可能性	-11.1437
下さいませ	-11.1438
いらない	-11.1438
成功した	-11.1439
興味を持って	-11.1439
を楽しみに	-11.1441
に至るまで	-11.1442
ッコ	-11.1442
代後半	-11.1445
缶	-11.1446
に連れて	-11.1448
コラーゲン	-11.1449
ツリー	-11.145
これほど	-11.1451
インフラ	-11.1453
ずれ	-11.1458
可能な限り	-11.1458
濡れ	-11.146
執筆	-11.146
伊勢	-11.1461
語学	-11.1463
元気な	-11.1465
ight	-11.1468
6%	-11.1471
すぎない	-11.1472
コンピューター	-11.1474
唯一	-11.1474
対象外	-11.1477
骨盤	-11.148
引き出し	-11.1481
をクリア	-11.1483
向かう	-11.1484
自由な	-11.1485
出血	-11.1486
を感じます	-11.1488
何年も	-11.1489
シール	-11.1491
になっております	-11.1491
順に	-11.1492
されず	-11.1492
幼い	-11.1492
花粉症	-11.1495
ピーク	-11.1496
パンツ	-11.1497
HD	-11.1497
を出て	-11.1498
さないように	-11.1498
▁具体的には	-11.1508
炭	-11.151
右側	-11.1512
味噌	-11.1512
してあげ	-11.1513
メジャー	-11.1513
暖かい	-11.1516
感謝しています	-11.1517
してくれるので	-11.1519
家の中	-11.152
いいかもしれません	-11.1521
ジェット	-11.1522
と思いながら	-11.1523
を入れた	-11.1524
でありながら	-11.1525
場面で	-11.1525
親戚	-11.1526
食物繊維	-11.1529
役立て	-11.1532
MB	-11.1536
ネス	-11.1536
を行わ	-11.1537
4%	-11.1539
芸能人	-11.1541
ゴム	-11.1541
オレンジ	-11.1541
に応じ	-11.1543
ブラン	-11.1546
▁このため	-11.1547
半ば	-11.1549
が起きる	-11.1551
判明	-11.1552
ネーム	-11.1553
したかった	-11.1553
ES	-11.1554
うどん	-11.1555
さを感じ	-11.1556
per	-11.156
LA	-11.1561
という声	-11.1561
を信じて	-11.1563
障	-11.1563
どんなこと	-11.1564
技術者	-11.1564
海岸	-11.1564
夜間	-11.1565
トップページ	-11.1566
が変わった	-11.1566
仮想	-11.1566
適応	-11.1567
を選択します	-11.1568
ホット	-11.1569
してもいい	-11.1569
付いた	-11.1571
伝えたい	-11.1572
国籍	-11.1572
をもたらす	-11.1572
叫	-11.1574
視線	-11.1575
ポリシー	-11.1576
Con	-11.1577
就業	-11.158
攻略	-11.158
貼り付け	-11.1581
pl	-11.1586
作曲	-11.1588
バストアップ	-11.1588
紹介しています	-11.159
重大な	-11.1591
に出かけ	-11.1592
を調べる	-11.1593
ばら	-11.1593
口臭	-11.1593
に巻き込まれ	-11.1596
祖父	-11.1597
小型	-11.1598
を開けて	-11.1599
到	-11.1599
を重ねて	-11.16
パスポート	-11.16
立っている	-11.16
発音	-11.1603
できないこと	-11.1604
周りの人	-11.1605
作戦	-11.1607
スコア	-11.1607
はるかに	-11.161
になってしまい	-11.1611
という考え	-11.1613
とは違い	-11.1616
進める	-11.1618
重宝	-11.1619
お迎え	-11.162
都会	-11.162
志望	-11.1621
おはようございます	-11.1621
紫	-11.1623
つなげ	-11.1623
書面	-11.1624
ドラゴン	-11.1625
各国	-11.1628
見かける	-11.1629
に違いない	-11.1629
鎌倉	-11.163
もうすぐ	-11.1631
架	-11.1632
と感じています	-11.1634
乗った	-11.1638
欲しく	-11.1638
手に入る	-11.1638
利用目的	-11.1638
なったら	-11.1643
受注	-11.1644
あらかじめご了承ください	-11.1646
輸出	-11.1646
キリスト教	-11.1646
楽しかったです	-11.1647
育毛	-11.1648
西洋	-11.1654
迷って	-11.1657
貿易	-11.1657
交わ	-11.166
レア	-11.166
世界的に	-11.1661
遭遇	-11.1662
盛り上がり	-11.1664
メンタル	-11.1666
の中にある	-11.1666
誠実	-11.1667
さくら	-11.1667
花火	-11.1671
が落ちて	-11.1672
たしかに	-11.1675
を整えて	-11.1676
職場で	-11.1676
The	-11.1676
対処法	-11.1677
少数	-11.168
航空券	-11.168
を維持する	-11.1681
を作ること	-11.1682
が考えられます	-11.1683
と同じような	-11.1686
コンテスト	-11.1687
影響を与える	-11.1688
紹介していきます	-11.169
NPO	-11.169
▁その為	-11.1691
を重ねる	-11.1691
に残る	-11.1692
鍛え	-11.1693
を残して	-11.1695
みたいなもの	-11.1695
浪	-11.1698
縛	-11.17
閣	-11.1701
UN	-11.1701
をはじめとする	-11.1702
を起こして	-11.1702
説明書	-11.1703
創作	-11.1705
優れ	-11.1705
年半	-11.1707
外観	-11.1707
シス	-11.1708
必要に応じて	-11.1709
とは限りません	-11.1709
恐ろしい	-11.1711
れません	-11.1712
溜	-11.1712
▁この日は	-11.1713
子宮	-11.1713
と思うけど	-11.1714
展望	-11.1719
請	-11.172
簡単です	-11.172
ところまで	-11.1721
必要なもの	-11.1724
熊	-11.1724
最短	-11.1725
生活保護	-11.1726
◎	-11.1727
蓋	-11.1728
双	-11.1728
喧嘩	-11.1728
下がる	-11.1728
ハーブ	-11.1733
している人は	-11.1733
した方がいい	-11.1734
踊り	-11.1734
効率よく	-11.1735
優れている	-11.1735
おばあちゃん	-11.1738
ふたり	-11.1739
思い切って	-11.1739
お尻	-11.1743
嵐	-11.1743
AV	-11.1746
になりそうです	-11.1747
ジャンプ	-11.1749
丁寧	-11.1751
なんですよ	-11.1755
la	-11.1756
長い間	-11.1757
国連	-11.1758
と信じて	-11.176
面談	-11.1761
しているのですが	-11.1766
小規模	-11.1767
精神的な	-11.177
桃	-11.177
分ける	-11.1771
媒体	-11.1771
たいと思っています	-11.1772
フォン	-11.1772
せん	-11.1772
作られている	-11.1773
掛かる	-11.1773
ウイ	-11.1776
競	-11.1778
民主党	-11.1778
澤	-11.1778
王子	-11.1782
信じられない	-11.1782
が崩れ	-11.1783
中々	-11.1784
湾	-11.1784
んじ	-11.179
ご自身で	-11.179
確かな	-11.1791
180	-11.1793
膨大な	-11.1794
情熱	-11.1799
を活用する	-11.1801
したことがある	-11.1803
わせて	-11.1806
1.5	-11.1807
友だち	-11.1808
加速	-11.181
活かし	-11.1815
になってしまって	-11.1816
してもらいました	-11.1816
09	-11.1817
刑事	-11.1818
互	-11.1819
効果的に	-11.182
なってきている	-11.182
発明	-11.1821
を支える	-11.1823
を利用している	-11.1824
シンガポール	-11.1825
試しに	-11.1825
リンク先	-11.1826
詳細な	-11.1826
仕事をする	-11.1828
購入できる	-11.1829
血行	-11.1831
に行ったり	-11.1832
合併	-11.1835
して頂き	-11.1835
情報収集	-11.1835
することになりました	-11.1837
なかで	-11.1838
ti	-11.184
往	-11.184
LED	-11.1844
ダメな	-11.1845
お勧めです	-11.1846
といわれる	-11.1846
使用される	-11.1848
認可	-11.185
選べ	-11.185
おかしく	-11.1851
止まって	-11.1851
アニ	-11.1853
様式	-11.1853
だからです	-11.1853
トータル	-11.1855
のは当然	-11.1856
いかがですか	-11.1857
大きくなる	-11.1858
ity	-11.186
なくてはなりません	-11.186
農家	-11.1862
忘れずに	-11.1864
雇	-11.1868
リサーチ	-11.1868
を集める	-11.1871
申し込む	-11.1872
たほうがいい	-11.1874
入口	-11.1876
歌手	-11.1877
万全	-11.1879
内科	-11.1879
血流	-11.188
ショップで	-11.1881
なんだけど	-11.1882
スムーズ	-11.1884
くなってしまう	-11.1888
鶏	-11.1888
のある人	-11.1889
多いと思います	-11.1889
癌	-11.189
溶け	-11.189
為替	-11.1891
規約	-11.1891
を乗り越え	-11.1895
その時は	-11.1898
年々	-11.19
医療費	-11.1901
対話	-11.1902
コンサルティング	-11.1902
その時に	-11.1903
出せ	-11.1903
かえって	-11.1905
喋	-11.1907
理解できる	-11.1907
集中力	-11.1907
相応	-11.1908
歴史的	-11.1908
須	-11.191
が挙げられます	-11.191
68	-11.1912
どの程度	-11.1913
進んでいる	-11.1913
03	-11.1914
《	-11.1916
デスクトップ	-11.192
米軍	-11.1921
にならないように	-11.1921
駄目	-11.1923
,500	-11.1923
何処	-11.1927
口の中	-11.1927
行われています	-11.1927
法律事務所	-11.1928
袖	-11.1928
お肉	-11.193
切手	-11.1931
日常的に	-11.1933
そこそこ	-11.1933
間違っている	-11.1936
どうでもいい	-11.1937
安倍	-11.1937
を抱えて	-11.1937
雑貨	-11.1939
家計	-11.1942
にわたり	-11.1942
店員さん	-11.1943
勧誘	-11.1944
のではないだろうか	-11.1944
つながって	-11.1945
泣いて	-11.1945
皮脂	-11.1945
05	-11.1946
バイオ	-11.1948
ではないのです	-11.1953
扱われ	-11.1953
変数	-11.1954
大人気	-11.1954
圧力	-11.1956
存在しない	-11.1956
その中で	-11.1961
継続的に	-11.1961
振興	-11.1962
諸国	-11.1962
帰った	-11.1964
周年記念	-11.1966
培	-11.1967
いただけた	-11.1968
いじ	-11.1969
閉鎖	-11.1969
お墓	-11.1972
良いもの	-11.1972
帝	-11.1973
待機	-11.1975
(^	-11.1978
することも可能です	-11.1979
フォント	-11.1979
見ました	-11.1982
つもりです	-11.1983
だったけど	-11.1986
くなったり	-11.1987
惹かれ	-11.1988
ることができない	-11.1989
トライアル	-11.1989
を立てて	-11.1989
牛乳	-11.199
もらえない	-11.1992
VR	-11.1992
将来的に	-11.1994
売っている	-11.1995
試し読み	-11.1995
をお探し	-11.1996
をチェックして	-11.1996
利用可能	-11.1996
規格	-11.2
前半	-11.2001
老人	-11.2003
ご自身	-11.2006
込まれた	-11.2008
中断	-11.2011
信頼性	-11.2015
曇	-11.2016
2,000	-11.2017
エージェント	-11.2017
ハート	-11.2019
怪しい	-11.2019
ずら	-11.202
スピーカー	-11.2022
ω	-11.2026
あげられ	-11.2029
を知ること	-11.2031
ドッグ	-11.2031
好きだ	-11.2038
広さ	-11.204
したものです	-11.2042
本人確認	-11.2042
してあげる	-11.2043
ジャケット	-11.2044
いただきたいと思います	-11.2044
ことも可能	-11.2044
附	-11.2045
償	-11.2046
事があります	-11.2046
丈	-11.205
電波	-11.205
試してみる	-11.205
解決策	-11.2051
砂糖	-11.2051
を閉じ	-11.2052
聖書	-11.2053
勝つ	-11.2053
も少なく	-11.2054
どういうこと	-11.2054
認めて	-11.2056
国内で	-11.2057
わたしたち	-11.2058
誰にでも	-11.2058
対象となる	-11.2059
感じます	-11.2059
知らない人	-11.2059
を持つこと	-11.2061
項の規定	-11.2061
妄想	-11.2062
開く	-11.2063
増えている	-11.2063
剥	-11.2063
伝えた	-11.2071
お金を借りる	-11.2074
なってきて	-11.2075
兼	-11.2075
血圧	-11.2076
答える	-11.208
泥	-11.2081
挙げられ	-11.2083
送る	-11.2083
てしまっている	-11.2085
取り組む	-11.2087
文化財	-11.2087
ダイレクト	-11.2088
孤独	-11.2088
者の方	-11.209
血糖値	-11.209
タレント	-11.209
イイ	-11.2091
という印象	-11.2097
傾向にあります	-11.2099
旅館	-11.2104
メディ	-11.2105
戻り	-11.2107
わけではないので	-11.2108
ゾン	-11.2108
かねます	-11.2109
も無い	-11.211
することにしました	-11.2114
茨城県	-11.2114
マネ	-11.2115
重ね	-11.2115
高額な	-11.2116
に繋がる	-11.2118
役割を果た	-11.2119
流れる	-11.212
協定	-11.2121
環	-11.2122
に包まれ	-11.2124
ように感じます	-11.2124
を示して	-11.2125
するつもり	-11.2126
多いのではないでしょうか	-11.2127
誠に	-11.2131
重量	-11.2131
指標	-11.2132
メンズ	-11.2133
フリ	-11.2136
ゲート	-11.2138
ことを考えて	-11.2139
に掲げる	-11.214
ということになる	-11.2141
撮れ	-11.2143
兵器	-11.2145
生産性	-11.2145
込んでいる	-11.2146
アミノ酸	-11.2146
者たち	-11.2149
視覚	-11.2149
▼	-11.2152
ティック	-11.2152
姉妹	-11.2154
ft	-11.2155
が生まれる	-11.2156
イスラム	-11.2156
っていうのは	-11.2162
しにくい	-11.2163
その通り	-11.2165
性別	-11.2165
一人暮らし	-11.2166
監	-11.2166
抽出	-11.2167
発表会	-11.2168
れなかった	-11.2168
いられる	-11.2171
上部	-11.2174
08	-11.2174
何だか	-11.2175
を教えてください	-11.2176
してくれている	-11.2177
客室	-11.2178
届出	-11.2178
終了しました	-11.218
前向きに	-11.218
に伴う	-11.2181
ていくこと	-11.2181
隙間	-11.2182
防犯	-11.2184
梨	-11.2188
不要な	-11.2189
なんとも	-11.2191
明確	-11.2193
スリー	-11.2193
ウォーキング	-11.2194
しょうがない	-11.2197
座席	-11.2199
させて頂いております	-11.22
をお願い致します	-11.2202
挿入	-11.2202
単純な	-11.2202
育った	-11.2202
ディレクトリ	-11.2203
長期間	-11.2204
替わり	-11.2205
通報	-11.2214
田中	-11.2214
見つからない	-11.2214
決まっている	-11.2215
こうやって	-11.2216
パル	-11.2217
3,000	-11.2218
が存在し	-11.2219
視点で	-11.222
原料	-11.2222
にもよりますが	-11.2222
大切だ	-11.2222
簡易	-11.2223
ee	-11.2224
付近で	-11.2225
に恵まれ	-11.2226
▁この度は	-11.2235
順調に	-11.2235
退会	-11.2236
非常	-11.2237
で行われた	-11.2237
もらおう	-11.2238
と思ってた	-11.2239
人格	-11.224
ご相談下さい	-11.224
増大	-11.224
ライス	-11.224
周囲に	-11.224
使命	-11.2243
見つかった	-11.2243
餌	-11.2243
少なからず	-11.2243
ポジティブ	-11.2246
荒れ	-11.2248
並ぶ	-11.2248
哲学	-11.2249
わかっている	-11.2251
捨てる	-11.2252
しないこと	-11.2252
なきゃいけない	-11.2252
枕	-11.2253
以後	-11.2254
78	-11.2257
お好きな	-11.2258
謀	-11.2261
症候群	-11.2261
を減らし	-11.2263
逮捕され	-11.2264
揃	-11.2264
世話	-11.2266
お世話になりました	-11.2269
多くの人に	-11.2269
運転手	-11.227
ピュ	-11.2271
胆	-11.2272
を守り	-11.2273
250	-11.2275
マネージャー	-11.2275
07	-11.228
受けた	-11.2281
組み立て	-11.2284
趣旨	-11.2291
富士山	-11.2292
を設定する	-11.2295
が増えています	-11.2298
妊婦	-11.2299
生活習慣病	-11.2299
儲け	-11.23
隆	-11.23
おしゃれ	-11.2301
ステーション	-11.2301
▁そうすると	-11.2304
を払う	-11.2304
稽古	-11.2304
トマト	-11.2304
シップ	-11.2305
しっかりとした	-11.2308
が気になって	-11.231
77	-11.2312
消す	-11.2312
プロバイダ	-11.2315
自律神経	-11.2316
すばらしい	-11.2317
と連携	-11.2317
も考えられます	-11.2317
外交	-11.2319
葛	-11.232
労力	-11.232
知的	-11.232
さっそく	-11.2323
ような気がして	-11.2323
尚	-11.2324
かわり	-11.2325
入っています	-11.2326
若手	-11.2329
噛	-11.2335
を増やして	-11.2335
工作	-11.2336
符	-11.2338
できるようになった	-11.2338
揺れ	-11.2339
盛り上げ	-11.2339
法務	-11.234
すれば良い	-11.2341
ぼう	-11.2341
比率	-11.2347
皮膚科	-11.2347
——	-11.2348
お盆	-11.2348
県内	-11.2349
懲	-11.235
大規模	-11.2354
名古屋市	-11.2354
討	-11.2354
ように見える	-11.2355
すぎた	-11.2356
適切	-11.2356
青汁	-11.2357
革新	-11.2358
という名前	-11.236
に適した	-11.236
ことが大事	-11.2361
カウント	-11.2361
分かっている	-11.2364
低価格	-11.2364
体系	-11.2369
尻	-11.2369
京都府	-11.2372
を繰り返して	-11.2372
同士で	-11.2373
選ばれた	-11.2375
を変更する	-11.2375
をつけた	-11.2379
検診	-11.238
ペーパー	-11.2381
静かな	-11.2381
損害賠償	-11.2382
キシ	-11.2383
吸い	-11.2384
専門的な	-11.2385
に関しましては	-11.2387
被災	-11.2388
を傷つけ	-11.2389
棄	-11.239
すればよい	-11.239
ふり	-11.2392
リュ	-11.2393
ジェン	-11.2393
就任	-11.2394
沸	-11.2396
ことがありました	-11.2396
を抱いて	-11.2396
復元	-11.2398
燃焼	-11.2399
方も多いと思います	-11.2399
放射線	-11.24
太陽光発電	-11.24
メガネ	-11.2405
お手数ですが	-11.2406
自分達	-11.2407
使わず	-11.2407
テンション	-11.2409
翼	-11.2409
解体	-11.2409
抑制	-11.2414
たとえば	-11.2415
醸	-11.2415
濃度	-11.2418
に位置し	-11.2418
集中して	-11.2419
フレーズ	-11.242
ヶ月間	-11.2421
チョコ	-11.2426
とても良い	-11.2428
見受けられ	-11.2429
を希望する	-11.2434
フィット	-11.2436
スイーツ	-11.2438
望ましい	-11.2438
をご提案	-11.2439
当然のこと	-11.244
映画館	-11.2441
躊躇	-11.2443
目的地	-11.2449
烈	-11.2449
しようと思って	-11.245
がたくさんあります	-11.245
外科	-11.245
容器	-11.2455
信頼関係	-11.2456
CT	-11.2457
治療薬	-11.246
リウム	-11.246
覇	-11.2466
出来なかった	-11.2468
地点	-11.2473
コア	-11.2473
さらなる	-11.2475
ご存じ	-11.2476
願っています	-11.2476
儀	-11.2477
させて頂く	-11.2477
の下で	-11.2477
その前に	-11.2478
書いています	-11.2481
取り入れる	-11.2483
関与	-11.2483
年後に	-11.2483
客観的に	-11.2485
なくなってしまいます	-11.2486
方も多いのではないでしょうか	-11.2488
かねません	-11.2489
あふれ	-11.249
検出	-11.2493
書きました	-11.2493
迷惑をかけ	-11.2494
どうなって	-11.2494
暑	-11.2496
密着	-11.2497
目覚め	-11.2497
話せる	-11.2498
を生み出	-11.2499
羅	-11.25
卒業後	-11.25
テラス	-11.2502
われている	-11.2503
ケガ	-11.2503
が見えて	-11.2503
麻酔	-11.2506
誓	-11.2507
ard	-11.2508
目を向け	-11.251
ボトル	-11.2511
助かりました	-11.2511
を取り戻	-11.2511
意味がない	-11.2512
作り上げ	-11.2514
僕ら	-11.2517
変わってくる	-11.2518
計測	-11.252
見ていた	-11.2522
を満喫	-11.2528
待た	-11.2528
書き方	-11.2529
できなくなる	-11.253
完全な	-11.2531
を見つめ	-11.2533
感心	-11.2533
インパクト	-11.2535
という形で	-11.2537
BS	-11.2538
中国語	-11.2538
検索エンジン	-11.2539
est	-11.2539
目の前の	-11.2542
ブラシ	-11.2542
良いですね	-11.2545
話を聞く	-11.2547
なれない	-11.2548
親族	-11.2548
帝国	-11.2549
おめでとうございます	-11.2553
好意	-11.2558
発注	-11.2559
厄	-11.2559
を大事に	-11.2562
いきません	-11.2563
円以上	-11.2566
行列	-11.2567
あなた自身	-11.257
のが特徴です	-11.2572
絵を描	-11.2572
を入手	-11.2578
頼む	-11.2578
紛争	-11.2579
徴収	-11.258
だと思っている	-11.258
大事なこと	-11.2581
信じる	-11.2582
お金を借り	-11.2582
と言われます	-11.2583
▁私の場合	-11.2583
と思ってる	-11.2584
無難	-11.259
EL	-11.2591
いただけたら	-11.2591
見ていて	-11.2591
宮城県	-11.2591
が出ない	-11.2592
岳	-11.2592
雷	-11.2593
大変なこと	-11.2594
適当に	-11.2594
という意見	-11.2596
変わってきます	-11.26
なんだよ	-11.2602
順次	-11.2606
おかげさまで	-11.261
トム	-11.261
最新情報	-11.2612
レディ	-11.2613
津波	-11.2615
その間	-11.2616
じゃなかった	-11.2616
祖	-11.2617
Ch	-11.2618
69	-11.2619
言いました	-11.2619
ブラジル	-11.262
通う	-11.2621
彦	-11.2622
解散	-11.2623
養成	-11.2625
も多いので	-11.2625
完備	-11.2627
クラシック	-11.2628
通った	-11.2629
おしゃれな	-11.2629
やっていた	-11.2631
とんでもない	-11.2633
どんなもの	-11.2633
熱中症	-11.2634
自己紹介	-11.2635
調べてみると	-11.2635
アニメーション	-11.2638
表示されている	-11.264
気象	-11.2641
お米	-11.2641
錠	-11.2643
査定額	-11.2643
リンパ	-11.2643
世界遺産	-11.2645
を心がけて	-11.2647
リアン	-11.265
阪	-11.2651
磨き	-11.2654
貫	-11.2655
鈴木	-11.2655
を含めた	-11.2655
ライブラリ	-11.266
トランス	-11.2661
パンフレット	-11.2661
Ma	-11.2661
左側	-11.2662
陶	-11.2663
穂	-11.2665
沖縄県	-11.2665
抱える	-11.2667
復縁	-11.2667
あれこれ	-11.2667
込まれる	-11.2669
ハッキリ	-11.267
ガーデン	-11.267
確認してください	-11.267
アフター	-11.2672
荘	-11.2672
だけなので	-11.2673
広がって	-11.2674
CC	-11.2679
を機に	-11.268
365	-11.2683
数回	-11.2683
してはいけない	-11.2685
SM	-11.2686
効果を実感	-11.2692
綿	-11.2693
大事だ	-11.2696
もうちょっと	-11.2696
盛り上がって	-11.2697
リセット	-11.2699
経由で	-11.2699
いこうと思います	-11.27
最低でも	-11.27
いなかったので	-11.27
コラム	-11.2701
あったのですが	-11.2701
を記念して	-11.2702
詰まって	-11.2703
飼育	-11.2705
た方が良い	-11.2706
終わりました	-11.2706
納品	-11.2709
絆	-11.2711
だなぁ	-11.2714
原稿	-11.2714
希望者	-11.2714
変わらず	-11.2715
が発表され	-11.272
を行なう	-11.2722
適正な	-11.2725
スクリプト	-11.2726
min	-11.2728
おじさん	-11.273
を引き起こす	-11.2731
サウンド	-11.2734
過ごせ	-11.2735
一連の	-11.2736
楽しみにしています	-11.2737
DM	-11.2738
を使用しています	-11.2738
助かります	-11.274
なってきます	-11.274
2003	-11.2745
することになる	-11.2749
上がっている	-11.275
好きだった	-11.275
体操	-11.2752
ゾーン	-11.2756
年ほど前	-11.2757
内容について	-11.2759
^^	-11.2761
治療を受け	-11.2764
ng	-11.2764
送迎	-11.2764
ことがわかりました	-11.2765
たいてい	-11.2766
ゆえに	-11.2769
法案	-11.2773
責	-11.2774
ガソリン	-11.2776
制定	-11.2776
忙	-11.2777
うれしいです	-11.278
也	-11.2781
上達	-11.2784
自民党	-11.2785
いつまで	-11.2786
ただし	-11.2789
しませんでした	-11.2792
暖かく	-11.2793
渋滞	-11.2793
返還	-11.2798
に対応する	-11.2799
輸送	-11.28
恥	-11.28
寿	-11.2801
べきか	-11.2802
京都市	-11.2806
させられる	-11.2807
お小遣い	-11.2809
モール	-11.2809
華やか	-11.2813
国道	-11.2814
懐かしい	-11.2814
ベリー	-11.2817
Sh	-11.2818
査	-11.2819
ゴン	-11.2819
ズレ	-11.282
分散	-11.2824
ソウル	-11.2829
受給	-11.283
を目的とした	-11.2837
遠方	-11.2837
こともあるので	-11.2839
につれて	-11.2839
わからなかった	-11.284
言い訳	-11.2841
落ちた	-11.2842
経った	-11.2845
ハム	-11.2845
とは何か	-11.2846
科学的	-11.2848
間隔	-11.2848
古くから	-11.2848
が予想され	-11.2848
ごめんなさい	-11.2849
最終日	-11.2849
SO	-11.285
軌	-11.2851
蘇	-11.2851
することができない	-11.2852
キリ	-11.2852
帰ってきた	-11.2852
挑	-11.2853
ru	-11.2855
に悩まされ	-11.2855
ことが必要です	-11.2856
があるかもしれません	-11.2857
呼びかけ	-11.2857
SI	-11.2857
摂る	-11.2858
といえるでしょう	-11.2858
使っていた	-11.2862
高等学校	-11.2862
戦う	-11.2864
通行	-11.2865
技能	-11.2865
▁そのためには	-11.2869
整形	-11.2873
しておいた	-11.2874
オル	-11.2875
無料体験	-11.2875
佐藤	-11.2876
を用いた	-11.2884
かねない	-11.2886
思わせ	-11.2887
二度と	-11.2887
ガイドライン	-11.2887
理解できない	-11.2888
写真を撮って	-11.2889
お見合い	-11.2889
その辺	-11.2891
おっしゃって	-11.2892
チェックイン	-11.2894
入居者	-11.2896
に特化した	-11.2896
なくていい	-11.2896
考えられない	-11.2897
使用されている	-11.2897
情報提供	-11.2902
のは初めて	-11.2902
スペック	-11.2904
にあたる	-11.2904
価値がある	-11.2904
無償	-11.2905
獲	-11.2906
っぱなし	-11.2906
送った	-11.2907
債権	-11.2909
エステサロン	-11.2912
カスタム	-11.2913
をお勧めします	-11.2915
ディーラー	-11.2916
der	-11.2916
を受け取る	-11.2918
モチーフ	-11.2919
合同	-11.2921
貧困	-11.2921
次の日	-11.2923
スライド	-11.2925
後輩	-11.2925
デッキ	-11.2927
確	-11.2929
往復	-11.293
ヒル	-11.2932
に入ります	-11.2932
つつあります	-11.2939
添加物	-11.2939
モジュール	-11.294
枚目	-11.294
ということですね	-11.294
肥満	-11.2941
を表す	-11.2941
いただきまして	-11.2941
多種多様	-11.2942
04	-11.2942
AGA	-11.2942
と申します	-11.2942
今日から	-11.2947
お知らせいたします	-11.295
お祭り	-11.2951
出かける	-11.2951
みようと思います	-11.2951
ラッキー	-11.2953
》	-11.2957
攻	-11.2958
いらして	-11.296
しませんか	-11.2961
THE	-11.2961
相変わらず	-11.2962
ことを考えると	-11.2963
打って	-11.2964
通学	-11.2964
パーセント	-11.2965
産後	-11.2967
味わえ	-11.2968
見極め	-11.2971
喜ばれ	-11.2971
この曲	-11.2972
ネイ	-11.2972
ガイ	-11.2973
おやつ	-11.2974
モテ	-11.2977
フラワー	-11.2977
ことがありません	-11.2979
を下げる	-11.2981
公開された	-11.2985
けん	-11.2987
紹介している	-11.2989
茂	-11.2991
って思う	-11.2992
とは異なる	-11.2993
NI	-11.2993
その中に	-11.2994
講習会	-11.2994
了	-11.2994
ライバル	-11.2994
ことができるでしょう	-11.2998
最大限	-11.2998
ことがわかります	-11.2999
30%	-11.3
させます	-11.3002
ることができた	-11.3002
浮気調査	-11.3002
ご連絡下さい	-11.3006
に追われ	-11.3007
月号	-11.3008
コーディネート	-11.3009
ァ	-11.3009
葉酸	-11.3011
財団	-11.3013
FA	-11.3013
を入力する	-11.3014
寄り添	-11.3015
いただいています	-11.3019
にもなり	-11.302
声優	-11.302
っちゃった	-11.3021
アドバイザー	-11.3022
社会福祉	-11.3023
継ぎ	-11.3024
気付き	-11.3025
暗号化	-11.3028
ことではありません	-11.3028
入ってくる	-11.3031
誇	-11.3034
お預かり	-11.3035
テント	-11.3036
のが普通	-11.3039
酷い	-11.3039
シル	-11.3042
ターミナル	-11.3045
私だけ	-11.3045
ぇ	-11.3046
日曜	-11.3046
必要事項	-11.3046
〇	-11.3046
斎	-11.3047
玄	-11.305
バトル	-11.3052
歌って	-11.3059
多くの方が	-11.3059
崩れ	-11.3063
言及	-11.3064
出来ました	-11.3064
食料	-11.3067
の一種	-11.3072
静岡	-11.3075
感じています	-11.3076
肯定	-11.3077
周年を迎え	-11.3077
大歓迎	-11.3078
倉庫	-11.3086
ame	-11.3086
自分の好きな	-11.3089
になろう	-11.309
猛	-11.309
ist	-11.3093
懐	-11.3093
迷い	-11.3095
本規約	-11.3096
単独	-11.3097
(*	-11.3098
当てはまる	-11.3102
中継	-11.3103
邸	-11.3105
攻め	-11.3106
就活	-11.3107
目撃	-11.3108
知名度	-11.311
フロア	-11.3114
経験者	-11.3116
気持ちよく	-11.3117
という事実	-11.3118
締結	-11.3121
指揮	-11.3121
過ごした	-11.3121
に支障	-11.3122
さっぱり	-11.3124
を促す	-11.3125
歳まで	-11.313
どちらかというと	-11.3131
有用	-11.3132
存在感	-11.3134
視聴者	-11.3134
へのアクセス	-11.3134
匿名	-11.3135
サラダ	-11.3135
おっしゃる	-11.3136
騰	-11.3136
エレ	-11.314
ので注意が必要です	-11.314
さんたち	-11.3141
にはなりません	-11.3142
会館	-11.3142
妥当	-11.3143
潤い	-11.3144
相続税	-11.3144
マインド	-11.3145
DE	-11.3145
描かれて	-11.3147
勇	-11.3148
ミュージック	-11.3148
下痢	-11.3149
興味のある	-11.315
という考え方	-11.3151
ご家庭	-11.3151
ギリギリ	-11.3152
埋	-11.3153
それよりも	-11.3154
取り扱う	-11.3156
方はぜひ	-11.3161
$	-11.3161
この先	-11.3163
行うこと	-11.3163
切れない	-11.3166
策定	-11.3166
岐	-11.3167
を向上させ	-11.3168
桁	-11.3171
念のため	-11.3172
ag	-11.3172
散策	-11.3173
使用できる	-11.3174
名誉	-11.3175
明日から	-11.3177
を作りたい	-11.3178
PV	-11.3179
ゆき	-11.318
精一杯	-11.3181
初心者の方	-11.3183
教えてくれる	-11.3186
過ごせる	-11.3187
研究会	-11.319
お祈り	-11.3192
んじゃないでしょうか	-11.3192
潔	-11.3193
癒され	-11.3197
を見れば	-11.3197
気付いた	-11.3198
考察	-11.3199
取引先	-11.3199
沙	-11.321
住んでいた	-11.3212
含む	-11.3214
どうなるか	-11.3215
ラッシュ	-11.3216
店長	-11.3216
もうひとつ	-11.3216
API	-11.3217
調達	-11.3217
求	-11.3217
極端に	-11.3218
縫	-11.3219
愛犬	-11.3222
水素	-11.3223
鎖	-11.3229
することが大切です	-11.323
考えること	-11.3231
体育	-11.3233
新鮮	-11.3233
経験がある	-11.3234
歳未満	-11.3234
非難	-11.3236
遅延	-11.3238
させてくれる	-11.3238
最適化	-11.3241
金沢	-11.3242
を参照してください	-11.3242
取組	-11.3243
頑張る	-11.3243
岡山	-11.3247
腺	-11.3247
ターン	-11.3251
屋外	-11.3254
奥様	-11.3254
驚か	-11.3255
座り	-11.3256
弥	-11.3256
ウチ	-11.3257
出口	-11.3257
何人か	-11.3257
を意識し	-11.3257
裕	-11.3258
と思っていたのですが	-11.3261
バラエティ	-11.3262
疲れた	-11.3262
ものなのか	-11.3262
野市	-11.3262
週刊	-11.3263
が高くなる	-11.3265
適合	-11.3266
con	-11.3268
自信を持って	-11.3274
選べる	-11.3275
というわけではありません	-11.3278
▁of	-11.3282
気になる方は	-11.3284
特有の	-11.3284
確実な	-11.3285
矛盾	-11.3286
伝統的な	-11.3288
アンド	-11.3291
log	-11.3292
時間半	-11.3294
苦しんで	-11.3302
会社員	-11.3304
続いた	-11.3304
リック	-11.3306
を有効に	-11.3311
出費	-11.3312
頑張っている	-11.3316
太平洋	-11.3316
多くの方に	-11.3317
前項	-11.3318
願望	-11.3319
何回か	-11.332
ml	-11.3321
時間ほど	-11.3322
加算	-11.3323
裸	-11.3325
に行くこと	-11.3326
ソフトバンク	-11.3327
を広げて	-11.3327
を解消する	-11.3327
指名	-11.3329
付かない	-11.3331
こんばんは	-11.3332
フェスティバル	-11.3335
得意な	-11.3337
還元	-11.3344
公的	-11.3344
ノリ	-11.3346
あわせ	-11.3347
居心地	-11.3349
気にしない	-11.335
を起こした	-11.335
ご縁	-11.335
廃棄物	-11.3351
出てきます	-11.336
会え	-11.336
頂いております	-11.3361
遊びに来て	-11.3363
お天気	-11.3365
なかったこと	-11.3366
ダメだ	-11.3366
リフレッシュ	-11.3367
アクティブ	-11.3367
ガル	-11.3367
手入れ	-11.3368
向かって	-11.3372
曖昧	-11.3375
コト	-11.3377
こだわって	-11.3377
時間以上	-11.3383
制約	-11.3385
フィルター	-11.3386
行使	-11.3388
留学生	-11.3392
を発表した	-11.3393
キッズ	-11.3395
両立	-11.3397
載	-11.3397
紅	-11.3397
居酒屋	-11.3397
よろしく	-11.3399
皆さんも	-11.3399
ご覧になって	-11.3401
嘆	-11.3401
ちゃって	-11.3401
HA	-11.3401
シナリオ	-11.3402
粋	-11.3402
現金化	-11.3403
紋	-11.3403
郵便局	-11.3404
方は是非	-11.3404
元に戻	-11.3404
ことを知って	-11.3405
フォーラム	-11.3406
どうでしょうか	-11.3406
頂けた	-11.341
取り寄せ	-11.3411
ソファ	-11.3415
◯	-11.3419
さすが	-11.342
こなす	-11.3424
表紙	-11.3425
反面	-11.3427
ラウンジ	-11.3427
バスト	-11.3427
酢	-11.3428
保全	-11.3431
見えてくる	-11.3432
したまま	-11.3433
短期間で	-11.3436
お邪魔	-11.3437
望み	-11.3438
ite	-11.344
単純	-11.3442
無限	-11.3442
カラオケ	-11.3443
無料相談	-11.3444
美容室	-11.3445
懸	-11.3445
を基に	-11.3445
川市	-11.3446
の一環として	-11.3447
著作	-11.3448
送金	-11.3448
終わった後	-11.345
ダイビング	-11.345
人は多い	-11.3451
上がります	-11.3454
近づく	-11.3455
所定の	-11.3456
肌トラブル	-11.3457
高速道路	-11.3457
されてしまった	-11.3457
をつくり	-11.3457
エレベーター	-11.3457
出さない	-11.3458
納期	-11.3459
引き上げ	-11.346
言動	-11.3463
溜まって	-11.3463
流す	-11.3468
を意味する	-11.347
助けて	-11.3471
敷地	-11.3471
観戦	-11.3475
ケースもあります	-11.3479
プロモーション	-11.3484
宜しくお願いします	-11.3487
擦	-11.3489
チェンジ	-11.3492
役所	-11.3495
伺い	-11.3498
帽子	-11.35
グラフィック	-11.3501
を利用すれば	-11.3503
未だに	-11.3504
CH	-11.3506
意味がある	-11.3509
殖	-11.3509
を感じさせ	-11.351
are	-11.3511
おもしろい	-11.3512
ピング	-11.3514
内臓	-11.3518
もあるでしょう	-11.3518
四季	-11.3519
方のために	-11.3522
洗う	-11.3522
抹	-11.3524
ドロップ	-11.3524
を狙って	-11.3526
ドクター	-11.353
を取ら	-11.3531
譜	-11.3533
ことが大事です	-11.3533
ことばかり	-11.3536
冠	-11.3538
誤り	-11.354
尽き	-11.354
視点から	-11.3541
プレート	-11.3541
ウォーター	-11.3543
アカデミー	-11.3545
こともなく	-11.3548
馴	-11.3548
いい感じ	-11.3549
悟	-11.355
がきっかけで	-11.3551
投入	-11.3553
味わう	-11.3553
工学	-11.3557
あの時	-11.3557
単価	-11.3558
識別	-11.3561
ご紹介したいと思います	-11.3565
結婚したい	-11.3565
2001	-11.3569
はずなのに	-11.3577
一冊	-11.3577
参拝	-11.3582
にせよ	-11.3582
ラップ	-11.3586
丁	-11.3587
バグ	-11.3589
見られない	-11.359
会いたい	-11.3592
麗	-11.3592
手に入れた	-11.3595
が流れて	-11.3597
頼んで	-11.3599
運ぶ	-11.36
服を着	-11.3603
参加しました	-11.3604
進められ	-11.3604
お寺	-11.3605
思えば	-11.3605
随	-11.361
絵画	-11.3611
Vol	-11.3612
通販サイト	-11.3613
バナー	-11.3614
検定	-11.3617
と思わ	-11.3617
直感	-11.3617
大企業	-11.3618
民主主義	-11.362
どん	-11.3621
魅	-11.3622
自治	-11.3623
キャッシュバック	-11.3624
虐待	-11.3629
06	-11.3632
を見てみると	-11.3634
蓄	-11.3635
行政書士	-11.3636
していただきたい	-11.3636
新型	-11.3638
嫌われ	-11.3639
忙しくて	-11.3643
ホルモンバランス	-11.3644
続けられる	-11.3646
マット	-11.3647
中心部	-11.3648
れば良い	-11.3648
満載	-11.3648
もらいます	-11.3652
欠点	-11.3658
手伝って	-11.3658
当事務所	-11.3661
無断	-11.3662
を叶え	-11.3662
感じがします	-11.3662
スキャン	-11.3662
CP	-11.3665
ケイ	-11.3666
なのかもしれない	-11.3668
鉛	-11.3669
湿度	-11.3675
異なって	-11.3677
マニア	-11.3679
を誇る	-11.368
ドコモ	-11.3684
ヨーグルト	-11.3686
冷静	-11.3687
件数	-11.3689
カウンセラー	-11.3691
改修	-11.3691
歌う	-11.3691
弘	-11.3691
スタッフ一同	-11.3692
お返事	-11.3694
を依頼する	-11.3695
日本政府	-11.3696
バリエーション	-11.3697
カラダ	-11.3699
までの間	-11.37
変わりません	-11.37
本屋	-11.3702
ニコ	-11.3702
お知らせします	-11.3703
振り返る	-11.3705
出せない	-11.3705
締	-11.3706
返り	-11.3706
原理	-11.3708
外見	-11.3709
何とも	-11.3716
正義	-11.372
柳	-11.3721
していった	-11.3723
修行	-11.3726
ふさわしい	-11.3726
現行	-11.3727
▁そうすれば	-11.3734
した方が良い	-11.3738
外側	-11.3739
ハロウィン	-11.374
一層	-11.3742
噴	-11.3744
扱	-11.3749
松本	-11.3749
賛成	-11.375
マツ	-11.3753
醤油	-11.3754
とも言える	-11.3754
にかかわらず	-11.3757
債権者	-11.3758
セリフ	-11.3759
保つ	-11.3763
開発者	-11.3763
天使	-11.3763
っ子	-11.3764
せめて	-11.377
を示した	-11.377
ことを言って	-11.3772
と呼ぶ	-11.3773
sp	-11.3774
ヒーロー	-11.3778
大正	-11.3779
トリック	-11.378
を気にする	-11.3781
ちゃいます	-11.3781
紐	-11.3784
聞	-11.3788
を挙げて	-11.379
赤字	-11.3793
微妙な	-11.3793
稿	-11.3796
山田	-11.3799
腫れ	-11.3799
と言っていた	-11.38
高齢化	-11.38
展覧会	-11.3808
効果を発揮	-11.381
シミュレーション	-11.3811
潤	-11.3812
任意売却	-11.3813
関係性	-11.3814
進めていく	-11.3816
に対応している	-11.3817
ネガティブな	-11.3817
を図り	-11.3818
確認できる	-11.3818
を覚える	-11.382
登場人物	-11.382
したい方	-11.3824
省略	-11.3825
降りて	-11.3827
目の前で	-11.383
とは別に	-11.3832
史上	-11.3832
童	-11.3832
承っております	-11.3832
再起動	-11.3834
効率化	-11.3835
と断言	-11.3837
に関わらず	-11.3837
を失って	-11.3837
トヨタ	-11.3839
と聞くと	-11.3841
気になっている	-11.3841
コレステロール	-11.3848
加害者	-11.3848
有機	-11.3848
平等	-11.385
IE	-11.3851
をベースに	-11.3851
持っていく	-11.3851
欲しかった	-11.3854
が低下し	-11.3857
を変えた	-11.3859
大きくなって	-11.386
転職活動	-11.386
ミーティング	-11.3862
勤務先	-11.3863
迷惑メール	-11.3863
必要があり	-11.3866
に限って	-11.3867
顎	-11.3867
寮	-11.3867
内装	-11.3869
ニコニコ	-11.3869
人目	-11.3872
大人になって	-11.3872
開封	-11.3873
目が覚め	-11.3874
んど	-11.3874
世界中で	-11.3875
に力を入れて	-11.3878
なっていきます	-11.3879
いたしません	-11.3879
カビ	-11.3879
だったのに	-11.3879
奨	-11.3881
弊	-11.3882
させている	-11.3885
〇〇	-11.3886
ラインナップ	-11.3888
賢明	-11.3889
より一層	-11.389
尊重	-11.3892
に分かれて	-11.3893
脅威	-11.3894
時給	-11.3895
下さる	-11.3898
そうやって	-11.3899
記事を書いて	-11.3899
ワンちゃん	-11.39
なってしまい	-11.3902
を考慮して	-11.3904
po	-11.3904
フィギュア	-11.3905
学術	-11.3906
日以降	-11.3907
ことをオススメします	-11.391
なじみ	-11.3913
点数	-11.3914
ことが判明	-11.3914
耐久性	-11.3914
行けない	-11.3915
遂	-11.3918
聞かれる	-11.392
になりやすい	-11.3923
ソング	-11.3926
トリートメント	-11.3927
審議	-11.3927
折れ	-11.3927
苗	-11.3928
幻想	-11.3931
都心	-11.3931
連れて行って	-11.3932
の一つとして	-11.3933
嫌いな	-11.3933
茎	-11.3936
出かけ	-11.3937
満たされ	-11.3938
役立ちます	-11.3939
付き合う	-11.3939
表彰	-11.3939
しようと思います	-11.3939
を必要とし	-11.394
を駆使し	-11.394
今年度	-11.394
首都	-11.394
会を開催	-11.3942
生命保険	-11.3943
理想的な	-11.3944
争い	-11.3946
等により	-11.3947
食べている	-11.3947
描写	-11.395
っしゃ	-11.3952
見通し	-11.3954
この頃	-11.3956
気になっていた	-11.3958
股	-11.3958
拒	-11.3959
に関し	-11.3959
方が良いでしょう	-11.396
買い取って	-11.3961
行ってきた	-11.3962
納め	-11.3962
SSL	-11.3963
ユーロ	-11.3963
庭園	-11.3964
機嫌	-11.3964
大切なのは	-11.3965
露出	-11.3968
日経	-11.397
悪魔	-11.3972
少なくない	-11.3974
良いかもしれません	-11.3977
バター	-11.3979
有効期限	-11.3982
課程	-11.3985
入札	-11.3985
高値	-11.3985
ミサイル	-11.3985
のあり方	-11.3986
軟	-11.3986
カジュアル	-11.3986
炉	-11.3987
燃え	-11.3989
が持て	-11.3993
を希望される	-11.3993
当局	-11.3993
以前より	-11.3994
羊	-11.3995
青い	-11.3995
と考えられています	-11.3996
を迎えた	-11.3996
住んで	-11.3996
美容師	-11.3998
蛇	-11.3998
BO	-11.3998
康	-11.3999
肝臓	-11.3999
EU	-11.4001
遺跡	-11.4001
既婚者	-11.4002
嫌だ	-11.4004
one	-11.4005
プレッシャー	-11.4005
おまけ	-11.4007
永久脱毛	-11.4009
レンタカー	-11.401
移り	-11.4011
祥	-11.4013
現れた	-11.4014
メガ	-11.4015
朗	-11.4015
mg	-11.4015
悪くない	-11.4018
と思ったのですが	-11.402
悲しみ	-11.4021
暮れ	-11.4023
含まれる	-11.4025
2〜3	-11.4026
日本酒	-11.4026
を目指しています	-11.4026
意気	-11.4027
ure	-11.4027
集会	-11.4028
続けていく	-11.4028
してくださる	-11.403
主催者	-11.4032
圧迫	-11.4033
祝い	-11.4034
を提供しています	-11.4036
遺伝	-11.4036
なってきています	-11.4037
を踏まえて	-11.4039
久々に	-11.4043
募金	-11.4048
調停	-11.4048
吉田	-11.4049
を支えて	-11.4049
胎	-11.405
してもらうこと	-11.405
思うように	-11.405
ボタンを押して	-11.405
聞かれた	-11.4051
こともあるでしょう	-11.4051
乗る	-11.4052
と思ってしまう	-11.4052
数ヶ月	-11.4052
られず	-11.4054
咲き	-11.4054
知っています	-11.4055
が大好きで	-11.4056
気もします	-11.4057
Microsoft	-11.4057
本文	-11.4061
少人数	-11.4061
乙	-11.4061
クエスト	-11.4062
を生み出す	-11.4064
系列	-11.4068
影響力	-11.4068
鋭	-11.407
縮小	-11.407
これって	-11.4074
もしかすると	-11.4074
解き	-11.4076
繊	-11.4076
継承	-11.4078
ブレーキ	-11.4078
手に入れる	-11.4083
履歴書	-11.4083
を必要とする	-11.4087
新卒	-11.4089
実物	-11.4089
騒ぎ	-11.409
晶	-11.4091
範囲内	-11.4091
小学	-11.4092
深さ	-11.4092
する予定です	-11.4095
変わりました	-11.4095
ッパー	-11.4096
穏やか	-11.41
アップグレード	-11.4101
新品	-11.4103
俗	-11.4105
高価な	-11.4105
行なわれ	-11.4108
について説明	-11.4108
瞑想	-11.4108
と思えば	-11.4111
予防接種	-11.4114
にぴったりの	-11.4117
で構成され	-11.412
していこう	-11.4123
対抗	-11.4124
毎日のように	-11.4124
意外な	-11.4124
追いかけ	-11.4126
したいと思っています	-11.4127
気にならない	-11.4127
憲	-11.4128
紹介したいと思います	-11.4129
だからといって	-11.4129
飲食	-11.413
押す	-11.413
国語	-11.4131
を作っている	-11.4132
画質	-11.4132
騎	-11.4134
小売	-11.4136
健康診断	-11.4137
高かった	-11.4138
征	-11.4142
食堂	-11.4142
とも呼ばれ	-11.4142
慌	-11.4146
外来	-11.4146
ものなのです	-11.4147
逃れ	-11.4148
集まった	-11.4149
重点	-11.4149
所得税	-11.415
われわれ	-11.4151
見守って	-11.4151
覗いて	-11.4152
編成	-11.4152
砲	-11.4152
歩道	-11.4152
運営している	-11.4153
肩こり	-11.4155
申請書	-11.4156
残高	-11.4157
KI	-11.4158
地獄	-11.416
広め	-11.416
阪神	-11.4162
なんていう	-11.4162
施術を受け	-11.4162
優しさ	-11.4162
とは言えません	-11.4163
梱包	-11.4165
マシ	-11.4165
地面	-11.4166
シリア	-11.4167
ひろ	-11.4168
接種	-11.4169
利用規約	-11.417
対立	-11.4171
▁当日は	-11.4172
ヴァン	-11.4173
お買い上げ	-11.418
満ち	-11.4182
実際のところ	-11.4182
ベンチ	-11.4183
cc	-11.4185
が発生します	-11.4185
いただければ幸いです	-11.4185
を担う	-11.4187
与えられた	-11.4192
スルー	-11.4193
改め	-11.4194
各自	-11.4195
いらっしゃいました	-11.4195
あげましょう	-11.4196
ことを目的として	-11.4201
もっともっと	-11.4203
ダイヤモンド	-11.4205
上野	-11.4206
お電話にて	-11.4208
を検討している	-11.4208
腸内	-11.4209
どれほど	-11.421
ゼル	-11.421
拡散	-11.4214
するものとします	-11.4215
飲料	-11.4215
十二	-11.4215
あう	-11.4215
用事	-11.4218
https	-11.4223
お願い申し上げます	-11.4223
覚えている	-11.4224
ことが多いので	-11.4225
ディナー	-11.4226
鍼灸	-11.4228
急激に	-11.4228
果て	-11.423
トンネル	-11.4232
印鑑	-11.4234
高血圧	-11.4234
下部	-11.4234
みたところ	-11.4235
質の高い	-11.4238
すすめ	-11.4238
されていく	-11.4244
が始まりました	-11.4244
申	-11.4246
叱	-11.4248
構わない	-11.4251
UI	-11.4252
落ち着き	-11.4252
不利	-11.4253
店員	-11.4256
菅	-11.426
塗って	-11.4261
がとれ	-11.4261
いきたいと思っています	-11.4263
情報発信	-11.4268
フラン	-11.427
気がついた	-11.427
試行錯誤	-11.4271
未成年	-11.4271
こういうこと	-11.4272
メリットがあります	-11.4273
オーディオ	-11.4276
見れる	-11.4276
ところもあります	-11.4279
産地	-11.428
感じでした	-11.4281
遮	-11.4281
ばっかり	-11.4282
セレクト	-11.4283
むくみ	-11.4284
置いた	-11.4285
申込書	-11.4286
ことは難しい	-11.4288
を最大限に	-11.4289
vol	-11.429
鑑	-11.4291
マクロ	-11.4293
働か	-11.4294
合宿	-11.4294
黙って	-11.4294
当たり前のこと	-11.4294
傾向があります	-11.4295
Sp	-11.4295
祖母	-11.4296
を作りました	-11.4296
急速に	-11.4296
個人再生	-11.4299
問わず	-11.43
キツ	-11.4301
それはそれで	-11.4302
誘われ	-11.4303
あげてください	-11.4303
繁殖	-11.4305
滴	-11.4307
稼	-11.4307
少なかった	-11.4309
貰	-11.431
入国	-11.4311
年会費	-11.4311
ウソ	-11.4314
ようとしている	-11.4315
放映	-11.4315
ありえない	-11.4318
我が国	-11.4319
所持	-11.432
救い	-11.432
餅	-11.4321
鹿児島	-11.4322
見ていきましょう	-11.4323
支部	-11.4327
App	-11.4328
警備	-11.4332
傾向にある	-11.4333
Al	-11.4334
進路	-11.4334
周知	-11.4335
込むこと	-11.4335
支出	-11.4337
両者	-11.434
ご迷惑	-11.434
マイク	-11.434
呪	-11.4343
熟女	-11.4343
留意	-11.4344
お姉さん	-11.4344
プレゼン	-11.4345
味わって	-11.4345
巨大	-11.4347
ホッと	-11.4347
トレーナー	-11.4351
モーター	-11.4353
僧	-11.4353
顧問	-11.4353
危	-11.4354
宮崎	-11.4355
動物園	-11.4356
装飾	-11.4358
見事に	-11.4361
辞書	-11.4361
穏やかな	-11.4361
チャージ	-11.4362
を支援する	-11.4362
追記	-11.4366
痩せる	-11.4366
プラスチック	-11.4369
驚いて	-11.437
自分の中で	-11.437
縄	-11.4371
持ってきて	-11.4374
新潟県	-11.4376
してみたら	-11.4378
たくさんいる	-11.4384
パニック	-11.4384
髪型	-11.4384
デル	-11.4384
修了	-11.4389
|	-11.4391
自分の人生	-11.4392
いただいた方	-11.4393
登場した	-11.4393
きっちり	-11.4397
栗	-11.4398
ここ最近	-11.4398
余地	-11.44
忘れない	-11.4401
品物	-11.4403
今現在	-11.4405
それ以降	-11.4406
に至る	-11.4406
ふく	-11.441
アメリカ人	-11.441
できてしまう	-11.4411
してくれない	-11.4411
生活費	-11.4413
漏	-11.4415
取得した	-11.4417
開店	-11.4418
小物	-11.442
バブル	-11.442
面白さ	-11.4422
来てくれた	-11.4422
そんな事	-11.4423
うまくいかない	-11.4423
どうしようもない	-11.4425
最強	-11.4426
もらっている	-11.4434
おられます	-11.4434
留守	-11.4435
残っています	-11.4436
せていただきました	-11.4437
フェイスブック	-11.4439
貰う	-11.4439
を開催しました	-11.4439
行ったこと	-11.4439
ジャック	-11.444
紅茶	-11.4441
影響を及ぼす	-11.4443
決まる	-11.4444
効く	-11.4446
絶望	-11.4448
車検	-11.4448
戒	-11.4448
に陥って	-11.4448
なんでしょうか	-11.4449
種類があります	-11.4449
根本的な	-11.445
▁当院では	-11.4451
つ目は	-11.4456
なくなっている	-11.4456
待ち時間	-11.4457
あの人	-11.4458
細かな	-11.446
よろしい	-11.4461
贈り物	-11.4461
おもてなし	-11.4464
ェ	-11.4465
奮	-11.4466
抑	-11.4466
こいつ	-11.4467
僕たち	-11.4468
何事も	-11.4469
と思いませんか	-11.4472
機材	-11.4473
だと言って	-11.4474
こんな風に	-11.4476
食器	-11.4478
について詳しく	-11.448
納税	-11.4483
代替	-11.4485
オランダ	-11.4486
に規定する	-11.4486
総合的に	-11.4487
動いている	-11.4489
が追加され	-11.449
難民	-11.4491
区域	-11.4491
就労	-11.4491
本を読んで	-11.4492
進展	-11.4492
等について	-11.4493
耳を傾け	-11.4493
ぶん	-11.4494
ock	-11.4496
言わず	-11.4498
改定	-11.4499
三十	-11.4499
向き合う	-11.45
自己責任	-11.4502
クレーム	-11.4502
パチンコ	-11.4503
する必要はありません	-11.4506
示す	-11.4508
今の時代	-11.4509
ええ	-11.451
ことが出来た	-11.4512
眼鏡	-11.4517
必要ない	-11.4518
度の高い	-11.4518
が設置され	-11.4521
レンタ	-11.4522
SQL	-11.4522
請求書	-11.4523
カーテン	-11.4525
再婚	-11.4525
を指します	-11.4526
オンラインショップ	-11.4526
小さい頃	-11.453
計画を立て	-11.4531
外壁塗装	-11.4531
いただけました	-11.4531
出掛け	-11.4531
しないでください	-11.4533
インドネシア	-11.4533
ピース	-11.4533
このあたり	-11.4537
いままで	-11.4544
あらためて	-11.4548
歯科衛生士	-11.455
ダニ	-11.4552
街中	-11.4552
手助け	-11.4555
衝突	-11.4556
脱毛器	-11.4556
周期	-11.4556
4000	-11.456
あふれる	-11.4562
疹	-11.4563
プロ野球	-11.4565
に渡って	-11.4566
交代	-11.4567
写真を撮る	-11.4567
敏	-11.4569
常時	-11.4569
販売されています	-11.4573
蓮	-11.4578
得点	-11.4581
ろうとする	-11.4584
高橋	-11.4584
駒	-11.4585
セールス	-11.4585
ドキュメント	-11.4586
堂々と	-11.4588
満足しています	-11.4589
IF	-11.459
芸能	-11.459
同居	-11.4591
移民	-11.4593
ナチュラル	-11.4594
貯ま	-11.4595
日焼け	-11.4596
部長	-11.46
承ります	-11.46
したうえで	-11.4603
推薦	-11.4606
やすかった	-11.4608
不動産投資	-11.4616
乳酸菌	-11.4616
耐えられ	-11.4618
じっと	-11.4619
農薬	-11.462
受け取る	-11.4621
クライ	-11.4623
脱出	-11.4624
宿題	-11.4624
書きます	-11.4628
収容	-11.4631
電子メール	-11.4634
ヒアルロン酸	-11.4635
聞きたい	-11.4635
岐阜県	-11.4636
パッチ	-11.4639
婚活パーティー	-11.4639
枯	-11.464
ステータス	-11.4641
瞬	-11.4641
▁従って	-11.4643
に依頼する	-11.4643
予選	-11.4644
力を発揮	-11.4646
わからず	-11.4647
先週	-11.4651
月中旬	-11.4653
いったん	-11.4653
フラッシュ	-11.4654
リソース	-11.4655
ネットショップ	-11.4656
それによって	-11.4656
方たち	-11.4658
完結	-11.4658
本能	-11.4659
流出	-11.4659
扱っている	-11.466
わせる	-11.4664
指定された	-11.4665
表れ	-11.4668
見かけた	-11.4669
ストリート	-11.4669
見ることができる	-11.467
`	-11.4672
今夜	-11.4674
言えません	-11.4677
が悪くなる	-11.4678
ブロックチェーン	-11.468
乗り越え	-11.4684
日本代表	-11.4685
こちらの記事	-11.4687
不十分	-11.4687
亡くなって	-11.4688
倫理	-11.469
事もあります	-11.469
領収書	-11.4691
¥	-11.4691
なくとも	-11.4694
お誕生日	-11.4695
によって異なります	-11.4695
チョイス	-11.4699
ハンドル	-11.4701
抗議	-11.4702
フォーマット	-11.4704
連動	-11.4706
積極的な	-11.4706
コチラ	-11.4706
問題解決	-11.4709
が続いています	-11.4712
することができません	-11.4713
伸	-11.4713
重要なポイント	-11.4713
ちゃいました	-11.4713
に従い	-11.4714
前述の	-11.4715
との連携	-11.4716
やさしい	-11.4717
丼	-11.4717
症状が出	-11.4719
隔	-11.4719
セント	-11.472
液晶	-11.4722
ell	-11.4724
とは限らない	-11.4725
歯磨き	-11.4728
を対象とした	-11.473
込める	-11.4732
女性ホルモン	-11.4733
重要なこと	-11.4733
余計に	-11.4734
瓶	-11.4734
▁この記事では	-11.4735
改造	-11.4737
ネイティブ	-11.4737
ドゥ	-11.4738
誠にありがとうございました	-11.4745
とも言われ	-11.4749
を引き起こし	-11.4754
なくてはいけません	-11.4755
を活用した	-11.4758
参りました	-11.4762
お客様の個人情報	-11.4763
ヘン	-11.4764
全国各地	-11.4765
書いてあった	-11.4765
カリキュラム	-11.4767
車買取	-11.4769
ニャ	-11.477
被告	-11.477
ご紹介していきます	-11.477
ご負担	-11.477
掛かって	-11.477
輝き	-11.4772
惨	-11.4773
鼓	-11.4773
翌年	-11.4773
オーガニック	-11.4775
噛み	-11.4776
アイディア	-11.4777
Ex	-11.4783
彼女たち	-11.4784
フリーランス	-11.4785
スタンダード	-11.4786
教えてくれた	-11.4786
強度	-11.4789
結成	-11.479
自分なりに	-11.4792
見られた	-11.4793
境界	-11.4796
週間ほど	-11.4797
複製	-11.4798
市役所	-11.4798
をつくって	-11.4798
お役に立て	-11.48
深刻	-11.4804
精神的	-11.4806
家庭用	-11.4806
放ってお	-11.4809
解け	-11.4811
使われています	-11.4813
浄	-11.4813
お近くの	-11.4814
貸金業	-11.4814
嬉しかった	-11.4817
分離	-11.4818
衰え	-11.482
くれています	-11.482
blog	-11.4826
張る	-11.4828
遂行	-11.4829
工房	-11.483
洗濯機	-11.4836
反射	-11.484
永久	-11.4841
ご飯を食べ	-11.4841
を失う	-11.4842
頑	-11.4843
振る舞	-11.4843
迷っている	-11.4845
を遂げ	-11.4845
苦しく	-11.4847
推定	-11.4847
取り揃え	-11.4851
への影響	-11.4851
原市	-11.4852
ご愛顧	-11.4852
お散歩	-11.4853
好奇心	-11.4853
セイ	-11.4857
スイス	-11.4858
させて頂き	-11.4858
案外	-11.4858
中央区	-11.4859
足元	-11.4868
返却	-11.487
お正月	-11.487
支店	-11.4874
洞	-11.4875
が開始され	-11.4875
督	-11.4876
ご覧いただけます	-11.4878
試してみてください	-11.4879
あたし	-11.4883
体を動か	-11.4883
をご紹介しています	-11.4884
スプレー	-11.4884
最優先	-11.4888
委員長	-11.4888
ほっと	-11.4889
払って	-11.489
悩んだ	-11.489
車内	-11.4892
もしかして	-11.4897
逢	-11.4898
水曜日	-11.4899
分かりました	-11.4904
小林	-11.4906
スタジアム	-11.4911
を持っている人	-11.4913
←	-11.4914
掲載されています	-11.4914
幣	-11.4918
が送られ	-11.4918
DO	-11.4919
ブログ記事	-11.4923
トルコ	-11.4924
人気のある	-11.4926
言われている	-11.4928
リュー	-11.4929
全世界	-11.4929
暑く	-11.4933
知っていた	-11.4935
くれれば	-11.4936
明示	-11.4938
森林	-11.494
とは思いません	-11.494
喫	-11.4943
睡眠時間	-11.4943
クレンジング	-11.4946
注意事項	-11.4948
重要視	-11.4953
写真集	-11.4953
適用される	-11.4956
つ目の	-11.4958
授乳	-11.496
優位	-11.496
模索	-11.496
を加える	-11.4962
中毒	-11.4963
お申し込みください	-11.4965
予報	-11.4966
大陸	-11.4966
甘え	-11.4968
につながります	-11.4969
不在	-11.497
だとしたら	-11.4971
情勢	-11.4975
を見ること	-11.4976
母乳	-11.4976
との交流	-11.4977
遺族	-11.4978
DL	-11.4978
パラメータ	-11.4979
お見舞い	-11.4982
併設	-11.4997
VI	-11.4999
文明	-11.5001
増えました	-11.5002
観光スポット	-11.5006
アンテナ	-11.5007
が悪かった	-11.5007
お世話になって	-11.5008
三重県	-11.5011
ルーター	-11.5012
うまい	-11.5014
運送	-11.5017
撮る	-11.5017
助言	-11.5018
相対	-11.502
──	-11.5023
些細な	-11.5024
マイナンバー	-11.5026
どうするか	-11.5027
死者	-11.5027
買おう	-11.503
品種	-11.5031
隣接	-11.5033
石鹸	-11.5033
感じること	-11.5036
減額	-11.5037
ものが多い	-11.504
速い	-11.5044
に入れた	-11.5045
時間がかかります	-11.5047
お問い合わせフォーム	-11.5049
ボート	-11.5051
鈴	-11.5055
多様性	-11.5058
に関する法律	-11.5058
努めて	-11.5058
慰	-11.5058
憎	-11.5058
を目標に	-11.5058
のが現状です	-11.506
年賀状	-11.5061
閉店	-11.5061
を目指します	-11.5062
だと思われます	-11.5066
石油	-11.5068
月下旬	-11.5068
視聴率	-11.5071
ことができず	-11.5071
ジャズ	-11.5072
機会があれば	-11.5074
診て	-11.5075
プライバシーポリシー	-11.5076
事が多い	-11.5076
含め	-11.5079
寺院	-11.508
を除いて	-11.5083
記者会見	-11.5083
綴	-11.5085
着替え	-11.5085
シェル	-11.5085
ass	-11.5086
ナッツ	-11.5088
込められ	-11.509
コンプレックス	-11.509
適度な	-11.5091
だと思っていた	-11.5093
ore	-11.5093
格差	-11.5093
必要がない	-11.5094
KA	-11.5096
伝わり	-11.5101
受け取って	-11.5102
の多くが	-11.5103
LI	-11.5104
シワ	-11.5104
若しくは	-11.5104
ネタバレ	-11.5105
再会	-11.5107
宴会	-11.5108
テレビ番組	-11.5109
珠	-11.5111
塞	-11.5113
危ない	-11.5114
をいいます	-11.5115
に沿った	-11.5115
を実行する	-11.5115
虐	-11.5117
調べてみた	-11.5118
剃	-11.5118
建てられ	-11.5119
顕	-11.512
視力	-11.5121
司法	-11.5121
ヌー	-11.5123
もらわ	-11.5124
よろしくお願い申し上げます	-11.5126
通訳	-11.513
ace	-11.513
間近	-11.513
ストック	-11.5131
参入	-11.5133
shi	-11.5134
喜ぶ	-11.5135
行っております	-11.5135
互いに	-11.514
いただけない	-11.5144
関わる	-11.5144
競合	-11.5145
驚	-11.5145
ぽっちゃり	-11.5146
返答	-11.5146
刈	-11.5148
院長	-11.5148
1990	-11.5149
イケメン	-11.5151
効果が出	-11.5152
差し上げ	-11.5153
延期	-11.5155
稼いで	-11.5156
号線	-11.5162
事由	-11.5163
届きます	-11.517
着実に	-11.517
英語力	-11.5171
つながる	-11.5172
行きましょう	-11.5172
グラン	-11.5174
宿泊施設	-11.5177
慣れた	-11.5177
ーーー	-11.5178
体調不良	-11.5178
安心できる	-11.518
を組んで	-11.518
シューズ	-11.518
代理人	-11.5182
専業主婦	-11.5184
幕府	-11.5184
と呼ばれている	-11.5185
類似	-11.5187
幸運	-11.519
ライズ	-11.5191
効能	-11.5191
入れ替え	-11.5192
番目の	-11.5194
清水	-11.5196
求めている	-11.5198
数が多い	-11.5199
を設定して	-11.5199
伊藤	-11.52
育ち	-11.5201
綱	-11.5203
いちばん	-11.5203
経歴	-11.5203
幻	-11.5203
群馬県	-11.5204
フライト	-11.5205
栄え	-11.5206
極力	-11.5207
呈	-11.5209
部隊	-11.5209
のお手伝いを	-11.5209
仙	-11.521
加熱	-11.521
職務	-11.521
受け取った	-11.5211
殺害	-11.5212
医院	-11.5212
近くにある	-11.5212
ユニークな	-11.5215
タンク	-11.522
介護保険	-11.5222
振り返り	-11.5223
感じたこと	-11.5223
刃	-11.5224
出会い系アプリ	-11.5225
ご入力	-11.5227
ご入金	-11.5227
役目	-11.523
解明	-11.5233
法定	-11.5235
されてしまいます	-11.5239
脚本	-11.5241
ポール	-11.5241
広島県	-11.5244
甲斐	-11.5247
反論	-11.5249
やってきました	-11.5251
人工知能	-11.5254
ギャップ	-11.5259
払わ	-11.5259
の一員	-11.5262
序	-11.5262
ケースが多い	-11.5265
ガード	-11.5267
おいしく	-11.5267
誘って	-11.5272
bit	-11.5273
国内外	-11.5274
きょう	-11.5278
ウィルス	-11.5279
おしゃべり	-11.5279
上記のような	-11.528
を指す	-11.5282
賛同	-11.5284
どなたでも	-11.5285
ゆとり	-11.5286
しようとしている	-11.5294
反発	-11.5296
南部	-11.5297
1980	-11.5298
に備えて	-11.5298
シルバー	-11.5298
耐震	-11.5299
訳ではありません	-11.5299
とは異なり	-11.5301
孤	-11.5302
祀	-11.5302
スピーチ	-11.5302
にわたる	-11.5304
不自由	-11.5305
北部	-11.5313
身に着け	-11.5314
を取り戻す	-11.5314
転載	-11.5317
五輪	-11.5318
勃起	-11.532
を作ろう	-11.532
購読	-11.532
ひょ	-11.5321
動け	-11.5323
うっかり	-11.5323
を目的として	-11.5323
お疲れ様でした	-11.5324
実情	-11.5325
ないようにしましょう	-11.5328
そっち	-11.5328
ドラッグ	-11.5329
日焼け止め	-11.533
池袋	-11.5331
定期的な	-11.5333
迷う	-11.5335
徹	-11.5335
生活を送って	-11.5336
独り	-11.5337
妊活	-11.5339
ナンパ	-11.5341
CPU	-11.5344
即日融資	-11.5347
iz	-11.5347
ストレート	-11.5353
勉強になりました	-11.5357
訓	-11.5357
ミラー	-11.5358
まちづくり	-11.536
幾つか	-11.5362
函	-11.5362
館内	-11.5364
80%	-11.5365
公平	-11.5365
を結ぶ	-11.5369
IR	-11.5369
ストレージ	-11.537
霧	-11.5376
更なる	-11.5377
年に一度	-11.5383
めちゃくちゃ	-11.5384
学院	-11.5385
支払われ	-11.5386
交通費	-11.5386
ことが出来ない	-11.5389
書くこと	-11.5392
研究室	-11.5392
週間前	-11.5393
買取価格	-11.5394
空いている	-11.5395
起こっている	-11.5395
出てこない	-11.5395
お試しください	-11.5397
カルシウム	-11.5397
–	-11.5399
喚	-11.5401
菊	-11.5401
近づけ	-11.5402
東洋	-11.5404
塗る	-11.5406
びっくりしました	-11.5407
奨学金	-11.5407
やすくなって	-11.541
住居	-11.542
知られて	-11.5421
になれます	-11.5422
までご連絡ください	-11.5423
辿り	-11.5425
ティン	-11.5427
行かれ	-11.5429
故郷	-11.543
拘束	-11.5432
素早く	-11.5434
圧倒的な	-11.5435
を身につける	-11.5437
合コン	-11.544
たいへん	-11.544
花火大会	-11.544
スリム	-11.5441
ますようお願いいたします	-11.5442
取り組んでいる	-11.5445
並んでいる	-11.5448
度目の	-11.5448
写真撮影	-11.5452
個体	-11.5452
不妊	-11.5453
暫	-11.5455
パーソナル	-11.5458
咳	-11.5459
主役	-11.5459
進んだ	-11.5461
走っている	-11.5461
扱って	-11.5463
家に帰って	-11.5464
注目されている	-11.5465
航空会社	-11.5468
柔	-11.5468
につきまして	-11.5472
ウィン	-11.5472
潜在	-11.5473
デザート	-11.5473
やってみる	-11.5474
圧縮	-11.5476
休止	-11.548
を流し	-11.5481
若く	-11.5487
腸内環境	-11.5488
集計	-11.5489
売られている	-11.549
熱心に	-11.5491
いただきありがとうございます	-11.5492
退院	-11.5493
ランプ	-11.5494
殻	-11.5495
受け入れられ	-11.5495
をクリックしてください	-11.5495
売り切れ	-11.5497
を指定する	-11.5498
サポーター	-11.5499
メキシコ	-11.5501
健康食品	-11.5501
跳	-11.5503
開花	-11.5504
小屋	-11.5504
窮	-11.5504
贈与	-11.5507
出版社	-11.5507
駆除	-11.5507
巧	-11.551
かっこいい	-11.5511
異なり	-11.5514
ネック	-11.5515
賃	-11.5516
考えてみると	-11.5518
推移	-11.5519
ヨン	-11.5522
▁いずれにしても	-11.5522
召	-11.5523
お金をかけ	-11.5526
指針	-11.5531
▁そんなわけで	-11.5531
慣	-11.5532
枚数	-11.5538
款	-11.5539
いまだに	-11.5542
ヤツ	-11.5542
かかりません	-11.5542
こまめに	-11.5543
グレード	-11.5546
多彩な	-11.5546
同級生	-11.5553
いつものように	-11.5557
博多	-11.5557
グラム	-11.556
理事	-11.556
食べること	-11.556
みたいな感じ	-11.5561
浮かび	-11.5561
車種	-11.5562
注意が必要	-11.5562
ソニー	-11.5562
秘め	-11.5567
消耗	-11.5568
算出	-11.5569
場合を除き	-11.557
描かれている	-11.5573
んだろ	-11.5577
苦情	-11.5577
と言っていました	-11.5578
を越えて	-11.558
最安値	-11.5583
摂り	-11.5589
出演者	-11.5591
導き	-11.5592
ワキガ	-11.5592
自作	-11.5595
に基づいた	-11.5598
有効活用	-11.5601
ございません	-11.5601
移植	-11.5602
扇	-11.5602
悪質な	-11.5603
待ち合わせ	-11.5605
風味	-11.5605
おいたほうが	-11.5605
さえあれば	-11.5605
ーミング	-11.5606
が高まる	-11.5606
帰ってくる	-11.5606
治安	-11.5606
そりゃ	-11.5607
に際して	-11.561
頑張れ	-11.5613
最小限	-11.5613
が起こって	-11.5614
昨夜	-11.5615
よろしければ	-11.5617
よさそう	-11.5617
ix	-11.5618
固め	-11.5618
抑えられ	-11.5618
を持て	-11.5621
私立	-11.5624
専門医	-11.5625
迷った	-11.5627
建築物	-11.5629
若い頃	-11.5629
に過ぎない	-11.5633
交流会	-11.5633
みようかな	-11.5635
是非とも	-11.5635
書こう	-11.5636
長期的に	-11.5636
学べる	-11.5638
転職サイト	-11.5638
スポンサー	-11.564
に身を	-11.5643
事柄	-11.5645
まともな	-11.565
いちいち	-11.565
▁そうなると	-11.565
の選び方	-11.5653
併	-11.5657
愚	-11.5658
調和	-11.5658
審判	-11.566
精進	-11.5661
つまらない	-11.5662
ロビー	-11.5663
といったこと	-11.5663
できなくなります	-11.5665
本格	-11.5667
筋力	-11.5668
年齢層	-11.5669
連盟	-11.567
柔らかく	-11.5673
トピック	-11.5674
戻ってくる	-11.5674
研究開発	-11.5674
気付いて	-11.5675
提	-11.5675
コンクリート	-11.5675
半額	-11.5678
秘訣	-11.5678
貼り	-11.5679
四国	-11.5682
を交え	-11.5682
サービスを利用する	-11.5683
近頃	-11.5684
整骨院	-11.5685
清潔感	-11.5688
our	-11.5688
気になるところ	-11.5689
Play	-11.569
ツボ	-11.5695
発酵	-11.5696
ANA	-11.5699
取り扱っている	-11.57
適当な	-11.5703
雅	-11.5705
だけあって	-11.5706
どうですか	-11.571
クラウドファンディング	-11.571
過払い金	-11.5714
日本全国	-11.5714
を考慮し	-11.5714
と思いつつ	-11.5715
GPS	-11.5715
訳ではない	-11.5715
履いて	-11.5716
恩恵	-11.5717
直ぐに	-11.5718
療養	-11.5718
ウェディング	-11.5719
欧	-11.572
使い分け	-11.572
接近	-11.5722
奈良県	-11.5724
ヴォ	-11.5725
休んで	-11.5728
見逃し	-11.5731
を改善し	-11.5734
ゲル	-11.5737
ake	-11.5739
慣れない	-11.574
津市	-11.5743
定額	-11.5743
イノベーション	-11.5744
外壁	-11.5745
当ブログ	-11.5747
本当にありがとうございます	-11.5747
下さって	-11.5749
下落	-11.575
共通点	-11.5751
兆円	-11.5758
大きかった	-11.5759
たらいいな	-11.576
に従事	-11.5762
NEXT	-11.5763
帰ってきて	-11.5765
を失った	-11.5767
ゴールデンウィーク	-11.5768
が適用され	-11.5775
コツコツ	-11.5779
あんた	-11.5782
ましく	-11.5784
是	-11.5786
メダル	-11.5791
所在地	-11.5792
熊本県	-11.5792
円程度	-11.5794
部活	-11.5794
次世代	-11.5794
臣	-11.5797
意向	-11.5801
椎	-11.5802
拡	-11.5803
割り当て	-11.5803
を伴う	-11.5807
を使用します	-11.5809
有益な	-11.5811
生存	-11.5813
卒業生	-11.5814
とは違って	-11.5815
シニア	-11.5817
割以上	-11.5817
その都度	-11.5821
ゲイ	-11.5821
2.5	-11.5822
鉱	-11.5824
万ドル	-11.5825
掘	-11.5826
お世話になった	-11.5827
啓発	-11.5828
学期	-11.583
解雇	-11.583
豪雨	-11.5831
必要とされる	-11.5833
切られ	-11.5834
向き合って	-11.5835
銀行振込	-11.584
持ち込み	-11.5841
を活かして	-11.5844
直ちに	-11.5844
理事会	-11.5844
焦点	-11.5845
助成	-11.5848
八幡	-11.5848
HDD	-11.5849
闇金	-11.585
ご注意下さい	-11.5855
q	-11.5856
年以上前	-11.5857
を用いる	-11.5859
落札	-11.5859
ber	-11.586
目当て	-11.5861
免除	-11.5866
乃	-11.5867
発達障害	-11.5867
ようになってきました	-11.5867
少量	-11.5868
歓	-11.5874
体育館	-11.5874
栓	-11.5877
お薦め	-11.5878
飼い	-11.5882
滋賀県	-11.5883
あがり	-11.5885
輸	-11.5887
階建て	-11.5888
ギャンブル	-11.5891
損傷	-11.5892
モテる	-11.5892
締め切り	-11.5895
ライダー	-11.5903
大ヒット	-11.5903
プレーヤー	-11.5904
一体何	-11.5905
響き	-11.5907
紛	-11.5907
死刑	-11.5908
僅か	-11.5909
買いたい	-11.591
今日この頃	-11.5911
火曜日	-11.5911
歩いた	-11.5914
殴	-11.5916
共演	-11.5917
家づくり	-11.5918
飛ぶ	-11.5919
焼け	-11.5919
咲いて	-11.5919
迫力	-11.5922
ご一緒	-11.5923
糧	-11.5925
教えて下さい	-11.5925
買い取り	-11.5928
占い師	-11.5929
多大な	-11.5929
峰	-11.5929
入門	-11.5931
ail	-11.5931
メイト	-11.5933
▁そんなとき	-11.5934
薬剤	-11.5936
原材料	-11.5937
プライド	-11.5937
神宮	-11.5938
暖房	-11.5939
一方的に	-11.594
ボウ	-11.594
得られた	-11.5942
署	-11.5942
ニオイ	-11.5942
一概に	-11.5943
時間がかかって	-11.5945
を楽しみたい	-11.5946
ムービー	-11.5946
丁度	-11.5949
非公開	-11.595
北区	-11.5953
«	-11.5954
消去	-11.5956
に見舞われ	-11.5958
変形	-11.5958
証言	-11.5959
慰安婦	-11.596
同盟	-11.596
妥協	-11.5963
感激	-11.5963
空腹	-11.5964
成田	-11.5965
Linux	-11.5968
凄	-11.5968
下さり	-11.5971
鈍	-11.5972
ことがわかって	-11.5978
万円程度	-11.5983
スピーディ	-11.5987
惑星	-11.5988
両手	-11.5989
調味料	-11.599
衛星	-11.599
書いてあります	-11.5993
パスタ	-11.5994
生じる	-11.5997
バレンタイン	-11.6
国境	-11.6002
括	-11.6002
生活を送る	-11.6003
振替	-11.6004
映画祭	-11.6006
グラウンド	-11.6006
取り上げて	-11.6006
プロミス	-11.601
クイズ	-11.6011
融合	-11.602
素晴らしさ	-11.6022
出資	-11.6023
天才	-11.6025
飢	-11.6025
を集めた	-11.6028
三菱	-11.6028
合える	-11.603
欠かせません	-11.603
劇場版	-11.6031
出願	-11.6033
去って	-11.6035
グーグル	-11.6037
繁	-11.6041
敷地内	-11.6043
育って	-11.6045
リフト	-11.6045
有意義な	-11.6046
イラク	-11.6046
たるみ	-11.6047
シャッター	-11.6048
輝く	-11.6048
ear	-11.605
候補者	-11.6051
邪	-11.6052
ステイ	-11.6053
こちらをご覧ください	-11.6055
行方不明	-11.6056
択	-11.6056
NTT	-11.606
▁このページでは	-11.606
照らし	-11.6061
ピザ	-11.6062
お金持ち	-11.6062
聞いたことがある	-11.6063
の多さ	-11.6065
続けてきた	-11.6066
押さえて	-11.607
PHP	-11.607
ゴールデン	-11.6071
ではあるが	-11.6076
先進国	-11.6078
お召し上がり	-11.6079
札幌市	-11.6084
エクササイズ	-11.6085
飲んでいる	-11.6086
実証	-11.609
納付	-11.6092
ick	-11.6093
斬	-11.6098
なかなか難しい	-11.6099
励み	-11.6102
救われ	-11.6102
知りませんでした	-11.6105
スティック	-11.6105
くださっている	-11.6108
とのコミュニケーション	-11.6111
匠	-11.6111
遇	-11.6114
商材	-11.6117
自力で	-11.6117
信念	-11.6119
考えたら	-11.612
剛	-11.612
プロパティ	-11.6121
漬け	-11.6123
分からなかった	-11.6123
創設	-11.6124
を担って	-11.6127
媒	-11.6129
最大級の	-11.613
無料漫画	-11.613
ねばならない	-11.6132
尽	-11.6134
スケール	-11.6136
激安	-11.6138
身につけ	-11.614
開拓	-11.6142
90%	-11.6143
慌てて	-11.6144
管轄	-11.6146
複合	-11.6148
冗談	-11.6149
待遇	-11.6149
こころ	-11.6151
プライム	-11.6154
栄養バランス	-11.6155
お世話になっている	-11.6156
に襲われ	-11.6156
お問合せください	-11.6156
リモート	-11.6158
配当	-11.6158
学問	-11.6161
老舗	-11.6162
着け	-11.6166
ロケーション	-11.6169
見つめ	-11.6172
以下のとおり	-11.6172
色合い	-11.6173
福岡市	-11.6175
停電	-11.6177
ことができなかった	-11.6178
発散	-11.6179
ほんの少し	-11.618
豆腐	-11.6181
GW	-11.6182
ぜひ一度	-11.6186
あり得ない	-11.6186
ロープ	-11.6189
構想	-11.6189
話を聞き	-11.6197
時間がかかり	-11.6199
を想定して	-11.6203
凶	-11.6204
マッチングアプリ	-11.6205
ボタンを押す	-11.6205
に囲まれた	-11.6205
ドラッグストア	-11.6206
html	-11.6212
ブックマーク	-11.6212
プロテイン	-11.6213
幹部	-11.6216
公正	-11.6217
入っていない	-11.6217
おもしろ	-11.6218
打ち上げ	-11.6222
ブロガー	-11.6222
薩	-11.6224
させて頂いて	-11.6224
兵士	-11.6224
を伸ばす	-11.6225
やってみたい	-11.6226
話を聞いた	-11.6226
冷め	-11.6226
書かせて	-11.623
ベテラン	-11.6231
が発生した場合	-11.6232
思ったより	-11.6232
占め	-11.6232
家を売る	-11.6234
スムージー	-11.6239
結婚相手	-11.6241
さまざま	-11.6244
コメント欄	-11.6245
申立	-11.6246
働きたい	-11.6249
遅くなり	-11.6251
芝居	-11.6252
を介して	-11.6253
持てる	-11.6255
フジテレビ	-11.6258
懇親会	-11.6259
はありましたが	-11.626
溝	-11.6266
コンディション	-11.6268
弁当	-11.6268
を要する	-11.6269
手持ちの	-11.6279
連邦	-11.6281
乗っている	-11.6282
ジョブ	-11.6284
取り扱って	-11.6285
共産党	-11.6285
懐かし	-11.6287
レモン	-11.6291
ご不明な点	-11.6296
首都圏	-11.6297
片方	-11.6297
吟	-11.6299
と思いきや	-11.6301
今週末	-11.6302
の調子が	-11.6302
神戸市	-11.6303
精神科	-11.6306
ビジュアル	-11.6308
復習	-11.6314
英文	-11.6315
弟子	-11.6316
まくって	-11.6317
スカート	-11.6317
多岐	-11.6318
果たす	-11.6319
ように見えます	-11.632
勧められ	-11.6323
アンダー	-11.6323
配列	-11.6324
完売	-11.6329
させていただくこと	-11.6333
驚くほど	-11.6337
ように思えます	-11.634
飲酒	-11.6341
下ろし	-11.6341
説得力	-11.6342
出来る限り	-11.6343
沖	-11.6344
セブン	-11.6349
できなくて	-11.635
銅	-11.6351
お陰で	-11.6354
を目指している	-11.6356
岩手県	-11.6356
なんといっても	-11.636
将軍	-11.6361
運ばれ	-11.6363
遵守	-11.6366
オフィシャル	-11.6366
給食	-11.6368
歩け	-11.637
女性の方	-11.637
奉	-11.637
向かった	-11.637
言わせ	-11.6372
ご挨拶	-11.6378
木曜日	-11.638
武蔵	-11.6382
マレーシア	-11.6386
洲	-11.6389
ありがた	-11.639
遷	-11.6391
天気予報	-11.6393
怒られ	-11.6394
を選べば	-11.6395
必見	-11.6395
五十	-11.6395
ひとつひとつ	-11.6398
見かけます	-11.6401
インデックス	-11.6402
垢	-11.6406
©	-11.6409
緊張感	-11.6411
と診断され	-11.6412
知りません	-11.6412
感謝しております	-11.6415
早急に	-11.642
被災者	-11.642
ボーイ	-11.6423
導く	-11.6424
雨の日	-11.6425
初めての方	-11.6425
携	-11.6426
カメラマン	-11.6427
禅	-11.6431
Ver	-11.6432
飼い主さん	-11.6437
Book	-11.6438
挫折	-11.6438
伝達	-11.6441
が始まります	-11.6444
片手	-11.6446
多額の	-11.6454
内蔵	-11.6454
有難うございました	-11.6454
当たらない	-11.6459
が減る	-11.6461
戸建	-11.6464
あるべき	-11.6469
バラバラ	-11.6476
パッド	-11.6476
オタク	-11.6478
責任を負いません	-11.6483
を選ば	-11.6483
ウォッチ	-11.6485
強制的に	-11.6487
ことのできない	-11.6489
出かけて	-11.6489
—	-11.6491
万円以下	-11.6491
割り切り	-11.6492
痛感	-11.6492
こと自体	-11.6493
まっすぐ	-11.6493
代前半	-11.6495
印象を与え	-11.6498
再建	-11.6498
ご近所	-11.6498
含まれており	-11.65
多摩	-11.65
整形外科	-11.6501
家を建て	-11.6506
埼玉	-11.6507
活性酸素	-11.6509
予感	-11.6509
に至った	-11.6511
若い女性	-11.6513
ますようお願い申し上げます	-11.6515
乏	-11.6516
胃腸	-11.6518
に関連した	-11.6535
サイバー	-11.6536
個人情報の保護	-11.6537
学歴	-11.6538
感じていた	-11.6544
公立	-11.6549
維	-11.655
情報を提供	-11.655
泊まり	-11.6552
籍	-11.6553
ハーフ	-11.6554
サプライズ	-11.6555
理屈	-11.6555
演劇	-11.656
Blu	-11.6562
溜め	-11.6563
税抜	-11.6564
インストラクター	-11.6565
もらうために	-11.6568
中途半端	-11.6569
雨が降って	-11.6571
廷	-11.6573
ストレスを感じ	-11.6573
ならびに	-11.6574
貰って	-11.6574
示唆	-11.6575
JAPAN	-11.6576
美味しさ	-11.6577
塊	-11.6585
旭	-11.6586
ill	-11.659
安全保障	-11.6592
休む	-11.6595
お楽しみいただけます	-11.6595
を前提に	-11.6596
繋げ	-11.6597
更年期	-11.6597
摂取量	-11.6599
体脂肪	-11.66
解説していきます	-11.66
遺体	-11.66
良くなった	-11.6603
キラキラ	-11.6606
info	-11.6607
ment	-11.6607
ことは間違いない	-11.6607
軽量	-11.6609
哀	-11.6614
青春	-11.6616
手がけ	-11.6616
喜ば	-11.6617
邦	-11.6617
:00～	-11.6621
主導	-11.6624
交差点	-11.6624
創立	-11.6624
衰	-11.6626
今の自分	-11.6627
説得	-11.6629
破綻	-11.663
ビニール	-11.6631
煩	-11.6633
ラウンド	-11.6637
インスタ	-11.6638
基金	-11.6638
人もいるかもしれません	-11.6639
唱え	-11.6643
資格取得	-11.6644
屋敷	-11.6644
安易に	-11.6649
億ドル	-11.6652
漠然と	-11.6652
運んで	-11.6654
灰	-11.6655
楽しんだ	-11.6655
美容院	-11.6655
はたくさんあります	-11.6655
独占	-11.6656
に入ら	-11.6656
声を掛け	-11.6656
孝	-11.6657
澄	-11.6663
ガチャ	-11.6664
qu	-11.6668
アトピー	-11.6668
あっさり	-11.667
金銭的	-11.6671
ユダヤ人	-11.6671
と答えた	-11.6673
に突入	-11.6676
考えてみましょう	-11.6677
保険に加入	-11.6682
Excel	-11.6683
引き受け	-11.6683
ことが多いのです	-11.6683
みることにしました	-11.6685
サービスの提供	-11.6688
申し込んで	-11.6694
横断	-11.6696
を更新しました	-11.67
謳	-11.6701
滞納	-11.6702
食事制限	-11.6704
エジプト	-11.6704
銀行口座	-11.6705
不能	-11.6708
3～4	-11.6709
につれ	-11.6712
app	-11.6712
こともあった	-11.6712
(^^)	-11.6716
ことが分かりました	-11.6716
遥	-11.6717
Java	-11.6719
ペニス	-11.6721
といわれている	-11.6728
イルミネーション	-11.6729
お年寄り	-11.6729
プロフェッショナル	-11.673
多様化	-11.673
姓	-11.6734
その中から	-11.6735
やるべきこと	-11.6737
炭酸	-11.6738
補正	-11.6739
•	-11.6741
来てくれる	-11.6744
警察官	-11.6746
と思い込んで	-11.6748
を助ける	-11.6748
見つけられ	-11.6748
効果が期待できる	-11.6749
浴衣	-11.6751
理解を深め	-11.6752
が続きます	-11.6753
助成金	-11.6753
ように心がけ	-11.6756
がんばり	-11.6757
ja	-11.6757
弦	-11.6758
黒ずみ	-11.6759
っぽく	-11.676
々しく	-11.6762
未知	-11.6763
土曜	-11.6765
ミュージシャン	-11.6765
唇	-11.6767
栃木県	-11.677
を組む	-11.677
に移動し	-11.6773
を受けることができます	-11.6775
が運営する	-11.678
糖質制限	-11.678
大学受験	-11.678
鉢	-11.6781
に夢中	-11.6784
求められている	-11.6785
プロデューサー	-11.6785
描かれた	-11.6787
インスタグラム	-11.679
大きくなり	-11.6791
只	-11.6791
遠慮なく	-11.6792
得られない	-11.6793
を眺めて	-11.6796
知られていない	-11.6799
ブライダル	-11.6803
坪	-11.6804
に囲まれて	-11.6804
お医者さん	-11.6805
歪み	-11.6806
立ち読み	-11.6809
シンボル	-11.681
爽	-11.6812
クリエイター	-11.6812
歯医者	-11.6812
学生の頃	-11.6812
拘	-11.6812
景観	-11.6814
お洒落	-11.6816
位置づけ	-11.6817
こと間違いなし	-11.6821
気付く	-11.6822
を防止する	-11.6823
倒産	-11.6826
意味がありません	-11.6827
万人以上	-11.6827
クリーン	-11.6828
つながっている	-11.6829
経路	-11.6831
落ち込んで	-11.6832
趣	-11.6834
を促進する	-11.6834
を尊重し	-11.6837
摘	-11.6841
ことがわかった	-11.6842
Instagram	-11.6849
ウェル	-11.685
歯医者さん	-11.6853
ray	-11.6854
ちゃいけない	-11.6856
ダイニング	-11.6858
試してみて	-11.6859
が増加し	-11.6861
境内	-11.6864
走った	-11.6865
増えていく	-11.6866
.....	-11.6867
私ども	-11.6869
意味合い	-11.6871
置いてある	-11.6872
記事を読んで	-11.6875
ジュエリー	-11.6875
工芸	-11.6876
ショウ	-11.6884
照射	-11.6888
を選びましょう	-11.6889
引き寄せ	-11.6891
岡山県	-11.6894
食べ過ぎ	-11.6897
アウトドア	-11.6899
良質な	-11.69
蕎麦	-11.6901
分からず	-11.6904
イヤホン	-11.6906
宝石	-11.6914
純粋に	-11.6916
あけ	-11.6919
置かれている	-11.6919
乃木坂	-11.692
漏洩	-11.692
愚痴	-11.6922
意見交換	-11.6925
先祖	-11.6926
普段の生活	-11.6927
浄化	-11.6935
柏	-11.6935
^^;	-11.6938
貰い	-11.6938
なくなってしまいました	-11.6939
に戻った	-11.6948
口腔	-11.695
フィードバック	-11.695
政党	-11.6952
被保険者	-11.6955
ハードウェア	-11.696
ワールドカップ	-11.6967
撤	-11.6967
port	-11.6967
優先順位	-11.6968
昆	-11.6968
プラザ	-11.697
クラフト	-11.6974
濃く	-11.6975
との相性	-11.6975
格段に	-11.6977
痒	-11.6977
木材	-11.6978
ハードディスク	-11.6979
介入	-11.6983
特例	-11.6983
備わってい	-11.6987
会議室	-11.6988
は無料です	-11.6989
搭乗	-11.6996
ウッド	-11.6997
くれません	-11.6997
浜松	-11.7003
コスプレ	-11.7006
まともに	-11.7008
重複	-11.7009
文献	-11.7009
加藤	-11.7013
投資信託	-11.7017
CSS	-11.702
題材	-11.7021
鬱	-11.7024
ファーム	-11.7025
お待たせ	-11.7027
債務者	-11.7029
親友	-11.703
▁そういう意味で	-11.7036
をご紹介いたします	-11.7037
くれぐれも	-11.704
を説明し	-11.7044
盗難	-11.7047
覗	-11.7048
出て来	-11.705
を募集しています	-11.7053
戸籍	-11.7055
働きかけ	-11.7058
させようと	-11.7058
やったこと	-11.706
芳	-11.7062
要領	-11.7069
コラボレーション	-11.707
スタッフの方	-11.707
思わぬ	-11.7074
旋	-11.7074
とも言われています	-11.7077
専攻	-11.7079
そんな風に	-11.708
限度	-11.7084
ギリシャ	-11.7084
を意識する	-11.7085
励まし	-11.7085
ことが分かります	-11.709
をお探しの方	-11.7092
北京	-11.7092
振り込み	-11.7093
∀	-11.7094
モーニング	-11.7094
就寝	-11.7099
詰まった	-11.7099
あらすじ	-11.7107
フランス語	-11.7112
蹴	-11.7121
いただきありがとうございました	-11.7121
アリス	-11.7124
個人輸入	-11.7132
歩んで	-11.7136
生徒たち	-11.7138
頬	-11.7139
教育委員会	-11.7141
に着いた	-11.7141
拍手	-11.7142
セラピー	-11.7142
受け付けております	-11.7144
もらえれば	-11.7146
の確率で	-11.7151
健診	-11.7152
包括	-11.7153
失業	-11.7158
楽天市場	-11.7159
声が聞こえ	-11.7159
痛みを感じ	-11.7162
ファンデーション	-11.7164
換金	-11.7165
気をつけましょう	-11.7165
毎朝	-11.7167
というふうに	-11.7168
標高	-11.717
シンポジウム	-11.7171
使わせて	-11.7175
ネット通販	-11.7177
オープニング	-11.7183
墨	-11.7184
油断	-11.7184
遊べる	-11.719
みるのもいい	-11.7191
誰しも	-11.7196
マジック	-11.7198
を有し	-11.7201
もらいましょう	-11.7203
スケート	-11.7205
壮	-11.7205
いっしょに	-11.7206
ご確認下さい	-11.7206
婚姻	-11.7209
クリエイティブ	-11.7209
笠	-11.7209
極端な	-11.7215
経理	-11.7215
クッション	-11.7216
無料アニメ動画	-11.7217
混んで	-11.7219
必然的に	-11.7222
ビリティ	-11.7223
プレゼンテーション	-11.7223
速報	-11.7224
RPG	-11.7226
しまわない	-11.7228
リピート	-11.7234
伐	-11.7234
定休日	-11.7234
容疑	-11.7239
にとらわれ	-11.724
探偵事務所	-11.7242
今更	-11.7243
齢	-11.7245
花粉	-11.7246
安倍首相	-11.7247
シェフ	-11.7249
6000	-11.725
逆転	-11.725
惚	-11.7253
借金返済	-11.7253
気を配	-11.7257
骨折	-11.7257
ヒュー	-11.7257
繊維	-11.7258
楽しむことができる	-11.726
を掲載しました	-11.7261
改訂	-11.7261
▁当社では	-11.7262
遠隔	-11.7262
オーディション	-11.7264
に指定され	-11.7266
行えます	-11.7266
iTunes	-11.7271
かゆみ	-11.7271
決議	-11.7272
ループ	-11.7273
支障	-11.7276
ジャニーズ	-11.7282
に専念	-11.7283
0°	-11.7288
堺	-11.7294
いわば	-11.7296
斉	-11.7297
的確に	-11.7297
読み放題	-11.7301
専門知識	-11.7303
レジャー	-11.7304
とりわけ	-11.7304
atch	-11.7308
明るさ	-11.7312
己	-11.7313
蜂	-11.7315
既存	-11.7322
基礎代謝	-11.7326
ヒーリング	-11.7327
稼げ	-11.7327
文庫	-11.7327
許容	-11.7329
身につけて	-11.733
セフレ募集	-11.7331
効果が期待できます	-11.7332
キャップ	-11.7333
ang	-11.7334
を開催いたします	-11.734
口座開設	-11.7345
新陳代謝	-11.7347
涼しく	-11.7349
パイプ	-11.7351
アナログ	-11.7351
とうとう	-11.7351
が確認され	-11.7356
放射能	-11.7356
祝福	-11.7358
作られています	-11.7358
正当な	-11.7359
頼まれ	-11.7359
僕自身	-11.7361
折り返し	-11.7372
振動	-11.7375
経由	-11.7376
原発事故	-11.7377
Japan	-11.7377
ダイヤル	-11.7381
起業家	-11.7384
擬	-11.7387
ダメージを与え	-11.7389
マイホーム	-11.739
転勤	-11.739
予めご了承下さい	-11.7391
洗剤	-11.7393
儲	-11.7395
鹿児島県	-11.7395
理事長	-11.7396
フォーカス	-11.7397
こともありません	-11.74
解像度	-11.7404
®	-11.7404
多忙	-11.7405
わけにはいかない	-11.7405
70%	-11.7406
プラチナ	-11.7406
レギュラー	-11.7406
帰省	-11.7407
免責	-11.7409
著しく	-11.7409
プリンター	-11.7409
還元率	-11.7409
水分補給	-11.7411
しようと思った	-11.7412
包装	-11.7412
ランダム	-11.7413
想像以上に	-11.7415
班	-11.7416
二人とも	-11.7416
able	-11.7418
いい加減	-11.7421
外国語	-11.7424
慎重	-11.7425
ぉ	-11.743
厳密に	-11.7431
うれしく	-11.7434
廊下	-11.7434
ご利用いただく	-11.7435
リターン	-11.7436
前向きな	-11.7439
ことは不可能	-11.744
お急ぎ	-11.7449
スクロール	-11.7454
疾	-11.7454
をうけ	-11.7455
神奈川	-11.7456
思春期	-11.7456
卸	-11.7457
貴重	-11.7463
Word	-11.7464
終える	-11.7467
眉	-11.7467
資格を取得	-11.747
羨	-11.7474
を見直す	-11.7474
づらく	-11.7474
懇	-11.7477
碑	-11.7482
が改善され	-11.7483
脆弱性	-11.7484
ホットヨガ	-11.7486
過失	-11.7486
戯	-11.7487
を築く	-11.7494
JavaScript	-11.7495
を作ら	-11.7496
α	-11.7498
親しまれ	-11.75
発掘	-11.7504
もおかしくない	-11.7506
と聞きます	-11.7507
不安を感じ	-11.751
浮かべ	-11.751
\\	-11.7511
フェイス	-11.7512
ターンオーバー	-11.7514
の持ち主	-11.7518
腫瘍	-11.7519
道の駅	-11.7526
いただけません	-11.7527
修繕	-11.7529
まとまった	-11.753
押し付け	-11.7536
丈夫	-11.754
ご迷惑をおかけし	-11.7541
頑張った	-11.7543
濃厚	-11.7543
を除き	-11.7544
チキン	-11.7546
抱っこ	-11.7551
腎臓	-11.7552
お悩みの方	-11.7554
広大な	-11.7555
髄	-11.7558
を伸ばして	-11.7559
end	-11.7559
いまいち	-11.7559
著書	-11.756
正直なところ	-11.7563
ことも大切です	-11.7567
コンセント	-11.7568
あがって	-11.7569
砕	-11.757
フラット	-11.7571
脂質	-11.7573
メカニズム	-11.7578
思いっきり	-11.758
掲示	-11.758
を証明する	-11.7585
錦	-11.7587
工務店	-11.7588
貞	-11.7589
知ることができ	-11.7589
買収	-11.759
貌	-11.7593
を打つ	-11.7595
虎	-11.7597
常連	-11.7601
返金保証	-11.7606
に至って	-11.7613
を思い出す	-11.7616
申し訳	-11.7618
ニュージーランド	-11.7622
カンボジア	-11.7628
から解放され	-11.7629
及ぼ	-11.7636
蘭	-11.765
右クリック	-11.7651
喪失	-11.7651
写真を撮り	-11.7652
Office	-11.7655
税務	-11.7656
行ってみたい	-11.7656
ガンダム	-11.7661
陳	-11.7661
嫉妬	-11.7662
コーティング	-11.7667
共和国	-11.7675
女の人	-11.7677
♡	-11.7678
Chrome	-11.768
書き換え	-11.7682
作ってみました	-11.7684
が成立し	-11.7685
恋活	-11.7689
投与	-11.7692
了解	-11.7693
を明らかにし	-11.7695
離脱	-11.7696
老人ホーム	-11.7699
2.0	-11.7702
開幕	-11.7703
ダイアログ	-11.7703
彫刻	-11.7707
供養	-11.7708
AKB	-11.771
延び	-11.7714
断念	-11.7714
検察	-11.7715
TBS	-11.7716
を抱く	-11.772
を指定して	-11.7721
忌	-11.7744
勧	-11.7747
吾	-11.7776
痺	-11.7804
籠	-11.7804
凡	-11.782
揚	-11.7833
睡	-11.7872
輩	-11.7874
晒	-11.7874
腫	-11.7875
叔	-11.788
頻	-11.7911
伯	-11.7916
銘	-11.7918
恨	-11.7939
畜	-11.795
瓦	-11.7952
棲	-11.7971
柴	-11.7993
筑	-11.8002
験	-11.8009
渋	-11.8015
佳	-11.8037
綾	-11.8037
候	-11.804
崇	-11.8052
昨	-11.8057
拳	-11.8061
憂	-11.807
呆	-11.8089
汰	-11.8099
央	-11.8121
胡	-11.8122
昌	-11.8123
耕	-11.814
▽	-11.8149
享	-11.8153
依	-11.8162
卑	-11.8177
ぃ	-11.8192
猿	-11.8196
慈	-11.822
囚	-11.8272
芯	-11.8318
歪	-11.8347
瞳	-11.8379
愉	-11.8421
穏	-11.8435
翔	-11.8439
避	-11.8469
壌	-11.8475
貝	-11.8489
唱	-11.8492
揉	-11.8508
盆	-11.8524
以	-11.8539
腎	-11.8569
径	-11.8627
桐	-11.8638
痴	-11.8647
嗜	-11.8651
慎	-11.8666
釜	-11.8682
捻	-11.8691
痕	-11.8697
賊	-11.8738
煎	-11.8771
筒	-11.8787
吊	-11.8836
凍	-11.885
侵	-11.8873
詣	-11.8875
筈	-11.8942
朱	-11.8968
幽	-11.9002
閑	-11.9037
虹	-11.9065
箸	-11.9086
盲	-11.9087
迄	-11.9108
啓	-11.9149
呑	-11.9166
穀	-11.9168
ォ	-11.9183
渇	-11.9228
芋	-11.9241
嶋	-11.9256
亭	-11.9276
賜	-11.9333
牡	-11.9334
煽	-11.935
融	-11.9357
且	-11.9366
憶	-11.9369
俊	-11.9387
槽	-11.9396
蝶	-11.9412
畿	-11.9413
諭	-11.9422
▲	-11.9439
凹	-11.945
准	-11.9475
斗	-11.9477
鐘	-11.9479
◇	-11.9486
惹	-11.9506
脊	-11.9516
慮	-11.9521
醐	-11.9528
醍	-11.9547
炒	-11.9555
拓	-11.9564
蚊	-11.9566
悠	-11.9594
苑	-11.9603
刷	-11.9614
甚	-11.9645
郭	-11.9658
汎	-11.968
茨	-11.968
績	-11.969
庄	-11.9731
喘	-11.9755
昭	-11.9758
狼	-11.9854
弓	-11.9898
箋	-11.9902
複	-12.0024
鋼	-12.0034
掌	-12.0054
訊	-12.0076
舟	-12.0113
琴	-12.0121
鳩	-12.0161
療	-12.0205
篤	-12.0237
〈	-12.0293
△	-12.0295
傑	-12.0295
曽	-12.0325
侶	-12.0326
鷹	-12.0326
汲	-12.0338
撫	-12.0368
午	-12.0387
緊	-12.0409
尺	-12.0413
搬	-12.0428
彫	-12.0435
渓	-12.0452
蒲	-12.0452
篠	-12.0458
猟	-12.0459
拙	-12.0466
浩	-12.0484
嗅	-12.0486
髭	-12.0486
遡	-12.051
喰	-12.0522
或	-12.0534
餃	-12.0554
於	-12.0566
蛍	-12.0602
婆	-12.0603
薪	-12.0609
批	-12.0611
駄	-12.0633
□	-12.0636
〉	-12.0652
恒	-12.0684
貯	-12.0763
ぅ	-12.0795
罹	-12.0808
️	-12.0814
雀	-12.085
鴨	-12.0853
艶	-12.0885
痩	-12.0889
■	-12.0937
廻	-12.1034
瑞	-12.104
辱	-12.1092
斑	-12.1097
獄	-12.1102
泰	-12.1115
漠	-12.112
隈	-12.1124
看	-12.1139
慢	-12.1145
宰	-12.1167
哲	-12.1168
祐	-12.1211
慨	-12.1229
柿	-12.1251
辿	-12.1252
紳	-12.1266
桑	-12.1266
圭	-12.1295
弄	-12.1304
[...]
